#version: 0.2
Ġ t
Ġ a
h e
i n
r e
Ġt he
o n
e r
Ġ s
Ġ w
a t
Ġ o
e n
Ġ c
i t
i s
a n
o r
Ġ b
e s
e d
Ġ f
in g
Ġ p
o u
Ġa n
Ġt o
a l
a r
Ġ m
Ġ in
Ġo f
Ġ h
Ġ d
â Ģ
a s
Ġan d
i c
Ġt h
l e
o m
i on
l l
en t
Ġ n
Ġ l
Ġ re
s t
v e
Ġ e
l y
Ġb e
r o
Ġ g
i d
u t
a c
o t
Ġ T
Ġ I
Ġth at
Ġ on
a y
Ġ is
Ġ S
i m
e t
a m
a d
o w
s e
Ġf or
i g
âĢ Ļ
Ġ A
v er
c t
l d
u r
Ġ C
Ġ u
Ġs t
Ġ y
Ġ it
Ġ he
i r
at ion
it h
Ġw h
Ġ M
c e
t er
Ġw e
o l
i l
Ġw ith
Ġa s
Ġ B
c h
i ll
n d
Ġw as
Ġ P
Ġy ou
er s
k e
Ġ âĢ
Ġc on
Ġd e
Ġ r
he r
i f
at e
Ġa t
a g
Ġh a
Ġ W
Ġs e
Ġ H
o re
Ġp ro
u l
p p
m ent
Ġa re
r i
Ġ D
Ġ 1
es t
u s
Ġc om
is t
an d
Ġ R
o p
a in
ĠT he
Ġ 2
ig h
r om
Ġ (
or t
o d
Ġn e
Ġ F
Ġe x
u m
u n
re s
âĢ Ŀ
a b
Ġn ot
Ġ N
Ġ v
Ġha ve
es s
it y
ou ld
Ġo r
e m
Ġb y
t h
o s
an t
Ġ G
i ve
Ġf rom
Ġa l
' s
e l
Ġs u
ar t
o c
Ġ L
Ġs h
Ġth is
n t
q u
igh t
p e
u st
Ġ le
i es
Ġ E
en d
Ġc h
Ġs a
ou t
Ġa b
T he
al l
i e
ac k
re d
ĠâĢ ľ
Ġh as
al ly
0 0
Ġp l
Ġ J
Ġg o
ar d
Ġh is
om e
i v
g h
o st
a p
e ar
Ġ O
Ġt r
ou r
as t
Ġ j
a k
u d
Ġd o
Ġthe y
Ġb ut
Ġw or
Ġc an
r ou
Ġw ill
g e
Ġsa id
Ġw he
Ġ U
ic h
Ġ k
Ġa ll
o k
Ġ "
Ġwh o
id e
Ġin t
am e
t her
an s
i al
Ġo ut
Ġthe ir
f f
on g
e ct
ic e
p l
u re
p t
on e
Ġm ore
ag e
ion s
ac t
i ke
Ġm e
Ġu p
ou s
Ġa d
in e
Ġab out
at ed
r a
b er
Ġon e
Ġwe re
Ġs o
Ġu s
im e
o g
e p
Ġ K
Ġh ad
a re
i a
u b
c c
Ġw ould
Ġc l
Ġ2 0
Ġ im
Ġwh ich
in d
a ke
u e
Ġcon t
ver y
Ġa g
i z
Ġt e
Ġof f
Ġcom p
Ġbe en
Ġu n
ĠS t
Ġ en
s o
p er
ig n
a u
ĠT h
ar y
ac e
Ġy ear
e w
i p
Ġl ike
e re
v en
Ġin c
o ok
ay s
Ġm an
Ġp e
o se
r y
Ġre s
Ġp er
ab le
it e
as s
Ġs p
or d
Ġo ther
ĠI n
i re
m er
Ġs ome
i le
en ce
op le
i b
Ġ20 1
ation s
k s
Ġo ver
Ġthe re
ic al
res s
Ġd is
ul t
in t
Ġne w
ow n
Ġal so
Ġth an
Ġbe c
Ġa r
Ġthe m
an ce
ou nt
ou gh
r u
Ġa pp
p ort
Ġp art
a il
Ġyou r
Ġwhe n
Ġwh at
re e
or m
Ġpe ople
f ter
on d
Ġs c
Ġ qu
ĠC h
as e
a v
Ġan y
Ġj ust
Ġit s
Ġ Y
Ġt ime
ac h
ĠI t
Ġk n
Ġhe r
Ġ 3
Ġre c
l ic
re at
Ġm y
en s
Ġ if
Ġg et
Ġ V
. âĢĿ
Ġint o
i an
Ġwor k
ou nd
Ġt w
ir st
ve l
ct ion
Ġn o
d u
ing s
or y
Ġo ur
ic k
or s
id ent
it ion
Ġ -
Ġp re
o b
o ve
Ġpl ay
an g
in k
au se
w n
am p
ad e
h ing
at es
it t
ar k
Ġ ro
Ġs he
Ġp ol
ver s
Ġc o
Ġa fter
, âĢĿ
Ġf irst
Ġc ould
Ġh ow
ĠH e
Ġ1 9
n e
i ous
Ġa cc
nd er
i ld
Ġh im
' t
on s
Ġp o
a w
Ġon ly
Ġf e
Ġat t
ic t
he d
Ġp r
Ġtw o
o v
Ġcom m
is h
âĢ ľ
Ġs pe
f orm
Ġa ct
Ġs er
Ġb l
w e
f t
Ġbe t
Ġde c
. "
n ing
t e
Ġb ack
Ġm ost
c es
o od
c k
ĠâĢ ĵ
Ġa m
o y
Ġd id
rou gh
if f
rou nd
at er
Ġag ain
Ġ 4
u al
d ay
Ġu nder
Ġw ant
Ġd es
is e
u ll
se l
Ġcon s
ĠâĢ Ķ
Ġbec ause
r it
Ġn ow
l ud
ent s
Ġyear s
ub lic
ter n
Ġne ed
. .
m an
Ġe ven
e c
Ġ $
Ġin v
is s
Ġkn ow
ĠW e
Ġse e
ment s
Ġad d
c ed
, "
o ld
Ġin d
Ġse c
f ore
Ġe very
u ch
ur n
Ġ 5
Ġsu pp
Ġm ake
pe ct
Ġe m
ĠU n
Ġthe se
oc k
o ll
Ġwhe re
j ect
ver n
ation al
I n
x t
Ġb u
Ġl ook
ĠA nd
Ġd on
T h
os s
Ġe v
Ġw ay
at ing
um p
Ġbe ing
Ġre m
Ġr ight
Ġm ay
i ly
Ġthe n
Ġman y
le ct
ro w
ie w
n g
Ġ [
Ġd iff
Ġde f
as on
Ġre l
Ġc all
ĠB ut
on t
ĠT r
as ed
Ġinc lud
Ġth ink
i ed
ak ing
l es
Ġre g
) .
mer ic
Ġim p
Ġth rough
it ed
ri b
at h
Ġs y
Ġsh ould
Ġs ay
Ġp res
ur ing
Ġf l
Ġl ast
Ġth ose
Ġ very
ow er
e ll
ot her
Ġm uch
it ies
Ġst ate
if ic
ĠTh is
Ġsh ow
Ġb r
at ive
he n
s s
t y
ar g
Ġwe ll
ot h
v ed
Ġc ount
ĠW h
Ġp h
Ġdo es
Ġ2 00
al s
Ġd own
Ġo wn
ar ly
Ġ end
u nd
t ing
Ġas s
Ġu se
Ġbe l
ic s
an ge
Ġl ong
ĠA meric
in ce
ter s
Ġbe fore
om et
Ġm on
Ġgo vern
w ard
g r
Ġst art
Ġre port
ib le
Ġ ke
u es
ĠN ew
u p
t s
Ġf in
Ġte am
Ġm ade
b le
if e
ol og
) ,
Ġsu ch
en er
- -
ou n
re n
ers on
Ġs m
c om
Ġgo ing
l p
il ity
i x
Ġwor ld
f ul
e k
u ally
Ġst ud
âĢ Ķ
Ġgo od
is m
Ġa c
ist s
t ain
I t
Ġe ff
Ġsu b
Ġagain st
Ġs ur
Ġg ame
Ġs et
it s
Ġg u
Ġpo int
or k
Ġ 6
Ġ ent
g an
st em
y s
00 0
ar s
Ġst ill
rou p
i er
Ġwh ile
ill ion
Ġhe lp
Ġle ad
we en
Ġm in
v ing
im es
Ġs ays
Ġo b
al k
e f
Ġpro du
a x
an k
Ġg r
m s
c y
Ġin ter
Ġin st
Ġst r
Ġs im
c ess
sel f
Ġcon f
Ġc ol
Ġt ake
i o
u res
Ġs ame
Ġbet ween
Ġth ough
ar ch
Ġoff ic
oll ow
e ver
Ġdiff ere
Ġc r
Ġpro v
ut ion
us s
Ġdis c
o ol
Ġ ed
Ġo p
Ġh igh
l and
a ir
Ġn um
Ġl aw
Ġs ign
re ad
w ay
Ġgovern ment
n er
l ed
ĠR e
h ip
g g
at ch
am es
he s
an y
Ġs omet
Ġt er
a h
vel op
c ent
Ġre f
Ġtr ans
Ġin s
W e
Ġr un
Ġf ound
Ġth ree
Ġm em
iv es
Ġa round
Ġhe re
at her
a ve
Ġm ed
Ġre al
Ġus ed
e e
Ġ1 0
ou se
Ġex p
Ġsy stem
ce pt
ĠY ou
ĠA r
o ot
Ġre ally
v es
Ġm od
Ġg roup
Ġsupp ort
c er
a z
ĠA l
c i
Ġc our
c on
Ġ 7
et s
Ġre t
Ġh and
al e
Ġp ublic
Ġspe c
in s
y ing
Ġg reat
Ġs l
en se
p r
Ġc ar
Ġex t
. [
ire ct
Ġc ur
Ġf am
ĠC om
al th
Ġha pp
Ġf act
Ġex per
t on
ĠThe y
ĠTr ump
Ġw om
Ġf r
ĠI s
Ġc ap
Ġb oth
Ġd ay
Ġf ind
Ġre ad
ul ar
p h
Ġd et
in es
ic es
Ġre p
ut h
o h
Ġd uring
ĠC l
e red
ĠA s
ĠS h
Ġmon th
Ġde velop
Ġc re
Ġ 0
Ġb ig
is ion
i vers
m in
Ġp erson
Ġf ollow
ak es
Ġ 8
e x
Ġis s
Ġto ld
t he
Ġs ince
a red
Ġwe ek
ic ally
m ed
ag es
Ġf ew
Ġw ar
ord ing
ort h
Ġc ent
Ġle g
Ġpol it
g et
Ġex pl
a j
ĠL e
Ġl ot
as h
Ġbel ie
Ġg ener
Ġto o
r ic
Ġo pp
d er
re nt
Ġ 9
Ġre qu
Ġcont in
Ġpro t
W h
at a
b ers
an c
i et
Ġf il
ent ion
Ġc le
Ġres p
Ġp ut
ĠI f
iz ed
Ġan other
n ess
ch ool
Ġin f
Ġsomet hing
Ġdiffere nt
Ġc or
Ġl oc
Ġinv est
Ġs oc
ut e
Ġp ower
at t
ĠD e
Ġc he
Ġ '
Ġcomm un
Ġp ass
Ġl ife
2 0
Ġpl an
ĠF r
u c
Ġre le
Ġhe ad
Ġth ings
i ence
od y
Ġf ar
Ġar t
n ed
Ġp oss
th ing
Ġm et
ar l
t t
ere st
Ġc amp
Ġv ot
ar ge
ro ss
Ġb o
Ġch ild
Th is
Ġas k
Ġm ight
Ġ .
v iew
Ġe ach
ant s
Ġde p
in ess
Ġne ver
iz e
i ent
Ġne xt
Ġsec ond
Ġm ark
Ġqu est
Ġb us
Ġad v
ie ld
Ġde m
Ġcom e
ĠF or
Ġg ot
ĠA n
i k
ĠâĢ ĺ
Ġop en
ĠS e
Ġb est
Ġall ow
it al
ĠTh at
itt le
Ġse em
Ġp ost
n ce
Ġfe el
p le
ĠU S
ĠP ro
Ġp ri
gr am
Ġper cent
Ġh ome
c l
Ġd ist
Ġd irect
r at
u g
i red
Ġinc re
Ġw r
Ġcont ro
ĠR ep
t en
er v
s on
os ed
l ess
or n
Ġres ult
Ġh ard
Ġc are
Ġm illion
ate ly
Ġcomp le
Ġpl ace
Ġwith out
Ġin form
ch n
Ġinclud ing
Ġim port
Ġa v
con om
re t
Ġh um
Ġpro ble
Ġ ide
Ġbu ild
Ġto p
Ġnum ber
Ġcount ry
am a
one y
a im
g y
ĠB l
Ġg l
ab ly
r al
Ġst and
Ġf our
Ġe l
is hed
ri end
u ro
w ays
Ġpart ic
Ġbet ter
Ġt ri
Ġrec ent
B ut
Ġint erest
Ġm ov
Ġle t
c o
r ation
Ġse ason
Ġl ess
Ġt urn
e ad
Ġl ittle
Ġbe h
Ġm il
Ġapp ro
Ġb ro
r act
Ġcall ed
is ed
l ine
Ġc ase
Ġd r
Ġle ft
a pp
Ġre st
ĠI nd
Ġp op
Ġan n
Ġm ove
en cy
Ġatt ack
ĠThe re
Ġke ep
l ing
od e
Ġf ull
in a
le g
Ġdid n
Ġser v
er ing
Ġm ain
Ġf un
Ġ Z
aj or
Ġeff ect
1 0
in al
Ġpre v
Ġpro gram
Ġus ing
Ġt est
Ġp ay
at ure
Ġv al
re m
Ġpol ice
t ed
Ġfor m
Ġe conom
Ġd ata
Ġnew s
Ġp os
b e
Ġw in
ĠAmeric an
Ġle vel
iv ing
ain s
Ġch ar
Ġsm all
ĠS o
read y
in ed
Ġs chool
Ġl ist
u ck
H e
olog y
id ed
' re
_ _
pl oy
Ġe as
Ġpro cess
Ġch ange
g er
ir d
Ġwom en
Ġcur rent
Ġre ce
Ġh ist
Ġp rom
Ġd ri
Ġ =
Ġpres ident
Ġcomp any
t o
re en
i ans
us ed
Ġal ready
ru ct
ĠUn ited
i ver
oh n
Ġwh y
Ġt y
Ġb re
Ġu nt
Ġm oney
Ġm at
Ġal ways
Ġl ater
Ġex pect
Ġte chn
Ġs ol
Ġbus iness
Ġoffic ial
ĠH ow
r ap
ivers ity
Ġb ook
w it
ĠO b
st and
Ġth ing
a ign
Ġcl ass
ĠP h
Ġpro ject
Ġcl aim
Ġj ob
as es
Ġinform ation
Ġ Q
Ġor gan
Ġt alk
ĠS he
Ġdes ign
ard s
a ff
Ġst ory
Ġch ang
Ġm ajor
Ġab le
Ġpro f
Ġ- -
le ction
er tain
Ġre se
Ġhe alth
iv en
Ġv is
.. .
Ġp ast
r on
Ġf ree
Ġo per
ou th
ur s
he re
ĠA d
pt ion
Ġa way
i or
ĠC an
Ġm ust
Ġc ity
ĠB e
amp le
Ġhapp en
uth or
ur al
Ġimport ant
Ġ1 8
Ġk ill
ur ity
ac y
Ġo ld
Ġ est
u red
Ġs k
Ġdoes n
ur y
end ing
Ġle ast
Ġp at
iss ion
Ġg row
ĠG o
Ġed it
ain ed
Ġv ar
s c
Ġc ost
Ġd ays
ne y
Ġte ll
id es
Ġh op
Ġcamp aign
id er
Ġst re
Ġc ame
s ide
Ġm en
Ġa ff
Ġcon st
Ġ1 2
o x
el s
res ident
Ġen ough
Ġv iew
r ist
ot t
Ġk ind
cc ess
Ġm aking
Ġl arge
Ġrec ord
ĠS p
o ad
Ġfam ily
Ġf riend
er n
Ġm ar
Ġe lect
Ġpol ic
le y
er al
us h
Ġs it
Ġ1 5
S t
Ġt ax
âĢ ¦
pp ed
is ing
al ity
iv ed
if ied
Ġunt il
are nt
Ġpolit ical
Ġde al
Ġv ide
ion al
r or
at or
A s
b y
ri es
Ġwork ing
al f
au gh
ĠRep ublic
Ġ ve
u ed
ĠM ar
Ġto ok
Ġde b
Ġl ine
ap s
I f
ĠJ ohn
ĠCom m
is ter
ain ing
b s
Ġa ir
Ġin tern
Ġf ore
Ġ es
Ġde l
Ġbec ome
Ġact ually
oc rat
i ol
Ġme an
Ġf und
on y
em ber
w are
an e
w ork
Ġfor mer
Ġof ten
ĠS c
ĠP l
ĠE uro
Ġw on
Ġg ive
Ġacc ording
Ġe ver
m ost
y ear
o int
ar ing
Ġg ames
Ġhum an
en g
Ġwor d
Ġb as
i qu
is on
an n
Ġret urn
w h
Ġt imes
Ġor der
ĠR uss
Ġn ame
iz ation
1 9
ĠD em
Ġse ver
g in
ĠA ll
Ġde v
ic le
it her
ut ure
Ġ19 9
i ber
Ġb it
Ġs ing
Ġper form
ra ft
ĠM c
Ġmark et
Ġchar ac
Ġf ac
ĠA t
The re
ĠC on
ĠS y
Ġdo ing
id d
ĠO r
ĠM ay
Ġapp ear
f or
Ġr a
Ġplay ers
c hed
Ġn ight
Ġle ar
Ġl a
ak en
m ber
Ġto day
Ġe arly
Ġse en
Ġha ving
Ġchild ren
Ġ ,
Ġp ot
-- --
Ġev ent
Ġmed ia
ro p
Ġsoc ial
Ġc rit
ĠP resident
at s
Ġwhe ther
i am
Ġsever al
Ġcontro l
/ /
id ence
Ġme et
Ġmil it
Ġw ent
Ġp ress
1 1
art ment
Ġf ive
Ġyou ng
Ġsu re
or ies
Ġpro p
ious ly
5 0
Ġe qu
Ġquest ion
i um
Ġo cc
Ġlike ly
Ġmem bers
en e
Ġc ertain
and s
le t
Ġen g
un e
Ġw ater
ĠY ork
Ġex ample
E R
Ġs ide
Ġd one
ot s
Ġar g
ĠC ol
Ġ vers
Ġan t
Ġinv ol
ĠM r
ĠSt ates
ĠEuro pe
b r
Ġal ong
end ed
Ġsh ort
Ġsu ccess
Ġmonth s
ver t
ent ial
en n
Ġh our
i ally
Ġ1 1
s h
b all
Ġse x
ĠB r
Ġwith in
em pt
A nd
Ġdes c
l f
ub l
Ġcour se
Ġf ight
im ate
Ġam ong
Ġact iv
ur ch
Ġon ce
ag ue
Ġf uture
Ġinvest ig
st er
Ġposs ible
ĠOb ama
ul ation
Ġch o
Ġunder stand
Ġcon cer
it ing
u ff
Ġ ]
n ect
ĠO n
ort un
re w
Ġproble m
Ġme ans
Ġpri v
Ġv iol
on es
Ġa uthor
gg est
it ive
ĠN o
Ġav ail
âĢ ĵ
oc i
Ġkn own
Ġprodu ct
our n
iv id
Ġthough t
Ġy et
Ġac ross
Ġprot ect
Ġn on
Ġloc al
g ress
Ġh old
Ġf ail
Ġw rit
ĠW hen
ĠSt ate
Ġcommun ity
Ġre ason
Ġor ig
ĠT e
m y
Ġsu ggest
al d
Ġ &
Ġm akes
ver age
in c
Ġ201 6
l er
Ġask ed
p or
ed eral
Ġreport ed
n ot
b ook
Ġg iven
b ack
ens ive
ag ed
Y ou
Ġ i
or ld
Ġstr ong
Ġpro b
ar m
Ġother s
Ġm us
Ġbelie ve
Ġvide o
Ġb en
Ġget ting
ĠH ouse
Ġann oun
an ces
Ġl ight
ĠUn iversity
ore d
o ber
le ment
Ġ3 0
Ġ ident
it ions
Ġc ut
Ġs ent
Ġl im
ir on
Ġc a
ĠC o
ĠCh rist
1 2
iet y
ur ther
Ġs our
Ġc reat
Ġcon d
' ve
Ġn et
as hing
Ġn ational
. ,
Ġcl ose
re st
Ġstart ed
Ġsa f
Ġde ath
Ġavail able
Ġ X
Ġh ig
Ġb ased
Ġiss ue
Ġind ust
ĠDem ocrat
as ter
Ġl ow
Ġfollow ing
Ġacc ount
ĠM in
Ġl and
res ent
Ġp ar
Ġem ploy
Ġl ove
F or
ĠC ent
Ġ201 5
Ġhist ory
Ġag o
sel ves
Ġ #
ĠA m
Ġm om
ort s
3 0
Ġpart y
u se
Ġser ies
Ġcom es
Ġtr ying
Ġal most
u ly
ab ility
ut es
get her
Ġto gether
in ation
ĠAmeric a
u ment
Ġide a
Ġacc ess
Ġf oc
ie f
il ar
ĠF l
her s
e b
re ed
ail s
Ġis n
ition al
ĠS en
o f
Ġcle ar
ĠO ne
Ġtr ad
th ough
ĠWh at
Ġ1 6
Ġpr act
Ġadd ed
Ġimp ro
Ġexper ience
Ġfil m
ere nce
Ġh alf
ro du
r ing
ust om
g ed
wit ter
r ict
re am
Ġan al
ĠB ro
Ġ201 4
int on
Ġr ul
Ġlook ing
ivid ual
Ġs ix
Ġl ive
un ch
Ġany thing
A T
i en
Ġare a
og rap
Ġcomple te
min ist
Ġm iss
er man
ra el
Ġf av
Ġr is
Ġpres ent
ĠE x
n es
ĠP r
Ġsay ing
ru g
ĠCan ad
Ġv ict
ci ally
ot e
a f
Ġb ad
Ġt aken
u ge
a id
Ġent ire
ra w
1 5
Ġb ill
Ġcomp et
ow s
Ġph ot
at ors
Ġbeh ind
ĠE ng
Ġm or
' m
Ġcour t
ĠT o
er t
Ġtr y
Ġmilit ary
Ġne ar
Ġa ut
Ġf ace
Ġsec urity
Wh at
ward s
Ġm ult
os p
a i
Ġ er
ĠP ol
pl ay
Ġpro per
Ġ1 4
Ġdisc uss
Ġth reat
Ġstud y
Ġto t
Ġsing le
Ġr ather
Ġind ividual
ĠA f
Ġqu ick
Ġ Â
Ġ z
s y
ĠD on
Ġm ind
Ġp ubl
ĠS ec
e v
ĠN orth
tt p
Ġpolic y
Ġm ess
al es
ap er
Ġwant ed
Ġf all
Ġbl ack
at ic
ĠW ar
Ġf ood
Ġsome one
ir c
Ġs um
ll ing
r is
Ġc ult
Ġspec ial
Ġcom b
Ġke y
A n
Ġplay er
Ġ |
Ġ /
Ġre du
Ġbr ing
ĠM an
id s
Ġcomp an
o ff
O n
ĠG r
p ar
p ly
I N
Ġatt empt
Ġ1 7
Ġ1 3
ĠD ep
ĠB rit
ĠN ational
Ġt aking
ĠC ar
W hen
Ġpre t
Ġ :
ro te
v iron
Ġf oot
ol ution
if y
: //
Ġel se
ĠC al
Ġb ody
ĠB ar
Ġsp ace
Ġfr ont
Ġprob ably
ic ult
. )
Ġnot hing
Ġc ou
d d
ĠI m
ashing ton
el t
Ġs w
Ġcon nect
Ġrese arch
ĠW orld
ĠCl inton
o ver
ĠC ity
c hes
Ġcom ing
m ing
Ġpoint s
ĠIs rael
Ġhow ever
am ed
Ġdesc rib
Ġj o
Ġsign ific
Ġsim ilar
Ġe ar
* *
rem e
Ġben ef
c ing
Ġdec ision
ĠA ust
Ġe ither
Ġim m
Ġc oun
Ġm ass
ac es
Ġt arg
Ġs us
Ġfe at
g o
a ult
ull y
Th at
Ġex ist
Ġcon v
S o
Ġ201 3
Ġen c
ir l
O N
Ġh it
Ġright s
Ġserv ice
as ing
Ġf ire
Ġw rote
ĠH ar
Ġf urther
Ġd oc
y n
Ġh ouse
an a
Ġch all
Ġth ird
Ġf ig
Ġb an
Ġw a
Ġst op
Ġcre ate
ĠS u
Ġf ield
s w
Ġp ick
w w
ive ly
1 6
Ġme as
m b
Ġre pl
Ġcom pl
Ġiss ues
ĠW ith
Ġbe gin
Ġst ep
pp ing
p ro
a pe
n ow
Ġd am
Ġwho le
Ġrel ations
ri ed
Ġseem s
ent ly
Ġsu per
R E
Ġcompan ies
Ġ )
pe cially
Ġd ue
Ġex ec
Ġevery thing
Ġc and
1 4
itt ed
Ġf ederal
e al
Ġst ates
Ġro om
Ġe y
un g
Ġtr a
Ġw atch
Ġc ustom
Ġlead ers
ĠHow ever
p ite
ĠW ashington
u ation
ĠG u
ĠJ an
att le
Ġro le
Ġse lf
I S
a ul
ĠG e
Ġs ound
Ġl ab
Ġofficial s
Ġst ri
iv il
Ġ201 2
Ġinf l
il t
Ġrele ased
id ay
Ġt re
ib ility
o on
Ġbe gan
ĠIn st
ĠD av
ĠS outh
ĠA pp
Ġo pt
r an
Ġstud ents
Ġt reat
am er
ob al
Ġfin al
he ad
Ġcharac ter
Ġpos ition
Ġmat ter
Ġen er
Ġout side
Ġd ou
Ġdevelop ment
Ġhim self
Ġstate ment
viron ment
arl ier
end er
Ġ201 7
Ġab ove
ad es
Ġbre ak
Ġst at
Ġam ount
Ġin it
Ġprov ide
Ġ1 00
er y
se c
Ġhour s
l ike
Ġit self
Ġthem selves
Ġoff ice
Ġrep resent
l im
Ġa ction
Ġbec ame
Ġ19 8
ĠP art
Ġcontin ue
Ġgener al
Ġcount ries
A N
ĠIn tern
i od
Ġadd ress
Ġne g
Ġg un
ac ed
Ġtr ue
Ġ2 5
Ġspec ific
C h
Ġl arg
Ġsignific ant
Ġsim ply
1 3
ar ter
l ish
ograp h
Ġwas n
' ll
ĠA ss
um b
ĠR es
as k
Ġinter view
ace book
Ġg round
Ġdiff icult
Ġr ad
og n
Ġrun ning
Ġev idence
ĠJ ust
Ġad minist
o id
Ġc op
Ġd rug
Ġvers ion
il i
og le
Ġag ree
Ġb ar
Ġbuild ing
ĠE d
ĠCh ina
idd le
Ġneed s
Ġprof ess
re g
Ġgroup s
e ks
Ġty p
B C
Ġresp ons
Ġshow s
Ġcomm on
ang u
Ġevery one
Ġd om
l am
Ġneed ed
r ight
Ġd est
Ġb all
Ġwom an
ĠG erman
Ġl at
Ġbel ow
Ġmus ic
Ġt em
Ġrele ase
Ġex c
ourn al
Ġin j
Ġpret ty
Ã ©
rib ut
ĠM ed
if t
Ġinclud e
Ġsa w
Ġde ep
ĠA b
Ġplay ed
b ody
Ġqu ite
Ġa p
Ġindust ry
Ġch arg
Ġener gy
om m
Ġplay ing
Ġm ot
Ġcand id
Ġ5 0
Ġm ag
Ġs ense
s er
Ġph ys
Ġl ate
Ġal leg
Ġwh ite
ĠH is
Ġfriend s
Ġleg al
Ġg en
iv al
Ġan im
ĠA fter
at ur
1 7
H ow
Ġinst ead
Ġab s
w here
Ġb illion
Ġl ost
Ġes pecially
y le
Ġre d
iqu e
Ġval ue
le v
ĠW est
ĠM us
Ġh ost
os ing
or ing
Ġh om
is c
Ġp le
ĠNew s
Ġwe eks
ĠN ot
b o
cc ording
ep end
Ġfor ward
ist ic
Ġdet er
Ġe lection
Ġrecent ly
ag er
e g
Ġj ud
Ġtr ack
Ġvot e
Ġsu ff
ir t
ĠT witter
Ġob ject
Ġchang es
Ġper iod
med i
Ġopp ortun
t ime
A R
ĠO ct
ĠWh ite
Ġlong er
Ġl o
Ġp ain
Ġso on
Ġs ite
Ġe p
Ġ {
Ġac cept
1 8
ac hed
ĠC ong
e ed
o ke
A S
Ġeconom ic
Ġsh oot
Ġhop e
h od
ri pt
ar c
ir m
itt ing
Ġmom ent
Ġdec l
Ġcons um
Ġp ie
ĠW ill
le ge
Ġche ck
ight s
Ġt it
ent al
Ġpot ential
ĠM arch
Ġwr ong
Ġbl ock
ĠSe pt
ĠDep artment
Ġhig her
Ġc red
n ers
Ġon line
Ġfoc us
Ġcons ider
on se
Ġed uc
anc ial
i j
Ġ2 4
Ġwor ks
Ġrel ig
id ing
l t
Ġp arent
Ġsh are
Ġc irc
Ġhe ld
o e
ĠM y
c ial
Ġw alk
o le
Ġp red
Ġwe bs
Ġl ed
ul arly
op h
Ġre ve
ĠD r
Ġst ay
ĠThe se
ove red
Ġst ru
Ġgo al
e es
ĠRepublic an
n s
Ġris k
Ġword s
ĠA ug
le ar
Ġso ld
Ġre view
Ġcont ract
Ġresult s
Ġre v
Ġserv ices
Ġlaw s
The y
Ġc ode
ĠM ich
Ġw ind
Ġfun ction
c il
Ġd i
ĠSy ri
Ġa ud
Ġtot al
i ents
Ġc e
ke y
Ġart icle
Ġa ge
Ġapp lic
ic ro
f ect
Ġmin utes
Ġperson al
p ut
il ities
Ġany one
u ary
ur d
ĠJ une
as ons
it ution
a ut
Ġtarg et
Ġpr im
ate g
Ġe arlier
Ġfav or
Ġd en
Ġexp ress
h aps
__ __
ang er
Ġde ad
Ġan sw
Ġpop ular
Ġcomp ut
Ġup d
Ġne cess
pr il
Ġr ate
Ġv ol
Ġtechn ology
ĠSt e
Ġres pect
ag ing
f er
h am
u le
ap an
ĠS m
Ġen vironment
Ġ201 1
Ġrece ived
A d
Ġexpect ed
Ġh y
A l
end s
Ġcre ated
Ġsur pr
Ġb ase
Ġant i
ĠJ uly
2 5
Ġproble ms
ud e
e ch
re l
Ġw ays
= =
Ġp ort
ip le
Ġpriv ate
u el
Ġincre ase
Ġsc ient
is l
re et
Ġannoun ced
Ġcom ment
al t
ĠD o
it er
Ġcan not
Ġeas y
P h
Ġsh ot
ĠCong ress
Ġquest ions
Ġfor ce
c he
act ion
et er
ater ial
Ġimp act
r ay
v al
ct or
ĠM ond
itt ee
her n
Ġp ack
pl es
ĠP e
Ġe t
ĠF acebook
Ġl angu
Ġ +
Ġp ur
at ives
ĠG od
Ġinvol ved
av ing
ĠE n
ĠAust ral
ill s
h ood
itt en
on st
Ġd iv
E S
ues day
Ġexec ut
Ġmod el
om b
le x
Ġspe ak
Ġst aff
Ġex act
Ġs en
Ġc ivil
it iz
Ġne arly
Ġty pe
i res
our t
Ġorig inal
Ġc ases
ok es
Ġcont ent
n a
Ġrelations hip
Ġ19 7
Ġter ror
ĠGo ogle
ĠFr iday
Ġle ave
m e
Ġresp onse
Ġins ide
Ġcap t
Ġ <
Ġf ans
ĠA pril
ll ed
Ġintern ational
ĠE l
Ġco ll
Ġa verage
Ġhe art
ĠR ed
Ġar rest
du ct
Ġbro ad
Ġus ers
ĠC ount
ot o
am s
Ġw orth
Ġc ell
Ġl iving
Ġso ft
Ġc al
T o
Ġn ation
Ġkill ed
Ġreport s
Ġ201 0
ĠE m
Ġbec om
Ġ ur
c ast
Ġsour ce
ĠMond ay
ĠT uesday
Ġsub ject
g ing
A t
Ġwork ed
ip s
b it
Ġim medi
Ġest ab
at ural
Ġresp ond
b or
Ġass oci
Ġgl obal
est s
ell ig
j oy
ĠAmeric ans
Ġcl ub
6 0
it es
Ġch ance
Ġo il
Ġab ility
ĠA ct
Ġad m
Ġt akes
ĠP al
ĠP er
rough t
a el
Ġwe ap
Ġpr ice
op s
he l
ĠJ apan
Ġdirect or
Ġwork ers
Ġter ms
e xt
olog ical
Ġro ad
Ġpubl ished
ĠWh ile
Ġph one
Ġt ou
Ġcol lect
Ġfin ancial
Ġdec ided
iz ing
Ġm id
ĠRuss ia
ĠS ome
Ġm other
ĠW ed
os ition
Ġl ack
is es
Ġs qu
Ġdef in
r ain
ove mber
Ġg irl
Ġst ore
Ġg ave
k y
Ġ4 0
Ġbu y
Ġinfl u
ĠCal if
Ġhappen ed
Ġl og
Ġrequ ire
ĠN ow
un t
Ġe mer
Ġf em
Ġcap ital
" .
Ġfore ign
cl us
Ġcurrent ly
ĠO ff
b ased
Ġgo es
ĠS an
Ġsit uation
ĠB y
vert ise
ĠGe or
ov ed
Ġind ic
Ġoff er
Ġwho se
Ġ @
Ġm aterial
Ġl ives
Ġt al
Ġaff ect
in o
Ġpl ans
ough t
nes day
Ġar ri
ro wn
Ġmem ber
Ġp ict
ĠF eb
urs day
Ġpartic ip
m on
Ġrec ogn
Ġturn ed
Ġev ents
Ġmet hod
ru ction
ĠJan uary
Ġnet work
ĠH ill
Ġteam s
E N
Ġmeet ing
ĠS und
Ġb ank
Ġint rodu
ct ions
Ġn orm
Ġsim ple
f ully
O ne
ĠIs lam
Ġh uge
ĠSept ember
Ġ ill
Ġreg ard
Ġare as
O R
ĠA g
ĠT V
Ġcou ple
Ġappro ach
ĠC or
Ġcare er
ĠG l
Ġc y
ĠAf ric
ord er
Ġr ace
ou d
Ġperform ance
Ġp age
es e
ĠM e
ĠN ovember
Ġto ol
ĠDav id
Ġf elt
en ed
Ġquick ly
Ġnum bers
Ġem ail
" ,
et y
Ġ2 1
Ġor d
l oad
Ġm is
ap t
Ġadminist ration
a ily
ĠWed nesday
Ġh on
Ġvict im
a ur
Ġv ia
Ġimpro ve
ĠP aul
Ġf re
ist an
o or
Ġeng ine
Ġte xt
Ġp ull
ch ie
Ġr ound
Ġbu ilt
ĠA ng
ĠEurope an
Ġp ers
ĠTh ursday
Ġf ather
Ġl oss
orn ia
Ġ2 2
Ġd ig
Ġth ous
Ġh ttp
Ġprodu ction
ruct ure
av y
Ġb oy
Â Ń
Ġhe ard
Ġsec ret
Ġeconom y
Ġen joy
Ġtr ade
ĠAug ust
um e
âĢĿ .
Ġwebs ite
Ġco ver
Ġreve al
Ġw ide
Ġbo ard
Ġm atch
ĠC ourt
Ġallow ed
Ġhand s
Ġsp ent
Ġtra vel
d own
Ġl ower
Ġre pe
Ġinclud ed
Ġpo ll
b l
f ace
ce mber
ĠOct ober
at ory
Ġleg isl
Ġne igh
or ters
Ġbeh av
Ġkn ew
4 0
Ġwant s
ĠS ch
us es
ict ion
Ġto wn
ĠBrit ish
Ġse par
es tern
en ces
Ġvis it
ĠCanad a
et t
Ġget s
Ġper fect
Ġmove ment
re ct
an ks
Ġtri ed
Ġc ause
ess ion
is hing
age ment
Ġst e
Ġfor ces
? âĢĿ
ĠSund ay
f l
g est
Ġ }
Ġen s
W ith
en ing
A fter
ce ed
for ce
ra z
Ġatt ention
Ġpartic ular
] [
Ġb i
Ġve h
Ġb ud
Ġf ear
Ġpop ulation
Ġvar ious
Ġre ach
Ġlook s
ĠU K
ĠCalif ornia
Ġb rought
ĠK ore
Ġl ink
Ġv o
ib ly
Ġ2 3
l in
ur ning
ar ily
Ġprev ious
ĠI S
Ġm ention
S h
ĠRuss ian
Ġmor ning
) ;
ide red
Ġset t
' d
Ġgrow th
Ġf air
und red
Ġpro gress
Ġfe ll
y ond
ĠC ont
Ġs ong
se qu
all ed
ĠS w
Ġtr aining
c le
A L
Ġs ize
ĠQ u
ĠDe cember
ak er
ident s
Ġcont act
c ies
Ġdem and
ĠBl ack
h old
led ge
Ġim age
2 00
Wh ile
Ġr ac
Ġlead er
Ġh or
Ġpre p
Ġrul es
---- ----
Ġl iber
ec ause
m a
ĠH er
Ġh ot
Ġse arch
Ġ ess
o o
ific ation
f ield
ĠP ost
g round
Ġc itiz
ĠSt reet
i ers
Ġup on
Ġstru gg
Ġlat est
Ġind epend
c ome
u ments
i ant
ar th
Ġfeat ures
r im
Ġco ach
in ks
ĠP ark
ond on
Ġf ast
Ġtalk ing
ĠJ ew
Ġadd ition
ĠSen ate
Ġw ond
E D
sy ch
Ġex am
Ġcons idered
Ġspe ed
ra q
ic les
z e
Ġre b
ar ies
g es
Ġlevel s
ĠT imes
ĠP at
ĠCount y
om p
Ġst ar
Ġinvestig ation
Ġsl ow
ellig ence
O S
ĠPart y
Ġmed ical
Ġm ach
im ately
ĠK ing
Ġa chie
b ed
Ġlangu age
atur day
Ġc ard
Ġcrit ic
Ġs ort
ĠP ar
u k
ĠCent er
ĠT ex
p s
Ġs n
ĠInd ia
Ġp en
Ġp aper
v ent
Ġ200 8
Ġu nd
Ġparent s
ys is
A C
Ġsex ual
ap h
et h
Ġsystem s
op e
Ġpri or
w o
Ġdo ll
Ġwr itten
T r
p ir
Ġsp okes
Ġcon duct
il le
Ġbo x
Ġsee k
un k
Ġs ens
Ġdoc ument
U S
e ared
Ġincre asing
Ġhe ar
ig r
am ent
Ġse ven
Ġd raw
ĠMus lim
Ġeff ort
at form
ru ary
Ġs on
Ġjob s
id ge
ĠI ran
9 9
as c
Ġcons erv
Ġext reme
he t
Ġprev ent
Ġlear n
I T
Ġser ious
in ing
u it
Ġreg ul
Ġcon c
Ġr ange
Ġviol ence
Ġ ...
Ġe ight
r ast
ĠI raq
Ġb ott
ĠM ark
Ġcomplete ly
our ces
Ġsur ve
Ġ200 9
u f
Ġin n
ro om
Ġmess age
Ġob v
Ġinterest ing
Ġopportun ity
it ch
Ġsc reen
reed om
in ally
Ġcl imate
ab or
Ġmajor ity
Ġpartic ularly
e ff
Ġdou b
Ġj ournal
Ġdes pite
an ced
Ġclaim s
S he
ic o
ĠR om
l ight
Ġansw er
Ġsoc iety
an i
ĠK e
ĠL ondon
h a
Ġdef ense
Ġcar ry
ent ially
Ġgu y
I C
am ing
ĠDon ald
Ġext ra
Ġattack s
Ġrequ ired
is ions
Ġbig gest
vertise ment
ren ch
Ġexact ly
Ġp aid
ens ion
ĠE ast
ill ed
Ġ â
2 2
at ter
Ġexper ien
ĠM ore
Ġare n
ly ing
Ġmod ern
ines e
uc lear
Ġrem ain
Ġqu arter
Ġoffic ers
Ġh undred
O P
Ġex cept
Ġc ross
ib r
Ġt able
Ġpract ice
Ġn atural
ut ions
Ġcr im
Ġm iddle
Ġcertain ly
ĠS aturday
Ġd ro
Ġst ories
Ġ2 8
er c
Ġ2 7
Ġproduct s
os es
Ġhist or
Ġg as
Ġlook ed
Ġsomet imes
Ġsur v
m p
n ces
ur t
Ġst uff
Ġsc ience
Ġr out
Ġfin ally
ĠN et
u x
Ġter m
Ġus er
t r
Ġsum mer
Ġmov ie
Ġbl ood
Ġcommun ic
osp ital
Ġchang ed
Ġl ay
Ġon es
Ġlead ing
Ġdescrib ed
Ġa w
Ġim ag
av es
ĠFeb ruary
ous ly
ĠS and
Ġpr ison
Ġcon vers
Ġdet ails
s et
Ġstart ing
Ġqu ality
Ġocc ur
Ġshow ed
Ġn amed
Ġp an
Ġg iving
h ib
ĠS pe
Ġrem ains
ic ks
Ġreg ion
u ing
Ġprov ided
Ġcost s
ĠMc C
Ġu lt
ĠS oc
Ġdam age
Ġd anger
ar i
ak ers
Ġm ob
Ġch ief
Ġpo or
augh t
Ġp ath
pp er
Ġeduc ation
Ġmult iple
Ġcontin ued
Ġgrow ing
Ġdem onst
ĠM or
en ge
ar r
Ġpart s
ĠT H
ad d
ĠI nt
Ġ *
Ġwrit ing
Ġcom ments
2 4
Ġ2 6
Ġmain tain
Ġsaf e
Ġass ist
Ġthink ing
n y
ĠC he
ĠRepublic ans
ĠE ven
N o
Ġpur p
in ary
Ġrequ est
Ġwr ite
Ġf ix
Ġit em
Ġp urch
ĠDemocrat ic
Ġd ied
id a
ĠD es
ĠC oun
Ġread y
Ġwould n
Ġimp lement
Ġincre ased
Ġcult ure
A M
Ġeff orts
m it
ab les
Ġvot ers
Ġc amer
ag o
f ort
co in
Ġread ing
Ġm ill
ĠS er
Ġus ually
Ġcall s
Ġsp ot
Ġf ile
Ġeffect s
Ġper haps
ĠG ener
Ġal one
op er
ĠF irst
Ġal though
Ġto wards
F L
y l
ĠLe ague
Ġcons ist
Ġgu ys
ĠTex as
Ġstand ard
ĠB ill
Ġse lect
al y
ĠMich ael
Ġdirect ly
Ġbe yond
ar ian
Ġce le
ĠCh inese
Ġsub st
Ġpl atform
Ġ( @
Ġh ous
b an
Ġspe ech
Ġreal ity
it ute
us ing
il es
Ġk ids
ic ated
ĠJ ames
Ġav oid
Ġthrough out
Ġfoot ball
ĠT ur
e gr
Ġstud ent
Ġcould n
8 0
ou l
I m
Ġimmedi ately
row d
in ated
Ġinclud es
Ġcho ice
Ġcon cept
Ġcent er
Ġro b
Ġsc ene
Ġadd itional
Ġcomple x
Ġrec omm
Ġchall eng
f ord
Ġw ife
Ġcl os
ĠC ons
Ġrese arc
Ġun f
Ġep is
z z
ĠN e
ĠM on
Ġt ro
an ch
ĠMin ister
B I
he st
Ġdesign ed
Ġcor por
Ġs le
Ġrem ember
Ġsaf ety
Ġsoft ware
ĠInd ian
ĠâĢ ¦
Ġg one
ar a
Ġse ll
w ise
Ġto ward
Ġc ast
Ġag ency
Ġ il
Ġoffic er
Ġt en
Ġfig ure
Ġpie ce
it or
ac hes
Ġbr ain
Ġ ver
ast ic
ĠJ ack
Ġdeb ate
ag on
s p
Ġthous ands
Ġcoun ter
A ll
air s
ress ion
Ġop in
Ġs we
Ġa head
ru pt
Ġrel ative
ic ient
om en
Ġlet ter
ad em
port s
ur g
st on
Ġrece ive
im um
Ġpress ure
ir th
Ġbl og
N ow
il ies
amp ions
Ġmov ed
Ġla unch
Ġappear s
Ġ >
2 3
d e
Ġs il
Ġpass ed
Ġo ption
ĠB o
im ent
Ġst age
ĠPl ay
Ġcle an
.. ..
Ġpre c
Ġ6 0
ate ver
ol ute
ĠI I
Ġproper ty
R e
Ġhelp ed
Ġ ut
ro y
Ġdri ve
Ġalleg ed
ĠApp le
o es
Ġtw e
Ġdis app
it ation
Ġt our
Ġmean ing
ĠG reen
Ġdo g
Ġro ck
Ġcr is
Ġsus pect
ĠAss oci
j ust
Ġd ate
ĠR ich
ĠDemocrat s
Ġmov ing
Ġsc ore
Ġorgan ization
augh ter
Ġcond itions
Ġtou ch
Ġs at
Ġd ark
Ġcomm and
ĠWill iam
ĠThe n
Ġre asons
Ġbud get
Ġ ign
Ġp ark
? "
ber g
Ġn uclear
Ġmy self
Ġhapp y
Ġdev ice
it ness
Ġn om
Ġdiffere nce
Ġde g
Ġmay be
Ġbegin ning
ri ef
Ġn ature
Ġfail ed
Ġcop y
Ġcharac ters
Ġcomput er
Ġenc our
ĠS im
ĠS erv
m ore
Ġ x
Ġa im
Ġtit le
Ġcomp ared
Ġle ague
Ġw all
Ġb attle
m en
ĠM art
Ġf an
ock ed
Ġest im
Ġcol lege
am b
er ve
y an
Ġey es
O T
w ood
Ġsh own
Ġcent ury
iv ity
ĠSu per
ĠEng lish
Ġpower ful
ĠV al
ĠD ay
n ew
Ġlim ited
Ġy es
le ase
Ġb al
Ġcont ribut
Ġpos itive
Ġfor ced
Ġnecess ary
Ġb and
Ġsc he
Ġref er
Ġcandid ate
ain t
Ġst ra
Ġbook s
Ġdis p
Ġtr ust
i able
Ġlarg est
ĠF rench
ci ent
Ġconf erence
ĠH ere
our ce
ĠR ober
Ġar ch
Ġnot e
ent y
Ġanal ysis
Ġsp ending
Ġpresident ial
uf act
Ġcitiz ens
ĠO f
Ġs al
Ġschool s
ig ration
ĠSyri a
Ġth row
Ġa ware
Ġme ant
Ġexecut ive
ĠSt ar
ven ue
Ġevent ually
Ġfollow ed
Ġphys ical
Ġfe ature
ĠB en
or ks
Ġf irm
Ġtreat ment
a ud
Ġc rowd
Ġstre ng
Ġconf ir
Ġm ix
ĠW ind
or ney
ĠT or
Ġrelig ious
Ġeas ily
A D
Ġgr ad
Ġp us
Ġ2 9
Ġaut om
Ġc at
Ġco ol
Ġfam ilies
Ġes c
Ġ19 6
Ġil leg
Ġd raft
a res
ĠD is
Ġact ions
Ġover all
ress ed
r ated
2 7
Ġallow s
ĠM ex
Ġg ives
b and
Ġfe ed
ĠÂ £
M y
ĠA ir
bo ard
Ġyour self
Ġsus p
c raft
er o
et ro
) :
Ġapp eared
c ul
Ġdet ail
b um
Ġsm art
Ġinc ome
Ġanal y
Ġsign ed
ir ing
ub e
Ġide as
Ġcent ral
en cies
Ġsen ior
ĠGo vern
Ad vertisement
ĠB el
Ġfre qu
Ġweap ons
A P
Ġdis play
Ġan g
I s
B e
Ġprom ot
Ġn ice
i ance
Ġcred it
Ġdec ades
Ġpolit ics
k en
B y
Ġcr ime
Ġh ar
Ġp sych
Ġus es
ĠB re
Ġdo or
Ġdis e
Ġun ique
ĠIntern ational
Ġal tern
A ccording
Ġs ales
Ġd rop
Ġl if
ut y
Ġdevelop ed
Ġcustom ers
ch an
Ġbenef its
Ġconf lic
Ġrel ated
ur ance
Ġcris is
ĠS chool
Ġm ist
Ġpred ict
le ments
Ġnot ed
ĠAustral ia
p re
res h
D on
N ew
Ġtr uth
ĠE U
er ry
Ġgo als
ĠC ap
Ġindividual s
Ġch arge
Ġcontin ues
Ġbe aut
ĠUn ion
on ents
ĠE arth
ĠAr ab
Ġchall enge
Ġr ap
3 5
Ġapp arent
Ġst o
ĠAng el
in y
ĠSm ith
ite ly
n own
in n
Ġproject s
Ġpe ace
Ġl ic
Ġmeas ure
4 5
ĠPol ice
Ġcor rect
Ġint elligence
Ġprev iously
ĠChrist ian
ĠGerman y
Ġfull y
Ġr ule
Ġman ager
p art
2 6
Ġr ates
Ġadv ant
Ġbro ther
b ox
ot i
Ġexp and
Ġcle arly
Ġl ines
Ġre form
Ġsuccess ful
Ġhigh ly
ri age
r s
Ġlarg er
Ġem b
Ġtr aff
Ġseem ed
Ġsp read
E C
ĠCoun cil
ch ange
Ġstra ight
ound s
Ġcrim inal
Ġmin or
Ġprogram s
ĠGeor ge
S ome
Ġinc ident
Ġres ources
ic ed
ĠFr anc
O M
m ar
Ġgreat er
ĠCom p
Ġprim ary
ow ers
Ġknow ledge
Ġstud ies
ĠT om
ant ly
I D
wh ile
Ġsa ve
Ġke pt
Ġatt ract
ĠFl or
or ter
Ġem ot
Ġsp ir
Ġwe b
ate gy
Ġfe et
Ġcol or
Ġre ached
Ġr are
E T
sec ut
e an
lev ision
Ġar m
ĠIntern et
ĠH igh
ĠBro wn
2 1
Ġfavor ite
Ġpl aces
ol ic
Ġreg ular
se y
id ers
n et
od ay
ĠA nt
w ide
Ġman ufact
Ġla un
d om
ĠR ec
ve re
Ġs end
ĠH am
Ġpre m
ĠD ef
Ġknow s
Ġshoot ing
Ġactiv ity
ot a
I A
Ġsour ces
U n
Ġnorm al
Ġp un
ic ago
ic it
Ġfight ing
Ġstat us
ter m
Ġr ise
Ġvo ice
Ġown ers
Ġf ine
Ġca used
Ġclaim ed
lic k
Ġen em
Ġl iter
on ent
ĠGener al
Ġopt ions
Ġ200 7
Ġint egr
b on
ing ly
ĠR ob
a ith
Ġsp end
oc ks
Ġc ities
eng th
ĠM ac
ĠG old
ĠU p
Ġorgan iz
us ion
ro ll
Ġend ed
v ille
Ġresearc hers
Ġcall ing
2 8
os h
Ġsh ut
Ġref lect
il ed
E O
2 9
Ġpr ices
Ġal bum
âĢĿ ,
ĠE very
Ġun s
Ġemploy ees
ĠF rom
Ġfem ale
ĠEng land
Ġv irt
Ġha ven
ol es
if ying
Ġra ised
ww w
ĠL a
Ġsupp osed
ro id
Ġj ump
u ana
Ġhapp ens
Ġadd ing
P ro
Ġpolic ies
1 00
Ġn ames
Ġcharg es
ad o
Ġpro s
or g
Ġtr ou
Ġbas ic
Ġconcer ns
rib ution
Ġtrad itional
iver se
Ġpl ant
Ġabs olute
Ġac qu
Ġh ospital
Ġfund ing
Ġsl ight
Ġcom mer
Ġpat ients
Ġauthor ities
Ġmin ister
Ġpr int
ĠB ay
Ġcreat ing
um an
ĠM ag
Ġf reedom
ing er
A r
Ġme chan
k i
Ġsc en
qu e
ĠA P
Ġsee ing
ro l
Ġst yle
Ġbe at
Ġgr and
. âĢĻ
N ot
Ġl ik
Ġst ation
ĠSc ott
r am
Ġp ush
Ġbehav ior
Ġle aving
ij uana
ĠM o
Ġbe g
Ġb irth
Ġim pl
Ġact ual
Ġens ure
Ġapp l
Ġoff ered
on a
se e
Ġagree ment
Ġc ry
ĠFlor ida
ri an
Ġe th
r ont
Ġwa it
Ġ ir
ic a
ĠHill ary
Ġpost ed
Ġ Ð
IN G
Ġweek end
Ġgo ld
ĠM ost
Ġob ser
i pped
Ġad ult
Ġg reen
Ġwe ight
so ft
al se
Ġdeter min
Ġreveal ed
ĠS un
Ġv ac
Ġmost ly
Ġapplic ation
Ġval ues
ĠWe ll
Ġprop os
ĠRe g
Ġwill ing
H ere
ear ch
ac ing
ĠA lex
. '
y a
Ġr ank
ĠB er
it ude
ĠA ccording
Ġad op
Ġestab l
Ġrecord s
Ġey e
m ark
ect ion
Ġen force
Ġbelie ved
Ġpict ure
arl iam
Ġb rief
Ġlear ned
Ġper m
ab y
ĠL et
Ġstr ategy
Ġinst all
ĠL aw
Ġcho ose
Ġm er
Ġcomm it
i pp
ign ed
Ġwond er
Ġd ire
S c
Ġmass ive
ist ry
Ġqu al
p en
Ġdev ices
Ġpart ies
ĠCh icago
Ġlaw y
Ġw ild
ĠPe ople
Ġc ars
h ttp
5 00
p ri
Ġarrest ed
ĠP ort
Ġm ount
ĠPh il
Ġwh atever
ĠFr ance
Ġw at
Ġprov ides
Ġstre et
Ġwh om
u ild
Ġass ault
ĠO h
ĠTr ans
C l
Ġ ;
Ġask ing
Ġinflu ence
7 0
Ġjud ge
Ġl ose
arliam ent
Ġfeel ing
Ġoper ations
Ġprodu ced
Ġcrit ical
Ġtem per
ĠSec ret
Ġneg oti
Ġm ission
ĠL ou
S A
c her
ĠB ush
Ġent er
Ġim ages
Ġconfir med
O U
Ġshow ing
ĠSt ud
Ġdist rict
Ġrun s
Ġpat tern
3 3
Ġt end
Ġb order
Ġres idents
ri ption
Ġd ream
Ġdeb t
How ever
Ġte ac
or ial
ĠComm ittee
p oint
Ġc ru
Ġopp osition
Ġcele br
ak ed
Ġdef end
Ġse ction
u gg
Ġet c
ĠHe alth
Ġprodu ce
ĠW all
E L
est ic
ĠComm ission
Ġdr ink
Ġindepend ent
ĠWh y
ent ed
Ġbr and
Ġf at
m ine
Ġbenef it
Ġc ore
ĠP ress
Ġt ick
Ġdig ital
Ġadv oc
Ġhe ro
ic ial
ĠM od
st e
Ġdoll ars
Ġeffect ive
ud d
Ġsol ution
Ġun c
ro g
Ġinterest ed
ra v
ce ll
Ġv ill
ĠKore a
ri al
Ġhig hest
ag s
t ies
Ġmem ory
Ġopen ing
Ġwor se
oc r
Ġlear ning
Ġrespons ible
Ġtri al
ĠM al
Ġthe ory
Ġk ick
Ġd aily
ĠS am
Ġoff ers
ĠPal est
ĠO ther
Ġrepl ace
Ġrest rict
Ġag reed
ĠOff ice
Ġte levision
ĠFranc is
ĠB ecause
Ġocc as
Ġm ur
ord s
Ġinvest ment
Ġtr ain
Ġtyp es
Ġf it
ĠW estern
icro soft
Ġv s
ill ing
Ġmill ions
Ġch air
Ġmil es
ic ians
E x
ur ies
et ty
n o
ci ence
ĠJust ice
i ation
Ġgener ally
Ġbas is
Ġprop osed
Ġche m
ĠM ike
ĠC up
The se
Ġhe avy
Ġexpl ained
Ġ8 0
ĠB it
ĠO ur
ĠM il
Ġm ap
ĠD el
B A
Ġpart ners
Ġopin ion
i pe
Ġdef e
Ġb ur
Ġd er
Ġon to
I L
ĠA tt
Ġprot est
Ġassoci ated
r ate
ĠAd d
ak s
ĠN FL
Ġl oad
az ing
Ġm ale
ĠF ound
Ġbecom es
Ġre ject
ĠSec urity
Ġco al
Ġob tain
out hern
Ġdest roy
Ġadvant age
Ġass um
Ġannoun ce
Ġcond ition
Ġhundred s
Ġachie ve
ĠL iber
Ġopen ed
and er
Ġunderstand ing
r ad
ĠJohn son
F C
r ig
Ġsur round
Ġ Ã
ort hern
com ing
a e
el ine
Ġinit ial
ic ip
v est
w in
Ġsle ep
ad ing
Ġmar riage
Ġsh ip
Ġman agement
ĠB ig
o ly
Ġth us
o om
ĠWind ows
Ġb orn
Ġbecom ing
Ġeas ier
9 0
k nown
ĠG reat
Ġlegisl ation
Ġcontro vers
Ġun like
Ġelect ric
ĠM any
Ġcamer a
Ġacc used
Ġr at
Ġlim it
Ġphot o
Ġneigh bor
we ll
Ġdou ble
Ġ ice
Ġspec ies
Ġs pl
od es
Ġsh ared
Ġjo in
wit ch
Ġilleg al
Ġ3 1
Ġ200 6
Ġmach ine
Ġser ved
Ġh arm
Ġextreme ly
u pp
Ġact ive
ĠL ab
Ġser ve
Ġdoc uments
ĠJ er
ĠIslam ic
Ġfr ame
l ant
Ġstri k
Ġaud ience
Ġloc ation
ĠD ist
Ġscient ists
B S
Ġbott om
Ġvictim s
Ġ3 5
Ġwe alth
Ġprofess ional
Ġredu ce
Ġres ist
Ġbelie f
Ġn ine
M r
âĢ ¢
Ġwin ning
Ġmar ijuana
or row
Ġneg ative
Ġsol id
Ġcommun ities
Ġreturn ed
ĠA M
ortun ately
ĠU k
ĠAr t
in ate
if ul
ĠInst itute
Ġinc red
ear s
le vel
ĠS l
Ġb ed
ber t
ĠP M
Ġch urch
Ġdep artment
C C
ĠSand ers
Ġvict ory
Ġpurp ose
Ġr an
re y
G B
ĠComm un
ir gin
Ġveh icle
Ġleaders hip
ol f
Ġintern et
Ġam b
Ġ9 0
Ġmob ile
ĠH all
Ġb omb
ist ics
Ġinst ance
3 2
P A
Ġsepar ate
land s
gh an
Ġexist ing
Ġnot ice
Ġhe aring
C on
r ick
Ġexpl ain
Ġd ie
Ġdoub t
Ġf aith
Ġte ach
Ġepis ode
Ġwatch ing
ĠY our
Ġcom fort
at ically
ĠCanad ian
Ġnot es
ĠB ank
i os
Ġrad io
P S
Ġf resh
Ġput ting
Ġview s
Ġsupp orters
ĠIn c
Ġconserv ative
Ġdis m
Ġp urs
Ġarg ument
____ ____
ĠF in
== ==
ĠE v
Ġlaun ched
h ouse
c ont
Ġapp eal
Ġitem s
ac ity
ili ar
Ġcomm ittee
sc rib
om as
z a
Ġdefin itely
Ġdanger ous
Ġco verage
Ġdire ction
ar io
Ġcharg ed
wh ich
Ġfl oor
as y
w orks
Ġiss ued
ĠCar ol
ĠCh urch
Ġdrug s
ĠO ver
ĠM ad
ĠF ox
Ġs un
Ġm icro
Ġm ax
Ġcompet ition
Ġback ground
Ġt ask
Ġst ated
Ġtre nd
res p
Ġtraff ic
ĠF BI
ograph y
v ention
Ġcommer cial
ill er
ĠD irect
Ġsp oke
Ġsuggest ed
Ġst ructure
Ġtrans fer
Ġsit es
Ġh us
in ct
ĠS ince
and om
Ġdec ade
Ġn orth
ĠL ike
Ġlab or
Ġrest aur
Ġrepe ated
ampions hip
z en
Im age
Ġre act
Ġc ards
m et
Ġanim als
S T
ĠG ame
Ġno vel
go ing
i h
ur b
Ġd aughter
ct ors
Ġdri ving
Ġcl osed
Ġwor st
Ġentire ly
Ġcont ain
4 4
ant ed
ĠBrit ain
rib ute
Ġd ed
Ġdri ver
g ency
Ġdise ase
Ġtell ing
e qu
Ġsmall er
ĠW il
N A
Ġdisc overed
om an
ak istan
Ġn or
Ġref ere
il ing
ĠL os
Ġh ack
Ġf alse
Ġc ash
Ġconcer ned
Ġpl ays
Ġsur face
ĠP ri
ĠQ ue
! âĢĿ
ad y
Ġsupport ed
f erence
Ġtool s
Ġcomp ar
Ġtrans port
se mb
ĠCh ris
Ġfind ing
ul ated
oy al
Ġc ateg
te red
i us
Ġas pect
Ġbusiness es
A meric
ul f
b ut
ann el
Ġple ase
Ġfar m
Ġold er
3 6
ad a
Ġactiv ities
Ġrequ ires
ĠJ ones
Ġg ay
Ġ7 0
az on
Ġstreng th
Ġins urance
ĠM at
Ġwe l
n ight
Ġcon sequ
s erv
Ġlarge ly
E M
Ġmur der
he m
Ġc aught
ĠU N
ph one
and on
Ġcandid ates
Ġex erc
ibr ary
i est
ĠIsrael i
Ġallow ing
Ġann ual
Ġtest ing
Ġbl ue
ĠA re
Ġstr ateg
Ġra ise
oss ible
ĠK en
h ow
o very
ĠRober t
Ġst ock
ic y
Ġdec isions
Ġacc ur
Ġcont ext
ĠS up
Ġf uel
ar ant
k ins
B l
ĠUk rain
Ġconcer n
Ġbelie ves
os ure
Ġaff ord
O L
Ġconst ruction
iz es
Ġtr uly
ĠA c
Ġjust ice
Ġgener ation
igr ants
ĠM iss
d o
7 5
Ġpres ence
ĠJew ish
Ġun it
ang ing
ĠAfric a
Ġgu ess
ic i
3 8
Ġw itness
e y
Ġhold ing
it able
Ġestab lish
ĠT y
Ġplan ning
Ġl ength
ĠG ree
ĠT re
a it
ĠAfric an
Ġpl aced
Ġref uge
ĠS il
ĠAf ghan
ck now
Ġc atch
N N
Ġse qu
ĠAssoci ation
Ġtell s
Ġsc ale
an cy
Ġspokes man
ĠC r
Ġg e
ĠP C
Ġr ough
Ġatt end
Ġs an
Ġcell s
ĠJ im
cept ion
Ġjo ined
Ġt im
Ġmention ed
Ġinterest s
Ġab use
âĢ ĺ
Ġhas n
pect ive
Ġinit i
Ġenforce ment
n el
Ġintrodu ced
Ġdel iver
Ġconflic t
ĠG OP
Ġk id
3 4
oll y
M ore
ĠM icrosoft
Ġmiss ing
Ġprov iding
Ġwa iting
Ġcan cer
S P
Ġupd ate
Ġph il
Ġrecomm end
b re
ro s
av a
Ġestabl ished
ĠP re
ĠV er
iss ions
Ġe at
Ġocc up
ĠAngel es
ĠJ eff
ocr acy
ĠY es
Ġrem oved
Ġ200 5
# #
ĠFr ank
Ġoff ensive
ĠInst ead
Ġinj ury
Ġdiscuss ion
ĠM er
b our
ĠF ore
Ġsp orts
Ġoper ation
l a
Ġdown load
Ġf ant
Ġtrans l
Ġuse ful
Ġconvers ation
Ġhom es
Ġnews p
ĠC EO
Ġass ess
Ġs outh
Ġc ook
v ant
ĠG roup
in ter
Ġban ks
ron ic
Ġsto pped
Ġobv ious
l or
Ġmeas ures
Ġmod els
Ġfour th
ĠSt ep
D A
form ation
ĠCon st
ic ations
ont o
is ation
Ġ201 8
Ġgirl s
Ġfil es
ĠLou is
Ġb ul
se ason
O ur
Ġst ick
Ġman aged
wh at
ul a
ĠPalest in
ic on
m ail
Ġfig ures
app ed
ot ed
Ġident ified
c ks
um n
az ine
Ġgr aph
Ġfin ished
ĠLe g
Ġfund s
ĠP akistan
Ġset ting
l ig
Ġconc lud
Ġcomm itted
ĠJ ud
Ġpre fer
ĠMex ico
Ġha ir
Ġsk ills
ĠT im
C H
Ġappro pri
L e
Ġfoc used
Ġspir it
Ġarri ved
om s
Ġve ter
Ġhous ing
and a
Ġkeep ing
Ġthere fore
ĠV irgin
Ġa cknow
Ġdet ect
s pe
Ġpart ner
ĠR ock
Ġex clus
ĠAnd roid
ĠTH E
ĠK h
ens es
it z
ul ate
Ġear th
5 5
Ġt ough
ĠS al
ĠJapan ese
Ġrelative ly
Ġ200 0
ĠSup reme
ig an
up s
Ġfeel s
Ġident ity
re al
Ġother wise
Ġsurve y
out s
4 8
ĠR yan
pl ace
3 7
Ġprotect ion
ow l
! !
Ġex change
Ġown er
itution al
w ing
ĠCh ar
Ġstep s
Ġhus band
Ġtri p
ĠM P
Ġtwe et
ic ation
Ġslight ly
Ġconnect ion
ĠAr my
is f
ĠM ont
ĠGovern ment
ĠPro f
Tr ump
Ġwe ak
ĠM et
D es
e ah
oc al
Ġe lements
ĠIn ter
Ġcirc um
Ġstri ke
ĠRich ard
Ġcl ick
k in
Ġdef ensive
Ġphot os
Ġme re
im b
ver se
ag n
dd en
** **
Ġg ain
Ġdep end
Ġcol lection
Ġf le
Ġkill ing
Ġro ll
Ġcor ner
" :
u ct
uck y
Ġsuggest s
igh ter
ĠMart in
Ġag gress
ony m
hen s
od ies
anc ing
Ġgu ard
r d
Ġg ender
Ġcomm ission
ĠAl though
ĠCol lege
m akers
Ph oto
Ġm ental
Ġam azing
Ġd at
am m
Ġplan et
ic ide
Ġbig ger
ĠI r
Ġfail ure
ren cy
ĠD ec
Ġsupp ly
ĠS ur
ĠJ ose
Ġstart s
Ġs ides
Ġrem ind
Ġfam iliar
ĠO ut
P l
re es
hed ul
g ar
Wh y
Ġsu st
Ġspe aking
Ġspe ct
Ġtal ks
pro f
Ġhappen ing
u ate
ĠN or
Ġorganiz ations
Ġh ate
Ġar my
Ġwind ow
gy pt
ĠS ub
st ream
ĠTe am
ĠJ oe
Ġtax es
Ġn one
Ġplan ned
Ġthan ks
r ange
3 9
R A
Ġdec ide
ĠG ood
Ġst ruct
Ġsu dden
ĠM ary
Ġw ish
u ke
g ers
an ia
Ġcar ried
Ġcre w
âĢĶ âĢĶ
G o
Ġapp oint
4 7
is er
ag ues
id ering
Ġhelp ing
Ġreg ist
ost on
Ġmult i
Ġa ward
il s
Ġstand ards
Ġ3 2
Ġenvironment al
Ġrev olution
yn am
el ess
ĠTh omas
ĠF ire
Ġsecond s
ĠRes earch
Ġsc ript
L ast
Ġscient ific
Ġimm igration
] .
Ġstand ing
ĠThe ir
ĠB ern
Ġdom estic
Ġbe er
Ġqu e
ĠWe b
ars h
a wn
oc ol
Ġp air
m as
ĠAl so
ad ium
w ith
ĠSecret ary
Ġac adem
ut ers
Ġvar iety
Ġ4 5
Ġmark ets
Ġco ld
Ġdro pped
Ġter rit
Ġaccount s
i as
i ot
ĠAt lant
Ġfil ed
im al
ĠU s
p m
y m
4 9
er ous
a ven
Ġbal ance
! "
Ġimp ossible
Ġt ack
h i
Ġinter act
Ġneighbor hood
Ġdeg ree
ar ks
an o
Ġturn s
Ġposs ibly
Ġoper ating
Ġapp re
Ġaltern ative
ol it
Ġun ion
Ġpr inc
Ġvot es
Ġs ch
Ġb atter
it ect
Ġprofess or
g n
ol a
Ġincreasing ly
T C
Ġv ul
ĠServ ice
Ġfell ow
Ġapp ly
H L
Ġcut s
Ġhon est
ĠT er
Ġdevelop ers
ĠPr ime
Ġser ver
r un
Ġun ivers
ĠSyri an
Ġapparent ly
Ġl ived
Ġchang ing
ru it
Ġwor ry
ĠCarol ina
rast ructure
Ġtest s
Ġun its
R ead
ĠT wo
ack s
Ġr ich
i pping
ab b
ill a
Ġhum ans
ĠFound ation
ict ed
c ious
Ġag encies
ad ed
ore s
Ġsound s
Ġtw ice
ad er
Ġult imately
Ġl osing
ay er
Ġauthor ity
Ġsold iers
Ġphil os
ste in
ĠM os
as hed
Ġanim al
ĠIm ages
Ġsc hedul
are n
Ġcorpor ate
Ġhealth y
Ġpay ing
Ġabsolute ly
Ġcol le
Ġat h
Ġequ ip
ob by
Ġdevelop ing
Ġse a
Ġclos er
Ġm ut
Ġinn ov
ĠP et
ĠT ime
Ġregard ing
Ġseek ing
Ġexp ensive
Ġsk in
Ġposs ibility
Ġbeaut iful
Ġrelig ion
ĠD en
c oh
Ġap art
ĠCent ral
F rom
ans ion
v is
Ġexper ts
Ġy ards
Ð ¾
rou d
Ġsol ar
Ġwrit er
Ġfl ight
Ġv ast
ĠDist rict
rel ated
Ġde ploy
ĠL ast
Ġad just
f e
Ġintern al
Ġt ast
Ġimag ine
ĠP eter
ĠUS A
ĠU nder
ap ers
k a
Ġapplic ations
ĠJ on
Ġv ision
ĠFrancis co
olog ies
ĠTor onto
Ġs itting
Ġun less
Ġtr ail
o ch
Ã ¡
ĠPl an
Ġ200 4
Ġhe at
os en
ĠJ es
Ġrespons ibility
ist ed
Ġcap acity
l ook
E ven
ĠM iddle
Ġp it
Ġer ror
4 6
Ġsy mb
at ures
Ġar ms
Ġc overed
Ġel im
Ġf ol
Ġfam ous
Ġfor ms
Ġp il
p ire
Ġg ar
idd en
Ġun iversity
Ġgu arant
ĠC amp
Ġt ight
Ġpresent ed
ain e
ĠB ur
Ġear n
3 1
ĠE gypt
ort ion
en ced
Ġconv ention
ov ing
Ġsurpr ise
Ġatt orney
Ġelect ions
Ġestim ated
ĠP ublic
ĠP ut
d en
Ġf if
u zz
O f
Ġte en
Ġveh icles
ĠA ri
ĠAm azon
Ġint ended
rib le
Ġinst it
st ate
Ġhelp s
Ġoccur red
Ġo dd
Ġstre ets
Ġr id
Ġ= >
ĠB oston
J ust
Ġdeter mine
Ġsp ort
ress ive
I M
Ġexper t
ĠBit coin
le ts
Ġhy p
= "
Ġcons ult
I V
Ġbro ken
ĠM ur
p ret
Ġf ired
ĠS T
ro ad
u nder
Ġfl ow
ust er
Ġt on
ĠS ol
C A
Ġsh all
por ary
Ġtro ops
ur ation
L et
ĠTh ose
all s
Ġpie ces
ĠG al
ter day
Ġprep ared
ĠCh ief
g u
Ġp et
ed er
Ġn ar
N D
Ġrap id
ĠC ath
Ġloc ated
in ating
ĠM ass
ĠSoc ial
Ġcon clus
Ġb aby
Ġbring ing
p erson
Ġpro ve
or age
Ġspecific ally
ĠJ o
Ġpot entially
Ġse ctor
Ġse lling
Ġgovern ments
Ġsc r
Ġj ail
ĠO nce
Ġr andom
ĠAn y
g l
Ġequ al
ĠPro t
anc he
Ġf aster
Ġhe av
Ġbo ost
ce l
Ġpropos al
Ġfact ors
ĠL at
Ġcl in
Ġpl enty
Ġequip ment
h and
Ġcoun cil
Ġer a
ĠS pr
Ġinf rastructure
Ġst ress
Ġst ars
use um
ĠJ ournal
ĠVirgin ia
ph as
end ment
ve y
Ġvot ed
Ġpro secut
Ġb reat
Ġoff ering
I P
Ġcar bon
Ġexpress ed
ot y
ĠR ub
Ġbro ke
Ġvul ner
ĠPar is
Ġcl ot
Ġrul ing
Ġret ail
ĠF ederal
Ġref used
Ġelect ed
Ġcomb at
ure au
ĠR iver
Ġdr am
ĠGu ard
Ġse asons
Ġsec ure
Ġconduct ed
Ġ3 6
an ish
Ġchalleng es
ĠL ee
U p
Ġmethod s
E very
Ġrem ove
Ġpoint ed
ce an
Ġweap on
n oon
Ġrem ained
ĠIs land
ĠAustral ian
ĠO pen
Ġpr ime
Ġm aster
( )
ĠS ant
our s
, '
Ġpos itions
Ġtr ig
Ġcritic ism
is her
ĠC ru
Ġd in
ĠMed ic
D o
ĠP lease
Ġs ale
I ON
ock ing
Ġcult ural
Ġwere n
Ġsignificant ly
ol ved
Ġb row
Ġorig inally
ĠM el
ĠD uring
Ġaffect ed
Ġappear ance
F irst
Ġfac ing
Ġgreat est
Ġt ourn
Ġfin ish
Ġst ret
cl ass
A b
Ġyou th
Ġc as
in i
Ġpercent age
w ar
ĠWh o
g en
Ġdetermin ed
Ġsign s
Ġinvol ve
ĠF e
ĠPh oto
Ġthan k
on om
Ġb ought
et ic
Ġ5 00
Ġte le
ĠC ur
Ġchem ical
Ġsh ape
stand ing
Ġreg ime
th at
ĠS ing
Ġg rew
ash ion
Ġv ir
Ġrem aining
ri e
p ired
ĠSte ve
Ġmin imum
Ġind eed
ĠS aud
O W
ly mp
ĠB oth
S ince
Ġm arg
Ġher self
Ġmod e
Ġvot ing
EN T
L E
Ġobv iously
re ens
ri er
ly n
ĠCol or
ĠFor ce
s en
Ġredu ced
Ġrecord ed
Ġarg ued
Ġ199 0
Ġre venue
h t
Ġt act
Ġw ood
Ġwe aring
Ġlead s
Ġpolit icians
Ġh un
ĠN ov
Ġpl us
igh ters
Ġcont rast
Ġpurch ase
Ġs witch
Ġh urt
ĠR em
Ġhand le
Ġth r
Ġcon cent
Ġpro ced
Ġag ent
ĠCh arl
ĠR o
ĠWilliam s
Ġappre ci
al ing
Ġexperien ced
Ġexc ited
Ġvide os
Ġsupport ing
Ġhttp s
coh ol
Ġsurpr ising
Ġmin ute
Ġident ify
Ġconsum ers
Ġexpl os
Ġbel ong
Ġcons idering
ow nt
y r
ĠH aw
ed ia
Ġair craft
Ġpull ed
Ġa id
Ġdiffere nces
ĠF ree
Ġbas ically
ĠCons erv
Ġre nt
ĠP ac
T H
Ġexper iment
Ġgl ass
Ġafter noon
Ġsh ift
Ġdep art
Ġend s
> >
Ġt urning
g ment
Ġb ound
Ġfil ms
ĠB ook
Ġpros pect
ess ions
Ġsp ring
ru ption
og ue
ap ter
Ġtre ated
Ġacc ident
I G
Ġm ort
Ġd im
ll er
Ġlist en
Ġse at
od d
Ġmot iv
Ġcomb ined
, [
Ġser iously
Ġpriv acy
Ġconst ruct
Ġeven ing
Ġopportun ities
ĠR ad
Ġstrugg le
Ġpan el
D P
Ġenem y
t op
Ġlot s
Ġ19 5
ĠP ower
Ġcomple ted
he red
ar p
Ġvis ual
Ġtalk ed
ĠD aily
Ġhop es
app ing
Ġpass ing
Ġapp s
H is
l o
Ġc art
os ite
Ġi Ph
Ġwide ly
Ġcal cul
Ġemer gency
-------- --------
Ġsu it
An other
h ab
k et
Ġe lement
or al
0 1
ens ions
Ġ id
Ġp owers
ĠSh ow
ĠB BC
ĠO lymp
Ġpl ants
Ġdisc l
Ġb urn
Ġsub s
l ife
Ġliber al
ĠH ol
Ġa st
as p
al ed
Ġopp osed
ang ed
u ous
ĠSp ace
ĠR el
ut s
Ġpro ceed
Ġcopy right
0 5
Ġadv ance
uc ks
Ġfact or
Ġ200 3
Ġsupp l
Ġdist ance
ĠM att
ra ud
ive red
om pl
ĠPro ject
Ġattempt s
ok ing
Ġdism iss
W ell
pl om
Ġtrou ble
Ġcoll abor
Ġt un
ĠR oad
ribut ed
ab ilities
Ġz one
ĠJack son
Ġup gr
Ġdef ault
Ġrep orters
Ġre action
Ġfr ust
ob e
ra wn
Ġh ol
Ġst orm
Ġwrit es
S p
m osp
p et
Ġtyp ically
st s
id el
P D
ĠT oday
Ġp ages
I nd
ain ts
ĠM em
Ġinst ruct
m m
Ġco ord
Ġref erence
resp ond
C L
Ġsub m
Ġb odies
Ġpack age
un ction
Ġmat ters
y th
c ol
er ved
Ġden ied
m ond
Ġdisapp oint
P e
ne ll
ĠG et
Ġqu ant
Ġexpl o
tern al
ĠI N
Ġqu iet
Ġb att
ĠN AS
Ġent ertain
Ġopt im
ad ow
Ġrespond ed
Ġappro ved
ĠTur key
Ġdis s
Ġsat isf
ed s
Ġbroad cast
l ines
Ġinstit utions
Ġstand s
ap ed
Ġad vert
Ġset s
ĠDirect or
es ters
Ġse m
c are
9 5
ed d
Ġre new
ĠOh io
Ġm ent
Ġval id
Ġse vere
Ġs ac
is ters
ĠP enn
Ġcap able
Ġ200 1
Ġm al
at o
T V
Ġcapt ion
Ġp itch
est ival
raz y
4 2
Ġl oved
Ġ //
Ġtechn ical
Ġcl oud
Ġg iant
f ree
Ġtrad ition
ell y
Ġprom pt
Ġconf ident
Ġconf idence
Ġcan n
Ġnum erous
Ġreported ly
ab in
A m
6 5
Ġfac es
Ġb ull
ani el
Ġtrans ition
Ġwe ather
ĠAfghan istan
z er
Ġcre ation
Ġpers pective
Ġf ly
it a
Ġun able
] ,
ĠLab our
Ġfor get
ĠSy stem
r ant
ĠY et
as tern
ĠS qu
Ġco oper
Ġsubst ant
Ġc raft
Ġsuff ered
Ġviol ent
ĠMed ia
Ġco ast
ang ers
em ploy
Ġpict ures
Ġexperien ces
S S
Ġappro x
Ġrout e
un te
amp ion
h ost
Ġadv ice
Ġm and
U T
Ġdecl ared
C ont
ĠAnd rew
Ġfl ag
Ġord ered
A pp
Ġcr imes
Ġp roud
Ġreport ing
Ġco ff
ĠH uman
Ġmess ages
Ġl it
ac he
raz il
Ġcircum st
Ġfind ings
ĠM a
Ġex cell
Ġdecl ined
Ġev al
Ġexpl ains
ĠW al
is hes
R ep
ok en
ab led
Ġdel ay
ĠF ollow
ul ations
us iness
Ġnewsp aper
Ġshould n
Ġconnect ed
r id
ound ed
ĠL in
Ġon going
Ġmov ies
il ty
Ġpick ed
l i
il it
du le
ev in
Ġadm itted
ion ally
res ents
Ġdel ivered
x ual
Ġgun s
ner gy
D uring
ov es
Ġwalk ing
Ġg ra
Ġag ents
ĠM L
ĠSc ot
Ġthough ts
Ġpr in
Ġedit or
Ġmar ried
Ġdisc rim
Ġem ails
Ġappropri ate
c alled
Ġem phas
P R
Ġa uth
Ġarch itect
Ġed ge
Ġle aves
u ations
Ġupd ates
Ġacc ompl
O ver
Ġg ather
ĠMuslim s
p ass
4 3
Ġfor g
ĠGr and
Ġquarter back
Ġs ession
ans as
Ġpo ol
Ġinj ured
ĠS cience
Ġpublic ly
Ġstate ments
ĠW ood
ĠT ra
ĠS ov
Ġper man
Ġconf irm
ĠTe chn
Ġleg it
Ġour selves
ĠL ake
Ġreal ize
Ġdri vers
in als
o oth
ell ow
Ġar med
4 1
Ð µ
O ther
, âĢĻ
Ġlawy er
Ġd ial
Ġread ers
t ion
ess or
ĠS ee
Ġr ail
re land
our ney
c os
Ġcont ains
Ġarg ue
Ġtal ent
Ġf illed
Ġs ad
Ġalleg ations
ĠD ou
Ġactiv ists
ĠChrist mas
Ġ198 0
Ġd ynam
ĠMich igan
m ates
Ġ \
Ġbuild ings
Ġcr ack
Ġwe ar
Ġtrans form
ĠRe v
g a
c an
ĠRe ad
ĠR on
ĠA v
M any
Ġterror ist
T ube
Ġexerc ise
ĠS um
ĠB ack
Ġeffect ively
Ġt ree
Ġlab el
Ġpract ices
ĠA T
ĠI ll
Ġsub sequ
Ġexam ples
D e
Ġf ish
ĠJ ul
Ġfl o
Ġsh op
Ġpat ient
ent ure
Ġobject s
ĠSe attle
S e
end a
Ġsecret ary
ĠS her
Ġmiss ed
Ġca uses
am ental
Ġdeb ut
Ġr ain
et te
Ġess entially
Ġte ch
R es
Ġmor al
l ong
Ġs am
as ure
ĠUkrain e
Ġcent re
ĠR od
ĠG en
ar ters
Ġinj uries
ĠV ict
g ia
ĠW ork
I I
ord ers
ĠiPh one
ĠT O
Ġart ist
F ollow
in ent
ic ing
O h
Ġth inks
Ġmot or
Ġcl ient
Ġb ond
ĠSt an
ul s
ĠPh ot
ĠI D
c ons
ĠSaud i
Ġfact s
Ġdes ire
Ġp ure
Ġlink ed
ĠO l
Al though
Ġgovern or
ar n
ac ter
ou ston
Ġmaterial s
Ġperform ed
ag ers
Ġs ke
M A
Ġfr anch
or ry
Ġhe ll
Ġphilos oph
Ġinit ially
ill y
Ġsu c
Ġnecess arily
or se
Ġexp ansion
Ġschedul ed
ĠS ign
Ġwar ned
ad or
Ġadv anced
es ome
Ġdi plom
Ġexpl an
ĠH y
Ġevery body
Ġj oint
Ġres olution
Ĥ ¬
Ġdec re
Ġincre ases
Ġvar i
Ġaccept ed
Ġfac ed
Ġmy ster
az a
r um
Ġinc or
Ġannounce ment
Ġfollow s
en ger
Ġb are
Ġn ations
Ġinter pret
Ġ ing
ill ance
ĠF er
w ord
Y es
Ġplay off
ĠM ount
Ġv an
Ġab andon
Ġne ither
ĠSec ond
Ġrad ical
Ġath let
Ġyes terday
d ate
Ġnear by
Ġdist ribution
Ġdat ab
b ur
Ġappl ied
ĠL ife
Ġmag azine
Ġconsequ ences
i at
Ġlist ed
Ġdo ctor
Ð °
Ġat mosp
Ġsurpr ised
ĠCol umb
M ost
Ġoff ense
Ġfor t
Ġm ir
ĠC NN
w ater
ir ty
6 4
Ġbeg ins
Ġsp ons
Ġthreat s
Americ an
g ent
it ors
Ġrep resents
ĠWe ek
ĠJew s
ot ic
T A
Ġmov es
Ġen h
ath an
d ef
Ġrem ark
ĠB et
ĠG M
semb ly
Ġsong s
Ġbehav i
ĠA ff
Ġch art
Ġadd s
Ġr ide
Ġwith d
Ġimpro ved
ĠD an
S pe
Ġal cohol
Ġwar m
Ġfl ood
Ġout put
ĠDe velop
Ġp ra
Ġp hen
Ġsh ots
w hel
Ġf ill
Ġst ood
r ich
ĠBl ue
Ġbr ings
Ġpus hed
Ġgu ilty
ĠR E
ĠH en
ĠRom ney
Ġsub scrib
Ġent ry
Ġal t
Ġ3 8
ĠB razil
Ġdem ocracy
Ġboy s
_ s
ĠC arl
ocrat ic
ĠSw ed
ĠK im
Ġro w
Ġrestaur ant
ĠN BA
Ġconf ig
ed y
Ġlaws uit
ĠI reland
Ġmanufact ure
Ġ3 3
Ġrece iving
Ġa f
ĠBar ack
Ġtot ally
Ġdiscuss ed
Ġs ought
Ġr ising
Ġent ered
ĠOn ly
ĠIS IS
Ġre in
Ġt rib
ĠV ol
Ġconsist ent
ĠBo ard
The n
Ġhistor ical
al a
ac le
Ġst orage
Ġ3 00
Ġcor respond
Ġplan e
k ay
t witter
Ġcomb ination
ER S
Ġsc ored
C an
Ġin put
ĠDe v
Ġbr ight
Ġsymb ol
Ġ3 7
Ġsuc ceed
Ġbut ton
Ġinvest ors
ri p
Ġ200 2
Ġcreat ive
Ġart icles
st ood
Ġsqu are
Ġis land
Ġhigh light
Ġdeath s
Ġclass es
Ġnet works
Ġfun ctions
Ġunlike ly
l aw
Ġhead s
ird s
Ġn ative
Ġb oss
O D
Ġrough ly
ĠP rem
Ġconsum er
al ty
Ġl ie
f ortunately
Ġheav ily
ĠMay be
Ġfair ly
ĠAn other
Ġtemper ature
ĠW alk
ide o
Ġsa v
Ġexist ence
ic ian
ĠW he
Ġstr ing
ĠM s
ĠAs ia
ĠL ib
Ġcont est
ĠIt s
Ġpl ot
Ġres ident
ic ious
Ġtarg ets
ĠKore an
ĠC ub
Ġspl it
ĠSt r
Ġres c
Ġyoung er
u y
Ġcolle agues
us al
Ġl ock
ĠB ob
am in
Ġro t
Ġl ibrary
ard en
Ġr ally
om in
Ġp arliament
Ġprot ests
Ġany where
Ġb ike
Ġbre aking
z ona
Ġstore s
ok ed
Ġexpress ion
Ġgr ab
ĠS ports
Ġwas te
' ,
Ġwar ning
Ġimport ance
Ġdef ined
Ġbl ow
Ġbu ying
Ġch ain
Ġsy m
Ġman age
T S
Ġpro hib
Ġadult s
Ġclass ic
ĠE ach
Ġmarket ing
Ġc ere
Ġill ust
ic an
Ġs now
Ġl inks
ĠS ky
Ġsh if
iqu es
Ġ4 8
S ee
Ġf raud
ĠCl ub
Ġto w
Ġfac ility
ĠH ist
Q u
Ġhard ware
Ġalleged ly
Ġconf ront
Ġregul ations
Ġsch ol
Ġdo ctors
Ġcur rency
Ġhouse hold
ĠColor ado
ere nces
Ġrepl aced
olly wood
Ġess ential
b orn
du c
and al
Ġem pt
Ġb on
Ġsome what
A dd
Ġfl at
Ġfav our
Ġprom ise
Ġl augh
ĠR ights
Ġhold s
on na
Ġopp osite
ĠD iv
m es
ĠB oy
Ġmom ents
Ġn av
Ġopp onent
Ġcamp us
P U
Ġact s
Ġbu g
ĠR am
com m
Ġvers ions
Ġmot ion
Ġev olution
ĠEx p
Ġr um
Ġv ice
omet imes
Ġrele vant
Ġmet al
0 8
ag an
Ġse es
etro it
Ġindust rial
Ġz ero
Ġclose ly
ĠIm age
Ġs ick
Ġd ownt
Ġemot ional
Ġb ag
ĠF ar
ĠD C
ĠYou Tube
Ġfew er
Ġdiv ision
ĠY ear
Ġh at
Ġhard er
het ic
Ġcustom er
hip s
Ġhop ing
w est
ĠBro ok
op y
ĠVal ley
ock et
ĠAn n
P ol
Ġmechan ism
ol ve
ĠH ouston
Ġreturn s
Ġto m
Ġvol unte
Ġparticip ants
d is
Ġext ent
Ġint ention
ch o
Ġexcell ent
Ġh ur
ĠSov iet
ĠE lect
ĠG ra
Ġacknow led
er ves
ate ll
el lect
Ġsqu ad
Ġcircumst ances
en a
Ġf ashion
olog ist
ĠG ames
om ing
al ian
Ġis ol
Ġimmedi ate
Ġsuff ering
ul ous
ĠE ric
Ġexper im
M an
Ġauth ors
Ġl ies
om a
Ġt iny
Ġsy n
Ġg rown
ĠW atch
in em
6 6
ĠM ot
O b
Ġimm igrants
p ower
ef ully
Ġkind s
g reg
g ame
Ġche ap
Ġdetail ed
Ġm ine
ĠD ie
Ġfeat ured
Ġun us
Ġcompet itive
Ġme at
Ġdescrib e
Ġfor med
c hen
ot al
Ġcarry ing
Ġtourn ament
7 7
Ġrelationship s
Ġtr ick
ord an
cer tain
ut ch
Ġfund amental
Don ald
Ġ4 9
Ġter min
ay ers
Ġcy cle
ĠH ome
Ġw ave
ĠI P
ĠW ik
Ġsign ing
Ġc razy
Ġgu ide
Ġear ned
Ġdec line
Ġw ins
ĠCath olic
Ġem br
ĠH el
Ġreg ional
ĠW ay
ĠPalestin ian
Ġstr ange
ens us
ĠJes us
Ġob serv
Ġfrequ ently
Ġan cient
Ġact ing
m l
F A
Ġman ner
Ġeff icient
ĠPut in
es c
Ġpus hing
Ġcomfort able
ĠC IA
f riend
ĠG ar
Ġp ip
ig er
Ġsh aring
pr int
ĠL ong
Ġsk ill
ĠE conom
Ġown ed
Ġw ire
Ġinst ru
Ġcommit ment
ĠC ard
Ġalong side
ob b
ĠA ut
ĠS ar
n ic
ĠDav is
u ated
Ġrefer red
Ġcontrovers ial
Ġart ists
rom e
Ġb at
ĠL ord
c hers
ĠE ll
Ġrepeated ly
Ġm outh
Ġe gg
r ison
st yle
n am
ĠE r
oc key
Ġattempt ed
G et
Ġfem in
Ġupd ated
ĠC y
Ġ3 4
Ġpre gn
Ġsche dule
we ight
Ġc ert
Ġded icated
or a
Ġsent ence
ĠT op
ke l
Ã Ń
Ġup coming
p an
ĠO ld
Ġcol umn
Ġdep th
ĠR ight
Ġpl ed
ĠO F
Ġj ourney
ĠP S
Ġvirt ual
8 8
u able
Ġstru ck
ĠD own
Ġreal ized
Ġstud io
O RE
Ġdes k
Des pite
an es
ĠE nergy
Ġser ving
ĠN Y
Ġwalk ed
% )
Ġmed ic
ce ived
v a
Ġrep ut
iam i
Ġk ing
Ġr ing
ad el
Ġur ban
ĠChar les
am ily
Ġtarget ed
ograph ic
Ġass ets
F P
Ġch annel
Ġins pired
E n
ĠAri zona
lud ing
Ġnews let
Ġt ort
Ġpost s
Ġhot el
Ġun iverse
Ġag enda
h us
x y
0 6
Ġmain stream
ĠW ild
Ġca using
f oot
Ġwat ched
iven ess
ĠA L
Ġsu icide
I R
u gh
Ġover whel
Ġsurve illance
Ġus ual
ĠSu pp
um ber
Ġstre am
Ġwin ter
Ġchair man
Ġopp onents
Ġint ent
Ġs ister
N C
u a
L ike
aw a
Ġl iqu
ĠD i
Ġlat ter
ĠCru z
ĠW ars
Ġk it
O C
T wo
ri ve
Ġsurround ing
Pe ople
Ġknow ing
Ġfol ks
Ġord ers
Ġh all
ph y
st r
Ġobser ved
Ġliter ally
Ġrem ote
ĠAg ain
ĠEn ter
so le
ĠM en
0 9
P er
v in
ĠJ ava
Ġsubs id
ĠDef ense
Ġappro val
Ġd u
Ġbas ket
Ġteac hers
Ġs and
Ġexc iting
ici ency
Ġ7 5
ren ce
Ġprotect ed
Ġcon gress
Ġnot iced
Ġdeal ing
ĠB at
Ġprec ise
00 00
Ġsim pl
av or
ĠCh ild
Ġdeep ly
ĠYou ng
y ou
Ġcommunic ation
Ġs ending
ĠT ay
r ations
ĠJ r
Ġfor th
g or
Ġg ang
Ġbatter y
Ġf asc
ĠV an
Ġas ide
ĠT al
Ġn arr
az i
Ġfix ed
Ġrequire ments
Ġw al
Ġproper ties
Ġal ive
Ġnar row
Ġw ake
0 7
Ġpass ion
ab is
ĠC le
Ġe ating
Ġmist ake
r ors
_ c
az e
onym ous
ens ity
Ġexpl ore
Ġcoff ee
Ġ197 0
i pl
all as
Ġra pe
Ġvol ume
D S
Ġprom ised
Ġdom in
b el
al le
ĠAr ch
Ġd iet
Ġsk y
Ġris ks
b ar
w oman
Ġex hib
Ġswe et
Ġinvol ving
Ġw age
Ġtest ed
Ġse lection
Ġdefe at
Ġn orthern
Ġre ward
Ġne ut
b urg
âĢĻ .
Ġwel come
ĠF ort
Ġext ended
ĠPol it
Ġput s
Ġterrit ory
t a
Ġphen omen
Ġun employ
Ġrefuge es
Ã ³
Ġs ample
Ġfl u
Ġapprox imately
Ġhe ight
ĠK evin
Ġbl ame
Ġany way
Ġdestroy ed
ĠD etroit
ĠBr ad
Ġimp ressive
ĠP an
ack ing
ĠStep hen
ĠM ax
ĠC ast
Ġg ap
Ġpro of
Ġsh o
Ġun known
Ġloc ations
Ġcr ash
Ġd ry
et her
as ks
Ġselect ed
\ x
ult ure
Ġattack ed
Ġg od
Ġw est
Ġmax imum
ĠM iller
ap se
ĠWil son
ger y
b oy
Ġprom ote
M ay
Ġmere ly
Ġfranch ise
Ġshe l
Ġrequ ests
ing u
Ġret ire
Ġsudden ly
se x
Ġslow ly
Ġprot esters
iz z
ang es
Ġdis ag
Ġteac her
Ġtyp ical
ac c
ĠW at
ĠW omen
i i
Ġcon ver
Ġch ose
F r
ĠF il
Ġmat ches
Ġlic ense
ob ile
ĠC amer
Ġproper ly
Ġass ume
ĠT it
i xt
Ġdisc over
Ġpro te
um s
ĠCl ass
ĠIn s
I nt
og an
Ġwor ried
Ġw id
Ġab ortion
Ġall ies
or ation
0 4
st one
Ġmod er
Ġterror ism
Ġsupport s
Ġob lig
ver ty
as er
Ġarg uments
ow ered
ĠCont in
Ġthem e
i ro
ar ry
Ġfac ilities
Ġad apt
Ġsust ain
ĠM ic
Ġrecogn ize
Ġe ast
uild ing
ig g
g ender
ĠL u
Ġf uck
ins on
Ġequ ival
ig ure
Ġobtain ed
Ġpo verty
ost er
R el
Ġform at
ĠIt aly
Ġnom ine
Ġde als
Ġfe es
ĠP R
6 8
Ġcontro lled
Ġunder stood
l v
ĠH ollywood
Ġtop ic
Ġcrit ics
Ġr ub
ĠAg ency
it arian
ĠSoc iety
c ript
O r
ĠF ord
Ġso le
ĠJer sey
Ġvill age
ĠB est
Ġp al
5 9
0 2
0 3
ĠAd minist
Ġdi agn
ax y
k o
Ġlik es
Ġpun ish
f ire
ĠD am
Ġd ress
ĠGeor gia
Ġev il
ra id
ĠF our
Ġb unch
Ġjournal ists
ĠComp any
Ġexp osed
Ġreg ions
ar ity
Ġcommunic ations
Ġsche me
c ers
at i
ce ler
Ã ¶
Ġlim its
Ġtrans p
Ñ Ĥ
Ġsome how
Ġst im
Ġstrong ly
Ġp ed
Ã ¤
Ġresist ance
Ġhon or
st ers
Ġch ampion
Ġdr ag
Ġconst ant
ĠL abor
ĠNAS A
Ġph ase
os is
red it
Ġperson ally
Ġtr uck
Ġcond em
Ġesc ape
Ġprof it
ĠN HL
Ġb id
Ġdec k
Ġfall ing
Ġvac c
nes ota
oc ation
Ġsome where
ĠN ight
ĠSt and
Ġemploy ee
Ġhar ass
ast s
ĠNet work
al o
ĠD un
ll s
GB T
Ġbe ar
Ġcompar ison
Ġpoll s
ci ples
Ġs outhern
ĠSp anish
Ġem issions
Ġencour age
au g
Ġin qu
Ġhe l
Ġdec ent
ĠC D
ĠL and
a ire
J ohn
Ġempt y
ĠM iami
V ER
Ġh its
Ã ¼
Ġdefin ition
ort ed
pect ed
ĠL ove
p ool
Ġdirect ed
ĠV iew
7 8
a o
Ġmeet ings
Ġf lex
Ġwin ner
c ow
end ers
Ġp ic
Ġcomp rom
if orm
i very
z ens
Ġgot ten
or ic
in er
Ġ3 9
ĠD aniel
Ġelectric ity
ow a
ĠC am
int end
Ġch osen
Ġun p
Ġoffic ially
ĠTur k
Ġstret ch
ĠK n
ĠDes pite
Ġben ch
Ġdatab ase
em s
ĠB ell
Ġstrong er
Ġint ellect
Ġpurp oses
ĠE nd
ĠD NA
Ġcut ting
ick en
Ġde leg
Ġsp in
Ġamount s
Ġext ensive
ĠO k
Ġtre es
Ġdes per
ĠT urn
Ġan x
ĠAs ian
r ary
Ġf old
Ġide al
ig ation
Ġfif th
ad s
Ġth read
p es
in ations
Ġgood s
Ġdevelop er
Ġcol on
Ġclaim ing
m o
Ġre tain
Ġcapt ured
un ning
Ġfind s
ĠTh ough
Ġdri ven
Ġhy d
Ġpay ments
ĠJ ordan
Ġt ies
Ġs oul
Ġreason able
Ġsome body
Ġend ing
Ġdog s
ĠN ations
Ġcho ices
Ġinc l
Ī Ĵ
Ġse ats
ĠServ ices
p o
w an
ĠTh ank
Ġd rawn
Ġeng age
Ġs ight
Ġb le
Ġthreat ened
Ġrul ed
ĠAtt orney
p ost
ĠIr ish
An y
Ġtrad ing
Ġprim arily
Ġpar am
Ġun w
Ġaspect s
Ġf ighters
as ters
ï ¿
Ġansw ers
ĠSe a
Ġperfect ly
_ t
ĠU t
ep ing
Ġpark ing
ir ms
ĠAc adem
Ġreject ed
Ġr ival
ow ed
Ġconst antly
Ġpay ment
Ġdist inct
Ġtechn ologies
Ġf lying
Ġp od
Ġcomp onents
ĠG all
ĠScot land
Ġelse where
Ġr ig
h an
Ġany more
l ist
T e
Ġestim ates
Ġfield s
Ġconst it
Ġsol utions
Ġresult ing
Ġ icon
ĠRe al
Ġenc oun
ĠIn f
Ġprov ince
Ġaw esome
Ġreg ularly
Ġworld wide
Ġact or
Ġcour ts
ĠMo ore
Ġnarr ative
Pol ice
ĠD ark
Ġenem ies
Ġmix ed
ĠB ru
Ġhous es
O nce
se a
Ġb oot
ĠDis ney
reg on
ĠW ater
Ġno body
f ast
ld er
< /
Ġcontrol s
ĠO S
Ġlet ters
5 8
Ġout come
Ġlo an
Ġmay or
Ġm urd
ic er
ĠH un
Ġcont em
Ġ4 2
ĠC at
Ġap artment
Ġcoal ition
Ġcontribut ed
ĠSte ven
t le
ĠM S
Ġconclud ed
ag ram
Ġex ists
Ġfound er
Ġt ank
Ġatmosp here
ap es
ĠAd am
ĠB rian
Ġprof ile
ĠT w
ĠL ight
Ġsit uations
Ġbre w
ĠCh ampionship
ear ing
ĠL ew
Ġincred ible
ĠConst itution
Ġaccur ate
ĠA uthor
Ġsign al
ĠVict or
Ġemploy ment
ĠW here
s hip
C S
ĠS outhern
Ġcl ients
." [
Ġkeep s
Ġcontin uing
Ġinform ed
is an
Ġbase ball
ĠR og
ĠB as
6 7
r as
ot ten
Ġtick et
M L
r ates
Ġgener ate
se ll
Ġcon ven
ĠI d
Ġwe ird
ian a
Ġcateg ory
Ġt ied
Ġinf ect
C E
il arly
Ġrout ine
Ġang ry
ot es
Al so
Ġra ising
Ġmach ines
Ġregist ered
adel ph
Ġdem ands
Ġpro ved
ĠC ivil
in ity
ur a
Ġg aming
Ġincred ibly
Ġcru cial
ĠIt alian
ĠOr gan
Ġst uck
A A
ĠD allas
Ġter rible
on ic
Ġk il
5 7
l ights
Ġfeed back
Ġu pper
Ġpl astic
Ġnew ly
Ġconsum ption
ĠJose ph
ack ed
Ġest ate
Ġdo zen
Ġent hus
the re
ĠS k
Ġinn oc
Ġbill s
Ġcons cious
Ġim per
v y
ĠSp ain
Ġman ip
Ġwrit ers
Ġex cess
Ġaggress ive
Ġrep orter
ĠC ross
Ð ¸
Ġcomp ens
Ġret urning
Ġst ead
Ġprogram ming
Ġrepresent ed
Ġconclus ion
r age
ific ations
ĠTh anks
E W
ĠB owl
Ġassist ant
ar on
T oday
Ġro ster
ĠCon f
Ġorgan ized
ĠMin nesota
S ec
Ġr us
Ġpen alty
adelph ia
if er
Ġdrink ing
ĠT em
Ġs atell
Ġpain t
ind ing
Ġcapt ure
ĠPro gram
Ġexplan ation
Ġcons pir
isc al
ï¿ ½
Ġcount y
n ame
3 00
isc ons
Ġassist ance
Ġg ro
ess ed
Ġcompl aint
im p
re p
e z
iscons in
ĠRom an
gor ith
Ġ Î
Ġmag ic
Ġgr anted
Ġ %
Ġt all
ĠP arliament
ĠO per
Ġcompl icated
B ecause
Ġn ut
Ġch ances
Ġaud io
ĠA R
l ers
em en
Ġext ract
Ġr u
Ġ199 9
Ġsh ares
ĠE duc
Ġsuccess fully
ann y
Ġ5 5
Ġpil ot
D r
s m
Ġtechn iques
Ġrec overy
m ont
Ġscen es
ĠZ eal
Ġmy th
k er
ĠG i
Ġveter an
Ġ iron
ĠC are
Ġdeg rees
es y
Ġ( $
ĠI T
ri a
Ġsym pt
Ġlaw makers
Ġoper ate
Ġw estern
Ġaim ed
Ġad s
Ġha bit
l ock
ĠT est
Ġph r
rap h
Ġtast e
anche ster
id ency
ĠE p
Ġeng aged
Ġpriv ile
Ġr ating
Ġteach ing
Ġacadem ic
act ions
ĠH ot
ĠF re
Ġpass es
ĠW in
Ġdoll ar
Ġthe rap
Ġautom atically
the w
ĠPac ific
re te
Ġatt ended
Ġmon it
Ġbl ocks
Ġsurv ive
ĠS C
Ġperman ent
ĠFore ign
Ġant icip
Ġmark ed
ab ama
M P
Ġext rem
Ġh idden
ĠL ook
Ġtit les
Ġt aught
ĠSen ator
Ġen able
Ġacc omp
ĠN BC
% .
it als
st ar
Ġb om
ĠLin ux
Ġel ite
ever al
5 6
Ġdep ending
Ġind ex
Ġlawy ers
Ġval uable
ib ilities
Ġinst alled
Ġch ampionship
Ġcomp re
Ġdownt own
O ff
Ġequival ent
Ġro ot
Ġsol ve
Ġd uty
r ating
it ar
C om
Ġover se
Ġp ace
ĠB ull
ĠSpe cial
he nt
19 9
Ġreput ation
ĠB usiness
Ġun certain
Ġph ones
r ific
Ġperson nel
Ġsuff icient
Ġvis ited
ĠTay lor
Ġwar ming
ch ain
Ġprin ciples
atur ally
Ġvulner able
u ine
Ġ6 4
Ġenjoy ed
Ġnegoti ations
Ġexp osure
Ġadv is
er a
Ġgener ated
Ġf ake
M S
Ġrec ording
Ġregard less
Ġcollect ed
ĠN ick
ry pt
a ed
Ġd ict
Ġbit coin
ĠK elly
In st
Ġpattern s
Ġe lev
G etty
Ġp in
Ġc up
ĠA venue
Ġdis aster
Ġc able
im a
ĠT ake
Ġmain ly
Ġwork er
ĠAn th
Ġrac ial
al i
ĠJ osh
U R
Ġp ounds
ĠCo ast
qu arters
Ġport ion
ĠV iet
Ġaf raid
a un
Ġdef ence
ĠE astern
Ġtrack s
Ġint ense
Ġbus y
Ġins pir
ĠSer ies
ĠT ony
Ġgr ant
ĠL GBT
Ġ6 5
Ġfun ny
Ġsur gery
Ġap olog
ĠSt ill
Ġposs ession
ĠMos cow
y e
Ġprom inent
mon th
ĠC all
Ġcom ic
E d
ĠS n
u an
Ġengine ering
Ġth in
ĠM ars
Ġtrou b
Ġprocess es
ĠC oll
ĠK urd
as hes
ĠN ation
ĠC ome
or ne
Ġunus ual
Ġb es
Ġent it
Ġ âĢĻ
Ġdescrib es
ĠK ent
b al
ĠA h
ĠR ay
Ġresult ed
et ary
Ġemer ged
Ġtax p
ath y
ĠI owa
ĠO regon
Ġbl ind
Ġcor ruption
L A
Ġst ations
Ġprop ag
Ġf ought
ĠG er
Ġext ension
Ġg all
Ġadop ted
Ġcompet e
Ġrec ru
ĠIn vest
Ġbr ut
ĠZeal and
Ġhad n
8 6
Ġevery where
pr ise
ul es
act ive
Ġm ail
Ġ4 00
H S
ind er
Ġcontract s
ĠB alt
he rent
Ġfeel ings
M ean
Ġf irms
az z
Ġminor ity
idel ines
Ġadvert ising
Ġrare ly
ĠR ick
ã Ģ
f all
Ġdisc ipl
Ġcry pt
ĠA D
ĠDe ad
âĢĻ ,
Ġsan ctions
f ront
Ġsp r
ĠN orthern
ic ate
ĠPhil adelphia
Ġcamer as
ĠO s
m od
Ġstr ict
sc ape
Ġfin ance
c les
Ġc ited
Ġen orm
ĠD ar
ĠV eg
th is
Ġshort ly
v iously
ĠBe fore
Ġexpect ations
il er
ĠPol icy
Ġne uro
Ġimplement ation
up id
Ġexpl icit
m aking
ĠL o
Ġrec ip
ĠGree k
if ies
Ġthous and
Ġth ick
Ġl oud
Ġaff ili
ĠN avy
Ġin ev
man n
or ough
Ġphot ograph
cl ing
Ġmed ium
E A
==== ====
Ġscen ario
ĠW isconsin
ist ent
w rit
Ġve get
Ġvis ible
ĠF ood
f rom
Ġpl ug
ant ic
Ġlight s
Ġprior ity
Ġcreat es
ĠL ive
Ġbr idge
b ro
Ġag ric
Ġsu p
Ġt ur
Ġperm ission
il ton
Ġob st
ĠH om
g un
Ġal gorith
Ġparticip ate
ol t
Ġbrow ser
ĠF oot
Ġv en
c us
Ġh o
Ġw ing
) )
ink ing
Ġdo zens
Ġac celer
iz on
ĠGl obal
Ġcomput ers
Ġhistor ic
as ion
Ġloss es
Ġbasket ball
Ġla id
Ġt ag
ĠKing dom
d a
ask a
ur rent
ĠAm endment
el and
Ġstrik es
Ġprinc iple
ĠDevelop ment
ĠM u
Ġsc oring
re f
P r
at hered
Ġform al
Ġcoun sel
og ether
R ec
Ġm el
Ġwonder ful
Ġsh ock
Ġbeh alf
wh o
5 1
w orld
ĠH as
Ġ4 4
ĠS af
ĠAs h
ik es
Ġestablish ment
e lect
Ġinter face
prof it
ĠHen ry
5 2
Ġt or
Ġto ler
ĠG reg
ĠTh us
Ġg ained
ĠM ajor
Ġfound ed
Ġfound ation
t es
Ġfe e
Ġclub s
Ġ15 0
Ġcann abis
og en
Ġair port
ĠE SP
Ġb orrow
et ime
Ġmanufact uring
L C
AT E
Ġre ly
ili pp
5 4
am ber
Ġgen uine
ĠAl abama
ĠR oyal
Ġcomp onent
ent h
Ġrel ief
Ġrid ic
Ġjournal ist
Ġj u
rat ors
Ġwhe el
ĠKe y
r ative
ĠP ay
Ġsa ved
.... ....
ĠO ak
Ġhead ed
Ġh ole
Ġy ield
Ġ4 7
ose xual
Be fore
le te
Ġg ift
ĠS P
f ound
Ġf ault
Ġwithd raw
Ġindic ate
Ġdraw ing
Ġun iform
Ġsh ips
Ġst able
Ġban ned
epend ent
Ġ- >
ig en
Ġfoot age
Mean while
ĠR and
Ġmag n
ĠM oh
Ġdo ors
Ġrecogn ized
z y
Ġ19 60
Ġcont aining
p read
y stem
Ġstrugg ling
Ġcy ber
Ġr iver
C ol
ĠF C
Ġwall s
Ġachie ved
ĠAcadem y
Ġneigh b
Ġed ition
ĠM id
Ġpl ate
Ġsp ark
an ing
ol is
ĠV is
Ġtrans m
Ġmove ments
port ion
oun ced
b a
rou s
Ġdel iber
Ġsh arp
ĠH T
Ġepis odes
ĠPrem ier
ĠTh ree
op her
we et
s he
Ġneut ral
ir k
re ll
Ġexcept ion
Ġprodu cer
ul ating
Ġun com
ĠF und
Ġdest ruction
Ġ199 8
w r
Ġbelief s
um er
ĠS now
b ell
Ġback ed
te en
ĠRe view
Ġp ump
Ġh ired
6 9
et ts
ides pread
Ġlik ed
Ġleg end
u ce
ĠF red
ou red
Ġro les
Ġlangu ages
Ġent ering
Ġprofess ion
ab s
u er
U s
ĠR et
Ġinterview s
ĠMc G
Ġphilosoph y
ĠA S
a us
ĠAdminist ration
Ġar range
Ġh ang
Ġfl aw
Ġto x
ĠH it
ĠV R
Th ose
ĠAtlant a
Ġst adium
sy lv
ĠN ob
Ġdin ner
Ġredu ction
c ription
m ate
int erest
Ġb ath
ĠTurk ish
ĠRep ort
ĠCon ference
Ġtack le
Ġg onna
Ġa ver
ĠN ote
E P
ĠO tt
ĠDie go
Ġf inger
ĠJ ac
Ġc rop
Ġfarm ers
Ġnomine e
im ore
ĠM anchester
ĠCent re
U L
Ġ4 1
Ġbare ly
ĠP oint
Ġch a
ĠJ ason
M ar
Ġstruct ures
Ġcont ained
o en
rodu ct
bur gh
Ġdel ivery
P ost
Ġconv in
ã ģ
Ġprocess ing
Ġdiscrim ination
n i
AT O
ach ing
Ġsy nt
Ġinc ent
% ,
ri ers
ĠAr m
ĠF air
em an
Ġintellect ual
B O
S ub
abin et
ams ung
ĠD ata
ĠRad io
ĠF ield
Ġup set
ĠPer haps
C o
am i
ĠO K
ĠEduc ation
sylv ania
ĠD id
5 3
is p
ĠB ry
os a
Ġchalleng ing
Ġrestrict ions
N e
Ġpro ven
Ġmil k
Ġfore ver
Ġelect ronic
alle l
Ġh itting
P resident
t hen
Ġreview s
ĠChrist ians
Ġconv icted
Ġill ness
Ġun ex
Ġsm ooth
es ter
Ġindic ated
Ġret ired
Ġprodu cing
Ġe uro
Ġrapid ly
ĠAb out
c ar
ĠHar ry
ĠH ay
Ġ4 3
us ive
ol en
4 00
Ġcorpor ations
ĠF ed
Ġro se
l og
Ġlist ening
Ġo cean
Ġh ide
ĠRe uters
8 9
ĠU FC
Ġtechn ique
Ñ ģ
Ġl oyal
ay ing
Ġnot ion
Ġcl imb
ĠH or
Ġbeg un
Ġrecogn ition
ĠR us
aw ay
Ġrob ot
ow ing
Ġassoci ation
eng ers
Ġas ks
Ġper pet
Ġut il
less ly
y ard
Ġwebs ites
sel s
Ġtick ets
Ġdesc ription
ĠN ic
Ġsuggest ing
http s
ou ver
Ġexclus ive
ĠJud ge
Ġreach ing
Ġfl ash
im m
ĠP ack
ach us
ĠK ansas
Ġprep are
c r
h y
Ġprogress ive
8 7
Ġb urd
Ġb ail
ĠM ir
j o
Ġre n
Ġequ ally
Ġex ceed
Ġb ra
Ġhard ly
Ġfr ag
Ġm o
Ġw idespread
Ġcampaign s
Ġ4 6
Ġcont ribute
ĠMay or
D av
ĠA BC
i el
R S
ri k
Ġbr anch
Ġsh it
ĠP en
Ġiniti ative
Ġeth nic
Wh o
Ġgr ass
Ġex ternal
ĠH ard
Ġsens itive
ĠMark et
Ġpract ical
Ġunc lear
Ġnorm ally
ĠR ose
Ġrepresent ative
_ p
enn y
ĠC irc
ud es
te xt
Ġredu cing
Ġwe lf
Ġcare fully
Ġfriend ly
ĠArab ia
ust ed
Ġsc ream
Ġrac ist
c a
: :
ĠF ull
Ġrespect ively
ob s
u per
Ġinv ent
L ook
ĠL uc
olog ists
Ġoverwhel ming
r ical
ĠMcC ain
ĠN ext
Ġview ers
ĠBern ie
Ġwelf are
el f
ĠF urther
________ ________
Ġconvin ced
ĠS at
Ġinvolve ment
Ġcoll apse
ĠBe ach
anc ouver
Ġsm oke
St ar
Ġt ail
arr ass
Ġth rown
Ġconnect ions
Ġterror ists
l an
Ġstrateg ic
Ġrec over
ĠR ef
he ast
Ġh ook
rat or
um es
ĠC O
ĠL ind
b ec
ĠLat in
Ġw ine
igr ant
Ġsett lement
Ġmind s
app y
Ġstat istics
ĠO nt
Ġl ists
Ġv ital
Ġv ary
ino is
Ġfeat uring
ĠESP N
ĠMus ic
pl oad
ro lled
Ġbehavi our
Ġindepend ence
achus etts
um a
Ġfant asy
omet hing
Ġdev ast
_ i
Ġcompl aints
Ġinv ited
Ġf iscal
ut ies
ĠL y
Ġjo ining
8 5
Ġscore s
Ġdeep er
ec ut
ĠPenn sylvania
ned y
p age
Ġst eal
Ġdep uty
Ġan ger
m al
Ġel ig
it i
R ef
Ġw ars
Ġinvestig ate
ĠSqu are
ĠD ig
Ġconst itutional
Ġschol ars
I F
ĠT enn
Ġany body
Ġsubject s
Ġi OS
ĠII I
ĠT own
ĠS ir
Ġar ray
Ġsu gar
st ract
Ġal ien
Ġowners hip
Ġframe work
Ġunemploy ment
Ġl obby
Ġtrans gender
ĠDiv ision
if est
Ġimprove ments
ĠG ov
P M
Ġpe ak
ou ch
Ġmen u
Ġin ject
Ġt asks
l ad
ter ing
Ġsc reens
Ġdem ocratic
Ġl uck
ĠX box
Ġdef ine
ivers ary
Ġsc andal
c ore
Ġj ury
k ed
M e
ĠA ND
P G
ĠMin istry
Ġcompre hens
w orth
ĠAnt on
Ġdisc overy
Ġcas ual
Ġrem em
ih ad
Ġcitiz en
Ġ 00
ĠS S
Ġroad s
ĠU lt
Ġdisag ree
Ġfail ing
un ior
Ġreg ister
ick ing
Ġser ves
ĠCamer on
Ġg athered
Ġdynam ic
Ġc os
ĠN ever
Ġtest im
Ġf ab
ĠIn formation
ĠBro ther
Ġimplement ed
Ġcontrovers y
Ġcollect ive
ĠL ittle
Ġtr ained
e en
Ġfear s
ĠN SA
Ġneigh bour
Ġs oph
Ġsam ples
ir y
ab il
Ġpro sec
Ġf iction
ĠSt one
level and
Ġest imate
ĠCommun ity
ĠMed ical
h o
Ġ199 7
Ġrefer ring
ĠJ ay
Ġ199 6
ĠPh ilipp
Ġcap tain
Ġsp aces
Ġvers us
Ġleg s
ĠWalk er
Ġt ip
ĠI ce
U nder
Ġtem porary
od ing
ĠSant a
Ġno ise
Ġincor por
Ġt one
ĠE s
Ġt rem
Ġvisit ors
Ġcivil ians
Ġover t
Ġw ages
Ġre ven
ac on
Ġrem arks
Ġhyp ot
os it
Ġaware ness
Ġrecomm ended
ĠH D
c ific
Ġst upid
Ġhead ing
ĠAll en
Ġhand ful
Ġreg ulation
Ġplatform s
ĠSpr ing
ĠAnth ony
Ġacc us
Ġaff airs
Ġtouch down
b n
j a
ĠA ction
Ġattack ing
Ġr ural
Ġs in
Ġult imate
Ġext end
Ġatt ached
' .
d em
ĠC ore
Ġdiscuss ions
Ġattempt ing
ĠO N
Ġexpand ed
Ġgen etic
ĠVeg as
Ġr aces
ĠMat thew
ĠColumb ia
ĠB attle
Ġhor se
Ġign ore
ĠB rew
ĠQue en
ĠM ah
ph ones
inc luding
Ġsympt oms
ĠGuard ian
Ġsuff er
ition ally
ĠPat rick
Ġg ear
ĠK at
Ġsett ings
Ġr aw
Ġsal ary
ĠC ook
ann a
B ack
Ġi P
i y
Ġlic ens
Ġtweet ed
W ill
ĠM ake
7 9
p at
Ġpublic ation
ĠR en
Ġsuspect ed
Ġrec all
Ġpurch ased
h our
Ġfact ory
ĠP ent
Ġbr ill
Ġinter vention
Ġeas tern
Ġhol iday
f r
Ġdis pl
Ġrank ed
Ġthe at
ĠAust in
ĠConserv ative
Ġne ck
ĠM useum
Ġenorm ous
ĠB udd
Ġlog ic
ĠR oy
Ġimprove ment
Ġview ed
yth on
m ary
Ġentertain ment
ĠAP I
Ġlegit imate
Ġing red
ect ive
ĠProf essor
intend o
Ġc ogn
Ġpres um
ĠMass achusetts
ict ions
Ġ201 9
Ab out
ĠAl bert
omm od
ag g
Ġw ww
Ġadm it
ult ural
Ġc ro
Ġact ors
c ase
are t
Ġsubstant ial
Ġhuman ity
R I
Ġinvol ves
7 6
Ġres ource
Ġbrother s
Ġseem ingly
i ability
ĠB all
Ġr ational
Ġs orry
Ġlay er
â ĸ
Ġliqu id
Ġlo ans
Ġinvestig ating
Ġabs ence
in ch
Ġprov iders
Ġro ok
Ġfall en
Ġground s
Ġco aches
Ġtom orrow
Ġb ureau
ang el
M c
Ġst ake
m ad
Ġadvoc ates
Ġres ign
Ġâ Ĥ¬
Ġinvestig ators
Ġconspir acy
Ġout s
Ġorig in
Ġmedic ine
S en
Ġdram atic
Ġf ulf
Ġch apter
Ġmon itor
ĠSe ason
ĠCh air
C he
Ġactiv ist
Ġbo at
ar ms
Ġsusp ended
Ġp apers
" )
x it
ĠGree ce
re pre
ĠCont rol
W here
Ġover s
Ġopin ions
iver pool
Ġmiss ile
H A
Ġstay ed
Ġc oc
Ġd iversity
Ġco vers
Ġj ur
ĠRev olution
ĠChe ck
ĠS uch
20 14
ĠGold en
Ġcele b
Ġch at
Ġb ars
. -
P C
Ġoffic es
Ġemb arrass
ĠR oss
ov al
ĠIran ian
oty pe
ĠHe ad
Ġdis rupt
Ġcare ful
S m
ple te
Ġpre ced
we red
Ġfore st
Ġam id
Ġg am
ĠH ospital
ĠHist ory
Ð¾ Ð
repre ne
ĠC BS
ĠIll inois
our se
Ġaut hent
am med
ĠS ony
ist ing
ĠH o
R uss
re ts
ĠA cc
cl aim
Ġtransport ation
h ot
ĠG aza
ĠV ancouver
l ah
Ġhand ed
ĠW W
v ard
Rel ated
Ġconsist ently
A ss
Ġprot ocol
Ġread s
Ġmount ain
Ġatt itude
Ġclot hes
ĠP ot
ĠKen nedy
u ction
Ġh am
Ġ5 2
Ġdep ends
Ġprinc ip
Ġmin ing
ge on
ĠA le
ĠF reedom
ĠR a
Ġnot ing
ĠSh are
Ġpet ition
Sc ript
Ġwar rant
Ġp orn
Ġlow est
Ġcol ors
ĠAnd erson
Ġsh r
Ġaddress ed
co ver
Ġcon ce
G O
ĠSt at
ĠF amily
+ +
Ġent r
7 2
Ġthrow ing
ĠSt adium
d it
Ġvirt ually
Ġpre f
Ġguarant ee
Ġf ruit
ĠMe an
Ġf oss
Ġrefere nd
un es
Ġspeak s
ĠBalt imore
Ġpo ly
Ġst one
Ġcl osing
Ġste el
Ġin ner
B oth
Ġread er
U N
Ġperson ality
P art
Ġappreci ate
ĠA p
Ġbu ff
! )
ĠIraq i
ĠEn vironment
ĠT ri
Ġhand ling
Ġsur f
Ġprof its
g ener
ien ces
es h
Ġmar ks
Ġtri es
Ġk m
Ġcontribut ions
Ġconvers ations
Ġspirit ual
Ġfant astic
ĠBro ad
ĠP itt
Ġg rav
ĠEng ine
ES T
Ġcon sole
Ġhor ror
Ġg ains
Ġcover ing
Ġte a
Ġl ands
sen al
R C
" .[
ĠHar ris
Ġh int
S te
Ġshould er
ord on
Ġast ron
re tt
Ġacc ommod
iv als
Ġgu est
Ġw rest
Ġdep ression
ĠLew is
Ġencour aged
rop ri
et ers
Ġl ucky
Ġjud ges
New s
Ġinc idents
ir a
ĠC leveland
7 4
Ġsubsequ ent
Ġd rew
20 16
Ġsp oken
ĠE xt
ĠHow ard
fl ix
ut ed
ĠB ang
Ġr anks
u its
Ġb acter
Ġbro wn
ĠG etty
Ġr het
ing ton
d ri
z ed
Ġphot ograp
ke ep
sc ale
un icip
m aker
Ġinfl ation
ic ity
am ac
ann els
ĠInt elligence
## ##
ĠT ro
P lease
Ñ Ģ
Ġj e
Ġm aps
E l
ĠC A
Ġdiv ided
Ġ199 5
ĠN ATO
av al
ĠPat ri
ij ing
G E
Ġdist ributed
ĠMex ican
Ġdr ama
Ġinnov ation
ab eth
ak a
ĠUn fortunately
ix ed
Ġprem ium
Ġvot er
Ġsw ing
port ed
Ġc ust
Ġre vel
Ġd ance
ĠB ad
ĠInd eed
Ġprom ises
Ġcl im
Ġeff iciency
ri ent
ĠK ong
ĠWh ich
Ġball ot
re c
Ġ5 1
Ġtemper atures
Ġspokes person
ĠL as
Ġport ray
Ġl ying
pl ed
Ġl ocked
Ġimpro ving
ĠS amsung
Ġth rew
Ġg al
Ġmist akes
Ġmus ical
ĠAd v
ed ing
Ġj oy
Ġd ump
H er
Ġsh out
d es
Ġhom eless
N ote
Ġreplace ment
Ġcom edy
Ġche cks
ĠWith out
Ġextra ord
pl ate
Ġacknowled ged
ĠP o
Ġinstru ment
Ġrespons es
Ġbar rel
um in
Ġprotect ing
d ated
ĠB a
Ġcop ies
ĠCon nect
Ġbreak s
er ies
qu est
ĠSt art
Ġcommon ly
ĠM oon
Ġsil ver
Ġleg acy
Ġle ts
ĠPl us
Ġd ad
Ġprote in
Ġjo ke
Ġl es
oun ce
Â Ĵ
amac are
Ġpass engers
Ġmat hem
ĠB uff
er ted
it age
ĠMar vel
b i
Ġn aturally
Ġy ellow
Ġnom ination
Ġmeas ured
back s
ĠS cient
Ġabandon ed
Ġstud ied
p ie
ion e
ĠA C
Ġd iverse
ĠPr ince
ĠU se
ap ing
ĠFoot ball
hel sea
od ed
Ġacqu ired
ĠC re
Ġdemonst rated
Ġso il
iet ies
Ġfund ed
Ġ ?
Ġre ar
Ġhead quarters
Ġbl ast
Ġst olen
ĠD et
ĠM arsh
ĠL yn
Ġcount s
Ġpartners hip
il a
Ġmid field
Ġsc an
Ġt ape
Ġm ad
Ġupgr ade
arg o
ĠAtlant ic
âĢĶâĢĶ âĢĶâĢĶ
Ġord inary
Ġ( âĢľ
hes is
ĠC H
Ġm arch
Ġliter ature
Ġst ages
20 15
est y
Ġ199 4
Ġpl ain
Ġhelp ful
Ġarri ve
ĠC ost
Ġfall s
ĠN OT
Ġsc ope
Ġass ert
ĠN ev
ĠâĢ ¢
Ġign ored
Ġex it
ĠA I
Ġtw enty
al ia
_ a
Ġcom pe
P P
Ġvir us
Ġreferend um
Ġcl ock
Ġr om
h op
Ġun ions
he im
aw are
Ġin equ
Ar t
Y our
in ction
ĠDo es
Ġconserv atives
Ġpar allel
Ġa x
rodu ction
ass ador
ĠA ud
ĠM aster
8 00
Ġsho pping
ĠT rib
S ource
Ġf estival
Ġcap abilities
Ġgr id
Ġwat ers
Ġsy mp
Ġr if
Ġus age
lah oma
ĠIndian a
ĠEm pire
Ġtrans actions
aed a
Ġhop ed
Ġdist ract
ĠB ron
C ons
Ġassess ment
Ġgu itar
Ġunivers ities
Ġf ro
Ġmonit oring
ĠH ind
Ġrepresent ing
Ġr amp
Ġrat io
ĠAb b
ĠE ag
ĠD ave
Ġconvention al
ĠG un
ugh t
Ġm oon
nt il
Ġtrack ing
h igh
Ġtr ave
en cing
ct ic
Ġst y
F acebook
ĠS ometimes
com es
z ing
ĠP op
ĠDe ath
ĠPro v
Ġrel iable
Ġpropos als
Ġh ung
Ġrepl ied
ile y
Ġske pt
i ate
Ġt ie
Ġcritic ized
Ġappear ances
Ġrac ism
ack et
6 1
Ġins isted
sh ire
Ġintrodu ction
Ġappoint ed
d oor
og s
ecut ive
Ġ20 20
ĠA st
ĠB ureau
y er
y o
Ġconc rete
Ġbeaut y
Ġsuppl ies
Ġperform ing
ĠS us
Ġrece iver
orm al
Ġex ch
Ġvis iting
ĠL ine
6 2
d ney
ĠDen ver
ĠTechn ology
br idge
Ġb ub
the less
Ġlet ting
ĠHe ll
ol ph
Ġdef icit
Ġclass ified
ĠGal axy
ĠU r
Ġaccompl ish
ĠC apt
ĠP ass
6 3
Ġpres idency
Ġprogram me
in f
Ġsw im
ĠR os
or ge
on ly
F F
Ġabs or
Ġblock ed
ĠSwed en
ĠOr ig
Ġre nder
Ġdro ve
Ġland scape
ĠUt ah
US T
Ġcan ce
Ġaut o
Ġdismiss ed
Ġd ust
ĠPort land
Ġab road
R L
Ġbon us
Ġpredict ed
Ġsequ ence
c rib
Ġsen ator
f und
B M
ĠAssoci ated
ĠF all
Ġm useum
Ġdom ain
ĠA ge
Ġwar n
Ġpers ons
ĠT our
Ġrequest ed
ĠOnt ario
arch y
oc ument
Ġd ates
ag ic
Ġtrig ger
Ġtestim ony
Ġcent ers
Ġh ockey
ĠC ode
Ġart ific
Ġcongress ional
Ġspokes woman
ĠCor por
Ġrock et
Ġentit led
ac co
Ġtrans it
Ġd ub
_ r
ĠJ am
ult ane
m ade
or gan
om es
ĠAlex ander
ĠN intendo
Ġresc ue
er g
ĠFr ont
ĠH a
ĠL A
ĠCo oper
Ġass ign
Ġv es
Ġequ ality
m ony
Ġur ged
ir ts
ĠOlymp ic
Ġp atch
Ġveter ans
Ġdocument ary
Ġb read
c ut
Ġcl ar
Ġpop ulations
pl us
ĠâĢ Ŀ
Ġbreat h
Â °
it ter
Ġwhen ever
Ġviol ation
Ġtact ics
el a
p ress
Ġw ider
Ġtarget ing
St ill
ĠL ow
V E
Ġpurs ue
Ġf iring
s a
ound ing
iam ond
room s
Y et
Ġrestaur ants
Ġac id
Ġm ole
Ġs alt
iz abeth
pt on
Ġhy per
Ġcomp are
Ġemploy ed
Ġw edd
ĠB on
Ġpolit ically
ĠRober ts
ian o
ĠB ible
Ġcont rad
Ġob s
is ons
Ġphr ase
ĠD ream
Ġsatell ite
th rough
Ġsurv ival
Ġretire ment
Ġe c
Ġbank ing
ĠM ill
Ġch annels
Ġbrill iant
Ġser vers
ĠBe ijing
f are
Ġsoc cer
or ous
enn is
Ġintrodu ce
Ġexperim ents
ĠG irl
Ġprison ers
ĠJust in
ty pe
con f
Ġf ighter
Ġc ig
Ġscient ist
Ġappro ached
ra pped
f ol
Ġmonth ly
ĠA ward
ĠF orm
ĠL iverpool
usal em
the y
ene z
Ġrepresent atives
Ġdesign s
Ġpopular ity
Ġab ilities
Ġqu ote
Ġtit led
ct r
Ġmembers hip
at ar
Ġinvestig ations
ĠL ist
Ġfocus ing
ĠY OU
ĠMary land
K e
ĠC ro
Ġsa ving
Ġh osp
ĠBr idge
ĠGovern or
ĠM ach
Ġr ush
Ġc ul
Ġ9 9
Th ough
Ġobject ive
ol ves
ag a
ĠW H
ĠP D
A re
Ġt ips
Ġpip eline
Ġchild hood
Ġsh adow
eder ation
Ġpre par
Ġrat ings
Ġth orough
ĠT ed
7 1
Ġent reprene
oen ix
h ar
s l
Ġb ab
ĠB ase
ĠH ur
**** ****
ĠD utch
em ed
ĠW as
Ġact ively
rog en
Ġdemand ing
ĠHar vard
Ġlo ose
p ed
Ġunex pected
Ġsm oking
Ġden y
Ġsm ell
Ġfore cast
Ġarg ues
Ġunivers al
j ud
er ts
Ġphenomen on
Ġoverse as
Ġp ig
Ġsett led
ou ri
Ġgener ations
Ġprep aring
Ġweek ly
Ġsmart phone
ĠV ill
Ġch icken
a is
Ġprodu cers
Ġlegisl ative
6 00
ĠBe ck
Ġanx iety
Ġdist urb
Ġinnoc ent
ĠAl i
Ġcelebr ate
Ġmort g
ĠH ave
Ġprov ision
7 3
N S
Ġke ys
ĠC lick
min ute
Ġarg uing
Ġsh ame
Ġbut t
Ġquestion ed
Ġfor cing
Ġbroad er
Ġencoun ter
Ġfl ags
Ġ9 5
old s
Dav id
Ġdead ly
b ow
Ġf ool
ĠDes ign
ĠD O
Ġre verse
Ġwe igh
ĠC ow
ĠAm ong
ĠEd ward
he ld
Ġwealth y
ĠOb amacare
omp son
ast y
Ġmaintain ed
Ġt ens
Ġsure ly
bre ak
Ġun pre
AN D
ĠH op
ber ry
Ġsecond ary
Ġ5 3
Ġsh ield
ĠP A
Ġsav ings
Ġm os
ent er
Ġst ability
Ġcivil ian
" >
ocol ate
m ans
Ġro of
Ġf ur
Ġreve als
ĠCar ter
ir lf
ĠPro p
Ġann iversary
Ġs orts
m at
Ġal arm
Ġ ~
Ð ½
af e
H T
Ġrele ases
Ġton ight
a ver
Ġmin i
Ġroom s
Ġprosecut ors
Ġout rage
Ġdis order
ĠG ulf
el son
d on
irlf riend
Ġthreat ening
Ġex ha
Ġdifferent ly
Ġharass ment
Ġqu oted
Ġhealth care
Ġsubm itted
Ġwind ows
Ġrel ax
_ d
ĠLe ft
Ġl unch
Ġreform s
Ġtort ure
Ġst ored
ĠGra ham
Ġf ate
d ed
or ious
ore t
Ġo kay
Ġpropag anda
av ed
vern ment
Ġsp ots
ĠBel g
Ġinstruct ions
Ġodd s
Ġt ab
Ġ199 2
ĠViet nam
Ġround s
Ġse vent
re ction
C O
ĠH on
C omp
Ġer rors
Ġm ac
ĠOk lahoma
ten ance
ik a
Ġsil ence
ĠLiber al
Ġde lic
Ġgrad uate
ĠWar ren
Ġafford able
j i
ĠB ra
Ġcirc le
Ġcooper ation
Ġp icks
Ġm it
Ġse ar
ĠR un
ĠSar ah
est ed
ĠBl oom
Ġstrik ing
Ġa er
w alk
Ġstre aming
Ġp uzz
Ġcomprehens ive
Ġpers u
it ary
Ġimportant ly
Ġposs ess
Ġexec ution
Ġstrugg led
ic ism
ĠEx pl
w as
ail ed
S E
ors hip
m ind
Ġf ing
Ġass ass
ĠLe ader
ĠRub y
Ġint im
Ġc ow
o is
l ined
Ġdes erve
se ct
Ġland ing
ĠJer usalem
ĠPr ice
Ġcal m
Ġcere mony
Ġassum ed
ĠP erson
Re uters
is k
Ġdemonst rate
Ġdifficult y
r ace
D em
Ġal ter
Ġg ent
Ġag es
Ġd ying
ĠSil ver
Ġdist ingu
ish op
Ġste pped
ĠS ab
Ġb orders
as ury
Ġche st
Ġpoint ing
act s
Ġpr on
Ġadv enture
tr ans
ĠL t
Ġw aves
Ġkil omet
ĠNet flix
Ġarchitect ure
Ġprecise ly
e als
Ġgreat ly
Ġprom ising
ut en
es see
Ġaut onom
ĠS om
Ġconsider ation
Ġdri ves
Ġdial ogue
p a
Ġtrem end
Ġcons ent
Ġnewslet ter
ĠK ar
Ġrook ie
ik i
ĠMean while
Ġaward ed
ier ce
Ġcont ribution
Ġb urning
ick et
Ġrepe at
x x
ĠScott ish
Ġsim ultane
ĠW olf
st ep
ĠV ice
as ant
Ġdon ations
Ġh al
is a
ĠM ain
ah u
Ġvo ices
Ġanaly st
ĠSt ory
ĠBru ce
ĠA k
ater n
ĠInd ust
Ġwant ing
Ġfrequ ency
Ġinter f
Ġproced ure
ht ml
Ġg if
Ġexecut ives
ĠMag ic
Ġplayoff s
cept ions
S im
ĠDe b
Ġstay ing
ĠComm on
all ing
Ġb irds
Ġbi as
ag h
ĠB ud
it ol
Ġtr illion
Ġinc hes
ĠT en
Ġhigh lights
8 4
m ers
S L
ap olis
Ġremark able
Ġwhere as
row s
ĠPalestin ians
ĠH ong
Ġkn ee
b ury
Ġsem i
Ġimpl ications
ĠJon athan
Ġform ation
Ġstrateg ies
Ġsuper ior
hold ers
W atch
ĠP res
et he
un ity
ĠBer lin
ĠSy dney
Ġcateg ories
ĠTe ch
Ġfollow ers
rib utes
ĠTe le
scrib e
Ġcontact ed
ĠM ORE
Ġjud gment
Ġcre am
Ġemer ging
h att
Ġsm ile
port ation
it ual
Ġe le
Ġan s
Ġinf o
ĠL ink
ig ious
Ġaccess ible
vertise ments
Ġphys ically
Ġass igned
b ered
le e
a fter
Ġgu idelines
Ġdefe ated
ĠAr k
Ġw ounded
Ġf et
Ġtri als
Ġman aging
ie v
u h
Ġmin istry
Ġr iding
Ġgr ade
Ġindic ates
Ġcent uries
ĠE ff
ra ig
St ory
Ġst em
Ġco inc
Ġ5 4
iff s
Ġspe ll
ĠAff airs
O K
Ġcounter part
Ġmeaning ful
Ġop ens
Ġt iss
Ġe ase
ĠMr s
Ġclot hing
Ġmarg in
c est
Ġph arm
Ġâ ĪĴ
ĠA z
ann on
Ġparticip ation
st al
ced ented
ĠCap ital
ĠSt ore
Ġre vers
ĠS ix
Ġpo ison
o ice
ĠBre xit
ĠY emen
om ed
Ġcompet ing
Ġmem ories
Ġl apt
y es
Ġthe ories
Ġrec ipe
Ġpass age
St ep
ĠT es
Ġg ross
Ġag ed
d iv
in ator
Ġdr one
8 3
ĠC redit
Ġdisp ute
Ġbl ank
r if
- >
Ġdam aged
v ision
Ġ199 3
ĠHam ilton
Ġhost ed
Ġsubst ance
V D
ĠC helsea
Ġpromot ing
Ġopen ly
ĠInst agram
Ġar bit
ĠG T
Ġ19 50
Ġfac ilit
Ġclin ical
ĠChild ren
Ġb in
ĠCr ime
Ġ1 20
Ġinvest ments
Ġcons ensus
ond er
ere nt
Ġeduc ational
ĠH old
Ch rist
ĠV ik
um ble
Ġn ic
Ġcust ody
Ġelig ible
Go ogle
Ġdis h
Ġleg ally
Ġend orse
ĠLe on
Ġmiss ions
ĠHaw ai
Ġmem o
Ġg ate
iz er
Ġstud ying
Ġman ifest
ĠL am
Ġt ables
ere my
Ġchar ity
ig ate
Ġaddress es
Ġdisc ount
ĠP ict
Ġins pect
Ġbatt les
e ven
Ġathlet es
ĠAs sembly
_ m
M s
Ġn in
a uthor
ar ation
ĠF al
Ġfoss il
Ġsuspect s
om y
Ġenthus i
s es
ro ph
ĠMan agement
Ġt ired
Ġ2 50
ĠTr ade
part y
Ġd ating
Ġhe lic
Ġspect rum
Ġpresent ation
ĠSt ation
er ia
ĠS et
op en
Ġbott le
Ġl ux
Ġfund ra
Ġenh ance
ge red
b its
Ġtherap y
ĠM etro
ĠW ales
Ġper ceived
ĠSe an
ater al
ak h
Ġback ing
Ġdomin ant
C omm
ac hel
Ġdef ending
Ġunder lying
Ġdiscuss ing
ĠE th
Ġrac ing
ri ors
ĠTh rough
ĠF estival
Ġburd en
Ġexpand ing
Ġstop s
Ġmus cle
ĠEx per
Ġv ig
Ġbe ings
h ard
Ġb ot
G A
Ġt ap
Ġtrans action
ĠMar x
F O
we ek
Ġn a
ch ild
Ġrec ruit
Ġpick ing
ass y
Ġm ood
ĠG ary
H z
it udes
ĠD er
Ġman agers
8 1
Ġgather ing
Ġhop efully
ĠT ok
ar ia
ll a
yl um
ĠU ber
ĠLib ya
pt ions
ĠE qu
Ġcr us
Ġimp ression
M us
or able
8 2
land o
Ġinst itution
Ġscr ut
ĠBat man
Ġproced ures
ĠV ideo
igen ous
Ġro y
Ġp ocket
Ġcreat ures
Ġarri val
ĠT ai
Ġh ip
Ġe ager
m ath
Ġpoll ution
Ġst ere
ĠAnd re
Ġcomp at
Ġfood s
Ġkit chen
Ġrec re
mark et
T P
ĠB oe
Ġorgan ic
o z
al ysis
Ġsurv iv
ĠPent agon
Ġsh ipping
Ġcapital ism
le ft
Ġtim ing
Ġrequire ment
ĠMor gan
Ġgl ad
i ac
Ġunf air
ĠAss ad
Ġins ult
Ġm ice
ĠC S
con st
Ġo m
it ure
ĠRep resent
ak i
ĠEl izabeth
Ġdise ases
Ġindust ries
Ġper mit
ĠOak land
Ġb owl
ĠMur ray
ĠS on
Ġ5 6
Ġhelic op
od ox
ĠB al
Ġdiv or
ri x
Ġpunish ment
Ġbe ach
se ction
ĠC reat
Ġfl ed
k ing
ac her
Ġhosp itals
ĠM ess
ĠH art
ative ly
b ase
Ġshe ll
ĠCome y
ad ers
Ġt ons
Ġengine ers
Ġse ed
play er
j s
Ġh ire
Ġstat ist
Ġs ed
Ġmod ule
ĠK ick
Ġcoach ing
Ġob sc
Ġans wered
Ġn erv
Ġregul atory
opy right
Ġgraph ics
Ġst ance
Ġso vere
v an
b ing
alt ies
Ġexpl aining
Ġrhet oric
O ut
Ġbe ating
ĠKe ep
ĠMic hel
P re
ol n
ĠY eah
Ġb ow
ag ger
ĠEm ail
Ġacknow ledge
ĠO p
T ER
ab et
am ous
ol ar
ĠF riend
ov a
Ġprincip al
Ġpull ing
T y
Ġsign ature
A ct
** *
Ġconv ince
oc ial
og y
Ġt ut
cos ystem
Ġvar iable
Ġsearch ing
ol ving
Ġover come
em ic
it o
Ġsix th
Ġprefer red
Ġadv iser
Ġtrend s
Ġd ies
ĠTenn essee
ĠML S
Ġp ill
ĠRus sell
Ġreb els
ĠTh ompson
Ġperiod s
ri or
Ġinter action
oc a
Ġmer ch
Ġpsych ological
unicip al
ĠR oll
Ġ( "
Ġeconom ics
ĠO x
ĠUs ing
Ġ5 9
ĠS ure
Ġout lets
Ġsign als
ĠCharl ie
C al
Ġbill ions
ĠEx ecutive
w atch
Ġ !
Ġline up
ĠKent ucky
br id
ĠInt el
Ġe cho
Ġ199 1
Ġtem por
Ġegg s
Ġbad ly
Ġse gment
D ef
F inally
Ġm ath
Ġset up
Ġsent enced
ĠY an
Ġre nd
Ġevery day
Ġcommand er
C lick
net ic
ĠG il
Ġl oves
ar re
Ġgen es
Ġrequ iring
Ġinv asion
Ġar r
Ġb old
Ġbul let
Ġpart ly
R em
ĠH oll
Ġesc al
Ġrem oval
ĠS a
ĠJ ean
Ġinst ant
ĠDr agon
Ġar ts
Ġtop ics
V iew
Ġinqu iry
Ġg ene
Ġu pload
Ġam endment
Ġunder t
Ġweak ness
Ġconcept s
ĠR ather
enez uel
F l
Ġr h
Ġsh oes
Ġg ig
ĠDel hi
Ġfab ric
E arlier
Ġse ctions
Ġfrequ ent
Ġocc urs
ĠI ron
? ?
Ġm igrants
ke e
Ġcompens ation
Ġengine er
M ich
art s
ĠF inally
Ġattract ive
ĠMc K
ĠB i
A F
Ġun ve
N BC
20 13
AL L
Ġc iting
ang le
Ġtwe ets
Ġl ad
Ġut ility
ĠS ound
Ġ ).
ĠE T
Ġpost ing
Ġridic ulous
in stein
d y
Ġblock chain
Ġspeak er
ĠCl ark
aren cy
ĠL i
Ġcl er
ĠB ox
Ġcor rupt
Ġtal ented
art ed
Ġcoll aps
ĠThere fore
Ġnot able
Ġe lder
Ġgen re
iz za
Ġdead line
R eg
Ġf o
Ġle ct
Ġcar ries
Ġro lling
ĠA N
Ġelim inate
ne cess
Ġappro aches
Ġm ask
Ġanaly sts
Ġs its
ĠF inal
âĢ Ĳ
Ġinst ances
Ġint r
Ġpubl ishing
Ġunpre cedented
Ġro ots
s burgh
Ġc ens
Ġcol our
ĠSim on
ĠPh oenix
Ġcollabor ation
gr ade
p g
Ġb ene
Ġtox ic
Ġinequ ality
Ã ±
Ġneighb ors
ĠZ e
ĠPri v
Ġdram atically
Ġins ight
Ġhom osexual
Ġc ock
Ġpri ze
Ġtown s
Ġar c
ĠHar per
Ġextraord inary
en ess
Ġper ception
ĠWhe ther
ĠG ordon
ĠB M
Ġbut ter
Ġmain tenance
ĠPh ill
Ġche aper
Ġassoci ate
ĠP sych
Ġcou p
Ġpar ad
g us
Ġshe et
ĠBel ow
Ġg est
sc reen
Ġcogn itive
Ġencour aging
is dom
Ġse ized
A Y
Ġinterview ed
Ġdeploy ed
d s
row ing
o pp
Ġdream s
v ia
Ġviol ations
Ġcamp s
Ġcom ics
ĠCap tain
Ġconstit u
ĠRe agan
Ġemploy ers
Ġres erved
Ġaim s
ĠE vent
ĠB ow
Ġfunction al
Ġmyster y
Ġdisplay ed
m ic
Ġbu ck
Ġsp an
Ġlo op
ĠEconom ic
Ġoccas ionally
ĠP ers
Ġtr aged
E X
ĠM it
Ġbirth day
ĠG O
ixt ure
Ġex port
ĠV e
ap ore
ric ane
Ġhero es
Ġv end
Ġfat al
ĠS av
Ġcorrect ly
Ġprompt ed
est yle
ib an
Ġin du
ĠSt ew
w ill
Ġst amp
Ġcontem porary
T op
Ġprospect s
Ġrecommend ations
Ġdiplom atic
ĠCo le
Ġ5 7
Ġdisappoint ed
ĠJ enn
Ġconst itution
Ġmanufacture rs
Ġexc lud
ĠA ccess
Ġad equ
Ġmoder ate
Ġe cosystem
Ġaccomp an
ĠG ro
Ġdemand ed
ĠSt aff
ĠG DP
Ġbe ll
ĠMont real
V P
ĠPhot os
igh th
ot ing
che ck
Ġn ose
arg et
Ġple ased
P aul
ol i
Ġlab our
ĠE ver
Ġlif etime
ĠBrook lyn
T R
ĠD ick
Ġcommunic ate
ĠRes erve
Ġfight s
S C
Ġmod ified
Ġs essions
r ac
Ġwedd ing
Ġdr unk
Ġexplos ion
Ġbi ological
Ġkn ock
ĠE PA
Ġland ed
ĠO cean
ĠT ax
Ġrep air
ĠL ibrary
ĠAuthor ity
Ġ8 5
Ġrepresent ation
ĠG iven
Ġartific ial
ail able
Ġsub sc
Ġ5 8
s ub
Ġp a
Ġown s
G e
Ġrel ation
ĠAnton io
le ans
og a
end ar
Ġdesign er
Ġl ift
Ġkick ed
Ġconscious ness
9 6
M od
el ing
ĠKh an
Ġh anging
Ġless ons
ĠOr der
Ġdef ender
Ġimp osed
ĠDig ital
Ġgu ests
ad i
Ġan onymous
h as
ix on
Ġconcer ning
T ON
Ġpregn ant
Ġadop t
Ġmaintain ing
Ġunder ground
Ġass et
ĠE st
ĠF ive
Ġingred ients
Ġrec on
Ġsh irt
ĠR ome
ĠCh annel
Ġche ese
Ġp unch
th rop
ĠB ol
ĠAl an
inc oln
on z
Ġint ellig
Ġem p
ĠCon vention
Ġpod cast
St ate
Ġemot ions
Ġinter ior
ows ki
Ġcou ples
Ġless on
Ġcreat ure
Th anks
Ġsh ocked
Ġopp ose
ac re
ĠAr gent
is ition
": "
Ġperform ances
Ġres olve
Ġvolunte ers
ib l
bour ne
Ġsold ier
Ġlog o
Ġstim ul
Ġter r
9 8
u z
p ack
Ġv ocal
ĠB ul
ĠProt ection
Ġg irlfriend
ĠB urn
M ark
Ġacc um
Ġjump ed
Ġsum mit
app ropri
Ġann oy
c or
m ir
Ġab stract
Ġj ihad
Ġm ile
Ġn urs
at us
Ġmilit ants
ult y
ĠP age
Ġir re
w ed
20 17
ist ant
Ġprofession als
ĠMiss ouri
ol s
2 50
ĠAn na
Ġgu id
ĠL ear
Inst ead
Ġref ers
Ġtravel ing
Ġs wit
Ġdesk top
ac les
F i
P L
u i
Ġisol ated
Ġexist ed
Ġadvoc ate
Ä ĥ
Ġopp osing
Ġrec alled
W he
ĠF ant
Ġl ibr
Ġfor um
i ens
ĠCo al
h uman
Ġintegr ation
ĠD ur
Ġdescrib ing
Ġbox es
ĠC ase
ĠJava Script
ĠL im
ĠOr leans
Ġ6 00
Ġconf used
Ġmin imal
ĠIm m
Ġ _
Is rael
Ġpeace ful
c re
Up date
ial s
Ġin herent
Ġsurround ed
St ation
tain ment
g ets
ĠM ail
Ġst ro
ĠCap itol
el le
ro ck
ear ly
Ġh oles
ĠC ustom
ĠBar b
Ġ198 9
Ġintegr ity
Ġme al
ĠS D
ĠS U
hatt an
ump h
Ġinspir ation
l s
s ome
own ed
Ġconfig uration
Ġexp ense
Ġcred its
ĠR s
Ġ vert
Ġide ology
ĠK now
Ġelect oral
Ġsub ur
ĠPlay er
Ġp m
od ge
Ġy ell
Ġsil ent
Ġbur ied
ĠMar ine
Ġsusp ic
ĠTr ust
new s
ĠNev ada
Ġs ne
Ġd ual
Ġdesper ate
ĠDo ctor
Ġst ack
ag en
âĢ¦ .
ĠH an
Ġcho osing
Ġbom bs
Ġcl ip
ik h
Ġteam mates
Ġb ands
Ġfle et
im ize
N ext
Ġaccept able
st arter
gr aph
ĠOr lando
h ist
Ġregist ration
e lection
ĠH al
ĠO cc
ĠW right
ĠP y
ĠPort ug
Ġbrut al
ĠHit ler
Ġcon vert
ĠC B
Ġstrugg les
Ġan cest
Ġsubscrib e
ĠAll iance
C D
Ġmoment um
G ener
( "
Ġkey board
Ġj er
ĠAre a
ĠLe ban
Ġpromot ion
ĠAr senal
ĠOn line
Ġev ident
Ġsc ar
ĠM ove
Ġorgan isation
Ġwond ering
Ġclos est
Ġat he
ĠInd ones
Ġembr ace
Ġrefuge e
ĠFollow ing
Ġte eth
ĠB an
Ġpro be
Ġut ter
aw ks
Ġoccas ional
ĠH amp
Spe aking
Ġas sembly
1 50
Ġbank rupt
Ġrefere nces
Ġjournal ism
Ġexp enses
ĠN on
Ġqu it
ĠSte el
Ġsubsequ ently
Ġmon ster
T ime
ĠH and
Ġpr ide
Ġgu ards
f ather
Ġinterpret ation
ĠW ord
ch ing
ĠV enezuel
Ġy eah
Ġrem oving
Ġsub mit
Ġdel ight
Ġprof ound
he ro
ĠInd ependent
w ind
che ll
Ġcomprom ise
Ġdistrict s
ĠPitt sburgh
Ġth ro
Ġkn ife
Ġconsider able
Ġsurv ived
Ġexclus ively
Ġst ating
h ire
str ong
Ġeng aging
Ġref use
Ġmathem at
ĠC ould
Ġcharacter istics
ĠV en
Ġdom inated
Ġl obb
Ġjust ify
ip edia
Ġbrief ly
ĠMount ain
ĠN azi
ĠS ource
Ġb ird
v i
is d
Ġmin isters
Ġ7 2
Ġl in
Ġch ip
Ġtremend ous
Ġcont rary
Ġelect ron
Ġsustain able
ĠM un
ok er
Ġload ed
Ġnerv ous
Ġdisapp ear
Ġfl our
A B
ou b
Ġrout es
Ġpro st
ab e
Ġexecut ed
orne ys
Ġsoph istic
Ġg ri
Ġpro portion
Ġas ylum
Ġsex ually
Ġgame play
ĠEvery one
ĠD uke
Ġdon ors
D is
at tered
Ġconf usion
Ġrevolution ary
ĠR est
ars on
ĠA aron
oc ated
ĠAnd y
g ate
book s
Ġcur ious
ĠR aj
Ġp ir
el ve
T E
w a
ĠTre asury
Ġh arsh
Ġatt ending
Th ank
ĠAd ams
li hood
Ġspeak ers
Ġc abinet
20 12
He y
Ġnow here
st op
Ġfle e
ĠS H
Sh are
Ġbr ands
Ġprint ed
Ġch ronic
Ġ8 00
inc ome
ã ĥ
ĠTes la
Ġcharg ing
Ġeng ines
Ġv oid
Ġphys ics
ĠH aving
b ound
ĠB u
ut ter
Ġconcer t
Ġout comes
ĠSher iff
ĠSh ort
gr ad
ĠOff icer
ĠS E
ĠK l
Ġstreng then
c al
ĠA ren
Ġmir ror
Ġfail s
ĠP ant
Ġpass enger
Ġcrim inals
Ġcha os
th ood
t ra
ĠiP ad
Ġstead y
ĠRob inson
ĠG ib
ubl ished
ĠCur rent
ur se
ĠI M
ĠÂ ±
ĠNet her
Ġrob ust
ĠMan hattan
Ġsp o
Ġend ors
Ġspec ulation
9 2
im mer
am ine
Ġde emed
ree k
Ġh iring
ĠTal iban
Ġdro pping
mer ce
Ġf el
Ġcert ific
ĠGi ants
Ġintegr ated
ĠSing apore
ing e
ĠSp ir
ĠCh ange
Ġpres ents
ĠJ un
ĠPer ry
sec urity
. ]
Ġguarant eed
Ġav o
Ġle aked
ot te
Ġpack ages
Ġf ert
Ġple asure
b en
ĠN orm
re ck
Ġep ic
AR T
Ġsusp ension
Ġchalleng ed
Ġpack ed
res hold
Ġcheck ing
G l
Ġeng agement
ĠK ings
Ġrad iation
Ġb its
H P
Ġbomb ing
ar o
Ġsl ot
m ble
Ġhun ting
Ġal ert
Ġprodu ces
Ġwitness es
ol id
ĠUS B
Ġpat ri
ĠM ult
Ġdef ended
Ġedit orial
ĠF A
ĠB and
Ġw et
Ġrec overed
lim ited
ĠC raig
Ġdevelop ments
Ġsimultane ously
ĠA lp
Ġbacter ia
Ġblock ing
Q L
ĠH oly
Ġattract ed
e le
ĠL ater
Ġbo om
Ġfig ured
Ġall iance
ist le
Ġresearc her
Ġv it
Ġcor rel
Ġtaxp ayers
9 3
ĠH ung
ĠEnter tainment
app er
Ġhost s
ment ed
ĠN one
ĠJ eremy
Ġd a
ĠRuss ians
ĠC ON
Ġcap s
Ġexam ine
re nd
iz arre
Ġpat ent
wh ite
ĠO pp
Ġvari ables
t arian
ĠL incoln
Ġc inem
sc ar
Ġem bed
ĠF uture
ĠT el
ĠChair man
Ġj unior
Ġo xy
Tr ans
an im
ate ful
Ġpubl ish
Ġt ear
ĠT ower
9 7
ĠL es
le ep
Ġ6 6
ĠPol and
Ġbre ast
ĠUkrain ian
ĠStud ies
Ġen act
r ics
Ġ6 2
Ġfl ights
G u
N et
Ġaccur acy
ĠV lad
Ġimpact s
Ġdist ribut
Ġsurprising ly
ĠH u
Ġra ises
ades h
Ġburn ed
Ġsol o
f unction
7 00
lyn n
Ġfl av
Ġv ent
Ġl os
AT CH
Ġmet h
secut ive
Ġang le
à ¤
ĠD ak
ĠW ould
Ġqual ified
Ġdecre ase
ĠS ci
ri v
Ġev olved
Ġev ac
h r
ĠC PU
Ġfl avor
Ġun necess
gg ed
on ed
Ġcourt esy
Ġas semb
ĠMP s
ress ing
Ġproduct ive
Ġfing ers
ĠW i
Ġintim id
ard o
Ġbl amed
Ġr ic
ut er
Ġexpect ing
ethe less
Ġdepend ent
Ġtransfer red
ĠH IV
Ġident ical
Ġexpect s
R ight
Ġvis its
Ġacc ord
Ġen abled
ĠR angers
B N
Ġl ane
oph ob
ĠT otal
ĠStew art
Ġv enture
ĠGr iff
r ition
g ly
Ġv oc
g ood
Ġdepart ure
Ġsh ops
c ap
olit ical
if ier
Ġign or
Ġb arg
Ġmotiv ated
Ġrepe al
ĠG ill
Ġkill er
ĠMiss iss
ĠU b
Ġo rient
Ġagree ments
Ġconflic ts
im ir
Ġforg otten
Ġsc ared
Ġrest ore
is hers
ĠT s
om ic
ĠComm and
th odox
Ġorgan is
l ow
Ġnation wide
Ġinflu enced
Ġcrit eria
Ġoccup ied
Ġrank ing
ĠEd ition
} }
Ġtrail er
Ġin her
P al
ĠP ope
Ġtele phone
ter ror
Ġanim ation
ĠTh ings
Ġback s
L ist
Ġoccas ion
ast e
ĠSh ould
ĠO R
Ġfunction ality
Ġcheck ed
w ich
Ã ¢
ĠTh ink
ĠB or
ĠG h
Ġanal ys
Ġconcent ration
Ġhousehold s
ern and
ĠRed dit
Ġres erv
Ġcour age
Ġalgorith m
rim inal
Ġpromot ed
ah oo
M AN
Ġre ass
Ġimp rison
Ġexplicit ly
ĠC C
look ing
ĠMod el
ick ed
Ġcy cl
Ġbab ies
Ã³ n
B r
Ġo ught
Ġt anks
ĠR h
Ġrele asing
9 4
ĠSupp ort
ĠH ug
S U
ond uct
I E
Ġb ases
Ġst atic
J P
b ian
ER E
Ġant ib
For mer
ĠMore over
Ġprivile ge
ul se
Ġstri p
ĠPl ace
ĠJ erry
ĠWar ner
Ġmet ers
ĠPro duct
Ġentr ance
N ame
R ed
u ating
ĠD u
Ġdes p
Ġst ats
d r
Ġinvestig ated
ĠN i
Ã §
Ġover l
Ġsen ators
Ġtow er
Ġout f
ipp i
ĠCanad ians
Ġw ise
ag ine
Ġappl ies
v as
Ġ `
Ġform ula
A g
ĠC old
ĠEgypt ian
Ġuncertain ty
Ġh ub
ĠChrist opher
Ġinev itable
Ġprov ider
Ġinflu ential
Ġpain ting
Ġmod est
ĠStand ard
us er
ĠB C
Bl ack
Th ree
Ġdest ination
ĠQue ens
Ġl ens
Ġch ips
Ġinf ection
Ġall y
Ġor bit
Ġcontin u
d ict
op t
Ġsole ly
ĠN O
Ġdim in
ie re
bre aking
Ġbel t
Ġthe ft
Ġsc rew
Ġin aug
ĠN iger
le ading
Ġm art
Ġins ist
ac o
Ġinvest ed
ĠAl aska
Ġpolit ician
Ġtransp arency
Ġimm une
ri ke
ĠE b
ĠOtt awa
Ġprov isions
ĠPlay Station
l arge
Ġsing er
ĠUn ivers
id al
Ġhand led
Y eah
oll ar
n ie
ĠOlymp ics
Ġuncom fort
Ġimp ressed
ĠLouis iana
ry ing
" ,"
be ing
Ġin box
Ġ6 3
o ft
Ġoper ator
ĠNether lands
ĠO il
Ġball s
ĠM ap
ĠM arg
ou p
id en
Ġsim ilarly
ab out
Ġlif estyle
Ġhead lines
K E
ĠJ ane
Ġcol leg
Ġbo ards
u ccess
rif ice
U C
ĠSt ock
ĠE nt
Ġdis abled
B ook
iz ations
for ward
ĠStan ley
Ġoper ated
Ġregard ed
unt u
Ġt ent
ĠTre k
Ġlaunch ing
il ation
Ġrel uct
amp a
Ġphotograph s
o vers
n an
Ġd iver
Ġkid n
Ġsa ke
Ġb ol
Ġke en
Ġvol unt
ach ment
c itation
Ġcon secutive
Ġdet ention
th ur
ĠD rug
ĠM other
in st
ĠUn like
ĠTy pe
off s
s uch
Ġprosecut or
C or
Ġprosec ution
Ġg ym
i ar
Ġconv iction
act or
? âĢĻ
z one
m illion
Ġearth qu
Ġle an
Ġro lled
Ġfil ter
le ted
S upp
Ġsu ck
ist ance
). [
ĠS N
ĠL og
Ġsett le
Ob ama
Ġk iss
G ood
ĠMod i
ke ley
ĠCapt ion
ï ¼
ĠHamp shire
Ġm ales
bit ious
Ġbul k
ĠT able
? )
ĠCor p
in ite
ar med
Ġtraged y
Ġt ears
ĠCorpor ation
ol as
Ġch ocolate
Ġpres erve
Ġguid ance
ĠBl ood
on ing
ĠBe ing
ĠPhilipp ines
or ate
ĠF ather
Ġpo et
Ġle ak
Ġm ouse
ut her
eral d
Ġin ex
Ġb ags
ĠS everal
ll or
ur ches
t own
Ġexam ined
Ġrec k
Ġaccept ing
ĠFore st
Ġdest ro
Ġmiss iles
ĠF O
ĠT R
angu age
Ġbene ath
Ġparticip ating
Ġel abor
S D
Ġj et
Ġabs urd
F urther
viron ments
ass ion
Ġneighborhood s
Ġsy nd
Ġreflect s
Ġcompe lling
Ġcompl ained
ĠStan ford
tr ack
Ġb other
Ġlux ury
d ep
ĠP a
Ġcontro ller
Ã ¨
Ġad ap
Ġne ur
ĠVictor ia
ix el
Ġ1 000
ter y
ĠH ans
Ġthe ater
ĠMar io
ĠGr ant
ĠN elson
ĠEd it
Ġen for
Ġshel ter
Ġn u
ĠMedic are
ĠM orm
l aim
Ġf its
ĠMedic aid
CA A
ĠD a
ĠMar c
Ġjur isd
Ġ< /
Ġcons ists
Ġsignific ance
Ġpo lling
Ġoccas ions
Ġsto pping
Ġpost er
ĠSc he
ĠRub io
ĠTok yo
ĠK night
Ġreal istic
Ġexc use
Ġb one
Ġp ose
Ġwire less
ĠK r
d og
ĠCl oud
Am ong
Ġaccompan ied
Ġt ension
Ġsee ks
ust ing
friend ly
E m
Ġback up
Ġmand ate
Ġrese mb
Ġass ists
ĠContin ue
Ġthe oret
Ġposs ibilities
D own
Ġsub tle
ĠL ocal
uck er
ĠFil m
Ġaccus ations
E ach
Ġbet a
Ġcook ing
âĢĿ )
ir s
ĠCh ampions
ĠG ard
Ġsupposed ly
ĠW y
Ġemphas is
Ġadv ent
boy s
Ġfin ishing
IL L
ĠSnow den
M B
_ f
9 1
Ġsust ained
w all
Ġin hab
ĠQu est
Ġf er
Per haps
Ġbeat en
ĠMal ays
ous es
ĠW inter
Ġa wards
Ġd ressed
Ġproject ed
ĠAb u
amb ling
ite ment
Ġb ump
ĠNot hing
Ġinnov ative
ĠEvery thing
ĠCh ron
Ġaffect s
B el
ĠP ear
ĠV in
Ġt orn
Ġprevent ing
Ġconstruct ed
c ard
ĠT am
ĠS EC
ect s
Ġlong time
ĠS port
ĠS ection
Ġfuck ing
Ġpol ar
Follow ing
Ġer u
Ġg arden
ĠOrgan ization
Ġoper ators
Ġspeed s
ĠC as
Ġout standing
ĠFin ancial
Ġf ed
ĠD E
Ġmortg age
Ġman ual
Ġ3 60
ĠHam as
Ġpass word
Ġrec ession
Ġent ity
Ġdr um
ĠFl ash
D R
ĠP ython
ber y
Ġw isdom
Ġdocument ed
Ġg ut
ell o
Ġtrad ed
p ing
il st
ĠH ad
b es
ĠN ature
ĠSo ft
Ġint rig
Ġoccup ation
ĠKurd ish
Ġold est
Ġg olf
Ġdocument ation
ĠM ind
Ġfavour ite
ĠJim my
ne g
Ġpra ised
ĠN ich
ĠD al
Ġresident ial
Ġcop s
Ġspot ted
ot ion
inc ial
ĠSte am
Ġreven ues
G r
f irst
Ġlay ers
ra h
n on
ĠI V
J o
Ġwal ks
ĠComm ons
r c
Ġinteract ions
cent ury
ĠPatri ots
ĠTh ird
ant e
Ġsur ge
ĠC R
d f
Ġb icy
Ġaw ful
io x
Ġcalcul ated
Ġf ut
Ġpan els
olit an
Ġcirc uit
ug by
T O
Ġexperim ental
Ġinf ant
st ra
Ġrenew able
Ġmyster ious
Ġautom atic
ĠAb d
Ġtr ains
th al
any ahu
Ġth reshold
ĠOther s
Ġt ale
---------------- ----------------
Ġd irty
Ġdeal t
Ġreview ed
ig e
c ott
Ġpain ful
Ġgl obe
Ġ6 1
Ġtri ps
ĠN ash
ĠAir port
ĠC itiz
ch arg
as m
Ġcle ared
ĠWay ne
Ġ6 8
Ġearn ings
â Ĥ¬
Ġcross ed
Ġadminist rative
c ular
Ġco in
Ġconven ient
Ġr iders
ĠL ad
eg a
ĠK a
Ġgraph ic
Ġthe r
Ġ6 7
Ġr anging
Ġb izarre
Ġliber ty
ĠTr ue
Ġdispl ays
re qu
Ġen vironments
ĠE mer
Ġicon ic
Ġp our
Ġrob ots
Ġmother s
Ġit er
Ġhost ing
Ġl ady
Ġam bitious
ism s
Ġ198 8
Ġhe s
f ish
B ar
Ġres erve
r ons
ia h
Ġsec ular
ard ed
Ġdes ert
ĠMc Donald
Ġpred ec
pp ers
sel ess
ĠF le
Ġconver ted
Ġdo ctr
l ink
Ġtiss ue
is ive
v ar
ĠMur phy
ĠA FP
er r
Ġdrop s
ĠL arry
ĠCl imate
ow der
for mer
Ch ina
j amin
Ġexplo it
Ġcreat or
ĠC L
ĠDe an
Ġaddress ing
Ġres ort
ĠN ik
ĠRed s
Ġh iding
Ġsafe ly
Ġs ons
Ġatt orneys
Ġdevast ating
ĠB ah
Ġan ch
Ġsleep ing
sh ore
itt y
Ġcross ing
ĠSum mer
u ably
Ġsp ray
Ġrestrict ed
Ġarrest s
Ġor g
ay ed
bl ock
Ġw ore
ĠM A
Ġscrut iny
Ġp ension
Ġunf ortunately
Ġt um
Ġbur st
am ents
Ġlibr aries
b in
Ġdepart ments
com p
Ġmurd ered
ĠDe ep
Ġcompet itors
Ġavail ability
Ġnewslet ters
ĠF OR
Ġal ign
i ated
Ġfil ing
Ġcontain er
Ġadop tion
om er
ĠD rive
Ġnewsp apers
D id
ĠSing h
Ġproduct ivity
ist a
k ward
EM ENT
be at
On ly
Ġpregn ancy
Ġto ss
Ġbuild s
Ġre ign
Ġover night
Ġappear ing
P I
Ġindic ation
un a
cel ona
Ġear ning
Ġpubl isher
ĠS ac
Ġcomb ine
Ġview ing
Ġd uties
Ġm isc
ĠN S
ĠMan ning
Ġf ishing
Ġreflect ed
ĠS in
ĠP i
ail ing
Ġuncomfort able
ay a
ĠFurther more
put er
qu es
ĠMag azine
ĠCom b
Ġm unicipal
M art
is ode
ĠB ir
v o
o op
ĠN ative
Ġhor rible
ĠK al
Ġchemical s
C ar
Ġsepar ated
g ence
Ġan onym
Ġrel ie
Ġre wards
Ġsophistic ated
Ġr ivals
ut o
Ġv iable
Ġc ave
Ġdes erves
go vernment
t wo
ĠP ir
k ind
b ably
ight ing
IC E
w ords
Ġpr icing
Ġm m
n amed
ers ion
Ġact ed
oy d
ari os
Ġrel atives
May be
Ġwin ners
ĠMad rid
Ġprepar ation
Ġequ ipped
Ġlimit ations
Ġr itual
ĠF ig
u els
Ġre cept
AT ION
Ġ198 4
Ġamong st
Ġcomplex ity
Ġmechanism s
Ġsl ide
ĠCh rome
ĠRon ald
Ġfire arms
Ġparam eters
ar ians
ĠF ederation
Ġ= =
Ġcomm od
Ġpe er
Ġcar rier
_ l
ĠWik i
ĠPh ys
ĠW r
Ġsuggest ions
ac cept
Ġexpl oring
P s
Ġdelay ed
Ġme ets
Ġtou g
Ġ198 6
ĠTai wan
Ġb ip
Ġlight ing
ĠHT ML
Ġwh is
Ġto b
Ġt u
Ġcur ve
Ġstart up
Ġintellig ent
ĠMississ ippi
B en
ĠColl ins
Ġcelebr ated
win ning
Ġce ase
ĠBl u
Un fortunately
Ġab und
Ġens uring
Ġquiet ly
i ors
ĠHe art
Ġinter ven
ĠT an
Ġnight s
Ġreb el
Ġg host
Ġcollect ing
ĠL uke
ell er
Ġdet ained
ern el
Ġworld s
Ġtransl ation
m ons
at al
ĠMcC on
ĠM and
Ġemploy er
Ġor ange
ĠN az
ĠP oll
Ġbe ef
ĠD VD
_ n
Ġrad ar
ĠLe vel
Ġinstall ation
Ġdeliver ing
Ġdesign ated
les h
Ġdeb ates
Ġm igration
Ġco ins
ã Ĥ
Ġpled ge
ĠMel bourne
Ġ) ;
a very
/ .
Ġgr ants
Ġoff season
Ġca ution
Ġcat ast
Ġnot ably
or ia
ĠIn n
ac ies
are r
Ġbug s
Ġthem es
t est
Ġun l
Ġtable t
Ġdeleg ates
Ad vertisements
Ġcour ses
ag u
Ġcount less
u ates
ĠEag les
Ġgrad ually
Ġwitness ed
ĠV ar
em it
ĠBl ock
Ġgold en
ĠQue bec
Ġcomm ands
ĠCoal ition
ĠCub a
p in
Ġt ends
Ġmean while
Ġviol ated
Ġdemonst ration
Ġpsych iat
âĢ ³
Ġcomment ary
ĠS ex
ĠSwed ish
Ġann ually
Ġdem o
ĠN a
al id
AT ED
AS H
ĠE C
r in
Ġp ending
wit zer
n atural
Ġobserv ations
Ð »
qu er
DA Y
ĠHe at
Ġremem bered
ĠE ve
Ġquestion ing
Ġfor b
ĠS aint
ĠD isc
ĠE D
Ġf ires
arent ly
Ġimp ose
Ġhighlight ed
Ġlapt op
ren cies
Mich ael
ĠO w
Ġrepl acing
Che ck
ro c
Ġver ify
Ġse eds
Ġcont ents
Ġfrust ration
Ġpre view
l u
Ġh unt
Ġdiscipl ine
ĠD omin
ĠMarsh all
Ġpoor ly
found er
ect ed
form ance
Ġpat rol
Ġcor n
Ġsupp lement
Ġfund ament
op les
ĠT oy
Ġpra ise
or ical
ude au
Ġbath room
Ġcom ed
Ġt empt
ĠL ady
Ġgra ve
ĠPe ace
Ġact ress
ĠPro gress
Ġhapp iness
Ġexpl oration
Ġf urn
Ġcru el
Ġas pir
ĠN ap
ĠAr ts
Ġprevent ed
Wh ite
ĠL ions
Ġgent le
Ġst arter
Ġch amber
ĠBl ake
ĠExp ress
prof ile
ĠHun ter
Ġpr ayer
ĠR ound
el come
Ġperm itted
Ġinst antly
Ġven ue
Ġcult iv
Ġoxy gen
Ġalt ogether
Ġbond s
TH E
ĠP od
Ġamb assador
roduct ive
Sec ond
Ġare na
ur ities
. ),
Ġdisapp eared
ĠBer keley
Ġtechn ological
ĠW ard
out ing
Ġplan es
Ġcon ced
ĠH uff
om ach
ra it
Ġsuggest ion
Ġpart ially
Ġagric ulture
g ov
ĠMot or
ĠRog er
od a
arm a
ath on
Ġdr inks
ĠBe at
ĠL en
ĠCamp bell
ĠFer gus
anc hes
Ġs izes
pie ce
Rep ublic
Ġprotect ions
ĠSm art
Ġincor rect
20 11
ĠF I
Ġfasc inating
ĠF R
ĠWh it
comm un
ĠP el
ĠEnvironment al
ĠChristian ity
ĠSt orm
Ġvacc ine
ĠAdd itionally
ĠHawai i
Ġlog ical
Ġpar ks
ier re
Ġhonest ly
Ġsty les
Ġsupp orter
ond a
Ġal ike
Ġ7 6
Ġtob acco
ĠM uch
oc ur
appropri ate
b urn
Ġsum mary
g al
Ġfle w
Ġd il
ĠH ann
ĠN CAA
Ġadv ised
ĠKick starter
au cus
Ġto ll
Ġheart s
Ġmarg inal
Ġsing ing
b et
Ġad j
ĠC rit
Ġappoint ment
Ġpro l
og g
ĠCongress ional
Ġw ound
Ġeth ics
ĠFor ces
Ġst unning
ĠL aur
Ġcomp r
The ir
W orld
Ġcap ability
es ides
ĠMit chell
Ġenter prise
Ġtransm ission
ĠG ene
ĠVlad imir
en cer
ĠG a
M on
Ġp owered
Le aks
ru p
ĠSpe aker
Ġmet aph
Ġpros per
ĠQ ual
Ġreact ions
T witter
vers ion
Ġelect rical
ĠMan ager
olog ically
Ġst ressed
ĠJ en
ĠEd itor
ug s
Ġc ous
Ġfac ulty
Ġm akers
ll i
ĠT odd
ĠCor ps
Ġce iling
Ġder ived
ĠAren a
P at
Ġess ay
ĠRe id
Ġha z
Ġsevent h
Ġceleb ration
Ġmount ains
tt es
Ġsk et
Ġpress ing
Ġdraft ed
Ġarg uably
ĠIm p
ĠG ab
ĠK y
pl ing
Ġr ice
Ġc rown
fl ow
Ġdep os
U D
A tt
Ġdam n
Ġra id
ĠA y
Ġtravel ed
Ġend less
ĠN ame
ĠC ry
Ġcompl ain
ĠS essions
Ġdr ones
ĠOr ange
ĠU I
ĠCommission er
ĠJ ess
ĠB enn
ĠOx ford
ĠAm b
Ġaw kward
Ġin eff
Ġapp lying
Ġaccompl ished
Ġsac rifice
Ġas h
witzer land
Ġwe aken
ĠWat son
ĠM as
Ġshoot er
ĠR T
ĠF lynn
Ġmechan ics
Ġbub ble
p ot
Ġbu nd
c at
g ments
ĠBr us
Ġassum ption
Ġep id
Ġadvoc acy
Ġhost ile
M edia
ĠB ab
Ġreveal ing
Ġc ats
Ġbre ach
augh ters
Ġg reet
ĠR ow
Ġrespect ive
h ill
f i
Ġexpert ise
Ġdev oted
Ġscr atch
Ġfr act
ĠDak ota
S everal
T IS
ĠInd ians
ĠPark er
hand ed
ĠB aker
ĠMod ern
Ġcirc les
Ġstrong est
Ġfocus es
at oes
Ġan arch
Ġsh ocking
lect ed
ch ron
Ġcal endar
g ary
Ġaud iences
ĠCh all
Ġcitizens hip
Ġbuy ers
ĠW rit
Ġconfirm ation
Ġl one
Ġsw ord
ĠMedic ine
Ġtr ucks
Ġpartic les
Ġacqu isition
Ġconclus ions
ast ed
Ġcomput ing
Ġl ung
T ake
Ġsa uce
ult s
ĠLaw rence
I d
med ia
Ġsp y
Ġunnecess ary
H ave
W ar
Ġdirect ors
uer to
ĠG re
ag raph
ore r
um ing
Ġfr ank
Ġl yr
Ġpen alties
Ġline back
iv an
Ġlong est
ĠR ap
Ġrespond ing
form ed
m are
ip her
Ġdec or
ĠD ate
ĠTem ple
ue z
Ġbit ter
ĠD or
Ġhistor ically
Ġent ities
Ġad vertisement
ĠMor ris
Ġst ir
o ard
Ġinter rupt
Ġadd iction
u j
Ġpl acing
it ivity
Ġbe ars
Ġcontribut ing
am an
Ġy ard
Ġbound aries
Ġqual ify
Ġunderstand s
im s
ĠFergus on
F S
b ie
Ġd uration
Ġcomp osition
ĠRes p
by n
and ed
sh ot
Ġquant um
Ġfrust rated
Ġconvers ion
ĠH us
ĠK as
Ġoper ates
Ġsh ake
ĠLeg isl
o j
Ġcoord inator
ĠHot el
ĠF ind
Ġorient ation
v ious
Ġm ic
Ġhack ing
on ia
ĠBar celona
ĠSaf ety
ĠY ang
em in
Ġpri est
ĠRec ords
id th
E E
M in
Ġfemin ist
Ġ198 7
G iven
ĠHis pan
Ġst un
Ġmotiv ation
Ġdist ant
Ġfast est
Ġgro cer
Ġpain ted
ĠJac ob
it ate
ĠNet anyahu
bor ne
m atic
Ġped est
ĠF CC
lim inary
st orm
ĠI an
Ġexperien cing
Ġovers ight
Ġd ensity
mind ed
Ġcontro lling
Ġcount ies
out heast
Ġsaf er
Ġtun nel
Ġm ild
ĠR oc
Ġn ode
? '
Ġpop ul
Ġ197 9
ut t
PD ATE
Ġv ague
Ġdiv ide
ĠP rom
20 10
Ġtrans formation
Ġdirect ions
ac ular
Ġrece ives
ĠH end
Ġsent ences
d ev
at re
Ġu gly
Ġilleg ally
ĠU C
ĠF if
Ġimper ial
ab ling
ĠO m
ĠSw iss
Ġint ensity
Ġprob ability
Ġcomp osed
Ġsup rem
H ist
Ġenjoy ing
F igure
D C
oc us
ĠR ain
ro t
ĠAbb ott
ĠMc M
ĠS ud
Ġc am
ĠS ong
Ġt ill
Ġmand atory
Ġhe aven
Ġconserv ation
Ġg aining
Ġachieve ment
Ġe arl
com ed
N T
Ġd ign
ĠRem ember
ĠBloom berg
Ġ6 9
spe ed
Ġagric ultural
Ġins ane
Ġbal anced
ĠAgain st
Ġcondem ned
st an
h alf
Ġ198 5
w estern
Ġres idence
Ġst omach
Ġt ar
Ġdist inction
bo ards
ĠS ide
spe cific
Ġprint ing
ĠB art
Ġemer ge
n or
le ton
Ġprot otype
ry ption
k es
Ġover d
b u
Ġspace craft
Ġw ings
Ġcont am
im ents
Ġinvest ing
um m
Ġaccept ance
Ġtou ched
ĠB eng
or i
Ã ¥
E ng
z es
Ġt une
ĠR ice
Ġto ile
Ġiniti atives
Ġexch anges
Ġp ays
Ġsc ary
ĠC os
ĠB uilding
ĠTe a
B re
Ġide ological
ĠL ie
Ġz omb
Ġscen arios
m ap
Ġf illing
Ġmanufacture r
ĠM itt
oty pes
ĠBen jamin
m other
Ġp or
ĠT ampa
Ġp ink
g roup
ĠEv ans
ĠE lection
ĠD raft
Ġconst rain
Ġrot ation
idd ing
Ġinf ring
Ġrespect ed
ĠB E
ĠD J
sec ond
c ode
b rew
Ġser ial
ast ing
at in
Ġpress ed
Â ·
d ing
Ġnon profit
Ġpe ers
Ġacqu ire
R O
ac er
Ġcrop s
Ġoper ational
Ġl anes
Ġc ake
ĠSte in
ĠR y
G M
ĠC a
Ġtreat ing
Ġhigh way
Ġ7 7
Ġcomple tion
ĠBe h
Ġprior ities
er ving
UT ERS
Ġsubsid ies
Ġexplos ive
Â Ķ
abet es
abb ing
Ġres igned
Ġanim ated
Ġinc omp
h ol
in itely
F e
m un
E uro
( '
Ġe ars
Ġsl avery
or ient
umb led
Ġdifficult ies
ĠLa ure
ĠAr ctic
ortun ate
Ġis lands
ĠCo hen
Ġfree ly
ĠÂ ©
Ġch urches
au c
Ġsh orter
Ġform ally
Ġfr ight
Ġres erves
Ġappro ve
ĠCh ance
Ġdes ired
r idge
ĠTe xt
B ig
k m
Ġrif le
â Ħ
Ġqu otes
s ur
b ecause
Ġrespond ents
W S
ĠM obile
Ġparticip ated
and y
ĠR io
Ġdiscl osure
Ġb ones
ĠBr andon
ock er
Ġex em
ock ets
ĠF igure
Ġhuman itarian
â Ķ
ĠA wards
Ġ19 30
Ġworth y
Ġcrowd s
Ġvolunte er
v ol
Ġmechan ical
ĠK u
Ġtut orial
ĠR ail
Ġsec ured
ĠD om
ec onom
Ġatt ributed
Ġjud icial
ow ell
Ġcle ver
pro t
i ary
Ġrum ors
Ġcr ude
ust ers
Ġs her
Ġmon etary
Ġdeliber ately
ĠS aints
ĠCent ury
ic ut
M ed
Ġcult ures
Ġm amm
Ġh ier
Ġanticip ated
ict s
Ġro cks
Ġeconom ies
Ġflex ible
Ġt el
Ġcon j
Ġ7 00
Ġin hib
d eg
ĠMcCon nell
M en
ĠÃ Ĺ
w hen
Ġelder ly
Ġb io
ĠB ond
Ġinc ons
( );
Ġgr ateful
Ġj okes
Ġconsequ ence
ĠK yle
Ġsent iment
ĠN eed
ĠR aid
Ġher itage
Ġb ass
ch arge
ĠK it
Ġpan ic
s ized
Ġexp ed
Ġteen ager
Ġspread ing
ĠS M
o ons
ra ham
Ġflex ibility
at ile
Ġaff air
Ġinter rog
im ens
act ory
Ġaltern atives
Ġdisp os
Ġdis par
Ġz ones
j an
Ġto ken
Ġn aked
ĠCirc uit
ici ary
Ġdecl are
Ġattend ance
Ġabs ent
Ġadvant ages
th ink
ĠK erry
Ġvir al
Ġtrig gered
_ b
Wh ich
ud ge
ĠT erry
ĠAlbert a
Ġch ap
Ġtechn ically
Ġre aches
Ġt ensions
ĠS witzerland
ĠSm all
m art
Ġp osed
H ar
ĠT alk
Ġdetect ed
Ġbu zz
ĠF arm
r ane
con nect
ĠK arl
b art
Ġkn ocked
Ġt urb
Ġinst inct
Ġdesign ers
VER TIS
Ġdisturb ing
ĠM D
Ġpled ged
s upp
ĠArt icle
Ġprev al
c rat
ĠE arly
ĠT reat
ĠBrus sels
ĠCh ap
Ġinstru ments
ĠB uck
Ġs ends
s ize
ĠPost s
Ġsatisf ied
gl as
Ġprocess or
w he
Ġw rapped
st ring
ĠP ok
ll ers
âĢ ĭ
Ġexc itement
ul pt
Ġgreen house
are ttes
il ateral
Ġshif ted
z b
Ġequ ity
Ġbreak fast
Ġf are
Ġflu id
Ġflo ating
Ġremind ed
Ġharm ful
ĠP uerto
ĠT un
Ġdo se
or ph
Ġtr apped
ĠPart ners
Ġrep ly
Ġwel comed
ĠK irk
AC K
Ġapp eals
Ġtransp arent
ĠFrank lin
inc inn
ĠCamp aign
Ġsu itable
Ġres olved
ĠM ov
Ġhar vest
Ġl un
Ġlegend ary
ĠF ro
Ġmag ical
ĠI C
Ġref using
I O
Ġbr ains
Ġavo ided
urn ed
Ġf itness
B est
iz ard
Ġgr asp
Ġn ull
-- -
Ġport fol
Ġident ifying
m ain
ation ally
pr ising
a a
Ġannoun cing
Ġdecl aration
Ġinn ings
f s
âĦ ¢
az y
ere r
IS T
Ġab ol
ĠBuff alo
L a
Ġprov incial
ĠLyn ch
Ġrec y
ĠCommun ist
wr itten
it ably
Ġste ep
ĠI ss
Ġh orm
Ġha bits
val id
Ġrus hed
ĠAnt i
Ġcondem n
ne ver
c ount
ĠGr ay
A ust
Ġimm igrant
Ġmut ual
Ġ7 3
Ġhat red
Ġem pire
ĠM aine
ĠBar ry
Ġreg ret
Ġassum ing
Ġminor ities
Ġhope ful
C urrent
Ġhy brid
Ġoptim istic
Ġindic ating
est one
Ġexcess ive
Ġedit ors
Ġ7 4
Ġfro zen
N orth
Ġ Ø
Ġbel oved
t it
Ġbrow s
Ġconduct ing
Ġtempor arily
ĠPhil ip
Ġwh ites
m id
ver ning
Ġpresum ably
Ġtrust ed
Ġimag ination
Ġdeploy ment
incinn ati
Ġedit ing
Ġsupp ose
Ġearl iest
ĠV ery
Ġass ured
ĠChrist ie
ĠDou g
b les
Ġtend ency
oc ate
Ġst ocks
g t
is en
Ġimm ense
ch i
ĠRog ers
Ġbar riers
ell a
Ġpen et
ĠN atural
ĠG PU
Ġtour ists
Ġdec iding
Ġhead line
Ġthrow s
Ġcast ing
ĠB ears
ĠPr in
Ġwor ship
Ġinfect ed
ĠTr udeau
Ġm ixture
Ġsh ar
Ġspark ed
ĠJ ets
Ġcomp os
Ġsocial ist
Ġr all
p owered
ĠT a
ank ing
H aving
Ġwa ited
Ġdam aging
Ġbutt ons
Th rough
D ata
Ġve gan
Ġstruct ural
Ġgrab bed
ĠWar riors
Ġg rip
ab l
Ġdefend ers
Ġf est
Ġcolle ague
Ġcolleg es
Ġathlet ic
or ig
Ġun ity
Ġcrypt ocur
f ile
ĠM om
ĠBl og
ĠOcc up
qu ality
Ġarm or
Ġplan ets
ĠO scar
on er
Ġcart oon
N ever
Ġre hab
e or
Ġtr ash
Ġparliament ary
Ġsc rap
Ġgar b
In ter
ĠBr ady
ĠH P
ĠJeff erson
per or
Ġcompl iance
au kee
ar ound
ne red
ĠCh uck
Ġsoc ieties
d ec
ð Ł
ĠG arden
P ress
e u
Ġl ake
b est
ig hed
keep er
Ġpurs uit
ĠF ried
ot ton
ors es
Ġf ru
ĠP ed
Ġclick ing
Ġwh istle
Ġa uction
Ġdis g
Ġtradition ally
Ġatt itudes
ĠLiber ty
Ġapproach ing
Ġsurviv ors
iff erent
Ġwid th
ig ers
Ġex ports
ĠGu ide
st ock
ĠB und
Ġhum or
ous ing
ĠTurn er
ĠColumb us
Ġres on
Ġlegisl ature
B L
ĠWik ipedia
te ch
Ġbar rier
ĠIs lands
ĠF un
Ġdec ides
Ġpurch ases
Ġch ampions
ĠKe ith
per ial
d ale
Ġwind s
f old
Ġn ick
ĠH ide
Ġ7 8
Ġ0 1
Ġlif ted
Ġpure ly
Ġdet ain
Ġess ence
ĠA w
Cl inton
Ġsec rets
ĠCor byn
Ġm asc
Ġpurs uing
Ġtext s
Ġh oney
ĠU ntil
Ġobserv ation
ĠA th
D E
ĠHar vey
ruct ive
r ust
Ġthere by
es is
Ġrec ount
ĠMor ning
Ġeth ical
d i
Ġunder mine
Ġin sect
Ġw ishes
Ġbl ess
Ġur ge
X X
ur i
Ġgrow s
f ox
ac ent
Ġregul ators
AD VERTIS
ĠAl t
d am
Ġoff set
force ment
V ideo
Ġmeant ime
ĠC rown
Ġf ont
Ġag greg
Ġdon ated
ĠY ahoo
be it
ere n
not e
Ġ7 1
ĠB ou
enn a
Ġeconom ists
Ġt ang
Ġliber als
Ġtreat y
Ġex empt
ĠSh an
Ġal ph
Ġremind er
ur red
Ġl aser
arent s
Ġsucceed ed
point s
Ġt ong
p ace
w aukee
v ation
Ġpassion ate
Ġbott les
iv a
z o
Ġf t
Ġrom antic
ĠNor way
Ġa est
Ġmet ab
Ġfail ures
ol k
Ġsqu ee
Ġhack ers
aw s
d ata
ĠWW E
R T
Ġemot ion
Ġp ist
Ġfl ip
ĠUn iverse
Ġbreak down
Ġout er
t ics
ĠC orn
aren thood
ĠW orks
ĠFant asy
ĠF DA
Ġident ification
af i
S et
Ġfr action
icial s
ĠMad ison
Ġadm its
ĠCam bridge
ĠJ e
Ġdivor ce
ĠS ep
Ġperm its
Ġdecre ased
ĠD ub
Ġsac rific
back ed
ĠD NC
s chool
Ġsens or
ĠCh o
Ġgener ous
Ġafter math
r ained
ĠM oney
Ġt rop
Ġl ib
Ġcomp ly
Ġdraw s
Ġexec ute
Ġwal let
Ġsu ed
se ud
Ġcomp aring
K ey
Ġ( )
Ġunf ortunate
Ġarri ving
ĠR aven
Ġfin ancing
Ġret reat
Ġn ons
Ġdis orders
Ġstr ain
ĠArk ansas
Ġvar iation
N G
p ublic
Ġ8 2
ll y
ĠWiki Leaks
Ġenh anced
ĠMil itary
ĠE V
Ġsl ave
Ġ vel
own ers
] :
Ġfeed ing
Ġfem ales
s k
Ġaccount able
Ġver dict
g ian
Ġconclud e
Ġhelicop ter
rop olitan
ĠRod rig
ĠE ss
ĠDep uty
ĠJ u
ĠRE UTERS
Ġtreat ments
ĠF isher
Ġbatter ies
un ct
ĠRob in
Ġche er
N EW
ĠN ort
ect or
C NN
ing ing
ĠGu y
ĠMem orial
Ġpre ference
L ink
ĠConnect icut
Ġcontact s
Ġcre ep
ĠNe il
ĠM M
Ġlast ed
ĠJ ake
ad vant
roll er
s ky
Ġrec onst
Ġs illy
Ġmass es
ĠB h
Ġun h
ĠPol ish
Ġcomp ound
Ġretail ers
Ġembed ded
ĠU RL
Ġcorrespond ing
ĠCommun ications
Ġsequ el
ĠG host
Ġdestro ying
Ġlack ing
Ġd aughters
Ġenc ount
Ġwond ered
T om
l as
T ION
ĠM ission
Ġcapital ist
ĠTy ler
Ġencount ered
is ers
Ġeconom ist
ĠP ap
ĠE X
Ġlicens ed
IV E
Ġund ers
st ory
Ġwar fare
Ġre un
ĠP ur
Ġvert ical
ĠI RS
Ġfound ing
ĠR oom
ĠVenezuel a
Ġag ing
op es
Ġsm ugg
Ġam pl
Ġstatist ical
Ġgif ts
r int
ple x
vis or
ĠMar ia
ig ma
in ates
Ġsl ower
ir able
Ġadv ances
ĠPakistan i
iz able
g iving
Ġf ierce
Ġgrav ity
ĠConserv atives
m aster
Ġcare ers
Ġd ys
b ig
s ign
t ail
Ġ198 3
Ġvill ages
accept able
Ġh ill
Ġintent ions
Ġorganis ations
ĠK rist
Ġc ub
f ive
Ġsepar ation
Ġauthor ized
Ġking dom
w al
Ġcount ing
Ġaw a
Ġgo verning
Ġst abil
m outh
Ġtr agic
Ġwarn ings
ĠLuc as
ĠTh under
ĠDown load
S outh
ĠE mb
Ġ198 2
Ġins urg
Ñ ĥ
Ġfar ms
ĠStud ios
Ġdiagn osed
pl an
ĠPlay ers
Ġcommission er
ĠAd vent
Ġdis pro
Ġtaxp ayer
are st
Ġlobb ying
ĠMer kel
Ġed ited
ĠSus an
ĠS alt
F ree
Ġclean ing
Ġtransform ed
ĠSc ar
Ġdem ol
Ġsuspic ion
Ġstre ak
ard ing
Ġcontin uous
ĠHoll and
h aul
ĠSpe ed
Ġele ph
it bart
Ġb oring
Ġc odes
st ore
ĠPri ze
Ġcons iders
Ġscreen ing
Us ing
ĠSpir it
Ġmill enn
Ġgam ers
iber al
ĠSci ences
F our
it ative
Ġf ib
ut ical
Ġdam ages
crib ed
Ġten ure
A nt
Ġincl usion
Ġl ip
ear chers
Ġfun eral
ĠSt ars
Ġa ired
Ġinst ruction
ard less
Ġf ence
F ig
_ e
Ġfe ared
he alth
Ġtraff icking
ĠH ub
Ġdon ation
Ġde ce
ĠP interest
Ġcl uster
ĠC z
Ġwork place
A V
Ġcred ibility
elt a
Ġinv ite
Ġinst itutional
Ġte ens
Ġmon sters
ĠB os
ĠD anny
Ġcollaps ed
air y
Ġjust ified
ank ed
id ays
Ġhe nce
her ic
Ġhypot hesis
ĠTh or
n ormal
Ġsusp icious
Ġden ial
Ġorgan izing
Ġisol ation
ed ed
Ġ' '
Ġgr ace
ĠThe atre
claim ed
ĠWith in
ĠBr and
h ave
ham mad
Ġboy friend
Ġcivil ization
Ġnovel s
ĠMorm on
Ġur ging
Ġinter ference
uss ion
st art
ĠIslam ist
â ĪĴ
Ġwrest ling
Ġsp awn
Ġdoub led
Ġth irty
Ġreal m
Ġste am
ĠPet ers
Ġmag netic
Ġind ict
Ġbelie ving
in ance
i per
ank a
Ġout right
Ġexp end
l ib
Ġc ort
d ig
Ġsoon er
ad ows
ĠInt erest
ue ller
Ġbr anches
Ġbenef icial
ol er
ĠD est
Ġdec ks
Ġcry ing
ol ine
Ġcomp iled
. âĢľ
_ S
ĠK le
Ġrecru iting
ĠN av
Ġev angel
th an
Ġen ables
Ġeduc ated
Ġle verage
Ġinv ented
Ġrus hing
Ġelim inated
on i
Ġrh yth
ĠD og
Ġm ock
Ġspons ored
Ġtra its
Ġunve iled
ĠH unt
th a
ĠCharl otte
E G
ĠUb untu
Ġbe ers
Ġroutine ly
Ġple aded
ĠC incinnati
oll ah
Ġp izza
ADVERTIS EMENT
Ġr ib
Ġtem plate
G ame
Ġlab els
Ġeval uate
d irect
. :
op ard
Ġag rees
Ġsolid arity
Ġbreat hing
Ġalbum s
ĠLt d
Ref erences
ĠT D
W ork
ur able
ĠStud io
Ġtem ple
ex us
writ er
Ġmed ian
ĠFor mer
Whe ther
Ġd umb
ĠBrad ley
en c
Ġdisc our
Ġlay out
ĠH ills
o a
Ġshif ts
ĠPr inc
Ġincent ive
Ġentreprene urs
ĠC arson
ĠB ash
Ġl au
ĠHind u
Ġult ra
Ġmagn itude
Ġjump ing
ĠLe af
Ġ8 8
Ġdirect ory
Ġsmart phones
ĠOl iver
Ġv ibr
ĠGl ass
Ġcompar able
Ġclimb ing
ast ically
ĠIndones ia
s ource
Ġarrange ment
Ġpath s
Ġwhe els
Ġo x
co ins
Ġpil ots
Ġtermin al
ĠC ut
Ġincent ives
ĠB uy
Ġmidfield er
Ġspec ified
Ġexcept ions
Ġadequ ate
O rig
Ġcoc aine
======== ========
dri ven
Ġd irt
Ġpsych ology
ck er
Ġsn aps
Ġpre liminary
Ġc ents
Ġpe oples
ĠPro du
ace utical
ĠVer izon
ĠF el
ol o
ĠSen ior
ord able
Ġpart ial
ah l
Ġfin an
ĠZ h
ĠC ass
Ġn an
ĠP ence
ĠO d
ĠVer mont
Ġscream ing
S ign
Ġvis a
ĠL ED
Ġlyr ics
Ġtransl ated
ĠB JP
Ġfirm ly
Ġmon op
Is lam
Gener al
ĠTrib une
Ġintrodu cing
ess ional
st age
Ġconnect ing
arth y
Ġreg ards
Ġch ains
Ġcounterpart s
f ly
ĠMc L
Ġgen et
Ġac res
Ġam end
Ġappeal ing
Ġme als
ĠSol ar
p op
H ill
ĠFriend s
Ġwild life
ĠA B
Ġb ust
Ġun rest
V al
U E
ĠG onz
Ġgl ob
ĠCount ry
ĠK ir
ĠB L
Ġtrans f
amp s
Ġtrad itions
Ġthreat en
ĠJ oy
ĠSo x
Ġcreat ors
an ium
g i
Ġsens ors
re nder
Ġlike lihood
J an
ip h
Ã© mon
Ġvac ation
Ġ: :
Ġcomment ed
Ġdetermin ation
Ġun ch
Ġd ivers
Ġconv inc
ĠBook s
Ġan ime
Ġcount ed
Ġmatch ing
Ġbet ray
S er
Ġp upp
s ki
Ġtr ace
Ġprec ious
Ġtri ple
ĠProf ile
ĠBelg ium
Ġpl aint
200 9
Ġun st
Ġpar agraph
umb ling
Ġmotor cy
Ġshe er
Ġsc ulpt
ĠLeban on
Ġinvest or
Ġkill s
Ġendors ed
Ġle agues
Ġto y
Ġlicens ing
Ġaccur ately
~ ~
ĠF ab
J ames
Ġshif ting
ĠAr thur
ĠP AC
ĠK am
ĠT ob
Ġtw ist
ĠAM D
ĠN ixon
ias m
p y
ĠCow boys
ul ative
iv ic
Ġdisappoint ing
Ġavoid ing
res a
ool s
Ġcomp assion
ĠN in
Ġprohib ited
U M
Ġ19 20
Ġfold er
ĠBrazil ian
ugg ed
Ġgr ain
Russ ia
ĠArgent ina
Ġwork force
Ġaccount ing
Ġproceed ings
c end
ĠG arc
pp y
Ġsp are
US A
m ay
St ud
Ġlength y
A lex
ĠEb ola
Â £
Ġj ew
Ġsl aves
ĠQ B
S y
Ġr iot
ĠUnivers al
Ġdub bed
ĠPolit ical
ĠR ams
Ġf ict
D B
Ġin mates
l ive
Ġment ally
B et
L Y
ĠB Y
Ġm erc
Ġfundra ising
Ġsh aped
Ġover look
fe ld
Ġtouchdown s
ĠR osen
ĠWe iss
Ġ198 1
ri ving
Ġcelebr ity
P ar
Ġwilling ness
Ġmar ine
ik ing
Ġind irect
M ake
re ach
ri en
Ġsevere ly
U PDATE
Ġshe d
Ġestabl ishing
Ġgener ating
ate ur
S ch
Ġnegoti ate
Ġint u
Ġshould ers
Ġd ivid
Ġimplement ing
Ġrenew ed
b ull
ĠBro s
h ome
ĠSer ge
agh d
Ð º
ll o
Ġp owder
Ġconsum ed
ĠFin ance
lud e
ell ar
Ġswim ming
u cc
ĠQ aeda
Ġcreat ivity
Ġrel ating
A h
Ġb ite
Ġse ctors
ke es
i ots
G od
Ġcertific ate
Ġassum ptions
Ġfire f
ĠGl enn
C ap
l ash
if ting
cont rolled
ĠM O
Ġinteract ive
c s
Ġobser ve
Ġaccomp any
Ġtrad em
red ict
Ġaver aged
ĠG ates
S ometimes
ill o
Ġref lection
ĠPh one
iox ide
Ġbra ve
N Y
rodu ced
ios ity
âĶ Ģ
ubl in
ale y
val ue
Ġroy al
Ġaffect ing
Euro pe
Ġh ij
Ġsa il
ĠM ort
ĠI l
it ated
>> >>
Ġwor n
ull ivan
Ġfilm ing
v als
ĠL ane
ul um
Ã Ĺ
Ġind igenous
u ced
Ġearthqu ake
Ġblack s
1 10
âĸ Ī
ĠAn im
w art
is ible
M al
Ġmount ed
Ġadapt ation
Ġconsult ant
Ġsubsc ription
aff e
out ube
Ġdet ection
Ġclin ic
ĠAr men
Ġ7 9
Ġdis k
Ġcompat ible
ĠP L
au x
p ur
ĠMil waukee
ĠMar co
ĠT ell
ĠM ust
Ġrec alls
Ġfol k
Ġf uels
O ct
oc c
ĠAn ne
Ġcor ners
Ġrep ublic
j ar
Ġspecial ist
oc aly
Ġdi abetes
Ġesc aped
ĠHigh way
olph ins
p se
N ET
Ġ196 7
Ġadjust ed
Ġwood en
Ġpredict ions
Ġless er
Ġadm ission
Ġproblem atic
ĠCl ar
Ġliter ary
ul ent
Ġtri umph
Ġfar ming
Ġt ub
Ġimp ress
ĠM ason
Ġsl ip
pr ing
Ġtrans cript
Ġmar ry
Ġlaws uits
ĠC elt
Ġaggress ion
Ġorig ins
ah a
ĠC her
ĠC reek
W est
qu al
Ġm aker
Ġhe aling
d rop
ĠCol omb
ac ious
f il
at on
ro se
ĠA ve
ĠBull s
ĠGer mans
ĠB B
Ġaud it
Ġcontin ent
ĠBl ues
Ġwhere ver
Ġdesc ript
ĠDou glas
ĠE dd
R ober
Ġmusic ians
Ġh oly
Ġtr ap
ĠV A
ĠGold man
ol utions
Ġunder way
ec hes
G erman
D ec
ugg ing
Ġy e
eng u
ian g
Ã© s
al og
Ġmort ality
Ġeval uation
ss on
ĠRe ading
Ã £
Ġv on
St art
i ology
Ġab used
Ġp ants
ne ath
Ġbankrupt cy
ĠN C
Ġvulner ability
d ays
Ġdel ays
ĠP arenthood
Ġ1 30
Ġsuper hero
ĠGall ery
OS T
Ġindepend ently
oot ing
Ġve to
Ġsh ore
Ġle ather
ack er
ĠR C
ant o
Ġsk illed
ĠM erc
Ġle af
pe ople
Ġtim eline
U I
Ġle aks
ĠH um
mun ition
cl osure
ĠSt re
Ġresign ation
ĠS W
ab ul
at ers
Ġsu its
Ġsw ift
Ġcy cling
ĠBron cos
Ġorgan ize
Ġinter cept
Russ ian
oca ust
Ġdark ness
J ack
Ġw reck
h is
m i
Ġ1 10
ĠSp ider
Ġsher iff
ili ation
ĠSuper man
Ġin ch
R ich
ig nt
S ON
Ġafter wards
ĠBern ard
H igh
Ġsupport ive
Ġres ume
Ġ18 0
ĠE c
ail and
Ġse iz
Ġshoot ings
au er
Ġin appropriate
ather ine
ĠS omething
Ġform ing
ĠD M
Mus lim
Ġp y
Ġbehavi ors
Ch ris
G reen
es ity
Ġlaugh ing
orn s
Ġaltern ate
Ġ19 40
Ġtest ified
lev ant
Ġ196 8
Ġun anim
Ġpract ically
et ing
RE AD
Ġreb ell
he w
se lling
Ġthorough ly
Ġins ists
Ġbroad band
Ġcr ashed
ĠBud get
ĠIs a
Ġteen age
Ġlabor atory
Ġdis advant
iss ance
O s
Ġt att
pe red
Ġdoctr ine
Ġenc ryption
ĠEx change
Ġloc ally
ĠVik ings
T unes
Ġout break
act ic
Ġcons olid
ĠJohn ny
Ġsound ed
Ġoff shore
Ġap ology
Ġexp ose
Ġk ernel
Ġexha ust
l ie
Ġun e
ble m
Ġb ind
Ġautonom ous
ĠJ oh
Ġcost ly
Ġs ie
Ġcorpor ation
Ġcolon ial
umb l
al ph
Americ ans
Ġanalys es
Ġne at
ĠSp encer
Ġphotograp her
ĠRe ed
erv ation
Ġkill ings
k g
ĠM ember
ĠG ate
B ay
ra pe
ĠL ock
Ġdemonst rations
Ġpro x
Ġp ub
ĠS or
row th
Ġchart s
Ġreason ing
Ġpre st
.. ."
Ġclass ical
Ġgr ay
Ġed ges
ĠPalest ine
Ġattack er
Ġes p
Ġint end
Ġveget ables
ĠL iving
ill ery
ĠT ry
Ġmat ched
ett a
Ġemb assy
Ġlect ure
Ġpurch asing
ĠSe ah
in os
Ġswit ched
ĠAg ree
ĠAl f
Ġloc als
Ġmob il
fund ed
Ġoblig ation
Ġr ated
Ġinf er
Ġdem on
epend ence
lement ary
ĠWal ter
Ġstat ue
Ġgarb age
Ġstraight forward
r ament
Ġbus es
Ġelabor ate
Ġc m
W A
ĠSystem s
Ġgod s
Ġhe d
Ġterrit ories
Ty pe
Ġportfol io
Ġ197 6
Ġfl owers
Ġ10 1
S M
be an
ĠBet ween
ĠB ased
H D
ĠK och
Ġh alt
RE L
1 20
Ġtra uma
ĠL ess
Ġinf amous
ĠS ad
ocument ed
Ġunf old
ĠW R
ĠMichel le
w idth
Ġair line
M et
cul es
le m
Ġl ap
Ġor che
D ay
ri el
iss a
ĠM MA
Ġpriv ately
oub ted
O G
ĠIn v
Ġs isters
Ġcr icket
ĠT ory
Ġbes ides
ĠHom eland
Ġdeal ers
ĠEm ploy
Ġaccommod ate
Ġfrust rating
ignt y
Ġl oving
oc ity
Ġmed ication
Ġath lete
Ġf ame
Ġfor ums
ĠMu hammad
Ġ197 5
Every one
Ġatt ributes
Ġpe pper
Ġn uts
ak u
az ed
ion ed
ĠDen mark
ĠS oul
As ked
ID S
ĠL oad
f our
S uch
as i
Ġb urg
ĠUn it
ĠV eter
Ġrank ings
u um
Ġclos ure
ĠCom ics
Ġlim iting
ĠK ind
ĠBr un
op ing
Ġstrik er
Ġmod es
add y
Ġsear ches
Ġimag ined
ort ions
ĠCal gary
Ġd ated
pe lled
Ġwithdraw al
ĠF at
ap y
Ġ8 1
Ġe ighth
Ġeffect iveness
i op
re r
ch a
Ġst ays
T or
Ġs ink
ĠG ear
n esty
Ġobser vers
Ġint ake
ĠSub scribe
Ġo h
Ġd ioxide
Ġcar riers
pro of
Ġenthus iasm
Ġm ph
ro lling
ĠL uck
ĠW ATCH
cc a
!! !
Ġwh ilst
Ġmis leading
Ġcon vey
Ġ197 3
dis play
Ġpubl ishers
Ġqu ery
ĠB uild
Ġmeasure ments
Ġsp ill
Ġnom inated
ĠRel ations
ĠN umber
Ġsubstant ially
ĠMove ment
Ġunc ons
Ġhistor ian
ph p
) (
ĠS A
ĠHar rison
h al
Ġlist ing
ĠG B
Ġqual ities
Ġstr ings
Ġgr at
ĠConf eder
ĠG PS
Ġrespons ibilities
Ġdelic ious
Ġd angers
ab ad
Ġlock er
writ ing
Ġexam ination
Ġdiagn osis
Ġhe ter
Ġhung ry
Ġple a
sh irt
v iol
resp ons
Ġ9 8
oth y
ĠPal in
Ġex agger
Ġd rought
Ġdiscl ose
Ġrev ised
Ġrel ies
Ġ ^
ĠA qu
Ġd ash
Ġinev itably
Ġh ood
ĠA CL
Ġvol umes
Ġblood y
P N
Ġmem orial
Ġw and
Pro f
ĠSh adow
Ġp ione
Ġign oring
ĠR ico
Ġdiff er
2 000
Ġn it
Ġloyal ty
S emit
Ġvari ations
Ġmaintain s
Ġ197 2
ĠB uzz
Ġent ries
Ġsymbol s
ĠR ace
ĠCarl os
Ġshut down
Ġam munition
Art icle
Ġp orts
ĠH ud
Ġst ab
Ġfriends hip
ĠW oman
_ o
ĠBl air
ur u
Ġyour s
ĠP T
Ġal tered
D oes
ro ots
Ġclass room
Ġdem ographic
ĠSoft ware
ins ula
Ġoccur ring
Look ing
ĠTe h
ĠK el
Ġphot ography
Â ®
Ġp ile
min ation
ĠD ennis
un s
Ġc her
ĠH em
ĠVill age
Ġtrib al
Ġalgorith ms
âĢ¦ âĢĿ
Ġformer ly
Ġfundament ally
Ġredu ces
Ġbrief ing
p ath
ĠPlan ned
Ġh orses
Ġfulf ill
Ġrap ed
Ġcelebr ating
it is
Ġ8 4
m ines
Ġhero in
ĠUp date
Ġves sel
ĠA my
Ġinhab it
Ġdesper ately
itt ees
ĠBrook s
Ġmet res
C ity
ĠWall ace
Ġ8 3
Ġ Ï
Ġmid st
ĠTrans portation
IT Y
Ġgall ery
art isan
ĠL isa
ĠH at
iz ont
Ġrein for
S uper
t able
Ġb ikes
ĠGM T
Ġsk ull
Ġde leted
Ġun limited
ential s
Ġ197 8
ĠR ah
Ġdisp ens
Ġsac red
M ike
ĠSun ni
Ġout door
Ġdecl ining
ĠN A
Ġnew est
ING TON
n ational
Ġbelong s
Ġexerc ises
Ġexpress ing
Ġsh y
Ġins ure
Ġpres cription
id ges
Ġspect acular
Ġmod ules
Ġaccount ability
ĠH ockey
Ġju ice
ĠM arl
Ġarch ae
Q aeda
ĠLiber als
Ġsche mes
Ġf iber
Ag ain
Ġc od
ĠRaid ers
Ġgovern ance
Ġgar age
n ik
Ġt ribute
Ġconsum e
ĠM C
Ġqu ad
Ġp ipe
Ind eed
ĠEd wards
Ġpresident s
Ġrub ber
ĠS el
Ġf lesh
rep resent
we alth
ĠP as
ĠTer ror
Ġarr anged
Ġlineback er
Ġw ip
Ġsh apes
Ġfil med
osit ory
Ġbed room
ur ring
Ġch ase
ĠJ ar
ĠPok Ã©mon
Ġsol ved
ft en
bl ack
ĠSeah awks
Ġa ide
ol an
ĠJ a
ĠM ueller
Ġconf using
Ġre ception
Ġn odes
Ġplay back
y d
ĠP ick
Ġaccident ally
Ġbillion aire
aret te
put ed
ĠCh apter
rem lin
oubted ly
Ġl oses
ĠJenn ifer
Ġb inding
h ole
ĠP ast
Ġperman ently
h ner
w ear
ĠD R
t or
Ġtw in
b ul
Ġto ys
Ġr age
oc ide
C opyright
Ġexhib ition
9 00
im age
ĠShe l
g el
Ġun le
ĠG it
W H
Ġmisc onduct
Ġspir its
ĠA ld
ĠSil icon
Ġw ounds
uls ion
ag ging
ĠA gr
Ġbo ats
Ġpro c
Ġmed al
ke ys
ĠCo ach
al so
Ġsan ct
Ġsell s
Ġconsider ably
Ġfresh man
ĠPhot ograph
l en
Ġdemonst rates
ĠW onder
Ġth umb
n ames
ĠD ublin
ĠF ame
Ġlast ing
Ġman ages
Ġstrict ly
Ġsh ipped
Ġpre jud
Ġchem istry
âĢ¦ âĢ¦
Ġvig il
Ġregul ate
ĠSer ver
ane ous
ĠL ost
Ġmilit ant
Ġfin als
Ġlabel ed
re ated
Ġ8 6
let ter
heim er
Ġtoler ance
Ġfin es
p rom
App le
Ġg rey
ĠR ou
Ġp seud
Ġskept ical
ĠN PR
pp o
Ġsp ite
ĠM i
se mble
Ġexcept ional
ĠMalays ia
Ġt ier
Ġfan cy
ch air
200 8
Ġstre ams
deg ree
Ġpred omin
Ġlin ear
ig a
ĠB us
Ġl uc
Ġreason ably
ĠCh ile
Ġpuzz le
Ġtack les
Ġcance lled
Ġden ying
Ã£ o
p it
ĠTr uth
D ep
he lp
ie val
Ġ9 6
run ner
ĠZ ion
ov ic
ĠJ uan
M I
Ġpit cher
ĠF ly
ĠFor um
Ġprocess ed
work ing
ĠUr ban
Ġlove ly
ĠR oth
ung le
Ġsp ends
Ġmid night
th irds
Ġorganiz ers
Ġret rie
Ġrest ored
ĠRes ources
ĠSt ring
ab el
Ġun acceptable
ĠHer o
ĠY ears
ic he
Ġsub mar
Ġtun ed
Ġgenuine ly
Ġmon ument
Ġteen agers
ĠOper ation
IT H
ĠV iol
ĠP ere
OR T
Ġqu o
B it
ĠPal ace
Ġfacilit ate
Ġ8 7
olute ly
it ial
Ġm ature
ĠG ay
man uel
ĠD od
on ge
Ġd ancing
ĠRepresent atives
Ġrel ate
Ġf oul
Ġout lined
w er
ĠG and
Ġautom ated
Ġoblig ations
ĠSh ar
irt ual
form ing
Ġsexual ity
L ife
Ġdiv isions
Ġext ends
Ġsurve ys
Ġtour ism
Ġad vers
ĠBill y
ĠMcC arthy
ĠR ush
P oint
ĠTh ailand
Ġi Tunes
Ġsuccess or
Ġle ap
ĠS elf
ĠT ill
ul u
s is
ret ion
B rit
Ġspot light
ĠS i
ĠBenn ett
ĠS ay
ĠAut o
ĠCh arg
Ġanonym ity
Ġwr ap
A ug
Ġin ability
Ġdefin ing
Ġme g
ĠÂ ĵ
E arly
Ġab oard
A v
Ġun re
ĠN DP
ĠRich mond
Ġunder neath
Ġdr illing
Ġrecommend ation
ĠSh ield
al in
mar ks
ĠSp urs
Ġsubject ed
ow een
Ġhear ings
OM E
Ġbattle field
ĠM ack
ĠC ond
Ġgener ic
ĠIn valid
Ġinc umb
uk i
ĠF ile
Ġp ound
R et
A uthor
in ery
ĠGriff in
Ġspe eches
Ġconsist ency
ĠOb viously
Ġvict ories
ĠZ ero
ĠCz ech
bor ough
Ġsn ap
ĠBang l
Ġcontract ors
eg u
ĠC art
ĠCh amber
ĠAr n
ĠChron icle
Ġcor rid
Ġl ined
Ġris en
ĠRet urn
Ġse ct
Ä ģ
Ġp iv
ĠH ope
Ġover haul
Ġinc oming
Ġgu ilt
ai ro
Ph ot
Ġtong ue
Ġad verse
ĠCom merce
ĠBet ter
clus ion
Ġsal aries
Ġprem iere
Ġpar ade
Ġn ort
ĠEl sa
Ġtrave lling
rane an
ĠSe ven
u v
Ġcon cess
Ġste pping
ĠBre itbart
Ġembr aced
Ġfrank ly
ĠL LC
Ġname ly
Ġrender ing
ĠRec ord
ĠP ad
ĠBe yond
ĠSo on
Ġconfident ial
Ġtransl ate
ĠSoc cer
cl osed
ĠTit le
Ġpl ates
Ġdisc on
IN E
ist ically
âĢĿ âĢĶ
Ġconfront ed
Ġm elt
ir i
th s
m ile
Ġexhib it
Ġ196 9
ĠQ atar
head ed
Ġanaly zed
ĠAcc ount
Ġtact ical
ri pp
Ġl iability
Ġdef ic
Ġb inary
ĠWork ers
Ġd ive
#### ####
ĠPack ers
i pt
Ġem power
ĠHur ricane
ah n
Ġart if
Ġbureau crat
ĠF itz
Ġfunction ing
ĠSur vey
Ġstro ke
Ġun ited
ĠElect ric
Ġarri ves
Ġlic enses
Ġred e
R ob
Ġ0 2
ic ers
ĠC ape
ĠCub an
Ġr ings
Ġback lash
Ġpart isan
Ġvend ors
Ġdoub ts
Ġdon ate
S an
ĠBry ant
V A
Ġsteal ing
p x
ap or
Ġsign atures
uster ity
Ġc argo
Ġfel ony
Ġg ard
ĠS L
ĠM VP
ou st
Ġgrocer y
B R
_ h
Ġcloud s
hold er
acc ur
ier ra
pro v
Ġpublic ations
ĠML B
Ġcasual ties
c ill
Ġm ate
Ġaut ism
Ġnegoti ating
L eg
Ġcoast al
ĠG reens
bs ite
W r
Ġv ib
Ġobject ives
ming ham
ai res
Ġ9 11
Ġment ions
ĠG as
ĠPr int
greg ation
sp ace
ĠStud y
ĠM aj
ĠH alf
Ġdefend ants
Ġsovere ignty
ag ged
Ġelectron ics
Ġgl ory
Ġd ot
ĠP un
ĠH BO
RE S
ãĢ Ĥ
Ġprem ier
Ġliber tarian
ĠD iamond
A ng
w ick
AR D
ĠM all
Ġarrange ments
ĠIce land
Ġj ack
M M
ĠR at
ĠI v
Ġ> >
ĠR AM
Ġind ef
Ġves sels
Ġac ute
ĠReg ional
le tt
Ġhon our
Ġfl ows
Ġdiscl osed
Down load
ĠS F
ĠDef ence
ĠMet hod
Ġint ens
Ġ9 3
Ġenc rypt
Ġsport ing
Ġlack s
ĠTit an
Ġ ðŁ
= âĢĿ
Ġpre season
r us
Ġnecess ity
k h
Ġfort un
ed ge
Ġart ic
Ġ9 7
Ġu seless
ĠBrother s
Ġout let
Ġ197 7
Ġconvinc ing
Ġcl arity
Ġlegisl ators
ĠB obby
l ass
ent ions
Ġpret end
Ġn od
Ġcatch ing
Ġdign ity
Ġp ale
Ġhe al
ĠBarb ara
ut ing
Ġdetermin ing
Ġ{ \
Ġprop ri
Ġutter ly
Ġprotect ive
ĠAL L
orient ed
sc he
Ġstimul us
Ġtw elve
ĠS earch
ĠS ent
there um
Ġcharacter ized
Ġc ute
ab a
or ity
Ġbl own
Ġim pe
Ġmarket place
Ġd ense
u ity
az ines
ocrat s
Ġt ube
Ġs lic
out e
Ġspons ors
_ C
Ġtheoret ical
ĠNob ody
ĠK ill
Ġlegit im
C R
Ġl ighter
ter ior
Ġret ro
ĠSh ah
ĠC M
ĠAtt ack
ĠT ib
Ġspe lls
S l
l ies
Ġhun ger
ĠSim ilarly
ron es
Ġflood ing
Ġadap ted
ĠEvent ually
Ġc ure
ĠPhill ips
pl ess
Post ed
ĠBe ast
ĠBrown s
Ġprev ention
Ġgen ius
aug hed
ĠB P
ex p
Ġeru pt
Ġswitch ing
Ġevolution ary
uff icient
L D
Ġfore sts
{ \
Ġse am
z i
Fr ank
Ġr am
M em
Ġhe m
ĠBut ler
Ġhas h
Ġen abling
Ġmus cles
Ġ9 2
Ġcomple ting
ĠCol on
Ġglass es
H ouse
ĠT igers
Ġqu arters
Ġ197 4
ul ator
ĠR ic
const itutional
Ġsens itivity
Ġantib iot
id o
M er
F I
ĠBry an
Ġm all
d el
um ns
Ġca res
Ġ ),
atic an
Ġbarrel s
W ashington
ĠFr an
lick r
Ġf art
Ġair pl
ĠM IT
f eed
ĠM ode
Ġachie ving
S ur
Ġread ily
Ġmal ware
ĠAl tern
Ġexplo itation
Ġmist aken
Ġtable ts
Ġw are
raw l
ĠSand y
Ġaffili ate
ang o
Ġmurd ers
Ġco at
ĠI b
Ġha ul
te am
ant i
Ġmet a
Ġlist ened
B ER
Ġastron aut
uten ant
ĠCl ay
ĠL E
Ġequ ation
Ġad min
Ġjurisd iction
ĠB ishop
Ġdeb ris
ĠF ast
Ġsubscrib ers
d isc
ĠSh i
Ġreb uild
Ġdr ill
ĠNever theless
ĠPant hers
om atic
ant ing
ĠJ av
ĠPlan et
ĠCast le
k ens
Ġtrib e
Ġhold ers
C le
a ired
out ed
Ġl aughed
Ġf ond
Ġext ending
Ġsubscrib ing
ick ets
Ġinfl amm
Ġspec ify
Ġspons or
Ġbip artisan
A FP
Ġh ind
A c
Ġcool ing
Ġpredec essor
ĠO wn
IG HT
Ġins ights
Ġsomet ime
cast le
Ġrefere n
ĠOb ject
Ġred ist
or us
Ġelect ro
Ġ197 1
Ġref usal
Ġfr ames
Ġbe aring
ĠIn side
ĠArab ic
ri ages
ĠTo o
Ġcous in
Ġfinan cially
min ed
Ġr ats
ĠIm perial
vel t
Ġroll s
Ġup side
k ill
M at
) |
Ġsynd rome
Ġswe ep
b uilding
Ġnot orious
Ġnight mare
Ġp airs
Ġend e
Ġfire arm
ĠSt op
wr ite
Ġswe eping
Ġcan cel
Ġbusiness man
Ġdu o
ĠJam ie
EC T
ĠOr thodox
Ġpers ist
Ġe leg
Ġpro port
Ġcred ible
Ġarbit rary
ĠAust ria
ĠEd ge
à ¸
Ġattack ers
Ġsur pass
E v
Ġhard est
Ġa ston
ak y
Ġc ab
Ġmob ility
Ġhyd ro
G S
ĠW ii
Ġexpect ation
Ġassoci ations
Ġneur ons
Ġdom inate
Ġglob ally
os i
Ġreview ing
Ġor al
pe ction
ĠL ang
ĠN ag
Ġm igr
ĠV i
Ġnew er
Ġhyd rogen
Ġviol ating
? !
Ġ3 50
Ġportray ed
et e
ĠInd ex
Ù Ħ
ĠD awn
g reen
Ġl ately
Ġchar ter
Ġtre asure
f ar
Ġmem or
Ġsepar ately
amp ed
ĠNew ton
Ġtour ist
ASH INGTON
Ġter rain
ĠTO DAY
S and
Ġtr icks
ĠB ird
Ġendorse ment
Ġv owed
Ġtroub led
ĠSp ot
ĠI BM
ĠR achel
Ġdeter ior
Ġrevel ation
Ġdis ability
Ġa ides
ott om
ĠN E
ĠSud an
res pect
ĠPr im
Ġre iter
ĠA x
ĠDou ble
Ġdesc end
Ġapolog ize
agon ist
Ġre ct
Ġnation ally
Ġ14 0
Ġrel ied
ĠB aghd
Ġbi ology
Ġnav igate
b ad
Ġpos es
osp el
ne x
ĠJul ian
Ġprov in
Ġsett lements
ĠLe v
Ġp ockets
ĠMar cus
ĠSw ift
ĠTeh ran
Ġart istic
ĠQu inn
at ched
ĠWell s
Ġcomm itting
M obile
S O
Ġb atch
iz ards
Ġwas h
os ures
Ġtourn aments
ĠB ed
Ġelev ated
Ġphys ician
ĠN eg
ĠD aw
ĠLaur a
ĠContin ued
ch ar
Ġg au
Ġpro ving
m os
Ġshort age
Ġc ache
Ġpers istent
Ġdecl aring
C are
T ur
ĠB order
Ġbl end
r one
umbl r
Ġident ities
Ġst raw
Ġsp at
ar cer
ĠGl obe
es pecially
Ġinter im
ĠC u
ade qu
ĠC SS
ith ub
Ġpr ay
Ġc u
Ġvill ain
ĠB R
ian ces
Ġst ark
Ġ8 9
Ġdistingu ish
S ports
Ġviol ate
Ġinv isible
P ut
Ġinc on
im port
ES S
Ġles bian
Ġgrad uated
ĠAss istant
Ġgal axy
Ġart work
Ġexclud ed
Ġvar ied
Ġa ster
Ġor b
Ġal iens
ĠMach ine
p ic
Ġover time
om o
ĠBre ak
Ġover see
ĠF L
Ġdefin itive
Ġd rown
t ic
Ġinter section
Ġpron ounced
ĠD ue
Will iam
Ġkick ing
ĠM B
aus ible
ĠLeg end
Ġrun ner
T im
ĠN ancy
Ġacc using
ĠR ud
Ġrel ent
Ġd iamond
Ġassemb led
ĠSt ra
ĠM ul
Ġo d
Ġinflu ences
Ġa qu
ĠCard inals
Ġpref erences
am as
Ġpre y
Ġsub way
p df
ĠF ish
ĠN exus
d ie
Ġob esity
Ġrevel ations
th ree
ĠCl ose
Ġren ov
ĠLad en
V ID
Ġlay ing
Ġfort une
cont rol
Ġbul lets
Ġal umin
Ġbes ide
Ġhel met
un ks
ĠW ade
Ġwar r
II I
B uy
ĠNe ither
Ġrisk y
ul ates
Ġuns uccess
ĠC ab
Ġm ush
ĠJ ong
ernand ez
Ġimpl ies
Ġvary ing
Ġtrib es
Ġhand y
mont on
ĠAff ordable
Ġrent al
P ublic
ĠS O
c ond
Ġtoile t
Ġd read
Ġag g
Ġse al
Ġsh ower
G reat
ĠB iden
ul k
Ġkilomet ers
U ntil
C OM
Ġre lying
ĠB annon
Ġbreak through
Ġban ner
Ġfavor able
ĠM itch
ĠE rd
Ġne ural
ose velt
ĠL uther
ĠMem bers
ĠWh atever
Ġn urse
it utes
Ġauthent ic
Ġg i
alth ough
ĠTra vel
Ġdiss ent
Ġtax i
rament o
Ġrecip es
ĠSe lect
Ġanaly ze
Ġreluct ant
Ġaim ing
Ġp p
ĠJo ined
Ġcred ited
ĠT ar
Ġk icks
Ġfam ously
Ġpat ience
Ġassass ination
ĠClass ic
ĠAl b
ĠCle an
A K
ah o
Ġur gent
Ġback ers
Ġun aware
ine z
ĠFl ight
Ġp sy
Ġins pire
ĠG R
rib ly
em ail
Ġcl ause
Ġprof itable
ĠH orn
ĠT arget
in ho
Ġvolunt ary
ĠJ obs
Ġfact ories
Ġsubst itute
V R
Ġmass acre
Ġmeas uring
Ġrecre ational
ĠCol lect
Ġp etro
H ub
Ġca ut
ĠUS S
Ġsum mar
Ġpr ayers
Ġexpress ions
Ġp up
n ut
Ġtrick y
t em
b one
ĠW ire
Ġoutf it
Ġmag azines
econom ic
ĠT her
ĠC BC
Ġdisc ourse
Ġpass ive
Ġcy cles
ĠYan kees
Ġsoc ially
Ġal beit
y ang
Ġp uck
W ind
ĠV atican
omet own
Ġtext ure
P H
ĠH R
br aska
ĠDr ag
Ġp ause
C ong
rit ical
Ġund oubtedly
IM E
ĠGarc ia
Ġb out
s cience
ĠK remlin
Ġstar ring
ĠHispan ic
ĠE ither
D irect
Ġatt ribute
Ġf isher
ĠB att
uc le
l arg
d b
ĠP il
Ġmin im
N ational
so ever
Ġmos que
ac hers
IC K
Ġrece ivers
Ġcrew s
Ġhe ated
ĠT ru
Ġst icks
ĠAr c
Ġprovin ces
B ased
ĠW inn
Ġwor ries
as ma
CL A
ĠFour th
Cl ass
ĠAgr icult
Ġcontract or
Ġdefend ant
Ġintention ally
ra ke
am y
Ġman eu
ash i
Ġmem orable
Ġload ing
Ġpreced ent
Ġbroad ly
Ġf itting
ĠHol ocaust
Ġf oster
ĠPolit ics
" ;
Ġm ant
Ġsatisf action
E vent
_ 1
he tt
er ting
Ġour s
ĠC ant
ĠPet e
Ġdynam ics
Ġblog s
ou g
ĠC row
in is
Ġse min
Ġfac ial
ĠK or
ĠInvest ig
ĠNob el
he astern
Ġbuff er
ĠH ait
Ġsum mon
Ġval ued
pt ic
Ġmulti player
ĠN at
Ġsuppl ied
ĠAgree ment
im ated
Ġiniti ated
sy stem
atern al
ĠPh D
Ġp ond
h um
Ġstr anger
Ġattract ion
ĠProt est
ĠDe al
ĠG rey
t alk
ĠAl ong
Ġ9 1
ĠHall oween
Ġdisappoint ment
fr ame
ĠM ans
ĠAl ice
Ġstick ing
p ound
Ġteam mate
ĠSam uel
Ġprov es
ĠL ot
ĠM icro
Ġsear ched
ĠEnter prise
ĠWork ing
ĠBir mingham
Ġinc omes
Ġswe pt
Ġmart ial
ser ver
Ġst er
th ird
ort ing
Ġne o
Ġl iv
Ġepid emic
app ro
J apan
ĠSn ap
ĠNash ville
Ġdim ensions
ĠL em
Ġun lock
ĠGirl s
Ġfict ional
ĠTra il
cer pt
ĠChief s
Ġentreprene ur
REL ATED
ĠN EW
am o
With out
Ġmis under
ell ing
Ġbroad c
ĠBrew ing
Ġ ic
Ġp ars
Ġgrand father
ĠIsrael is
B ill
e very
Ġinterpret ed
ĠEngine ering
Ġtheat ers
ĠRe form
ful ness
ost al
Ġ9 4
ul in
Ġachieve ments
Americ a
ĠFer r
Ġparam eter
Ġevent ual
Ġdomin ance
ĠC hen
Ġmed i
Ġflaw s
te lling
RE E
Ġmod ify
Ġyoung est
c ulation
Ġworry ing
ĠG A
Ġcontribut or
ĠA bs
........ ........
F T
ur as
AN T
Ġint act
ĠF inn
Ġconven ience
am ation
Ġar ise
Ġsubm ission
ĠCh and
ĠD ays
Ġdef ines
ain ted
terror ism
Ġpo le
Ġarch ive
Can ada
Å į
ĠC our
ĠCom puter
Ġfin ale
Ġpred iction
l ast
Ġobst acles
L aw
Ġsur render
f in
Ġtact ic
Ġphilosoph ical
ĠP ath
ĠJ oint
Ġsub t
ĠM es
ĠN ep
Ġw ard
em ale
ĠP oly
ced es
Ġtr ump
ĠBase ball
Ġbicy cle
ĠP ubl
Ġm aj
Ġdisc ont
v ised
Ġen roll
ĠAl most
Ġinf lic
G old
Ġpr isons
off icial
Ġban ning
Ġmal icious
ĠS ach
ir med
de velop
lic ation
op ular
Ġreven ge
roph ic
L ong
Un like
Ġnav al
' '
ĠS pect
Ġwhat soever
cul us
ĠK ath
AS T
ange red
Ġnational ist
Ġentertain ing
Ġdiv ine
Ġbas eline
Ġcorrel ation
am bers
Ġnetwork ing
ĠMo z
Ġneighbour hood
ew s
Ġsk ip
L ater
Ġshe ets
ĠN HS
Ġneutral ity
Ġg aps
ĠK ate
Ġignor ance
ĠS old
l ay
Ġorgan ised
om i
Ġtouch ing
Ġconcent rated
Ġinter medi
he nd
Ġc yn
Ġover r
int age
Ġconsult ing
Ġregul ated
Ġdu pl
Ġassault ed
ment ation
D et
Ġopp ression
Ġn est
ĠB ear
an ne
Ġthe or
ĠPortug al
Ġle thal
ob i
ar u
Ġtw itter
Ġanal og
Ġmac ro
Ġev olve
Ã¼ r
ĠM atter
Ġinvent ory
Ġan k
Ġcur s
Ġsa ves
Ġeuro s
M arch
ĠE le
Ġris es
in formation
Ġdesign ing
Ġhor izont
Ġconfront ation
Rem ember
ast rous
ur l
ĠPict ures
ĠC ox
ĠHol mes
ĠAn imal
Ġn asty
F R
umb ai
Ġc ra
us hing
Ġimport s
g s
un ique
Ġdr ain
all ow
A f
Ġquant ity
sp oken
ĠRo osevelt
Ġsk i
Ġcrowd ed
Ġover ly
on ies
ĠMot ors
Ġadminist rators
c ost
Ġres ur
Ġto oth
Ġscript s
ĠCar ib
Ġinv itation
bl og
rav is
Ġr ab
In tern
Ġc um
ĠL G
Ġn er
Ġvar iant
ĠBe er
l ation
irl ines
Ġoff enders
h ots
Ġh ated
le ased
Ġmer it
Ġdon or
us cript
m und
Ġse aled
Cal if
T er
ne apolis
ĠG ive
ĠFire fox
Ġcommit ments
ĠUS D
ĠHug hes
ĠD A
Pl ay
Ġremem bers
Ġbr ick
Ġ196 5
ĠSur v
Ġfix es
as se
Ġcost ume
ĠAngel a
T ex
ĠEp isode
ĠK az
Over all
ĠR PG
Ġ196 4
head s
Ġp add
ĠPD F
M ac
Ġnav igation
ĠR aw
ĠL an
as ures
ere k
ĠM I
col m
ĠRodrig uez
ĠN athan
us ions
Ġcomprom ised
C P
ĠK os
im eter
Ġinc arcer
Ġstar ters
f ull
ĠPal mer
Ġfree ze
ĠFin land
Ġwr ist
Ġreject ion
Ġmathemat ical
Ġprec ision
Ġcur rencies
ĠF an
Ġflaw ed
Ġbelong ing
B E
ĠI L
F ox
Ġt ire
Ġcomm em
ling ton
c m
ch ief
ah an
Ġembarrass ing
St ring
Ġpitch ing
Ġover th
ĠR ing
Ġcl ash
Ġrob bery
ĠD ise
Ġc ord
Ġb ay
gg le
Ġhol idays
s im
ĠG P
j e
Ġab uses
are z
Ġquestion able
ĠBroad way
ic ating
ĠW ol
Ġcur ric
ĠOccup y
ĠF oster
Ġpresent ing
Ġpro xy
Ġapp et
Ġble w
ĠQueens land
Ġun cle
Ġn erve
our ge
anc ies
ĠM E
Ġupgr ades
Ġconstrain ts
ĠS ullivan
ment ioned
Ġdispro portion
ĠIndian apolis
Ġinfect ions
Ġn arc
Ġstead ily
Ġremind s
Ġrend ered
ĠBoe ing
Ġad oles
col or
Ġunc overed
bel iev
ĠDun can
ĠCh ase
Ġpharm aceutical
ĠSh aw
Ġbase ment
ĠC OM
Ġball ots
ĠRod gers
Ġtradem ark
O pen
ĠE RA
Ġcont ing
Ġb ats
Ch ar
ri ved
ĠMont ana
Ġopt ed
Ġj am
Ġdist ribute
Ġbeh ave
W ASHINGTON
ilit ary
Ġout look
as ive
Ġm ast
ed uc
z h
Ġa pt
ide os
Ġmanufact ured
Ġdig it
Ñ ı
Ġgrand mother
Ġst iff
the m
Â ©
Ġboot s
Ġm im
ĠR acing
Ġen v
Ġpack s
Ġun int
Ġtu ition
Ġback wards
ĠMoh ammed
ĠC ris
Ġa usterity
Ġcomple ment
rit ies
Ġsu ited
atter ing
P erson
Ġsaf egu
Ġevangel ical
ĠL ore
Ġat e
Ġlink ing
Ġcontain ers
Ġmake up
Ġprison er
Ġnons ense
Ġins ert
Ġdownload ed
Ġoff ence
' :
c lick
U lt
V er
ĠC abinet
min ster
Ġthro at
U P
Ġextrem ist
as a
esc ope
Ġint imate
ĠA G
Ġshar ply
Ġper ce
Ġprote ins
Ġan throp
ĠS ens
Ġcred entials
ic ides
Ġinj ust
Ġcorrespond ent
ĠC op
o os
Ġsecret ly
ĠAth let
ĠIn iti
Ġcol umns
Ġhot els
Ġtrack ed
Ġpress ures
r aged
Ġsatell ites
ĠAss ange
Ġland l
Ġbud gets
ĠA ven
Ġqual ifying
Ġhack ed
Ġ Å
ĠBaghd ad
Ġcomp ounds
Ġoption al
Ġto kens
do ing
P ort
ĠK ash
Ġinv alid
b at
J on
se en
Ġpun ished
Ġwho ever
Ġemot ionally
Ġr ivers
ov ich
Ġsurv iving
Ġsol ving
Ġinject ion
Ġc ups
Ġelim inating
Ġch ron
Ġaggress ively
ĠChance llor
ĠNiger ia
ĠY e
Ġd iam
Ġham mer
d ro
ĠL l
Ġmanip ulation
Ke ep
Ġlif ting
Ġlaun ches
Ġl as
Ġhor izon
ĠCl in
Ġo ven
Ġc attle
Ġres id
Ġpl ag
ov o
ĠP ink
ĠS ierra
un ge
Ġswe at
Ġmet ric
Ġbo oth
ibl ical
Ġsubur ban
ĠStud ents
ĠAle ppo
F ire
Ġs ab
est a
Se pt
Ġhor rific
ĠBr ig
ĠPet erson
Ġnice ly
ĠBrother hood
Ġextrem ists
ĠJes se
et ition
Hill ary
orig inal
Ġconclud es
Ġbrew ery
less ness
Ġde lete
Ġmess aging
ipp ers
Aust ral
ĠM ine
Ġpublic ity
ĠPresident ial
ĠQu ick
ĠCitiz ens
ĠFI FA
pr ises
Ġh ilar
com pass
Ġjo ins
Ġamb ul
ĠSac ramento
er als
Ġcompl aining
b uild
Ġ: )
ĠR O
t w
Ġprev ents
E r
iction ary
ĠBangl adesh
Ġrecon c
ĠH erald
Ġprem ise
Ġvac uum
zb ollah
ĠE S
ĠAlp ha
Ġr ides
ĠCat al
Ġdism ant
âĢĶâĢĶâĢĶâĢĶ âĢĶâĢĶâĢĶâĢĶ
Ġbr ush
EL L
00 1
Ġadvis ers
ĠZ immer
it ches
Sm ith
el er
J une
se in
co very
Ġhaz ard
Ġjust ification
Ġunder go
Ġ q
ĠC ell
Ġtrad es
Ġdest ructive
Ġanch or
ĠB elt
ĠP red
ok o
N one
pl ant
Ġneighb oring
ĠA round
Ġent ers
Ġk g
ĠHer itage
Ġsle e
Ġpict ured
.âĢĻ âĢĿ
Ġo un
Ġref und
Ġtroub ling
Ġvirt ue
Ġtransf ers
Ġflo at
serv ice
ĠC riminal
Ġacc idents
ĠLeg al
ĠOver all
ĠCol in
k now
s qu
Ġrecord ings
Ġannoy ing
Ġcor ps
Ġsovere ign
Ġfe as
iter ranean
Ġtroub les
sc ript
Up dated
G N
Ġnon etheless
Sc ott
Ġun constitutional
Ġpur ple
ertain ly
ĠEd monton
Ġ19 45
Ġle ase
Ġdis astrous
child ren
ĠAn aly
ĠJess ica
Ġcommission ed
at isf
Ġplug in
ĠHe y
Ġby pass
Ġam ateur
ĠMS NBC
Ġcomm ittees
per m
Ġir rit
atern ity
Ġg re
ĠH TC
ĠCh ip
Ġcompan ion
Ġg reed
Ġdim ension
OR K
ĠCost a
Ġte aches
l iter
K K
Ġden ies
i ological
Ġl iver
ĠRe ally
ĠS ave
Ġj acket
ĠAll ah
ĠM ong
sp ons
Con f
Ġsince re
ens on
ip se
Ġin accur
ĠP H
ĠG ot
Be ing
ĠZ one
Ġb er
Ġexam ining
us hed
In vest
Ġmed itation
ĠPot ter
ĠSh in
ĠPict ure
ĠM urd
Ġcens orship
ĠD rew
um atic
Ob viously
clus ive
Ġlegal ization
ĠOb serv
ĠR ivers
ĠL ic
Ġdel ivers
g om
Ġin adequ
ĠC av
Ġprom in
ĠAh med
Ġinter pre
eal ous
ĠAnt ar
Ġop io
ĠBre nd
Ġrandom ly
Ġimpl icit
Ġboss es
Ġintern ationally
ve t
ĠChall enge
s ocial
ĠG round
ĠInc re
Ġexpl ored
M C
m us
Ġforeign ers
Ġunemploy ed
ĠAct iv
Ġgrad uates
st ick
Ġh ike
Ġhand gun
Ġcalcul ate
Ġ0 3
ĠE arlier
Ġintegr ate
worth y
Ġp ad
ĠFO X
Ġcat ches
ĠC T
Ġcl ashes
if iable
leg al
ĠAr med
ĠNe braska
ĠA irlines
ĠG ore
Ġdisp utes
if ully
av i
ĠC arm
âĢĿ :
ĠÂ °
Ġb ans
Ġl azy
ĠIm agine
E mail
w ould
ur ious
Ġpriv at
Ġirre levant
at hetic
S um
vent ions
ĠS em
oun cing
ĠL ives
Ġd war
ĠTele graph
Ġaccord ance
Ġfor k
augh s
if iers
Ġretain ed
Ġdef enses
Ġcig arettes
oot s
ific ant
Ġadj acent
ĠBar n
ĠD ri
op ic
Ġp el
] )
Ġland mark
Ġencour ages
ĠClar ke
ie ve
F ull
ĠF ac
iz ers
Ġcomp act
Ġnin th
c d
ĠCurrent ly
Ġprop ose
Ġstri pped
Ġterr ifying
ust ain
Ġch unk
Ġint ends
min ent
ĠPrin cess
ĠComm ander
ĠT u
ĠR af
Ġmole cules
Ġdiscon nect
Ġreal ised
Ġlight ning
Ġhyp oc
Ġstud ios
Ġcalcul ations
ĠB ald
ĠCub s
Ġcampaign ing
ĠO z
Ġenact ed
ĠNaz is
Ġfar mer
Ã¡ n
uff ed
Ġtoug her
Ġover head
Ġcal ories
Ġintrig uing
o ven
ver ted
Ġsan ction
Ġrecru ited
Ġkn ees
sh ow
g reat
N AS
Ġclar ify
Ġaff irm
Ġconf erences
Ġinvestig ative
M uch
ĠEv il
Ġeconom ically
yl an
[ /
ĠZ ach
Ġo k
Ġsubst ances
Ġdep ict
et a
Ġsc are
Ġâ Ĩ
av ailable
ur ry
b oth
Ġ16 0
Ġpro long
U K
Ġprof iles
R eal
Ġatt ach
ĠM aur
ag ain
Ġsymb olic
Ġmor ality
Ġsocial ism
Ġcrit ique
undred s
b ot
Ġr ugby
ĠN ar
Ġshe ep
uff y
Ġcent res
Ġgu ided
pri v
ĠWeek ly
E xt
Ġhomosexual ity
Ġflow ing
ĠP owell
Ġco pper
Ġpres erved
Ġload s
l ocal
Ġcoll ision
ĠBoe hner
Ġst ones
ĠPro cess
Ġplace ment
Ġassess ed
Ġunw illing
ĠW ing
Ġsl ice
Ġnorm s
Ġprosper ity
Ġproceed s
ĠP in
Ġn aming
Ġcou pled
Ġfurn iture
to o
ĠO P
Ġspecial ized
on al
play ing
imp se
Ġnot ified
fl u
ĠTib et
ĠChe m
v or
Ġgl impse
ĠSen ators
ig ue
Ġdr agon
U se
Ġimag ery
os ity
Ġrelig ions
it ations
Ġple asant
Ġsubur bs
Ġhed ge
ĠD ynam
Ġsequ ences
Ġsimpl er
ĠR u
âĶĢ âĶĢ
Ġfif ty
Ġdeliber ate
Ġcrit ically
ĠV oice
Ġfav ored
ĠWe ather
Ġexpl oded
ĠTr aining
i ably
y our
Ġch airs
Ġporn ography
ĠH E
L ear
Ġinc om
ĠEff ect
ĠCarib bean
ĠSteven s
per t
anche z
qu ire
ĠT ogether
ĠJo el
Ġind ie
ok ia
ĠPro s
G en
Ġa ug
Ġdrag ged
Ġhe y
ain er
ograp her
ĠHung ary
Ġcryptocur rency
Ġmind set
B ron
Ġref uses
Ġoffer ings
ĠF am
p ol
Ġencoun ters
Ġtri o
ograph ical
________________ ________________
S am
] ;
Ġl ending
ĠBe aut
ĠMed iterranean
ĠAny one
r ams
Ġh ometown
Hist ory
ĠF ight
Ġrevers ed
Ġpack aging
Ġsket ch
Ġemphas ized
Ġinfring e
J im
ab i
ia z
ĠAlex and
Ġincorpor ated
ĠC ulture
ident ified
ĠI de
Ġpot ent
> <
Ġreal ise
ĠC and
Ġgl ance
Ġen velop
ĠMil an
izz ard
ik ed
Ġcur b
Ġv ag
Ġgest ure
Ġdisc retion
Ġfl ower
ĠÐ ²
Ġst ole
by e
se arch
T able
Ġdis gr
ĠU ser
Ġbre ed
p her
Ġsc roll
Ġrep rodu
Ġtravel s
Ġtal ents
lin ing
Ġ12 5
Ġthr illed
ues e
ul ously
ĠErd ogan
imens ional
J uly
Ġturn out
Ġcop e
Ġcontin ually
ophob ia
ĠMin neapolis
Ġa irst
C ount
Ġcance led
Ġany time
ĠK an
Ġindict ment
Ġstrength s
k n
ĠH ig
Ġmin ers
ĠE ight
ri ans
ĠCons ider
ĠZ en
ĠImm igration
p ay
ĠP ic
ed e
ĠK er
G R
om ers
Ġfather s
omet er
ĠD im
Ġshare holders
ed In
ĠLu is
gh ai
Ġcommun ist
Ġcontrad ict
ig s
on est
Ġl ing
oc y
F eb
ond e
ĠEdd ie
at able
Ġder iv
A pril
Ð ¼
Ġm old
he ll
Ġcont empt
ost ic
Ġe rect
ĠMus k
ĠM umbai
Ġaccount ed
Ñ ĭ
ous ands
Ġha un
Ġflee ing
Ġrest rain
Ġres il
Ġdes ires
ĠEurope ans
Ġapplic able
Ġtow ers
Ġthread s
et on
ĠM ull
asc us
ĠPriv acy
Ġg ambling
Ġdecent ral
Ġvo iced
Ġs add
Ġreb ounds
u art
m ill
Ġhas ht
mer cial
ĠGO OD
Ġlack ed
oll o
Ġind ivid
Ġpract icing
B rien
ĠD ian
******** ********
ĠK ay
Ġorder ing
rik es
Ġfact ions
ro d
Ġnot ification
Ġimport ed
Ġd airy
ĠPal m
Ġoverwhelming ly
. ).
Ġdict ators
Ġhabit at
Ġte lev
ĠLook ing
and ing
Ġcritic ised
M att
D I
Ġel ites
Ġscholars hip
ĠAb raham
Ġhead er
Ġins pection
Ġman uscript
ĠStr ong
Ġref res
Ġdep icted
Ġsc al
ĠÃ ł
ĠT ouch
am pton
C r
Â Ģ
ĠT ask
ĠE thereum
G L
Un ited
Ġfru its
ar in
an ies
Ġ9 00
ĠW a
ĠTh ai
Ġpredict able
b b
ĠMart inez
Ġ0 7
ĠGib son
Ġconv ictions
sh aped
Ġmeasure ment
ĠM aking
Ġsw ap
Ġcollect ions
ĠJ ared
Ġsur plus
ĠCast ro
Ġfemin ism
K ing
Ġra ids
Ġprec ip
charg ed
re cy
Ġwas ted
Ġsu cc
Ġactiv ated
inf o
ĠHT TP
ke ll
ens en
Ġdist ress
ny der
Ġsu ite
ĠCh ad
ĠLat ino
Ġab ortions
Ġfe ver
Ġcolumn ist
ol ics
Ġpoet ry
Ġfinger print
Ġorg ans
ĠHel p
ĠB ak
Ġiss uing
Ġdepos its
O kay
ĠMc D
M icrosoft
H el
on ut
ĠWood s
Ġl ips
Ġwhe at
ĠUn ity
OS E
F eed
Ġbe ans
Ġforth coming
ĠL akers
ĠB aby
ĠÐ ½
Ġactiv ation
gr at
Ġun law
sec ution
ĠW es
ĠJ ed
Ġappreci ated
gh azi
ĠCo ff
s ight
ĠB esides
Ġj ets
Ġpurs ued
Ġtr im
Ġsatisf y
Ġoff s
Ġrall ies
J eff
Ġconst itute
Ġwe aker
Ġt ender
Ġprogress ion
AM E
k ers
Ġle ver
Ġlit igation
Ġsup reme
T w
Ġcons cience
Ġfin ances
Ġru in
ĠN ine
Ġh urd
ĠAdv anced
Ġcomp iler
ĠDem ocracy
ĠTex ans
ĠLight ning
ĠM ath
ĠG am
Ġcrack down
ab lo
ĠMer cedes
Ġch ick
Ġamb ig
em et
Ä ĩ
ĠCh an
Ġpost ers
Ġefficient ly
os ph
P ac
Ġschol ar
Ġd awn
ĠJeff rey
and o
Ġfre el
Ġj unk
otten ham
Ġwh oles
Ġbe ast
ĠY ellow
ĠAn a
s i
Ġkilomet res
Ġobsc ure
ĠNorm an
Ġguarant ees
Ġcar ing
h ad
ĠC urt
ask et
ud a
gom ery
Ġhel m
ch ant
um my
Ġuncons cious
ĠAdd ed
ĠE P
ĠLabor atory
Ġstart ups
ĠM ade
ĠPro per
Ġactiv ism
m ember
gener ation
ĠK in
h u
Ġmo ist
ĠToy ota
Ġneed ing
ĠTra ff
M o
ce ans
Ġconfir ms
ĠPoint s
Ġneg lig
Ġdes cent
H ead
Ġm g
Ġliber ties
Ġinf inite
Ġparad ig
m ission
Ġconcent rations
p resident
Ġs id
Ġsc attered
Ġthreat ens
ĠVis it
Ġaccording ly
ok u
Ġb ored
ft y
ĠStud ent
S H
Ġinstall ing
Rober t
E U
ĠK enn
n ia
Ġrock ets
Ġro oted
Ġsec uring
Ġdis hes
ĠMag n
Ġinstruct ed
Ġpass port
ĠCreat ive
Ġwood s
Ġport rait
ãĢ ģ
ĠD I
H ello
Ġgot ta
us c
Ġir ony
ĠHud son
ĠGand hi
c all
Ġtransport ed
Te am
Ġunh appy
Ġassert ion
ĠM eg
Ġfix ing
ĠA ub
Ġwat ches
ys on
ĠD w
Ġd ining
um ar
Ġman ually
âĸĪ âĸĪ
h or
en z
Ġcustom s
Ġcont race
Ġres et
Ġint ensive
ĠCan cer
Ġhy pe
Ġinf ilt
tr ue
Ġcry stal
ĠFred er
ĠNY C
Ġprofess ors
il ia
ib les
Ġpat ents
ĠStat istics
ĠAh mad
' )
Ġr abb
ĠMarg aret
Ġassign ment
M ax
Ġund ocumented
raw ling
Ġg ly
Ġremain der
Ġsp here
ĠMos ul
Ð ´
Ġch im
Ġ0 9
200 7
ĠHe zbollah
Sh ort
ĠO ri
Ġ196 6
ĠSpr ings
Ġshout ing
V M
Ġhe ating
ĠB omb
ĠBoy s
ĠYou th
am mar
Ġceleb rities
ĠÐ ¿
ĠC ou
ĠW alt
ĠInter ior
v oc
ĠB apt
ĠO pt
ug ar
ĠC it
est e
Ġj azz
ĠH S
Ġsurvey ed
Ġtra ject
Ġproject ions
Ġpost season
ĠL ion
Ġen vision
Ġreact or
Ġc abin
Ġmarg ins
Ġsl ated
Ġbull ying
p os
Ġdis gu
Ġ Ñģ
ateg ory
Ġmix ing
Ġsystem atic
V I
Ġeas iest
Ġbackground s
Ġt ennis
Ġvacc ines
Ġsh ark
Ġsound track
Ġge omet
Ġment ality
ĠSum mit
Ġcommod ity
Ġfavor ites
Ġmin es
le ague
ĠL arge
uck ed
Ġconce aled
s omething
Ġacadem ics
Ġapart ments
ĠSqu ad
Ġaer ial
ĠB anks
P ower
Ġbe ats
Ġpr one
Ġdig est
y on
p aid
Ġsu e
Ġadvent ures
Ġgr im
Ġbatt ling
ĠBM W
ĠW ang
Ġdress ing
_ v
ĠCom cast
Ġtou ches
Ã º
ĠT ree
ĠMon ster
Ġforg ot
Ġcome back
Ġw ra
Ġgrass roots
Ġm apping
ĠL ower
ĠMov ie
Ġdis puted
Ġr ou
est on
Ġbl ade
UL L
ĠC ool
at ics
Ġd ug
ĠS ett
ĠId ent
j u
arm ing
emet ery
ris k
Ġin k
ĠS au
ĠI R
ad ian
Ġpromot ional
Ġ( Â£
Ġc aucus
ĠPri or
Ġhe els
els h
Ġpark ed
ĠC P
ĠCom ic
_ u
ĠG aming
m ount
Ġfl ies
own er
Ġshout ed
Ġc ables
Ġsm iling
ĠH onda
Ġmet eor
Ġappreci ation
ĠMal colm
Ġcontinu ously
ĠY ale
Ġl ied
ener ation
_ {
.' "
Ġflags hip
g ue
Ġindic ator
Ġgas oline
Ġble eding
Ġnut rition
ogen ic
r ising
ĠOper ations
Ġdispl aced
agg ering
Ġhand les
ys ical
Ġsl aughter
Ġdep uties
Ġremote ly
ĠForm ula
Ø §
Ġmathemat ics
ĠN ad
ĠTe levision
ĠD rop
Ġrhyth m
ĠF o
E nd
Ġsc ales
ĠKen ya
Ġsh oe
j pg
Ġan om
Ġ0 4
Ġcol ony
Ġm ud
F ive
Ġtrop ical
ĠInd ependence
ens ed
ĠH im
ĠF alls
Ġstr angers
ing le
at ility
ĠS id
Ġca f
Ġse gments
el ed
Ġsc i
Ġstaff ers
ĠÂ »
Ġmount ing
Ġgen ocide
id ity
ind ex
Ġw ield
ĠDam ascus
Ġch rom
es ville
Ġ0 8
Ġâ ĸ
Ġpolic ing
ĠBelg ian
oul os
Ġver bal
J oe
Ġacc laim
Ġfl ames
ĠBen ghazi
c urrent
B o
Ġimm unity
Ind ia
ĠCol lection
ab lish
Ġill usion
ĠP ract
Ġ( -
ĠFin als
ĠS K
Ð ²
Ġstat ute
ĠVin cent
Ġcle aring
Ġmulti pl
M D
Ġl inem
l ength
Ġs od
Ġdis reg
ĠP etro
Ġsh ook
Ġpull s
Ġunp redict
Ġd ough
Ġdig ging
Ġprompt ing
Ġport ions
ix els
Ġcompet itor
s un
ĠSome one
Ġinherent ly
Ġic ons
Ġcharacter istic
ph is
Ġcompar isons
Ġbr idges
or ically
Ġconnect ivity
Ġg orge
ĠSt rip
Ñ Į
Ġbench mark
ĠCry stal
Ġ196 3
Ġaffili ated
ĠSim p
l isted
Ġm ol
w age
Ġamb itions
ĠM ons
Ġe cl
ĠCar r
Ġto pped
Ġu pt
ĠCoun ter
Ġsh aking
ad itional
ipe g
ĠRaven s
Ġcertain ty
Ġcent ered
Ġsmall est
yn c
ĠWe ap
ĠWh ats
mid t
Ġbehavior al
P ass
Ġcro re
atch ing
F il
ĠA K
Ġbl unt
ĠMajor ity
ĠNew castle
Ġdispos al
ĠHop efully
ĠD elta
ĠIniti ative
Ġapplic ants
h art
Ġfortun ate
Ġw ished
Ġpit ched
cific ally
N E
Ġd are
Ġsynt ax
f o
Ġup hold
ĠTom my
Ġmusic ian
ĠM is
ĠUp on
ig ion
on gh
Ġwild ly
L ab
ac cess
Ġimpact ed
Ġmed ieval
Ġm i
Ġrep roductive
d eb
th reat
ĠBr ight
Â »
Ġcar n
yn asty
ĠNe uro
Ġstorm s
Ġdis ruption
ĠM end
ĠSch olar
Ġpit ches
ĠB ren
ĠX i
Ġwe ighed
ĠCont ent
ĠBr ain
Ġcontribut ors
Ġview er
ud ed
ĠCo in
ĠSat an
os aur
B ro
Ġst ap
Ġur anium
Ġat op
ĠW ITH
we b
Ph il
ĠPortug uese
Ġanx ious
ĠC opyright
Ġcook ed
ĠC ash
ĠApp arently
Ġfoot print
Ġamend ments
Ġbe es
Ġill um
Ġaest hetic
Ġgl ac
lud ed
r ise
ĠWal mart
we gian
1 30
ĠSh a
ĠTH IS
Ġaver aging
Christ ian
Ġeat en
ĠR ank
Ġst int
ĠH ERE
Ġadjust ments
Ġd ent
Ġst akes
ean or
Ġas leep
h at
ĠB ody
Ġtheat re
Ġindivid ually
ĠEm peror
Ġst ub
AC E
Ġim minent
Cont in
Ġfaith ful
Ġrep ository
ĠW ings
ĠRe yn
Ġpat ches
ong yang
Ġem pir
ĠArch itect
W omen
Ġ| |
Ġr ipped
Ġprior it
Ġcinem a
ĠW ere
Ġh ipp
Ġadvis ory
ĠG raph
Ġve ctor
Ġsh adows
ĠK urt
Ġdes erved
sh aring
Ġattend ees
igg s
Ġphys ic
Ġst aring
ĠOther wise
ĠR ule
A G
Ġfound ations
Ã© e
N on
ĠD anish
Ġdemonst rators
Ġmy st
ĠSt alin
ĠIndust ry
Ġcon grat
Ġr anges
ur ally
Ġcru ise
cl ub
ar se
âĢĿ ).
ĠLegisl ature
ĠA CC
Ġe go
ot ive
Ġp und
Ġrecover ing
Ġfe ather
Ġsp ont
p ical
Ġsufficient ly
en ly
ĠK aren
akes pe
ĠCar roll
Qu est
AS E
Ġdistinct ive
ĠCrime a
ĠB ills
Ed itor
Ġlegitim acy
ĠM ann
Ġinspir ing
ĠVal ent
Ġcand y
Ġque ue
ON E
Ġdep osit
Ġcl ue
Ġju ven
Ġbon uses
Ġjail ed
d ollar
C all
et ooth
Every thing
Ġcert ified
Ġrail way
m em
Ġhier archy
ĠReds kins
Ġ0 5
ik o
Ġund erest
Ġclim bed
Ġhistor ians
ess age
Ġincumb ent
le en
Ġal erts
ĠA er
ĠColomb ia
Ġpl ausible
ĠIm pro
run ning
Ġadjust ment
ot er
Ġsupp ress
Ġcar b
Ste ve
Ġmetab ol
Ġn ucle
O H
Ġun believ
ĠS QL
Ġcr ap
Ġcr ashes
Ġab usive
Ġc age
Ġrein force
Ġsuprem ac
A E
Ġn ail
ĠLe ave
ope z
Ġphys icians
,' '
ro v
sh it
Ġcook ies
Ġro d
âĢĿ ?
ach t
Ġque en
ĠUlt imate
ĠCons umer
Ġexplan ations
ĠGener ation
Ġt ide
ĠS ale
ult z
Ġmin imize
Ġcont ender
Ġut ilities
an as
pect ives
Ġimprison ment
Ġamb ition
Ġblow ing
Ġa fore
Ġpar as
Ġshe lf
S il
Ġfound ers
s ay
Ġneg lect
% ),
Ġposition ed
Ġresc ued
Ġoff enses
Ġconsult ation
St r
Ġlight ly
ĠD ame
ad ata
ĠId aho
Ġdirect ing
ould er
Ġcig arette
Ġelect orate
Ġdeleg ation
Ġvel ocity
Ġzomb ie
ow itz
ĠShan ghai
ĠB ent
Ġdis l
ĠM ob
Ġflav ors
om ore
D el
ĠSimp son
b ra
Ġgi ants
Ġmet er
ĠCommon wealth
Ġmotorcy cle
c ourt
Ġansw ering
ĠWest minster
ĠMet al
Ġsc am
Ġde ar
ĠPer formance
ĠGr an
Ġboy cott
_ D
P eter
ĠCh ampion
Ġeduc ate
ĠK i
_ A
Any one
Ġhuge ly
Ġbox ing
Ġincorpor ate
Ġsie ge
orth y
gg ing
chn ology
Not es
Ġpersu ade
Ġby tes
Ġpromot ions
S ure
Ġexplo ited
Ġv icious
ĠThe ory
12 5
Ġ( +
Ġal igned
M E
ĠCol ts
Ġhalf way
AC T
ĠK o
ĠLim ited
ĠR A
ĠL oc
ĠLeon ard
min ing
Ġrun ners
ĠS anchez
Ġrow s
Ġab rupt
OU R
uter te
ĠM asters
Ġcollect ively
ĠArm strong
ing rich
um per
Ġlad der
Ġch asing
Ġsim ulation
prising ly
Ġoff line
Ġf reed
im g
ĠS witch
Ġluc rative
g irl
Ġgener ates
ĠH az
Ġmor ph
Ġrecogn ised
Ġp ork
erv ative
C onst
Ġshow case
Ġconsist ing
Ġintegr al
g ow
ason able
n els
Ġplant ed
Ġaccess ed
Ġautonom y
Ġdies el
Ġelement ary
ĠEs pecially
Ġsl ipped
ĠP orter
Ġfif teen
ĠG N
Ġapp ar
ĠF ix
Ġassoci ates
Ġabsor b
ĠM add
ĠK end
ĠSocial ist
ĠX L
er ness
n is
ĠU CLA
Ġcurric ulum
f ix
ĠV M
als h
ĠO culus
ĠK ane
Ġopt imal
ĠSteel ers
ĠW ant
Ġmilit ia
ĠM oss
akespe are
Ġp iano
Ġlow ered
Ġjer sey
Ġmar riages
ĠInt egr
ĠConfeder ate
ĠAn alysis
Ġcere mon
s ite
Ġsp ike
C AR
he art
Ġadv ancing
Ġancest ors
or um
Ġman a
Ġop ener
Ġnegoti ated
ad ays
ĠW E
Ġt a
Ġacc ent
ra vel
Ass ad
Ġappeal ed
Ġpo em
Ġauthor itarian
ĠPriv ate
Ġs oup
am iliar
Ġrecruit ment
Ġmatch up
ĠN ut
Ġtri v
ĠEm ir
Ġquant ities
ew ay
ĠStr ateg
Ġeff ic
OR D
Ġslow ed
ĠSt ream
Ġbl at
ĠS add
ĠW or
Ġimp osing
Ġmanip ulate
Ġsatisf ying
Ġinhabit ants
Ġport able
ĠCre ate
Ġw itch
Ġquarterback s
Ġpist ol
Ù İ
F ore
al one
B as
ie ce
Ġunp opular
Ġwe ed
asc ript
Ġprotect s
Ġbl oc
Ġd orm
Ġillust rate
I ran
Ġalumin um
Ġb ru
ĠM ol
ĠI Q
op oulos
Ġbr on
Ġt ales
ĠâĢľ [
ĠS ie
il itation
Ġloc ate
Ġclass ification
n c
Ġconsist ed
Ġper ipher
ĠQ ur
ĠÂ Ń
Ġhon ored
l on
ĠMon th
Ġemb ark
ĠT ravis
Ġpay roll
ĠJ ama
ĠS B
ĠH ousing
Ġhom icide
Ġtreat s
Ġar rog
ĠS ri
d esc
Ġfact ion
Ġdelight ed
st ation
u ber
ere rs
Ġprem ature
im ity
Ġup s
Ġo we
Ġche ss
ĠEn forcement
Ġp iss
Ġres ent
Ġtrave lled
Ġblog ger
M ENT
Ġcrus hed
ĠGreat er
w ait
Ġconsum ing
P age
def ense
k ar
he y
ale z
add afi
Ġprotest ing
M ad
ir ies
ĠG or
Ġp estic
Ġadminist rator
Ġdiam eter
ĠK il
re ctions
ĠM ills
n ar
Ġhapp ily
Ġfert il
Ġlog s
p roduct
um ed
ĠMin i
Ġo w
ĠA F
ĠS outheast
ĠD olphins
Ġmet rics
Ġinv ention
Ġpost p
reg ular
Ġacadem y
ĠN ord
bro ok
Ġdec isive
Ġ __
Ġt ended
a que
ĠAmb assador
ĠS nyder
3 50
Ġart illery
Not hing
1 000
Ġprol ifer
o ir
Ġy oga
Ġover view
ob a
S N
ĠPr ison
Ġat omic
Ġsent encing
Ġâ Ī
cont ent
ĠN GO
ĠDar win
ĠOrig inal
Ġg ates
Ġuns upp
Ġpat ron
Ġinstrument al
ĠTer min
Tex as
Ġno ble
Ġsimilar ities
el ong
ell ed
Ġrecogn ise
Ġclin ics
ĠCath olics
ich t
Ġinc ap
Ġdetect ive
Ġu m
ibl ings
id y
Ġdri ed
road s
Cont act
ĠCase y
ĠS eth
ĠD erek
z el
an ed
ĠM ut
occ up
il ight
ke eping
ĠDel aware
Ġsl ammed
ĠF ace
Ġconstitu ents
Ġu b
ret ty
ĠT on
Ġliv est
ĠH ence
Ġdat as
s u
ĠV ent
ĠCan n
ĠSal v
Ġrest oration
el ines
ash a
Ġqu ot
gu ard
Ġprob ation
Ġupgr aded
ĠRichard son
_ w
Ġv ic
Ġcontem pl
Ġyield s
b ach
ĠGl as
ĠBre tt
Ġincl ined
ef e
Ġven ues
t ax
C re
it ous
Ġlad ies
ĠO ften
Ġprohib ition
And rew
Ġrif les
Ġd ude
Ġmark ing
Ġcomb o
Ġsp ying
Ġseek ers
ant om
met ic
Ġp ul
ĠLouis ville
Ġgen ome
Ġenthusi astic
Ġc ad
ĠL ate
Ġincons istent
ĠR ut
Ġmasc ul
ĠSc reen
AS S
ĠNich olas
Ġfart her
ourn ament
Ã ł
Ġshow c
Ġbreat he
ĠB O
ment al
olit ics
ĠWe bsite
Ġ196 2
Ġapp le
Ġsl ides
Ġappl aud
Ġve t
ĠHus sein
Ġinvestig ator
R yan
Ġfrag ile
Ġr ider
Ġmis er
Ġbi ased
ĠD j
ĠDise ase
am on
ĠW elsh
ĠGene va
W ould
Ġn odd
Ġexp ans
Ġthr ust
ĠHop kins
osh i
V is
Ġlic ence
ĠN okia
Ġpr iced
Re view
ll ah
Ġh ref
ch t
in ner
Ġremark ably
ĠNo ah
Ġhum ble
Ġcor rection
Ġl ion
ĠPar ks
ĠRepresent ative
iqu id
S cient
r ational
ĠMont gomery
Ġvari ants
ĠLoad ing
Ġadvis or
ĠMatthew s
Ġex cerpt
ns ic
Ġrecip ients
connect ed
C ome
Ġdep ressed
Ġsynt hetic
ĠK ap
Ġshel ves
og yn
Ġun related
lev ard
Ġspe ar
Ġweakness es
N ob
Ġbail out
Ġend angered
ĠS pl
ĠC rew
Ġt ires
Ġcon form
Ġcl ips
Ġcatast rophic
ĠE t
ĠNorth west
s ix
Ġtro phy
H ome
ĠHuff ington
ur bed
Ġtight ly
c amp
Ġjud ged
ĠLear n
ĠP ierre
id i
Ġc otton
ĠEll is
g on
Ġn ostal
s n
Ġnic he
ball s
ĠW rest
ĠG az
Ã© t
AR K
Ġr ip
Ġev olving
Ġo ath
m ph
Pro t
ĠLeaf s
ĠT rip
ĠC airo
Ġutil ize
ÃŃ a
uff le
Ġalleg es
Ġst aggering
os l
Ġcol ored
Ġgang s
Ġair ports
Ġp oured
Ġg ren
e ger
Ġup ward
_ P
Ġnurs es
T Y
Ġbre wing
Ġpract iced
asc ular
Ġmon itors
ĠA br
Ġsec urities
names e
it ially
Ġfor ty
Ġcooper ate
i Ã³n
ech an
he ster
Ġinterven e
Ġr iots
ĠVeter ans
e ous
ĠY u
ourn als
ĠEag le
Ġcoinc idence
is le
ĠV ideos
ik er
Ġcamp uses
l iv
Ġpros pective
Ġbook ed
Ġencrypt ed
Ġextensive ly
ĠV I
Ġrel iability
Ġun con
ĠAn onymous
Ġchap ters
" ).
and als
Ġimm un
Ġsl im
Ġhor r
v ance
ĠSur face
Ġdown s
Ġank le
ĠSt ories
Ġecho ed
amp ire
Ġmonit ored
oun ter
Ġinterf ere
Ġoptim ism
Ġrem inis
Ġprop osition
ĠCD C
Ġpredomin antly
b ling
M or
ĠK ids
ĠThanks giving
Ġflo ors
ĠMun ich
ans om
Ġwar ns
dep th
ut ton
F ile
m ax
} ,
ĠH appy
Ġang les
Ġsymp athy
ĠUS C
Ġsepar at
ĠIS BN
Ġtask ed
he arted
Ġm igrant
i ott
reat ing
Ġinsect s
Ġdefic its
ĠP ew
Sp ace
Ġgenet ically
ĠTun is
p ically
ĠB ach
ĠV a
Ġwell s
Ġwe ars
Ġre nown
Ġint oler
ĠA FL
Ġfore most
Ġenfor ced
Ġbound ary
Ġw ives
He alth
h aw
ĠV illa
b ane
Ġste ering
ĠGr ace
ĠACL U
w ent
Ġne arest
iat ric
ĠArn old
T otal
Ġpract ition
ĠSom alia
Ġfil ters
ĠVis ual
Ġwhistle bl
ĠA pr
Ġcoord ination
ĠPr ide
ot ics
Ġo st
Ġext inction
ĠJ ays
ĠHe brew
Ġinher ited
ĠD oc
r ays
ĠAg ent
Ġbre eding
d imensional
Ġnav ig
Ġver b
Ġpositive ly
il ers
ĠKurd s
ĠBudd hist
Ġcl iff
Ġcomb ining
ĠAs k
ĠB eth
Ġincl usive
Ä į
ĠAct ually
Ġg em
Ġs acks
Ġfor wards
ĠH ass
Ġpartic le
Ġsh ine
Ġfe ud
s an
in ers
ĠJ in
ĠFor bes
Ġscar ce
ir ation
Ġpri ests
Ġcul p
Ġassist ed
Ġreward ed
Ġd oses
st ated
Ġemer gence
p ose
ĠS ter
Ġhand ing
Ġatmosp heric
Ġdescript ions
ĠW ait
ĠGet ting
ĠTri ple
oy le
Ġt ense
que z
ĠP engu
ĠK ush
ĠSchool s
ĠReg ion
Ġobtain ing
Ġafore mentioned
ĠSw an
Ġsens ible
Ġinput s
Ġrelax ed
acer b
b ucks
ĠS r
Ġche f
ey ed
ĠWinn ipeg
ĠC amb
Ġkind a
Ġw oke
Ġe ld
ĠMem phis
q a
Ġg rief
Ġbureau cr
_ g
Ġbo asts
Ġins ufficient
b ast
om on
ĠFl a
ĠHend erson
Ġcaut ious
ann ers
Ġcommer ce
De velop
Ġimpro per
Ġcandid acy
T ext
Ġrespect s
Ġther mal
Ġdeb ts
ĠK enny
Ġillust rated
ĠCl int
ĠY am
Ġconv entions
Ġuncom mon
b us
Ġc oding
Ob ject
Ġdys function
Ġpersonal ities
Ġreal ities
Ġst airs
Ġslow ing
d est
Don nell
Ġlight weight
Ġbelong ed
Ġreal izing
ĠR alph
Ġz oom
Ġoverlook ed
ator ies
Ġupload ed
ĠL O
ĠE sp
Ġexp osing
ĠH A
ĠT X
het ical
Ġcycl ists
Ġnurs ing
display style
e i
Ġc ensus
Ġth rive
Ch ild
y outube
ig o
Ġadd ict
RE D
Ġintu itive
cons cious
Ġtest ify
ĠÎ ¼
g ay
Ġperform s
iet h
ĠCur ry
Ġautom ation
ĠU P
ĠF ixed
Ġadd itions
Ġpo ised
Ġunsupp orted
Ġquick er
ĠPy ongyang
Ġenjoy s
Ġtour s
Ġord inance
Ġcirc ulation
ĠBash ar
ek ing
Ġbo o
ĠBar nes
Ġoutrage ous
Ġpl um
Ġadm ire
itz er
Ġblank et
Aug ust
Ġener g
Ġc ripp
Ġd ip
Ġbas ics
Spe cial
Ġse ize
Ġtatt oo
b ank
Ġass erted
Europe an
ĠP HP
ĠP aper
ber ger
ĠAbd ul
ĠRe act
Ġ12 8
Ġorig inated
Ġagg rav
Ġt ags
ĠSt rike
Ġsubject ive
ĠN uclear
Ġpaint ings
ĠT ab
Ġred es
ĠVal ue
ĠPre vention
f illed
Ġ196 1
ĠT ak
ĠD ust
ĠStep han
Ġrecip ient
Ġje opard
R ad
Ġcas ino
Ġvibr ant
H C
Ġcomb inations
ĠW AR
ĠH off
Ġcoord inated
Ġwond ers
Ġgu ides
ĠSil va
{ "
ĠUn less
Ġno on
10 1
Ġrepe ating
200 6
Ġgr ades
ĠRe lease
Int erest
Bl ue
ĠWild life
Ġb od
Ġredu ctions
Ġawa iting
is co
Re illy
ĠReg ister
ĠK iev
ĠKle in
Ġ10 5
ĠSh akespeare
p ers
Ġb ent
Ġa in
ĠKas ich
Ġmonop oly
Ġfl own
Ġimm ers
Ġparticip ant
Ġeval uated
Ġliqu or
b as
Ġwh ales
Ġty r
g rown
ĠWord Press
ĠH ack
Ġl oot
Ġim aging
Ġvol t
Ġs way
ĠNor wegian
play ed
ĠC I
ĠTit ans
ĠB ark
Ġdeal er
ĠFal cons
Ġcl ues
Ġspr int
M ain
ĠAd rian
ĠC raw
ĠHold er
Ġhilar ious
Ġmention ing
Ġreflect ing
ĠMc N
Ġred irect
Ġtrad ers
ĠH ook
ile m
Wh atever
Ġtast es
Ġdetain ees
f inal
ĠEmer gency
ĠR ot
Ġabund ance
ĠE aster
ĠDod gers
ĠCom plete
Ġnever theless
ator ial
m el
Ġh obby
Ġsc iences
Ġbuy er
Ġmerch and
Ġsoul s
il ogy
ĠBudd h
Ġpick up
ĠBer g
ĠL um
c ock
ĠRand y
ĠSch ne
Ġwh ale
I ts
Ġan ten
an cer
.' '
OC K
ĠT ories
ĠM atch
ĠB ec
ĠU l
ĠJ unior
tit le
B rown
Ġc ared
up iter
Ġinher it
an throp
ĠNov a
Ġbot hered
Ġtriv ial
ir us
ĠR ules
ĠAl z
Ġform ats
ĠAt hens
ĠEm ily
ard i
Ġlit eral
ĠPear l
ĠAgricult ure
T est
ĠIsa ac
Ġopt ical
ĠGab riel
Ġdatab ases
Ġsl ogan
ĠBa iley
Ġfl uct
l anguage
ĠF aith
ĠCy ber
N O
Ġdist ances
Ġunder grad
S erv
Ġsam pling
Rich ard
Ġman ga
er ie
Ġc ivic
ec d
ĠT ottenham
Ġaston ishing
Ġdark er
Ġdemonst rating
ĠC ort
iz oph
Ġobs essed
Ġrece ipt
ine a
f a
un al
Ġhur ting
ĠMet ropolitan
Ġgr ams
cont in
Ġinadequ ate
Ġins isting
sh adow
ĠG oth
D ate
Ġexha usted
Ġwrit ings
Ġsun light
ruct ed
ID E
Ġemp athy
Ġunder water
ĠFerr ari
b illion
ĠTh rones
Ġfin est
Ġlobby ists
st airs
ĠR ust
Ġs iblings
Ġoverwhel med
Ġorgan isms
ach i
ĠJosh ua
ĠPere z
Ġu mb
Ġvast ly
ane y
Ġdiplom ats
Ġm a
Ġserv ants
ĠH ost
ĠJen kins
Ġe ternal
ĠE A
ĠE ye
Ġcou ch
ĠAustral ians
Ġtrans mit
os ion
Ġprotocol s
Ġbl u
Ġst agn
it ime
am ples
ĠEv an
Å ¡
ĠH ob
Ġl i
W elcome
Ġsm iled
ĠDep ression
ĠS ite
ĠEr n
S ources
Ġ0 6
Ġcon gest
ĠM UST
ov an
Ġpremium s
Ge orge
ad h
Ġassault s
Ġde portation
Ġpus hes
ĠK id
ĠSt uart
Ġex acerb
Ġmole cular
az or
ĠG ang
ep rint
Ġp unk
ent ry
Ġhorizont al
Ġen compass
gg y
A ir
Ġprox imity
Ġunderstand able
Ġmicro sc
Ġconj unction
ĠC ob
Ã¶ r
Ġcraft ed
Ġpay load
Ġsn ake
el o
ĠLe aders
dri ving
Ġspin ning
ĠA IDS
ĠHer oes
Ġdev il
ĠS gt
Ġbank ers
Ġproceed ed
Ġs i
Ġbarg aining
rop he
Ġcapt uring
Ġwork out
ĠT win
l it
ĠA j
Ġadv ise
Ġprim aries
st rom
Ġjew el
Ġg ases
Ġver ified
" ),
Ġinaug uration
ĠHe avy
F ar
Ġw olf
Ġ19 48
Ġmed ications
Q ue
es ar
h all
Ġen light
f air
Ġapolog ized
ĠProp het
_ M
â Ļ
am ount
Ġb ounce
M iss
Ġst aged
Ġshall ow
ĠT iger
Ġaccompany ing
Ġsec recy
ĠPro bably
a uth
Ġactiv ate
p ict
im edia
Current ly
Ġax is
Ġl ingu
ÂĢ Â
ĠD ylan
Ġsurf aces
ĠSt range
Ġimprison ed
ĠSach s
Ġinjust ice
Ġeleph ant
Ġpromot es
I ES
ĠJ ob
ĠS weet
Ġimpl ied
ĠViet namese
ĠKash mir
ĠP oke
Ġsuppl iers
ĠB our
Ġsus cept
ĠNot es
Pl us
Ġrebell ion
ĠP ub
se xual
p res
alk ing
ĠAp ollo
ĠB in
ag le
Ġun named
ĠF uk
Ġnational ism
S w
L ocal
Ġind ul
cl ock
Ġfiref ighters
m ake
ĠG ingrich
act iv
Ġstate wide
Ġalph a
izoph ren
Ġdisapp ro
ophob ic
Ġwho lly
Ġlo oph
EN D
Ġin ning
ĠAb du
F orm
d ist
Ġadminist ered
ĠR B
av ia
ĠHe aven
f amily
Ġtr ails
S ocial
Ġnot or
xt on
Ġpast or
Ġincom plete
Ġretail er
Ġgener ator
osa urs
od er
Ġdr astically
Ġtra it
Ġrele g
p ad
Ġj ar
Ġbe am
Ġcompl iment
Ġassum es
ĠEconom ics
Ġcomp ile
Ġshot gun
ise xual
eng ine
Ġen rolled
Ġb aking
le um
Ġsp am
Ġ **
W as
ĠSc ript
us p
Ġsl ots
ĠF ew
Ġcont ention
Ġpop ulated
ĠShe ll
D ear
Ġhur ts
Ġb rib
Ġf itted
ĠM ix
Ġhint s
ĠCro at
Ġpa ired
ĠRe x
Ġborrow ing
cy cl
Ġhighlight ing
sh ine
ou ble
rell a
Ġbat ting
Ġstab bed
ĠSh op
Ġnew com
att ack
Ġmet ro
ĠD ow
Ġto ggle
ĠMar ie
Ġvit amin
Ġp ets
Con clusion
Ġl enses
ĠA ur
Ġlot tery
Ġam ended
the ning
ĠInd y
Sand ers
Ġm es
Ġplaint iffs
Ġgra pp
ĠIns ider
Ġathe ist
Ġobject ions
Ġso y
Ġl amb
Ġcontest ed
ĠT PP
ĠIndust rial
Ġf lick
ĠN um
Ġcomed ian
Ġext ensions
Ġaffect ion
Ġd uck
ig el
amer a
Ġback ward
ĠFl int
Ġar row
ens itive
Ġphenomen a
AT H
Th us
Ġprob able
en es
Ġout line
Ġc ites
intend ent
Ġm asters
Ġpar a
author ized
ĠArab s
pro cess
W W
Ġpen is
t ake
ear th
h ouses
ĠE ug
Ġro pe
Ġrev is
Ġj aw
ĠCole man
Ġgorge ous
Ġsub urb
Ñ ĩ
Ġrespond s
os c
ĠIM F
Ġmot ive
ĠTH AT
ĠAsh ley
Ġtort ured
D isc
Ġb ang
Ġmain land
ĠL av
Ġun equ
Ġpass words
Ġinter ventions
Ġhelicop ters
Ġc ater
Ġadm itting
Ġg ently
ĠW ag
Ġanaly tics
ourge ois
ie ves
Ġself ish
Ġobs ession
Ġth y
ĠEll iott
Ġan them
Ġp ills
ĠH alo
Ġstand point
Ġpopul ist
Ġcontro llers
Ġemb ry
_ T
Ġcat aly
ĠApp eals
uss ions
Ġsum s
Ġun b
G C
Ġmat rix
rig er
Ġco h
L ine
c iously
ĠBur ke
s ic
k ov
Ġexplos ives
int egr
Ġware house
E s
ĠPat rol
ĠS ask
ch at
T T
g one
Ġterrit orial
Ġcast le
Ġhur ricane
in burgh
Ġun ified
ĠGl en
Ġconf isc
nd ra
ĠGT X
ĠP ul
iet al
L ove
ĠP or
Ġconcent rate
ot ine
Ġfig uring
et z
o at
ĠN am
Ġcol ours
h it
ins ki
ĠM our
ĠInd igenous
Sh ould
ci ation
Ġlog ged
us k
r ina
Ġens ures
Ġcry st
ĠC AN
other apy
S QL
Ġsyn chron
step s
Ġsymp athetic
Ġmin ors
Ġprot agonist
ĠOff icial
ĠB io
Ġt urt
Ġlog ging
Ġo wed
Ġprivile ged
ĠE arl
im er
re a
ĠJ os
ĠIn g
Ġval ley
it ational
Ġerupt ed
B erry
Ġcons oles
Col or
ĠN aval
ĠD ad
B ox
Ġse as
Ġide als
k it
ĠD rake
ĠTreat y
if a
Ġprosecut ed
Ġdes irable
ĠV irtual
Ġsurf aced
Ġpsychiat ric
ĠApp ro
Ġemphas ize
Ġsad ly
Ġan ecd
ĠSC P
Ġpl ots
AM Y
Ġs atur
ind ust
ĠQu arter
Ġwel coming
Ġrev ision
Ġfeed s
Ġad ul
ĠEm ma
ar ious
Sub scribe
ro e
ĠL anc
Ġ* /
Ġweek ends
Ġdef er
Ġstret ched
ĠU FO
ĠPel osi
Off icials
Ġmos qu
Ġcal culation
Ġsoph omore
Ġsand wich
igg ins
ĠN y
Ġdistingu ished
oint ed
ĠGo ing
ĠF ocus
R ub
ĠGu ild
U ser
ut ral
v id
Ġto pp
Ġconstit utes
osp here
Ġconf ined
Ġcan on
Ġintern ally
ĠRoberts on
Ġcorrid or
ĠP and
We b
ĠW alsh
Ġselect ing
ĠâĢ ĭ
Ġcorrect ed
Ġpool s
commun ications
Ġincomp et
S un
Ġen rich
Ġd ice
Ġgreet ed
ĠN RA
ump s
Ġinform al
200 5
ĠBapt ist
Ġsens ation
Ġat roc
Ġpartners hips
Ġhack er
Ġunder cover
ĠJ agu
ĠSim ply
Ġcool er
Ġreact ed
oc used
Ġprocess ors
Ġdefin itions
ut ic
Ġtraject ory
ib al
ĠOr d
ĠL anguage
_ R
p olitical
Ġhome owners
Ġgau ge
F ixed
are a
ĠW end
ĠKn ights
if le
Ġflood ed
os oph
R P
ou x
Ġcompl ications
ĠCh a
ract ed
Ġjump s
Ġvend or
s uper
ĠL opez
ĠV ersion
Ġass ure
ĠCirc le
O p
Ġcont ests
Ġmag net
Ġcur iosity
16 0
ĠCon cer
Ġfin ed
Ġconced ed
year s
i pper
ĠO mar
Ġpedest rian
ĠR idge
Ġup rising
Ġhom eland
\ /
In s
You ng
Ġo ceans
Ġball oon
Ġmax im
Ġla wn
ĠLl oyd
Ġcompe lled
Ġliber ation
Ġcommand ers
Ġprov oc
ĠE sc
U G
Ġsk ate
ĠD ale
stan bul
ĠM t
Ġprop osing
Ġcat alog
S al
Ġdeb ated
Ġmach inery
Ġpropri etary
pe ace
AR Y
Ġfair ness
Ġl od
ĠE L
Ġall ocated
ind uced
ook ie
Ġreck less
Ġsh irts
Ġg ru
Ġh ills
x on
ĠR ab
Th ink
ĠNS W
ĠT ol
0000 0000
Ġarm ies
ĠEth iop
Ġbuck et
ĠAdvent ure
ĠDub ai
ĠW A
ant on
ĠD iet
Ġcompr ised
ĠH od
Ġpres cribed
Ġhar ness
g mail
ĠSt ay
ĠGu ant
ĠHe ights
Ġsuccess es
ĠAlz heimer
ela ide
M ass
Ġunlaw ful
âĢĿ ),
S ix
Ġcolor ful
ĠN early
Ġpur ported
Ġdelic ate
Cl oud
ĠRe b
Ġsex y
Oct ober
Ġc ried
Ġwas hed
ri um
Ġvar ies
Ġsyn c
Ġstere otypes
Ġairpl ane
Ġcell ular
or p
Ġcho oses
ĠC ensus
ĠCon n
is ite
Ġc el
ĠWe instein
ĠTrans it
Ġnick name
Ġsl am
Ġemb od
ĠThe resa
ne ys
Ġsuff ers
Ġment or
Ġparadig m
Ä ±
Ġnot ifications
Ġprompt ly
Ġstory telling
ĠMar ines
ĠInn ov
Ġsing ular
ĠD at
Ġfemin ists
Ġqu eries
aw i
hed ral
az ar
7 50
aze era
ĠGreg ory
Ġambul ance
Ġdebut ed
Ġub iqu
Ġproject ion
ĠC F
Ġconnect s
ĠAlf red
Ġbe e
Ġ19 00
yl on
bu ilt
C BS
Ġbroadcast ing
Ġpl ural
Ġafter ward
do ors
is i
ish a
de ep
Ġrecru its
Ġstrateg ist
M arc
Ġten ants
ick er
Ġmor ally
in ian
Ġcompet itions
r ill
ĠF u
Ġvar ieties
ĠM ak
Res earchers
ĠEn c
Ġb og
Ġvis ibility
ĠSch umer
Ġparad ox
ĠC inem
ĠF ine
Ġpot atoes
respons ible
Ġth a
Ġtransm itted
t i
ĠFal con
Ġstun ned
Ġgri ev
Ġprest igious
l ain
hol m
Ġsen iors
Ġexem pl
ĠHar bor
Ġmethod ology
ĠN FC
r ab
Ġcl oth
ĠD uterte
Ġperce ive
ĠPolit ico
op ath
ĠU T
Ġmaneu ver
ĠH ood
Ġcomment ators
rist ol
Ġalarm ing
Add ed
sp an
Ġvoc als
arl ing
ĠS HA
Ġgl oves
Ġobst acle
Ġout reach
Ġmil estone
Ġmis dem
Ġeleg ant
Ġburg l
ic ans
Ġstruct ured
ĠL amb
ĠK ell
Ġco vert
Ġpit chers
Ġcolon ies
o qu
Ġg odd
Ġsystem ic
Ġunpredict able
af ort
c ision
f ood
ĠChampionship s
Î ±
With in
Ġfool ish
Ġha w
ans on
Ġweigh ing
Ġsw orn
ĠSol id
asp berry
Ġo ct
ustain able
V C
Ġhasht ag
he res
Ġmax imize
Ġyell ing
S aturday
Ġhost age
Ġ ì
Ġexclus ion
ĠLib yan
load ed
uk a
Ġver se
T L
Ġbless ing
Ġb acon
e ur
ĠPost ed
Ġinsure rs
Ġrenown ed
Ġhe ck
sec ret
Ġrom ance
Ġsm ok
Ġignor ant
Ġcr ush
ĠE M
ĠW el
c ue
Ġlo vers
be cca
Al ong
ĠR BI
ĠF ortunately
ĠOr acle
Ġconsider ations
Ġinterrupt ed
M ap
Ġimp ly
Ġteach ings
Ġimpro ves
Ġgar lic
ĠImp act
Ġrel ates
Ġl ining
ract ion
Ġhold er
Ġtime ly
Ġbrut ality
Ġunsuccess ful
iff e
man y
Ġmin us
Ġdest inations
Ġbarg ain
Ġprem ises
Ġhum ili
Ġinfer ior
ad os
Ġacceler ate
C ent
ĠBou levard
ĠCharg ers
ĠS ak
ĠM aterial
aun ting
Ġpreval ence
_ 2
Ġfin ishes
! ).
Ġbund le
Ġan nex
Ġe Bay
Ġvulner abilities
com mon
Ġcr ises
W rit
Ġincon ven
ri ents
Ġneighbour s
ov ak
Ġbr acket
Ġl ament
ĠC able
Ġdiscover ing
vert ising
uff s
Ġworks hop
Ġk its
at ivity
In c
Ġuniform s
Ġs ore
Ġp ixel
ĠC e
ĠB rent
Ġout law
ine ment
Ġmer ger
ĠWin ston
Ġ Ù
ĠB ever
M ORE
Ġexceed ed
ĠLear ning
Ġdown ward
ĠT roy
in v
Ġdiscuss es
Ġprivile ges
c ur
b ps
" [
Ġl ur
Ġexc av
iv ia
Ġembarrass ed
W ant
Ġphr ases
Ġball istic
ĠMor rison
Ġappet ite
ĠGonz alez
ĠGlas gow
ĠC ele
ĠBro ck
w ald
ĠLGBT Q
Ġelim ination
Ġst ew
Republic an
q l
Ġun m
f un
ĠF ear
is se
ĠSt age
Ġtoler ate
ĠJ upiter
se at
e pt
Ġunw anted
ĠM oto
Ġav iation
ĠT E
ĠV o
Ġgrad uation
ownt own
ĠBlu etooth
m and
Ġbrows ers
St op
IT E
Ġmar ched
it ives
ĠPar ad
Ġr ust
Ġ" [
m ajor
Ġcle arer
Ġtw isted
. (
ĠK on
Ġchampionship s
Ġenjoy able
ĠP le
Ġaccept s
az er
Ġper secution
Ġrecogn izing
ĠAven gers
em ption
Th ings
R un
Ġgun man
Ġa kin
Ġspecific s
Ġbl aming
Ġmis ogyn
Ġbed s
ri ad
Ġsol ic
Ġwrong doing
al iation
IC O
ĠThe ater
ĠN as
Ġresist ant
ĠT weet
red ited
b ird
ĠI van
ang led
Ġdis respect
Ġtyp ing
Ġappropri ately
Ġcon ceived
ĠGOOD MAN
ĠBe gin
ĠPri x
ĠAut om
ar ak
id av
Ġshut tle
ĠReyn olds
ld a
f ax
ĠTh om
Ġvac ant
ĠA verage
Ġ10 80
ĠX P
Ġl end
ĠF ighter
Ġvol can
ĠSpr int
ĠH app
ĠW ake
ĠSer b
ener gy
ĠU pper
Ġdis abilities
re ra
Ġric hest
Ġcul min
Sept ember
Ġdesp air
B ob
Ġextrem ism
ant a
com fort
Ġnomine es
Ġthought ful
Ġnotice able
Ġb ore
ag ne
ĠIns urance
Ġg ad
Ġded ication
Ġpip es
E p
Ġre per
ĠL ux
Ġ> >>
ĠE rik
Ġingred ient
ĠJ eb
ĠL ag
Ġright ly
d ogs
ĠFil ip
Ġcorner back
Ġthr one
oci ated
Ġperform ers
Ġadvoc ating
ĠD ana
Ġ1 11
Ġtw ent
âĢĿ ;
Ġprohib it
ĠSat urn
che m
Ġcondition ing
Ġtun nels
ric anes
ĠM ets
Ġfuel ed
ocaly pse
Ġex otic
ĠN ode
Ġp ap
Ġrep ay
Ġ} ,
Ġmeth ane
ĠM aps
O k
it an
Ġthe sis
st ud
Ġfr acking
Ġid iot
Ġsens es
ĠTurn bull
Ġcritic ize
Ġt in
Ġpr ag
Ġentire ty
Ġste alth
Ġnum er
Ġdetail ing
Ġpl asma
ĠTrans port
Ġdisplay ing
Ġl over
Ġa u
ĠL ogan
Ġwar rior
> </
Ġout field
Ġartif acts
an ity
b ard
Cong ress
ol ith
Jo in
ĠF a
Republic ans
ĠRep orts
ard on
C ourt
AN S
udd enly
ĠH ab
Ġun just
Ġrecogn izes
ĠScient ology
Ġan at
Ġkn ocking
ĠÂ «
ĠFre eman
Ġbar red
ĠAd vis
th ouse
Ġsing les
ĠBas ically
Ġloc ks
re view
Ġdis asters
achel or
G P
Ġprejud ice
Pro ject
A ut
Ġinflu x
U TC
gu ided
Ġhead set
ĠLeg ends
J ul
att ed
Ġadop ting
Ġmer its
Ġ ..
B B
d id
Q U
at ism
ian i
Ġmet adata
Ġacknowled ges
Ġfur ious
ĠP OL
R edd
nder ing
Ġmar athon
ex cept
Ġsur g
Ġstory line
ĠSadd am
ĠCont act
ion age
Ġtr aces
ĠPC s
Ġcort ex
n ull
14 0
in yl
Ġw ary
Ġrest art
Ġmer cy
Ġwip ed
fl ight
Ġp ixels
ĠEd inburgh
ic ularly
ĠSing le
Ġband width
ĠI gn
im en
ĠC rypt
vas ive
I X
Ġinaccur ate
ĠPers ian
or o
Ġinst itute
Ġdil ig
ĠU g
ĠN L
Ġ\ Ġ
Ġillust ration
Ġoff ences
Ġalt itude
isp here
Ġv ivid
ish ment
Ġman kind
ry s
ĠR S
__ _
sh irts
Ġatt ain
B ern
ic able
ĠStart ing
Ġoccup y
Ġpreval ent
ĠV el
Ġc ows
Ġprolong ed
Ġpun ct
Ġround ed
ci pl
Ġbl essed
ĠKn icks
Ġexem ption
Ġde er
Ġsett lers
Ġinaug ural
D am
Ġt il
ĠD h
ĠBurn s
Ġcoc onut
al ion
Ġfreedom s
Ġseason al
N or
H op
ĠMill enn
ĠT ap
with out
Ġsm arter
D an
Get ting
Ġwarr ants
ĠPr adesh
ĠSU V
Ġre dd
Ġcap ita
Ġp ave
Ġrefere e
Ġindu ced
ĠL ith
c ot
Ġb ourgeois
Ġmot ives
work ers
Ġunst able
ĠFR OM
Ġfact o
A round
Ġexped ition
ĠC el
ĠB uc
Ġcar pet
Ġaggreg ate
Ġprogram mes
ĠEmb assy
Ġer ad
Ġaccommod ation
b led
Ġc raz
red dit
Ġgl uc
Al most
Ġcomb ines
ĠR ange
Ġst yl
ram id
ĠFif th
ĠSt ef
ch anging
ĠFrank en
ĠSN P
ĠM ik
Pac ific
ĠSpe aking
Ġst ems
Ġab st
Ġf ist
Ġc ite
Ġgr ind
Ġlisten ers
ĠDev il
i u
Ġl ag
av in
Ġt apped
ĠT C
Ġ19 44
ĠC aval
Ġdiet ary
Ġdefe ating
Ġbenef ited
ĠAud io
Ġmir acle
viol ent
L ead
ĠR ift
Ġenthusi asts
M ult
ĠPer l
Ġprogram mers
Ġcoun cill
ĠHait i
n ings
Ġgr in
er m
Ġv est
L og
Ġrecomm ends
g em
he ed
Ġph osph
g rowing
Ġbureaucr acy
ĠW izards
atin um
Ġh over
200 4
Ġcriticism s
Ġsanct uary
ĠSh o
Ġrig orous
Ġhous ed
Ġcr ust
ĠA RE
Ġcon qu
Ġconcess ions
Ġdef ect
ĠI CE
Ġpaper work
Ġprost itution
ab we
p ark
Ġupd ating
Ġsymp ath
Ġbom ber
Ġstatist ically
Ġreb oot
ra f
Ġunf amiliar
Ġlength s
ĠB uch
ĠProgress ive
Ġpred ators
sequ ently
Ġsne ak
ren ched
Rec ently
ĠR hod
Ġru ined
H and
c ourse
op hers
! âĢĻ
ing ham
Ġun a
Ġdet rim
Ġchar itable
Ġhost ility
ĠStar bucks
Ġheav ier
Ġd ilem
ĠE isen
Ġdet on
Ġfor fe
L ive
ĠSch midt
O O
ĠS ales
ĠElect ronic
ĠI stanbul
ĠP it
Ġposition ing
Ġcoord inate
Ġphilos opher
imb abwe
O per
Ġme ga
ĠJul ia
Ġreb uilding
ĠL P
Ġden ounced
Ġter rific
V ery
ĠRoll ing
Th omas
Ġins ider
ĠEver ton
Ġacqu iring
Ġuns afe
ĠA A
int o
Ġst unt
ĠBas ic
ra ve
Ġter ribly
Ġpers pectives
U RE
ĠR uth
Ġthere after
Ġcrack ed
Ġsimpl icity
ĠC ork
Ġforb idden
in el
c ig
ĠSe oul
ĠGit Hub
spe aking
Ġsuper visor
Nob ody
k ara
ess ors
ĠPartners hip
Ġillust rates
ĠAng els
ĠTim othy
ĠH orse
ĠO kay
Ġreferen ced
Ġport al
ĠN J
ĠD ash
Ġj ournals
D aniel
ĠU nd
ĠWH O
Ġobject ion
ched el
Ġd y
Ġl aps
Ġoff ended
Ġinfringe ment
en berg
ixt y
ĠMor oc
ĠRom ania
Ġsh ade
Ġbig ot
An n
ĠOw en
ĠT ournament
ic ates
Ġanaly zing
F ind
Ġf usion
Ġsch izophren
Ġintrodu ces
Ġsoc io
Ġrequest ing
Ġantibiot ics
it as
Ġtr action
ĠSe bast
Ex per
re v
Ġj ungle
Ġident ifies
p al
ĠSu z
ĠCitiz en
Ġs perm
ins ky
Ġdiplom acy
rest rial
ev al
ĠSher man
% ).
Ġborrow ed
p aper
ĠSpace X
port ing
Ġintention al
Ġ20 30
ĠNot re
ĠPrinc eton
b usiness
ĠLe Bron
Ġsl og
Be yond
Ġcert ification
Ġskept icism
ĠL ed
ist ical
ĠE ST
Ġbro ker
Phot os
] ]
Ġaff idav
rat ives
ipp le
Add itionally
ount ain
Ġvol atile
ish ops
Ġfright ening
place ment
ĠVictor ian
Fr iday
ĠLind a
Ġunch anged
G I
ograph ics
C rit
Ġwh it
so ver
ĠMoh amed
ĠScient ists
ĠC ad
ters on
Ġton nes
Bel ow
ah ar
Ġwatch dog
Ġrec laim
lic t
Ġreg ain
Ġmult ip
ĠS ame
Ġfat igue
Ġdetect ives
ĠK ob
Ġend ured
Ġch ill
Ġshe lls
Ġbet ting
âĢ ²
ĠAl ways
i ov
ĠL ex
Ġorche st
Ġindic ators
ĠMa o
Ġso ap
Ġgr an
w ere
ĠPoke mon
o an
ĠAub urn
ĠC oc
Ġvis as
Ġterr ified
ĠExper ience
l ived
ĠR abb
Ġas c
Ġhealth ier
Ġfav ors
Sh ow
Ġv ine
Ġsuper b
Ġabsor bed
ĠJ ill
im ag
ĠR are
ĠN ak
ĠAust rian
Ġvir uses
ĠCourt esy
Ġcooper ative
ĠBet a
v ity
ĠP os
fund ing
Ġsh red
Ġclean er
Ġrestrict ion
ĠC ities
oles ter
ent e
Ġar che
keep ers
ind a
ight y
br and
P T
Ġcirc ular
Ġlower ing
ĠMurd och
Ġrec ons
ĠP ist
Ġmir rors
C amp
ĠK umar
ĠV ince
in qu
Ġche ating
Ġcap ac
itness es
ĠIS IL
Ġinterrog ation
Ġbron ze
f act
For ce
ĠS tern
ĠDec l
ĠChe v
Ġsh aping
ĠL iter
Ġv intage
Pr int
Ġf ren
ĠLet ter
in arily
Ġ19 41
ĠAbdu llah
Ġback yard
E lect
ĠG L
Ġsubmar ine
b ial
oy s
ĠG y
Ġunus ually
Ġpe cul
Ġref riger
Ġaccess ories
cast ing
Ġph ases
Ġexclud e
Ġnort heast
spons ored
est ine
ĠCl are
ĠD ani
ĠBr is
ick y
M ex
Ġunder going
Ġtack ling
Ġund is
Ġfree zing
Ġemail ed
Ġnational s
Ġcell phone
Ġg le
Ġtake over
Ġhorm one
or ie
gg ie
Ġend uring
et ed
om ical
Ġdevast ated
Ġpl at
ĠDay ton
Ġun real
Ġsub po
Ġ11 5
Ġsquee ze
l ance
Ġtro op
Ġfilm maker
ĠPerson al
ĠRich ards
Ġbe ard
ĠPl ant
ĠA V
ĠM iles
Ġmin eral
af ia
Ġ17 0
ĠSask at
Ġgoal keeper
ng th
Ġbrand ed
ire ction
Ġce ment
Ġadvoc ated
Ġstr ains
D en
ĠN ice
Ġcy l
Ġcommunic ating
Ġbeaut ifully
ill es
ress es
ices ter
OU T
ĠAnn ual
Ġ- --
Ġinv iting
US E
Ġpsych ologist
h n
on so
ond o
Ġproud ly
ĠJul ie
ĠR ugby
Ġpos ing
ĠFried man
Ġaut op
ĠE N
Ġint ric
Ġtour ing
Ġn avy
Ġgovern ors
ĠCelt ics
m iss
Ġref ined
Ġalleg ation
u ador
act ed
Ġenter prises
ĠHy per
Ġback drop
ern ame
Ġdo i
D ev
Ġhy ster
Ġswit ches
Ġmodel ing
Ġhapp ier
p c
Ġmet als
ĠNY PD
ĠM ig
Ġcourt room
ĠSim mons
et c
Ġb ast
pt ive
ins pired
Ġimper ative
Ġun rel
Ġmark er
Ġsc aling
gg er
\ -
ĠCore y
Ġinterf aces
Ġsn apped
Ġannounce ments
Ġins ulin
ĠSp art
Ġrespons ive
Ġhand c
Ġdeter mines
ĠEvery body
F in
h l
rim ination
ed in
Ġarch ives
Ġst ip
Ġstretch ing
Ġbal ancing
ink le
Ġexp on
Ġcontam ination
o ids
ĠE instein
Im agine
ĠEl ite
ĠMe yer
Ġpal m
Ġreiter ated
it us
Ġh orn
oss ibly
Ġret aliation
Ġ} );
ĠC raft
IN T
Ġrival ry
Ġa rose
Ġundert aken
Ġd od
Ġdevelop s
av ior
am el
Ġrecept or
Ġp ulse
Ġwa ist
Ġs oda
ign ment
Ġ24 0
in atory
Ġdepend ence
Ġl av
ĠDO J
J S
Ġ19 47
Ġar senal
ot ers
Ġcha otic
conf ig
Ġf ost
ĠB urg
anc ers
atter y
s ided
ĠHaw ks
ur st
ĠH arm
ie u
Ġtravel ers
Ġinf ants
Ġst ellar
Ġengine ered
ĠM az
Mc C
Ġmerchand ise
Ġhard core
Ġauthent ication
Brit ish
Ġattract ing
19 90
Ġshort s
Ġobser ving
Ġimp air
Ġconfir ming
ĠBah rain
Ġdece ased
ĠC atherine
Ġgall ons
ĠON E
Ġje ans
Ġcritic izing
Ġagree ing
Ġcompens ate
T urn
Ġwas hing
Ġpredict ing
Ġappar atus
com plete
Ġrev ival
m g
sh ould
Ġspecial ists
Ġinnov ations
Ġth under
Ġanticip ate
s um
Ġvis ually
ĠPan ama
Ġwor s
Ġposs essed
pect or
Ġp ine
Ġre ef
pr im
ick ers
Ġele ven
Ġl aughter
ĠH i
Ġdeleg ate
ĠTill erson
Ġey eb
Ġfl ame
Ġopio id
ĠD S
ĠWalk ing
Ġrest ing
Ġpen al
d et
ĠUlt imately
pl ates
ĠL ay
Ġcore s
im ental
ĠD ot
Ġdistract ion
Ġw ipe
ax ies
Ġpot ato
ĠGil bert
Ġbroadc aster
Ġwar mer
Ġstar red
Ġp and
) -
ĠV ision
bl ood
Ġclear ance
Ġaut umn
ĠMap le
ump ing
ĠVal ve
Ġkidn apped
" ]
Ġwar riors
Ġpri zes
Ġep it
mod ern
y ers
Ġs idelines
Ġburn s
ĠSc ore
Ġreg imes
Ġdump ed
ĠJ azz
Ġ( .
Ġur gency
ster dam
Ġdom ains
Ġec ological
m ass
ĠGr ad
c in
_ I
Ġend ure
t ag
ĠCent ers
ĠCo ver
bal ance
Ġhypot hes
ĠExpl orer
Ġconcept ion
ĠUs ers
Other s
C ode
p rodu
ĠMan afort
Ġnegative ly
p atch
Ġt ant
ount y
Ġcontract ed
duct ed
W il
Ã ª
Ġo live
10 5
Ġvisit or
p i
Ġcapt ures
Add itional
ĠR apt
Ġtheir s
Ġselect ive
Ġradio active
Ġdub ious
Ġb ilateral
ia o
Ġbl ows
ĠBrend an
ĠC lear
ĠH erman
Ġpr inter
Ġreact ors
et itive
Ġro de
ĠProdu ction
ĠGr ass
ĠHay es
Ġcateg or
Ġnodd ed
Ġrad ically
Ġvan illa
Ġrep airs
ĠPen insula
Ġseiz ure
ĠT W
ĠO t
Ġinst ability
ĠB ee
Ġdepend ency
ĠDam age
Ġunbeliev able
Ġsever ity
ĠH ogan
ĠMerc ury
Ġvolunt arily
Ġexplos ions
Ġastronaut s
ĠCraw ford
if ted
Ġshel ters
mo il
er k
let te
ort ium
Ġbull shit
Ġcontam inated
oster one
Ġscreens hot
Ġm arsh
Ġlog in
Ġpe an
b uster
ĠDet ails
ĠR iley
Ġgood ness
Ġill icit
Ġs ights
squ are
av an
ĠLeg acy
P ict
t z
we ather
ien cies
m itt
We ek
Ġprogram mer
ĠC ards
Ġacc use
Ġque er
Ġlone ly
Ġobser ver
abl ished
le ys
Ġassess ments
ĠEmir ates
verse ly
Ġcrypt o
amm ad
Ġsubsid iary
Ġside walk
ĠCris is
Ġcontent ious
fol k
Ġst al
ĠB ristol
C T
Ġcr unch
Pl an
f ig
ĠCom ment
Up on
Ġr im
ĠPl aza
Ġpal ace
hy d
ĠCon way
Ġthe rape
Ġstret ches
Ġd well
ĠâĨ Ĵ
Ġh ollow
Ġpath way
pl aced
w ave
in ters
Ġb isexual
ans ing
Ġprop he
ac s
Ġdisadvant age
Ġdem ise
ĠT i
K im
Ġpour ing
E ric
ĠH ernandez
Ġrob otic
Ġshut ting
s il
cent er
he e
Ġhun ter
Ch ief
OW N
ed u
ff iti
Ġdirect ive
ĠSp icer
More over
ĠS hip
ill on
AN K
ĠSch ultz
Ġaw aken
Ġfre ak
Ġrig id
Ġj ealous
Ġrese mble
ĠSim ple
ĠBru ins
L L
ĠG ross
Ġcompet ent
Ġtransl ates
Ġempir ical
um i
Ġredu nd
Ġru ins
K evin
ĠHon or
Ġd iving
ĠVi enna
p arents
Ġcook ie
Ġmetaph or
Ġwithd rew
Ġsell er
Ġsurpr ises
g ro
Ġre he
ĠLe o
Ġren amed
Le ague
ĠVe h
health y
Ġf og
Ġ ï¿½
Ġchar ities
Ġto e
ĠFr ame
Ġcost ing
ĠAndre a
Redd it
Ġr anged
ĠRe play
Ġs ack
g ie
Ġex terior
ĠR oute
ĠSh ane
ple asant
Ġlau nd
Ġrelent less
Ġple as
I B
p arent
ĠBl izzard
Ġineff ective
Ġv om
ĠSu ccess
N ovember
ott esville
ĠJed i
us ers
Ġins erted
OL L
bl ue
Ġb end
Ġdo omed
Wind ows
ar ium
P ay
Ġâ ī
ĠBren nan
Ġd ull
Ġtr aced
elect ed
Ġdig its
ay an
Ġreminis cent
all ah
ĠAP Is
Ġrem ed
20 18
ĠInvest ment
ĠP E
l at
Ġchar m
ĠF lickr
ore st
200 1
ĠInvest igation
ĠAd elaide
ĠT B
Ġle aking
Ġown ing
Ġpar an
c led
Ġpo pped
ĠReg ardless
m or
Ġpres ervation
Ġacceler ated
ĠChe ney
Ġmod ifications
Ġinto x
Ã ¸
200 3
ĠResp ons
Ġbr ig
ĠP ain
Ġall ocation
Ġle mon
Ġret ros
H i
Ġher b
Ġviol ates
John son
N OT
ĠF F
Ġjuven ile
ĠW u
Ġdict ator
Ġrepl icate
Ġdownload s
ĠG ir
ĠÐ ¸
Ġf ra
Ġp ensions
ĠC rist
Ġpres erving
Ġdepend encies
Ġnot ices
Ġreward ing
ĠT M
Ġcont end
abul ary
ĠS end
! '
\ "
Ġa ven
Ġmerch ants
Ġpig s
land er
Ġfeas ible
Ġappoint ments
C arl
ĠFood s
K en
Ġpen cil
Ġacceler ation
Bit coin
or ian
P ublished
Ġrad ius
Ġs rc
C ON
rah im
Ġtw ins
Ġm asks
ĠB ert
Ġout dated
Ġatt achment
Ġlaugh s
Ġye ast
ant ry
ĠWeb b
ĠBeh ind
B esides
Ġprosec ute
Res p
ĠL ance
Ġup held
Ġsp ouse
Ġr apper
Ġdiscont in
Ġposs essions
ĠObserv atory
Ġl ou
Ġpo inter
De cember
as is
,âĢĻ âĢĿ
ĠD ell
rec ord
ĠS oph
Am azon
ĠS aw
ĠF S
Ġde af
ident ally
ĠE gg
ĠÃ ®
Ġv andal
Ġ195 9
ĠJud iciary
Ġiron ic
Y ear
Ġn urt
at ured
Ġup wards
Ġat oms
ĠKush ner
Ġenroll ment
ĠPir ates
R ock
oun ge
Ġnegoti ation
w ife
Ch inese
Ġveget able
Ġembr acing
M el
ĠT rent
ĠC opy
ĠP TS
IS A
ĠT aking
Ġcont ributes
Ġtrain er
ĠF act
Ġfert ility
Ġprim itive
Ġtoss ed
Ġspir al
Ġres olutions
Ġneed le
ĠAr row
ĠBr anch
Ġmicro phone
Ġfest ivals
H uman
ĠBeat les
S ave
Ġbomb ings
ĠE lementary
ĠTh an
Ġoper a
Ġdwar f
_ B
Ġha iled
Ġle aning
Ġcongress man
Ġshr ink
w ic
H as
Ġshoot s
Ġhun ters
any on
Ġte asp
Ġv apor
Ġdis se
in ational
Ġcop ied
Ġin ad
12 3
Ġcost umes
ĠSpe cifically
Ġ10 2
Ġal lev
Ġall ied
ĠR F
Ġv inyl
Ġforecast s
Ġre jo
Ġwithd rawn
Ġint ro
be h
Ġmod ification
Ġ18 00
Ġiter ation
op ed
m ails
Ġmechan ic
ĠZ ucker
Ġt am
Ġmyth s
Ġstamp s
m age
Ġmer ge
ĠConserv ation
ĠDev ils
Ġdimin ished
Ad am
S omething
E nt
ĠVol ume
Ġhop eless
ĠDis covery
Ġdiscover ies
Ġdisappear ance
) ?
omed ay
Val ue
ĠMan uel
Ġinspect or
,âĢĻ âĢĻ
ĠS kin
Ġt ally
Ġper tain
aw ays
Ġs om
ĠCom edy
Ġanticip ation
S ar
Ġch uck
Ġaccess ing
Ġvolt age
a ft
Ġp ier
Ġuns ure
Ġ& &
Ġcos mic
Ġsmooth ly
h ops
^ {
ee red
B uild
Ġch amp
Ġdoub les
ĠProf essional
Ġv ault
Ġout spoken
I AL
Bet ween
ĠB orn
Ġtur moil
iv able
ĠRock ets
T ech
ĠMe et
Ġr uth
R ay
Ġsal ad
Ġgif ted
Ġd un
w en
Ġg aze
Ġmamm als
ĠA be
ĠSter ling
Ġmy riad
Ġfr amed
Ġ10 4
ĠK iss
Ġe man
Ġfore front
ĠB un
Ġathe ists
Ġoccur rence
Ġalleg ing
ven ant
Ġairst rikes
Ġap ost
Ġpod ium
ĠMir ror
Ġoffs pring
Ġm s
Ġextract ed
ĠZ imbabwe
Ġvalid ity
ĠTw enty
Ġinter val
Ġfore nsic
Ġmilit ias
Ġl b
Ġsex ist
Ġadequ ately
ĠWhats App
Ġt outed
ile aks
ĠUs ually
le aning
larg est
ĠSouth west
ĠNational s
Ġnar ratives
st atic
ĠAl ien
Ġtrig gers
Ġcompat ibility
f alls
ĠAd obe
ĠGe off
c ould
Ġcelebr ations
ĠMount ains
Ġna ive
Ġdead l
ĠMon ica
OR Y
Ġneuro log
Ġintr ins
ĠD uty
J ones
Ġcan cell
Ġjud ging
Ġper ceptions
Ġstim ulation
or f
r h
ĠTro phy
H ard
I ll
Ġr ansom
ĠBeng als
ĠQual ity
Ġground ed
ĠM ead
ĠAct ive
own s
ĠMem ory
Ġche ek
Ġcr ashing
c ified
ĠC ord
Ġimm ort
Ġext rad
ĠSim ilar
Ġpret ending
ĠRec ently
Ġelev ator
Ġcreep y
sec ure
ĠF M
isc her
Ġsle pt
E ver
Ġexch anged
Dem ocrats
Ġw ires
ĠCle arly
ĠJo in
Ġaster oid
f ired
Ġnarrow ly
Ġadoles c
em a
Ġun ite
B Y
Ġcollabor ative
Ġmark ers
ĠB irth
ok a
ĠTr ack
Ġsuccess ion
Ġwholes ale
ĠFl ag
Semit ism
Ġo lig
( $
Ġstreng thening
ĠAl ger
ari at
ĠG ul
ĠTer rit
18 0
ĠN an
Ġjust ices
ĠB oss
Ġe cc
bor o
S und
ĠEx cept
Ġclean ed
ĠBald win
Ġacknowled ging
Ġbol ster
ucc i
Ġplace bo
Ġun armed
Ult imately
ĠD LC
Ġnorth west
ustom ed
Ġtop s
Ġrad i
H R
part isan
iss an
Ġretrie ve
he id
os er
f alse
Ġemploy s
in vest
C raft
Islam ic
Ġor ph
ĠLeban ese
ĠKenn eth
Ġsuper vision
over ty
ĠScient ific
ĠCon c
ĠH ond
our ing
Ġsustain ability
ĠG rowth
Ġind oor
ent ric
ĠSy n
ĠB ass
Ġ19 39
J ew
ĠP ars
Ġe ject
Ġperfect ion
ate l
ĠBudd ha
Ġcomp ares
Ġdom ination
ĠSky pe
Ġcur se
Ġrefres hing
Ġspe cially
Ġnut rients
L ou
Ġmeaning less
Supp ort
Through out
Ġind o
Ġdepth s
Ġash amed
is ure
Ġevac uated
ĠCom ing
Ġrel iance
Ġlun ar
ac a
Ġcan s
Ġb idding
Ġdec ay
Ġdisg usting
V ict
Ġdis charge
Ġhypot hetical
Ġpredict s
ĠFl oyd
ev ent
ĠCurt is
D O
Ġh alls
ĠTr ain
ĠCoff ee
Ġ 000
AC A
F inal
Ġdecentral ized
ĠMon te
ĠBeng al
l ied
Ġoverl ap
Ġsuper st
Ġhonest y
Ġsect arian
f ight
Ġvers atile
Ġblast ed
Ġdefe ats
Ġleft ist
ĠJ et
ors che
read ing
Ġsc andals
ĠA part
m itted
Ġresearch ing
Ġperpet rators
ĠMy ster
List en
Ġpo orest
Ġbe aches
an ol
Ġsusp end
Ġho ax
_ 0
Ġregul ator
l ings
Ġfrequ encies
Ġgrant ing
Ġexp ired
ĠB TC
ĠN ike
Ġ4 50
ĠMons anto
Ġr ack
Ġso ber
ĠKurd istan
am ic
Ġde ported
Ġconcept ual
ĠBuzz Feed
ĠJackson ville
Ġw it
Ġfut ures
Ġanarch ist
ĠC ros
Ġnight club
Ġfirm ware
ĠYOU R
k owski
Ġpr ince
P o
Ġâ Ķ
ors i
els en
W ow
ĠP v
ĠZimmer man
Ġgovern ed
Ġparent al
Ġlo oming
ĠRe ce
A BC
p sy
ĠZ oo
ess a
Ġsign aling
G H
Ġtang ible
Ġrele vance
ĠJ SON
Ġpast e
ĠEv olution
Ġk in
ĠAn cient
Ġf rog
b ands
ĠTechn ologies
Ġramp ant
c ro
Ġturn over
Ġ2 20
Ġdecl ines
ĠE lder
ot on
Ġeval uating
ĠK oh
ĠÂ ·
Ġlivest ock
Ġcruel ty
Ġrecy cling
. ;
ĠF resh
Ġun cover
ĠR ew
M aking
d oes
he ard
Ġjudge ment
ĠAbb as
Ġextract ion
ve red
ĠCh oice
Ġsp ine
Ġbit coins
Ġembarrass ment
ĠL ud
ĠBris bane
En ter
Ġaccum ulated
ĠF ernand
ĠMcC l
B P
ĠAny thing
Ġrelie ved
Ġto dd
Ġbi ography
Ġfalse ly
ĠCamb od
Ġst ing
Ġfilm makers
Ġcorrespond ence
ul atory
ĠEc uador
Ġid ol
Ġstake holders
ĠCh arter
r ice
Ġrep s
Ġtax ation
ĠHel en
ĠT L
Ġgl orious
Yes terday
ant ine
ĠO val
Ġfrag ments
Ġunder went
ĠBlack Berry
ĠCan ucks
Ġsex ism
ĠMid west
ush i
Ġair lines
Ġreinfor ced
Ġwe ights
Ġreal ization
Ġyell ed
Ġstat istic
ĠRes ults
Ġdistract ed
Ġw anna
Ġdiplom at
Ġhook ed
is ans
Ġre print
Ġpart ition
t arians
ĠEv ents
ĠViol ence
Ġer r
Ġsuper market
Ġresemb les
Jan uary
oust ic
IS S
Un iversity
Ġanal ogy
ĠLe ad
ĠCan on
W estern
b ag
ĠUlt ra
ĠV P
Ġbr ass
ĠCr us
Ġconstitu ency
Ġsound ing
Ġstuff ed
Ġdivor ced
Ġthe ology
L ess
ud s
ĠUp dated
ĠIr ving
L ittle
Ġbom bers
Ġsh iny
Pr ime
Ġout raged
Se ason
F rench
ĠC ertainly
ĠHe ath
ĠJud a
Ġj oked
Ġindirect ly
Ġnom inations
secut ors
Ġbur ial
\ \
N ick
Ġtr ilogy
ĠK ot
ĠIS Ps
Ġcl o
Ġg room
Ġg it
Ġdest abil
Ġfundra iser
Ġd os
Ġbu ys
Ġmem br
Ġgl oss
ĠInd ividual
ĠCharl ottesville
Ġs outheast
ĠSalv ador
are ndra
ass is
M ur
ĠB T
,' "
ĠB ened
C redit
c ulture
Ġs ung
Ġheight ened
Ġoverth row
ac ial
reg or
ĠPlan ning
Ġillness es
ĠIn qu
ĠAnd ers
Ġdr ums
Ġfraud ulent
Ġkidn apping
Ġsell ers
I Z
it ating
Sub ject
Ġutil ized
D ig
h agen
Ġbelie vers
Ġ19 42
J osh
Ġcomp uls
ĠPer fect
r ance
Ġgoal t
En large
Ġcho pped
Ġindef initely
Ġreconst ruction
ĠLa unch
ĠSh ot
AT A
Ġsuscept ible
Ġac ids
rav ity
vention al
ĠDar ren
g age
Ġir rational
Ġmel ting
Ġgl ow
ul ed
ĠF ans
Ġcur tain
ĠJ ur
Ġsurround ings
Ġcease fire
Further more
Ġmiser able
Ġt apes
id able
Ġlike wise
be fore
P rior
Ġst acked
Ġmiss es
Ġur ine
Ġh ats
ÑĤ Ð¾
Top ics
Ġpop e
ĠN est
st ad
Le vel
W R
em ade
board ing
art en
ĠM int
Ġcatast rophe
Scient ists
met ry
V ol
Ġpro claim
Ġobs ess
s cient
Ġst oring
Ġunique ly
Ġremark ed
Ġe ch
the med
Ġlapt ops
ĠB le
ĠE asy
ob ic
ĠAR M
t v
ĠAng ular
ĠB row
t imes
ĠT ier
a unch
Ġcouncil s
ĠRh ode
Ġ\ (
rict ed
Ġhe ights
Ġinqu iries
Ġf aint
Ġspat ial
Ġrec urring
Ġchar ism
Ġex ile
Ġcomment ator
Ġ195 8
Ġcom r
Ġs ang
ĠMot ion
st y
c ry
ĠGen esis
Ġsur geon
ĠJ azeera
Ġshr inking
olester ol
Ġende av
m atch
Ġsuper natural
st ru
Ġun pleasant
Ġdis like
ĠDes ert
ĠO g
Ġcr acks
ĠH ag
ĠD ucks
ph oto
right s
Ù Ĩ
ĠJohn s
Ġtub es
ĠOr b
Ġj ugg
Ġp ent
ĠS ig
ring ton
ĠProtest ant
ol ia
Ġdest ined
Ġlif elong
ĠSchne ider
w s
Ġoper atives
ĠLike wise
fr ac
r l
Th ird
ĠG ri
Ġdisagree ment
lud es
ee le
Ġdifferent ial
Ġauthor ization
Ġdisp ers
ĠEx xon
ĠAd mir
Ġelig ibility
Ġvalid ation
Ġgal axies
OS S
F ederal
Ġwith hold
ĠB il
Ġoff ender
re z
Ġcont enders
lant ic
Ġovert urned
ĠL il
arr ison
ĠG iant
Feb ruary
ĠB og
ĠIll ust
Ġphotograp hed
Ġmit igate
ĠWy oming
ĠKind le
Ġreg ression
ret urn
Ġg y
ĠC anyon
ĠK em
Ġunc ont
L in
e ight
ĠIm port
Ġmad ness
Ġpund its
ig ators
Ġdesign ation
ĠBl ade
w ire
ush ima
Ġsurviv or
200 2
ĠN ate
ĠCh in
Ġweaken ed
g ae
âĢ¦ ]
Ġ195 6
ĠCustom s
ĠAm sterdam
ĠS V
ĠD owntown
C ustom
d in
Ġb unk
pl aces
od s
Ġintermedi ate
Ġsc oop
um bs
Ġprop onents
qu arter
Ġch ambers
Ġmilit ar
count ry
r t
Ġrev olt
ĠFort une
c am
Ġsh arks
ĠLi u
ĠAr s
Ġhon ors
Ġded uct
ĠDav ies
ĠGall up
Ġhint ed
Ġb ounds
Ġinter ceptions
Ġsl ap
ir teen
ĠPart icip
Ġpun ched
ĠBar rett
a verage
Ġprepar ations
M a
import ant
Ġheter osexual
ĠH ugh
ĠDian e
Ġgr abbing
ĠF REE
ĠTre vor
ul ators
ĠBre aking
im ation
ĠEconom y
Ġpl ague
Ġhero ic
Ġconver ting
ĠB erry
Ġcan vas
Ġsab ot
ĠN ear
C y
ĠSh ia
L ee
qual ified
uff er
ĠRhod es
ĠM illion
ĠRest aur
Ġworth while
ĠQuest ion
Ġunp aid
en ment
Ġrehab ilitation
Ġan th
ood y
Ġhel pless
ĠPan el
ĠThrough out
gl ass
ĠProv ince
ĠCl iff
id ate
ett i
Ġfair y
Ġto mb
ĠC E
Ġcompos er
pro ject
ĠE ston
Ġcrus hing
Ġclos et
em y
ott est
Ġsh am
Ġt enth
Ġch lor
Ġdiscipl inary
Ġre op
W in
Cons ider
Ġon set
Ġfranch ises
Ġpo orer
Ch icago
Ġrum or
Ġw olves
S orry
Ġforg ive
Ġspec ulate
Ġlung s
it ures
Ġun authorized
ĠPir ate
Ġ10 3
ot le
Ġlaw maker
Ġmar vel
Ġdraw ings
ĠBay ern
Ġconting ent
te chn
ang ular
ific ent
Ġreject ing
ĠP ierce
Ġab normal
omet ric
ĠAm anda
ĠT ah
ĠAdd itional
v ideo
per ing
ĠKit chen
d ue
C ard
Ġprint s
Ġpedest rians
ba um
Ġaspir ations
ĠV ers
in as
pir acy
PD F
ĠNort heast
ĠW orth
Ġsc outing
Ġsu ing
Ġad vertisements
ern ick
ĠColon el
Ġd ess
Ġkid ney
A ri
pl er
Ġret ention
ro ot
st ill
Ġex h
Ġedit ions
Ġabund ant
Ġland sc
Ġgluc ose
ĠMy ers
Ġzomb ies
ĠIntern al
Ġfore see
B rian
Ġsm oked
ĠD iff
Ġinfant ry
Ġg ays
ump ed
em er
Ġmin erals
Donald Trump
Ġ Ã©
ĠÂ §
D eb
c ule
ĠF X
ra red
ic idal
h ig
Ġinstall ment
ĠBr itt
art z
Ġsuprem acy
c ross
l ia
ĠC oy
Ġcl one
Ġfall out
Ġreconc iliation
ol ation
ave z
Ġreb ound
Ġdi agram
Ġl bs
ĠS hen
G roup
Ġw inger
ĠO L
ub a
Ġcoll ar
Ġspl ash
m n
Ġver ification
h h
ris y
Ġtel escope
ĠRe becca
Ġalign ment
com b
ĠGu inea
Ġchance llor
Ġtelev ised
ĠHass an
c ity
re ne
Ġplay ground
ĠH aven
ĠG ur
iv o
Ġv oy
Ġco erc
Mart in
affe ine
ĠV ita
D ue
d oc
Ġeffic acy
Ġco herent
Ġ195 4
- $
C ast
Ġcomp ilation
Ġz oo
C ould
ĠC er
ĠStand ing
qu et
f ill
R ather
Ġdraft ing
Ġexc uses
H am
B rad
Ġro gue
Ġmortg ages
Ġsupp ression
ĠM ega
og ene
Ġimag in
O ld
Ġcl usters
ĠM ate
ĠL akes
Ġorganiz er
Ġt sun
Ġsm ashed
ĠE R
Ġsouth west
ĠR SS
!! !!
Ġcock tail
Israel i
Ġres h
Ġs aga
Ġst umbled
iv ism
Ġblu eprint
Ġstri ve
ĠM oy
ĠP am
ĠR ating
ĠF ell
ĠD B
ĠD ance
Ġapp les
ĠAt las
ĠTest ament
Ġplag ued
Ġdictators hip
Ġsuper star
v able
Ġdisag reed
ĠM oses
ĠP ra
c oll
ass ed
Ġcirc ulated
Ġcountry side
Ġmon arch
L ondon
Ġsc out
Ġunanim ously
Ġpro claimed
ex pl
Ġch orus
Ġunders c
Ġumb rella
ĠP rest
Ġaccus ation
ĠD iaz
Ġgl uten
ĠCoun sel
Ġfant as
th y
ĠÐ ¾
ĠP ine
ĠGu jar
Ġmer ged
ĠW ine
Ġpecul iar
ĠCom plex
Ġmanip ulated
Ġdis able
R om
ĠLe icester
Ġdismiss al
Ġpersu aded
al ong
Ġroll er
Ġaccomplish ments
Ġstaff er
ĠRock y
H y
osp ace
ĠPrem ium
Ġrecept ors
Ġt iles
Ġprohib its
Ġaffidav it
Ġmult inational
umn i
f ocused
t ier
ĠV as
On line
Ġs omeday
ĠIs is
Ġener get
stand ard
Ġost ens
ĠG em
Ġintimid ation
ĠV ote
ĠQu ant
Ġinstruct or
Ġlear ns
ĠWag ner
ĠP RE
Ġcomp ression
ĠJack ie
Ġprem ie
ĠComp anies
l ate
Ġl akes
Ġprotest ed
Ġdial og
Ġd ots
c ano
Ġunl ocked
Ġcontin uation
ĠLyn n
ĠHug o
Ġmess y
Ġbrew eries
Ġdr astic
eff icient
ĠNep al
s rc
Ġb iblical
Ġcraft ing
ĠOs borne
Calif ornia
Ġm aid
ĠT ag
Ġinnoc ence
D ist
Ġg el
Ġo ri
ĠT as
ĠWar rior
Ġrational e
J UST
Ġtor rent
educ ated
ĠRe venue
ĠPl atform
Ġbrows ing
Ġ19 17
P E
Ġtherape utic
u ilt
Ġst air
Ġhead phones
Ġbell y
b ons
Ġl ob
Ġstap le
person al
ĠIndust ries
G ov
Ġmarch ing
Ġf ade
D D
ĠF argo
Ġfr inge
Ġmaj ors
Ġ ion
Ġd ock
kins on
Ġcler k
Ġcommod ities
Ar ch
Ġm int
ĠN arendra
Ġest e
N early
Ġprogress ives
Ġtele com
Cre ate
ĠT at
F ort
ĠYork er
d eter
ĠW er
ĠMan ufact
Ġswift ly
Ġse gregation
Ġsh attered
real DonaldTrump
Ġinteract ing
Ġl id
ĠR ol
Ġp anc
Ġre imb
ĠRep ly
Ġfreel ance
il ib
O pp
Ġl ith
ĠH av
bel ief
Ġby te
ĠRef uge
ablish ment
ĺ ħ
Ġkill ers
icult ural
Ġm esh
Ġacc ustomed
Ġadjust ing
Ġ10 6
Ġresist ed
Ġubiqu itous
Ġprop oses
Ġbad ge
us ra
if ax
ĠN W
he avy
Ġox id
ĠR unning
ĠV ern
Ġrep roduction
J es
Ġcar ved
ĠIS O
Ġb ark
Ġund en
Ġpol ite
ĠA zer
ĠW on
ĠN OW
Ġneg lected
od ore
Ġind icted
Ġhe x
tr ade
Ġdest iny
r ine
ak is
ĠT IME
Ġsett ling
sm all
reat ment
D F
F oot
A cc
Ġc ros
Ġopp oses
ve ment
bour g
Ġscan ning
ĠC AP
Ġsk ies
Ġb un
ub s
ĠM ist
ĠMan it
g io
lling ton
Austral ia
ĠWat ers
Ġdilem ma
W ater
ĠH our
Ġdecor ated
Ġadvert isers
Ġ7 50
ĠS R
ĠR ise
Ġsol itary
11 5
f iction
Ġp uls
ĠKore ans
ĠBur ton
Author ities
wart z
pher d
NAS A
Ġharm ony
Ġg ospel
Ġpoison ing
Ġdisreg ard
ol iberal
Pr ice
Ġne oc
ĠJ ak
Ġco hes
10 2
ĠInter view
ĠH uck
Ġback pack
ĠEuro pa
ĠStr ategy
ĠLuck ily
Prof essor
Ġaccident al
Ġ ï
Ġw ax
Ġunt o
Ġshoot ers
ĠOff icials
at ri
ed ience
ĠFe el
Ġcross es
J ose
ĠA WS
Ġthank ful
Ġadvert ised
Ġl iable
ĠLink edIn
Every body
ĠBor is
Ġemer ges
OU ND
ĠLen in
st atus
ĠPR O
Ġrep ression
rel igious
ĠMour inho
ĠB ast
ĠEug ene
Ġmisdem eanor
Ġc ant
Ġw aking
Ġrepl ies
ĠPun j
Ġmight y
Ġge ographic
Ġant it
amb urg
ĠG addafi
ĠAng lo
Ġcollect or
ĠChurch ill
ĠCl aire
ĠArmen ian
Ã Ĥ
Ġst alled
hen ko
Ġgovernment al
ĠAv iv
ĠOrig inally
In side
ĠV ir
f it
Ġdoub ling
Ġwild erness
Ġthank ed
ger ald
ĠRel igious
Ġ195 7
ĠSerb ia
ĠMarx ist
ĠSh awn
ĠAn s
ĠNew man
enz ie
Ġd ur
Ġsp ider
udd y
Ġsubm issions
ĠC W
yr us
S W
ĠPer u
Ġstation ed
Ġcyn ical
Ġrem ake
Ġric her
Ġreprodu ce
ĠZ omb
Ġ195 3
ĠAmeric as
ĠN PC
Ġver ge
ĠW ave
ON D
Ġschedul es
ĠS ah
ĠSt ark
ĠK ub
ĠF ury
Ġtr aps
Ġdownload ing
um en
Ġweigh s
Ġexist ential
b ee
Ġa ka
Ġpar ole
ĠCON T
ĠR ising
Ġbr ace
ĠLab s
ĠHung arian
id ad
Ġm ansion
ĠP ep
ĠLe h
Ġpir acy
Ġspecific ations
io let
coh olic
ĠRe y
Ġconcer ts
Ġsystem atically
ci um
Ġscreens hots
ĠDem s
Ġgar nered
Ġunanim ous
Ġtrans plant
Ġant agon
Ġveget arian
Ġproc ure
ic us
Ġgard ens
Ġsurg ical
B ur
gr and
D i
ĠI F
Ġpolicy makers
Ġang el
lin er
Ġl akh
Ġth riving
Ġdiv isive
ĠConst itutional
t ar
Ġtum or
ĠW ald
ĠD ocker
ĠB ag
Ġcl utch
it em
ĠPer iod
Ġearn est
Ġl enders
ĠSt yle
or ously
Ġcomment ing
Ġv ow
Ch arl
ĠSh ut
c irc
Ġmedic ines
Ġlog istics
Ġ} ;
ĠRes earchers
Ġcertific ates
Ġpsy chedel
p ensive
Ġrest ruct
ĠHe ather
be y
Ġrem edy
Ġexagger ated
ĠHam mond
ari us
Ġbrand ing
Ġchar ming
Ġir regular
ĠV ic
Ġdown side
St ream
cho ice
ĠFle et
r anking
Ġn as
ĠS orry
Ġy a
Ġdem ocrat
g as
Ġf ried
Ġwas ting
Ġsent iments
Ġenfor cing
c f
ĠOut side
s or
Ġmyth ology
Ġst igma
Ġdin osaurs
ĠB oot
Ġspons orship
Ġs ized
à ¥
ag netic
oh yd
Ġblog gers
f ashion
a qu
Ġarchitect ural
R on
f aced
ĠâĢ ķ
ĠCongress man
AC H
f acebook
oc hem
Ġinc arn
10 4
12 8
Ä Ł
Ġcommun al
cript ions
Ġam ple
ĠÂ Ĺ
Ġign ores
Mem bers
Ġserv ant
Sec ret
ĠB ot
ĠAn kara
Ġshort ages
Ġ< <
ĠS ugar
ĠRap ids
Ġcl oses
ĠFor ward
Ġdepict ing
Ġtweet ing
ĠNob le
Ġ19 43
Ġarchitect s
Ġform idable
ĠSyri ans
ĠL ar
ast ics
Ġret iring
Ġcongest ion
Ġse ated
Ġeven ly
Eng lish
Ġp ads
Ġanim ations
ig ger
the ir
Ġconce al
Ġimp art
he rence
Ġcrack ing
ĠRay mond
ĠFreder ick
Ġpat rons
Ġ( #
ĠHig her
h ou
ĠF eed
ott i
ĠRock et
Any way
Ġa rom
ĠL enn
Ġloud ly
Ġd amp
Ġsoc ietal
Ġacclaim ed
ĠM aid
ĠO UT
Ġ19 55
Ġdr ills
A ud
Ġar ises
Ġpath ways
ĠWhe eler
ĠCons ult
Ġaggrav ated
ĠA FC
ĠSy nd
she et
Ġn g
Ġover c
ĠCong o
Ġmass ively
Con nor
N P
Ġbu cks
" );
in th
orm an
T B
Ġincap able
anger ous
Ġbod ily
Ġinject ed
Ġro oft
ĠLeg ion
Start ing
ĠM AR
r ish
are l
ĠNe igh
ET A
ĠWrit ing
Ġenvelop e
Ġseiz ures
d ies
ĠT ool
ĠGard ner
f ounded
4 50
Sund ay
spe cial
ĠRE AD
N umber
og ram
Ġplum met
ĠG E
ĠKat ie
F OR
Ġp ac
ef ined
ist ence
ace y
Ġske let
f uel
ĠZe lda
Ġdesc ended
Ġgoal ie
W all
Ġcann on
ĠF ri
Ġref resh
Ġimp ending
Ġdeep est
De ath
Ġevac uation
Ġsuppl ier
Ġmon key
Ġref rain
Ġfire works
Ġmerch ant
im an
Ġper imeter
ĠP owers
K it
r ue
Ġk et
s afe
ĠM ale
ord e
Ġgrad ual
ed a
b ishop
Ġm um
Ġs or
Ne ill
Ġjurisd ictions
_ k
al ine
Ġiniti ate
ĠVen us
Ġp act
Ġsc ans
Ġlast s
sole te
ab ase
Ġwhere by
ĠBuddh ism
ĠA ce
Ġanten na
ruct ions
l ier
old own
ĠRC MP
ĠL anka
Ġwho pping
Go vern
Ġaver ages
Ġun identified
= '
y ll
Ġc ough
Ġf al
ĠRe ich
IL E
Ġpup ils
Ġc it
Ġcompan ions
Ġindu ce
ĠOff icers
Ġreserv ations
Ġun in
Ġmed d
ĠRel igion
h on
ĠS ikh
ell i
ĠS onic
ex per
Ġcounsel ing
ĠSex ual
Ġproport ions
art icle
Ġfor ged
Ġd itch
Ġann ot
ĠP orsche
C BC
ĠHans en
Ġd op
ĠL TE
Ġplay able
ĠPh ase
Ġpredec essors
ĠJoy ce
Ġtruth s
Ġspect acle
Ġexplo its
ĠEll en
Ġaffili ation
d ependent
Ġt apping
Ġrul ers
Ġir responsible
Ġrenew al
Ġnit rogen
un ion
Ġrent ed
ĠL SU
M ary
Ġopp ressed
Ġde gr
10 3
Ne ither
ĠC ert
Ġbr akes
Ġfasc ist
st ro
ĠVict ory
ĠLaure n
Ġsw all
ep ernick
Ġmed als
ĠComb at
ĠCh i
wh y
ĠIn come
ĠSm ash
Ġsens ory
ĠF ighting
ĠMah m
ĠAp ache
Ġcirc ulating
ĠM R
Ġphotograp hers
w ild
ri o
Ġreg istry
ĠMin ority
ĠAndrew s
ab ee
ĠN olan
Ġphil anthrop
ĠCard inal
.âĢĿ )
Ġsw ear
Ġeleph ants
Ġprolifer ation
F und
ĠB rief
Ġbur ger
pr us
Ġca fe
ĠSant os
Ġatroc ities
Ġcl an
00 3
Ġcon du
J ournal
Ġtransform ing
Ġ19 49
com pet
me aning
Ġstub born
z an
Ġdem ons
Ġgest ures
Ġb ree
Ġm ans
Ġund o
t ical
ĠHe in
ĠKu wait
enc ia
h un
ĠT umblr
ĠC ous
ĠD y
f ires
Ġstr ongh
B er
Ġbre asts
_ F
Ġhigh s
Ġne p
ĠE manuel
Ġrun time
ĠP ip
Ġdisrupt ive
ĠI o
Ġculp rit
as io
Ġch unks
ih il
I ron
Ġspeed ing
ill as
Ġflood s
Ġgood bye
Ġsuccess ive
Ġal ley
se ys
Ġaw ake
F un
is man
ĠN iet
ĠSaf e
Ġf ier
ĠRe ality
Ġlim bs
Ġstri ps
ĠProduct ions
Semit ic
ĠBra ves
cre ate
im o
Ġhal ted
ĠMed al
Ġhe mp
Ġmem e
Ġmut ations
Ġalleg iance
ĠC ultural
Ġinad vert
ĠR aspberry
Ġlau ndering
sc ill
P an
edd y
ĠIns pector
ĠD ifferent
Ġgrat itude
W al
Ġpo pping
Ġmut ation
ĠRoy als
Ġsl ope
Ġen cl
ĠSav age
t urn
ĠSuper ior
ov y
Ġexpend iture
S u
Ġr ude
Ġrev ive
ĠS ans
Ġrem n
// //
G ET
ĠG ET
S ad
Ġs ir
ĠCor nell
open hagen
Ġgrab s
ĠEn joy
ĠCelt ic
y et
Ġand roid
ĠGar rett
Ġst all
ĠElect oral
ĠJuda ism
Ġrespect ful
Ġmemo ir
ĠG olf
Ġcomfort ably
Ġplanet ary
en za
Ġv ou
Ġlim itation
Ġon ion
Ġrest oring
e on
ĠG ut
ĠFro st
ĠG ent
J ason
Ġvill ains
) [
Ġsur real
T em
iz a
Ġcontinu ity
ill ions
ĠRel ated
L ight
pict ured
ĠSp ark
Ġsad ness
Ġchick ens
ĠP resent
ĠW enger
Ġcor related
ĠP u
Ġdepart ed
VID IA
Ġundergrad uate
11 1
l n
Ġ10 7
Ġrob bed
ĠB om
Ġsp ur
ĠGree ks
Ġharass ed
ĠPeters burg
Ġ10 8
m ia
ĠD NS
Ġtri angle
Ġp oker
ĠE cho
ĠCharl eston
ody nam
comm ittee
L ocation
AN G
. /
ru gged
Ġworld view
ott a
Ġpiv otal
ass er
Ġtempor al
Ġincorrect ly
ĠS leep
Ġexcept ionally
Qu ery
at ical
ran ch
Ġo z
ĠMed ium
Ġmicro bi
Ġauthent icity
ĠRes istance
com merce
ĠBel fast
Ġsu cks
Ġprofound ly
Ġh ug
Ġinter ception
Ġgr ains
ĠM Y
Ġ11 2
ld on
M ond
Ġdi ets
whe el
Ġsl ate
ĠP O
ĠD uck
Ġbud dy
Ġdisc rep
Ġel bow
Ġsimpl est
ĠNe o
Ġcommer cially
ĠCamer a
Ġinc ub
Ġsl iding
Ġfor c
Ġgener als
Ġcamp ing
Ġpseud o
Ġun official
Ġassess ing
gener al
M ont
ong o
Ġdisc ern
Ġper former
m oon
Ġhit ter
ic ular
c od
ĠAl ban
ĠMarket ing
et r
priv ate
Ex p
Ġst d
z ip
Ġrem oves
Ġincarcer ation
Ġge op
Step hen
Ġdis comfort
Ġs ins
ĠHar old
IN D
Ġimpe achment
ĠT ucker
Ġess ays
ĠJ ail
ĠPod esta
ĠWe ight
ad ic
Ġske leton
Ġnep hew
osh op
Â Ĺ
Ġl ure
ar us
Reg ardless
ĠT SA
Gl obal
au f
p rop
ass ing
ut ory
Ġall erg
It em
ĠRep orter
Ġexecut ing
Ġhypoc risy
Ġspec s
Ġver te
ĠJo an
at ra
IC S
Intern ational
D ark
ver ts
Ġinc idence
ex isting
Ġresp ir
Ã± o
idel ity
ĠTechn ical
ĠPre p
B usiness
ob ject
Ġequ als
Ġ19 46
H en
ew orthy
Ġwork load
Ġmis ery
Ġconf essed
ĠMoh ammad
W ed
Ġspec ulated
ĠChrist ine
ĠC OU
Ġdr ift
Ġsynt hes
ang a
Con nect
ĠRevolution ary
Ġse af
b ai
Ġtiss ues
r aining
Ġsqu at
Pro v
ĠPop ular
Ġinj unction
Ġgra ffiti
ĠFl ore
Ġrain fall
it ant
ĠF en
Ġc ove
ĠC aucus
Ġprovoc ative
Ġe lic
Ġtest osterone
Ġdecre ases
de ath
Ġpil gr
n om
Ù Ĭ
ich i
Ġbl oom
Ġge ek
asket ball
Ġhall uc
oot er
ĠNic ole
ĠExt ra
ĠSebast ian
Ġam en
ĠCol bert
ĠEth ics
ĠB A
Ġsub ord
Ġsit uated
ett es
Ġz ip
Ġprep ares
Ġbigot ry
Ġtot als
ÑĢ Ð°
op ia
Ġcampaign ed
ĠMar athon
Ġdev ote
Ġinflamm ation
s ince
ĠM TV
Ġrail road
Ġpharm ac
Ġcoll usion
ĠO C
Ġsy rup
Ġrul er
Ġboard ing
ĠList en
Ġinv aded
d ain
et ics
Ġsh ining
Ġtend encies
ĠSh ore
Ġpuzz les
Ġn ud
ĠR ole
ĠN om
ĠD uc
Ġdec omp
ron ics
ĠDur ant
Ġwas t
IS IS
_ E
ĠBl ocked
ĠAm nesty
Ġb aked
ĠP ale
ĠPed ro
ĠCom put
just ed
Ñģ ÑĤ
ĠFull er
Ġinter vals
threat ening
ĠSt ur
te enth
IN K
act ly
ĠTe en
ĠStrateg ic
l ich
cent ric
ĠPatri ot
ĠRec ent
en ame
ub arak
its u
ik ers
Can adian
Ġnot ions
any e
ĠL B
Ġst ain
Ġschizophren ia
ĠCar p
E st
Ġdict ate
ĠD EA
Tr ue
Ġvill agers
Ġtheoret ically
Ġt abs
Ġnew born
Ġper t
Ġper il
Ġun aff
C ru
T M
r itional
s kin
Ġprol ific
gress ive
Ġpreced ing
Ġbo il
u ously
ĠF actory
p resent
tt a
Ġb aff
st ant
Ġspecial ty
Ġo v
Ġconflic ting
UC K
Ġre play
ĠFly ers
ĠDrag ons
ĠD HS
Ġout we
ĠTH C
ĠN R
utter stock
Ġtoug hest
Ġk ings
Ġsm ash
ĠApp lication
auc as
ĠP oor
ĠTh ing
Ġfil ib
Ġp arl
Ġpair ing
Ġsal mon
ĠLe eds
ĠZh ang
ĠArch ives
Ġpref ers
ĠSe vent
is ch
ĠU AE
C ore
ĠE z
Serv ice
ĠP retty
ĠK re
S ky
ĠS ize
alk er
ĠHe b
c reat
ĠS aid
Ex pl
Ġ-- >
Ġneighbour ing
Ġinex pensive
ĠPat terson
iss ue
ĠBut ter
Ġl ocking
Ġyear ly
Never theless
Ġinv asive
ĠZ ika
ĠNot ice
Ġf ills
Ġsm iles
ĠBul gar
Ġsur rog
Ġbra ke
Ġex pelled
ĠLam ar
t aking
ĠAud i
ĠAr ist
Ġx en
ric ks
Ġcoun ters
het ics
ĠLie utenant
Ġpro w
ir ling
Ġpl ight
ĠJ S
Ġur ges
Ġexpl ode
ĠMult i
ĠL ac
ĠV oy
Ġsim ulations
Ġrot ating
Ġ10 9
Ġins iders
Ġs ou
Ġem ission
ĠIndones ian
Ġrestrict ive
y en
ĠCal vin
ĠMel issa
Pl ayer
Ġadmin ister
ĠBrad ford
Ġmail ing
Ġgig antic
ĠLic ense
Ġwh ip
ĠM echan
Ġexpl ores
Ġvoc abulary
M ic
g ithub
ĠFe atures
Ġcl ay
Le ft
leg round
ĠCu omo
Ġche at
rain e
v on
ĠC oul
Ġpass er
Ġste er
Ġguess ing
Ġr app
Ġconfig ure
Ġunivers ally
ĠGujar at
Ġ2 30
ous se
ĠMy an
Ġpack ing
Ġinstall ations
ĠEp ic
ra its
Go ing
ĠGod s
Ġrab bit
Ġc ues
Ġpl ac
n as
p roduction
ĠS ara
Ġstr at
Ġscore r
Ġnow adays
Ġch olesterol
P ER
Ġal erted
Ġimper fect
Ġam azed
Ġcondemn ation
ĠW itch
oh an
ĠJ ab
ĠWh ole
Ġgr ammar
Ġaccum ulation
Ġimp aired
Ġvacc ination
ĠGro ve
th ose
Ġperson a
ĠWi Fi
German y
ĠA id
Ġh ottest
Ġapp end
William s
he a
ĠBill board
ĠÃ ¢
ĠG erald
ĠIss ue
ĠInf o
Ġat om
Ġh ates
Ġcommercial s
Ġappl ause
ro b
ĠFitz gerald
b order
Ġgl am
Ġdevelopment al
Ġlif es
Des ign
ĠJ as
Ġcelebr ates
ĠAv ailable
Ġde port
hib ition
Ġlect ures
R ev
ĠCh avez
Ġpost ure
Ġrat ios
Ã¡ s
Ġbr ink
ĠW S
Ġcommun ism
k top
Ġdefense man
Ġdisproportion ately
Ġlaw ful
Ġjihad ists
ĠA W
ĠSt am
g ering
hard t
Ġritual s
Fr ance
ĠBay lor
Ġsmugg ling
Ġdist urbed
Ġsubsid y
Ġexp ire
ĠB ug
Ġinsult ing
ĠC ream
i ya
ĠSol utions
Ġd ictionary
w on
ĠJoh ann
Ġa we
ym es
ĠKey stone
Ġdescend ants
ĠH oney
ĠNAS CAR
Ġremember ing
Ġqu ir
Ġco ached
rent ice
Ġunder mining
Sen ator
Ġpolit ic
ĠM AN
ĠChap man
ĠGu ate
Ġcris p
ĠU E
ĠSor os
ĠX ia
ĠMyan mar
h awks
t arget
ĠV ander
ĠMar ijuana
ĠR ash
Ġch illing
S n
Ġinfect ious
Ġexpend itures
ĠLiber tarian
Ġinsurg ents
d uty
Ġoil s
och ond
ĠDe V
ĠSett ings
Ġ/ *
a ic
rend ered
ĠCh ang
Ġgl owing
Ġrum ored
\ )
ĠP av
ĠLind sey
Ġhorm ones
ct ica
Ġexperiment ing
e ast
n umber
sp ot
Ġdiscrim inatory
Ġspecific ation
Ġsal v
Ġair ing
ĠTw ilight
cr ime
ĠNic olas
Ġfo am
Ġpractition ers
Sen ate
Ġconstruct ive
sw er
ĠPhilipp ine
cap ital
oc ating
Ġcler gy
W ait
R B
che wan
Ġtra umatic
ĠStephan ie
P ath
Ġfam ed
re lease
Ġsle w
Ġext inct
ĠD ocument
iv or
nt on
j ournal
ĠW yn
man ned
Ġdecre asing
ĠV it
Ġmot ors
Ġdefin ite
ĠW ong
10 9
ĠShe ikh
Ġfr iction
od o
ar is
Ġconfig ured
K now
Ġtrans cend
Ġimp uls
Ġle v
ĠEl i
Go vernment
ĠZion ist
Sim ilarly
~~ ~~
not es
Ġc emetery
Ġhands ome
Ġd ynasty
Ġrest s
e us
ĠFuk ushima
Ġb apt
Ġf ox
Ġther m
19 99
ext reme
ĠG amer
M ajor
T en
ĠL un
ĠCom ments
Ġpol ished
Ġm ocked
Ġpe as
Ġr av
Ġ) :
Ġmunicipal ities
Ġp etty
Ġpatri ot
re b
Ġexhib ited
ur istic
ĠResp onse
Ġnic otine
o il
Ġpro se
Ġsuper f
LA Y
Orig inally
em on
ĠM ental
ĠDis play
ĠC ain
T aking
! ),
ĠP izza
ĠS it
ij i
Ġconsult ed
Ġtsun ami
es que
ĠA CA
Ġfort unes
ĠLes lie
ĠW ash
ĠC openhagen
Ġunre asonable
Ġt ipped
at hing
ket ch
ĠOpp osition
av ier
ĠH os
ĠStand ards
h ash
j ava
Ġconf ess
Ġjud iciary
ĠFred die
Ġrestrain t
ĠSol omon
en ary
ign ant
ĠUnder ground
ĠP P
Ġout doors
Ġcontrad iction
l ang
17 0
com pl
Ġhist ories
ĠOrig in
Ġrevers al
ĠI PA
Ġphenomen al
ĠPsych ology
ĠT yson
od us
Ġsand wic
Ġcyber security
Ġbub bles
c ats
Ġf aded
Ġuns ett
oy a
Ġdisp atched
Ġrecons ider
Ġtr unk
Ġins ign
ĠSS D
Ġschedul ing
Ġinterpret ations
ĠHas kell
Mus ic
ĠWr ite
ĠBened ict
bo at
Ġemploy ing
Ġtr act
ms on
reg ulated
ĠOs ama
uper t
Ġ195 2
Ġt earing
Ã ¯
Ġplug ins
vid ia
ĠTe ams
ĠFr aser
Ġ13 5
ĠW AS
ĠC ed
Ġm as
ĠR id
ĠCy prus
ch in
ĠW ILL
our cing
Ġinstinct s
Ġmon uments
am oto
ber ries
ĠConst ruction
ĠPh arm
iov ascular
Ġmush rooms
Ġprin cess
Â ½
ĠTr inity
ĠOper a
Ġcommem or
f inals
Ã± a
ĠOb server
Ġcher ry
Ġgeomet ry
Ġp ains
Pal est
Ġdistribut ing
ĠBrig ade
Sec urity
ĠHell o
ail ure
Ġra ided
Ġrent s
L P
ĠP ont
Ġesp ionage
B T
Ġmillenn ials
ĠW id
Ġge ography
Ġboost ing
Ġl amp
Ġgrand parents
Ġs ulf
Ġpart nered
.âĢĻ âĢĻ
ĠShort ly
Ġ15 00
ĠN issan
iv ities
ĠAst ros
Ġfulf illing
ĠD ogs
Ġouts iders
Ġblat ant
Ġpenet ration
Ġpass ages
ĠNon etheless
Ġp ins
Ġsh ale
Ġcollect ors
Ġmand ated
Ġfemin ine
n ick
Ġkind ness
a ude
an amo
ĠAss ass
all ic
ĠChar acter
Ġdrag ging
m oney
att a
ĠK ur
ĠValent ine
Ġconc ussion
ĠSh ir
k ick
Ġsupp lements
ĠTre nd
ĠE ld
Ġobst ruction
Ġecl ipse
3 60
Ġuns pe
Ġoptim ization
Ġdiscour age
ĠDet ective
Ġstart ling
Ġs inking
ĠSh arks
ĠUn block
medi ately
l ide
Ġpres crib
if ts
Ġlong standing
Ġrac ially
ĠRoc hester
ĠInnov ation
az ingly
Ġsl ash
Ġstrengthen ed
Ġs arc
Ġregul ating
Ġclar ified
Ġhome work
ar ations
Ġread ings
k ish
Ġs acked
Ġin mate
ĠInterest ingly
Ġfront s
ĠFranc o
ĠFront ier
Ġecosystem s
f ed
m aid
ĠM alt
ĠAs ked
f ell
v s
Ġhe ars
ess im
Ġfin anced
Ġmanifest o
ON G
Ġexcell ence
bro ken
U t
ĠUn known
Ġconc urrent
F ast
Ġgun fire
ĠMig uel
ne eded
Ġright eous
ĠSt o
Ġsort ed
ĠArch ive
Ġstat ues
Ġmar itime
Ġeth ic
ĠSh arp
ĠSt rat
Ġsub set
Ġgu iding
Ġgen res
Ġheavy weight
l aughs
OL D
ĠE VER
Ġcompet ed
Ġoptim ized
w agen
Ġm aternal
l ove
r anked
orn ings
am my
ĠMotor ola
ĠJav ascript
ĠKir by
S k
Ġ19 33
. âĢĶ
h ma
Ġfront ier
Ġfat ally
Ġjewel ry
Ġindic ations
ĠL ords
Ġyouth s
Ġoun ce
L oad
Ġleg ends
ĠDecl aration
Ġout going
ĠM K
Ġch ased
ĠEx pect
ĠR um
Orig inal
E conom
P riv
Ġfulf illed
ĠAv iation
Ġethnic ity
Ġgate way
ĠSpot ify
c uts
ĠArt icles
Ġproceed ing
Ġd wind
Ġarc ade
Ġinv oked
Ġrun way
ĠB end
IC A
Ġinflamm atory
IG N
Ġcart oons
B ad
C ost
t xt
ent on
Ġbl ues
ĠM T
f est
ag ent
ĠJohn ston
Mat thew
R a
Ġreal izes
ĠFr ances
U B
Ġtrail ing
Ġpestic ides
ĠC V
uc ing
Ġopen ness
ĠAll ied
Ġh amm
h m
Ġpump ing
Ġworks hops
Ġdeploy ing
Ġb ully
ĠJac obs
Ġunle ashed
Ġpen insula
Ġmis represent
Ġexplo iting
_ N
est ablished
Ġimpl ication
ĠBar on
Ġoblig ed
ĠPubl ishing
at ts
Ġun available
ĠPay Pal
ĠY ug
Ġsp un
10 6
Pre vious
ld om
ĠIs n
Ġorganiz ational
ĠAny way
i ating
Ġdef ects
Ġ iv
og o
ĠH ers
gl obal
ĠSch war
ĠArt ist
Ġs unk
ĠCh icken
Ġoverr ide
Ġrock y
ĠAst ron
W orks
w omen
Ġpr aying
udd le
Ġastron omers
Ġcoh ort
ĠMon roe
Ġunexpected ly
ĠPre vious
Ġabrupt ly
Ġkn ives
umb les
Ġmoist ure
Ġoversee ing
Ġhold ings
ĠAfric ans
Ġbur nt
Ġnarc iss
ĠCustom er
Ġpe aks
ĠIb rahim
Ġframe works
Ġf eder
ĠG C
Ġparent ing
Ġob ese
Ġpar cel
Ġhes itate
Ġyield ed
J udge
ĠS ke
Ġch ord
Ġchall enger
Ġvisual s
q qa
Ġf erry
C ase
cept ive
Ġbl ur
Ġad am
M R
Ġmod ular
ĠO dd
ĠSh annon
her ty
Ġadm issions
Ġspl itting
Ġtermin ation
Ġvib e
ĠV PN
be ck
ĠCon nor
osoph y
N F
ĠOtt oman
att led
Ġw ishing
en h
m t
Ġphilos ophers
Ġun ins
iol a
Bre aking
ov able
Ġbl ink
25 6
Ġas semble
Ġ25 6
pat rick
Ġch assis
ĠStock holm
Ġnotor iously
C oll
ĠAr ms
ĠAthlet ic
st re
Ġplant ing
Ġlabel ing
ĠWATCH ED
Ġsummon ed
Ġt ac
ĠA AA
ĠInt o
Ġm und
ĠX in
ĠCy cling
Ġwor m
Cle arly
ĠCh art
AR S
... ]
ĠJan et
Ġh iking
c orn
Ġret ali
Ġspont aneous
ment ia
Ġenerget ic
p ires
Ġk idding
Ġgrand children
Ġdecl ares
Ġceremon ies
Ġto re
ĠSc out
Ġens l
Ġsn ipp
Ġwith stand
Ġbi om
mans hip
N ov
ing es
ob il
Ġbroadcast s
ĠT ank
us ually
Ġbacter ial
Ġslog ans
Ġfl ipped
Ġp enny
aid a
ĠKa epernick
ĠF ry
ĠDo om
ĠSol o
ut sche
and ro
Ġmic row
am bo
Ġnot ify
ier i
: [
H E
ig ated
ĠM W
Ġcontrace ption
Ġe ve
og rams
Ġunder mined
Ġhom emade
reat h
ĠCom mercial
Ġgener ators
Ġwand ering
oss ip
Ġhand ler
L uc
g ard
vis ors
ut able
Ġbl onde
Ġcentral ized
Ġsil icon
Ġdemol ition
Ġper vasive
Ġf ixture
Ġcon ve
inc re
â Ĺ
Ġbe verage
Ġmod s
Com ment
Ġexc luding
Ġtrig gering
Ġmotiv ations
v ine
ĠHar b
Ġescal ation
ĠOpp ortun
F lor
ĠG ren
iv ist
ĠAl bum
Event ually
ip al
Ġs lick
Ġstr anded
ĠK ris
he ne
ĠGold berg
Ġbeh old
Jew ish
ĠG ru
ap i
ï¿½ ï¿½
Ġsoc ks
Ġtom atoes
ĠV on
Ġprogress ed
Ġretain ing
W E
man agement
ys ics
ĠAN Y
id as
. *
reg ulation
Ġw izard
Ġhe ap
ĠL ok
Ġb ids
ĠS ally
ĠL uk
ĠG IF
ĠK abul
ĠTown s
Oh io
is y
Ġfil ings
ĠSec urities
Ġsp rawling
Ġ17 5
Ġd ental
ĠA ber
il ot
E ast
St and
ĠField s
ĠBur ger
Ġproced ural
E arth
uck land
Ġev id
Ġob solete
aw k
ĠMac ron
ĠPengu ins
ĠÂ ĸ
ov sky
ĠAur ora
" ?
Ð ·
Ġor thodox
ĠReg ist
Ġmet ropolitan
Ġdiss atisf
M il
Ġcos m
Ġrespect able
x imately
z illa
ĠN igel
Ġc av
if ty
ĠTor res
Ġlos ers
ĠHann ity
Ġbureaucrat ic
Ġg a
Ġblock ade
Ġsid eline
Ġthro tt
Ġmis guided
Ġsqu ares
Ġsod ium
ĠM Hz
Ġ19 14
EM A
Ġresist ing
ĠSant orum
Ġsat ir
Ġd urable
ack ers
Ġpione er
Ġcon quer
ĠNew ark
Ġdom est
ĠHor izon
l ists
ĠCo ord
get own
Ġhigh ways
ĠL is
ĠE y
Ġl ent
Ġdatas et
Ġreject s
l ated
M rs
ĠBar r
Ġrese ar
Ġa isle
ĠO ption
Ġgl ue
Ġstat utory
Ġcancell ation
ĠSw ord
ĠRut gers
at ible
Ġmat urity
but ton
ĠMoz illa
ĠGuant anamo
it ious
Ġ( (
ĠS ark
ĠAl v
Ġrestrict ing
ĠSt eele
itt e
ĠPer th
Ġsynt hesis
Ġc affeine
ĠSc and
13 5
ĠMad uro
Ġn ap
bet ween
ALL Y
ĠC ec
ocaly ptic
Ġimag inary
ĠLu cy
ĠH iro
Ġmetab olic
11 2
ĠBlack s
ĠH il
ic ially
Ġbal ances
ĠB ath
Ġcor ro
f at
Ġbus h
Ġvan ished
H appy
ĠW ool
Ġassist ing
Ġl ord
Ġrespir atory
e a
ĠH B
To o
Ġmon keys
Ġtest ament
ev il
Ġsum m
Ġse ating
t ml
ĠN er
Ġche ering
Ġcub ic
ĠLaw s
Ġlab s
ĠAdvis ory
T it
us a
Ġle isure
Ġsmok ers
an an
act ivity
Ġstress ful
m ult
Ðµ Ð½
Ġutil izing
Ġmagn ificent
Ġcan cers
Ġimp over
Ġdisc arded
Ġar rows
Ġprev ailing
Ġvis ions
Ġs igh
ĠPTS D
at z
Ġarm ored
rec ogn
Ġalph abet
ĠD raw
ĠRes cue
Ġconsult ants
Ġund ec
Ġrum ours
st own
Ġdem ographics
Ġsin ister
j ury
Ġth ieves
ĠD re
Ġce ased
Ġvers a
Ġobject ed
i ago
Ġre write
E ff
10 7
onge vity
Å ¾
are th
Ġstandard ized
Ġass im
z ero
Ġab using
Ġelect rons
Ġlik ing
ĠPod cast
dig it
Ġinsist ence
Ġlaund ry
ĠZucker berg
V ia
Ġcirc uits
Ġexp ands
Ġlive lihood
/ -
avor ite
ĠF usion
Ġun for
U MP
Ġarbit ration
Ġimpress ions
ĠJoe y
ĠBoy d
Ġ195 1
m ort
Ġtele communications
rac use
ĠQuest ions
uck ing
ĠP ixel
ĠR andom
Ġsc aled
Ġjud gments
Ġad here
Ġa ided
ĠO T
Ġrel iably
Ġac oustic
ĠCre ated
ra ven
ows hip
Ġpump ed
Ġstim ulate
Ġne oliberal
Ġ19 18
ĠWe ber
Ġpromin ence
ĠP ure
Ġaut obi
ĠAg es
Ġrehe ars
Ġaw ait
ĠDani els
m is
ĠM ubarak
Ġ19 38
Ġde ception
ud get
Ġswing ing
Ġpro let
ĠD as
Th ursday
ĠGreen e
go ers
cl ose
is ine
ĠS ina
ĠSad ly
Ġfear ful
p ng
Ġf uzz
Ġ[ âĢ¦]
Ġincons ist
d an
Ġcondem ning
Ġdiff ers
ĠT witch
Ġsacrific es
ĠAntar ctica
ĠWhe never
Ġgrad uating
ess ment
ĠSub ject
al most
sh are
Ġteasp oon
ot he
ĠD ew
ĠJ P
Ġprov oked
not hing
ĠMon itor
ĠH ang
ĠMar riage
ĠHoff man
ĠAna heim
c hens
ĠN I
ord ered
Ġdisrupt ed
ĠP ool
tt ed
Ġjihad ist
Ġrou ter
Ġp as
Ġd Ã©
Ġdisgr ace
f orth
en f
ĠPhys ics
ĠMart y
ĠWol ver
lu ent
Mond ay
Ġtermin ated
ĠAl leg
oc re
Ġelev ation
p sych
st ed
S ean
Ġn ause
Ġtext ures
Ġbull pen
ach ine
Ġnostal gia
ve illance
cl air
ĠV II
Ġst ared
raft ed
ĠAC T
ĠHann ah
Ġori ented
} {
ĠVol ks
Ġhur ry
ĠR iot
Ġcollabor ate
ĠFinn ish
Ġconf ession
ilib rium
ĠManit oba
ĠSch wartz
Short ly
Ġpir ate
ĠTon ight
ĠL inks
Ġtheat rical
Ġhe fty
Ġres umed
Ġpack et
ĠHist orical
ĠCrit ics
Ġconserv atism
Ġb olt
ĠA gg
Ġsky rock
Ġpresum ed
Ġpossess es
Ġpir ates
Ġmel ted
ĠF ul
ĠCom pl
Ġburd ens
Ġdownt urn
ĠWik ileaks
ĠStat us
ĠR NA
Ġwheel chair
Ġend urance
AN C
l oss
Ġtro lls
Ġc apped
Ġre written
CL OSE
Ġoverse es
ĠElect ions
sh ort
Ġl ays
Ġmim ic
Ġostens ibly
P rop
Ġtempt ed
el in
Ġext r
fashion ed
ak o
Ġconf inement
let ion
uss y
oc o
Ġpun ches
go ogle
Ġsubst it
Ġsc outs
ir rel
Ġcomp ute
Ġunfair ly
ĠS uff
ĠC rim
on ial
Ġw aving
Com ments
ĠOri oles
Ġkey word
Ġinsult s
Ġchrom os
Ġth igh
ĠMic key
Ġg n
ang ling
Sc roll
ĠID F
P op
Ġfold ed
ĠWill ie
ĠI X
ĠR OM
Ġ11 4
ĠF ah
ĠY ORK
Ġgun shot
m ove
Ġentit lement
t im
Ġviol ently
Ġharm less
Ġt ones
ĠG ust
Ġing en
in ness
r Ã©
ĠF E
ĠF i
ĠN u
Ġout ward
Japan ese
Ġlegal ized
Ġban ana
ĠKaz akh
ĠUg anda
l aughter
on el
ĠL imb
Ġguess ed
ĠDI Y
re ally
ĠM au
Ġmon st
che t
ĠBook er
ĠR anch
pe x
sm ith
Act ually
Ġdr ank
Ġgrav itational
ff ield
Ġrot ate
Ġpip elines
yr r
Ġex ert
Ġthink ers
ĠRe ason
Ġtransfer ring
ic z
Ġfun nel
Ġcommand ing
ĠSaskat chewan
Ġter med
Ġmut ually
Wr itten
ĠM H
Ġsal vation
Ġmetabol ism
S ystem
Ġrec ap
Ġjoint ly
ĠHard y
Res earch
Ġg ast
ĠIran ians
fil m
ru ce
Ġer osion
Ġexerc ising
ĠKn ox
Ġsp ies
ĠAr ray
Ġun used
c ool
Ġ12 3
AN N
or st
Ġpol es
Ġteam ed
ĠSy racuse
Ġbo ast
ĠL I
Ġclass ics
bet ter
ĠD iana
Ġt an
Ġrig ged
Ġfil tering
ib o
out heastern
ĠDevelop er
Ġresent ment
ĠPer kins
r il
Ġb ishops
Ġrev ol
ĠP ull
Ġesc aping
Or gan
Ġbe gging
Ġbet s
ble ms
ĠWorld s
Ġwarm th
ĠCroat ia
M O
Ġmarket ed
L im
Ġundert ake
ĠC ory
St ay
indust rial
ĠV C
P akistan
IS H
ip es
ow ler
R est
Ġmis con
Just ice
Ġspe lling
ĠLiber ation
Tur key
us ch
Ġm og
Ġdeb ating
ĠK ol
Ġve in
ĠH ours
ĠHer bert
Ġguitar ist
Ġa rous
ĠC rick
Ġ1 19
ĠRom ans
oper ation
Ġp ne
ut z
ĠL DS
m ot
d rive
ĠRe ader
Ġs ands
Ġant iqu
E ight
Ġpe aked
Ġspec ulative
Ne il
ĠH ash
Ġwid ow
h ift
ĠB oulder
per fect
ĠBund es
ym ph
[...]
