#version: 0.2
Ġ t
Ġ a
h e
i n
r e
Ġt he
o n
e r
Ġ s
Ġ w
a t
Ġ o
e n
Ġ c
i t
i s
a n
o r
Ġ b
e d
e s
Ġ f
in g
Ġ p
o u
Ġa n
Ġt o
a l
a r
Ġ m
Ġ in
Ġo f
Ġ h
Ġ d
â Ģ
a s
Ġan d
i c
Ġt h
l e
o m
i on
l l
en t
Ġ n
Ġ l
Ġ re
s t
v e
Ġ e
l y
Ġb e
r o
Ġ g
i d
u t
a c
o t
Ġ T
Ġ I
Ġth at
Ġ on
a y
Ġ is
Ġ S
i m
e t
a m
a d
o w
s e
Ġf or
i g
âĢ Ļ
Ġ A
v er
c t
l d
u r
Ġ C
Ġ u
Ġs t
Ġ y
Ġ it
Ġ he
i r
at ion
it h
Ġw h
Ġ M
c e
t er
Ġw e
o l
i l
Ġw ith
Ġa s
Ġ B
c h
i ll
n d
Ġw as
Ġ P
Ġy ou
er s
k e
Ġ âĢ
Ġc on
Ġd e
Ġ r
he r
i f
at e
Ġa t
a g
Ġh a
Ġ W
Ġs e
Ġ H
o re
Ġp ro
u l
p p
m ent
Ġa re
r i
Ġ D
Ġ 1
es t
Ġc om
u s
is t
an d
Ġ R
a in
o p
ĠT he
Ġ 2
ig h
r om
en d
Ġ (
or t
t e
o d
Ġn e
Ġ F
Ġe x
u m
u n
re s
âĢ Ŀ
a b
Ġn ot
Ġ N
Ġ v
Ġha ve
es s
it y
ou ld
Ġo r
Ġb y
t h
o s
Ġ G
i ve
Ġf rom
Ġa l
an t
' s
Ġs u
o c
ar t
e l
Ġ L
Ġs h
Ġth is
e m
q u
n t
igh t
p e
u st
Ġ le
i es
Ġ E
Ġc h
Ġs a
Ġa b
T he
ou t
al l
i e
ac k
re d
ĠâĢ ľ
Ġh as
al ly
0 0
Ġp l
Ġ J
Ġg o
ar d
Ġh is
om e
i v
g h
o st
a p
e ar
Ġ O
Ġt r
ou r
Ġ j
a k
u d
as t
Ġd o
Ġthe y
Ġb ut
Ġw or
Ġc an
r ou
Ġw ill
g e
Ġsa id
Ġw he
Ġ U
ic h
Ġ k
Ġa ll
o k
Ġ "
Ġwh o
id e
am e
t her
an s
i al
Ġo ut
Ġthe ir
f f
on g
ic e
p l
u re
Ġm ore
on e
ag e
ion s
ac t
Ġu p
i ke
Ġm e
ou s
Ġa d
in e
e p
Ġab out
at ed
r a
Ġon e
b er
p t
Ġwe re
Ġs o
Ġu s
e ct
im e
o g
Ġh ad
Ġ K
a re
i a
u b
c c
Ġw ould
Ġc l
Ġ2 0
Ġ im
Ġwh ich
in d
x t
a ke
u e
ver y
Ġa g
i z
Ġt e
Ġof f
Ġcom p
Ġbe en
Ġu n
Ġin t
Ġ en
s o
p er
ig n
Ġcon t
a u
ĠT h
ar y
Ġy ear
ac e
i p
Ġl ike
e w
v en
Ġin c
o ok
ay s
Ġm an
Ġp e
ĠI n
o se
r y
Ġre s
Ġp er
ab le
it e
as s
Ġs p
or d
Ġo ther
i re
m er
Ġs ome
i le
en ce
op le
ĠS t
i b
Ġ20 1
ation s
k s
Ġo ver
Ġthe re
ic al
res s
Ġd is
ul t
Ġne w
ow n
Ġal so
Ġth an
Ġbe c
Ġa r
Ġthe m
an ce
ou gh
r u
Ġa pp
p ort
ou nt
Ġp art
a il
Ġyou r
re e
Ġwhe n
in t
Ġwh at
Ġpe ople
or m
f ter
on d
Ġs c
Ġ qu
ĠC h
as e
a v
Ġan y
Ġj ust
Ġit s
Ġ Y
Ġt ime
ct ion
ac h
Ġk n
o f
ĠI t
Ġhe r
Ġ 3
Ġre c
l ic
re at
Ġm y
en s
Ġ if
Ġg et
. âĢĿ
Ġint o
Ġ V
i an
Ġwor k
ou nd
Ġt w
ir st
ve l
Ġn o
d u
ing s
e re
or y
Ġo ur
ic k
id ent
or s
it ion
Ġ -
Ġp re
o ve
o b
Ġpl ay
an g
in k
au se
w n
te xt
am p
ad e
h ing
at es
ar k
Ġ ro
Ġs he
Ġp ol
ver s
Ġc o
Ġa fter
, âĢĿ
Ġf irst
Ġc ould
Ġh ow
Ġ1 9
ĠH e
n e
i ous
Ġa cc
nd er
i ld
Ġh im
' t
Ġp o
on s
a w
| >
end of
endof text
< |
Ġon ly
Ġf e
ic t
he d
Ġp r
Ġtw o
r it
o v
Ġcom m
is h
âĢ ľ
Ġs pe
f orm
Ġa ct
Ġs er
Ġb l
w e
Ġbe t
Ġde c
. "
n ing
Ġb ack
Ġm ost
c es
f t
o od
c k
ĠâĢ ĵ
Ġa m
Ġd id
o y
rou gh
if f
rou nd
at er
Ġag ain
Ġ 4
u al
d ay
Ġu nder
Ġw ant
Ġd es
is e
Ġcon s
se l
u ll
ĠâĢ Ķ
Ġbec ause
Ġn ow
l ud
ent s
Ġyear s
ub lic
ter n
Ġne ed
m an
Ġe ven
Ġ $
. .
Ġin v
e c
Ġat t
is s
Ġkn ow
ĠW e
Ġse e
ment s
Ġad d
c ed
, "
Ġin d
o ld
t ing
Ġse c
f ore
Ġe very
u ch
ur n
Ġ 5
Ġsu pp
Ġm ake
pe ct
Ġe m
Ġthe se
ĠU n
o ll
oc k
Ġwhe re
I n
j ect
ver n
ation al
Ġb u
Ġl ook
ĠA nd
Ġd on
T h
os s
Ġe v
Ġw ay
at ing
um p
Ġbe ing
Ġre m
Ġm ay
i ly
Ġthe n
Ġr ight
Ġman y
ro w
le ct
ie w
Ġ [
n g
Ġd iff
Ġde f
as on
Ġre l
Ġc all
ĠB ut
as ed
ĠT r
Ġinc lud
Ġth ink
i ed
ak ing
l es
Ġre g
) .
mer ic
Ġth rough
Ġim p
it ed
ri b
on t
Ġs y
at h
Ġsh ould
Ġs ay
Ġp res
ur ing
Ġl ast
Ġf l
Ġth ose
Ġ very
ow er
ot her
t y
Ġm uch
Ġst ate
it ies
if ic
ĠTh is
Ġsh ow
at ive
t le
Ġb r
he n
s s
ar g
Ġwe ll
ot h
v ed
ĠW h
Ġp h
Ġc ount
Ġdo es
Ġ2 00
al s
Ġd own
Ġo wn
ar ly
Ġ end
Ġas s
u nd
Ġu se
Ġbe l
ic s
an ge
Ġl ong
ĠA meric
in ce
t s
ter s
Ġbe fore
om et
Ġm on
w ard
Ġgo vern
g r
Ġst art
Ġre port
ib le
Ġ ke
u es
ĠN ew
u p
Ġf in
ou n
Ġte am
Ġm ade
b le
if e
ol og
) ,
Ġsu ch
en er
re n
c om
ers on
Ġs m
re st
Ġgo ing
l p
il ity
Ġwor ld
f ul
i x
u ally
Ġst ud
- -
e k
Ġgo od
âĢ Ķ
is m
Ġa c
ist s
t ain
Ġe ff
Ġsu b
Ġagain st
Ġs ur
I t
Ġg ame
Ġs et
it s
Ġg u
Ġpo int
Ġ 6
or k
Ġ ent
g an
st em
00 0
y s
Ġst ill
ar s
rou p
Ġwh ile
l i
ill ion
Ġhe lp
Ġle ad
we en
Ġm in
. <|
v ing
m s
Ġs ays
im es
Ġo b
al k
e ll
Ġpro du
a x
an k
c y
Ġin te
Ġin ter
Ġin st
Ġg r
Ġst r
Ġs im
c ess
e f
sel f
Ġcon f
Ġc ol
Ġt ake
u res
Ġs ame
Ġbet ween
Ġth ough
ar ch
Ġoff ic
oll ow
Ġdiff ere
e ver
Ġc r
i o
Ġpro v
ut ion
l and
Ġdis c
us s
o ol
Ġ ed
Ġh igh
Ġo p
a ir
Ġn um
Ġl aw
Ġs ign
re ad
w ay
Ġgovern ment
l ed
n er
h ip
g g
ĠR e
at ch
am es
he s
an y
Ġs omet
Ġt er
vel op
c ent
t ed
t en
a h
Ġre f
Ġtr ans
Ġin s
Ġr un
W e
Ġf ound
Ġth ree
Ġm em
Ġa round
iv es
Ġhe re
at her
a ve
Ġm ed
Ġre al
Ġus ed
Ġ1 0
Ġex p
ou se
Ġsy stem
ĠY ou
ce pt
ĠA r
Ġre ally
o ot
v es
Ġm od
Ġg roup
Ġsupp ort
c i
c er
c on
Ġc our
a z
Ġ 7
et s
Ġc ar
Ġh and
Ġre t
al e
Ġp ublic
Ġspe c
in s
y ing
ĠL e
Ġg reat
p r
en se
Ġex t
. [
ire ct
p h
Ġc ur
Ġf am
t on
ĠC om
al th
Ġha pp
Ġf act
Ġex per
ĠThe y
ĠTr ump
Ġw om
Ġf r
ĠI s
Ġc ap
Ġb oth
Ġd ay
Ġf ind
Ġre ad
ul ar
ĠA l
Ġd et
Ġl it
ic es
in es
Ġre p
Ġs l
ut h
Ġd uring
o h
ĠA s
Ġmon th
ĠS h
Ġde velop
Ġ 0
Ġb ig
is ion
m in
Ġp erson
Ġf ollow
ak es
Ġ 8
Ġc re
Ġis s
t he
ĠC l
Ġto ld
Ġs ince
a red
Ġwe ek
ic ally
m ed
e x
ag es
i vers
Ġf ew
Ġw ar
ord ing
ort h
Ġc ent
Ġle g
Ġpol it
g et
Ġex pl
a j
Ġl ot
e red
Ġbel ie
Ġg ener
as h
Ġto o
r ic
Ġo pp
d er
Ġ 9
Ġre qu
re nt
Ġcont in
W h
b ers
at a
Ġf il
i et
ent ion
Ġc le
an c
Ġres p
Ġp ut
ĠI f
Ġan other
iz ed
ch ool
n ess
Ġsomet hing
Ġin f
Ġdiffere nt
Ġc or
Ġl oc
Ġinv est
ut e
Ġs oc
ĠD e
Ġp ower
Ġc he
Ġ '
2 0
Ġcomm un
Ġp ass
Ġl ife
Ġpl an
ĠF r
Ġre le
Ġth ings
Ġhe ad
i ence
u c
od y
Ġf ar
Ġp oss
n ed
Ġar t
th ing
Ġm et
Ġc amp
Ġv ot
ar ge
ro ss
Ġb o
Ġch ild
Th is
Ġas k
v iew
Ġm ight
Ġe ach
ant s
Ġde p
Ġ .
in ess
Ġne ver
iz e
i er
Ġne xt
Ġsec ond
Ġm ark
Ġqu est
Ġb us
Ġad v
ie ld
ĠA n
Ġde m
Ġcom e
ĠF or
Ġg ot
ĠâĢ ĺ
Ġop en
Ġb est
Ġall ow
i ent
it al
re t
ĠTh at
Ġse em
Ġp ost
Ġfe el
n ce
r at
p le
ĠU S
Ġp ri
ĠP ro
te m
Ġper cent
gr am
i k
Ġh ome
Ġd ist
Ġd irect
i red
Ġinc re
Ġcont ro
u g
ĠR ep
c l
l ess
os ed
er v
s on
Ġres ult
or n
Ġh ard
Ġc are
Ġm illion
ate ly
Ġcomp le
Ġpl ace
Ġwith out
Ġin form
Ġinclud ing
Ġim port
ch n
Ġa v
con om
Ġh um
Ġpro ble
Ġ ide
Ġbu ild
Ġto p
Ġnum ber
Ġcount ry
am a
one y
a im
g y
ĠB l
ab ly
Ġst and
r al
Ġf our
is hed
Ġe l
Ġg l
ri end
u ro
Ġpart ic
w ays
Ġbet ter
Ġle t
Ġrec ent
Ġt ri
B ut
Ġinte rest
Ġm ov
r ation
t t
Ġse ason
Ġl ess
c o
Ġt urn
Ġlit tle
Ġbe h
Ġm il
Ġapp ro
Ġb ro
r act
Ġcall ed
l ine
e ad
is ed
l ing
Ġc ase
a pp
Ġd r
Ġle ft
Ġre st
ĠI nd
Ġp op
Ġan n
Ġm ove
Ġatt ack
en cy
ĠThe re
Ġke ep
od e
Ġf ull
Ġdid n
in a
Ġser v
er ing
Ġm ain
Ġf un
aj or
Ġeff ect
1 0
Ġ Z
in al
Ġpre v
Ġpro gram
Ġus ing
le g
Ġt est
t o
Ġp ay
Ġe ar
at ure
b e
re m
Ġv al
Ġpol ice
Ġw rit
Ġfor m
Ġe conom
Ġd ata
Ġnew s
Ġp os
Ġw in
Ġch ar
ĠAmeric an
Ġle vel
Ġs it
iv ing
ain s
Ġsm all
read y
in ed
Ġs chool
Ġl ist
H e
u ck
olog y
id ed
' re
pl oy
m it
Ġe as
Ġpro cess
r ap
Ġch ange
Ġwom en
ir d
g er
Ġcur rent
Ġre ce
Ġh ist
Ġp rom
Ġd ri
Ġ =
Ġpres ident
Ġcomp any
re en
us ed
i ans
Ġal ready
Ġm at
ru ct
ĠUn ited
oh n
_ _
Ġwh y
Ġt y
w it
Ġb re
Ġu nt
Ġm oney
Ġal ways
Ġl ater
Ġex pect
ĠS o
Ġte chn
Ġbus iness
Ġs ol
Ġoffic ial
ĠH ow
ivers ity
Ġb ook
ĠO b
st and
Ġth ing
a ign
Ġcl ass
Ġpro ject
Ġcl aim
ĠP h
Ġj ob
Ġinform ation
as es
Ġor gan
Ġ Q
Ġt alk
r on
ĠS he
Ġdes ign
a ff
ard s
Ġch ang
Ġst ory
Ġm ajor
Ġab le
ĠB e
Ġ- -
Ġpro f
le ction
er tain
Ġre se
Ġhe alth
iv en
Ġv is
Ġf ree
Ġo per
ou th
ur s
he re
ĠA d
Ġa way
ĠC an
i or
Ġm ust
Ġc ity
amp le
Ġhapp en
uth or
.. .
ur al
Ġ1 8
Ġimport ant
Ġk ill
r ist
ur ity
Ġo ld
ac y
Ġp ast
pt ion
u red
Ġ est
Ġp at
Ġs k
Ġdoes n
end ing
ur y
Ġle ast
ĠS e
iss ion
s c
Ġg row
Ġed it
ĠG o
ain ed
Ġv ar
Ġc ost
Ġd ays
Ġte ll
ne y
Ġcamp aign
Ġh op
id es
Ġst re
Ġc ame
id er
s ide
Ġm en
Ġa ff
Ġcon st
Ġ1 2
o x
res ident
Ġen ough
Ġv iew
ĠM ar
Ġk ind
cc ess
Ġm aking
Ġl arge
Ġrec ord
o ad
ĠS p
Ġfam ily
Ġf riend
Ġm ar
el s
er n
Ġe lect
Ġpol ic
er al
Ġ1 5
us h
Ġt ax
le y
pp ed
is ing
al ity
âĢ ¦
iv ed
if ied
Ġunt il
are nt
Ġpolit ical
Ġde al
Ġv ide
ion al
r or
b y
A s
at or
ri es
Ġwork ing
al f
au gh
ĠRep ublic
Ġ ve
u ed
Ġto ok
Ġde b
Ġl ine
I f
ĠJ ohn
is ter
ain ing
Ġa ir
b s
Ġin tern
Ġf ore
Ġ es
Ġbec ome
Ġact ually
oc rat
i ol
Ġme an
Ġf und
ap s
an e
w are
on y
w ork
Ġfor mer
Ġof ten
ĠS c
ĠP l
ĠE uro
Ġw on
Ġg ive
Ġacc ording
Ġe ver
y ear
m ost
Ġpro te
ot t
ar ing
Ġg ames
Ġhum an
Ġwor d
Ġb as
en g
is on
Ġret urn
Ġt imes
w h
Ġor der
an n
ĠR uss
Ġn ame
1 9
Ġb it
iz ation
ĠD em
Ġse ver
ĠA ll
g in
Ġde v
o int
ĠC on
ic le
it her
ut ure
Ġp ar
S t
Ġ19 9
Ġw r
ĠA t
Ġs ing
Ġper form
i qu
Ġmark et
Ġchar ac
Ġf ac
ĠM c
The re
ra ft
f or
ĠS y
Ġdo ing
Ġapp ear
ĠM ay
id d
Ġr a
ĠO r
Ġplay ers
c hed
Ġle ar
Ġn ight
Ġl a
ak en
m ber
Ġto day
Ġe arly
Ġse en
Ġha ving
Ġchild ren
Ġ ,
Ġp ot
Ġev ent
Ġmed ia
Ġsoc ial
Ġc rit
ĠP resident
Ġwhe ther
Ġsever al
ro p
Ġcontro l
at s
id ence
/ /
Ġme et
Ġmil it
1 1
Ġw ent
Ġp ress
art ment
Ġf ive
Ġyou ng
or ies
Ġpro p
Ġsu re
ious ly
Ġe qu
5 0
Ġquest ion
en e
-- --
Ġo cc
Ġlike ly
Ġmem bers
Ġc ertain
ver t
un e
Ġen g
ĠY ork
Ġw ater
and s
Ġex ample
Ġs ide
Ġd one
Ġar g
ot s
ĠC ol
Ġ vers
Ġinv ol
i um
ĠSt ates
ĠEuro pe
ĠM r
Ġal ong
end ed
Ġsh ort
Ġan t
E R
Ġsu ccess
b r
Ġmonth s
ent ial
en n
Ġh our
s h
i ally
Ġ1 1
Ġse x
le t
b all
ĠS te
i ver
Ġwith in
A nd
Ġdes c
l f
Ġcour se
Ġf ight
im ate
Ġam ong
Ġact iv
ur ch
Ġon ce
ag ue
ub l
Ġf uture
Ġinvest ig
Ġposs ible
ĠOb ama
ul ation
Ġch o
Ġunder stand
e e
Ġcon cer
it ing
Ġ ]
u ff
n ect
st er
ĠC ar
ort un
ĠO n
Ġproble m
re w
Ġme ans
Ġpri v
Ġv iol
Ġa uthor
on es
gg est
it ive
Ġav ail
ĠN o
ĠB r
oc i
Ġkn own
âĢ ĵ
Ġprodu ct
our n
iv id
Ġthough t
Ġy et
Ġac ross
Ġloc al
g ress
Ġh old
Ġn on
Ġf ail
ĠW hen
ĠSt ate
Ġcommun ity
Ġre ason
Ġor ig
m y
Ġsu ggest
Ġ &
ĠT e
Ġm akes
al d
ver age
in c
Ġ201 6
Ġask ed
l er
p or
n ot
ed eral
Ġreport ed
b ack
b ook
Ġg iven
ens ive
ag ed
Y ou
Ġ i
Ġstr ong
Ġpro b
or ld
Ġother s
Ġm us
Ġbelie ve
Ġvide o
i ber
Ġget ting
Ġb en
ĠH ouse
Ġann oun
an ces
Ġl ight
ĠUn iversity
ore d
o ber
Ġ3 0
Ġ ident
it ions
Ġc ut
Ġs ent
Ġl im
ir on
Ġc a
ĠCh rist
1 2
iet y
ĠC o
ur ther
Ġs our
Ġc reat
Ġcon d
' ve
Ġn et
as hing
Ġb at
Ġn ational
Ġcl ose
. ,
Ġstart ed
Ġsa f
Ġde ath
Ġavail able
am s
am ent
Ġh ig
Ġb ased
Ġiss ue
Ġ X
Ġind ust
ĠDem ocrat
Ġl ow
Ġfollow ing
as ter
Ġacc ount
ĠM in
Ġl and
m ing
res ent
Ġem ploy
Ġl ove
ĠC ent
Ġ201 5
F or
Ġhist ory
Ġag o
Ġ #
sel ves
Ġm om
ort s
Ġpart y
3 0
u se
Ġser ies
Ġcom es
Ġtr ying
Ġal most
ĠA m
u ly
ab ility
get her
Ġto gether
ut es
ĠAmeric a
in ation
u ment
Ġide a
Ġacc ess
Ġf oc
ie f
il ar
her s
Ġcomm it
re ed
ail s
Ġis n
ition al
ĠF l
ĠS en
Ġcle ar
ĠO ne
Ġtr ad
th ough
ĠWh at
Ġ1 6
Ġadd ed
Ġpr act
Ġimp ro
p ro
Ġexper ience
e b
Ġh alf
ere nce
ust om
r ing
Ġh it
g ed
wit ter
r ict
Ġan al
ĠB ro
Ġpro t
Ġ201 4
int on
Ġr ul
Ġlook ing
ivid ual
Ġs ix
Ġl ive
Ġany thing
un ch
Ġare a
Ġcomple te
og rap
min ist
Ġm iss
A T
er man
ra el
ĠCom m
Ġf av
tem pt
Ġr is
Ġpres ent
ĠE x
n es
Ġsay ing
ru g
ĠCan ad
Ġv ict
ci ally
ot e
Ġb ad
Ġt aken
u ge
ra w
Ġent ire
1 5
a id
a f
Ġb ill
Ġcomp et
ĠW ar
Ġph ot
Ġbeh ind
at ors
ĠE ng
Ġm or
' m
ow s
Ġcour t
ĠP r
Ġtr y
Ġmilit ary
ĠT o
Ġne ar
ward s
Ġf ace
Ġa ut
Ġsec urity
Wh at
pl ay
os p
Ġm ult
er t
Ġ er
ĠP ol
Ġpro per
Ġ1 4
i en
Ġdisc uss
a i
Ġfil m
Ġth reat
Ġstud y
Ġr ather
Ġsing le
Ġind ividual
ĠB rit
ĠA f
Ġqu ick
Ġ Â
Ġto t
Ġs w
p s
ĠD on
Ġm ind
ĠS ec
ĠN orth
Ġp ubl
am ed
Ġ z
le ment
Ġpolic y
Ġm ess
ap er
al es
Ġwant ed
Ġf all
Ġbl ack
at ic
Ġf ood
Ġsome one
Ġs um
ar m
ir c
ll ing
p ar
ĠD ep
e v
Ġc ult
Ġspec ial
Ġ /
Ġcom b
r is
Ġke y
A n
Ġplay er
ĠM an
o ff
Ġre du
Ġbr ing
id s
Ġcomp an
Ġ |
O n
p ly
Ġat tempt
Ġ1 7
Ġ1 3
ro te
ĠG r
ĠN ational
I N
Ġt aking
ĠB ar
W hen
Ġ :
v iron
Ġf oot
ol ution
: //
Ġel se
if y
ĠC al
Ġb ody
Ġpre t
Ġsp ace
Ġprob ably
Ġc oun
ic ult
Ġfr ont
. )
Ġnot hing
Ġc ou
ashing ton
Ġcon nect
Ġrese arch
ĠCl inton
ĠW orld
el t
o ver
ĠI m
ĠC ity
Ġcom ing
c hes
s y
Ġpoint s
ĠIs rael
Ġhow ever
d d
Ġdesc rib
Ġj o
Ġsign ific
Ġsim ilar
li er
rem e
Ġben ef
c ing
Ġdec ision
ĠA ust
Ġe ither
Ġim m
Ġm ass
ac es
Ġt arg
ĠH ar
Ġs us
Ġfe at
ull y
a ult
Th at
g o
Ġex ist
Ġcon v
Ġ201 3
Ġen c
* *
Ġright s
Ġserv ice
as ing
ir l
Ġw rote
Ġf urther
Ġf ire
Ġd oc
Ġh ouse
Ġch all
Ġth ird
Ġprote ct
Ġb an
Ġf ig
O N
ro du
Ġw a
y n
Ġst op
Ġcre ate
Ġf ield
Ġp ick
ĠS u
an a
w w
ive ly
1 6
Ġme as
m b
S o
Ġiss ues
Ġre pl
Ġcom pl
ĠW ith
Ġbe gin
s w
R E
Ġst ep
pp ing
Ġwho le
Ġrel ations
n ow
Ġseem s
a pe
ri ed
ent ly
Ġsu per
Ġ )
Ġcompan ies
pe cially
Ġd ue
Ġex ec
Ġt em
Ġevery thing
Ġc and
1 4
Ġf ederal
am er
Ġst ates
Ġro om
Ġe y
Ġw atch
Ġtr a
Ġc ustom
Ġlead ers
ĠHow ever
p ite
ĠW ashington
e al
u ation
ĠJ an
ĠG u
Ġro le
Ġse lf
un g
Ġs ound
a ul
ĠG e
Ġofficial s
Ġl ab
Ġd am
Ġst ri
iv il
Ġ201 2
Ġinf l
Ġrele ased
il t
id ay
Ġt re
I S
ib ility
Ġbe gan
ĠIn st
ĠD av
o on
ĠS outh
ĠA pp
he ad
Ġo pt
Ġstud ents
r an
Ġt reat
Ġfin al
Ġcharac ter
ob al
Ġpos ition
Ġmat ter
Ġen er
Ġout side
Ġd ou
Ġdevelop ment
Ġhim self
Ġstate ment
viron ment
Ġ201 7
Ġab ove
end er
Ġst at
Ġbre ak
Ġam ount
ad es
se c
Ġprov ide
Ġin it
l im
Ġ1 00
Ġhour s
l ike
Ġit self
Ġthem selves
er y
Ġoff ice
Ġrep resent
Ġa ction
Ġbec ame
Ġ19 8
Ġcontin ue
Ġgener al
Ġcount ries
ĠIn tern
ĠP art
Ġd i
Ġadd ress
Ġne g
Ġg un
Ġtr ue
te e
Ġ2 5
ac ed
i od
Ġspec ific
Ġl arg
Ġsignific ant
Ġsim ply
C h
1 3
ar ter
l ish
A N
Ġwas n
' ll
ĠA ss
ograp h
Ġinter view
ĠR es
um b
ace book
as k
Ġg round
at t
Ġdiff icult
re g
Ġr ad
og n
Ġrun ning
Ġev idence
ĠJ ust
Ġad minist
o id
Ġc op
Ġvers ion
Ġd rug
og le
Ġag ree
Ġb ar
il i
Ġbuild ing
ĠCh ina
ĠE d
Ġneed s
idd le
e ks
Ġprof ess
Ġgroup s
Ġty p
re am
Ġshow s
Ġresp ons
Ġcomm on
B C
Ġevery one
ang u
l am
Ġd om
Ġneed ed
Ġd est
Ġwom an
Ġb all
ĠG erman
Ġl at
Ġbel ow
Ġmus ic
ĠS ep
Ġrele ase
Ġex c
ourn al
r ight
Ġin j
Ġpret ty
rib ut
l ight
Ġinclud e
Ġsa w
ĠM ed
if t
Ġde ep
ĠA b
Ġplay ed
b ody
Ġqu ite
Ġindust ry
Ġch arg
Ġener gy
Ġa p
Ġplay ing
Ġm ot
Ġcand id
Ġ5 0
Ġs ense
Ġm ag
Ġl ate
Ġph ys
Ġal leg
Ġwh ite
ĠH is
Ã ©
Ġfriend s
Ġleg al
Ġg en
s er
Ġan im
iv al
ĠA fter
1 7
at ur
H ow
Ġinst ead
w here
Ġab s
Ġb illion
Ġl ost
y le
Ġes pecially
Ġval ue
Ġre d
ĠW est
le v
Ġh ost
ĠM us
os ing
Ġh om
or ing
t ime
om m
Ġp le
ĠNew s
Ġwe eks
ĠN ot
cc ording
Ġfor ward
is c
ep end
Ġdet er
Ġe lection
Ġrecent ly
b o
ist ic
ag er
Ġj ud
Ġtr ack
iqu e
Ġvot e
Ġsu ff
ĠT witter
Ġob ject
Ġchang es
Ġper iod
med i
Ġopp ortun
ĠWh ite
ĠO ct
Ġlong er
Ġp ain
Ġso on
1 8
Ġs ite
A R
Ġ {
Ġac cept
ac hed
ĠC ong
Ġe p
ir t
Ġeconom ic
Ġsh oot
o ke
Ġhop e
l t
h od
ri pt
ir m
A S
ar c
Ġmom ent
Ġdec l
Ġcons um
Ġp ie
ĠW ill
le ge
Ġche ck
Ġt it
Ġpot ential
ĠM arch
Ġwr ong
Ġbl ock
ĠDep artment
Ġhig her
Ġc red
du ct
n ers
Ġon line
Ġfoc us
Ġcons ider
Ġed uc
on se
o e
anc ial
Ġ2 4
Ġwor ks
Ġrel ig
Ġp arent
Ġsh are
id ing
Ġc irc
Ġhe ld
Ġw alk
c ial
Ġp red
Ġwe bs
ĠM y
Ġl ed
ul arly
Ġre ve
m e
Ġl o
Ġst ay
ĠThe se
ke y
o le
ĠD r
ove red
Ġst ru
op h
Ġgo al
ĠRepublic an
Ġword s
Ġris k
le ar
ĠA ug
Ġso ld
Ġre view
Ġcont ract
Ġresult s
n s
Ġserv ices
Ġre v
Ġlaw s
The y
Ġc ode
ĠM ich
Ġw ind
Ġfun ction
c il
ĠSy ri
Ġa ud
Ġtot al
Ġc e
Ġart icle
Ġa ge
Ġapp lic
f ect
Ġmin utes
Ġperson al
ic ro
il ities
Ġany one
p ut
u ary
ĠJ une
i ents
i j
ur d
as ons
it ution
Ġtarg et
a ut
Ġpr im
ate g
Ġear lier
Ġfav or
Ġexp ress
h aps
Ġd en
ĠM e
Ġde ad
ang er
Ġan sw
Ġpop ular
Ġcomp ut
Ġup d
Ġne cess
pr il
Ġr ate
Ġv ol
Ġtechn ology
Ġres pect
ag ing
ap an
Ġen vironment
u le
Ġ201 1
f er
Ġrece ived
Ġexpect ed
A d
em ber
ĠP e
end s
Ġcre ated
Ġh y
Ġsur pr
Ġb ase
Ġant i
ĠJ uly
2 5
Ġproble ms
v al
Ġw ays
ud e
h am
ĠP ar
ĠS m
Ġp ort
Ġpriv ate
ip le
ĠN e
Ġincre ase
Ġsc ient
Ġannoun ced
u el
re et
Ġcom ment
Ġcan not
Ġeas y
ĠD o
act ion
Ġsh ot
ĠCong ress
Ġquest ions
P h
is l
Ġfor ce
al t
c he
ater ial
Ġimp act
et er
ĠM ond
r ay
Ġp ack
her n
pl es
ĠE n
Ġe t
ĠF acebook
Ġl angu
Ġ +
Ġp ur
__ __
at ives
b it
ĠG od
Ġinvol ved
av ing
ct or
ĠAust ral
ill s
A l
h ood
Ġd iv
= =
ues day
Ġexec ut
Ġmod el
on st
Ġspe ak
Ġst aff
Ġex act
Ġs en
le x
Ġc ivil
om b
it iz
Ġne arly
Ġty pe
i res
our t
Ġorig inal
Ġc ases
Ġcont ent
ok es
E S
Ġrelations hip
Ġ19 7
Ġter ror
ĠGo ogle
ĠFr iday
Ġle ave
Ġresp onse
n a
Ġins ide
Ġcap t
Ġ <
Ġf ans
ĠA pril
ll ed
ll ig
Ġintern ational
Ġco ll
Ġa verage
Ġhe art
Ġar rest
Ġbro ad
Ġus ers
ĠR ed
ĠC ount
ot o
A t
Ġw orth
Ġc ell
Ġl iving
Ġso ft
Ġc al
Ġn ation
Ġkill ed
T o
Ġreport s
Ġ201 0
Ġbec om
Ġ ur
Ġsour ce
ĠMond ay
ĠT uesday
Ġsub ject
ĠE m
c ast
re l
Ġwork ed
g ing
Ġim medi
Ġest ab
ip s
at ural
Ġresp ond
Ġass oci
Ġgl obal
b or
est s
tem ber
ĠAmeric ans
j oy
Ġcl ub
6 0
Ġch ance
Ġo il
Ġab ility
ĠA ct
Ġt akes
Ġde l
e ch
rough t
ĠP al
Ġwe ap
a el
Ġpr ice
ĠP er
op s
Ġdirect or
ĠJ apan
Ġwork ers
Ġter ms
it es
Ġro ad
Ġpubl ished
Ġt ou
olog ical
ĠWh ile
Ġph one
Ġcol lect
Ġfin ancial
Ġdec ided
ĠRuss ia
Ġm id
ĠS ome
Ġm other
ĠW ed
iz ing
os ition
Ġl ack
Ġdef in
he l
Ġs qu
is es
ove mber
Ġg irl
r ain
Ġst ore
Ġg ave
Ġ4 0
Ġbu y
Ġinfl u
m on
ĠCal if
Ġhappen ed
Ġrequ ire
k y
Ġl og
ĠN ow
Ġe mer
Ġf em
Ġcap ital
Ġfore ign
cl us
ĠS an
Ġcurrent ly
b ased
ĠO ff
Ġgo es
vert ise
Ġsit uation
ĠB y
ĠGe or
ov ed
Ġind ic
Ġoff er
Ġwho se
Ġ @
Ġm aterial
Ġl ives
Ġt al
Ġaff ect
Ġpl ans
ough t
nes day
Ġar ri
in o
Ġmem ber
ro wn
ĠF eb
Ġp ict
urs day
Ġpartic ip
Ġturn ed
Ġrec ogn
Ġev ents
Ġmet hod
ru ction
ĠJan uary
Ġnet work
ĠH ill
Ġteam s
" .
Ġmeet ing
Ġb ank
ĠS und
ct ions
Ġint rodu
f ully
es e
E N
Ġn orm
Ġsim ple
O ne
ĠIs lam
Ġh uge
ĠSep tember
Ġreg ard
Ġ ill
un t
Ġare as
ĠA g
ord er
ĠT V
Ġcou ple
Ġappro ach
Ġcare er
ĠC or
ĠAf ric
O R
Ġc y
Ġde li
Ġr ace
Ġperform ance
Ġp age
" ,
ĠG l
ĠN ovember
ou d
Ġto ol
tt p
ĠDav id
Ġf elt
Ġquick ly
Ġnum bers
Ġem ail
l oad
et y
Ġ2 1
Ġor d
Ġm is
Ġadminist ration
e es
ĠWed nesday
Ġvict im
Ġh on
Ġimpro ve
Ġv ia
ap t
ĠP aul
a ily
Ġeng ine
ist an
ĠE l
Ġte xt
a ur
o or
Ġp ull
ch ie
Ġr ound
Ġbu ilt
Ġf re
ĠA ng
ĠEurope an
Ġp ers
ĠTh ursday
Ġf ather
Ġl oss
orn ia
Ġ2 2
Ġth ous
Ġd ig
Ġprodu ction
ruct ure
Ġb oy
av y
l in
en ed
Â Ń
Ġhe ard
Ġeconom y
Ġen joy
Ġtr ade
ĠAug ust
um e
Ġwebs ite
d own
Ġco ver
Ġreve al
Ġsec ret
Ġw ide
Ġbo ard
Ġm atch
Ġallow ed
ĠC ourt
Ġsp ent
Ġhand s
Ġtra vel
e ed
Ġl ower
Ġre pe
Ġinclud ed
f ace
Ġpo ll
im ent
ce mber
ĠOct ober
Ġst e
Ġleg isl
Ġne igh
or ters
Ġb i
at ory
Ġbeh av
Ġkn ew
4 0
Ġwant s
us es
ict ion
Ġto wn
ĠBrit ish
Ġse par
âĢĿ .
ĠS ch
es tern
ight s
b l
en ces
Ġvis it
ĠCanad a
Ġget s
Ġper fect
re ct
Ġmove ment
an ks
Ġtri ed
Ġc ause
ess ion
age ment
is hing
Ġfor ces
ĠSund ay
? âĢĿ
g est
g round
Ġ }
Ġen s
W ith
A fter
for ce
ce ed
Ġatt ention
Ġpartic ular
ra z
] [
Ġve h
Ġb ud
Ġf ear
Ġpop ulation
Ġvar ious
Ġre ach
en ing
Ġlook s
ĠU K
ĠCalif ornia
Ġb rought
ĠK ore
Ġl ink
Ġv o
Ġ2 3
ib ly
ur ning
Ġprev ious
ar ily
Ġm ention
ĠI S
ĠRuss ian
Ġmor ning
ide red
' d
) ;
Ġgrow th
Ġf air
und red
S h
Ġfe ll
Ġpro gress
se qu
y ond
Ġs ong
all ed
Ġtr aining
c le
ĠS w
Ġs ize
ĠDe cember
ident s
2 00
Ġcont act
ĠQ u
Ġdem and
ĠBl ack
c ies
led ge
ak er
h old
Ġim age
Wh ile
Ġlead er
Ġr ac
Ġh or
Ġrul es
A L
ec ause
Ġl iber
ĠH er
i am
Ġse arch
Ġh ot
Ġpre p
Ġ ess
f ield
ific ation
m a
ĠP ost
Ġc itiz
ĠSt reet
Ġup on
Ġstru gg
Ġlat est
Ġind epend
c ome
u ments
Ġfeat ures
Ġco ach
in ks
z e
ĠP ark
Ġtalk ing
ond on
Ġf ast
ĠJ ew
Ġadd ition
s et
ĠC ont
ĠSen ate
ar th
Ġw ond
Ġst ar
Ġcons idered
Ġex am
Ġspe ed
---- ----
ra q
g es
ic les
ĠP at
Ġre b
ar ies
Ġlevel s
i ant
ĠT imes
ĠCount y
Ġinvestig ation
Ġsl ow
llig ence
E D
R e
Ġcon duct
ĠPart y
Ġmed ical
b ed
Ġm ach
im ately
ĠK ing
Ġa chie
Ġlangu age
atur day
O S
Ġc ard
Ġcrit ic
Ġs ort
ĠCent er
f l
ĠT ex
ĠInd ia
Ġp aper
Ġp en
Ġs n
om p
Ġ200 8
w o
Ġparent s
ys is
Ġu nd
Ġsex ual
ap h
Ġsystem s
Ġpri or
v ent
T r
u k
op e
A C
Ġdo ll
im in
Ġwrit ten
Ġsaf e
U S
Ġsp okes
Ġbo x
p ir
Ġsee k
Ġdoc ument
d e
Ġs ens
Ġincre asing
e ared
Ġhe ar
un k
ig r
Ġse ven
il le
u it
Ġd raw
ĠMus lim
Ġeff ort
at form
et h
ru ary
Ġjob s
Ġs on
ĠI ran
id ge
Ġcons erv
Ġext reme
9 9
Ġprev ent
Ġlear n
as c
he t
Ġser ious
sy ch
in ing
Ġreg ul
Ġr ange
Ġviol ence
ĠI raq
I T
Ġcomplete ly
r ast
Ġsur ve
our ces
ĠM ark
Ġ200 9
Ġ ...
u f
Ġin n
Ġmess age
ro om
Ġcon c
ĠCh ar
Ġinterest ing
Ġob v
Ġopportun ity
Ġsc reen
reed om
Ġcl imate
it ch
Ġmajor ity
ab or
Ġpartic ularly
Ġdou b
Ġdes pite
Ġj ournal
Ġclaim s
an ced
S he
ĠR om
ĠK e
Ġansw er
Ġsoc iety
ĠL ondon
ic o
e ff
Ġdef ense
Ġcar ry
ent ially
Ġgu y
ĠDon ald
Ġext ra
Ġattack s
am ing
Ġrequ ired
is ions
an i
Ġbig gest
vertise ment
Ġexact ly
ren ch
Ġp aid
ĠE ast
ens ion
ill ed
2 2
Ġexper ien
Ġare n
ĠM ore
h a
ly ing
Ġ â
Ġmod ern
ines e
Ġrem ain
uc lear
Ġqu arter
Ġoffic ers
O P
Ġh undred
I C
Ġex cept
i ers
Ġc ross
ib r
Ġt able
Ġpract ice
Ġn atural
ut ions
Ġm iddle
in ally
Ġcertain ly
ĠN et
ĠS aturday
Ġst ories
Ġd ro
m p
Ġ2 8
Ġproduct s
Ġ2 7
Ġhist or
Ġlook ed
Ġg as
Ġsomet imes
t r
Ġsur v
os es
n ces
Ġst uff
Ġsc ience
Ġfin ally
o o
Ġus er
Ġsum mer
Ġmov ie
er c
Ġbl ood
Ġcommun ic
Ġchang ed
osp ital
u x
Ġon es
Ġl ay
Ġlead ing
Ġdescrib ed
Ġa w
Ġe ight
Ġim ag
Ġter m
ĠFeb ruary
av es
ous ly
Ġpr ison
Ġcon vers
ĠS and
Ġdet ails
Ġstart ing
Ġqu ality
Ġocc ur
Ġshow ed
Ġn amed
Ġg iving
Ġp an
Ġrem ains
h ib
Ġreg ion
ĠS pe
u ing
ic ks
Ġprov ided
Ġcost s
Ġu lt
ĠMc C
Ġdam age
ĠS oc
Ġd anger
Ġf it
Ġm ob
Ġch ief
Ġpo or
ak ers
augh t
Ġp ath
Ġeduc ation
Ġmult iple
pp er
Ġcontin ued
Ġgrow ing
ad d
ĠT ur
Ġdem onst
en ge
ĠM or
Ġpart s
Ġ *
Ġwrit ing
Ġcom ments
ĠT H
2 4
Ġm ent
ar i
ar r
Ġ2 6
Ġmain tain
Ġass ist
Ġthink ing
ĠC he
ĠRepublic ans
ĠE ven
Ġpur p
n y
N o
in ary
Ġrequ est
Ġwr ite
Ġit em
Ġf ix
Ġp urch
ĠDemocrat ic
Ġd ied
ĠC oun
Ġread y
ĠD es
Ġwould n
Ġincre ased
Ġimp lement
Ġcult ure
Ġeff orts
id a
Ġvot ers
Ġc amer
ag o
ab les
Ġread ing
co in
f ort
mit ted
Ġm ill
Ġus ually
Ġcall s
im inal
Ġsp ot
Ġf ile
Ġeffect s
ĠS er
A M
Ġper haps
ĠG ener
et t
Ġal one
op er
F L
Ġal though
ĠF irst
Ġto wards
ĠLe ague
Ġcons ist
Ġgu ys
ĠTex as
Ġstand ard
Ġse lect
ĠB ill
ĠMich ael
Ġdirect ly
Ġbe yond
al y
ĠCh inese
Ġpl atform
p re
Ġce le
Ġ( @
Ġsub st
Ġh ous
ar ian
Ġspe ech
Ġreal ity
b an
it ute
us ing
Ġk ids
ĠM on
te red
ic ated
ĠJ ames
il es
Ġav oid
Ġthrough out
Ġfoot ball
Ġstud ent
y l
Ġcould n
I m
8 0
Ġimmedi ately
row d
Ġun f
Ġinclud es
Ġcho ice
Ġcon cept
Ġcent er
Ġro b
Ġsc ene
Ġadd itional
Ġcomple x
Ġchall eng
Ġc at
Ġw ife
Ġcl os
f ord
ĠC ons
Ġrese arc
Ġrec omm
Ġep is
Ġt ro
ĠMin ister
an ch
he st
B I
Ġdesign ed
Ġcor por
Ġs le
Ġrem ember
Ġsaf ety
Ġsoft ware
ĠInd ian
Ġg one
ĠâĢ ¦
ur t
z z
ou l
Ġse ll
Ġto ward
Ġag ency
w ise
Ġoffic er
Ġ il
Ġfig ure
Ġt en
Ġpie ce
ac hes
Ġbr ain
Ġbat tle
it or
ĠJ ack
Ġdeb ate
ast ic
Ġthous ands
Ġcoun ter
ag on
Ġ ver
air s
Ġop in
ress ion
Ġa head
A ll
Ġrel ative
ru pt
ic ient
Ġlet ter
ad em
Ġrece ive
port s
om en
im um
Ġpress ure
st on
ir th
Ġbl og
N ow
il ies
ur g
amp ions
Ġmov ed
ar a
Ġla unch
Ġappear s
Ġ >
Ġpass ed
Ġo ption
2 3
Ġs il
Ġcle an
Ġst age
ĠB o
ĠPl ay
Ġpre c
Ġ6 0
s p
ate ver
ol ute
ĠI I
Ġproper ty
Ġhelp ed
Ġ ut
Ġdri ve
ro y
Ġalleg ed
ĠApp le
m en
Ġtw e
Ġdis app
o es
Ġt our
Ġmean ing
ĠG reen
.. ..
Ġro ck
Ġdo g
Ġcr is
ĠAss oci
Ġsus pect
Ġd ate
j ust
ĠDemocrat s
Ġmov ing
ĠR ich
Ġsc ore
it ation
Ġorgan ization
augh ter
Ġcond itions
Ġtou ch
Ġcomm and
Ġd ark
Ġs at
ĠThe n
Ġre asons
Ġbud get
Ġ ign
Ġp ark
Ġn uclear
? "
Ġmy self
Ġhapp y
Ġdev ice
Ġdiffere nce
Ġde g
Ġn om
Ġmay be
Ġbegin ning
ri ef
Ġn ature
Ġfail ed
ber g
Ġcharac ters
Ġcop y
Ġcomput er
Ġf an
Ġenc our
Ġc ast
m ore
Ġ x
ĠS erv
Ġa im
Ġtit le
Ġcomp ared
ĠS im
Ġle ague
ch an
n ew
Ġw all
am b
Ġest im
ock ed
Ġcol lege
er ve
Ġey es
ĠSt ar
Ġsh own
Ġcent ury
ĠEng lish
Ġpower ful
iv ity
w ood
y an
ĠSu per
ĠD ay
ĠV al
Ġlim ited
Ġy es
O T
Ġcont ribut
le ase
Ġpos itive
Ġb al
Ġfor ced
Ġnecess ary
Ġb and
Ġsc he
Ġcandid ate
Ġref er
Ġbook s
Ġst ra
ain t
Ġdis p
Ġtr ust
Ġlarg est
ĠF rench
Ġconf erence
ĠH ere
ci ent
ĠR ober
Ġnot e
Ġanal ysis
ent y
Ġar ch
our ce
Ġsp ending
Ġpresident ial
uf act
Ġcitiz ens
ĠO f
Ġs al
Ġschool s
ĠSyri a
ig ration
Ġh ar
Ġth row
ĠM art
Ġa ware
Ġme ant
Ġexecut ive
ven ue
Ġevent ually
Ġfollow ed
Ġphys ical
Ġfe ature
ĠB en
Ġtreat ment
Ġf irm
Ġc rowd
or ks
a ud
Ġstre ng
Ġconf ir
Ġm ix
Ġb ott
ĠA ir
or ney
ĠW ind
Ġrelig ious
Ġeas ily
Ġgr ad
ĠT or
Ġp us
Ġ2 9
A D
Ġaut om
Ġco ol
Ġfam ilies
Ġ19 6
Ġil leg
Ġes c
ĠD is
Ġact ions
Ġover all
a res
ress ed
Ġallow s
r ated
ĠM ex
2 7
Ġg ives
b and
ĠÂ £
Ġfe ed
bo ard
Ġyour self
M y
Ġsus p
c raft
Ġd raft
Ġapp eared
) :
Ġdet ail
Ġinc ome
et ro
Ġsm art
b um
c ul
er o
Ġsign ed
Ġanal y
ir ing
Ġide as
Ġcent ral
en cies
ub e
Ġsen ior
ĠGo vern
B e
Ad vertisement
Ġfre qu
Ġweap ons
ĠB el
Ġdis play
A P
Ġan g
Ġprom ot
Ġn ice
Ġcred it
Ġdec ades
Ġpolit ics
I s
k en
Ġcr ime
B y
Ġp sych
Ġus es
Ġdis e
Ġdo or
Ġun ique
ĠIntern ational
Ġal tern
D on
A ccording
Ġs ales
Ġd rop
Ġs we
Ġl if
Ġdevelop ed
ut y
Ġcustom ers
Ġbenef its
Ġconf lic
Ġrel ated
ur ance
Ġcris is
ĠS chool
Ġm ist
Ġpred ict
Ġnot ed
ĠAustral ia
res h
Ġtr uth
i able
ĠE U
N ew
Ġgo als
ĠC ap
er ry
Ġindividual s
Ġch arge
Ġcontin ues
Ġbe aut
ĠUn ion
on ents
ĠE arth
ĠAr ab
Ġchall enge
Ġr ap
Ġapp arent
Ġst o
ĠAng el
3 5
ĠSm ith
ite ly
n own
Ġproject s
Ġpe ace
Ġl ic
Ġmeas ure
in y
ĠPol ice
in n
Ġcor rect
p art
m ar
Ġinte lligence
Ġprev iously
4 5
ĠChrist ian
ĠGerman y
Ġfull y
Ġr ule
b ox
Ġman ager
2 6
Ġr ates
Ġadv ant
Ġbro ther
Ġexp and
ot i
Ġcle arly
Ġl ines
Ġre form
Ġsuccess ful
Ġhigh ly
ri age
Ġlarg er
ch ange
Ġtr aff
r s
Ġseem ed
Ġsp read
ĠCoun cil
Ġstra ight
Ġcr iminal
i ance
ound s
Ġmin or
Ġprogram s
ĠGeor ge
S ome
Ġinc ident
I D
Ġres ources
Ġem b
ĠFr anc
ic ed
Ġgreat er
ĠCom p
Ġprim ary
E C
ow ers
Ġknow ledge
Ġstud ies
in ated
wh ile
ant ly
ĠT om
Ġsa ve
Ġke pt
at tle
Ġatt ract
ĠFl or
or ter
O M
Ġem ot
Ġsp ir
ate gy
Ġwe b
Ġfe et
Ġcol or
Ġre ached
Ġr are
sec ut
lev ision
Ġar m
ĠIntern et
ĠH igh
2 1
ĠBro wn
Ġfavor ite
Ġpl aces
d om
n et
Ġreg ular
ĠC r
e an
se y
ol ic
id ers
w ide
Ġman ufact
od ay
Ġla un
E T
Ġs end
ĠR ec
Ġknow s
Ġpre m
ĠD ef
Ġshoot ing
Ġactiv ity
Ġsour ces
Ġnorm al
ot a
Ġp un
ĠH am
ic it
ic ago
U n
Ġfight ing
Ġstat us
Ġr ise
I A
Ġvo ice
Ġown ers
Ġf ine
Ġca used
Ġclaim ed
ter m
Ġen em
Ġlit er
lic k
on ent
ĠGener al
Ġopt ions
Ġ200 7
Ġinte gr
qu e
Ġsp end
a ith
b on
ĠA nt
ĠR ob
Ġc ities
oc ks
eng th
ĠG old
ĠU p
Ġorgan iz
Ġend ed
us ion
Ġresearc hers
ĠM ac
ro ll
Ġcall ing
Ġsh ut
Ġref lect
m iss
2 8
il ed
E O
v ille
Ġpr ices
Ġal bum
âĢĿ ,
2 9
ĠE very
m ission
Ġemploy ees
Ġfem ale
ĠF rom
os h
ĠEng land
Ġwill ing
Ġv irt
Ġha ven
Ġra ised
ww w
mit tee
if ying
Ġsupp osed
Ġj ump
ol es
1 00
ro id
Ġhapp ens
Ġadd ing
u ana
Ġe le
Ġpolic ies
ĠL a
Ġn ames
it ness
Ġcharg es
Ġpro s
Ġtr ou
Ġbas ic
Ġconcer ns
rib ution
Ġtrad itional
m ark
or g
Ġwa it
iver se
Ġabs olute
Ġac qu
Ġh ospital
Ġpl ant
Ġfund ing
ad o
Ġsl ight
Ġpat ients
Ġcom mer
Ġauthor ities
ĠB re
Ġmin ister
Ġpr int
ĠB ay
Ġcreat ing
Ġh ttp
Ġf reedom
ro l
um an
A r
ĠM ag
Ġme chan
Ġsc en
ve re
ĠA P
Ġsee ing
ing er
Ġst yle
Ġbe at
Ġgr and
N ot
. âĢĻ
Ġl ik
Ġst ation
ĠSc ott
Ġp ush
Ġbehav ior
Ġle aving
ij uana
Ġb irth
Ġbe g
Ġact ual
Ġim pl
Ġens ure
Ġoff ered
se e
Ġagree ment
ĠFlor ida
ĠM o
k i
Ġc ry
ri an
Ġe th
ĠHill ary
Ġ ir
Ġpost ed
Ġweek end
on a
Ġgo ld
Ġob ser
ĠM ost
Ġg reen
Ġwe ight
ac ing
Ġey e
al se
so ft
Ġdeter min
Ġreveal ed
ic a
Ġmost ly
Ġapplic ation
Ġval ues
Ġv ac
r am
Ġprop os
ĠB er
ĠWe ll
ĠS un
H ere
ĠRe g
ĠA lex
Ġr ank
. '
ĠA ccording
it ude
Ġad op
Ġad ult
Ġestab l
Ġrecord s
ear ch
IN G
p en
Ġen force
ab y
Ġbelie ved
Ġpict ure
y a
tt ps
Ġb rief
Ġlear ned
ing ly
ĠL et
Ġstr ategy
Ġinst all
Ġapp l
ĠL aw
Ġcho ose
Ġm er
ign ed
Ġwond er
Ġd ire
Ġmass ive
P ro
ist ry
Ġqu al
Ġdev ices
p ri
S c
Ġbenef it
Ġpart ies
ĠCh icago
Ġlaw y
Ġw ild
ĠPe ople
Ġc ars
5 00
Ġarrest ed
ĠP ort
Ġwh atever
Ġm ount
ĠFr ance
Ġw at
ĠPh il
Ġprov ides
Ġwh om
Ġstre et
Ġass ault
Ġun s
Ġ ;
ĠO h
u ild
ĠTr ans
Ġask ing
Ġinflu ence
Ġjud ge
li ament
Ġl ose
Ġfeel ing
Ġoper ations
Ġprodu ced
Ġcrit ical
Ġf at
ĠM at
Ġtem per
7 0
t ies
ĠSec ret
Ġneg oti
Ġm ission
Ġ Ð
ĠL ou
ĠB ush
Ġim ages
Ġent er
Ġconfir med
Ġshow ing
c her
ĠSt ud
S A
Ġdist rict
Ġrun s
Ġpat tern
O U
Ġt end
Ġb order
Ġres idents
ri ption
3 3
Ġdeb t
p oint
How ever
c ont
Ġte ac
ĠCom mittee
g en
or ial
Ġc ru
Ġopp osition
Ġcele br
ak ed
m ine
Ġse ction
Ġdef end
Ġet c
Ġprodu ce
ĠHe alth
ĠW all
est ic
ĠComm ission
u gg
Ġdr ink
Ġindepend ent
ĠWh y
Ġbr and
ĠIn te
ent ed
Ġc ore
ĠP ress
Ġt ick
Ġdig ital
Ġadv oc
Ġhe ro
ic ial
Ġdoll ars
ĠM od
Ġeffect ive
Ġsol ution
r ont
ce ll
ĠB it
Ġinterest ed
st e
Ġv ill
ĠKore a
ud d
E L
Ġhig hest
ri al
Ġmem ory
Ġopen ing
Ġwor se
ag s
ra v
Ġlear ning
Ġrespons ible
oc r
Ġtri al
Ġthe ory
Ġd aily
Ġk ick
Ġoff ers
ĠO ther
ĠPal est
Ġrepl ace
Ġrest rict
ĠS am
Ġag reed
ĠOff ice
Ġte levision
ĠM al
ĠFranc is
ĠB ecause
Ġocc as
Ġm ur
Ġdet ect
ord s
Ġinvest ment
Ġtyp es
Ġtr ain
ĠW estern
icro soft
Ġv s
Ġmill ions
Ġmil es
Ġch air
ill ing
ic ians
ur ies
et ty
ĠJust ice
ci ence
i ation
Ġgener ally
Ġbas is
Ġprop osed
E x
n o
Ġche m
ĠM ike
ĠC up
The se
Ġhe avy
Ġexpl ained
Ġ8 0
ĠO ur
Ġm ap
L e
Ġpart ners
ĠM il
ĠD el
as te
Ġopin ion
Ġdef e
Ġon to
Ġb ur
C l
B A
Ġd er
Ġprot est
Ġassoci ated
ĠAd d
i pe
ĠN FL
Ġl oad
Ġm ale
az ing
ĠF ound
ak s
Ġbecom es
Ġre ject
ĠSec urity
Ġob tain
Ġco al
out hern
Ġdest roy
Ġadvant age
Ġass um
Ġannoun ce
Ġcond ition
Ġhundred s
a e
Ġachie ve
Ġopen ed
ĠL iber
ad ing
r ate
Ġunderstand ing
ĠJohn son
Ġsur round
I L
and er
w in
F C
com ing
ort hern
Ġinit ial
el ine
ic ip
Ġsle ep
v est
Ġmar riage
Ġman agement
Ġsh ip
Ġth us
ĠB ig
ĠWind ows
Ġb orn
od es
Ġbecom ing
Ġlim it
Ġeas ier
r ig
k nown
ĠG reat
Ġlegisl ation
Ġcontro vers
Ġun like
o om
Ġelect ric
o ly
Ġr at
ĠM any
9 0
Ġcamer a
Ġacc used
Ġphot o
Ġ Ã
Ġneigh bor
ber t
Ġdou ble
Ġspec ies
Ġ ice
Ġsh ared
we ll
Ġs pl
Ġjo in
r ad
Ġilleg al
Ġ3 1
wit ch
Ġ200 6
Ġmach ine
Ġser ved
re y
Ġextreme ly
Ġact ive
Ġdoc uments
Ġser ve
ĠL ab
ĠIslam ic
ĠJ er
Ġfr ame
Ġstri k
Ġaud ience
u pp
Ġloc ation
C on
Ġscient ists
ĠD ist
Ġvictim s
Ġbott om
Ġ3 5
Ġwe alth
Ġprofess ional
le vel
Ġredu ce
Ġbelie f
Ġres ist
Ġn ine
Ġwin ning
Ġmar ijuana
M r
B S
Ġneg ative
or row
Ġsol id
Ġcommun ities
Ġreturn ed
ortun ately
ĠA M
ĠU k
âĢ ¢
if ul
l ant
ĠInst itute
Ġinc red
Ġb ed
Ġdep artment
Ġch urch
ĠP M
ĠSand ers
Ġvict ory
Ġpurp ose
Ġr an
ĠComm un
3 2
G B
land s
ir gin
ear s
Ġveh icle
Ġleaders hip
Ġintern et
Ġ9 0
Ġam b
Ġmob ile
Ġb omb
ĠH all
ist ics
Ġinst ance
ol f
Ġsepar ate
i pped
Ġexist ing
Ġnot ice
Ġhe aring
gh an
P A
Ġexpl ain
Ġdoub t
Ġd ie
Ġf aith
Ġte ach
Ġepis ode
C C
Ġwatch ing
ĠY our
Ġcom fort
ĠCanad ian
at ically
Ġnot es
S T
ĠB ank
ĠF in
Ġf resh
Ġput ting
Ġview s
Ġrad io
ĠA tt
Ġsupp orters
Ġconserv ative
Ġp urs
Ġarg ument
ĠS l
ĠIn c
Ġun c
ĠF ox
Ġlaun ched
ĠE v
Ġapp eal
Ġitem s
h ouse
ac ity
Ġcommit tee
ili ar
sc rib
Ġdefin itely
Ġdanger ous
om as
Ġco verage
Ġdire ction
m et
Ġcharg ed
wh ich
Ġfl oor
ar an
ar io
ĠAr t
res p
Ġiss ued
ĠCar ol
Ġdrug s
ĠCh urch
w orks
as y
Ġs un
z a
i os
Ġm ax
Ġcompet ition
Ġback ground
ĠO ver
Ġt ask
P S
ĠM ad
Ġst ated
Ġtre nd
Ġm icro
Ġtraff ic
ĠF BI
Ġcommer cial
v ention
ograph y
ĠD irect
Ġsp oke
ill er
Ġh arm
Ġsuggest ed
Ġst ructure
Im age
Ġtrans fer
Ġset t
Ġsit es
ct ors
Ġh us
ĠS ince
Ġdec ade
in ct
Ġn orth
ĠL ike
Ġrest aur
Ġrepe ated
Ġlab or
ampions hip
and om
Ġre act
Ġc ards
Ġanim als
Ġno vel
go ing
ĠG ame
z en
Ġd aughter
Ġdri ving
Ġcl osed
Ġwor st
Ġentire ly
Ġcont ain
ur b
ĠBrit ain
ant ed
rib ute
l a
Ġd ed
== ==
Ġdri ver
g ency
4 4
Ġdise ase
Ġtell ing
Ġsmall er
ad y
Ġdisc overed
i pp
ak istan
ĠW il
Ġn or
ĠL os
om an
il ing
Ġh ack
Ġf alse
Ġconcer ned
Ġc ash
N A
b ut
Ġpl ays
Ġsur face
____ ____
f erence
ĠP ri
ĠQ ue
Ġsupport ed
! âĢĿ
Ġtool s
A meric
Ġcomp ar
Ġtrans port
i h
Ġexper iment
Ġfind ing
ĠCh ris
Ġc ateg
se mb
oy al
Ġas pect
ul ated
3 6
Ġbusiness es
e qu
Ġple ase
Ġold er
Ġfar m
ann el
s erv
Ġg e
ul f
Ġactiv ities
Ġrequ ires
ĠJ ones
Ġ7 0
Ġg ay
Ġstreng th
ph one
az on
Ġins urance
n ight
s pe
Ġwe l
Ġcon sequ
Ġlarge ly
Ġmur der
Ġc aught
Ġcandid ates
Ġex erc
and on
ĠIsrael i
Ġallow ing
ibr ary
Ġann ual
ad a
Ġtest ing
Ġbl ue
ĠA re
ĠU N
h ow
Ġstr ateg
Ġra ise
oss ible
he m
ĠRober t
ĠK en
o very
Ġst ock
E M
Ġdec isions
Ġacc ur
ic y
Ġcon text
Ġf uel
g u
ic i
ĠS up
ĠUk rain
Ġconcer n
Ġbelie ves
Ġaff ord
k ins
os ure
g a
Ġconst ruction
Ġtr uly
Ġun it
a it
ĠA c
Ġjust ice
Ġgener ation
iz es
Ġhigh light
igr ants
Ġt im
ĠM iss
Ġpres ence
ĠJew ish
d o
B l
ang ing
ĠAfric a
7 5
Ġgu ess
r ick
Ġw itness
Ġhold ing
3 8
Ġestab lish
Ġplan ning
Ġl ength
ĠG ree
it able
O L
ĠAfric an
Ġpl aced
Ġref uge
i us
ter y
ĠAf ghan
ck now
Ġc atch
ĠT re
ĠT y
ĠAssoci ation
Ġse qu
Ġtell s
Ġsc ale
Ġspokes man
ĠS il
an cy
N N
Ġr ough
l or
Ġatt end
ĠP C
Ġcell s
Ġs an
Ġjo ined
cept ion
Ġmention ed
Ġinterest s
Ġab use
Ġhas n
pect ive
ĠJ im
âĢ ĺ
Ġinit i
Ġenforce ment
n el
Ġintrodu ced
Ġdeli ver
Ġconflic t
ĠG OP
it t
Ġk id
M ore
3 4
Ġr out
oll y
ĠM icrosoft
Ġmiss ing
Ġprov iding
Ġwa iting
Ġcan cer
r im
Ġupd ate
Ġph il
S P
Ġrecomm end
Ġestabl ished
Ġe at
ĠAngel es
Ġocc up
ĠM er
ĠJ eff
Ġrem oved
Ġ200 5
ĠY es
ocr acy
av a
b re
Ġoff ensive
ĠP re
ĠFr ank
ĠInst ead
Ġinj ury
ĠV er
in ter
Ġdiscuss ion
Ġsp orts
Ġoper ation
ĠF ore
b our
Ġdown load
Ġuse ful
Ġtrans l
Ġconvers ation
Ġhom es
Ġf ant
Ġnews p
ĠC EO
Ġass ess
Ġs outh
Ġc ook
ĠG roup
Ġban ks
Ġsto pped
ron ic
Ġobv ious
Ġmeas ures
Ġmod els
Ġfour th
ĠCon st
form ation
ic ations
# #
ont o
se ason
Ġ201 8
Ġgirl s
Ġfil es
ĠLou is
ic on
D A
O ur
Ġst ick
Ġb ul
Ġman aged
is ation
wh at
ĠPalest in
Ġfig ures
v ant
app ed
ot ed
Ġident ified
ul a
um n
Ġgr aph
Ġfin ished
c ks
Ġfund s
az ine
ĠP akistan
Ġset ting
l ig
Ġconc lud
Ġcommit ted
ĠMex ico
Ġpre fer
Ġha ir
ĠJ ud
Ġsk ills
m ail
ĠT im
Ġappro pri
Ġfoc used
Ġspir it
Ġarri ved
Ġve ter
Ġhous ing
Ġkeep ing
Ġthere fore
ĠV irgin
C H
Ġa cknow
om s
Ġpart ner
and a
ro s
Ġex clus
ĠAnd roid
ig an
ĠLe g
ĠR ock
ĠTH E
ens es
Ġear th
ul ate
Ġt ough
ĠJapan ese
Ġrelative ly
Ġ200 0
ĠSup reme
5 5
it er
re al
g ers
Ġident ity
Ġfeel s
up s
ĠS al
Ġother wise
e y
ĠK h
Ġsurve y
pl ace
ĠR yan
it z
out s
4 8
Ġprote ction
Ġex change
3 7
Ġown er
itution al
Ġstep s
w ing
ow l
Ġhus band
Ġtri p
ĠM P
Ġtwe et
Ġslight ly
Ġconnect ion
ĠAr my
ic ation
is f
D es
ĠGovern ment
ere nces
Ġwe ak
Tr ump
ĠPro f
ĠIn ter
ĠM et
Ġele ments
e ah
Ġcirc um
Ġstri ke
ĠRich ard
Ġcl ick
Ġdef ensive
Ġphot os
Ġme re
" :
oc al
k in
ver se
! !
dd en
Ġg ain
im b
Ġdep end
Ġcol lection
ag n
Ġf le
Ġkill ing
Ġro ll
Ġcor ner
Ġsuggest s
uck y
u ct
ĠMart in
Ġag gress
igh ter
ony m
g ar
od ies
anc ing
Ġgu ard
Ġg ender
Ġcomm ission
hen s
ĠAl though
ĠCol lege
m akers
Ġment al
Ph oto
Ġam azing
pro f
Ġd at
r ange
r d
Ġplan et
Ġbig ger
ic ide
Ġfail ure
ren cy
Ġsupp ly
ĠTe am
ĠI r
ĠJ ose
Ġstart s
ĠD ec
Ġrem ind
Ġs ides
Ġfam iliar
P l
ĠS ur
hed ul
Wh y
re es
Ġspe aking
ĠO ut
Ġsu st
Ġtal ks
Ġhappen ing
Ġspe ct
Ġorganiz ations
u ate
Ġar my
Ġh ate
ĠN or
Ġwind ow
gy pt
Ġtax es
ĠJ oe
Ġn one
Ġplan ned
Ġthan ks
Ġdec ide
am m
Ġst ruct
Ġsu dden
ĠG ood
Ġw ish
ĠS ub
ĠM ary
3 9
Ġcar ried
Ġcre w
Ġp it
u ke
** **
an ia
w ith
G o
ag ues
Ġhelp ing
id ering
4 7
Ġreg ist
ost on
Ġa ward
R A
is er
Ġmult i
Ġstand ards
ĠM ont
Ġ3 2
Ġenvironment al
il s
Ġrev olution
ĠTh omas
yn am
Ġsecond s
ĠRes earch
L ast
Ġsc ript
ĠF ire
Ġscient ific
Ġimm igration
Ġstand ing
ĠThe ir
m as
ĠB ern
Ġdom estic
Ġqu e
Ġbe er
Ġp air
ĠAl so
ĠWe b
oc ol
ad ium
ĠSecret ary
a wn
ars h
Ġac adem
ut ers
st ream
Ġvar iety
Ġ4 5
Ġmark ets
Ġco ld
Ġdro pped
Ġter rit
Ġaccount s
p m
Ġfil ed
] .
ĠU s
im al
Ġbal ance
er ous
Ġimp ossible
4 9
! "
Ġt ack
Ġinter act
Ġneighbor hood
a ven
Ġdeg ree
Ġr ou
ĠAt lant
Ġturn s
r un
Ġposs ibly
Ġoper ating
Ġapp re
Ġaltern ative
g n
Ġun ion
h i
Ġvot es
Ġpr inc
Ġprofess or
el ess
it ect
Ġincreasing ly
Ġv ul
ĠServ ice
ol it
Ġfell ow
Ġapp ly
Ġcut s
y m
T C
Ġhon est
Ġdevelop ers
ĠPr ime
Ġs ch
Ġser ver
ĠSyri an
Ġapparent ly
Ġun ivers
H L
Ġl ived
Ġchang ing
Ġwor ry
ol a
ĠCarol ina
ru it
rast ructure
ĠT er
Ġtest s
Ġun its
R ead
ĠT wo
are n
Ġr ich
Ġhum ans
ĠFound ation
ack s
ict ed
c ious
ar ks
Ġag encies
ad ed
Ġsound s
Ġtw ice
ill a
Ġult imately
Ġl osing
ad er
Ġauthor ity
Ġsold iers
Ġphil os
Ġanim al
an o
ĠIm ages
as hed
Ġset tle
Ġsc hedul
ore s
ĠM os
Ġcorpor ate
Ġhealth y
Ġpay ing
Ġat h
Ġabsolute ly
Ġcol le
ste in
l o
Ġequ ip
Ġdevelop ing
ob by
Ġse a
Ġclos er
ay er
Ġinn ov
Ġm ut
Ġregard ing
Ġseek ing
rel ated
Ġexp ensive
ĠP et
i ams
ĠT ime
Ġposs ibility
Ġsk in
Ġbeaut iful
Ġrelig ion
f e
F rom
ĠCent ral
c oh
ans ion
v is
Ġexper ts
Ġap art
Ġy ards
ĠD en
Ġfund ament
Ġsol ar
ab b
Ġwrit er
Ġfl ight
rou d
ĠDist rict
Ġv ast
Ġde ploy
Ġad just
ĠL ast
Ġintern al
Ġimag ine
ĠP eter
âĢĶ âĢĶ
ĠUS A
ĠPl an
ĠU nder
ĠL at
ap ers
Ġapplic ations
ĠJ on
Ġv ision
ĠFrancis co
olog ies
ĠTor onto
Ġsit ting
k a
Ġun less
Ġtr ail
l ook
Ġ200 4
Ġhe at
Ġrespons ibility
ĠJ es
os en
Ġcap acity
st ate
E ven
ist ed
ĠM iddle
Ġer ror
Ġg ar
Ġsy mb
at ures
Ġar ms
Ġc overed
Ġapp oint
Ġfam ous
Ġf ol
Ġfor ms
ĠD an
Ġp il
4 6
idd en
Ġun iversity
p ire
i ot
ĠC amp
Ġt ight
Ġpresent ed
3 1
ĠB ur
Ġear n
ĠE gypt
ort ion
en ced
Ġconv ention
o ch
ain e
ov ing
Ġsurpr ise
Ġatt orney
Ġelect ions
Ġestim ated
ĠP ublic
Ġf if
ĠP ut
d en
O f
Ġte en
Ġveh icles
ĠAm azon
Ġint ended
ĠA ri
rib le
Ġinst it
.âĢĿ <|
Ã ¡
Ġhelp s
Ġoccur red
Ġo dd
Ġstre ets
Ġ= >
ĠB oston
Ġr id
Ġdeter mine
J ust
Ġsp ort
t op
ress ive
Ġexper t
ĠBit coin
p erson
Ġcons ult
= "
Ġbro ken
Ġgu aran
u zz
Ġf ired
ĠM ur
Ġfl ow
Ġdom in
ro ad
I M
Ġt on
ust er
por ary
Ġsh all
Ġtro ops
u nder
L et
w ar
I V
ur ation
ĠS ol
ĠS T
i as
ĠTh ose
C A
all s
le ts
Ġpie ces
ter day
Ġprep ared
ĠCh ief
ĠG al
Ġp et
Ġn ar
Ġrap id
ed er
ĠC ath
Ġloc ated
h and
Ġhy p
ĠSoc ial
Ġcon clus
Ġbring ing
Ġb aby
ĠM ass
Ġpro ve
Ġspecific ally
or age
in te
Ġpot entially
Ġse ctor
Ġse lling
ĠJ o
Ġgovern ments
Ġj ail
ĠO nce
Ġr andom
ĠAn y
Ġequ al
Ġf aster
Ġsc r
Ġhe av
Ġbo ost
anc he
ĠA N
Ġpropos al
Ġfact ors
Ġcl in
Ġpl enty
Ġequip ment
Ð ¾
Ġcoun cil
Ġer a
Ġinf rastructure
Ġst ress
ĠS pr
Ġst ars
ĠJ ournal
ĠVirgin ia
use um
end ment
ph as
cl ass
Ġvot ed
ĠV e
Ġpro secut
ve y
Ġb reat
Ġoff ering
Ġcar bon
I P
Ġexpress ed
Ġcomb at
Ġbro ke
Ġvul ner
ĠPar is
Ġcl ot
ri e
ĠR ub
Ġrul ing
ĠF ederal
Ġref used
ot y
Ġret ail
Ġelect ed
ure au
in ent
Ġdr am
ĠGu ard
Ġse asons
Ġsec ure
Ġconduct ed
ĠR iver
Ġ3 6
Ġchalleng es
g l
Ġmethod s
E very
Ġpoint ed
Ġrem ove
U p
Ġweap on
Ġrem ained
n oon
ĠIs land
ĠAustral ian
ce an
Ġpr ime
Ġm aster
Ġpos itions
Ġinf ect
Ġcritic ism
, '
Ġtr ig
( )
ĠO pen
is her
our s
ĠC ru
Ġd in
ĠMed ic
ĠP lease
i pping
D o
Ġs ale
Ġcult ural
Ġwere n
Ġsignificant ly
ock ing
ol ved
Ġb row
in i
Ġorig inally
ĠD uring
Ġaffect ed
Ġst ret
Ġappear ance
F irst
Ġfac ing
ĠM el
Ġgreat est
Ġt ourn
Ġfin ish
Ġyou th
ĠLe e
Ġpercent age
Ġc as
ĠF e
Ġdetermin ed
ĠWh o
Ġsign s
ĠS ant
Ġinvol ve
Ġthan k
I ON
ĠPh oto
A b
Ġb ought
t ion
Ġ5 00
Ġchem ical
ĠC ur
Ġsh ape
N e
on om
et ic
Ġte le
Ġreg ime
stand ing
th at
ĠI N
Ġg rew
ĠS ing
ash ion
C L
Ġrem aining
Ġv ir
p ired
ĠSte ve
Ġmin imum
Ġind eed
ĠS aud
ro g
Ġd ream
ly mp
ĠB oth
S ince
Ġm arg
Ġher self
Ġmod e
Ġvot ing
Ġobv iously
ce l
ĠCol or
ĠFor ce
h t
Ġredu ced
re ens
ri er
Ġrecord ed
EN T
Ġarg ued
Ġ199 0
Ġre venue
ly n
al ing
Ġt act
D P
Ġwe aring
O W
s en
Ġlead s
Ġw ood
Ġpolit icians
Ġpl us
Ġh un
igh ters
ord in
Ġcont rast
Ġpurch ase
Ġs witch
ĠN ov
Ġhand le
ĠR o
Ġth r
Ġcon cent
Ġpro ced
Ġag ent
ĠR em
ĠWill iams
Ġappre ci
Ġexperien ced
S te
Ġexc ited
Ġh urt
Ġh ttps
Ġvide os
Ġsupport ing
g ment
coh ol
Ġsurpr ising
Ġmin ute
Ġident ify
Ġconsum ers
Ġbel ong
Ġexpl os
Ġcons idering
ĠH aw
Ġair craft
c ol
Ġpull ed
Ġdiffere nces
Ġbas ically
Ġa id
ĠCons erv
T H
ĠP ac
ĠF ree
Ġre nt
ow nt
Ġafter noon
Ġgl ass
y r
Ġsh ift
Ġend s
Ġt urning
ed s
Ġb ound
Ġfil ms
Ġpros pect
Ġdep art
ess ions
ĠB ook
> >
Ġsp ring
ru ption
h ttp
og ue
ap ter
Ġtre ated
ll er
ĠChar l
Ġacc ident
Ġm ort
Ġlist en
0 1
Ġse at
Ġcomb ined
Ġmot iv
ed ia
Ġser iously
Ġpriv acy
, [
Ġconst ruct
od d
Ġeven ing
Ġopportun ities
Ġstrugg le
Ġpan el
Ġenem y
Ġlot s
Ġ19 5
Ġcomple ted
he red
Ġtalk ed
ĠP ower
Ġvis ual
ĠD aily
Ġhop es
ĠR ad
Ġpass ing
app ing
Ġapp s
H is
pt ed
ar p
I G
os ite
Ġi Ph
Ġwide ly
Ġcal cul
Ġemer gency
ĠSte p
l ife
An other
Ġsu it
k et
Ġe lement
ens ions
or al
Ġp owers
Ġ id
ĠSh ow
ĠB BC
h ab
ĠO lymp
Ġpl ants
Ġdisc l
Ġb urn
Ġfl at
Ġsub s
Ġliber al
0 5
Ġopp osed
Ġa st
ang ed
ĠH ol
Ġpro ceed
Ġcopy right
ĠSp ace
al ed
u ous
as p
ĠR el
Ġadv ance
Ġfact or
Ġ200 3
Ġdist ance
ive red
Ġattempt s
ĠPro ject
Ġdis miss
uc ks
ok ing
om pl
ra ud
ut s
W ell
Ġtrou ble
pl om
Ġcoll abor
Ġt un
ribut ed
ĠR oad
Ġenc oun
Ġz one
ab ilities
ĠJack son
Ġup gr
Ġdef ault
Ġrep orters
Ġre action
Ġfr ust
ra wn
Ġst orm
Ġwrit es
Ġh ol
ob e
P e
m osp
Ġtyp ically
ĠG et
I nd
ĠT oday
Ġp ages
ain ts
p et
id el
Ġinst ruct
ĠM em
Ġref erence
resp ond
Ġb odies
Ġpack age
S p
P D
Ġmat ters
un ction
Ġden ied
er ved
Ġdisapp oint
l ines
m ond
y th
Ġqu ant
-------- --------
Ġexpl o
m m
L E
Ġqu iet
tern al
Ġent ertain
ĠN AS
Ġopt im
Ġrespond ed
ne ll
Ġappro ved
st s
ĠTur key
Ġsat isf
Ġbroad cast
ad ow
Ġdis s
Ġinstit utions
Ġstand s
Ġad vert
Ġset s
ĠDirect or
ap ed
et te
6 4
es ters
Ġel imin
c are
f ree
Ġre new
ĠOh io
Ġval id
Ġse m
Ġse vere
Ġspl it
9 5
Ġcap able
is ters
ĠWill iam
ĠP enn
Ġ200 1
Ġs ac
Ġcapt ion
Ġp itch
est ival
Ġl oved
Ġ //
raz y
Ġtechn ical
Ġcl oud
Ġg iant
Ġm al
ed d
Ġtrad ition
ĠM att
Ġconf ident
Ġconf idence
T V
Ġnum erous
Ġreported ly
Ġcan n
ab in
Ġfac es
Ġb ull
Ġtrans ition
ani el
6 5
Ġwe ather
A m
ĠAfghan istan
Ġcre ation
Ġwas te
Ġpers pective
h ost
Ġun able
Ġf ly
ĠLab our
Ġfor get
ĠSy stem
] ,
at o
." <|
ĠY et
ell y
un te
as tern
Ġco oper
em ploy
Ġsubst ant
Ġsuff ered
Ġc raft
ĠS qu
z er
Ġviol ent
Ġco ast
Ġexperien ces
Ġpict ures
ĠMed ia
w ater
ang ers
p ass
Ġrou te
Ġappro x
amp ion
Ġadv ice
Ġdecl ared
ĠAnd rew
Ġord ered
Ġm and
Ġfl ag
4 2
Ġcr imes
w rit
Ġp roud
Ġreport ing
Ġmess ages
Ġco ff
ĠH uman
R ep
raz il
A pp
Ġfind ings
Ġcircum st
P R
S S
Ġex cell
Ġdecl ined
Ġexpl ains
Ġev al
it a
ac he
Ġdel ay
ab led
ĠF ollow
ĠW al
Ġnewsp aper
Ġshould n
Ġconnect ed
is hes
ok en
ul ations
us iness
Ġon going
ound ed
r ant
ĠL in
U T
Ġmov ies
Ġpick ed
il ty
ĠM a
du le
Ġad mitted
res ents
Ġdel ivered
r id
Ġv an
Ġgun s
ev in
D uring
il it
x ual
Ġwalk ing
Ġ \
Ġag ents
ion ally
ov es
ĠSc ot
Ġpr in
ĠM L
Ġg ra
Ġthough ts
Ġmar ried
Ġedit or
c alled
Ġem ails
Ġappropri ate
Ġem phas
Ġa uth
Ġarch itect
Ġle aves
Ġed ge
Ġupd ates
Ġacc ompl
u ations
Ġg ather
ĠMuslim s
Ġfor g
Ġquarter back
ĠGr and
Ġs ession
O ver
ans as
Ġpo ol
Ġinj ured
Ġpublic ly
ĠS cience
Ġstate ments
C ont
Ġper man
ĠS ov
Ġour selves
Ġconf irm
ĠW ood
Ġleg it
ĠL ake
Ġreal ize
ĠT ra
ĠTe chn
Ġdri vers
o oth
Ġar med
ner gy
O ther
Ġro t
ell ow
, âĢĻ
Ġlawy er
m ates
Ġread ers
Ġd ial
Ġr ail
re land
ess or
ĠD ou
Ġcont ains
Ġarg ue
our ney
D e
Ġf illed
Ġtal ent
Ġalleg ations
Ġactiv ists
c os
Ġs ad
ĠChrist mas
Ġ198 0
ĠMich igan
Ġd ynam
Ġbuild ings
Ġcr ack
Ġwe ar
Ġtrans form
4 3
ĠA v
ĠRe v
ĠRe ad
Ġterror ist
M any
c an
ĠR on
Ġexerc ise
T ube
Ġeffect ively
ĠB ack
Ġlab el
Ġt ree
Ġpract ices
ĠA T
Ġsub sequ
ĠS um
Ġexam ples
ĠI ll
Ġpat ient
Ġf ish
Ġsh op
Ġfl o
ĠJ ul
4 1
Ġobject s
ĠSe attle
ĠSe e
ent ure
Ġsecret ary
Ġmiss ed
Ġca uses
end a
ĠS her
Ġdeb ut
Ġr ain
Ġess entially
c ons
Ġte ch
l ong
Ġmor al
ĠUkrain e
as ure
Ġcent re
R es
ord ers
Ġs am
ar ters
Ġinj uries
g ia
ĠV ict
ĠR od
ĠW ork
ĠiPh one
ĠSt an
Ġart ist
ĠG en
F ollow
Ġth inks
d ate
Ġmot or
ic ing
Ġcl ient
Ġb ond
ĠT O
O h
ĠSaud i
Ġfact s
Ġdes ire
Ġp ure
ĠPh ot
ĠI D
I I
Ġlink ed
Al though
Ġgovern or
ar l
ou ston
ul s
Ġmaterial s
Ġperform ed
M A
Ġfr anch
or ry
Ġs ke
ag ers
Ġhe ll
Ġinit ially
Ġphilos oph
Ġnecess arily
Ġsu c
ac ter
ill y
Ġexp ansion
Ġschedul ed
Ġwar ned
ar n
Ġadv anced
ĠS ign
es ome
Ġdi plom
or se
Ġexpl an
Ġevery body
Ġj oint
Ġres olution
Ġincre ases
Ġdec re
Ġaccept ed
d ef
Ġvar i
ĠB at
am in
ad or
Ġfac ed
w ord
Ġmy ster
Ġinc or
Ġannounce ment
Ġfollow s
Ġn ations
Ġb are
ill ance
Ĥ ¬
en ger
az a
Ġplay off
ĠH y
Y es
ĠF er
Ġab andon
Ġ ing
Ġne ither
ĠM ount
Ġath let
ĠSec ond
Ġyes terday
Ġrad ical
Ġnear by
Ġdist ribution
Ġdat ab
Ġappl ied
Ġmag azine
ĠL ife
Ġconsequ ences
Ġlist ed
Ġdo ctor
r um
Ġsurpr ised
Ġat mosp
M ost
ĠCol umb
Ġoff ense
b ur
ĠC NN
Ġm ir
ir ty
Ġbeg ins
i at
Ġsp ons
Ġthreat s
g ent
Ġfor t
Americ an
Ġrep resents
ĠWe ek
ĠJew s
it ors
Ġmov es
Ġen h
Ġrem ark
ĠB et
semb ly
ĠG M
ath an
ot ic
Ġsong s
Ġbehav i
ĠA ff
T A
Ġadd s
Ġr ide
Ġimpro ved
Ġwith d
Ġal cohol
Ġwar m
i est
Ġfl ood
Ġout put
ĠDe velop
ed y
S pe
Ġp ra
Ġp hen
Ġb ot
Ġsh ots
w hel
Ġf ill
Ġst ood
Ġbr ings
Ġpus hed
ĠBl ue
Ġgu ilty
ĠRom ney
Ġsub scrib
ĠH en
Ġent ry
Ġa f
Ġ3 8
ĠB razil
Ġdem ocracy
Ġboy s
Ġal t
ocrat ic
ĠSw ed
r ich
ĠN BA
ĠK im
Ġro w
ĠR E
om in
Ġconf ig
Ġlaws uit
ĠI reland
Ġmanufact ure
Ġrece iving
Ġ3 3
ĠBar ack
Ġtot ally
T e
Ġdiscuss ed
Ġs ought
Ġr ising
Ġent ered
Ġrestaur ant
ĠIS IS
ĠOn ly
Ġconsist ent
Ġhistor ical
ĠBo ard
Ġt rib
The n
Ġre in
t witter
Ġst orage
Ġ3 00
Ġplan e
ac le
Ġcor respond
ĠV ol
ĠDe v
Ġcomb ination
Ġsc ored
Ġin put
l aw
Ġbr ight
Ġsymb ol
C an
k ay
Ġsuc ceed
Ġ3 7
Ġbut ton
Ġinvest ors
Ġ200 2
Ġcreat ive
st ood
Ġart icles
Ġsqu are
Ġis land
Ġdeath s
Ġclass es
Ġnet works
Ġfun ctions
Ġunlike ly
ri p
Ġhead s
Ġn ative
Ġb oss
Ġrough ly
ird s
Ġconsum er
al ty
ĠP rem
Ġl ie
f ortunately
ĠF ar
Ġheav ily
ĠMay be
pt y
Ġfair ly
ĠAn other
Ð µ
Ġtemper ature
al a
Ġexist ence
ĠW alk
Ġsa v
ER S
ide o
ĠAs ia
Ġstr ing
ic ian
ĠM s
ĠW he
Ġcont est
Ġres ident
ĠIt s
Ġpl ot
Ġtarg ets
ĠL ib
iss ions
Ġk it
ic ious
ĠKore an
ĠC ub
Ġyoung er
Ġres c
Ġcolle agues
us al
Ġl ock
ĠB ob
O D
Ġl ibrary
Ġr ally
Ġpar liament
Ġprot ests
Ġany where
ard en
ĠSt r
Ġb ike
Ġbre aking
du c
z ona
Ġstore s
Ġexpress ion
ĠS ports
Ġgr ab
ok ed
Ġwar ning
Ġimport ance
Ġdef ined
Ġbu ying
Ġbl ow
' ,
Ġch ain
Ġman age
Ġch art
Ġsy m
Ġadult s
Ġpro hib
m es
ic an
Ġclass ic
ĠE ach
Ġmarket ing
Ġc ere
Ġill ust
u y
Ġl inks
Ġs now
Ġsh if
Ġ4 8
S ee
Ġf raud
ĠCl ub
Ġfac ility
g reg
ĠS ky
Ġto w
T S
Ġhard ware
Ġalleged ly
ĠH ist
Ġregul ations
Ġsch ol
Ġdo ctors
Ġcur rency
Ġhouse hold
ĠColor ado
Ġrepl aced
Ġess ential
olly wood
Q u
iqu es
p ret
A dd
Ġsome what
Ġb on
b orn
and al
Ġprom ise
Ġfav our
Ġl augh
ĠR ights
Ġhold s
Ġopp osite
Ġmom ents
ĠD iv
on na
ĠB oy
Ġopp onent
Ġn av
P U
Ġh at
Ġact s
Ġcamp us
Ġbu g
Ġvers ions
Ġmot ion
d is
Ġev olution
omet imes
Ġv ice
ĠEx p
Ġr um
Ġmet al
ter ing
Ġse es
0 8
etro it
Ġrele vant
an ish
Ġindust rial
p ower
Ġz ero
Ġclose ly
ĠIm age
ag an
Ġs ick
ĠR am
Ġemot ional
ĠYou Tube
Ġfew er
Ġb ag
Ġdiv ision
ĠD C
ĠY ear
ch o
Ġhard er
Ġhop ing
Ġcustom er
het ic
Ġd ownt
w est
Ġref ere
Ġad m
ĠBro ok
ĠVal ley
hip s
Ġmechan ism
ĠAn n
P ol
Don ald
op y
ol ve
ock et
ĠH ouston
Ġreturn s
Ġh ur
Ġto m
Ġvol unte
Ġparticip ants
Ġext ent
Ġint ention
r ac
Ð °
Ġexcell ent
Ġacknow led
ĠSov iet
ĠE lect
er ves
ĠG ra
ate ll
Ġsqu ad
Ġcircumst ances
l lect
Ġf ashion
g ame
ĠG ames
Ġis ol
Ġimmedi ate
Ġsuff ering
om ing
it tle
al ian
ĠE ric
M an
Ġl ies
Ġauth ors
ul ous
O b
Ġt iny
olog ist
Ġg rown
Ġsy n
Ġbat t
ĠW atch
Ġimm igrants
Ġkind s
in em
om a
Ġche ap
Ġdetail ed
ĠM ot
Ġm ine
Ġfeat ured
ĠD ie
Ġcompet itive
Ġun us
Ġdescrib e
Ġme at
Ġfor med
Ġcarry ing
6 6
en a
Ġtourn ament
Ġrelationship s
Ġtr ick
ot al
cer tain
Ġfundament al
Ġ4 9
ord an
Ġcy cle
Ġter min
ut ch
Ġw ave
7 7
Ġsign ing
g as
ĠH ome
Ġc razy
ay ers
ĠG ar
c hen
Ġgu ide
ĠI P
Ġear ned
ef ully
Ġdec line
Ġw ins
ĠW ik
ĠCath olic
Ġreg ional
Ġem br
pr int
ĠPalestin ian
Ġstr ange
ens us
ĠW ay
ĠJes us
F A
Ġfrequ ently
ĠH el
Ġob serv
Ġan cient
Ġact ing
Ġman ner
Ġeff icient
f riend
ĠPut in
Ġpus hing
Ġcomfort able
ĠC IA
n ame
m l
st yle
Ġsh aring
Ġp ip
rom e
ĠE conom
Ġown ed
Ġsk ill
Ġw ire
Ġcommit ment
Ġinst ru
Ġalong side
ĠC ard
ĠL ong
ig er
ĠDav is
ĠA ut
Ġrefer red
Ġcontrovers ial
Ġart ists
u ated
ĠL ord
ob b
G et
Ġrepeated ly
Ġm outh
Ġe gg
ĠE ll
r ison
Ġc art
n ic
E n
c hers
Ġattempt ed
es c
we ight
oc key
Ġupd ated
Ġfem in
n am
Ġ3 4
Ġpre gn
ĠE r
Ġsche dule
Ġded icated
ĠS ar
Ġsent ence
Ġc ert
ĠC y
Ġup coming
p an
Ġcol umn
Ġdep th
ĠO ld
ĠT op
Ġpl ed
Ġj ourney
Ġvirt ual
ĠD own
Ġstru ck
u able
Ġreal ized
Ġstud io
Ġdes k
ĠP S
ĠO F
Des pite
ĠE nergy
Ġser ving
8 8
Ġwalk ed
% )
ce ived
Ġmed ic
O RE
ĠN Y
or a
Ġrep ut
ke l
an es
iam i
Ġk ing
Ġr ing
Ġur ban
ĠChar les
Ġtarget ed
Ġass ets
Ġch annel
ad el
Ġins pired
am ily
ĠAri zona
ograph ic
Ġnews let
Ġpost s
Ġhot el
Ġag enda
lud ing
F P
Ġun iverse
Ġt ort
0 6
Ġca using
f oot
Ġwat ched
Ġsu icide
h us
D S
ĠA L
Ġover whel
Ġsurve illance
ĠW ild
x y
Ġus ual
ĠSu pp
ĠC le
Ġchair man
Ġopp onents
Ġstre am
Ġint ent
Ġs ister
u gh
iven ess
L ike
Ġmain stream
um ber
v a
Ġlat ter
ĠCru z
ĠW ars
Ġl iqu
T wo
ĠD i
Ġsurround ing
Ġknow ing
Pe ople
Ġfol ks
Ġord ers
Ġh all
ph y
Ġobser ved
Ġliter ally
ri ve
Ġrem ote
ĠAg ain
0 9
ĠJ ava
Ġsubs id
so le
ĠDef ense
I R
g or
ĠR ight
Ġappro val
Ġd u
aw a
ĠM en
v in
Ġbas ket
Ġteac hers
P er
im ents
Ġs and
O C
Ġwin ter
Ġexc iting
ici ency
u a
r ations
Ġ7 5
Ġprotect ed
Ġcon gress
Ġnot iced
ren ce
Ġdeal ing
Ġform at
Ġprec ise
y ou
Ġsim pl
Ġdeep ly
ĠCh ild
Ġcommunic ation
Ġs ending
av or
ĠYou ng
00 00
ĠJ r
Ġfor th
Ġbat tery
Ġg ang
ĠT ay
Ġas ide
Ã Ń
Ġf asc
Ġfix ed
Ġn arr
Ġrequire ments
Ġw al
az i
Ġproper ties
ĠT al
0 7
ĠV an
Ġal ive
Ġnar row
Ġw ake
Ġpass ion
Ġsk y
Ġe ating
Ġmist ake
ab is
r ors
Ġexpl ore
Ġcoff ee
b ar
ens ity
onym ous
Ġ197 0
Ġra pe
Ġvol ume
az e
all as
Ġprom ised
i pl
Ġris ks
Ġd iet
ĠAr ch
b el
ĠP an
Ġex hib
Ġinvol ving
Ġswe et
Ġw age
Ġtest ed
Ġse lection
Ġn orthern
Ġdefe at
w oman
al le
Ġre ward
ĠEn ter
w art
Ġwel come
Ġext ended
Ġput s
Ġterrit ory
Ġne ut
ĠF ort
Ġun employ
Ġrefuge es
Ġphen omen
Ġs ample
Ġapprox imately
ĠPol it
Ġhe ight
Ġfl u
ĠK evin
Ġbl ame
Ġany way
Ġdestroy ed
ĠD etroit
Ġimp ressive
ĠBr ad
ĠStep hen
Ġg ap
Ġpro of
b urg
Ġun known
Ġloc ations
Ġcr ash
Ġd ry
ack ing
ĠM ax
Ġselect ed
as ks
Ġattack ed
ĠW at
et her
S e
Ġw est
ult ure
Ġmax imum
ĠM iller
ĠWil son
ap se
Ġprom ote
m un
Ġg od
ger y
Ġmere ly
M ay
Ġfranch ise
Ġshe l
Ġrequ ests
Ġret ire
Ġsudden ly
Ġslow ly
Ġprot esters
Ġdis ag
Ġteac her
ac c
ang es
ing u
âĢĻ .
Ġtyp ical
b oy
se x
Ġsh o
ĠT it
ĠW omen
Ġch ose
p ost
Ġcon ver
Ġmat ches
Ġlic ense
Ġproper ly
ĠC amer
Ġass ume
ĠF il
Ġdisc over
ĠCl ass
ob ile
0 4
F r
i ro
i xt
Ġwor ried
ĠIn s
Ġw id
og an
Ġab ortion
Ġall ies
or ation
iz z
Ġterror ism
Ġmod er
um s
Ġsupport s
ver ty
Ġarg uments
Ġob lig
Ġthem e
st one
ow ered
Ġfac ilities
Ġconf ront
Ġad apt
Ġsust ain
Ġrecogn ize
a ire
as er
ar ry
Ġe ast
ĠM ic
uild ing
g ender
st r
Ġequ ival
0 2
Ġf uck
Ġobtain ed
Ġpo verty
ig ure
ins on
R el
ĠIt aly
ĠL u
Ġnom ine
Ġde als
Ġfe es
0 3
l v
Ġcontro lled
Ġunder stood
Ġtop ic
ĠH ollywood
Ġcrit ics
Ã ³
ĠAg ency
l ies
ĠSoc iety
it arian
Ġr ub
ĠF ord
ĠJer sey
Ġso le
Ġvill age
ĠB est
l ist
ĠAd minist
Ġdi agn
ĠP R
Ġlik es
ax y
Ġp al
O r
f ire
Ġpun ish
Ġd ress
ĠGeor gia
5 9
Ġev il
ĠD am
Ġb unch
Ġjournal ists
ĠF our
ra id
6 8
ĠComp any
Ġexp osed
Ġreg ions
Ġcommunic ations
i i
Ġsche me
ar ity
Ġlim its
Ġtrans p
ce ler
Ġsome how
Ġst im
Ġstrong ly
ĠCar l
Ġresist ance
Ġhon or
Ġch ampion
Ġp ed
Ġdr ag
st ers
Ġph ase
ĠL abor
ĠNAS A
ast s
d ro
os is
ig g
c ript
Ġconst ant
Ġperson ally
Ġtr uck
Ġesc ape
Ġprof it
Ġcond em
red it
rim ination
ĠN HL
Ġb id
Ġfall ing
Ġdec k
Ġvac c
nes ota
k o
Ġsome where
Ġemploy ee
oc ation
ll s
Ġhar ass
ĠSt and
ĠNet work
ĠN ight
Ġbe ar
Ġcompar ison
GB T
ĠD un
Ġpoll s
p ool
ci ples
c ers
Ġs outhern
ĠSp anish
Ġem issions
Ġencour age
Ġdec ent
ĠC D
Ġin qu
at i
al o
ĠM iami
Ġem pty
J ohn
Ġh its
Ġdefin ition
pect ed
ĠL and
Ġdirect ed
ĠL ove
ort ed
V ER
ĠV iew
au g
Ġmeet ings
Ġwin ner
7 8
Ġf lex
Ġcomp rom
c ow
end ers
Ġgot ten
z ens
Ġ3 9
ĠD aniel
Ġp ic
Ġelectric ity
a o
ĠB ell
or ic
if orm
Ġoffic ially
Ġch osen
int end
Ġstret ch
ĠDes pite
ĠC am
Ġdatab ase
ĠTur k
ow a
Ġben ch
Ġstrong er
Ġinte llect
Ġpurp oses
ĠD NA
ĠK n
Ġcut ting
ost er
ĠE nd
Ġde leg
Ġsp in
Ġamount s
Ġext ensive
ick en
Ġtre es
Ġf old
Ġan x
ĠAs ian
Ġdes per
Ġide al
r ary
ĠT urn
Ġfif th
N C
ig ation
ret t
ĠO k
Ġth read
te en
ad s
p o
Ġgood s
p es
Ġdevelop er
Ġclaim ing
Ġcol on
Ġre tain
Ġcapt ured
Ġfind s
ĠTh ough
Ġdri ven
Ġpay ments
in er
ĠJ ordan
Ġt ies
Ġreason able
Ġs oul
Ġsome body
Ġend ing
Ġdog s
ĠN ations
Ã ¶
Ġcho ices
Ġse ats
ĠServ ices
Ġinc l
Ġd rawn
un ning
Ġeng age
ĠTh ank
m o
Ī Ĵ
Ġs ight
Ġthreat ened
Ġrul ed
Ġb le
ĠAtt orney
ĠIr ish
Ġtrad ing
Ġprim arily
An y
Ġpar am
Ġaspect s
Ġf ighters
Ġansw ers
Ġperfect ly
ĠSe a
Ġpark ing
Ã ¼
ir ms
Ġreject ed
ĠAc adem
w an
Ġr ival
as ters
ep ing
Ġconst antly
Ġpay ment
ow ed
Ġdist inct
Ġtechn ologies
Ġf lying
ĠD ar
Ġcomp onents
ĠScot land
Ġad mit
Ġelse where
ĠG all
Ġany more
a un
Ġestim ates
Ġr ig
Ġfield s
ĠH un
Ġp od
Ġsol utions
Ġresult ing
Ġconst it
Ġ icon
Ġprov ince
Ġaw esome
Ġreg ularly
Ġworld wide
Ġact or
ĠRe al
Pol ice
Ġcour ts
ĠMo ore
Ġnarr ative
Ġenem ies
ĠIn f
ĠU t
Ġmix ed
f ast
ĠC at
ĠD ark
ĠC ast
Ġhous es
O nce
ĠB ru
Ġt ur
ĠDis ney
se a
reg on
Ġno body
Ġb oot
Ġcontrol s
ĠW ater
Ġlet ters
ld er
ĠO S
< /
in ations
ï ¿
Ġout come
Ġmay or
Ġm urd
5 8
Ġ4 2
Ġcon tem
ic er
Ġap artment
Ġcoal ition
Ġcontribut ed
ĠSte ven
ĠB rian
Ġconclud ed
Ġex ists
ĠM S
Ġfound er
ag ram
Ġatmosp here
Ġt ank
Ã ¤
Ġprof ile
ĠAd am
Ġsit uations
t a
s hip
Ġbre w
ĠCh ampionship
Ġlo an
Ġincred ible
ĠL ight
ĠConst itution
C om
Ġaccur ate
C S
ĠA uthor
ĠL ew
Ġsign al
Ġemploy ment
ĠVict or
ĠW here
Ġcl ients
ĠS outhern
ap es
Ġkeep s
Ġcontin uing
." [
Ġinform ed
Ġbase ball
Ġt aste
ĠT em
Ġun p
r ates
Ñ Ĥ
Ġtick et
is an
ĠB as
ĠR og
Ġgener ate
ot ten
ear ing
Ġcon ven
Ġwe ird
6 7
Ġcateg ory
Ġt ied
se ll
il arly
Ġrout ine
Ġang ry
Ġra ising
Al so
Ġmach ines
Ġregist ered
ĠI d
Ġdem ands
adel ph
Ġpro ved
ĠC ivil
M L
Ġincred ibly
Ġg aming
Ġcru cial
ian a
ĠIt alian
C E
in ity
Ġst uck
ĠT w
ĠOr gan
ĠD allas
Ġter rible
im p
r as
Ġfeed back
ot es
Ġk il
Ġu pper
Ġpl astic
Ġnew ly
Ġconsum ption
ĠJose ph
5 7
Ġest ate
Ġdo zen
Ġent hus
Ġbill s
Ġcons cious
ack ed
Ġinn oc
the re
ĠSp ain
Ġim per
Ġwrit ers
Ġman ip
Ġaggress ive
Ġex cess
v y
Ġrep orter
on ic
m od
ĠC ross
Ġret urning
Ġst ead
Ġcomp ens
Ġprogram ming
Ġrepresent ed
Ġconclus ion
ur a
ĠTh anks
r age
ĠB owl
ific ations
Ġassist ant
T oday
Ġro ster
Ġorgan ized
ĠMin nesota
Ġr us
Ġorig in
Ġpen alty
adelph ia
ĠCon f
Ġdrink ing
S ec
Ġs atell
Ġpain t
ĠS k
A A
Ġcapt ure
ind ing
ĠPro gram
Ġexplan ation
if er
Ġcons pir
3 00
isc al
Ġcount y
Ġinter pret
l ock
E W
Ġassist ance
ons in
Ġcompl aint
Ġg ro
ess ed
isc onsin
gor ith
ĠRom an
Ġ %
Ġmag ic
Ġgr anted
ep t
Ġt all
ĠPar liament
ĠCont in
Ġcompl icated
B ecause
ĠO per
Ġn ut
ar on
Ġch ances
Ġaud io
of t
ĠA R
Ġext ract
Ġ199 9
Ġsh ares
Ġsuccess fully
Ġr u
ĠE duc
Ġ5 5
l ers
ann y
Ġpil ot
Ġtechn iques
Ġrec overy
Ġscen es
Ġhe l
ĠZ eal
s m
em en
Ġ Î
m ont
Ġmy th
ï¿ ½
Ġveter an
Ġ iron
Ġdeg rees
ĠC are
Ġ( $
es y
Ġsym pt
Ġlaw makers
ĠG i
Ġoper ate
ĠI T
Ġw estern
re te
Ġaim ed
l s
Ġad s
Ġha bit
act ions
Ġph r
id ency
anche ster
Ġeng aged
ĠT est
r ating
ri a
k er
Ġpriv ile
Ġr ating
Ġteach ing
Ġacadem ic
ĠW in
ĠE p
ĠH ot
Ġpass es
Ġthe rap
Ġdoll ar
Ġautom atically
! <|
ĠPac ific
Ġatt ended
Ġbl ocks
Ġmon it
k ed
ĠF re
Ġsurv ive
the w
Ġperman ent
ĠFore ign
st ar
Ġant icip
Ġmark ed
ab ama
Ġext rem
Ġh idden
Ġtit les
Ġt aught
ĠSen ator
Ġch at
ĠL ook
Ġen able
Ġacc omp
ĠN BC
it als
Ġb om
ĠS C
Ġel ite
ĠLin ux
ever al
Ġdep ending
Ġlawy ers
Ġind ex
Ġval uable
Ġinst alled
Ġch ampionship
rap h
ib ilities
re p
Ġdownt own
Ġcomp re
M P
Ġequival ent
O ff
Ġsol ve
Ġro ot
Ġd uty
Ġ6 5
Ġover se
Ġp ace
ch ain
ĠB ull
ĠSpe cial
ĠO s
Ġreput ation
ĠB usiness
Ġph ones
Ġun certain
19 9
e z
Ġperson nel
Ġvis ited
Ġsuff icient
r ific
Ġwar ming
ĠTay lor
it ar
Ġprin ciples
atur ally
Ġvulner able
Ġ6 4
he nt
Ġenjoy ed
u ine
Ġnegoti ations
Ġexp osure
Ġgener ated
Ġadv is
Ġf ake
Ġrec ording
M S
Ġregard less
Ġcollect ed
D r
ĠN ick
ĠK elly
Ġbit coin
Ġpattern s
Ġd ict
Ġe lev
% .
G etty
a ed
In st
U R
re ams
Ġp in
ĠA venue
Ġc up
Ġdis aster
er a
Ġc able
Ġmain ly
Ġwork er
ĠT ake
Ġrac ial
ĠAn th
ĠJ osh
Ġp ounds
ĠCo ast
Ġport ion
qu arters
Ġaf raid
ĠV iet
Ġdef ence
ĠE astern
Ġint ense
Ġtrack s
Ġbus y
mon th
ĠSer ies
Ġins pir
ĠT ony
ĠL GBT
Ġsur gery
Ġfun ny
5 6
y e
ĠSt ill
Ġposs ession
Ġap olog
ĠMos cow
act ive
Ġprom inent
b al
E d
ĠC all
Ġcom ic
Ġsh it
Ġengine ering
Ġth in
Ġtrou b
Ġprocess es
ĠM ars
ĠN ation
ĠK urd
im a
f rom
ĠC oll
ĠC ome
m al
Ġunus ual
as hes
u an
Ġent it
Ġdescrib es
Ġ âĢĻ
ĠK ent
or ne
ĠS n
Ġresult ed
ĠA h
Ġemer ged
et ary
Ġtax p
Ġb es
ĠR ay
ĠI owa
ĠO regon
Ġcor ruption
Ġbl ind
Ġst ations
ath y
Ġf ought
Ġprop ag
Ġco ordin
Ġext ension
Ġadop ted
Ġcompet e
Ġg all
Ġrec ru
ĠZeal and
ĠIn vest
Ġhad n
Ġbr ut
Ġgr ant
ĠG er
Ġevery where
pr ise
Ġ4 00
Ġd im
Ġcontract s
Ġm ail
ĠB alt
he rent
8 6
al i
Ġfeel ings
M ean
ul es
Ġf irms
th is
Ġminor ity
idel ines
Ġadvert ising
Ġrare ly
ĠR ick
Ġdisc ipl
H S
f all
ĠA D
ind er
ĠDe ad
ĠA li
âĢĻ ,
Ġsan ctions
ĠN orthern
ĠPhil adelphia
Ġcry pt
Ġcamer as
ic ate
Ġsp r
Ġexpl icit
Ġstr ict
Ġfin ance
Ġc ited
Ġen orm
Ġshort ly
c les
v iously
ĠBe fore
Ġexpect ations
L A
az z
ĠPol icy
Ġimplement ation
up id
m aking
ã Ģ
f ront
il er
Ġne uro
sc ape
ĠGree k
Ġrec ip
Ġthous and
Ġth ick
ĠI nt
Ġl oud
Ġaff ili
ll a
if ies
ĠN avy
Ġin ev
Ġphot ograph
or ough
Ġmed ium
cl ing
Ġscen ario
ĠW isconsin
ist ent
Ð ¸
Ġvis ible
Ġve get
Ġpl ug
ĠF ood
Ġlight s
c r
Ġprior ity
Ġcreat es
E A
Ġbr idge
man n
ant ic
ĠL ive
Ġag ric
Ġper mission
Ġob st
Ġparticip ate
Ġal gorith
Ġsu p
g un
ĠH om
il ton
Ġbrow ser
ĠF oot
Ġw ing
Ġdo zens
t es
b ro
Ġac celer
ĠPro te
Ġcomput ers
Ġv en
c us
iz on
Ġloss es
Ġbasket ball
Ġla id
ĠGl obal
ink ing
Ġhistor ic
t est
ĠKing dom
Ġh o
w orld
Ġt ag
re f
ĠAm endment
as ion
Ġstrik es
ask a
Ġprinc iple
ĠDevelop ment
Ġsc oring
ur rent
at hered
Ġcoun sel
) )
Ġform al
Ġun w
og ether
ol t
R ec
5 1
Ġwonder ful
Ġsh ock
wh o
Ġbeh alf
ĠAs h
Ġm el
Ġ4 4
prof it
ĠH as
Ġestablish ment
d a
Ġinter face
ĠHen ry
5 2
ĠM u
Ġun com
ĠS af
Ġto ler
ĠTh us
ĠG reg
Ġg ained
Ġt or
ĠM ajor
Ġfound ed
Ġfound ation
Ġfe e
Ġclub s
Ġ15 0
Ġcann abis
em s
Ġair port
ĠE SP
Ġb orrow
et ime
Ġmanufact uring
Ġre ly
ili pp
am ber
Ġgen uine
ĠAl abama
ĠR oyal
5 4
L C
Ġcomp onent
Ġrel ief
Ġjournal ist
Ġrid ic
P r
Ġwhe el
rat ors
Ġsa ved
r ative
ent h
AT E
ĠH it
ĠO l
Ġhead ed
Ġj u
Ġh ole
Ġy ield
ĠO ak
Ġ4 7
ĠP ay
Be fore
ĠKe y
Ġg ift
Ġf ault
Ġindic ate
Ġwithd raw
og en
ose xual
e lect
Ġdraw ing
==== ====
le te
Ġsh ips
Ġun iform
Ġ- >
Ġban ned
Ġst able
ar lier
M e
epend ent
Ġfoot age
Mean while
Ġmag n
Ġdo ors
Ġrecogn ized
ĠR and
Ġ19 60
Ġcont aining
ĠS P
C ol
ĠM oh
Ġstrugg ling
p read
Ġachie ved
Ġwall s
ĠAcadem y
Ġr iver
ĠF C
b ell
Ġneigh b
Ġed ition
Ġpl ate
Ġsp ark
an ing
Ġmove ments
Ġcy ber
oun ced
port ion
l og
ĠM id
Ġdeli ber
Ġsh arp
ig en
ĠV is
o z
rou s
Ġepis odes
ĠH T
ĠPrem ier
ĠTh ree
ol is
Ġneut ral
op her
Ġexcept ion
Ġprodu cer
.... ....
Ġdest ruction
Ġ199 8
ul ating
we et
Ġbelief s
y stem
ĠF und
Ġback ed
: <|
ab s
ĠRe view
Ġh ired
Ġp ump
Ġlik ed
ides pread
ĠS now
Ġleg end
et ts
m ate
Ġro les
ĠF red
M ar
Ġlangu ages
Ġent ering
Ġprofess ion
u ce
ou red
um er
Ġinterview s
Ġphilosoph y
6 9
ĠAdminist ration
Ġar range
ĠA S
ĠR et
Ġfl aw
Ġh ang
a us
c ription
Ġto x
ĠMc G
c ar
U s
Th ose
s he
ĠAtlant a
Ġst adium
ĠV R
Ġdin ner
Ġredu ction
sy lv
inte rest
Ġb ath
ĠTurk ish
ĠN ob
ĠCon ference
ĠRep ort
Ġtack le
Ġg onna
Ġa ver
ĠN ote
ĠDie go
Ġc rop
im ore
Ġf inger
Ġfarm ers
ĠCent re
Ġnomine e
ĠM anchester
l an
Ġ4 1
Ġbare ly
ĠJ ac
ĠJ ason
Ġstruct ures
Ġcont ained
Ġch a
u er
b a
bur gh
o en
ĠK ir
Ġdeli very
um in
Ġconv in
Ġdisc rimination
Ġprocess ing
P ost
Ġinc ent
% ,
Ġsy nt
ach ing
AT O
ĠO tt
ri ers
Ġintellect ual
ĠF air
abin et
ĠAr m
B O
U L
ams ung
ĠD ata
S ub
E P
Ġup set
ĠF ield
ĠRad io
ĠPer haps
ĠEduc ation
Ġchalleng ing
sylv ania
ĠO K
5 3
i el
ĠD id
Ġrestrict ions
ĠB ry
Ġpro ven
em an
t hen
Ġfore ver
os a
Ġelect ronic
Ġhit ting
P resident
C o
Ġreview s
ĠChrist ians
Ġconv icted
Ġill ness
Ġun ex
Ġsm ooth
Ġindic ated
Ġret ired
is p
Ġprodu cing
Ġrapid ly
Ġe uro
ĠAb out
ĠHar ry
4 00
Ġ4 3
us ive
Ġcorpor ations
Ġro se
ĠH ay
j o
n i
Ġlist ening
ĠF ed
ol en
ĠM ir
Ġh ide
Ġo cean
ĠRe uters
Ġtechn ique
ĠU FC
Ġl oyal
ĠP oint
aw ay
Ġnot ion
Ġcl imb
Ġbeg un
Ġrecogn ition
am i
8 9
Ġrob ot
g ener
Ġassoci ation
ĠR us
eng ers
Ġas ks
ĠH or
Ġwebs ites
Ġper pet
ow ing
Ġut il
y ard
Ġtick ets
Ġmil k
Ġdesc ription
ay ing
Ġsuggest ing
sel s
less ly
p age
ou ver
Ġexclus ive
ĠJud ge
h ttps
Ġreach ing
ĠN ic
Ġfl ash
ĠK ansas
ĠP ack
ach us
Ġprep are
U N
Ġprogress ive
Ġb urd
Ġb ail
Ġequ ally
Ġex ceed
Ġhard ly
8 7
Ġw idespread
Ġb ra
Ġcampaign s
ĠS at
Ġcont ribute
ĠMay or
Ġre n
Ġfr ag
ĠA BC
Ġ4 6
Ġbr anch
Ġiniti ative
Ġeth nic
Ġgr ass
Ġex ternal
D av
Wh o
Ġsens itive
Ġpract ical
Ġnorm ally
Ġunc lear
R S
ĠMark et
Ġrepresent ative
ĠP en
ĠH ard
ri k
ĠR ose
ĠC irc
Ġwe lf
Ġredu cing
Ġcare fully
Ġfriend ly
ĠArab ia
ud es
St ar
ust ed
enn y
Ġrac ist
Ġrespect ively
f ound
ĠF ull
L ook
ri ent
h y
Ġex em
ob s
Ġinv ent
c a
: :
Ġoverwhel ming
Ġview ers
ĠMcC ain
ĠBern ie
Ġwelf are
ĠF urther
Ġconvin ced
Ġinvolve ment
Ġcoll apse
r ical
ĠBe ach
anc ouver
Ġsm oke
Ġth rown
arr ass
Ġconnect ions
Ġterror ists
Ġt ail
ĠL uc
Ġstrateg ic
Ġrec over
olog ists
he ast
ĠLat in
Ġh ook
ik es
rat or
um es
ĠL o
ĠESP N
ĠB attle
ĠR ef
ĠC O
Ġsettle ment
ĠL ind
Ġmind s
Ġw ine
Ġstat istics
Ġm o
f are
Ġl ists
b ec
Ġv ital
Ġv ary
ĠO nt
ino is
Ġfeat uring
app y
igr ant
Ġbehavi our
Ġindepend ence
ĠNe xt
ĠMus ic
ro lled
achus etts
u per
pl oad
Ġfant asy
Ġdev ast
omet hing
Ġcompl aints
Ġinv ited
ut ies
Ġjo ining
Ġscore s
Ġf iscal
Ġdeep er
ĠPenn sylvania
ned y
ec ut
8 5
um a
Ġst eal
Ġdep uty
Ġan ger
Ġel ig
ĠL y
Ġw ars
Ġinvestig ate
ĠSqu are
im m
ĠS ir
Ġconst itutional
R ef
Ġschol ars
ĠII I
Ġany body
Ġsubject s
ĠT enn
Ġsu gar
Ġi OS
es ter
ĠD ig
Ġar ray
ĠT own
ion e
st ract
Ġowners hip
Ġframe work
Ġunemploy ment
Ġl obby
Ġal ien
ĠDiv ision
Ġtrans gender
Ġimprove ments
I F
Ġpe ak
ĠG ov
Ġmen u
ĠP it
Ġin ject
Ġt asks
Ġdef ine
Ġdem ocratic
if est
Ġl uck
Ġsc reens
l ad
ĠX box
ivers ary
P M
Ġsc andal
Ġj ury
ĠMin istry
Ġcompre hens
Ġdisc overy
ĠAnt on
ĠAN D
ou ch
Ġcas ual
P G
Ġrem em
Ġcitiz en
Ġ 00
ih ad
it i
Ġroad s
Ġdisag ree
Ġfail ing
Ġreg ister
w orth
un ior
ĠS S
Ġser ves
ick ing
ĠCamer on
Ġg athered
Ġdynam ic
c ore
Ġtest im
ĠIn formation
ĠN ever
Ġimplement ed
ĠBro ther
Ġcontrovers y
Ġc os
Ġcollect ive
ĠL ittle
Ġtr ained
ĠU lt
Ġf ab
Ġfear s
ĠN SA
Ġguaran te
Ġneigh bour
Ġsam ples
Ġpro sec
Ġf iction
Ġs oph
Ġest imate
level and
ĠSt one
ĠCommun ity
ĠMed ical
Ġ199 7
Ġrefer ring
Ġ199 6
ĠPh ilipp
Ġcap tain
ĠSep t
Ġsp aces
Ġvers us
Ġleg s
ab il
ĠJ ay
ĠWalk er
Ġtem porary
ĠSant a
Ġno ise
Ġt ip
od ing
ĠI ce
Ġt one
Ġincor por
Ġcivil ians
Ġvisit ors
Ġw ages
Ġt rem
Ġre ven
Ġrem arks
ĠK at
U nder
Ġhyp ot
Ġaware ness
Ġrecomm ended
Ġover t
ĠH D
Ġhead ing
Ġst upid
Ġhand ful
ĠAll en
c ific
ĠE s
Ġreg ulation
os it
p at
d em
ast y
Ġplatform s
ĠO N
ĠAnth ony
Ġacc us
Ġaff airs
ĠSpr ing
Ġtouch down
ĠA ction
Ġattack ing
Ġr ural
Ġs in
Ġult imate
Ġatt ached
Ġext end
Ġdiscuss ions
Ġattempt ing
Ġexpand ed
ĠC ore
Ġgen etic
ĠVe gas
________ ________
b n
Ġr aces
ĠMat thew
el and
ĠColumb ia
Ġrep rodu
Ġhor se
Ġign ore
inc luding
ĠQue en
Ġsympt oms
ĠB rew
ph ones
ĠGuard ian
Ġsuff er
ition ally
ĠPat rick
Ġsett ings
Ġr aw
Ġg ear
Ġsal ary
ĠC ook
ick et
Ġlic ens
B ack
Ġtweet ed
Ġi P
Ġro of
W ill
ĠM ake
h our
Ġpublic ation
Ġsuspect ed
Ġrec all
Ġpurch ased
Ġfact ory
Ġinter vention
ĠP ent
ann a
Ġeas tern
ĠM ah
Ġbr ill
Ġhol iday
ac on
Ġprom pt
7 9
Ġdis pl
Ġrank ed
ir y
ĠAust in
Ġthe at
ĠConserv ative
Ġne ck
j a
ĠM useum
Ġenorm ous
h o
ĠB udd
Ġimprove ment
Ġview ed
Ġlog ic
Ġentertain ment
c ase
ĠAP I
Ġlegit imate
Ġing red
m ary
Ab out
ĠR oy
ĠProf essor
ĠMass achusetts
Ġ201 9
Ġc ogn
Ñ ģ
intend o
Ġpres um
ict ions
ĠAl bert
yth on
Ġw ww
omm od
' .
Ġact ors
ty pe
Ġhuman ity
ult ural
Ġinvol ves
Ġsubstant ial
Ġres ource
Ġc ro
Ġbrother s
are t
Ġseem ingly
Ġs orry
Ġr ational
ĠB all
Ġlay er
Ġlo ans
Ġinvestig ating
Ġabs ence
Ġliqu id
Ġprov iders
Ġro ok
Ġfall en
Ġground s
Ġtom orrow
Ġco aches
Ġb ureau
7 6
Ġst ake
Ġadvoc ates
Ġres ign
Ġinvestig ators
Ġâ Ĥ¬
ag g
Ġconspir acy
m ad
20 14
Ġmedic ine
Ġdram atic
Ġout s
Ġf ulf
Ġch apter
M c
ĠSe ason
Ġmon itor
ĠCh air
S en
ang el
Ġactiv ist
Ġbo at
Ġsusp ended
ar ms
Ġp apers
C he
ĠGree ce
" )
ĠCont rol
re pre
Ġopin ions
W here
Ġmiss ile
Ġstay ed
Ġover s
Ġd iversity
Ġco vers
ĠRev olution
ĠChe ck
iver pool
Ġj ur
ĠGold en
ĠS uch
Ġb ars
Ġc oc
Ġcele b
Ġoffic es
Ġemb arrass
. -
ĠIran ian
ov al
ĠR oss
Ġdis rupt
Ġcare ful
oty pe
P C
ĠHe ad
Ġpre ced
Ġfore st
R I
we red
Ġam id
ple te
ĠH ospital
Ġg am
ĠHist ory
am med
x it
ĠC BS
ĠIll inois
repre ne
Ġj e
ĠS ony
Ġaut hent
cl aim
our se
R uss
re ts
Ġtransport ation
ĠA cc
ĠG aza
ĠV ancouver
Ġhand ed
Rel ated
v ard
Ġconsist ently
A ss
Ġread s
Ġprot ocol
ĠW W
ist ing
Ġatt itude
Ġmount ain
Ġclot hes
l ah
ĠKen nedy
S m
Ġ5 2
Ġdep ends
u ction
i ability
Ġh am
ĠP ot
Ġmin ing
ĠF reedom
Sc ript
Ġnot ing
Ġprinc ip
h ot
Ġpet ition
ĠA le
co ver
ge on
Ġlow est
ĠSh are
Ġpre f
Ġcol ors
ĠAnd erson
Ġwar rant
Ġp orn
Ġaddress ed
Ġsh r
H A
Ġcon ce
ĠSt at
ĠF amily
Ġthrow ing
Ġent r
20 16
ĠSt adium
Ġvirt ually
Ġguaran tee
Ġrefere nd
ĠMe an
7 2
G O
Ġf oss
Ġspeak s
d it
Ġf ruit
ect ion
ĠBalt imore
Ġst one
Ġcl osing
ĠA p
Ġste el
Ġin ner
B oth
Ġread er
un es
Ġperson ality
Ġappreci ate
Ġbu ff
ĠIraq i
P art
Ġpo ly
ĠEn vironment
! )
Ġhand ling
Ġprof its
Ġsur f
Ġtri es
Ġmar ks
ien ces
Ġk m
Ġcontribut ions
pt ions
Ġconvers ations
it ting
Ġspirit ual
Ġfant astic
ĠBro ad
ĠEng ine
ĠH o
Ġcon sole
ĠT ri
Ġg rav
Ġhor ror
Ġcover ing
Ġg ains
Ġte a
Ġl ands
sen al
d ri
" .[
ord on
ĠHar ris
Ġshould er
Ġh int
Ġacc ommod
Ġast ron
iv als
Ġgu est
Ġw rest
Ġdep ression
Ġencour aged
es h
ĠLew is
Ġl ucky
pt on
Ġjud ges
Ġinc idents
ĠC leveland
+ +
in ch
7 4
rop ri
re c
Ġsubsequ ent
Ġd rew
sc ale
ĠC re
Ġsp oken
ĠR a
ĠHow ard
fl ix
R C
ĠE xt
New s
Ġr anks
Ġb acter
ut ed
ĠG etty
Ġr het
ĠB ang
Ġphot ograp
Ġbro wn
Ġ _
u its
ke ep
Ġinfl ation
am ac
ĠInte lligence
ann els
m aker
i y
P lease
ĠT ro
ic ity
Ġm aps
ES T
â ĸ
pp ers
Ġdiv ided
Ġ199 5
ĠN ATO
ĠC A
ĠPat ri
ed ing
qu est
ij ing
Ġdist ributed
av al
ĠMex ican
Ġdr ama
Ġinnov ation
ĠB ad
ĠUn fortunately
Ġpar alle
Ġprem ium
Ġvot er
ab eth
Ġsw ing
ix ed
Ġper mit
port ed
Ġd ance
Ġre vel
Ġc ust
ĠInd eed
Ġprom ises
un icip
Ġeff iciency
ĠR en
in f
Ġcl im
ĠWh ich
G E
ĠK ong
Ġball ot
Ġ5 1
Ġtemper atures
Ġspokes person
Ġport ray
Ġl ocked
Ġl ying
Ġimpro ving
ĠS amsung
pl ed
Ġth rew
ĠL as
ĠAd v
## ##
Ġmist akes
Ġmus ical
Ġd ump
Ġj oy
Ġg al
z ed
N ote
Ġsh out
d es
Ġhom eless
Ġreplace ment
ak a
H er
Ġcom edy
ĠWith out
Ġche cks
Ġacknowled ged
Ġrespons es
Ġbar rel
pl ate
Ġinstru ment
Ġprotect ing
d ated
Ġcop ies
ĠCon nect
Ġbreak s
Ġcommon ly
l ow
Ġleg acy
Ġsil ver
ĠB a
Ġle ts
ĠPl us
Ġd ad
Ġprote in
ĠM oon
Ġjo ke
ĠSt art
amac are
h an
Ġpass engers
Ġl es
oun ce
er ted
Â Ĵ
ĠB uff
Ġmat hem
ĠMar vel
Ġn aturally
it age
Ġy ellow
Ġnom ination
Ġmeas ured
ĠD et
Ġabandon ed
ĠS cient
Ġstud ied
Ġre ar
er ies
back s
Ġd iverse
ĠPr ince
ĠA C
ĠFoot ball
ĠP o
ĠU se
hel sea
b i
ap ing
Ġacqu ired
Ġdemonst rated
od ed
m at
Ġso il
iet ies
Ġfund ed
Ġhead quarters
Ġ ?
Ġst olen
20 15
ĠM arsh
Ġcount s
ast ed
Ġpartners hip
ĠL yn
Ġmid field
Ġt ape
Ġupgr ade
Ġsc an
ĠAtlant ic
Ġord inary
Ġ( âĢľ
arg o
Ġm ad
Ġr om
Ġliter ature
Ġst ages
hes is
Ġ199 4
Ġm arch
Ġpl ain
Ġhelp ful
Ġarri ve
Ġfall s
Ġsc ope
ĠC ost
Ġass ert
ĠN OT
Ġign ored
ĠâĢ ¢
ĠC H
est y
Ġex it
ĠN ev
Ġtw enty
ĠA I
Ġvir us
Ġreferend um
Ġcom pe
Ġcl ock
Ġun ions
Y our
Ġin equ
aw are
ĠDo es
in ction
Ġconserv atives
al ia
ass ador
Ġa x
il a
Ġsho pping
8 00
ĠM aster
Ġf estival
Ġcap abilities
ĠA ud
Ġwat ers
ĠT rib
Ġgr id
h op
Ġus age
S ource
Ġsy mp
Ġr if
lah oma
ĠIndian a
ĠEm pire
Ġtrans actions
Ġhop ed
aed a
he im
Ġdist ract
h igh
Ġassess ment
Ġgu itar
Ġunivers ities
Ġmonit oring
ĠB ron
Ġrepresent ing
C ons
et ers
Ġrat io
Ġr amp
Ġf ro
ĠH ind
con f
ĠD ave
ĠAb b
ĠE ag
Ġst y
Ġconvention al
ir a
ugh t
Ġm oon
Ġtrack ing
Ġtr ave
en cing
com es
z y
ĠS ometimes
F acebook
ct ic
ĠG un
Ġrel iable
Ġpropos als
ĠPro v
ĠDe ath
Ġrepl ied
Ġh ung
nt il
Ġske pt
Ġcritic ized
Ġt ie
Ġappear ances
Ġrac ism
Ġins isted
d oor
Ð¾ Ð
ile y
ĠP op
6 1
Ġintrodu ction
Ġappoint ed
P P
i ate
ack et
ecut ive
ĠB ureau
Ġ20 20
sh ire
Ġconc rete
Ġsupp lies
Ġbeaut y
Ġperform ing
Ġrece iver
Ar t
Ġex ch
ĠS us
Ġvis iting
ĠL ine
on ly
y er
d ney
ĠDen ver
ĠTechn ology
orm al
6 2
the less
Ġb ub
Ġlet ting
ĠA st
Ġdef icit
Ġclass ified
r imin
ol ph
y o
ĠGal axy
Ġaccompl ish
ĠC apt
br idge
Ġpres idency
Ġprogram me
6 3
d og
Ġsw im
Ġblock ed
Ġabs or
ĠSwed en
m ade
ĠP ass
or ge
ĠOr ig
Ġre nder
Ġdro ve
Ġland scape
ĠUt ah
Ġdismiss ed
Ġcan ce
ie ce
ĠPort land
Ġab road
Ġd ust
Ġbon us
ĠU r
ĠR os
Ġaut o
Ġpredict ed
K e
Ġsequ ence
ĠHe ll
Ġsen ator
ĠAssoci ated
US T
Ġdom ain
c rib
Ġm useum
Ġwar n
ĠA ge
ĠF all
Ġpers ons
Ġrequest ed
ĠOnt ario
ĠT our
f und
Ġd ates
Ġtrig ger
Ġtestim ony
ĠS et
Ġcent ers
Ġh ockey
oc ument
arch y
Ġart ific
B M
ĠC ode
Ġcongress ional
ag ic
Ġspokes woman
ĠCor por
Ġentit led
Ġrock et
Ġtrans it
ĠJ am
ult ane
ĠAlex ander
Ġd ub
ĠN intendo
Ġresc ue
Ġe c
F F
ĠCo oper
Ġass ign
pl us
Ġequ ality
m ony
Ġur ged
ĠFr ont
Ġv es
ĠOlymp ic
or gan
Ġveter ans
Ġdocument ary
Ġp atch
om es
Ġb read
ac co
Ġpop ulations
Ġcl ar
ĠL A
ĠâĢ Ŀ
er g
Ġbreat h
a ver
c ut
Ġwhen ever
Ġviol ation
Ġtact ics
ĠB on
Ġw ider
ir ts
p ress
Ġtarget ing
St ill
Â °
Ġpurs ue
ĠL ow
ound ing
Ġf iring
r ite
ing ton
Ġrestaur ants
Y et
room s
Ġac id
Ġm ole
Ġcomp are
iz abeth
Ġemploy ed
Ġw edd
Ġpolit ically
Ġs alt
ĠRober ts
ĠB ible
in ating
Ġcont rad
th rough
Ġphr ase
Ġsatell ite
V E
Ġob s
Ġsurv ival
Ġretire ment
Ġbank ing
is ons
ect ive
Ġch annels
Ġbrill iant
Ġser vers
ĠBe ijing
R L
Ġsoc cer
Ġintrodu ce
Ġexper iments
Ġprison ers
ĠJust in
z ing
ĠM ill
ĠG irl
or ous
enn is
ian o
Ġhy per
ĠS el
Ġf ighter
Ġc ig
Ġscient ist
Ñ Ģ
Ġappro ached
Ġmonth ly
ra pped
ĠA ward
ĠL iverpool
ct r
usal em
Ġsub mit
Ġrepresent atives
ĠF orm
Ġdesign s
Ġpopular ity
Ġab ilities
Ġqu ote
Ġtit led
ene z
the y
ord inary
ĠC ro
Ġmembers hip
" >
Ġinvestig ations
Ġfocus ing
ĠL ist
A re
ĠMary land
Ġsa ving
ĠY OU
f ol
ĠGovern or
Ġh osp
ĠBr idge
7 1
Ġr ush
Ġ9 9
Ġc ul
Ġobject ive
Th ough
Ġenc ry
ol ves
Ġt ips
ĠP D
Ġpip eline
ĠM ach
Ġchild hood
eder ation
Ġrat ings
Ġth orough
Ġpre par
Ġsh adow
Ġent reprene
âĢĶâĢĶ âĢĶâĢĶ
ĠT ed
oen ix
ĠD utch
ĠB ase
ĠW H
Ġact ively
ĠH ur
Ġb ab
Ġdemand ing
ĠHar vard
el a
Ġlo ose
Ġunex pected
Ġsm oking
Ġden y
Ġsm ell
ĠW as
Ġarg ues
Ġfore cast
Ġphenomen on
ag a
Ġunivers al
Ġoverse as
k ing
em ed
Ġsett led
er ts
Ġp ig
Ġgener ations
Ġm it
Ġprep aring
Ġweek ly
Ġsmart phone
6 00
Ġch icken
Ġprodu cers
at ar
Ġlegisl ative
Ġanx iety
ĠBe ck
af e
Ġdist urb
Ġinnoc ent
ou ri
Ġcelebr ate
Ġmort g
ĠH ave
j ud
Ġprov ision
min ute
ĠV ill
7 3
Ġarg uing
Ġke ys
Ġsh ame
ĠC lick
Ġquestion ed
Ġfor cing
Ġbut t
Ġbroad er
Ġencoun ter
Ġfl ags
Ġ9 5
Ġdead ly
ĠDes ign
Ġf ool
bre ak
Ġre verse
Ġwe igh
ĠAm ong
old s
ĠEd ward
Ġwealth y
p ed
ĠOb amacare
ĠD O
ĠC ow
he ld
Ġmaintain ed
Ġsure ly
Ġt ens
omp son
Dav id
b ow
ĠH a
Ġsecond ary
Ġ5 3
Ġsh ield
Ġun pre
Ġsav ings
ĠH op
Ġst ability
Ġm os
Ġcivil ian
ar re
ocol ate
Ġreve als
ĠP A
m ers
ĠCar ter
ir lf
Ġann iversary
Ġs orts
Ġf ur
d on
ber ry
Ġrele ases
tr ans
Ġton ight
Ġroom s
d ed
Ġ ~
ĠPro p
Ġprosecut ors
Ġout rage
Ġmin i
Ġdis order
ĠG ulf
irlf riend
Ġthreat ening
Ġdifferent ly
Ġex ha
Ġharass ment
Ġqu oted
Ġhealth care
Ġsub mitted
Ġwind ows
m ans
Ġrel ax
H T
Ġreform s
ĠLe ft
Ġl unch
Ġtort ure
Ġst ored
Ġf ate
el son
or ious
Ġar bit
Ġpropag anda
Ġo kay
Ġsp ots
C O
Ġinstruct ions
ĠBel g
Ġodd s
vern ment
av ed
Ġ199 2
in als
Ġround s
ĠViet nam
ore t
AN D
Ġse vent
ĠC ry
re ction
Ġer rors
Ġt ab
ten ance
ĠOk lahoma
ent er
C omp
Ġsil ence
ĠH on
ĠLiber al
ĠGra ham
Ġgrad uate
Ġde lic
Ġafford able
ĠWar ren
Ġcooper ation
Ġm ac
S E
Ġcirc le
Ġp icks
Ġse ar
a is
ĠB ra
ht ml
ĠSar ah
ĠBl oom
Ġstrik ing
Ġstre aming
Ġp uzz
Ġcomprehens ive
Ġpers u
Ġa er
Ġimportant ly
w alk
ĠR un
it ary
**** ****
Ġposs ess
Ġexec ution
Ġstrugg led
ĠEx pl
j i
ic ism
Ġf ing
ors hip
h ar
ĠLe ader
Ġass ass
ail ed
ĠRub y
Ġint im
m ind
w as
Ġland ing
Ġdes erve
ĠJer usalem
l ined
Ġcere mony
ĠPr ice
Ġassum ed
Ġcal m
Ġc ow
Ġdemonst rate
Ġhy dro
Re uters
Ġdifficult y
ĠP erson
se ct
Ġag es
Ġd ying
Ġal ter
Ġg ent
D em
st ep
Ġdist ingu
ish op
Ġste pped
Ġb orders
ĠSil ver
as ury
Ġpoint ing
ĠK ar
Ġche st
Ġadv enture
ĠL t
Ġw aves
Ġarchitect ure
Ġprecise ly
Ġkil omet
ĠNet flix
Ġgreat ly
Ġprom ising
o is
Ġconsider ation
Ġdri ves
it ter
Ġaut onom
Ġdial ogue
Ġpr on
es see
Ġnewslet ter
Ġtrem end
act s
e als
Ġrook ie
Ġcons ent
ut en
ĠMean while
S L
Ġaward ed
Ġcont ribution
ĠS om
ier ce
Ġb urning
ĠS ab
row s
Ġrepe at
ĠScott ish
ast ing
Ġsim ultane
Ġdon ations
ĠV ice
Ġh al
Ġvo ices
Ġanaly st
ĠBru ce
as ant
ĠSt ory
p a
ĠM ain
ĠW olf
Ġwant ing
Ġfrequ ency
Ġproced ure
Ġinter f
ĠInd ust
Ġexecut ives
Ġplayoff s
Ġg if
ah u
ĠDe b
ĠMag ic
ater n
cept ions
Ġstay ing
ĠA k
e le
ĠComm on
Ġb irds
Ġbi as
S im
ĠB ud
Ġtr illion
Ġinc hes
Ġhighlight s
ik i
W atch
is a
part y
it ol
Ġremark able
ĠPalestin ians
Ġwhere as
ap olis
8 4
Ġimpl ications
Ġkn ee
ĠJon athan
Ġsem i
ĠH ong
Ġform ation
Ġstrateg ies
all ing
Ġsuper ior
ĠBer lin
hold ers
ĠT en
ĠSy dney
b ury
a fter
Ġcateg ories
Ġfollow ers
scrib e
ĠP res
Ġcontact ed
ĠM ORE
rib utes
Ġjud gment
et he
Ġemer ging
Ġcre am
Ġsm ile
ĠTe le
port ation
Ġinf o
ag h
ĠTe ch
it ual
Ġan s
O K
ĠL ink
Ġaccess ible
vertise ments
ig ious
Ġphys ically
Ġass igned
Ġcr imin
Ġgu idelines
b ered
Ġdefe ated
Ġf et
x x
Ġw ounded
Ġtri als
Ġman aging
Ġmin istry
te l
Ġr iding
ĠAr k
Ġgr ade
St ory
Ġindic ates
Ġcent uries
ĠE ff
Ġ5 4
Ġst em
ĠAff airs
Ġco inc
iff s
Ġmeaning ful
Ġspe ll
Ġop ens
ra ig
ie v
ik a
Ġe ase
Ġt iss
ĠMr s
Ġclot hing
Ġmarg in
d iv
Ġâ ĪĴ
Ġparticip ation
h att
c est
Ġph arm
ced ented
ĠCap ital
ĠSt ore
ann on
Ġre vers
Ġpo ison
ĠA z
ĠS ix
ĠBre xit
ĠY emen
Ġcompet ing
st al
Ġmem ories
Ġl apt
Ġthe ories
Ġrec ipe
Ġpass age
y es
Ġag ed
Ġg ross
o ice
om ed
Ġdr one
ĠC redit
Ġdisp ute
ĠT es
Ġbl ank
Ġdam aged
Ġ199 3
v ision
8 3
ĠHam ilton
Ġhost ed
Ġsubst ance
ĠC helsea
Ġpromot ing
Ġopen ly
r if
- >
is k
ĠInst agram
Ġ19 50
Ġclin ical
ĠChild ren
Ġfac ilit
ĠG T
ĠCr ime
Ġ1 20
u h
Ġb in
Ġinvest ments
Ġcons ensus
V D
op en
a uthor
Ġeduc ational
E l
Ch rist
ĠH old
Ġcust ody
Ġelig ible
ĠV ik
Ġleg ally
Ġend orse
Ġn ic
um ble
Ġdis h
Ġmiss ions
Go ogle
ĠHaw ai
Ġmem o
Ġstud ying
ond er
Ġg ate
ĠLe on
Ġt ables
Ġchar ity
Ġaddress es
e ven
ere my
Ġman ifest
ig ate
Ġdisc ount
Ġins pect
ch ild
le e
ĠP ict
Ġbatt les
Ġathlet es
ĠAs sembly
b its
Ġn in
Ġfoss il
Ġsuspect s
Ġenthus i
ar ation
Ġt ired
ĠMan agement
Ġ2 50
Ġcounter part
v an
Ġd ating
ĠF al
ĠTr ade
Ġhe lic
iz er
Ġspect rum
Ġpresent ation
M s
ĠL am
ĠSt ation
s es
Ġbot tle
Ġl ux
Ġfund ra
Ġenh ance
Ġtherap y
er ia
ĠW ales
ge red
Ġper ceived
ere nt
ĠSe an
om y
Ġback ing
Ġdef ending
Ġunder lying
con st
Ġdiscuss ing
ĠM etro
Ġrac ing
ĠTh rough
Ġburd en
ĠF estival
le ft
Ġexpand ing
Ġstop s
Ġmus cle
Ġdomin ant
ri ors
ater al
Ġbe ings
ĠEx per
ĠE th
Ġv ig
b ase
Ġtrans action
h ard
ĠMar x
H z
Ġrec ruit
Ġpick ing
Ġt ap
F O
Ġm ood
we ek
ĠG ary
ass y
Ġman agers
it udes
8 1
Ġgather ing
Ġhop efully
yl um
ĠLib ya
Ġn a
G A
Ġcr us
ĠD er
Ġimp ression
ĠE qu
ĠU ber
m ath
ĠT ok
ak h
M us
8 2
f r
ac hel
ĠO p
Ġinst itution
ĠBat man
Ġscr ut
Ġproced ures
or able
land o
ĠV ideo
igen ous
se ction
Ġro y
Ġcreat ures
Ġp ocket
Ġarri val
Ġh ip
ĠB oe
Ġe ager
ĠT ai
ĠM it
Ġpoll ution
ĠAnd re
Ġfood s
Ġcomp at
mark et
Ġkit chen
T P
Ġrec re
I nt
Ġst ere
Ġorgan ic
ar ia
Ġsurv iv
Ġsh ipping
ĠPent agon
ĠMor gan
Ġcapital ism
Ġtim ing
Ġrequire ment
al ysis
Ġunf air
ĠAss ad
Ġgl ad
Ġm ice
Ġins ult
ĠRep resent
play er
ĠC S
Ġdise ases
ĠEl izabeth
it ure
Ġindust ries
ĠOak land
ang le
Ġb owl
ĠMur ray
Ġhelic op
N S
Ġ5 6
od ox
Ġdiv or
Ġpunish ment
j s
Ġbe ach
ĠC reat
Ġfl ed
Ġhosp itals
ĠB al
Ġshe ll
ad ers
ri x
ĠCome y
ĠS on
Ġter r
Ġengine ers
Ġt ons
Ġse ed
ĠM ess
Ġh ire
Ġstat ist
Ġmod ule
Ġcoach ing
ative ly
Ġans wered
ĠK ick
Ġs ed
Ġob sc
Ġregul atory
miss ions
Ġn erv
Ġgraph ics
ac her
opy right
Ġst ance
i ac
Ġso vere
alt ies
Ġexpl aining
Ġrhet oric
Ġbe ating
Ð ½
ak i
ĠY eah
ĠKe ep
ĠEm ail
Ġacknow ledge
Ġb ow
b ing
ab et
am ous
P re
A ct
ĠF riend
ol n
ag ger
Ġprincip al
Ġpull ing
O ut
Ġint r
T y
Ġsign ature
ĠMic hel
ol ar
Ġconv ince
cos ystem
Ġvar iable
Ġsearch ing
Ġover come
ol ving
ĠB i
Ġsix th
Ġprefer red
Ġadv iser
Ġtrend s
Ġt ut
ĠTenn essee
og y
Ġd ies
ĠML S
** *
ĠRus sell
Ġreb els
Ġp ill
ĠTh ompson
Ġperiod s
Ġinter action
oc ial
Ġmer ch
Ġpsych ological
Ġ( "
du ction
Ġeconom ics
ĠR oll
ĠUs ing
Ġout lets
Ġ5 9
oc a
ĠS ure
Ġsign als
ĠCharl ie
Ġbill ions
ĠEx ecutive
Ġline up
ĠKent ucky
Ġe cho
C lick
s l
e en
ĠO x
Ġ199 1
ri or
w atch
br id
Ġegg s
Ġtem por
ro ph
Ġbad ly
Ġse gment
F inally
Ġset up
Ġsent enced
Ġevery day
C al
Ġcommand er
Ġm ath
D ef
T ER
Ġre nd
em ic
Ġl oves
ĠJ ean
ĠY an
Ġgen es
Ġrequ iring
net ic
Ġinv asion
unicip al
Ġb old
Ġpart ly
ĠG il
Ġbul let
R em
Ġrem oval
Ġar r
Ġesc al
ĠInte l
ov a
ĠH art
ĠH oll
Ġtop ics
Ġinqu iry
E X
Ġar ts
Ġu pload
Ġam endment
ĠDr agon
Ġweak ness
Ġunder t
Ġconcept s
Ġg ene
ĠR ather
Ġinst ant
enez uel
Ġsh oes
20 13
ĠDel hi
Ġfab ric
E arlier
Ġse ctions
Ġr h
V iew
Ġocc urs
Ġfrequ ent
Ġm igrants
li est
Ġcompens ation
ĠI ron
Ġ !
Ġengine er
ts burgh
ĠF inally
Ġattract ive
M ich
N BC
ke e
Ġun ve
Ġc iting
it o
ĠS a
AL L
Ġtwe ets
Ġut ility
Ġ ).
ĠL i
Ġl ad
Ġpost ing
Ġridic ulous
ĠB ox
Ġblock chain
ĠE T
Ġspeak er
ĠCl ark
gr ade
in stein
aren cy
Ġcl er
ĠS ound
Ġg ig
Ġtal ented
Ġcor rupt
ĠThere fore
Ġnot able
Ġcoll aps
Ġe lder
Ġgen re
Ġdead line
ĠZ e
Ġcar ries
Ġle ct
Ġro lling
Ġdi am
A F
Ġelimin ate
Ġappro aches
iz za
Ġm ask
ne cess
d y
Ġanaly sts
Ġs its
Ġf o
ĠF inal
Ġinst ances
ĠMc K
Ġpubl ishing
âĢ Ĳ
Ġunpre cedented
Ġro ots
Ġc ens
Ġcol our
ĠPh oenix
s a
Ġcollabor ation
ĠSim on
Ġtox ic
Ġb ene
Ġinequ ality
v ia
p g
g us
Ġneighb ors
Ġdram atically
Ġins ight
Ġpri ze
sc reen
Ġhom osexual
Ġtown s
Ġextra ordinary
ĠPri v
ĠHar per
Ġc ock
Ġper ception
Ġar c
ĠWhe ther
ĠG ordon
ĠB M
ĠHe art
che ck
s ub
Ġmain tenance
ent al
ĠPh ill
Ġche aper
Ġassoci ate
? ?
Ġcou p
Ġshe et
ĠBel ow
Ġpar ad
Ġcogn itive
Ġencour aging
Ġse ized
Ġinterview ed
Ġdeploy ed
Ġd reams
is dom
Ġviol ations
ĠP sych
Ġcamp s
Ġcom ics
row ing
ĠCap tain
Ġg est
Ġemploy ers
ĠRe agan
Ġres erved
Ġaim s
ĠE vent
Ġconstit u
Ġmyster y
ĠB ow
Ġfunction al
Ġdisplay ed
Ġbu ck
Ġsp an
est ed
Ġde light
m ic
en ess
Ġlo op
Ã ±
ĠEconom ic
Ġoccas ionally
Ġtr aged
Ġbirth day
ixt ure
} }
Ġex port
Ġhero es
ric ane
ap ore
ĠP ers
Ġfat al
Ġcorrect ly
M od
ĠG O
Ġprom pted
w ill
est yle
Ġv end
Ġst amp
ib an
Ġcontem porary
re ll
ĠS av
Ġprospect s
T op
Ġrecommend ations
Ġdiplom atic
ĠCo le
A Y
Ġ5 7
Ġdisappoint ed
Ġmanufacture rs
Ġconst itution
Ġexc lud
ĠA ccess
Ġparalle l
ĠJ enn
Ġmoder ate
Ġad equ
Re g
Ġe cosystem
C omm
ĠG ro
Ġaccomp an
Ġdemand ed
ĠSt aff
ĠG DP
ĠMont real
ĠPhot os
igh th
Ġple ased
Ġinter pre
Ġn ose
Ġlif etime
Ġlab our
ĠBrook lyn
P aul
ot ing
ĠD ick
Ġcommunic ate
ĠRes erve
Ġfight s
V P
ĠE ver
arg et
Ġmod ified
Ġs essions
Ġwedd ing
ĠD og
Ġdr unk
Ġbi ological
Ġexplos ion
Ġkn ock
p ack
ĠE PA
Ġland ed
S C
ĠL ibrary
Ġ8 5
ĠAuthor ity
ĠO cean
Ġrep air
Ġrepresent ation
ĠG iven
ĠT ax
G e
Ġartific ial
Ġ5 8
Ġsub sc
ail able
Ġown s
ĠAnton io
Ġrel ation
d s
Ġdesign er
le ans
Ġl ift
end ar
Ġkick ed
Ġconscious ness
Ġp a
ol i
Ġh anging
Ġless ons
ĠOr der
Ġimp osed
Ġdef ender
9 6
Ġgu ests
ĠKh an
ĠDig ital
Ġan onymous
Ġconcer ning
Ġpregn ant
Ġmaintain ing
ix on
Ġadop t
Ġunder ground
Ġass et
h as
St ate
og a
Ġingred ients
ĠF ive
ĠR ome
ĠCh annel
Ġsh irt
ĠAl an
on z
Ġche ese
Ġp unch
Ġem p
Ġs li
ĠE st
inc oln
ĠCon vention
Ġpod cast
ll y
Ġrec on
Ġemot ions
ĠB ol
Ġinte llig
Ġinter ior
Ġcou ples
Ġless on
el ing
Ġcreat ure
Th anks
Ġsh ocked
Ġopp ose
T ON
m ir
ĠAr gent
ac re
th rop
Ġperform ances
": "
Ġres olve
Ġvolunte ers
is ition
Ġsum mit
Ġsold ier
) <|
Ġlog o
bour ne
Ġstim ul
20 17
ĠProte ction
Ġg irlfriend
Ġv ocal
c or
ĠB urn
ĠB ul
M ark
ad i
9 8
Ġacc um
Ġjump ed
new s
Ġann oy
Ġir re
app ropri
Ġab stract
T R
Ġm ile
Ġn urs
Ġmilit ants
Ġj ihad
P L
ult y
Ġprofession als
ĠP age
ĠMiss ouri
2 50
c re
ch ing
ist ant
ĠAn na
Inst ead
Ġref ers
Ġtravel ing
Ġgu id
Ġdesk top
Ġs wit
ĠL ear
ows ki
Ġbut ter
w ed
Ġisol ated
ac les
Ġexist ed
f it
Ġadvoc ate
Ġopp osing
Ġrec alled
W he
h uman
F i
at us
Ġl ibr
Ġfor um
ĠCo al
Ġintegr ation
Ġdescrib ing
Ġbox es
ĠC ase
ĠJava Script
s ome
w ich
ĠOr leans
Ġ6 00
ĠD ur
Ġconf used
Up date
Is rael
Ġmin imal
Ġpeace ful
gr aph
Ġin herent
St ation
Ġsurround ed
ear ly
g ets
tain ment
ĠCap itol
ial s
ĠF ant
ĠL im
ĠC ustom
g al
Ġh oles
ĠM ail
Ġst ro
own ed
Ġ198 9
Ġintegr ity
Ġme al
hatt an
Ġinspir ation
ĠS D
h ist
Ġconfig uration
Ġexp ense
ro ck
ump h
Ġcred its
ĠR s
Ġide ology
Ġelect oral
Ġsub ur
ĠK now
ĠPlay er
Ġy ell
Ġsil ent
Ġbur ied
u z
w ind
Ġsusp ic
ĠMar ine
Ġp m
ĠNev ada
ĠTr ust
Ġs ne
od ge
Ġdesper ate
Ġd ual
Ġst ack
ĠDo ctor
Ġ vert
ĠBar b
Ġcho osing
Ġbom bs
Ġsc ream
Ġteam mates
Ġb ands
Ġcl ip
Ġfle et
ĠH an
im ize
Ġaccept able
ol s
Ne xt
st arter
ĠOr lando
G ener
Ġregist ration
ĠS U
us er
ĠW right
ĠPort ug
ĠHit ler
Ġbrut al
u i
Ġcon vert
Ġstrugg les
ĠO cc
Ġan cest
Ġsubscrib e
ĠC B
ĠAll iance
ĠE ve
Ġmoment um
Ste p
Ġkey board
ĠAre a
ag en
Ġpromot ion
e lection
ĠLe ban
ĠAr senal
Ġj er
ik h
ĠM ove
Ġev ident
ĠOn line
Ġsc ar
ĠH al
Ġorgan isation
Ġwond ering
b in
Ġclos est
ĠInd ones
Ġembr ace
( "
Ġqu it
ĠFollow ing
Ġrefuge e
Ġat he
Ġpro be
Ġte eth
Ġut ter
ĠB an
1 50
Ġoccas ional
C D
ĠP y
Spe aking
ĠH amp
Ġas sembly
Ġref erences
Ġbank rupt
aw ks
Ġjournal ism
Ġexp enses
m its
Ġsubsequ ently
T ime
i ens
com mun
Ġmon ster
to o
ĠSte el
Ġpr ide
Ġgu ards
Ġinterpret ation
ĠV enezuel
f ather
ĠW ord
Ġrem oving
ĠH and
Ġy eah
he ro
Ġprof ound
ĠInd ependent
Ġor bit
Ġcomprom ise
ib l
Ġdistrict s
ĠN on
ĠPit tsburgh
str ong
che ll
Ġconsider able
Ġsurv ived
Ġexclus ively
Ġkn ife
Ġth ro
Ġst ating
Ġeng aging
Ġref use
ĠW rit
Ġcharacter istics
Ġmathem at
ĠC ould
h ire
âĢ¦ .
Ġdom inated
Ġjust ify
Ġl obb
Ġbrief ly
ĠN azi
ĠMount ain
ip edia
ĠS ource
Ġb ird
Ġmin isters
Ġ7 2
g ate
D is
Ġtremend ous
Ġcont rary
Ġl in
Ġelect ron
Ġsustain able
Ġch ip
is d
e xt
ĠV en
Ġload ed
Ġnerv ous
Ġdisapp ear
Ġpro st
Ġfl our
Ġrout es
orne ys
Ġexecut ed
Ġsoph istic
ok er
Ġpro portion
Ġas ylum
Ġsex ually
gr ad
Ġgame play
ĠEvery one
Ġdon ors
ĠD uke
Ġrevolution ary
at tered
Ġconf usion
Ġg ri
20 12
ĠA aron
book s
ars on
st op
ĠR est
oc ated
ĠAnd y
v i
Ġcur ious
ĠM un
ĠTre asury
Ġh arsh
Ġp ir
Ġatt ending
Th ank
ĠAd ams
ab e
Ġspeak ers
li hood
Ġc abinet
inc ome
b ound
Ġnow here
t ra
Ġfle e
Ġbr ands
Ġprint ed
Ġch ronic
He y
Ġ8 00
F l
Ġcharg ing
el ve
ĠTes la
ĠF A
ĠD ream
Ġeng ines
Ġv oid
ĠH aving
Ġphys ics
lim ited
Sh are
Ġout comes
ĠSher iff
Ġconcer t
ĠR aj
ĠOff icer
ĠSh ort
Ġstreng then
ĠA ren
Ġmir ror
Ġfail s
Ġpass enger
Ġcrimin als
Ġcha os
ĠiP ad
th ood
Ġstead y
Ġo rient
ĠRob inson
c al
ĠCur rent
sec urity
ubl ished
ĠÂ ±
ĠNet her
f unction
ĠG ib
ĠMan hattan
Ġrob ust
ĠS E
ur se
Ġend ors
Ġspec ulation
sc ar
T E
ot te
ĠB u
Ġsp o
im mer
Ġde emed
ĠS H
Ġh iring
Ġdro pping
ĠTal iban
ĠI M
9 2
mer ce
Ġcert ific
ĠGi ants
Ġintegr ated
ĠSing apore
ing e
ĠT el
ree k
ĠCh ange
ut ter
Ġpres ents
Ġf el
ĠPer ry
Ġguarante ed
Ġav o
ĠA lp
ĠSp ir
Ġle aked
am ine
Ġpack ages
. ]
Ġf ert
Ġple asure
Ġsusp ension
Ġchalleng ed
Ġpack ed
ĠR ou
Ġep ic
Ġcheck ing
res hold
ĠN orm
ĠJ un
Ġeng agement
Ġrad iation
Ġb its
Ġbomb ing
Ġsl ot
ĠK ings
b en
re ck
m ble
Ġhun ting
Ġal ert
Ġprodu ces
Ġwitness es
Ä ĥ
H P
Ġdef ended
ĠUS B
Ġedit orial
Ġrec overed
Ġw et
AR T
ĠC raig
Ġpat ri
Ġdevelop ments
ĠB and
Ġsimultane ously
Ġbacter ia
Ġblock ing
w a
Ġattract ed
ol id
ĠH oly
ĠL ater
Ġbo om
Ġfig ured
Ġall iance
Ġresearc her
ist le
Ġv it
Ġtaxp ayers
Ġcor rel
ar o
ĠEnter tainment
ĠH ung
an im
9 3
wh ite
Ġhost s
ĠN one
ĠJ eremy
ĠRuss ians
Ġexam ine
Ġcap s
iz arre
A B
Q L
Ġpat ent
Ġvari ables
ĠK l
ment ed
ĠL incoln
ĠK it
ĠM ult
app er
ĠO pp
Ġc inem
ĠC ON
Ġd a
Ġem bed
ĠP ant
ĠChair man
Ġj unior
Ġo xy
ĠF uture
ate ful
Ġpubl ish
Ġt ear
ĠT ower
7 00
ĠPol and
ĠUkrain ian
Ġ6 6
ĠStud ies
Ġen act
Ġ6 2
re nd
le ep
Ġfl ights
Ġaccur acy
Tr ans
Ġimpact s
Ġsurprising ly
Ġra ises
Ġburn ed
Ġdist ribut
Ġsol o
ĠL es
r ics
ĠV lad
ades h
B N
K E
ĠL og
Ġfl av
secut ive
lyn n
Ġang le
Ġl os
ĠW ould
Ġqual ified
Ġdecre ase
Ġv ent
ĠD ak
Ġbre ast
ĠSte wart
Ġmet h
9 7
Ġev olved
G l
G u
ĠC PU
AT CH
ou b
Ġev ac
Ġfl avor
Ġun necess
ĠS ci
gg ed
Ġcourt esy
ĠMP s
Ġas semb
Ġproduct ive
Ġfing ers
Ġbl amed
Ġintim id
ress ing
c ap
g ood
Ġexpect ing
ethe less
Ġtransfer red
Ġdepend ent
N et
Ġexpect s
ĠH IV
Ġvis its
on ed
Ġident ical
Ġr ic
Ġen abled
ĠR angers
Ġl ane
ĠH u
d r
Ġacc ord
Ġv enture
ĠGr iff
Ġdepart ure
r ition
Ġsh ops
ĠT otal
Ġv oc
ard o
Ġb arg
Ġmotiv ated
g ly
Ġrepe al
Ġkill er
ut er
Ġagree ments
Ġign or
Ġconflic ts
el le
ĠMiss iss
Ġsc ared
Ġforg otten
Ġrest ore
ĠG ill
olit ical
v ation
if ier
im ir
d ict
ĠComm and
S U
Ġstri p
th odox
is hers
Ġnation wide
Ġinflu enced
Ġcrit eria
Ġorgan is
Ġoccup ied
oph ob
Ġrank ing
ĠEd ition
ter ror
Ġtrail er
Ġin her
ĠP ope
Ġtele phone
in st
ĠTh ings
Ġanim ation
Ġback s
Ġoccas ion
om ic
Ġfunction ality
ĠSh ould
Ġcheck ed
op t
ĠU b
L ist
Ġconcent ration
Ġanal ys
Ġhousehold s
ĠW i
ĠRed dit
R ight
ern and
P al
ĠTh ink
ĠO R
Ġcour age
Ġalgorith m
Ġres erv
Ġpromot ed
ĠB or
Ġimp rison
look ing
Ġexplicit ly
N ame
Ġre ass
ah oo
Ġbab ies
Ġbat ter
Ġt anks
ĠMod el
ĠSupp ort
Ġo ught
ĠC C
Ġrele asing
Ġcy cl
Ġsub tle
ick ed
d ep
h r
9 4
b ian
le ted
Ġst atic
Ġb ases
J P
ĠG h
am ents
ĠH ug
G r
ĠMore over
Ġprivile ge
ond uct
Ġant ib
For mer
ĠJ erry
ĠWar ner
ĠPl ace
Ġmet ers
Ġentr ance
ĠPro duct
ĠT s
R ed
Ġst ats
ER E
Ġinvestig ated
u ating
ĠR h
ul se
l arge
Ġsen ators
Ġtow er
Ġdes p
ĠCanad ians
v as
ipp i
Ġw ise
Ġappl ies
Ġ `
ag ine
M AN
Ġform ula
ĠN i
un ity
ĠD u
ĠEgypt ian
Ġuncertain ty
ĠChrist opher
Ġinev itable
ĠC old
Ġover l
Ġh ub
Ġinflu ential
Ġprov ider
Ġpain ting
ĠStand ard
Th ree
Ġmod est
ĠB C
Ġdest ination
Ġch ips
Ġinfect ion
m ay
Ġall y
Ġl ens
ĠQue ens
Ġcontin u
Ġsole ly
A g
Bl ack
le ading
I E
Ġthe ft
bre aking
Ġbel t
Ġd imin
ĠN iger
art ed
Ġin aug
Ġinvest ed
Ġsc rew
ĠAl aska
Ġtransp arency
t own
Ġins ist
Ġimm une
Ġpolit ician
ĠOtt awa
Ġprov isions
ĠPlay Station
ĠN O
Ġm art
Ġsing er
ĠE b
Ġhand led
for ward
Y eah
oll ar
ĠOlymp ics
ĠUn ivers
Ġuncom fort
ri ke
Ġimp ressed
ĠLouis iana
be ing
Ġin box
Ġ6 3
" ,"
ĠJ ane
Ġoper ator
ĠNether lands
à ¤
ie re
ĠO il
Ġball s
Ã³ n
Ġsim ilarly
Ġlif estyle
Ġhead lines
Ġcol leg
D R
ab out
Ġbo ards
rif ice
ĠM ap
Ġdis abled
ĠStan ley
Ġoper ated
ĠM arg
ĠSt ock
Ġregard ed
u ccess
C ar
Ġlaunch ing
ĠTre k
unt u
Ġrel uct
B ook
Ġphotograph s
il ation
Ġt ent
ou p
id en
amp a
Ġsa ke
Ġke en
Ġvol unt
c itation
Ġkid n
Ġcon secutive
Ġdet ention
ach ment
ĠUn like
ĠD rug
Ġb ol
ĠM other
off s
z one
th ur
o vers
ĠS N
ĠTy pe
iz ations
Ġprosecut or
s uch
Ġprosec ution
n an
act or
Ġg ym
Ġconv iction
m illion
Ġearth qu
Ġro lled
Ġfil ter
Ġle an
Ġsu ck
). [
? âĢĻ
C or
ist ance
Ġk iss
ĠMod i
n ie
ĠCapt ion
ke ley
Ob ama
S upp
id al
ĠHamp shire
Ġbul k
Ġm ales
bit ious
ĠT able
Ġtraged y
Ġt ears
ĠCorpor ation
ar med
G ood
ĠCor p
Ġch ocolate
Ġpres erve
Ã §
Ġguid ance
t arian
tr ack
ĠBe ing
ĠPhilipp ines
in ite
ĠF ather
Ġpo et
ĠBl ood
Ġle ak
ol as
ac o
Ã ¢
Ġb ags
ll or
ĠS everal
eral d
Ġm ouse
l ink
on ing
ur ches
Ġexam ined
Ġaccept ing
Ġrec k
g ov
Ġmiss iles
ĠFore st
Ġin ex
Ġdest ro
Ġbene ath
Ġparticip ating
c ard
ut her
Ġabs urd
F urther
viron ments
Ġj et
Ġel abor
Ġneighborhood s
ĠF O
Ġun re
ass ion
b at
angu age
Ġreflect s
Ġcompe lling
Ġsy nd
k es
Ġcompl ained
ĠStan ford
Ġb other
Ġlux ury
Ġcontro ller
ĠVictor ia
U C
Ġad ap
Ġne ur
Ġ1 000
Ġthe ater
ĠMar io
? )
ĠB ir
ĠN elson
Ġen for
ĠEd it
Ġshel ter
ĠMedic are
ĠH ans
Ġf its
ĠMedic aid
Ġn u
ĠM orm
ix el
Ġ< /
Ġjur isd
CA A
Ġcons ists
ĠT R
ĠGr ant
v ol
ĠP a
l aim
Ġsignific ance
Ġpo lling
Ġoccas ions
Ġsto pping
Ġpost er
ĠMar c
ĠRub io
ra h
ĠTok yo
ry ing
Ġexc use
Ġwire less
Ġreal istic
Ġb one
ĠK night
d f
f ish
Ġp ose
Am ong
Ġaccompan ied
Ġsee ks
Ġt ension
Ġback up
Ġmand ate
Ġrese mb
ĠCl oud
f irst
Ġass ists
friend ly
ust ing
ĠContin ue
Ġposs ibilities
ĠSc he
Ġthe oret
m ons
T O
Ġaccus ations
9 1
ĠFil m
Ġbet a
E ach
Ġcook ing
ĠL ocal
spe ed
ĠK r
ĠCh ampions
Ġsupposed ly
Ġemphas is
Ġfin ishing
ĠG ard
ĠSnow den
Ġsust ained
Ġadv ent
uck er
Per haps
Ġbeat en
D own
Ġin hab
ĠMal ays
B r
ĠQu est
ĠIm m
or ate
Ġa wards
Ġd ressed
Ġproject ed
ĠAb u
boy s
amb ling
ite ment
Ġb ump
Ġinnov ative
ĠNot hing
w all
ĠEvery thing
Ġaffect s
ĠW y
ĠW inter
ĠP ear
Ġf er
Ġprevent ing
ĠCh ron
Ġconstruct ed
Ġt orn
M B
âĢĿ )
ous es
Ġlong time
ï ¼
B el
ĠS EC
i ar
ĠS ection
Ġfuck ing
ĠV in
Ġpol ar
ĠN S
Follow ing
ĠD a
Ġer u
Ġg arden
pp y
ĠOrgan ization
com p
Ġspeed s
Ġoper ators
Ġout standing
Ġf ed
ĠFin ancial
Ġmortg age
Ġman ual
ĠC as
Ġ3 60
ĠHam as
Ġpass word
Ġrec ession
bl ock
Ġent ity
ĠT am
Ġw isdom
Ġdocument ed
Ġdr um
ĠD E
Ġtrad ed
Ã ¨
ĠFl ash
ber y
ĠP ython
IL L
Ġg ut
ne g
Ġint rig
ĠS port
il st
Ġoccup ation
ĠN ature
Ġold est
Ġg olf
ĠKurd ish
Ġdocument ation
Ġfavour ite
ĠJim my
Ġpra ised
Ġresident ial
ĠH ad
Ġcop s
Ġspot ted
n on
ĠN ich
Ġreven ues
Ġlay ers
ĠD al
ĠSte am
inc ial
Ġwal ks
Ġinteract ions
ĠComm ons
ĠI V
cent ury
r c
ĠM ind
ĠPatri ots
Ġsur ge
ĠTh ird
b es
ot ion
Ġaw ful
Ġb icy
ll i
Ġcalcul ated
Ġpan els
Ġf ut
Ġexperiment al
Ġcirc uit
ĠC R
io x
ug by
Ġrenew able
olit an
Ġmyster ious
Ġinf ant
p ing
Ġautom atic
Ġtr ains
Ġth reshold
ĠOther s
any ahu
Ġt ale
Ġd irty
Ġdeal t
Ġreview ed
Ġpain ful
Ġgl obe
ĠAb d
Ġ6 1
J o
E m
v ar
Ġtri ps
ch arg
ĠAir port
th al
ĠC itiz
Ġcle ared
ĠN ash
ĠWay ne
Ġ6 8
st ra
Ġearn ings
Ġcross ed
Ġadminist rative
Ġconven ient
Ġr iders
Ġgraph ic
Ġr anging
Ġ6 7
c ott
Ġliber ty
Ġb izarre
Ġco in
c ular
â Ĥ¬
l ied
Ġdispl ays
Ġen vironments
Ġicon ic
ĠL ad
Ġthe r
ĠS oft
Ġrob ots
ĠE mer
Ġmother s
ĠTr ue
Ġhost ing
Ġp our
Ġit er
Ġam bitious
Ġ198 8
Ġl ady
Ġhe s
Ġres erve
Ġsec ular
ect s
Ġsent iment
Ġdes ert
ĠMc Donald
Ġpred ec
Ġconver ted
B ar
Ġdo ctr
r ons
ard ed
sel ess
Ġtiss ue
is ive
ĠMur phy
ĠK a
ĠA FP
Ġdrop s
ĠL arry
Ch ina
ĠCl imate
ĠDe an
j amin
ĠF le
Ġexplo it
? <|
for mer
Ġcreat or
Ġaddress ing
Ġres ort
re qu
ow der
er r
ĠRed s
ia h
Ġh iding
Ġsafe ly
Ġs ons
Ġatt orneys
ig e
Ġdevast ating
ism s
Ġsleep ing
ĠC L
Ġcross ing
Ġan ch
sh ore
ĠB ah
Ġrestrict ed
Ġsp ray
Ġarrest s
u ably
Ġw ore
Ġscrut iny
Ġunf ortunately
ĠSum mer
Ġp ension
Ġlibr aries
Ġbur st
qu es
Ġdepart ments
Ġmurd ered
Ġcompet itors
ĠDe ep
ĠN ik
Ġt um
Ġavail ability
t wo
Ġnewslet ters
Ġal ign
Ġcontain er
Ġfil ing
ĠP ir
Ġwh is
Ġadop tion
Ġnewsp apers
Ġproduct ivity
ĠSing h
i ated
ĠD rive
D id
te ch
k ward
ĠM A
ĠF OR
Ġpregn ancy
Ġbuild s
On ly
Ġre ign
Ġover night
Ġappear ing
Ġindic ation
be at
Ġto ss
Ġdisc rimin
Ġear ning
Ġpubl isher
cel ona
w ords
Ġview ing
Ġcomb ine
Ġd uties
ell o
EM ENT
Ġm isc
Ġf ishing
ĠMan ning
Ġreflect ed
ĠS ac
Ġuncomfort able
om er
ĠFurther more
ĠWh it
---------------- ----------------
ĠMag azine
l u
Ġreg ret
Ġm unicipal
ĠP i
ail ing
is ode
put er
Ġhor rible
ĠN ative
Ġchemical s
Ġsepar ated
ĠS in
n amed
go vernment
k ind
Ġrel ie
Ġan onym
Ġre wards
Ġsophistic ated
Ġr ivals
Ġv iable
un a
Ġdes erves
g ence
Ġc ave
Ġpr icing
b ably
v o
ph an
Ġact ed
Ġrel atives
May be
N D
Ġwin ners
IC E
ĠMad rid
Ġm m
Ġprepar ation
Ġequ ipped
ist a
Ġlimit ations
oy d
ac cept
Ġr itual
Ġ198 4
Ġamong st
Ġcomplex ity
S D
Ġre cept
Ġmechanism s
ĠCh rome
Ġsl ide
ĠF ig
ight ing
Ġin du
Ġ= =
ĠRon ald
u els
Ġfire arms
ari os
ĠF ederation
Ġparam eters
Ġpe er
Ġcar rier
Ġcomm od
ĠWik i
Ġsuggest ions
P I
Ġexpl oring
ĠT an
Ġdelay ed
Ġme ets
M art
Ġtou g
ĠPh ys
Ġ198 6
ar ians
ĠTai wan
Ġlight ing
Ġb ip
ĠHT ML
Ġco ord
Ġintellig ent
ĠMississ ippi
ĠColl ins
Ġcelebr ated
Ġcur ve
Ġstart up
win ning
Ġce ase
Ġto b
Un fortunately
Ġab und
Ġens uring
Ġquiet ly
ĠK al
ir s
ĠBl u
s ize
i ors
Ġnight s
Ġinter ven
P s
Ġreb el
Ġcollect ing
Ġt u
ĠL uke
Ġg host
Ġdet ained
Ġworld s
ĠD omin
Ġtransl ation
ern el
Ġemploy er
c at
ĠMcC on
B en
Ġor ange
em it
ut o
Ġbe ef
ĠD VD
Ġrad ar
Ġinstall ation
ĠLe vel
Ġdeliver ing
prof ile
Ġdesign ated
ĠN az
ĠP oll
vers ion
Ġdeb ates
Ġm igration
d ata
Ġco ins
Ġpled ge
a very
Ġ) ;
ĠMel bourne
ĠM and
ĠE nt
Ġgr ants
les h
Ġoff season
Ġca ution
Ġnot ably
AT ION
Ġcat ast
Ġbug s
Ġthem es
Ġdeleg ates
Ġtable t
Ad vertisements
Ġcour ses
Ġw rap
ĠIn n
Ġcount less
Ġgrad ually
Ġwitness ed
ĠEag les
Ġgold en
ĠQue bec
u ates
Ġcomm ands
ĠCub a
ĠCoal ition
ĠBl ock
are r
D C
Ġt ends
or ia
Ġmean while
Ġviol ated
ã ģ
20 11
Ġdemonst ration
ell er
c ount
Ġpsych iat
at ter
Ġcomment ary
Ġdem o
ĠSwed ish
Ġann ually
Ġp ending
ay a
wit zer
ag u
Ġobserv ations
p in
qu er
âĢ ³
n atural
ĠS ex
DA Y
ĠE C
Ġremem bered
Ġquestion ing
ĠC rit
Ġfor b
ĠHe at
ĠS aint
Ġf ires
arent ly
Ġimp ose
Ġhighlight ed
o op
Ġlapt op
ren cies
ĠD isc
Ġrepl acing
Ġver ify
Che ck
Ġse eds
Ġcont ents
AT ED
Ġfrust ration
ĠO w
Ġpre view
Mich ael
AS H
Ġh unt
Ġdiscipl ine
Ġpoor ly
ĠMarsh all
Ġpat rol
Ġsupp lement
Ġcor n
form ance
op les
Ġpra ise
Ġbath room
Ġcom ed
ude au
Ġgra ve
or ical
ĠL ady
Ġact ress
Ġhapp iness
ĠPe ace
Ġexpl oration
ĠT oy
Ġcru el
ĠN ap
ĠPro gress
Ġf urn
Ġprevent ed
ĠL ions
Ġas pir
ĠAr ts
Ġgent le
Ġst arter
ĠP el
TH E
Ġch amber
ĠBl ake
Wh ite
ĠB ab
ĠHun ter
ĠExp ress
Ġpr ayer
Ġper mitted
el come
Ġinst antly
ĠR ound
Ġven ue
Ġalt ogether
Ġoxy gen
Ġbond s
Ġcult iv
Sec ond
Ġamb assador
Ġare na
ur ities
. ),
Ġdisapp eared
ĠBer keley
Ġtechn ological
Ġplan es
r in
d ev
ĠW ard
Ġcon ced
/ .
ĠH uff
Ġsuggest ion
om ach
out ing
Ġpart ially
Ġagric ulture
ĠSm art
ĠRog er
Ġdr inks
ĠCamp bell
ĠMot or
Ġs izes
b et
ĠFer gus
Rep ublic
ĠBe at
Ġprotect ions
Ġincor rect
Ġfasc inating
anc hes
b urn
ĠEnvironment al
ĠChristian ity
ra it
Ġvacc ine
ĠAdd itionally
ath on
ĠHawai i
M on
Ġlog ical
ĠP od
Ġpar ks
ĠF I
Ġhonest ly
Ġsty les
ĠF R
Ġsupp orter
em in
D E
Ġal ike
ĠSt orm
Ġtob acco
ĠL en
Ġun l
ier re
al id
appropri ate
Ġsum mary
Ġfle w
ĠN CAA
Ġadv ised
ĠKick starter
oc ur
od a
ĠM uch
au cus
Ġsing ing
Ġheart s
Ġmarg inal
Ġ7 6
Ġto ll
Ġappoint ment
arm a
ĠCongress ional
Ġeth ics
ĠH ann
Ġw ound
Ġd il
ĠFor ces
Ġst unning
ond a
Ġad j
Ġcomp r
Ġpro l
The ir
Ġcap ability
es ides
Ġenter prise
ĠMit chell
Ġtrans mission
st ring
ĠL aur
W orld
ĠVlad imir
ers ion
ĠN a
ĠG ene
en cer
c ode
Ġp owered
ĠSpe aker
Ġreact ions
Ġmet aph
Ġpros per
Le aks
ĠQ ual
Ġelect rical
ĠMan ager
Ġess ay
Ġst ressed
T witter
Ġbl ast
ĠAm b
Ġc ous
ĠEd itor
med ia
Ġfac ulty
Ġm akers
ct ive
m id
ĠCor ps
m ap
W ar
ĠT odd
Ġce iling
ĠJ en
Ġder ived
ĠAren a
ru p
ug s
P at
Ġsevent h
ĠRe id
Ġceleb ration
Ġmount ains
Ġha z
olog ically
Ġdraft ed
Ġpress ing
Ġarg uably
Ġsk et
fl ow
pl ing
Ġr ice
Ġc rown
g ments
Ġdep os
Ġra id
Ġdam n
Ġtravel ed
Ġend less
ĠN ame
tt es
ĠG ab
ĠS essions
Ġdr ones
Ġcompl ain
ĠCommission er
ĠU I
ĠOr ange
ĠJ ess
ĠOx ford
ĠA y
ĠB enn
Ġaw kward
Ġapp lying
Ġaccompl ished
Ġsac rifice
witzer land
Ġwe aken
Ġin eff
ĠWat son
Ġt ar
Ġshoot er
ĠM as
M edia
ĠF lynn
Ġmechan ics
ĠK y
ĠIm p
Ġbub ble
Ġas h
Ġbu nd
Ġassum ption
ĠBr us
ĠR T
Ġadvoc acy
ĠV ar
Ġhost ile
Ġep id
Ġreveal ing
Ġbre ach
augh ters
Ġc ats
Ġg reet
Ġrespect ive
ĠR ow
Ġexpert ise
Ġdev oted
at al
ĠDak ota
S everal
ĠInd ians
g roup
Ġscr atch
ĠPark er
Ġfr act
am an
ĠB aker
Ġcirc les
Ġstrong est
lect ed
Ġfocus es
T IS
ĠMod ern
Ġsh ocking
Ġan arch
at oes
ĠG re
Ġcal endar
hand ed
Ġaud iences
Ġcitizens hip
ĠCh all
g ary
Ġbuy ers
Ġconfirm ation
p ot
Ġl one
h ill
writ ten
Ġtr ucks
Ġpartic les
Ġacqu isition
ĠMedic ine
Ġconclus ions
Ġcomput ing
Ġsw ord
Ġl ung
ch ron
H ave
ro t
Ġsa uce
ĠLaw rence
Ġunnecess ary
T ake
Ġdirect ors
uer to
f i
ult s
I d
Ġsp y
ag raph
Ġl yr
Ġpen alties
Ġfr ank
Ġlong est
Ġline back
Ġrespond ing
um ing
ore r
ĠR ap
iv an
m are
Ġdec or
st art
ĠD ate
ĠTem ple
ip her
Ġhistor ically
Ġent ities
Ġbit ter
Ġad vertisement
ĠMor ris
form ed
Ġinter rupt
ond s
Ġst ir
Ġadd iction
ue z
Ġpl acing
Ġbe ars
Ġcontribut ing
Ġbound aries
Ġy ard
it ivity
Ġunderstand s
ĠFergus on
Ġqual ify
sh ot
ĠD or
f ile
Ġd uration
Ġcomp osition
li ver
p iece
by n
h alf
Ġquant um
Ġfrust rated
ĠRes p
Ġconvers ion
im s
Ġoper ates
Ġcoordin ator
Ġsh ake
ĠLeg isl
ĠHot el
and ed
Ġhack ing
ĠH us
Ġorient ation
F S
ĠBar celona
ĠSaf ety
v ious
ĠF ind
b ie
st orm
ĠRec ords
ĠY ang
Ġpri est
ĠK as
G iven
Ġ198 7
Ġfemin ist
ĠHis pan
Ġst un
Ġmotiv ation
Ġdist ant
Ġfast est
Ġgro cer
w id
Ġpain ted
ĠE D
d am
m atic
ĠB E
ĠNet anyahu
Ġm ic
20 10
ĠJac ob
on ia
ĠF CC
lim inary
ĠI an
Ġd ensity
Ġexperien cing
Ġovers ight
Ġped est
Ġcontro lling
Ġcount ies
out heast
bor ne
mind ed
Ġsaf er
Ġm ild
Ġtun nel
o ard
Ġ197 9
PD ATE
Ġn ode
Ġv ague
M in
Ġpop ul
Ġdiv ide
le ments
ĠR oc
Ġtrans formation
Ġdirect ions
Ġrece ives
Ġsent ences
Ġu gly
Ġilleg ally
ĠH end
ĠF if
Ġimper ial
? '
ab ling
Ġint ensity
at re
Ġprob ability
Ġcomp osed
Ġenjoy ing
F igure
ac ular
it ate
ĠSw iss
Ġsup rem
ĠU C
ĠAbb ott
Ġmand atory
H ist
Ġhe aven
Ġconserv ation
Ġg aining
Ġachieve ment
ĠR ain
t it
com ed
ĠP rom
ĠMc M
ĠBloom berg
oc us
Ġins ane
j an
Ġd ign
ĠRem ember
Ġ6 9
Ġagric ultural
ĠS ong
spe cific
Ġt ill
Ġbal anced
ĠAgain st
Ġcondem ned
ĠS ud
at in
Ġ198 5
Ġres idence
Ġst omach
Ġc am
Ġdist inction
Ġprint ing
w estern
Ġp ione
Ġemer ge
Ġprot otype
ac ies
ĠS ide
Ġspace craft
Ġw ings
b u
Ġinvest ing
bo ards
Ġover d
Ġaccept ance
Ġtou ched
st an
E ng
ĠB eng
Ġt une
Ġiniti atives
ĠR ice
Ġto ile
n or
Ġexch anges
Ġsc ary
ĠB uilding
Ġp ays
ĠTe a
Ġide ological
Ġscen arios
Ġz omb
Ġf illing
ĠC os
Ġmanufacture r
ĠBen jamin
ĠBl og
oty pes
ĠT ampa
ĠL ie
ĠEv ans
z es
ĠE lection
Ġp ink
Ġconst rain
Ġrot ation
B re
Ġinf ring
Ġrespect ed
m other
s ur
ĠD J
ĠK u
Ġal arm
idd ing
Ġser ial
Ġpress ed
Ġnon profit
Ġpe ers
con nect
Ġacqu ire
Ġcrop s
Ġoper ational
Ġp or
Ġl anes
ĠD raft
Ġc ake
or i
s upp
o j
Â ·
d ing
b rew
Ġtreat ing
Ġprior ities
Ġhigh way
Ġcomple tion
ĠBe h
Ġ7 7
Ġsubsid ies
Ð »
Ġexplos ive
abet es
F e
] <|
or ient
Ġres igned
ĠSte in
UT ERS
Ġanim ated
abb ing
er ving
um m
in itely
Ġinc omp
ac er
ay ed
le ton
ĠC a
Ġe ars
Ġsl avery
Ġdifficult ies
umb led
m art
ĠAr ctic
ortun ate
N T
Ġis lands
ĠLa ure
h ol
ĠCo hen
Ġfree ly
Ġch urches
k m
ĠÂ ©
Ġsh orter
( '
E uro
Ġform ally
Ġres erves
Ġappro ve
Ġfr ight
ĠCh ance
Ġdes ired
Â Ķ
Ġqu otes
G M
Ġrif le
b ecause
Ġrespond ents
Ġparticip ated
Ġdiscl osure
ĠM obile
Ġb ones
ĠBr andon
ĠR y
ĠTe xt
B ig
ĠR io
ĠF igure
Ġhuman itarian
ĠA wards
ock ets
Ġ19 30
Ġworth y
and y
Ġvolunte er
W S
Ġcrowd s
Ġmechan ical
â Ħ
m ain
Ġtut orial
l as
Ġsec ured
ock er
Ġatt ributed
ic ut
Ġjud icial
Ġcle ver
Ġrum ors
w hen
ĠR ail
Ġcr ude
ow ell
Ġmon etary
Ġdeliber ately
ec onom
ĠS aints
ĠCent ury
gu ard
Ġs her
Ġcult ures
i ary
Ġm amm
Ġanticip ated
R O
Ġeconom ies
Ġflex ible
ust ers
Ġro cks
Ġin hib
Ġ7 00
ĠMcCon nell
Ġh ier
Ġt el
Ġcon j
ĠÃ Ĺ
ict s
st ory
Ġelder ly
Ġgr ateful
Ġconsequ ence
Ġj okes
au c
( );
ĠK yle
Ġher itage
ĠR aid
Ġinc ons
M ed
ch arge
U D
s ized
ut t
Ġpan ic
he alth
Ġteen ager
Ġexp ed
Ġspread ing
Ġb ass
M en
Ġflex ibility
Ġaff air
cont rolled
Ġaltern atives
at ile
im ens
Ġz ones
Ġdisp os
Ġn aked
Ġdecl are
Ġinter rog
ĠCirc uit
ici ary
Ġto ken
Ġattend ance
act ory
Ġdis par
ĠG a
Ġadvant ages
th ink
Ġvir al
ĠK erry
Ġabs ent
Ġtrig gered
Ã ¥
Wh ich
val id
ĠAlbert a
b les
ĠT erry
Ġtechn ically
Ġre aches
Ġt ensions
o ons
Ġch ap
ĠS witzerland
E E
r idge
Ġp osed
r ane
ud ge
ĠS M
Ġdetect ed
Ġfin an
ĠSm all
Ġkn ocked
Ġbu zz
Ġinst inct
ĠT alk
Ġdesign ers
VER TIS
Ġdisturb ing
Ġpled ged
ĠArt icle
b art
c rat
Ġprev al
ĠE arly
Ġt urb
ĠT reat
ĠPro t
ĠBrus sels
ĠF ro
Ġinstru ments
Ġs ends
ĠCh ap
d ec
Ġsatisf ied
ĠB uck
ĠPost s
ĠB art
Ġprocess or
Ġw rapped
ll ers
H ar
ro c
pro duct
gl as
w he
Ġexc itement
Ġgreen house
are ttes
Ġshif ted
Ġequ ity
Ġbreak fast
ĠD om
Ġf are
Ġflo ating
Ġremind ed
Ġharm ful
ĠP uerto
il ateral
Ġflu id
ĠP ok
Ġdo se
Ġtr apped
ĠPart ners
Ġrep ly
Ġwel comed
ĠT un
Ġapp eals
ĠCamp aign
Ġsu itable
ĠFrank lin
d rop
Ġres olved
inc inn
Ġhar vest
ĠKir k
Ġlegend ary
Ġref using
Ġmag ical
Ġtransp arent
Ġavo ided
Ġbr ains
Ġfit ness
Ġl un
Ġgr asp
val ue
Ġport fol
B est
Ġident ifying
urn ed
ĠM ov
Ġn ull
Ġannoun cing
pr ising
Ġdecl aration
f s
I O
iz ard
Ġinn ings
or ig
Ġab ol
D ata
ĠBuff alo
ne ver
Ġprov incial
ĠCommun ist
ation ally
ĠLyn ch
Ġrec y
Ġha bits
Ġrus hed
it ably
Ġh orm
Ġcondem n
Ġste ep
ĠAnt i
az y
Ġimm igrant
ĠI ss
Ġ7 3
Ġmut ual
Ġhat red
Ġem pire
ĠGr ay
found er
âĦ ¢
g t
A ust
ĠI C
ĠBar ry
âĢ ĭ
ĠM aine
Ġassum ing
Ġminor ities
Ġhope ful
Ġoptim istic
Ġindic ating
AC K
C urrent
Ġhy brid
Ġexcess ive
Ġedit ors
Ġ7 4
Ġfro zen
S et
Ġbel oved
Ġbrow s
L a
est one
Ġconduct ing
Ġtempor arily
ĠPhil ip
-- -
ver ning
Ġpresum ably
Ġwh ites
N orth
Ġtrust ed
Ġimag ination
Ġdeploy ment
Ġedit ing
incinn ati
Ġsupp ose
Ġear liest
ĠV ery
Ġass ured
z b
ĠM D
ĠChrist ie
Ġtend ency
ĠDou g
Ġst ocks
Ġimm ense
ĠPr in
ĠRog ers
oc ate
Ġbar riers
ĠG PU
Ġtour ists
Ġdec iding
Ġpen et
Ġhead line
ĠN atural
Ġthrow s
â Ķ
Ġcast ing
ĠB ears
IS T
Ġwor ship
Ġinfect ed
Ġm ixture
ĠTr udeau
Ġsh ar
Ġspark ed
ed ed
Ġcomp os
Ġr all
Ġsocial ist
ĠJ ets
H aving
p owered
ank ing
In ter
Ġwa ited
Ġdam aging
Ġbutt ons
ra ham
Th rough
Ġgrab bed
Ġstruct ural
ĠWar riors
Ġve gan
Ġdefend ers
Ġcolle ague
Ġg rip
Ġcolleg es
v als
Ġathlet ic
Ġun ity
is en
Ġcrypt ocur
Ġf est
qu ality
Ġarm or
ĠOcc up
ĠM om
Ġplan ets
ĠT a
ĠO scar
Ġcart oon
Ġd iver
B L
Ġre hab
Ġparliament ary
ĠM itt
Ġgar b
Ġtr ash
ĠBr ady
Ġsc rap
ĠJeff erson
ar ound
N ever
Ġcompl iance
ĠH P
b est
greg ation
per or
ne red
Ġsoc ieties
au kee
ĠG arden
ĠCh uck
Ġl ake
ch i
e or
Ġpurs uit
ig hed
ĠB ou
Ġwh istle
og g
Ġf ru
Ġclick ing
Ġa uction
ors es
Ġdis g
Ġtradition ally
Ġatt itudes
on er
keep er
ĠF ried
ot ton
P ress
Ġapproach ing
Ġsurviv ors
ĠLiber ty
Ġwid th
e u
Ġex ports
ig ers
ĠGu ide
Ġhum or
f ox
A tt
ĠColumb us
ĠTurn er
point s
iff erent
ĠB und
Ġres on
Ġlegisl ature
ĠWik ipedia
ĠIs lands
Ġbar rier
ous ing
Ġdec ides
st ock
Ġpurch ases
ĠP ed
Ġch ampions
ĠKe ith
ĠJ u
per ial
Ġ0 1
ĠH ide
Ġn ick
Ġ7 8
Ġlif ted
Ġpure ly
Ġess ence
ĠF un
Ġdet ain
Ġsec rets
ĠA w
not e
Cl inton
ĠCor byn
Ġpurs uing
Ġtext s
ĠU ntil
Ġobserv ation
Ġh oney
ĠHar vey
or ph
Ġm asc
Ġthere by
d ale
ab l
ĠA th
Ġrec ount
Ġeth ical
ur i
ĠMor ning
Ġunder mine
ruct ive
Ġw ishes
Ġbl ess
Ġur ge
Ġin sect
Ġgrow s
ĠSh an
Ġregul ators
ĠCh o
AD VERTIS
Ġoff set
V ideo
s ign
force ment
ac ent
Ġmeant ime
ĠC rown
r ust
Ġdon ated
Ġf ont
ĠY ahoo
Ġ7 1
Ġeconom ists
Ġliber als
d i
Ġtreat y
be it
Ġt ang
Ġremind er
Ġl aser
z o
Ġsucceed ed
arent s
ur red
Ġt ong
Ġpassion ate
Ġbott les
w aukee
m n
enn a
Ġf t
ĠNor way
Ġrom antic
ĠJ e
X X
Ġfail ures
Ġhack ers
al og
Ġmet ab
Ġa est
ĠAl t
Ġsqu ee
ĠWW E
Ġemot ion
N EW
ĠUn iverse
Ġp ist
Ġfl ip
Ġbreak down
Ġout er
aren thood
ĠW orks
ĠF DA
ĠFant asy
Ġident ification
ĠC orn
Ġfr action
ĠMad ison
icial s
Ġadm its
ol k
ĠCam bridge
Ġdivor ce
t ics
Ġper mits
R T
Ġdecre ased
p ublic
ĠD NC
Ġsens or
Ġsac rific
Ġafter math
back ed
Ġgener ous
aw s
s chool
af i
Ġcomp ly
Ġdraw s
Ġexec ute
g ree
Ġwal let
Ġt rop
Ġsu ed
ĠD ub
Ġcomp aring
Ġunf ortunate
Ġarri ving
r ained
K ey
Ġ( )
Ġfin ancing
Ġret reat
own ers
ĠM oney
ĠK arl
Ġdis orders
ĠR aven
ĠArk ansas
Ġstr ain
Ġvar iation
Ġ8 2
ĠWiki Leaks
Ġenh anced
ĠMil itary
Ġsl ave
g ian
Ġfeed ing
Ġfem ales
Ġwind s
iv a
Ġaccount able
Ġver dict
ĠE V
Ġconclud e
Ġhelicop ter
Ġn ons
Ġ vel
] :
m aster
ĠRod rig
st ore
s k
Ġl ib
rop olitan
sec ond
ĠDep uty
ĠRE UTERS
Ġ Ø
Ġtreat ments
ĠE ss
Ġbatter ies
ĠF isher
Ġche er
p ace
ĠRob in
ĠConnect icut
Ġpre ference
ĠMem orial
se ud
ĠGu y
Ġcontact s
Ġcre ep
ing ing
ĠN ort
Ġlast ed
ĠNe il
Ġt at
Ġs illy
Ġmass es
ad vant
ĠJ ake
ĠPol ish
ĠE li
Ġretail ers
Ġembed ded
Ġcomp ound
Ġcorrespond ing
Ġrec onst
C NN
ĠCommun ications
ĠU RL
Ġsequ el
Ġdestro ying
L ink
Ġlack ing
Ġd aughters
Ġwond ered
s ource
ĠG host
ĠM ission
Ġun h
Ġcapital ist
ĠTy ler
Ġencoun tered
Ġeconom ist
ĠM M
roll er
N G
Ġlicens ed
Ġwar fare
Ġfound ing
Ġvert ical
ĠI RS
Ġre un
ĠVenezuel a
Ġag ing
Ġsm ugg
ĠR oom
Ġstatist ical
b ig
Ġgif ts
T om
Ġund ers
ĠMar ia
ĠE X
Ġam pl
Ġsl ower
Ġadv ances
ĠPakistan i
ir able
vis or
is ers
ig ma
T ION
Ġgrav ity
g iving
Ġf ierce
ĠConserv atives
ĠP ap
f ive
Ġcare ers
t ail
ĠB h
Ġ198 3
accept able
Ġvill ages
iz able
Ġintent ions
ĠP ur
op es
Ġd ys
ã ĥ
Ġh ill
Ġorganis ations
pl an
Ġauthor ized
Ġsepar ation
n ormal
ple x
Ġking dom
Ġcount ing
IV E
Ġgo verning
Ġtr agic
Ġwarn ings
Ġc ub
ĠLuc as
ĠDown load
Ġ198 2
Ġins urg
s ky
ĠK rist
Ġfar ms
Ġdiagn osed
ĠStud ios
ĠPlay ers
Ġcommission er
Ġst abil
ĠAd vent
S outh
Ġdis pro
Ġlobb ying
Ġtaxp ayer
ĠE mb
Ġed ited
ĠSus an
are st
ĠMer kel
Ġclean ing
Ġtransform ed
ĠTh under
w al
te es
Ġsuspic ion
m outh
it bart
Ġaw a
Ġcontin uous
Ġstre ak
P ar
Ġdem ol
ĠHoll and
Ġb oring
Ġele ph
Ġc odes
ĠPri ze
a a
Ġcons iders
Ġscreen ing
es is
d irect
Us ing
F ree
Ġgam ers
Ġmill enn
ĠSci ences
ĠSpir it
h aul
Ġdam ages
p ath
Ġcont am
F our
ĠSc ar
Ġal ph
crib ed
Ġten ure
it ative
ĠSpe ed
ut ical
ĠS alt
Ġincl usion
Ġfun eral
Ġinst ruction
Ġa ired
F ig
Ġf ence
ard less
ear chers
ĠSt ars
ll o
Ġl ip
ĠH ub
Ġfe ared
Ġtraff icking
Ġdon ation
ĠP interest
Ġde ce
Ġwork place
en c
Ġcl uster
Ġcred ibility
Ġf ib
Ġinv ite
Ġmon sters
Ġte ens
Ġinst itutional
ĠD anny
Ġcollaps ed
ĠC z
Ġjust ified
id ays
Ġhe nce
ĠB os
air y
Ġhypot hesis
d ig
Ġsusp icious
Ġden ial
Ġorgan izing
her ic
Ġisol ation
ank ed
elt a
h ave
Ġgr ace
Ġ' '
claim ed
ĠThe atre
ĠWith in
In te
l ib
g i
Ġboy friend
Ġcivil ization
Ġnovel s
ĠBr and
ham mad
Ġur ging
ĠMorm on
Ġinter ference
ĠTh or
ĠIslam ist
Ġwrest ling
A V
Ġdoub led
Ġth irty
Ġsp awn
u j
uss ion
ð Ł
Ġreal m
Ġmag netic
Ġste am
Ġbelie ving
ĠPet ers
th an
im age
Ġexp end
Ġout right
Ġsoon er
ĠInte rest
r int
Ġbr anches
Ġmed ian
Ġbenef icial
Ġcry ing
Ġcomp iled
â ĪĴ
ch ar
Ġdec ks
ad ows
Ġrecru iting
ue ller
Ġc ort
Ġind ict
Ġen ables
Ġeduc ated
th a
Ġinv ented
Ġev angel
writ er
Ġle verage
Ġrus hing
Ġelimin ated
. âĢľ
ĠD est
Ġrh yth
Ġm ock
Ġspons ored
ere r
G ame
ol er
Ġtra its
Ġunve iled
ank a
Ġbe ers
ĠCharl otte
ĠUb untu
i per
in ance
Ġroutine ly
Ġple aded
ol ine
ĠC incinnati
ADVERTIS EMENT
Ġp izza
Ġtem plate
Ġlab els
Ġeval uate
Ġag rees
Ġsolid arity
ace utical
oll ah
Ġbreat hing
op ard
Ġalbum s
Ref erences
ĠLt d
Ġr ib
ĠK le
ĠStud io
Ġtem ple
ĠFor mer
Whe ther
ĠN av
ĠBrad ley
Ġdisc our
W ork
ur able
Ġd umb
Ġlay out
. :
ĠH ills
Ġshif ts
Ġincent ive
ĠT D
ĠC arson
Ġdirect ory
Ġentreprene urs
ĠPr inc
ĠB ash
Ġmagn itude
Ġjump ing
ĠHind u
Ġl au
Ġsmart phones
Ġult ra
Ġ8 8
ĠLe af
Ġv ibr
ĠO liver
Ġcompar able
Ġclimb ing
rodu ction
ĠGl ass
ĠIndones ia
Ġarrange ment
Ġpath s
O rig
Ġwhe els
ast ically
Ġpil ots
Ġtermin al
Ġincent ives
ĠC ut
Ġmidfield er
Ġspec ified
Ġexcept ions
Ġadequ ate
co ins
Ġcoc aine
ĠB uy
p op
ĠSol ar
dri ven
Ġo x
Ġpsych ology
Ġd irt
Ġsn aps
Ġpre liminary
Ġc ents
Gener al
Ġpe oples
re nder
st age
ĠVer izon
ord able
Ġpart ial
ĠSen ior
ĠVer mont
Ġscream ing
S ign
on i
ĠP ence
Ġvis a
wid th
Ġlyr ics
ĠL ED
ĠF arm
ĠB JP
Ġfirm ly
Ġtransl ated
ĠC ass
ĠF el
ĠTrib une
Ġintrodu cing
Is lam
Ġconnect ing
A nt
Ġreg ards
Ġcounterpart s
Ġmon op
Ġch ains
Ġac res
Ġgen et
Ġcr icket
Ġappeal ing
Ġam end
Ġme als
ess ional
arth y
ck er
ĠMc L
Ġwild life
ĠFriend s
V al
Ġb ust
ĠG onz
Ġun rest
ĠCount ry
ĠA B
H ill
200 9
Ġsc ul
Ġtrad itions
Ġthreat en
Ġcreat ors
Ġgl ob
ĠSo x
h ome
f ly
Ġsens ors
Ġlike lihood
Ġn an
Ã© mon
Ġcomment ed
Ġdetermin ation
Ġvac ation
J an
ĠB L
ĠZ h
an ium
Ġan ime
Ġcount ed
Ġmatch ing
ĠBook s
Ġconv inc
ĠJ oy
Ġ: :
Ġbet ray
Ġd ivers
Ġtr ace
Ġprec ious
ĠProf ile
ĠBelg ium
S y
Ġp upp
amp s
Ġpl aint
St art
Ġtri ple
E G
Ġpar agraph
umb ling
Ġmotor cy
Ġshe er
ĠLeban on
Ġinvest or
Ġkill s
Ġendors ed
Ġle agues
Ġlicens ing
Ġto y
ah l
Ġaccur ately
Ġshif ting
c s
Ġun st
ĠAr thur
ol o
J ames
Ġtw ist
ĠP AC
ĠAM D
t able
ĠO d
ĠN ixon
ĠCow boys
re r
l ive
U E
ul ative
S er
Ġdisappoint ing
Ġfold er
Ġavoid ing
iv ic
ĠF ab
Ġcomp assion
Ġtrans f
res a
ip h
ĠT ob
Ġdis m
Ġprohib ited
Ġ19 20
ĠBrazil ian
Russ ia
St ud
ias m
ĠArgent ina
Ġwork force
Ġaccount ing
Ġgr ain
Ġproceed ings
ugg ed
D B
ĠG arc
ĠN in
Ġsp are
i ots
Ġlength y
ĠEb ola
B et
US A
Ġsl aves
ĠQ B
U PDATE
Ġj ew
Ġdub bed
Ġr iot
f old
ĠUnivers al
A lex
un ct
ĠPolit ical
Ġin mates
p y
Ġment ally
ĠR ams
Ġfundra ising
Ġsh aped
c end
ĠB Y
Ġtouchdown s
Â £
Ġover look
ool s
Ġf ict
Ġ198 1
Ġcelebr ity
Ġm erc
ĠWe iss
Ġwilling ness
Ġmar ine
ri ving
Ġind irect
Ġsevere ly
Ġshe d
M ake
ĠR osen
Ġestabl ishing
Ġgener ating
ate ur
Ġor g
Ġnegoti ate
Ġshould ers
ĠBro s
Ġint u
ĠK am
Ġimplement ing
Ġrenew ed
Ġd ivid
ri en
agh d
o pp
ĠSer ge
Ġconsum ed
ĠFin ance
Ġp owder
Ġswim ming
ĠQ aeda
Ġcreat ivity
Ġrel ating
Ġb ite
ĠT ar
Ġse ctors
b ull
ke es
s ki
Ġn it
lud e
Ġcertific ate
Ġassum ptions
Ġfire f
A h
o a
ĠGl enn
Ġinteract ive
if ting
Ġobser ve
Ġaccomp any
ch a
G od
Ġtrad em
Ġaver aged
S ometimes
ĠG ates
ĠN ex
ĠH unt
cc a
Ġref lection
red ict
iox ide
Ġbra ve
fe ld
ios ity
ĠPh one
======== ========
Euro pe
ubl in
Ġroy al
Ġaffect ing
Ġh ij
C ap
Ġsa il
ĠM O
Ġwor n
U M
r ament
Ġfil ming
ĠT ell
>> >>
ĠL ane
ale y
ĠM ort
it ated
ant o
Ġind igenous
Ġearthqu ake
Ġblack s
ur l
u ced
Ġmount ed
Ġadapt ation
ull ivan
Ġsubsc ription
Ġconsult ant
out ube
Ġdetect ion
Ġclin ic
ĠAr men
Ġcompat ible
O ct
ir k
ul um
L Y
Ġ7 9
m i
ĠMil waukee
aff e
Ã Ĺ
ĠMar co
Ġrec alls
Ġdis k
Ġf uels
Ġcor ners
ill o
ĠAn ne
ĠAn im
Ġrep ublic
l ash
Ġdi abetes
Ġesc aped
Ġspecial ist
Ġfol k
ĠHigh way
olph ins
N ET
Ġ196 7
ĠA ve
RE AD
Ġadjust ed
Ġwood en
Ġpredict ions
ĠB ond
ĠSt re
ĠM ust
Ġless er
Ġad mission
j ar
Ġliter ary
Ġfar ming
Ġproblem atic
1 10
is ible
Ġimp ress
Ġtri umph
ul ent
Ġtrans cript
ĠM ason
Ġt ub
ĠCl ar
Ġlaws uits
Ġmar ry
Ġaggress ion
Ġorig ins
Ġsl ip
ĠP L
ĠC elt
oc c
ĠC reek
M al
oc aly
Ġm aker
au x
Ġhe aling
ĠCol omb
p se
ĠBull s
ĠGer mans
Ġp ub
Ġcontin ent
Ġwhere ver
Ġaud it
ĠDou glas
ĠC her
ĠBl ues
d ays
ĠB B
Ġdesc ript
ro se
Ġmusic ians
ĠE dd
pr ing
Ġtr ap
Ġh oly
ĠGold man
N Y
ac ious
Ġunder way
eng u
ĠV A
R ober
G erman
ol utions
W est
Ġmort ality
ec hes
ugg ing
Ġeval uation
ĠRe ading
ĠE c
Ġv on
Ġab used
Ġvulner ability
Ġbankrupt cy
ne ath
Ġdel ays
ĠP arenthood
Ġsuper hero
Ġ1 30
Ġp ants
ĠGall ery
p ur
Ġy e
Ġindepend ently
ah a
O s
Ġres et
R ich
Ġve to
mun ition
Ġsh ore
Ġsk illed
pe ople
i ology
f il
D ec
cl osure
oot ing
Ġle ather
Ġtim eline
Ġle af
Ġle aks
U I
ĠR C
at on
Ġresign ation
ss on
Ġsu its
Ġcy cling
OS T
ĠBron cos
Ġdark ness
Ġorgan ize
W A
Ñ ĥ
Russ ian
J ack
ĠH um
Ġinter cept
Ġsw ift
oca ust
Ġw reck
Ġ1 10
Ġsher iff
ili ation
ĠSuper man
l ie
ĠSp ider
B rit
Ġin ch
Ġafter wards
H igh
ĠBern ard
ig nt
ab ul
Ġsupport ive
Ġres ume
Ġ18 0
qu al
Ġshoot ings
Ġ] <|
ail and
Ġse iz
ian g
Ġin appropriate
ather ine
Ġform ing
ĠS omething
Ġbehavi ors
Mus lim
Ġlaugh ing
ĠD M
es ity
Ġaltern ate
Ġ19 40
Ġtest ified
Ġ196 8
Ġpract ically
lev ant
S ON
Ġun anim
Ġreb ell
ack er
Ġthorough ly
Ġins ists
Ġcr ashed
orn s
ĠBud get
se lling
Ġbroad band
Ch ris
Ġlabor atory
Ġteen age
Ġdis advant
G reen
ĠIs a
Ġdoctr ine
Ġencry ption
ĠEx change
Ġp y
ĠT ry
Ġloc ally
al ph
Ġout break
iss ance
at ers
ĠVik ings
pe red
Ġsound ed
T unes
Ġoff shore
Ġap ology
Ġexp ose
Ġk ernel
ĠJohn ny
Ġexha ust
he w
Ġun e
Ġout fit
Ġcons olid
au er
ble m
Ġautonom ous
Ġcost ly
et ing
Ġcorpor ation
Ġcolon ial
Americ ans
Ġanalys es
ĠSp encer
Ġphotograp her
Ġs ie
Ġne at
Ġb ind
Ġkill ings
ĠRe ed
ĠN C
act ic
ĠM ember
Ġdemonst rations
ĠG ate
umb l
Ġchart s
Ġreason ing
mar ks
Ġpro x
Ġclass ical
ĠJ oh
ra pe
ĠPalest ine
Ġgr ay
Ġed ges
erv ation
ĠL ock
row th
Ġattack er
k g
Ġveget ables
Ġint end
B ay
Ġmat ched
Ġemb assy
Ġlect ure
ĠL iving
Ġpurch asing
Ty pe
âĶ Ģ
dis play
ill ery
Ġswit ched
ĠSe ah
ĠAg ree
RE L
ĠS or
Ġloc als
Ã £
Ġpre st
Ġoblig ation
ĠAl f
Ġes p
Ã© s
Ġr ated
fund ed
Ġinf er
Ġstat ue
ĠWal ter
epend ence
lement ary
Ġgarb age
Ġdem on
Ġstraight forward
W rit
Ġbus es
Ġmob il
Ġelabor ate
ect or
S ch
light s
ĠSystem s
Ġterrit ories
g ro
Ġportfol io
Ġ197 6
Ġfl owers
Ġ10 1
Ġgod s
Ġhe d
ĠBet ween
ĠB ased
Ġtra uma
be an
ĠK och
Ġinf amous
ocument ed
ĠC u
g el
Ġunf old
ĠMichel le
ĠD iam
ĠL ess
h is
ar ming
Ġair line
S M
Ġor che
cul es
ĠS W
Ġpriv ately
D ay
Ġh alt
ĠM MA
f our
oub ted
ĠW R
Ġl ap
Ġc m
Ġs isters
Ġbes ides
Ġdeal ers
ĠT ory
ĠHom eland
ĠEm ploy
H D
ignt y
1 20
Ġaccommod ate
Ġfrust rating
Ġl oving
ri el
Ġmed ication
M et
Ġath lete
Ġf ame
.. ."
Ġfor ums
ett a
ĠMu hammad
ĠIn v
Ġ197 5
ĠS ad
oc ity
Ġatt ributes
Every one
an te
Ġn uts
ĠF at
ĠI l
ĠDen mark
Ġpe pper
in os
ID S
As ked
Ġpred omin
ĠM erc
ion ed
Ġrank ings
az ed
S uch
ĠV eter
ke ys
Ġclos ure
Ġb urg
ĠCom ics
Ġlim iting
ĠL oad
iss a
ĠUn it
Ġmod es
Ġstrik er
Ġsear ches
ĠBr un
Ġimag ined
ph p
ĠCal gary
ort ions
Ġd ated
re ach
u um
Ġ8 1
Ġwithdraw al
pe lled
ĠK ind
Ġe ighth
Ġeffect iveness
ĠS oul
2 000
pro te
Ġst ays
Ġs ink
Ġobser vers
add y
Ġint ake
op ing
ĠSub scribe
n esty
ĠG ear
Ġd ioxide
Ġcar riers
Ġm ph
Ġenthus iasm
ĠL uck
Ġwh ilst
Ġmis leading
ĠW ATCH
ap y
Ġcon vey
Ġ197 3
Ġo h
Ġpubl ishers
ro lling
Ġqu ery
Ġmeasure ments
Ġsp ill
pro of
Ġnom inated
ĠRel ations
T or
Ġsubstant ially
ĠB uild
ĠN umber
ĠMove ment
O G
Ġhistor ian
Ġunc ons
n ames
ĠHar rison
Ġlist ing
Ġqual ities
ĠP ere
i op
Ġstr ings
ik ing
ĠConf eder
) (
ak u
Ġrespons ibilities
Ġdelic ious
Ġd angers
t or
Ġexam ination
ĠG PS
Ġdiagn osis
Ġlock er
ĠG B
v iol
writ ing
Ġhung ry
Ġple a
Ġgr at
sh irt
resp ons
Ġ9 8
ĠPal in
Ġd rought
Ġdiscl ose
Ġex agger
Ġrev ised
Ġrel ies
Ġhe ter
ĠA CL
Ġinev itably
ĠS A
Ġh ood
Ġvol umes
Ġd ash
Ġblood y
P N
ĠH at
Ġmem orial
ĠA qu
Ġign oring
ĠR ico
oth y
Ġloyal ty
Ġdiff er
Ġw and
Ġvari ations
Ġmaintain s
ro ots
ab ad
S emit
Ġ197 2
Ġent ries
Ġsymbol s
ĠCarl os
Ġshut down
Ġam munition
Art icle
âĸ Ī
Ġfriends hip
ĠB uzz
ĠR ace
l en
Ġp orts
ĠW oman
Ġyour s
ĠBl air
ĠSh adow
D oes
Ġal tered
Ġst ab
Ġclass room
Ġdem ographic
ĠH ud
ĠSoft ware
Ġoccur ring
ins ula
Look ing
Ġ ^
ĠP T
Ġphot ography
Ġp ile
min ation
ĠD ennis
ĠVill age
ĠK el
Ġalgorith ms
Ġformer ly
Ġfundament ally
Ġredu ces
Ġbrief ing
Ġtrib al
ĠPlan ned
Ġh orses
Ġag greg
Ġfulf ill
ĠTe h
Ġc her
ĠH em
Ġrap ed
Ġcelebr ating
m ines
Â ®
Ġhero in
Ġ8 4
Ġves sel
Ġdesper ately
ĠBrook s
ĠA my
âĢ¦ âĢĿ
Ġmet res
ĠUp date
Ġinhab it
ĠWall ace
Ġmid st
ĠTrans portation
Ġ8 3
Ġgall ery
ĠL isa
art isan
iz ont
Ġrein for
ĠGM T
Ġb ikes
Ġsk ull
M ike
Ġde leted
Ġun limited
Ġ197 8
ur u
Ġsac red
ĠSun ni
C ity
Ġdecl ining
Ġout door
ential s
Ġdisp ens
Ġnew est
Ġbelong s
n ational
bl ack
Ġexerc ises
Ġexpress ing
Ġpres cription
Ġins ure
Ġsh y
Ġmod ules
Ġaccount ability
Q aeda
ĠLiber als
Ġspect acular
ĠH ockey
Ġsche mes
Ġju ice
id ges
h al
ING TON
ĠRaid ers
Ġf iber
Ġgovern ance
Ġgar age
Ġarch ae
Ag ain
Ġt ribute
ĠP as
Ġconsum e
S ep
ĠR ah
Ind eed
ĠEd wards
Ġpresident s
Ġp ipe
ĠN A
Ġf lesh
rep resent
p rom
we alth
Ġarr anged
Ġlineback er
Ġsh apes
Ġfil med
Ġrub ber
IT Y
Ġbed room
Ġc od
Ġw ip
Ġqu ad
Ð º
ĠG it
Ġch ase
ĠPok Ã©mon
ĠTer ror
Ġsol ved
C OM
Ġa ide
ĠSeah awks
ur ring
it is
osit ory
S uper
ĠM ueller
Ġconf using
Ġre ception
Ġn odes
Ġplay back
Ġaccident ally
Ġbillion aire
as m
aret te
ĠCh apter
put ed
oubted ly
rem lin
Ġl oses
ĠJenn ifer
Ġb inding
Ġperman ently
b ul
Ġtw in
h ner
Ġto ys
ĠP ick
pt s
ell a
oc ide
Ġexhib ition
Ġr age
C opyright
ol an
Ġun le
ĠM C
Ġ Ï
Ġmisc onduct
Ġspir its
ĠD R
ĠA ld
Ġw ounds
ell ar
ĠSil icon
h ole
he lp
let ter
w ear
Ġbo ats
ft en
ĠShe l
ĠA gr
uls ion
al so
Ġmed al
9 00
W H
ĠCo ach
Ġsell s
in ate
Ġconsider ably
ĠPhot ograph
Ġdemonst rates
Ġsan ct
le m
Ġfresh man
Ġth umb
ĠD ublin
Ġlast ing
ĠF ame
Ġman ages
Ġstrict ly
Ġsh ipped
pp o
Ġchem istry
Ġpro c
ag ging
Ġregul ate
as i
ĠW onder
Ġfin als
Ġlabel ed
Ġmilit ant
ĠSer ver
200 8
Ġvig il
Ġpre jud
ĠL ost
Ġtoler ance
Ġfin es
ane ous
App le
run ner
Ġ8 6
Ġskept ical
Ġsp ite
de gree
ĠN PR
Ġg rey
Ġexcept ional
ĠMalays ia
se mble
Ġfan cy
Ġt ier
heim er
bl og
ch air
ĠJ a
com m
Ġstre ams
ĠJ ar
Ġlin ear
Ġreason ably
Ġpuzz le
ĠCh ile
Ġtack les
Ġcance lled
Ġden ying
p it
D ep
n ik
ĠTr uth
Ġl uc
ĠB us
ĠZ ion
ie val
Ġpit cher
Ġ9 6
ĠJ uan
Ġprocess ed
ĠFor um
Ġp seud
B it
Ġlove ly
ĠM i
ĠF ly
th irds
Ġsp ends
Ġmid night
!! !
Ġorganiz ers
re ated
Ġret rie
Ġrest ored
ĠRes ources
work ing
Ġun acceptable
ĠUr ban
ĠR oth
ung le
ĠY ears
Ġsub mar
Ġtun ed
Ġgenuine ly
ĠHer o
Ġteen agers
Ġf art
ĠSt ring
ĠOper ation
Ġmon ument
el f
Ġqu o
ĠPal ace
Ġfacilit ate
ĠV iol
Ġ8 7
olute ly
Ġm ature
Ġd ancing
man uel
ĠRepresent atives
Ġrel ate
ard ing
Ġout lined
Ġf oul
ĠD od
Ġautom ated
Ġoblig ations
un s
M I
Ġdiv isions
Ġsexual ity
Ġext ends
Ġsurve ys
Ġtour ism
ĠG and
ĠG ay
ĠBill y
IT H
ĠMcC arthy
ig a
ab el
ĠTh ailand
Ġsuccess or
Ġi Tunes
ĠR ic
Ġad vers
Ġle ap
irt ual
ĠR ush
it ial
ĠT ill
on ge
Ġspot light
ĠBenn ett
Ġbe ll
Ġanonym ity
A ug
E arly
L ife
ret ion
ĠCh arg
form ing
Ġin ability
Ġdefin ing
Ġab oard
ĠN DP
ĠÂ ĵ
Ġunder neath
OR T
Ġdr illing
Ġrecommend ation
ĠAut o
ĠSh ield
ĠRich mond
ĠSp urs
Ġsubject ed
Ġhear ings
Ġbattle field
Ġgener ic
ĠS i
ĠS ay
ow een
ul u
ĠIn valid
ov ic
ĠAr n
Ġinc umb
Ġp ound
w er
s is
ĠC ond
ĠGriff in
al in
in ery
ĠF ile
Ġspe eches
ĠM ack
A uthor
Ġconsist ency
ĠOb viously
Ġvict ories
ĠCz ech
Pro f
Ġsn ap
ĠZ ero
ĠBang l
R et
A v
ĠSh ar
Ġcontract ors
ĠCh amber
Ġcor rid
ĠChron icle
Ġris en
Ġl ined
ai ro
ĠH ope
Ġover haul
ĠRet urn
Ġinc oming
Ġgu ilt
Ġp iv
Ġad verse
Ġtong ue
ĠCom merce
sc he
Ġm as
clus ion
Ġsal aries
Ġprem iere
ĠBet ter
ĠBre itbart
Ġse ct
Ġpar ade
ĠEl sa
Ġtrave lling
Ġn ort
Ġste pping
bor ough
rane an
Ġembr aced
Ġfrank ly
P oint
ĠL LC
Ġname ly
cl osed
uk i
Ph ot
Ġrender ing
ĠSe ven
Ġcon cess
pro v
ĠBe yond
ĠRec ord
Ã£ o
B R
Ġtransl ate
ĠSo on
Ġconfident ial
Ġpl ates
Ġconfront ed
ĠTit le
ĠR at
ĠSoc cer
li ent
Ġm elt
Ġexhib it
Ġ196 9
ĠQ atar
Ġanaly zed
Ġdisc on
ĠAcc ount
Ġtact ical
âĢĿ âĢĶ
Ġl iability
Ġdef ic
Ġb inary
ĠWork ers
ĠPack ers
Ġem power
m ile
ĠHur ricane
ri pp
th s
sp ace
Ġd ive
Ġart if
ĠP ad
head ed
Ġbureau crat
Ġfunction ing
ĠSur vey
ĠF itz
Ġme g
Ġun ited
Ġarri ves
ĠElect ric
Ġstro ke
Ġlic enses
ist ically
Ġ0 2
Ġred e
Ġr ings
p x
Ġback lash
ĠC ape
Ġpart isan
ĠCub an
Ġvend ors
Ġdoub ts
Ġdon ate
ĠBry ant
Ġsteal ing
Ġsign atures
uster ity
acc ur
Ġc argo
ic ers
Ġfel ony
ĠM VP
Ġgrocer y
RE S
Ġg ard
S an
~ ~
Ġcloud s
hold er
r ong
Ġpublic ations
ah n
Ġcasual ties
ĠML B
Ġaut ism
Ġnegoti ating
Ġcoast al
Ġm ate
c ill
ier ra
ap or
Ġobject ives
Ġ9 11
Ġment ions
ĠG reens
ed ge
Ġv ib
ming ham
bs ite
k h
Ġdefend ants
Ġsovere ignty
ĠStud y
R ob
ĠG as
Ġelectron ics
ĠH alf
Ġgl ory
ĠH BO
Ġprem ier
Ġd ot
Ġliber tarian
ĠNe ed
w rite
ĠS L
Ġarrange ments
ĠIce land
Ġ> >
ex p
ai res
Ġves sels
ĠP un
ling ton
Ġac ute
IN E
ãĢ Ĥ
Ġind ef
M er
#### ####
Ġhon our
ĠReg ional
ĠM aj
Ġfl ows
Ġdiscl osed
ĠDef ence
Ġj ack
Ġ9 3
ĠM all
V A
Down load
ĠR AM
Ġsport ing
ĠPr int
Ġlack s
Ġscul pt
ag ged
d el
ĠMet hod
c ost
ĠI v
Ġpre season
Ġnecess ity
Ġint ens
ĠS F
Ġfort un
Ġ{ \
ĠTit an
ĠC M
= âĢĿ
Ġ9 7
Ġu seless
or ity
ĠBrother s
A ng
Ġout let
Ġart ic
Ġ197 7
Ġconvinc ing
Ġcl arity
ir i
ĠB obby
Ġlegisl ators
Ġpret end
Ġcatch ing
w ick
Ġdign ity
ĠBarb ara
Ġdetermin ing
Ġhe al
Ġutter ly
Ġn od
Ġprotect ive
orient ed
Ġret ro
ĠAL L
ent ions
Ġstimul us
Ġtw elve
âĢ¦ âĢ¦
Ġprop ri
ps y
Ġcharacter ized
Ġc ute
there um
Ġbl own
Ġp ale
Ġmarket place
Ġd ense
ĠS earch
r us
Ġim pe
az ines
ut ing
Ġspons ors
Ġt ube
Ġs lic
Ġtheoret ical
ĠNob ody
T ur
u ity
ocrat s
Ġl ighter
ĠAtt ack
ĠS ent
ou st
Ġspe lls
ĠSim ilarly
ter ior
Ġhun ger
Ġflood ing
ĠK ill
Ġlegit im
Ġadap ted
ĠEvent ually
Ġc ure
ĠPhill ips
AR D
ick ets
pl ess
ĠT ib
Post ed
ron es
Ġprev ention
ĠBrown s
ĠBe ast
Ġgen ius
aug hed
ĠB P
te am
Ġswitch ing
Ġevolution ary
uff icient
Ġfore sts
C R
m el
ĠSh ah
Ġse am
ĠBut ler
Ġen abling
Ġmus cles
M at
Ġcomple ting
Fr ank
Ġ9 2
Ġglass es
ĠCol on
ĠT igers
Ġqu arters
Ġ197 4
d isc
Ġsens itivity
const itutional
Ġantib iot
F I
M em
Ġhas h
Ġr am
ĠBry an
Ġhe m
Ġ ),
ul ator
Ġca res
u v
le tt
um ns
atic an
Ġbarrel s
H ouse
Ġun ch
W ashington
Ġm all
Ġair pl
lick r
Ġachie ving
ĠM ode
Ġread ily
ĠM IT
Ġmal ware
Ġexplo itation
Ġmist aken
Ġtable ts
M M
ĠAl tern
Ġw are
Ġaffili ate
ĠSand y
Ġmurd ers
Ġco at
ĠFr an
{ \
Ġelect ro
Ġha ul
L D
raw l
ic he
Ġlist ened
Ġmet a
S ur
Ġequ ation
ĠCl ay
Ġastron aut
uten ant
Ġjurisd iction
ĠSh i
k ill
Ġdeb ris
ĠB ishop
Ġad min
Ġsubscrib ers
Ġreb uild
ĠNever theless
ĠPant hers
ĠI b
ang o
Ġdr ill
d b
Ġhold ers
Ġtrib e
ĠCast le
Ġl aughed
ant ing
Ġext ending
Ġsubscrib ing
Ġrefere n
Ġspec ify
a ired
om atic
k ens
Ġinfl amm
ĠPlan et
Ġbip artisan
ĠF ast
os i
Ġspons or
out ed
A FP
Ġcool ing
Ġpredec essor
ant i
ab a
Ġins ights
ĠL E
Ġsomet ime
ĠJ av
ĠO wn
Ġred ist
em ail
ĠSel f
g reen
Ġ197 1
cast le
Ġref usal
Ġh ind
Ġfr ames
Ġbe aring
Ä ģ
ĠArab ic
ĠOb ject
Ġfinan cially
ĠTo o
Ġw it
ri ages
Ġcous in
ĠIm perial
Ġr ats
ĠIn side
Ġroll s
Ġup side
min ed
Ġsynd rome
Ġswe ep
Ġnot orious
b uilding
Ġnight mare
Ġp airs
C le
Ġfire arm
vel t
Ġend e
Ġswe eping
Ġf ond
or us
Ġbusiness man
) |
Ġdu o
ĠJam ie
ĠOr thodox
Ġcan cel
Ġpers ist
Ġpro port
Ġcred ible
Ġarbit rary
ĠAust ria
ĠSt op
ser ver
Ġattack ers
Ġsur pass
ĠEd ge
Ġhard est
Ġa ston
art s
Ġmob ility
Ġexpect ation
B ER
id o
Ġe leg
Ġassoci ations
ĠW ii
Ġneur ons
Ġdomin ate
Ġglob ally
Ġreview ing
IG HT
Ġor al
cont rol
Ġc ab
f eed
Ġnew er
Ġviol ating
Ġm igr
re amed
Ġhydro gen
Ġportray ed
ĠC OM
Ġ3 50
ak y
Ġl ately
Ġtre asure
z i
Ġchar ter
Ġsepar ately
ĠD awn
ĠInd ex
ĠNew ton
Ġter rain
ASH INGTON
ĠTO DAY
Ġtour ist
E v
Ġendorse ment
S l
Ġv owed
Ġmem or
Ġtroub led
EC T
ĠB ird
Ġsp at
Ġ ðŁ
Ġtr icks
amp ed
ĠI BM
Ġrevel ation
Ġdis ability
Ġa ides
ĠSud an
ĠR achel
Ġdeter ior
S and
ĠSp ot
ĠDou ble
ĠA x
Ġapolog ize
ĠL ang
Ġre iter
res pect
Ġnation ally
Ġ14 0
agon ist
G S
Ġre ct
Ġdesc end
ott om
Ġrel ied
ĠB aghd
Ġbi ology
Ġnav igate
Ġpos es
c ry
osp el
f ar
ĠJul ian
Ġsettle ments
Ġp ockets
ĠMar cus
et e
Ġprov in
ĠTeh ran
Ġart istic
ĠWell s
Ġcommit ting
ĠQu inn
ĠV i
b ad
ĠN ag
ĠPr im
M obile
pt ic
ĠSw ift
os ures
iz ards
Ġtourn aments
Ġb atch
Ġelev ated
Ġphys ician
Ġwas h
ĠN E
ĠLaur a
im port
ĠContin ued
Ġg au
Ġpro ving
Ġshort age
Ġpers istent
Ġdecl aring
Ġc ache
ĠB order
ĠB ed
Ġident ities
ne x
Ġst raw
Ġbl end
ĠLe v
ĠD aw
at ched
ĠGl obe
umbl r
es pecially
ar cer
Ġinter im
ade qu
ith ub
ĠC SS
Ġpr ay
Ġst ark
pro du
col or
C are
ĠE S
Ġvill ain
Ġ8 9
Ġdistingu ish
Ġviol ate
ian ces
Ġinv isible
Ġles bian
P ut
ĠB R
Ġb io
Ġgrad uated
ĠAss istant
Ġgal axy
p df
fr ame
Ġart work
Ġexclud ed
r one
Ġvar ied
u cc
th ree
Ġal iens
Ġinc on
Ġover time
ĠMach ine
Ġa ster
Ġtem pt
Ġdefin itive
Ġover see
Ġinter section
Ġpron ounced
V ID
Ġd rown
B uy
ĠD ue
ĠBre ak
Ġkick ing
aus ible
Ġrun ner
ĠN ancy
ĠLeg end
Ġacc using
Ġc u
Ġassemb led
Ġrel ent
d ie
m os
ĠF L
T im
Ġinflu ences
ĠM B
ĠCard inals
Ġanal og
Ġpref erences
Ġpre y
Ġsub way
ĠNex us
Ġob esity
Ġrevel ations
? !
ĠCl ose
Ġren ov
S ports
ĠCle an
Ġlay ing
ĠLad en
Ġfort une
ĠM ul
Ġal umin
Ġbul lets
ĠF ish
Ġa qu
Ġbes ide
Ġhel met
ĠNe ither
Ġrisk y
ĠW ade
ĠR ud
Ġwar r
Ġuns uccess
am as
Ġimpl ies
Ġvary ing
mont on
ĠAff ordable
Ġm ush
ernand ez
ĠSt ra
Ġrent al
Ġhand y
Ġtrib es
U ntil
Ġtoile t
P ublic
ĠJ ong
p ic
Ġd read
un ks
Ġsh ower
ĠB iden
Ġkilomet ers
om o
Ġse al
Ġre lying
ĠB annon
Ġbreak through
G reat
Ġban ner
Ġfavor able
ĠM itch
Ġne ural
ĠMem bers
ĠL uther
Ġn urse
II I
ul ates
ose velt
ĠWh atever
alth ough
Ġauthent ic
Ġtax i
Ġdiss ent
it utes
ĠE rd
Ġrecip es
Ġanaly ze
Ġreluct ant
ES S
Ġaim ing
rament o
ĠTra vel
ĠSe lect
ĠJo ined
Ġcred ited
Ġp p
ĠS O
Ġfam ously
Ġpat ience
Ġassass ination
Ġk icks
ĠC ab
ĠClass ic
l ast
ro gen
Ġback ers
Ġun aware
Ġur gent
rib ly
sy stem
Ġcl ause
Ġprof itable
ĠFl ight
Ġg i
Ġve t
Ġins pire
ine z
ah o
Ġvolunt ary
Ġfact ories
ul k
ĠJ obs
Ġsubst itute
Ġmass acre
ĠT arget
Ġmeas uring
Ġp sy
ĠH orn
Ġrecre ational
ĠCol lect
Ġsum mar
Ġpr ayers
ĠUS S
Ġca ut
Ġexpress ions
Ġp etro
Ġtrick y
in ho
th ird
A c
V R
Ġp up
Ġmag azines
Cl ass
Ġdisc ourse
ĠC BC
ĠG R
Ġpass ive
Ġcy cles
b uild
ĠYan kees
econom ic
P H
ĠW ire
Ġsoc ially
Ġal beit
ĠV atican
H ub
omet own
Ġtext ure
Ġund oubtedly
n ut
Ġp ause
Ġp uck
br aska
ĠGarc ia
N ational
A K
Ġstar ring
ĠHispan ic
Ġb out
ĠE ither
ĠK remlin
Ġatt ribute
ĠP ast
ĠH R
s cience
rit ical
Ġf isher
y ang
b one
Ġo d
ĠDr ag
l arg
C ong
ĠC ou
Ġmos que
D irect
Americ a
Ġrece ivers
Ġcrew s
ĠT her
Ġhe ated
IM E
Ġst icks
Ġprovin ces
W ind
so ever
B ased
ĠN at
Ġwor ries
ĠFour th
Ġmin im
ac hers
t alk
Ġcontract or
ĠAgr icult
" ;
Ġdefend ant
Ġintention ally
ĠW inn
as ma
E vent
Ġmem orable
Ġpreced ent
Ġload ing
l ay
Ġman eu
CL A
Ġbroad ly
Ġfit ting
ĠHol ocaust
Ġf oster
Ġsatisf action
ĠPolit ics
uc le
Ġour s
ĠPet e
Ġdynam ics
Ġblog s
er ting
ĠP il
ĠD ra
ĠAr c
ĠC row
Ġfac ial
Ġse min
ĠInvest ig
he astern
ĠNob el
Ġbuff er
am y
Ġsum mon
ĠH ait
Ġval ued
ĠT ru
Ġmulti player
Ġsupp lied
ĠAgree ment
Ġiniti ated
ĠPro test
ĠPh D
t ic
Ġstr anger
Ġattract ion
atern al
he tt
ĠAl ong
Ġ9 1
ĠDe al
im ated
Ġdisappoint ment
ĠHall oween
Ġstick ing
ĠAl ice
ĠG rey
Ġteam mate
p ound
ĠSam uel
in is
Ġprov es
Ġsear ched
e very
ĠEnter prise
g s
app ro
ĠWork ing
Ġinc omes
Ġsw ept
ĠBir mingham
Ġmart ial
ĠM ans
h um
ĠL ot
off icial
Ġepid emic
ĠK or
ĠNash ville
Ġhy d
Ġdim ensions
Ġun lock
ĠGirl s
ash i
ĠC our
ant le
ĠChief s
Ġentreprene ur
Ġfict ional
REL ATED
With out
J apan
ĠTra il
IC K
ĠSn ap
Ġmis under
Ġst er
Ġbroad c
ĠBrew ing
Ġne o
Ġgrand father
Ġp ars
Ġl iv
ĠIsrael is
Ġinterpre ted
Ġtheat ers
ĠEngine ering
ĠN EW
ĠRe form
Ġ9 4
ĠL em
Ġachieve ments
B ill
Ġdomin ance
Ġparam eter
Ġflaw s
de velop
Ġevent ual
te lling
Ġworry ing
ort ing
Ġyoung est
Ġcontribut or
Ġmod ify
Ġmed i
ĠW el
Ġ ic
ĠA bs
c ulation
am o
ĠC hen
ĠN ep
Ġint act
Ġconven ience
Ġar ise
am ation
Ġsub mission
Ġdef ines
ĠD ays
ĠF inn
RE E
ain ted
ĠFer r
ĠG A
terror ism
Ġarch ive
Ġfin ale
Ġpred iction
ĠCom puter
ĠCh and
L aw
ur as
Ġpo le
Ġobst acles
Ġsur render
Can ada
ful ness
f in
s im
Ġtact ic
C r
Ġphilosoph ical
ĠJ oint
ul in
inf o
ced es
' '
Ġbicy cle
em ale
ĠBase ball
Ġen roll
Ġw ard
Ġtr ump
ost al
Ġpr isons
Ġdisc ont
ĠAl most
Ġinf lic
v ised
Ġban ning
Ġmal icious
F R
ĠP ath
Ù Ħ
Ġreven ge
ĠM icro
G old
ir med
y d
Un like
Ġnav al
Ġwhat soever
ell ing
Ġm aj
op ular
j e
ange red
F T
Ġnational ist
Ġentertain ing
un ique
L ong
Ġdiv ine
cul us
Ġbas eline
lic ation
Ġcorrel ation
ĠS ach
Ġnetwork ing
Ġneighbour hood
roph ic
am bers
Ġsk ip
Ġshe ets
ĠS pect
ĠN HS
Ġneutral ity
L ater
ĠK ath
Ġg aps
Ġignor ance
ĠM es
ĠK ate
Ġorgan ised
ĠDiam ond
Ġtouch ing
Ġconcent rated
ĠMo z
Ġconsult ing
Ġregul ated
Ġinter medi
in formation
Ġassault ed
Ġover r
int age
D et
Ġdu pl
f ull
t ake
Ġopp ression
ĠPortug al
ĠB ear
ĠS old
Ġn est
Ġle thal
Ġthe or
Ġc yn
Ġev olve
ĠAl b
Ġinvent ory
Ġtw itter
ĠC ant
Ġeuro s
he nd
all ow
Ġsa ves
Ġris es
ĠP oly
Ġmac ro
Ġdesign ing
Ġconfront ation
Ġhor izont
Rem ember
ast rous
ĠPict ures
ĠHol mes
Ġan k
Ġcur s
ĠC ox
AN T
Ġn asty
M arch
ĠAn imal
Ġimport s
ĠE le
umb ai
AS T
Ġdr ain
us hing
Ġsk i
ment ation
Ġc ra
Ġquant ity
A f
Ġcrowd ed
Ġover ly
ĠMat ter
ĠRo osevelt
Ġadminist rators
sp oken
ĠMot ors
ob i
Ġscript s
om i
Ġres ur
ĠCar ib
Ġinv itation
F ox
Ġtrans mit
le ased
m und
Ġto oth
Ch ar
........ ........
gener ation
rav is
c m
St ring
Ġoff enders
ĠBe er
irl ines
Ġh ated
on ies
Ġdon or
Ġse aled
us cript
Ġmer it
ĠL G
In tern
ĠFire fox
Ġc um
Ġcommit ments
l on
ne apolis
Cal if
Ġr ab
ĠG ive
ĠHug hes
ĠUS D
an ne
Ġvar iant
h ots
Con f
Ġremem bers
Ġ196 5
Ġfix es
Ġcost ume
ĠAngel a
Ġn er
ĠD A
ĠEp isode
ĠSur v
Ġbr ick
Over all
l ation
T ex
Ġ196 4
ĠPD F
ar u
ĠR PG
Ġw rist
Pl ay
Ġnav igation
Ã¼ r
igh te
Ġp add
c lick
ĠRodrig uez
ĠN athan
li ers
Ġcomprom ised
t w
as ures
Ġinc arcer
Ġstar ters
ĠFin land
col m
ĠPal mer
us ions
Ġfree ze
Ġreject ion
Ġmathemat ical
Ġprec ision
im eter
Ġcur rencies
Ġflaw ed
ĠY e
ĠR aw
Ġbelong ing
sc ript
ĠK az
ĠM I
ĠF an
Ġt ire
ere k
Ġembarrass ing
Ġpitch ing
Ġcomm em
Ġover th
Ġcl ash
Ġrob bery
ĠL an
ĠD ise
Ġhol idays
Ġo st
gg le
ĠI L
Ġab uses
Ġquestion able
ĠG P
ĠBroad way
ch ief
Ġc ord
Ġb ay
Ġpresent ing
Ġcur ric
g rav
Ġpro xy
ĠF oster
ĠOccup y
b ot
head s
Ġble w
ĠQueens land
ĠK os
Ġn erve
ĠR ing
our ge
Ġupgr ades
are z
Ġconstrain ts
Ġun cle
Ġapp et
B E
ĠW ol
ment ioned
ĠS ullivan
ĠIndian apolis
Ġdispro portion
ic ating
ĠT C
anc ies
T er
Ġinfect ions
Ġstead ily
Ġremind s
Ġrend ered
ĠBoe ing
Ġunc overed
bel iev
ĠDun can
Ġad oles
Ġpharm aceutical
Ġn arc
ĠCh ase
Ġball ots
Ġbase ment
Ġtradem ark
ĠRod gers
ĠE RA
M ac
Ġcont ing
ĠM E
Ġb ats
ĠMont ana
Ġopt ed
ĠSh aw
ah an
ed uc
Ġdist ribute
Ġbeh ave
W ASHINGTON
ri ved
Ġout look
U P
Ġj am
Ġmanufact ured
Ġdig it
Ġgrand mother
Ġa pt
ilit ary
ĠP ubl
as ive
Ġboot s
ide os
Ġund ere
Ġst iff
serv ice
Ġpack s
ĠR acing
O pen
Ġtu ition
Ġback wards
the m
Ġa usterity
ĠMoh ammed
Ġm im
ĠC ris
rit ies
Ġsu ited
Å į
Ġcomple ment
Ġevangel ical
Â ©
Ġlink ing
Ġmake up
Ġprison er
Ġnons ense
Ġcontain ers
Ġdownload ed
Ġoff ence
Ġins ert
Ġen v
P erson
Ġat e
ĠC abinet
Ġextrem ist
Ġthro at
orig inal
Ġint imate
Ġshar ply
U lt
Ġprote ins
Ġcred entials
ĠL ore
Ġcorrespond ent
min ster
ic ides
V er
se en
ĠA G
Ġsecret ly
Ġinj ust
ĠAth let
Ġcol umns
Ġhot els
' :
ĠIn iti
Ġper ce
Ġtrack ed
Ġpress ures
r aged
Ġan throp
Ġsatell ites
ĠAss ange
Ġland l
Ġbud gets
ĠA ven
ĠC op
Ġqual ifying
Ġhack ed
ĠS ens
ĠBaghd ad
ect ed
Ġcomp ounds
Ġoption al
Ġto kens
do ing
Ġinv alid
Ġpun ished
Ġwho ever
Ġemot ionally
Ġr ivers
Ġsurv iving
Ġsol ving
Ġinject ion
Ġl as
Ġc ups
Ġelimin ating
P ort
Ġaggress ively
ĠChance llor
ĠK ash
ĠNiger ia
Ġmanip ulation
Ġlif ting
Ġlaun ches
ĠCl in
Ġhor izon
Ġch ron
Ġham mer
Ġcat tle
Ġo ven
Ġres id
ĠS ierra
Ke ep
Ġpl ag
esc ope
Ġbo oth
J on
Ġmet ric
Ġswe at
Ġsubur ban
ibl ical
D I
ĠL l
ĠAle ppo
ĠStud ents
z h
ĠP ink
Ġhor rific
un ge
Ġnice ly
ĠPet erson
Ġextrem ists
ĠBrother hood
ĠJes se
Sm ith
Ġconclud es
Ġbrew ery
Ġmess aging
Aust ral
ĠBr ig
Ġde lete
Ġpublic ity
Hill ary
et ition
ĠPresident ial
se arch
ĠCitiz ens
ĠFI FA
ind ex
ĠSac ramento
Ġh ilar
Ġjo ins
F ire
pr ises
er als
less ness
co very
Ġcompl aining
Ġprev ents
Ġamb ul
S O
ĠM ine
ĠBangl adesh
Ġprem ise
ĠH erald
com pass
iction ary
Ġvac uum
ve t
Ġrecon c
zb ollah
Ġs ab
Ġr ides
child ren
ĠAlp ha
est a
ov o
J une
Ġbr ush
ĠCom b
ov ich
Ġadvis ers
ĠZ immer
OM E
s ocial
Ġhaz ard
E r
Ġjust ification
N one
Ġunder go
s qu
se in
Ġdest ructive
ĠQu ick
Ġtrad es
Ġanch or
00 1
ĠB elt
Ġneighb oring
ĠCat al
Ġk g
ĠA round
ĠC ell
ĠR O
Ġent ers
Ġpict ured
ĠHer itage
k now
Ġtroub ling
Ġvirt ue
Ġtransf ers
Ġref und
Ġacc idents
ĠOver all
Ġo un
Ġsle e
ĠCr iminal
pl ant
ĠCol in
Ġrecord ings
Ġannoy ing
ĠLeg al
Ġflo at
Ġfe as
Ġsovere ign
Ġcor ps
iter ranean
Up dated
Ġtroub les
ĠP red
Ġnon etheless
.âĢĻ âĢĿ
Ġun constitutional
Ġpur ple
ĠEd monton
Ġ19 45
ertain ly
Ġle ase
Ġdis astrous
Ġcommission ed
ĠAn aly
ĠJess ica
Ġplug in
E mail
Sc ott
Ġby pass
ĠMS NBC
Ġcommit tees
Ġam ateur
l iter
pri v
st ick
ĠH TC
Ġcompan ion
Ġdim ension
Ġg reed
ĠG ot
ĠHe y
ĠCost a
Ġte aches
atern ity
at isf
Ġir rit
ĠCh ip
Ġden ies
Ġl iver
ĠRe ally
Ġj acket
ok o
Ġ q
ĠAll ah
i ological
M C
Ġsince re
sp ons
ĠS ave
Ġg re
Be ing
Ġin accur
g om
ĠZ one
Ġexam ining
S um
sh ow
ĠM ong
Ġmed itation
In vest
ip se
el er
Ġcens orship
l ocal
ĠD ri
Ob viously
ens on
ĠPot ter
ĠPict ure
Ġlegal ization
ĠAnt ar
OR K
G N
ĠM urd
ĠD rew
clus ive
Ġdeli vers
um atic
ĠR ivers
Ġin adequ
us hed
Ġprom in
ĠOb serv
ĠAh med
Ġimpl icit
eal ous
ĠBre nd
Ġop io
Ġrandom ly
ã Ĥ
Ġboss es
Ġintern ationally
ĠChall enge
ĠC av
m us
Ġexpl ored
Ġforeign ers
Ġunemploy ed
ĠAct iv
ĠSh in
Ġcalcul ate
ĠL ic
Ġgrad uates
ĠInc re
Ġh ike
Ġhand gun
K K
ĠG round
ĠE arlier
Ġ0 3
Ġintegr ate
Ġb er
Ġcat ches
Ġcl ashes
ĠFO X
ĠAr med
ĠA irlines
leg al
ĠNe braska
Ġdisp utes
w ould
as a
EL L
Ġ Å
if ully
Ġl azy
ĠC T
ĠP H
Ġb ans
ĠIm agine
worth y
Ġirre levant
Ġp ad
if iable
ĠÂ °
ĠG ore
oun cing
vent ions
at hetic
Ġaccord ance
ĠTele graph
ĠL ives
Ġd war
Ġretain ed
Ġdef enses
Ġcig arettes
augh s
Ġadj acent
Ġfor k
Ġpriv at
ur ious
ag ain
ific ant
c all
Ġland mark
ĠBar n
Ġencour ages
if iers
ĠClar ke
Ġnin th
F ull
ĠCurrent ly
v ial
Ġprop ose
Ġstri pped
Ġterr ifying
Ġcomp act
ĠF ac
Ġint ends
Ġch unk
min ent
ĠPrin cess
ĠComm ander
av ailable
Ġp el
ie ve
Ġmole cules
play ing
ust ain
Ġreal ised
Ġdiscon nect
Ġcalcul ations
Ġstud ios
Ġlight ning
g reat
ĠR af
Ġhyp oc
ĠCub s
Ġcampaign ing
Ġenact ed
ĠNaz is
c d
ĠB ald
Ġfar mer
Ġtoug her
Ġover head
Ġcal ories
Ġintrig uing
Ġrecru ited
l ength
Ġkn ees
Ġsan ction
uff ed
Ġclar ify
Ġconf erences
Ġinvestig ative
Ġeconom ically
ĠEv il
Ġaff irm
ver ted
oot s
b oth
M uch
Ġsubst ances
Ġdep ict
av i
ĠZ ach
ĠS em
Ġsc are
Ġ16 0
o ven
d esc
Ġprof iles
Ġsymb olic
] )
Ġmor ality
Ġpro long
[ /
Ġsocial ism
Ġcrit ique
yl an
Ġatt ach
Ġr ugby
N AS
Ġshe ep
Ġcent res
undred s
Ġâ Ĩ
Ġgu ided
ĠWeek ly
Ġhomosexual ity
Ġflow ing
ur ry
ĠM aur
iz ers
Ġpres erved
ĠP owell
Ġco pper
Ġo k
ĠO z
Ġcoll ision
Ġload s
E xt
Ġst ones
Ġsub t
uff y
ĠBoe hner
Ġplace ment
Ġassess ed
Ġunw illing
y our
Ġsl ice
Ġnorm s
Ġprosper ity
Ġproceed s
ĠPro cess
Ġn aming
Ġcou pled
Ġfurn iture
U se
Ġspecial ized
imp se
Ġnot ified
Ġgl impse
U K
ĠSen ators
ĠTib et
Ġimag ery
Ġrelig ions
ĠW ing
Ġple asant
Ġsubur bs
R eal
Ġsequ ences
Ġsimpl er
Ġhed ge
Ġdeliber ate
Ġcrit ically
Ġfav ored
ass es
Ġfif ty
Ġdr agon
ĠD ynam
Ġexpl oded
os ity
ĠTr aining
ig ue
ĠO P
Ġch airs
Ġporn ography
op ic
ĠV oice
ĠCarib bean
ĠWe ather
ĠEff ect
ĠSteven s
anche z
pe ction
L ear
ĠP in
p ay
ed e
ĠT ogether
Ġinc om
ĠJo el
Ġdrag ged
Ġind ie
ok ia
ĠHung ary
Ġcryptocur rency
it ations
Ġmind set
Ġref uses
Ġoffer ings
Ã¡ n
Ġencoun ters
qu ire
ĠC art
Ġhe y
Ġtri o
Ġl ending
ĠMed iterranean
ĠAny one
Ġa ug
Ġh ometown
ĠBe aut
Hist ory
B ron
ograph ical
Ġrevers ed
Ġpack aging
T able
âĢĿ :
Ġemphas ized
Ġinfring e
ew s
Ġor b
ĠF ight
ĠPro s
ĠAlex and
Ġsket ch
ĠF am
Ġincorpor ated
] ;
ĠC ulture
ident ified
fl u
r ams
ograp her
Ġreal ise
p ol
ĠH E
ĠI de
Ġpot ent
Ġgl ance
|> âĢľ
Ġen velop
C ount
ĠC and
Ġcur b
Ġgest ure
izz ard
per t
ĠMil an
ain er
by e
i ably
Ġst ole
Ġdisc retion
Ġfl ower
m em
Ġv ag
J uly
Ġdis gr
Ġbre ed
Ġtravel s
Ġsc roll
Ġtal ents
v or
G en
Ġ12 5
Ġthr illed
S am
ĠU ser
lin ing
ues e
ĠErd ogan
G R
Ġturn out
ul ously
ia z
imens ional
Ġcop e
Ġcontin ually
p her
ĠMin neapolis
ĠChe m
Ġcance led
Ġany time
Ġa irst
Ġindict ment
Ġstrength s
J im
Ġmin ers
ond e
ĠCons ider
ĠN ar
ĠImm igration
ri ans
am pton
Ġfather s
ĠH ig
ab i
Ġshare holders
F eb
ed In
Ġcommun ist
ĠLu is
Ġcontrad ict
m ill
gh ai
ĠEdd ie
> <
A pril
Ġcon tempt
Ġm old
ĠCh an
Ġder iv
Ġl ing
Ġe rect
Ġaccount ed
on est
om ers
ĠM umbai
ost ic
ĠK an
Ġflee ing
ophob ia
k n
Ġrest rain
ĠMus k
Ġha un
Ġdes ires
ĠZ en
ous ands
ĠEurope ans
Ġapplic able
Ġthread s
Ġres il
Ġtow ers
omet er
asc us
Ġg ambling
ĠP ic
ĠPriv acy
ĠD ian
b b
Ġvo iced
Ġdecent ral
ĠK er
Ġreb ounds
at able
K ing
Ġs add
Ġlack ed
ĠM ull
c urrent
Ġhas ht
Ġpract icing
ĠGO OD
ig s
B rien
f an
G L
Ġind ivid
Ġorder ing
Ġfact ions
à ¸
Ġimport ed
Ġnot ification
mer cial
Ġd airy
Ġoverwhelming ly
us c
oc y
Ġdict ators
et on
iber al
Ġhabit at
. ).
oll o
rik es
ĠLook ing
Ġcritic ised
p os
Ġel ites
ĠR u
Ġscholars hip
Un ited
Ġins pection
Ġman uscript
Ġhead er
Ġref res
Ġdep icted
ĠStr ong
Ġte lev
ĠÃ ł
ĠT u
cont ent
Ġsc al
ĠE thereum
Ġfru its
Ñ ı
ĠT ask
ĠK ay
Ġ9 00
ĠT ouch
ĠTh ai
Ġpredict able
ĠMart inez
ĠPal m
Ġ0 7
he ll
Ġconv ictions
ĠGib son
sh aped
Ġmeasure ment
ĠM aking
an ies
Ġcollect ions
ere n
Ġsw ap
ĠJ ared
it ted
Ġsur plus
ĠCast ro
Ġfemin ism
Ġra ids
Ġwas ted
Ġactiv ated
re cy
charg ed
Ġdist ress
Ġsu ite
Ġprec ip
Ġab ortions
Ġfe ver
Ġcolumn ist
ĠCh ad
Ġpoet ry
ĠHel p
Ġfinger print
ĠLat ino
ny der
Ġiss uing
gr at
Ġdepos its
Ġorg ans
Ġsu cc
ĠHT TP
O kay
ol ics
M icrosoft
ĠUn ity
H el
ens en
on ut
Ġl ips
u art
Ġbe ans
ĠWood s
Ġforth coming
ĠL akers
âĢĶâĢĶâĢĶâĢĶ âĢĶâĢĶâĢĶâĢĶ
ĠB ak
F eed
Â Ģ
Ġactiv ation
and ing
Ġwhe at
ĠB aby
Ġun law
sec ution
OS E
Ġappreci ated
gh azi
Ġ: )
ĠB esides
Ġpurs ued
s ight
Ġsatisf y
ĠMc D
ĠCo ff
ar in
Ġj ets
Ġoff s
Ġrall ies
Ġconst itute
Ġwe aker
et a
Ġprogress ion
ĠJ ed
Ġtr im
Ġlit igation
Ġsup reme
Ġt ender
H ead
Ġle ver
Ġfin ances
Ġcons cience
Ġru in
Ġcomp iler
Ġh urd
ĠAdv anced
ĠN ine
ĠDem ocracy
ĠTex ans
ĠLight ning
tr ue
ĠW es
ĠÐ ²
Ġcrack down
ĠMer cedes
S H
Ġpost ers
Ġch ick
g on
Ġefficient ly
m ember
Ġamb ig
Ġschol ar
ĠJeff rey
ab lo
Ġd awn
T w
Ġcont rac
Ġfre el
otten ham
ĠAn a
P ac
Ġwh oles
em et
Ġj unk
Ġkilomet res
AM E
Ġobsc ure
ĠNorm an
J eff
Ġbe ast
ĠY ellow
Ġguarante es
Ġcar ing
Ġsh oe
ĠE P
k ers
ro d
ĠC urt
gom ery
Ġhel m
ug ar
ĠSum mit
Ġuncons cious
ĠM ath
ĠAdd ed
ĠLabor atory
Ġstart ups
Ġactiv ism
âĶĢ âĶĢ
um my
ĠToy ota
Ġneed ing
ĠPro per
Ġconfir ms
Ġmo ist
ce ans
ĠM ade
ĠTra ff
ĠPoint s
Ġneg lig
ask et
p resident
Ġt ast
ĠD im
Ġdes cent
ĠG am
Ġliber ties
Ġinf inite
Ġparad ig
s omething
Ġconcent rations
ch ant
Te am
Ġsc attered
Ġthreat ens
Ġaccording ly
Ġm g
ac cess
Ġb ored
Ġinstall ing
ĠW a
Ġrock ets
ĠStud ent
Ġs id
Ġsec uring
Ġro oted
ĠVis it
M o
os ph
ĠK enn
Ġdis hes
Ġinstruct ed
Ġwood s
Ġport rait
Ġpass port
ĠCreat ive
H ello
Ġgot ta
Ġir ony
ĠHud son
Rober t
ĠD w
ĠGand hi
Ġun int
h u
Ġtransport ed
Ġunh appy
Ġassert ion
h ad
200 7
M att
Ġfix ing
ud a
Ġwat ches
Ġd ining
Ġman ually
ĠA ub
ãĢ ģ
ĠMag n
ĠD I
Ġcustom s
s i
E U
Ġint ensive
ĠCan cer
Ġhy pe
Ġprofess ors
Ġcry stal
ĠStat istics
Ġpat ents
Ġinf ilt
ĠAh mad
ĠFred er
ĠNY C
Ġassign ment
________________ ________________
ĠMarg aret
d eb
iment al
ys on
Ġund ocumented
Ġremain der
Ġsp here
h or
p aid
raw ling
Ġ0 9
ĠMos ul
Ġr abb
ĠHe zbollah
ĠS au
Ġ196 6
Sh ort
ĠSpr ings
Ġshout ing
Ġhe ating
******** ********
ĠBoy s
Ġceleb rities
Ġch im
ĠC it
ĠInter ior
ĠÐ ½
ĠB apt
ĠB omb
Ġg ly
Ġj azz
ĠYou th
Ġsurvey ed
Ġtra ject
Ġproject ions
am mar
v oc
Ġpost season
ĠH S
ok u
ĠW alt
ib les
Ġreact or
ke ll
Ġen vision
b ra
Ġc abin
Ġmarg ins
V M
Ġsl ated
Ġbull ying
ĠS ri
Ġdis gu
' )
il ia
ĠL ion
own er
M ax
Ġmix ing
Ġsystem atic
Ġeas iest
est e
Ġbackground s
ateg ory
Ġt ennis
Ġvacc ines
Ġcommod ity
Ġsound track
Ġfavor ites
Ġment ality
Ġsh ark
Ġmin es
Ġconce aled
Ġacadem ics
ĠB att
ĠL arge
Ġge omet
Ġapart ments
le ague
Ġaer ial
ĠSqu ad
ĠB anks
Ġsu e
Ġbe ats
V I
Ġpr one
Ġadvent ures
g ue
Ġbatt ling
Ġgr im
uck ed
Ġdig est
ĠBM W
Ġdress ing
ĠCom cast
Ġtou ches
Ġforg ot
j u
Ġm apping
Ġcome back
Ġgrass roots
y on
Ġw ra
ĠL ower
Ġdis puted
Ġbl ade
ĠMon ster
P ower
ĠW ang
ĠT ree
ĠC ool
ĠMov ie
emet ery
ris k
Ġpromot ional
ĠId ent
Ġd ug
Ġc aucus
Ġhe els
Ġ( Â£
Ġpark ed
ĠPri or
en z
ĠC P
ĠG aming
ĠCom ic
Ġfl ies
Ġshout ed
Ġc ables
Ġsm iling
ĠH onda
els h
Ġappreci ation
Ġin k
Ġcontinu ously
J oe
Ġmet eor
ĠY ale
Ġl ied
ĠMal colm
ĠI R
ad ian
Ġflags hip
Ġindic ator
Ġgas oline
Ġnut rition
r ising
at ics
Ġble eding
ĠOper ations
j pg
Ġdispl aced
Ġhand les
.' "
agg ering
ĠD rop
Ġdep uties
Ġremote ly
ĠForm ula
Ġsl aughter
Ġmathemat ics
_ {
ĠK um
ĠTe levision
est on
Ġsc ales
UL L
ĠKen ya
he y
Ġ0 4
Ġcol ony
Ġrhyth m
ys ical
F ive
ĠInd ependence
Ġtrop ical
ĠO pt
ĠAb raham
Ġan om
n ia
ĠF alls
Ġstr angers
at ility
ens ed
Ġse gments
ĠN ad
Ġsc i
Ġstaff ers
Ġmount ing
Ġgen ocide
E nd
Ġca f
Ġw ield
ĠDam ascus
Ġm ud
ĠÂ »
Ind ia
Ġ0 8
ing le
Ġpolic ing
ĠBelg ian
Ġver bal
es ville
Ġacc laim
Ġfl ames
ĠBen ghazi
ogen ic
id ity
and o
Ġimm unity
ĠH im
ĠCol lection
Ġill usion
Ġ( -
B o
Ġch rom
ĠS id
ĠFin als
ĠP ract
Ġstat ute
Ġcle aring
Ġl inem
ĠSt rip
Ġdis reg
ĠVin cent
Ġpull s
Ġsh ook
Ġprompt ing
Ġdig ging
ph is
Ġunp redict
Ġport ions
Ġcompet itor
ĠSome one
Ġinherent ly
Ġmulti pl
Ġcharacter istic
Ġic ons
Ġcompar isons
Ġd ough
Ġâ ĸ
Ġbr idges
Ġconnect ivity
Ġs od
Ġg orge
ab lish
Ġbench mark
ix els
Ġ196 3
s un
Ġaffili ated
ĠWal mart
w age
or ically
ĠCry stal
Ġamb itions
l isted
ĠSim p
Ġto pped
ĠP etro
Ġsh aking
ad itional
oul os
ipe g
Ġcertain ty
ĠRaven s
Ġcent ered
Ġm ol
Ġsmall est
Ã º
Ġbehavior al
ĠM ons
ĠWe ap
ĠCoun ter
ĠCar r
Ġcro re
Ġbl unt
ĠWh ats
ĠMajor ity
ĠA K
M D
ĠNew castle
on al
Ġdispos al
ĠHop efully
H C
Ġl i
Ġapplic ants
ĠS K
ĠIniti ative
Ġfortun ate
Ġw ished
Ġpit ched
ĠD elta
th reat
mid t
Ġd are
cific ally
Ġsynt ax
atch ing
Ġup hold
yn c
Ġmusic ian
ĠUp on
ĠTom my
Ġwild ly
Ġimpact ed
Ġmed ieval
Ġreprodu ctive
we b
yn asty
Ġstorm s
Ġdis ruption
ĠSch olar
ig ion
Ġpit ches
Ġcar n
ĠCont ent
Ġwe ighed
ĠBr ight
Ġcontribut ors
Ġview er
Ġm i
ĠB ren
ĠBr ain
Ġst ap
Ġur anium
Christ ian
ĠSat an
Ġat op
ĠPortug uese
F il
ĠCo in
Ġanx ious
ĠC opyright
ud ed
Ġcook ed
on gh
ĠApp arently
|> (
Ġfoot print
Ġamend ments
ĠW ITH
sh it
L ab
Ġbe es
ĠM end
ĠC ash
Ġaest hetic
ĠX i
lud ed
we gian
Ġgl ac
m ount
Ġaver aging
Ġeat en
r ise
Ġst int
Ġadjust ments
ĠH ERE
ĠR ank
Â »
ĠTH IS
sh aring
ean or
Ġst akes
Ġas leep
os aur
Ph il
r ace
Ġindivid ually
run ning
Ġtheat re
ĠEm peror
im g
Ġd ent
Ġst ub
Ġim minent
Ġfaith ful
W omen
Ġrep ository
Ġpat ches
ĠB ody
ĠW ings
ong yang
ĠArch itect
el ed
ĠNe uro
w ait
Ġprior it
1 30
Ġ| |
Ġr ipped
ĠRe yn
Ġcinem a
B ro
Ġem pir
Ġadvis ory
Ð ¼
Ä ĩ
ĠW ere
Ġsh adows
Ġdes erved
Ġattend ees
ĠM is
Ġst aring
Ġve ctor
ĠOther wise
ĠR ule
In f
Ġphys ic
Ġh ipp
Ġfound ations
Ġdemonst rators
ĠDan ish
igg s
ĠIndust ry
Ġr anges
Ġcru ise
h art
ĠG raph
Ġcon grat
ĠLegisl ature
ĠSt alin
Ġmy st
ĠA CC
âĢĿ ).
Ġe go
ĠSh a
Ġrecover ing
ur ally
Ġp und
Ñ ĭ
ot ive
N E
m ax
Ġfe ather
Ġsufficient ly
AC E
ĠCar roll
P ass
ĠK aren
Ġdistinct ive
tit le
Ġsp ont
ĠB ills
en ly
Ġlegitim acy
ĠCrime a
Ġinspir ing
akes pe
Ġque ue
Ed itor
Qu est
d ollar
Ġbon uses
Ġcl ue
Ġjail ed
h at
ĠVal ent
Ġcand y
Ġju ven
p ical
Ġdep osit
N on
Ġcert ified
Every thing
Ġrail way
cl ub
et ooth
AS E
Ġhier archy
T Y
s ite
Ġ0 5
ĠReds kins
Ġclim bed
Ġhistor ians
ĠM ann
C all
Ġundere st
Ġincumb ent
Ġal erts
ĠR A
ĠColomb ia
p ie
Ġpl ausible
ĠIm pro
Ġadjust ment
ĠA er
Ġun believ
Ġmetab ol
Ġsupp ress
Ġcr ashes
Ġab usive
ess age
Ġrein force
Ġsuprem ac
Ġcr ap
ON E
ĠLe ave
Ste ve
Ġn ail
ĠS QL
Ġphys icians
Ġc age
Ġn ucle
Ġcar b
Ġcook ies
,' '
ĠK urt
ope z
le en
Ġexplan ations
ĠUlt imate
Ġque en
ĠGener ation
Ġt ide
ĠS ale
ĠCons umer
Ġmin imize
Ġcont ender
s ay
Ġut ilities
pect ives
ult z
ĠGr an
Ġimprison ment
Ġro d
Ġblow ing
\ \
Ġamb ition
Ġa fore
Ġ Ñģ
Ġshe lf
Ġe cl
f ix
Ġfound ers
Ġneg lect
Ġposition ed
Ġresc ued
% ),
Ġoff enses
ĠU A
Ġconsult ation
Ġlight ly
ot er
ad ata
ĠD ame
Ġpar as
ĠId aho
Ġdirect ing
Ġcig arette
Ġelect orate
Ġdeleg ation
Ġvel ocity
Ġzomb ie
ĠShan ghai
Ġflav ors
ould er
ĠK i
ĠSimp son
M E
Ġgi ants
ĠCommon wealth
Ġmotorcy cle
ĠWest minster
Ġansw ering
AC T
om ore
ĠB ent
Ġsc am
Ġboy cott
Ġde ar
Ġmet er
ĠPer formance
ĠCh ampion
Ġeduc ate
Any one
P eter
Ġhuge ly
Ġbox ing
Ġincorpor ate
Ġsie ge
ĠMet al
ĠY u
Ġby tes
Ġpersu ade
Ġpromot ions
ĠM ob
Not es
c ourt
Ġexplo ited
Ġv icious
ant ine
Ġal igned
ĠThe ory
Ġ( +
S il
ĠCol ts
Ġhalf way
S ure
ĠLim ited
ĠLeon ard
Ġrun ners
min ing
chn ology
ĠS anchez
orth y
Ġrow s
uter te
Ġapp ar
Ġab rupt
gg ing
12 5
Ġcollect ively
ĠArm strong
ĠM asters
ing rich
Ġlad der
âĢĿ ?
Ġch asing
Ġsim ulation
an as
ow itz
prising ly
Ġoff line
ĠL oc
g irl
g ow
Ġluc rative
Ġf reed
ĠS witch
um per
Ġgener ates
Ġrecogn ised
Ġshow case
Ġintegr al
Ġconsist ing
Ġplant ed
Ġaccess ed
Ġautonom y
Ġdies el
Ġp ork
O H
Ġmor ph
ĠEs pecially
Ġelement ary
ason able
Ġsli pped
Ġfif teen
Ġassoci ates
n els
ĠP orter
ĠF ix
erv ative
} ,
Ġabsor b
ĠSocial ist
ĠU CLA
Ġcurric ulum
ĠH az
ĠK ane
em pt
ĠG N
ĠO culus
ĠSteel ers
Ġopt imal
ĠK end
âĸĪ âĸĪ
Ġmilit ia
Ġp iano
ĠX L
OU R
er ness
Ġlow ered
Ã© e
akespe are
Ġmar riages
Ġjer sey
ĠConfeder ate
ar se
ĠAn alysis
als h
Ġcere mon
ik o
ĠW ant
C onst
Ġsp ike
ĠM oss
Ġadv ancing
Ġancest ors
ĠE ight
ĠÐ ¿
D el
Ġman a
Ġop ener
Ġnegoti ated
ĠM add
ad ays
Ass ad
Ġappeal ed
Ġpo em
ĠK o
Ġacc ent
B as
Ġauthor itarian
ĠInte gr
Ġrecruit ment
he art
ĠEm ir
ĠPriv ate
Ġmatch up
C AR
Ġs oup
Ġquant ities
ĠV M
Ġslow ed
Ġimp osing
Ġeff ic
ĠStr ateg
Ġsatisf ying
Ġinhabit ants
Ġport able
Ġmanip ulate
Ġquarterback s
Ġpist ol
Ġbl at
t ax
Ù İ
ĠW E
Ġunp opular
Ġw itch
Ġprotect s
ra vel
asc ript
A G
ĠS add
Ġillust rate
Ġt a
Ġalumin um
ĠN ut
I ran
am iliar
Ġt ales
Ġwe ed
Ġbl oc
ĠCre ate
ĠW or
ĠI Q
ĠâĢľ [
il itation
Ġloc ate
Ġclass ification
Ġb ru
Ġconsist ed
ĠLe x
st ation
Ġhon ored
ĠT ravis
ĠMon th
Ġpay roll
Ġ __
S N
c amp
Ġper ipher
Ġemb ark
Ġd orm
ĠH ousing
Ġhom icide
F ore
ĠJ ama
Ġtreat s
Ġbr on
ĠQ ur
al one
ĠÂ Ń
Ġfact ion
OR D
Ġdelight ed
Ġar rog
ew ay
Ġprem ature
im ity
ĠEn forcement
ach t
op oulos
def ense
Ġtrave lled
Ġo we
Ġblog ger
ĠS ie
Ġcrus hed
Ġche ss
P age
ĠS B
Ġres ent
Ġconsum ing
ĠGreat er
add afi
Ġprotest ing
Ġp iss
v ance
Ġdiam eter
Ġadminist rator
Ġp estic
ir ies
ale z
Ð ´
or um
Ġhapp ily
Ġfert il
ĠM ol
Ġlog s
reg ular
ĠM ills
um ed
re ctions
3 50
ĠS outheast
ĠD olphins
Ġmet rics
n ar
Ġinv ention
Ġp ond
Ġacadem y
Ġo w
Ġdec isive
1 000
Ġt ended
ro v
ĠAmb assador
ĠA F
Ġup s
ĠS nyder
ĠE t
ĠO m
Ġart illery
u ber
Ġy oga
Ġover view
Not hing
Ġat omic
s u
Ġprol ifer
Ġsent encing
ĠMin i
ĠN GO
ĠPr ison
a que
Ġg ates
ĠDar win
Ġuns upp
Ġinstrument al
ĠOrig inal
Ġno ble
Ġsimilar ities
att ack
Ġpat ron
Tex as
Ġâ Ī
C re
ĠG or
Ġrecogn ise
Ġclin ics
ĠCath olics
ĠTer min
Ġdetect ive
M ENT
ibl ings
in ner
Ġex cer
Ġdri ed
ĠCase y
ĠD erek
ator ial
M ad
Ġinc ap
ĠS eth
ĠK il
AS S
road s
F ile
ĠDel aware
il ight
ell ed
Ġsl ammed
Cont act
per m
ĠGl as
bro ok
occ up
Ġconstitu ents
ĠF o
Ġal arming
ke eping
ĠH ence
Ġliv est
Ġdat as
ob a
ĠMe g
Ġrest oration
Ġu b
ĠCan n
ĠF ace
Ġprob ation
Ġupgr aded
ĠRichard son
el ines
Ġyield s
el ong
Ġincl ined
Ġcontem pl
Ġven ues
ĠV ent
Ġlad ies
ĠO ften
ĠB rett
Ġqu ot
ĠM ut
Ġv ic
Ġrif les
R yan
Ġd ude
Ġmark ing
Ġprohib ition
ĠSal v
Ġsp ying
Ġcomb o
it ous
Ġseek ers
ĠLouis ville
Cont in
Ġgen ome
met ic
Ġenthusi astic
k ar
ret ty
Ġmasc ul
Ġincons istent
Ø §
ĠNich olas
Ġfart her
ant om
Ġbreat he
ĠL ate
ourn ament
Ġshow c
And rew
Ġcat alog
Ġ196 2
Le g
s n
ĠWe bsite
Ġsl ides
ĠR ut
ash a
ĠT on
ĠHus sein
Ġc ad
Ġappl aud
Ġr ider
Ġapp le
Ġinvestig ator
Ġbi ased
Ġfrag ile
ĠDise ase
ĠSc reen
ĠGene va
ĠW elsh
ĠB O
ment al
Ġn odd
W ould
ĠHop kins
ef e
z el
Ġthr ust
connect ed
Ġmis er
Ġlic ence
Ġpr iced
Re view
Ġh ref
ĠN okia
Ġremark ably
ĠNo ah
am on
Ġexp ans
Ġcor rection
Ġp ul
Ġhum ble
ll ah
ĠRepresent ative
S cient
ĠPar ks
Ġl ion
Ġpost p
ĠMont gomery
Ġvari ants
Ġadvis or
ĠMatthew s
ĠN ord
ĠLoad ing
V is
ns ic
Ġrecip ients
dep th
r ational
Ġdep ressed
Ġsynt hetic
Ġshel ves
H ome
Ġun related
lev ard
Ġweakness es
Ġbail out
m ph
olit ics
Ġend angered
ĠC rew
C ome
Ġt ires
Ġcl ips
Ġcatast rophic
Ġspe ar
Ġtro phy
ĠNorth west
ĠHuff ington
Ġtight ly
ĠD j
Ġjud ged
s ix
ich t
ĠP ierre
Ġc otton
ur bed
og yn
ĠEll is
ĠLear n
ĠC airo
Ġn ostal
N ob
Ġnic he
Ġcon form
Ġev olving
Ġo ath
ĠLeaf s
Ġutil ize
ĠS pl
Ġalleg es
ĠW rest
Ġst aggering
Ġcol ored
Ġgang s
b ach
Ġair ports
osh i
Ġp oured
Ġup ward
Ġnurs es
Ġbre wing
Ġpract iced
ĠG az
Ġmon itors
ĠT rip
Ġg ren
Ġsec urities
Ġcooper ate
names e
it ially
uff le
Ġfor ty
asc ular
Ġinterven e
Ġr iots
he ster
ĠK ap
ĠA br
Ñ Į
ourn als
ĠVeter ans
Ġcoinc idence
d est
ĠEag le
ĠV ideos
Ġcamp uses
Ġpros pective
Ġbook ed
Ġencry pted
Ġextensive ly
Ġrel iability
Ġr ip
ball s
Ġchap ters
and als
ĠAn onymous
Ġinterf ere
is le
Ġdown s
ĠSt ories
Ġsl im
Ġecho ed
Ġhor r
Ġank le
Ġmonit ored
s an
amp ire
ĠSur face
Ġoptim ism
Ġrem inis
ĠCD C
Ġprop osition
" ).
Ġpredomin antly
Ġun con
ĠW ait
ĠThanks giving
ĠK ids
Ġflo ors
Ġwar ns
ĠUS C
ĠMun ich
ans om
l av
Ġsymp athy
l iv
AR K
Ġang les
ĠIS BN
Ġtask ed
b ling
Ġsepar at
ĠH appy
ĠV I
Ġinsect s
Ġdefic its
Ġgenet ically
Ġimm un
ĠB ach
ĠTun is
Ġwe ars
ĠP ew
Ġre nown
Ġwell s
Ġm igrant
ĠA FL
reat ing
id i
Ġfore most
Ġenfor ced
p ically
Ġint oler
Ġbound ary
Ġw ives
Ġste ering
ĠACL U
he arted
Ġne arest
ĠV illa
ĠArn old
Ġpract ition
ĠGr ace
e ree
ĠSom alia
Ob ject
Sp ace
Ġfil ters
Ġwhistle bl
ĠVis ual
Ġcoord ination
T otal
ĠA pr
ĠPr ide
w ent
oun ter
Ġext inction
iat ric
Ġinher ited
g ay
ĠHe brew
ĠJ ays
ĠAg ent
M or
ĠD oc
Ġbre eding
b ane
d imensional
Ġpositive ly
f inal
ĠKurd s
ĠBudd hist
ĠV a
He alth
Ġcl iff
Ġcomb ining
l ance
ot ics
Ġnav ig
Ġincl usive
ĠAct ually
ĠB eth
Ġs acks
Ġfor wards
Ġpartic le
Ġver b
Ġsh ine
ĠAs k
i ott
ik er
Ġscar ce
ĠFor bes
Ġfe ud
Ġpri ests
Te xt
Ġad ul
Ġassist ed
Ã© t
Ġreward ed
st ated
Ġemer gence
ir ation
Ġd oses
il ers
M ain
p ose
ĠH ass
Ġhand ing
Ġatmosp heric
Ġdescript ions
Ġcul p
ĠGet ting
b as
Ġt ense
ĠP engu
ĠSchool s
ĠTri ple
Ġobtain ing
h aw
Ġafore mentioned
ĠJ in
Ġsens ible
Ġinput s
Ġrelax ed
que z
ĠReg ion
N O
ĠWinn ipeg
oy le
ĠK ush
Ġche f
ĠS ter
b us
a uth
Ġkind a
r ays
Ġw oke
Ġg rief
ĠC amb
ĠSw an
ĠMem phis
Ġbo asts
Ã ł
Ġins ufficient
De velop
ĠHend erson
Ġcaut ious
ĠFl a
i Ã³n
ent ry
acer b
y outube
Ġimpro per
Ġcandid acy
Ġcommer ce
Ġg em
ey ed
b ucks
Ġrespect s
Ġther mal
Ġe ld
Ġdeb ts
ĠK enny
Ġillust rated
ĠCl int
Ġconv entions
Ġp aste
ĠP ub
ĠU P
Ġc oding
Ġdys function
in ers
Ġuncom mon
Ġpersonal ities
Ġreal ities
Ġst airs
ĠS r
Ġslow ing
Ġlight weight
Ġbelong ed
Ġreal izing
ann ers
Ch ild
Ġoverlook ed
Ġz oom
Don nell
ĠR alph
Ġupload ed
Ġexp osing
ator ies
o ir
Ġcycl ists
Ġnurs ing
display style
Ġc ensus
Ġth rive
het ical
cons cious
Ġintu itive
Ġadd ict
Ġtest ify
ĠE A
ĠT X
Ġperform s
ĠCur ry
Ġautom ation
Ġadd itions
Ġpo ised
Ġunsupp orted
Ġquick er
ĠY am
ĠPy ongyang
ĠF ixed
Ġenjoy s
Ġord inance
Ġtour s
Ġcirc ulation
ÃŃ a
ĠBar nes
Ġoutrage ous
ĠH A
ĠBash ar
am ount
ĠE sp
Aug ust
Ġadm ire
S I
Ġblank et
b ast
Ġc ripp
l it
q a
om on
ek ing
Ġbas ics
Ġener g
Ġse ize
Ġpl um
ĠSy n
RE D
Ġass erted
200 6
Spe cial
ĠP HP
iet h
Ġtat too
ĠMon te
Ġorig inated
itz er
Ġ12 8
Ġt ags
Ġsubject ive
Europe an
ĠRe act
Ġag grav
Ġpaint ings
ĠN uclear
Ġred es
Ġd ip
ĠSt rike
ĠPre vention
ĠAbd ul
f illed
Ġ196 1
A ir
ĠP aper
ĠL O
ĠÎ ¼
Ġrecip ient
ĠVal ue
Ġje opard
ĠD ust
Ġcas ino
Ġvibr ant
Ġcomb inations
Ġcoord inated
Ġwond ers
ad h
Ġgu ides
ĠSte phan
ĠSil va
b ank
ĠUn less
Ġno on
Ġrepe ating
c ond
Ġgr ades
ĠWild life
l anguage
10 1
Ġredu ctions
Re illy
Ġawa iting
ĠH off
ĠRe lease
Inte rest
ĠW AR
ĠK iev
ĠSh akespeare
Ġ10 5
ĠReg ister
{ "
Ð ²
ĠKas ich
Ġmonop oly
Ġfl own
Ġimm ers
Ġa in
Ġb ent
Ġparticip ant
Ġliqu or
Ġwh ales
Ġeval uated
play ed
g rown
Ġty r
ĠWord Press
ĠKle in
ig o
Ġim aging
Bl ue
Ġs way
ĠNor wegian
Ġb od
Ġdeal er
ĠTit ans
ĠFal cons
Ġcl ues
Ġspr int
ĠAd rian
Ġvol t
ĠHold er
Ġhilar ious
Ġmention ing
Ġreflect ing
Ġl oot
ĠT ab
Ġtrad ers
ĠC I
Ġred irect
is co
ĠC raw
Ġdetain ees
Ġtast es
ĠEmer gency
ĠH ack
Ġabund ance
ĠE aster
Wh atever
ĠDod gers
ĠB ark
ĠCom plete
Ġnever theless
pro cess
ĠH ook
ĠL um
Ġh obby
Ġsc iences
Ġbuy er
Ġmerch and
T est
Ġsoul s
Ġpick up
il ogy
ile m
ĠBudd h
ĠRand y
D ate
Ġwh ale
ĠT ories
B rown
ĠSch ne
ĠT ak
ĠJ unior
Ġan ten
Ġc ared
ber ger
sh adow
Ġbot hered
Ġinher it
up iter
.' '
I ts
ĠB ec
p ers
ĠM atch
ĠR ules
Ġtri vial
ĠAt hens
c ock
Ġform ats
ĠEm ily
Ġwatch dog
ĠAgricult ure
ĠAl z
ĠIsa ac
ĠNov a
ĠPear l
ec d
Ġlit eral
Ġopt ical
ĠBer g
Ġdatab ases
Ġdev il
d ist
ĠR ot
ĠBa iley
ĠGab riel
ĠF aith
Ġdist ances
Ġfl uct
Ġunder grad
an throp
ĠE ye
Ġsam pling
Ġman ga
Ġc ivic
Ġsl ogan
Ġrece i
Ġaston ishing
Ġdark er
ĠT ottenham
Ġdemonst rating
Ġobs essed
Rich ard
Ġhur ting
Ġgr ams
ĠMet ropolitan
iz oph
Ġins isting
Ġinadequ ate
Ġexha usted
ĠC ort
R ad
Ġwrit ings
Ġsun light
Ġemp athy
Ġunder water
ĠFerr ari
b illion
ĠG oth
ĠCy ber
st airs
ener ation
ĠTh rones
un al
Ġlobby ists
Ġfin est
ruct ed
Ge orge
Ġs iblings
Ġoverwhel med
Ġorgan isms
ĠJosh ua
er ie
m ake
ir us
ĠPere z
an cer
Ġvast ly
Ġdiplom ats
ard i
xt on
Ġserv ants
cl ock
ĠAustral ians
ĠJen kins
k it
Ġe ternal
ine a
Ġcou ch
f air
S erv
ĠU l
Ġprotocol s
Ġu mb
ĠR ust
W elcome
ĠH ob
Ġst agn
ĠEv an
Ġsm iled
ĠDep ression
ĠH ost
it ime
Ġcon gest
ĠEr n
os ion
Ġpremium s
Ġbl u
am ples
Ġassault s
ĠM UST
Ġde portation
Ġpus hes
S ources
ĠS ite
ĠSt uart
OC K
Ġex acerb
Ġmole cular
ane y
ep rint
Ġhorizont al
p ict
Ġprox imity
Ġunderstand able
Ġconj unction
Ġen compass
Ġ0 6
Ġcraft ed
Ġsn ake
ID E
Ġmicro sc
ĠT win
dri ving
Ġpay load
ĠLe aders
Ġp unk
Ġspin ning
ĠA IDS
ĠK id
ĠHer oes
ĠC ob
Ġbank ers
Ġproceed ed
ĠS gt
Ġbarg aining
Ġcapt uring
Ġwork out
ener gy
M ap
gg y
eng ine
ĠMc N
ĠG ang
ut ton
Ġadv ise
Ġprim aries
Ġver ified
Ġjew el
rop he
Ġinaug uration
" ),
Ġg ases
az or
ĠHe avy
Ġ19 48
Ġmed ications
ĠA j
Ġu m
Ġen light
Ġapolog ized
Ġs i
ĠProp het
Ġw olf
Ġst aged
Ġb ounce
Ġshall ow
Ġaccompany ing
Ġsec recy
ĠPro bably
id y
ach i
Ġactiv ate
im ination
Current ly
Q ue
ch t
f un
D ou
Ġax is
ĠT iger
im edia
Ġsurf aces
M iss
Ġimprison ed
Ġinjust ice
ĠD ylan
f amily
Ġpromot es
es ar
ĠSt range
Ġimpl ied
ĠViet namese
ĠSach s
ov an
ĠKash mir
p res
Ġl ingu
Ġsupp liers
ĠNot es
Ġrebell ion
Ġsus cept
st rom
ĠP oke
ĠAp ollo
ĠS weet
ch at
Ġun named
Ġnational ism
ĠJ ob
inent al
Ġfiref ighters
ĠB our
L ocal
Ġind ul
ĠB in
ĠG ingrich
EN D
Ġstate wide
Ġalph a
Pl us
Ġdisapp ro
act iv
ĠF uk
Ġwho lly
Ġlo oph
Ġin ning
izoph ren
ag le
alk ing
Ġadminist ered
ÂĢ Â
Ġb og
Ġtr ails
se xual
ĠHe aven
ophob ic
Ġincom plete
Ġgener ator
Ġtra it
Ġdr astically
Ġretail er
ĠR B
Ġcomp ile
Ġassum es
Ġrele g
ĠEconom ics
Ġbe am
Ġnot or
F orm
Ġpast or
osa urs
Ġj ar
Ġcompl iment
Ġshot gun
Ġen rolled
Ġb aking
le um
ĠSc ript
Ġ **
Ġsp am
Ġm a
Ġsl ots
S ocial
ro e
Ġcont ention
Ġpop ulated
Ġhur ts
ĠF ew
D ear
ĠCro at
Ġhint s
Ġb rib
Ġk et
Ġfit ted
ise xual
Ġpa ired
Ġborrow ing
Ġeleph ant
P ri
ĠShe ll
Ġhighlight ing
p ad
sh ine
W as
Ġbat ting
Ġstab bed
Ġnew com
ĠRe x
Ġmet ro
Ġto ggle
S w
ĠM ix
Ġvit amin
Ġp ets
us p
ĠMar ie
Con clusion
Sand ers
Ġl enses
Ġlot tery
ĠD ow
Ġam ended
the ning
inte gr
ĠA ur
ighte ous
h all
Ġplaint iffs
Ġathe ist
ĠInd y
Ġobject ions
ĠIns ider
Ġso y
ere rs
Ġcontest ed
ĠT PP
Ġl amb
Ġgra pp
ĠIndust rial
ĠSh op
Ġcomed ian
Ġext ensions
Ġback ward
Ġaffect ion
Ġphenomen a
ĠFl int
Ġprob able
Ġf lick
Th us
Ġout line
Ġint ro
author ized
Ġm asters
Ġar row
intend ent
ens itive
ĠArab s
Ġc ites
Ġpar a
G C
Ġd uck
ĠN um
cy cl
ig el
Ġpen is
amer a
Ġro pe
ĠW ag
f a
ĠE ug
ĠCole man
Ġgorge ous
Ġrev is
Ġrespond s
Ġsub urb
ĠIM F
ĠTH AT
Ġj aw
Ġmot ive
ĠAsh ley
Ġtort ured
Ġmain land
â Ļ
t i
ear th
Ġinter ventions
Ġpass words
Ġhelicop ters
Ġadmit ting
Ġg ently
en es
Ġun equ
g one
Ġself ish
Ġanaly tics
Ġobs ession
I ES
L ine
Ġc ater
ourge ois
ĠEll iott
o at
ie ves
Ġp ills
Ġan them
Ġth y
Ġstand point
Ġm es
Ġcontro llers
Ġcat aly
Ġemb ry
ĠApp eals
Ġsum s
Ġpopul ist
h ouses
ĠH alo
Ġb ang
uss ions
Ġmat rix
ĠBur ke
c iously
Ġexplos ives
Ġco h
ĠP ul
step s
Ġware house
ĠPat rol
Ġterrit orial
Ġcast le
Ġhur ricane
in burgh
rig er
Ġun ified
s ic
ĠGT X
D isc
od er
Ġconf isc
Ã¶ r
Ġconcent rate
iet al
ot ine
Ġfig uring
ĠS ask
ĠL av
Ġcol ours
nd ra
ĠInd igenous
Ġlog ged
Ġens ures
Ġun b
Ġcry st
E s
Sh ould
S QL
Ġsyn chron
L ove
ĠC AN
r ina
Ġsymp athetic
Ġmin ors
Ġprot agonist
ĠM our
AT H
ĠOff icial
ĠGl en
Ġlog ging
ci ation
Ġprivile ged
Ġo wed
other apy
Ġeru pted
Ġval ley
Col or
Ġcons oles
it ational
os c
ĠN aval
Ġse as
mit t
Ġide als
B erry
ĠTreat y
W W
U ser
re lla
ĠN am
ĠDra ke
Ġprosecut ed
ĠJ os
ĠD ad
Ġdes irable
Ġsurf aced
Ġpsychiat ric
Ġemphas ize
Ġsad ly
Ġan ecd
ĠApp ro
ĠD at
Ġpl ots
ĠSC P
k ov
ĠP or
h it
ĠQu arter
Ġwel coming
Ġs atur
Ġfeed s
AM Y
ĠV irtual
Sub scribe
ct ed
ĠEm ma
Ġ* /
Ġrev ision
Ġweek ends
ind ust
Ġstret ched
ĠR ab
ĠL anc
ĠIn g
ĠU FO
Ġ ..
Ġdef er
ĠPel osi
Ġcal culation
Ġsoph omore
e i
Ġsand wich
Ġmos qu
Off icials
igg ins
Ġdistingu ished
ar ious
are a
ĠGo ing
if a
ĠF ocus
ĠGu ild
Ġconstit utes
Ġconf ined
200 5
du llah
Ġintern ally
ĠRoberts on
Ġcorrid or
ĠW alsh
Ġselect ing
oint ed
Ġto pp
et z
Ġcan on
Ġpool s
sec ret
Ġcorrect ed
Ġincomp et
Ġen rich
Ġgreet ed
ĠN RA
ut ral
Ġd ice
ĠBapt ist
Ġinform al
Ġpartners hips
Ġsens ation
Ġat roc
commun ications
ĠâĢ ĭ
Ġunder cover
Ġcool er
Ġreact ed
B ox
ĠJ agu
Ġprocess ors
Ġdefin itions
). <|
ĠSim ply
oc used
Ġhack er
F ixed
Ġtraject ory
Ġgau ge
ĠL anguage
Ġhome owners
v id
us k
ins ki
at tering
im er
ĠKn ights
year s
Ġflood ed
R ub
Ġcompl ications
p olitical
ract ed
ĠP and
Ġjump s
Ġvend or
ĠSt ream
ump s
0000 0000
ĠL opez
ĠV ersion
Ġcont ests
ĠW end
Ġcur iosity
Ġass ure
ĠCirc le
ut ic
ĠCon cer
if le
Ġfin ed
Ġconced ed
ib al
ĠC e
s uper
Ġpedest rian
Ġup rising
We b
ĠOr d
Ġhom eland
osp here
ant a
Ġmag net
Ġo ceans
ĠO mar
ĠR idge
ĠCh a
ĠLl oyd
Ġball oon
Ġcompe lled
Ġliber ation
R P
Ġcommand ers
Ġla wn
O p
T L
Ġprop osing
You ng
Ġsk ate
ĠD ale
Ġmach inery
os oph
Ġdeb ated
stan bul
Oct ober
Ġpropri etary
Ġfair ness
S un
man y
16 0
Ġl od
Ġall ocated
ind uced
pe ace
Ġprov oc
Ġreck less
Ġsh irts
ĠSh o
Ġh ills
ĠM t
ĠN y
ĠE sc
In s
bu ilt
Ġarm ies
ĠNS W
Ġbuck et
ĠAdvent ure
x on
ĠDub ai
ĠEth iop
Ġcompr ised
Ġpres cribed
g mail
Ġmax im
ĠHe ights
Ġsuccess es
Ġhar ness
conf ig
ĠD iet
Ġunlaw ful
ĠAlz heimer
ĠSt ay
ela ide
Th ink
Ġcolor ful
Ġpur ported
Ġdelic ate
ĠW A
ĠN early
ook ie
Ġsex y
ĠE L
ĠGu ant
âĢĿ ),
Ġc ried
Ġwas hed
Ġvar ies
Ġstere otypes
Ġairpl ane
Ġg ru
Ġcho oses
Ġcell ular
ĠH od
ĠC ensus
Ġc el
ĠCon n
Ġsyn c
Ġnick name
ĠWe instein
ĠThe resa
ant on
S ix
Ġsl am
is ite
Ġsuff ers
Ġment or
Ġemb od
ĠTrans it
Ġparadig m
Cl oud
Ġnot ifications
ĠRe b
l at
Ġprompt ly
Ġstory telling
ĠMar ines
AR Y
7 50
Ä į
Ġfemin ists
Ġqu eries
me ga
Ġsing ular
aze era
ĠGreg ory
ĠInn ov
Ġambul ance
ne ys
Ġdebut ed
Ġub iqu
Ġproject ion
de ep
n is
hed ral
ri um
re a
Ġconnect s
ĠAlf red
f its
Ġ19 00
com mon
Ġbroadcast ing
Ġrecru its
Ġbe e
Ġafter ward
Ġstrateg ist
ĠC F
Ġten ants
Ġmor ally
ĠT ol
do ors
Ġpl ural
Ġcompet itions
Ġvar ieties
yl on
S al
Res earchers
Ġpot atoes
Ġtrans mitted
Ġvis ibility
ĠSch umer
az ar
respons ible
o qu
Ġth a
Ġstun ned
U G
Ġgri ev
. (
sp an
Ġprest igious
ou x
ĠT at
ĠC inem
M arc
Ġsen iors
Ġparad ox
ĠF ine
Ġmethod ology
Ġexem pl
ĠFal con
C BS
Ġcl oth
in v
ĠD uterte
ĠHar bor
Ġperce ive
M ass
ĠN FC
ĠPolit ico
Ġmaneu ver
Ġcomment ators
set t
in ian
ĠH ood
rist ol
Ġvoc als
Ġgl oves
Ġobst acle
ĠC li
ĠF u
Ġout reach
Add ed
Ġmil estone
cr acy
load ed
Ġmis dem
hol m
Ġburg l
Ġeleg ant
Ġstruct ured
Ġco vert
r ill
ĠU T
c ur
Ġpit chers
Ġcolon ies
ĠB ot
Ġsystem ic
Ġunpredict able
Ġg odd
ĠK ell
ĠL amb
c ision
op ath
ĠV el
ĠChampionship s
With in
c ue
ic ans
aw i
Ġfool ish
Ġweigh ing
|> "
ĠMcC l
Ġsw orn
ĠS HA
f ood
af ort
V C
ans on
Ġha w
Ġhasht ag
ish a
Ġmax imize
Ġyell ing
Ġhost age
asp berry
Ġexclus ion
ĠLib yan
ustain able
Ġver se
s um
S aturday
Ġbless ing
Ġb acon
ĠSol id
Å ¡
Ġinsure rs
Ġrenown ed
or p
aun ting
ĠPost ed
Ġrom ance
ĠE arl
he res
Ġhe ck
Ġsm ok
Ġignor ant
Ġbo o
Ġlo vers
Al ong
r ab
ĠR BI
ĠF ortunately
Ġcr ush
ĠOr acle
Ġconsider ations
Ġinterrupt ed
Ġimp ly
be cca
Ġteach ings
Ġimpro ves
Ġgar lic
is i
Ġrel ates
ĠImp act
Ġl ining
Ġhold er
Ġtime ly
Ġbrut ality
Ġunsuccess ful
Ġdest inations
Ġo ct
Ġprem ises
ĠE M
Ġbarg ain
ĠTh om
Ġacceler ate
Ġhum ili
ĠBou levard
Ġmin us
ĠCharg ers
Ġpreval ence
Ġfin ishes
Ġinfer ior
ĠM ak
Ġe Bay
ĠM aterial
Ġvulner abilities
Ġan nex
Ġbund le
Ġcr ises
ract ion
Ġneighbour s
Ġincon ven
ri ents
ov ak
Ġbr acket
Ġ Ñ
ri ad
Ġdiscover ing
g em
ĠC able
Ġworks hop
Ġk its
it ches
Ġl ament
Ġuniform s
se at
iff e
vert ising
Ġs ore
M ORE
ĠB rent
Ġout law
Ġmer ger
uff s
ĠWin ston
st ud
In c
ine ment
ĠB ever
ĠLear ning
Ġexceed ed
Ġdown ward
Ġp ixel
Ġdiscuss es
Ġprivile ges
m ajor
C ent
q l
at ivity
Ġembarrass ed
Ġexc av
uk a
Ġphr ases
Ġappet ite
W ant
ĠT roy
ĠMor rison
ĠGonz alez
Ġball istic
ĠGlas gow
Republic an
m and
Ġel imination
Ġgr an
Ġst ew
ĠBro ck
iv ia
ĠLGBT Q
ĠC ele
Ġtoler ate
Ġl ur
ĠJ upiter
ick er
ĠSt age
Ġav iation
Ġunw anted
ĠF ear
Ġgrad uation
ĠBlu etooth
ĠT i
ĠS ak
Ġbrows ers
ownt own
Ġmar ched
ĠM oto
Ġ" [
Ġcle arer
T T
Ġtw isted
Ġchampionship s
Ġenjoy able
Ġaccept s
" [
Ġper secution
Ġrecogn izing
ĠAven gers
ĠPar ad
em ption
Th ings
Ġgun man
it ives
St op
Ġspecific s
Ġbl aming
w ald
Ġa kin
b ps
Ġr ust
Ġwrong doing
Ġbed s
al iation
Ġresist ant
Ġsol ic
Ġmis ogyn
ĠThe ater
ĠN as
Ġdis respect
Ġtyp ing
Ġappropri ately
Ġcon ceived
ĠGOOD MAN
ĠPri x
ĠI van
Ġshut tle
ĠT E
red ited
ang led
ĠBe gin
id av
\ /
ĠT weet
ĠReyn olds
! ).
IT E
ĠA verage
Ġl end
ld a
Ġ10 80
ĠF ighter
IC O
ĠAut om
n ull
Ġvol can
ĠSer b
Ġvac ant
ĠH app
az er
Sep tember
Ġdis abilities
C ON
ĠU pper
ĠSpr int
Ġric hest
ĠW ake
Ġdesp air
R un
re ra
f ax
Ġcul min
Ġextrem ism
ĠP le
Ġnomine es
L og
Ġthought ful
ar ak
B ob
Ġ> >>
Ġnotice able
ĠIns urance
Ġded ication
com fort
Ġpip es
Ġingred ient
Ġre per
ĠE rik
Ġright ly
b ird
Ġb ore
d et
Ġthr one
Ġg ad
ag ne
Ġcorner back
ĠFil ip
ĠJ eb
ra f
Ġperform ers
Ġadvoc ating
ĠD ana
Ġ1 11
Ġcondition ing
Ġtw ent
ĠSat urn
Ġtun nels
Ġprohib it
Ġdiam ond
ĠL ux
Ġfuel ed
ric anes
oci ated
ĠM ets
Ġrep ay
âĢĿ ;
Ġmeth ane
E p
Ġ} ,
ĠM aps
ĠL iqu
ĠN ode
Ġthe sis
Ġfr acking
Ġsens es
Ġex otic
ĠTurn bull
Ġcritic ize
Ġid iot
ĠL ag
ĠX P
Ġentire ty
Ġdetail ing
Ġpl asma
O k
im en
Ġste alth
Ġexem pt
is se
Ġdisplay ing
Ġpr ag
Ġnum er
ĠL ogan
Ġwar rior
Q U
Ġartif acts
Ġl over
Ġout field
ĠB io
ĠTrans port
Republic ans
Pro ject
ĠRep orts
Jo in
udd enly
che m
ocaly pse
Ġrecogn izes
Ġa u
Ġun just
ĠScient ology
Ġkn ocking
ĠFre eman
b ard
an ity
Ġbar red
ĠAd vis
Ġp ap
Ġsing les
ĠÂ «
ĠBas ically
d id
Ġloc ks
Cong ress
Ġan at
th ouse
Ġdis asters
Ġprejud ice
ex cept
gu ided
Ġinflu x
achel or
U TC
Ġhead set
ĠLeg ends
re view
Ġadop ting
Ġmer its
Ġg rit
ard on
Ġmet adata
ĠK on
Ġacknowled ges
Ġfur ious
nder ing
ol ith
Ġmar athon
ĠH ab
C ourt
ev al
Ġstory line
ĠSadd am
Ġtr aces
ĠPC s
J ul
Ġcort ex
R edd
Ġw ary
ion age
Ġsur g
Ġmer cy
ĠDec l
Ġrest art
Ġp ixels
ĠEd inburgh
G P
Ġband width
Ġwip ed
ĠPers ian
Ġinaccur ate
Ġinst itute
ĠSing le
t ag
ic ularly
ĠF a
vas ive
ĠCont act
Ġoff ences
Ġalt itude
Ġillust ration
Ġv ivid
Ġdil ig
it an
Ġman kind
in yl
with out
sh irts
Ġatt ain
at ism
isp here
ĠStart ing
ĠE N
Ġoccup y
14 0
Ġpreval ent
Ġc ows
Ġdet r
Ġprolong ed
Ġround ed
ĠI gn
ĠP OL
ic able
Ġbl essed
work ers
ĠKn icks
Ġexem ption
o ids
Ġsett lers
Ġf ren
ish ment
Ġinaug ural
Ġde er
B ern
ĠC el
Ġcoc onut
ĠBurn s
Ġfreedom s
Ġseason al
Ġpun ct
L ead
ci pl
H op
al ion
ian i
ĠMill enn
Ġsm arter
Ġwarr ants
red dit
ĠPr adesh
Ġcap ita
Ġp ave
Ġref eree
ĠSU V
Ġindu ced
Ġunst able
Get ting
Ġb ourgeois
Ġmot ives
ĠFR OM
O per
Ġexped ition
ĠN L
ĠU g
Ġaggreg ate
Ġprogram mes
ĠEmb assy
A round
Ġt il
Ġer ad
Ġaccommod ation
N or
Ġcar pet
Ġre dd
ĠD h
Al most
ĠSt o
Ġcomb ines
ch anging
Ġc raz
ĠFif th
ĠL ith
ĠSN P
ram id
ĠB uc
ĠR ange
ĠSpe aking
D am
Ġst ems
b led
Ġgl uc
Ġlisten ers
A ut
Pac ific
Ġc ite
Ġf ist
Ġab st
Ġt apped
ĠT ap
ĠDev il
200 4
ĠFrank en
Ġgr ind
Ġ19 44
Ġdiet ary
Ġdefe ating
ĠC aval
viol ent
F ar
__ _
Ġbenef ited
Ġmir acle
Ġenthusi asts
Ġprogram mers
Ġcoun cill
ĠR ift
ĠHait i
Ġgr in
Ġrecomm ends
c ot
Î ±
ry s
atin um
D an
g rowing
Ġbureau cracy
Ġl ag
ĠW izards
ĠPer l
Ġcriticism s
Ġsanct uary
Ġh over
B B
Ġrig orous
Ġhous ed
Ġconcess ions
n ings
Ġpaper work
ĠA RE
Ġprost itution
ad os
Ġcr ust
ĠA A
Rec ently
Ġdef ect
Ġupd ating
ab we
Ġ Ù
Ġv est
Ġbom ber
he ed
ĠI CE
Ġstatist ically
P T
Ġorche st
Ġreb oot
> </
Ġunf amiliar
Ġcon qu
Ġlength s
ĠAud io
Ġpred ators
Ġsne ak
sequ ently
Ġsymp ath
m ut
Ġru ined
ĠProgress ive
Ġph osph
op hers
Ġst yl
Ġun a
p arent
ĠB uch
Ġsl og
Ġchar itable
Ġhost ility
Ġheav ier
c ourse
ĠM ik
Ġd ilem
ĠStar bucks
Ġfor fe
ĠR hod
Ġdet on
int o
ĠSch midt
ĠElect ronic
ren ched
ĠI stanbul
ĠE isen
Ġposition ing
com plete
Ġphilos opher
Ġcoordin ate
ĠS ales
imb abwe
ĠJul ia
Ġreb uilding
p aper
or o
Ġden ounced
V ery
Ġme ga
Ġuns afe
Ġins ider
ĠEver ton
Ġter rific
Ġacqu iring
ĠWH O
ĠRoll ing
M ult
Ġst unt
! âĢĻ
p ark
Ġter ribly
Ġpers pectives
ĠV o
ĠBas ic
re v
ing ham
Th omas
Ä ±
Ġthere after
Ġcrack ed
Ġsimpl icity
ĠC ork
Ġforb idden
ĠR uth
c in
c ig
ĠSe oul
spe aking
Ġun m
ĠGit Hub
Nob ody
Ġsuper visor
ĠPartners hip
Ġillust rates
ĠTim othy
ess ors
ĠAng els
Ġreferen ced
Ġj ournals
Ġport al
AN S
Ġobject ion
ĠO kay
ĠH orse
F ind
ĠN J
port ing
Ġoff ended
ched el
k ara
Ġl aps
Ġinfringe ment
ĠP os
Ġbig ot
ĠT ournament
ĠRom ania
ĠOw en
Ġanaly zing
ixt y
Ġsh ade
ĠMor oc
Ġintrodu ces
Ġsch izophren
ĠD ash
in el
Ġrequest ing
Ġantibiot ics
Ġf usion
Ġtr action
D aniel
Ġd y
H and
ĠSe bast
Ġident ifies
Ġj ungle
Ġsoc io
f light
ic ates
Ġs perm
C rit
Ġdiplom acy
ĠCitiz en
ĠSher man
L ive
Ex per
Ġborrow ed
U RE
ĠSpace X
ĠNot re
Ġintention al
Ġ20 30
ĠPrinc eton
li ber
rest rial
ĠSu z
Ġcert ification
Ġskept icism
ĠLe Bron
Be yond
an ed
Ġbro ker
Ġaff idav
place ment
Phot os
Ġvol atile
Add itionally
) -
Ġfright ening
ĠO ri
ish ops
ĠVictor ian
ĠLind a
rat ives
An n
b usiness
p al
Fr iday
Ġunch anged
ist ical
ĠL P
ĠScient ists
ipp le
ĠMoh amed
ĠE ST
Ġton nes
so ver
Bel ow
l ived
Ġreg ain
Ġrec laim
Ġfat igue
Ġwh it
Ġdetect ives
Ġend ured
ograph ics
Ġshe lls
Ġbet ting
ĠC ad
Ġch ill
ters on
ount ain
ĠL ed
ĠAl ways
ra ve
i u
lic t
ĠS ame
Ġindic ators
Ġmult ip
ĠPoke mon
it as
ĠAub urn
Ġvis as
ĠMa o
Ġterr ified
ĠU nd
ĠExper ience
fund ing
Ġhealth ier
Ġfav ors
Ġso ap
Ġabsor bed
Ġv ine
ĠAust rian
Ġvir uses
ĠJ ill
ĠCourt esy
w ere
Ġcooper ative
ĠBet a
v ity
ĠR are
i ov
Ġclean er
Ġrestrict ion
ĠC ities
Ġsh red
G I
Ġsuper b
âĢ ²
Ġas c
Ġcirc ular
Ġlower ing
ĠMurd och
ĠC oc
oles ter
IN T
Ġmir rors
Sh ow
Ġrec ons
ĠK ob
Ġar che
ĠV ince
Ġche ating
itness es
% ).
ĠIS IL
ight y
Ġinterrog ation
im ag
br and
OU T
Ġbron ze
C amp
For ce
ĠP ist
Ġsh aping
ĠChe v
as se
Ġv intage
Ġ19 41
ĠAb dullah
keep ers
Ġcap ac
US E
Ġsubmar ine
Ġback yard
ĠS tern
ĠL iter
] ]
Ġunus ually
Ġref riger
Ġaccess ories
Ġph ases
Ġnort heast
ins ky
b ial
Ġpe cul
ĠLet ter
Ġexclud e
spons ored
Ġpl at
ĠD ani
ĠCl are
og s
Ġunder going
Ġtack ling
est ine
Ġfree zing
ĠBr is
Ġemail ed
Pr int
Ġnational s
Ġcell phone
Ġtake over
Ġhorm one
M ex
Ġend uring
Ġund is
ĠN ak
Ġdevast ated
in qu
Ġ11 5
ĠDay ton
Ġun real
Ġsquee ze
Ġtro op
Ġsub po
gg ie
Ġfilm maker
om ical
Ġg le
ĠM iles
Ġbe ard
ĠC lear
cast ing
ĠRich ards
ĠKum ar
Ġmin eral
Ġ17 0
Ġgoal keeper
ĠPerson al
Ġbrand ed
ĠA V
Ġadvoc ated
ĠSask at
Ġstr ains
ind a
af ia
ng th
ĠN ice
Ġce ment
Ġ- --
Ġcommunic ating
Ġbeaut ifully
ices ter
ĠAnn ual
Ġcy l
ĠG L
Ġinv iting
Ġfact o
Ġpsych ologist
f act
or ie
E lect
et ed
Ġproud ly
ire ction
Ġpos ing
ĠPl ant
ĠFried man
ĠR ugby
on so
Ġtour ing
Ġn avy
ĠJul ie
p atch
Ġint ric
ĠG y
us ers
Ġgovern ors
ĠCelt ics
g ie
Ġref ined
oy s
u ador
Ġaut op
Ġalleg ation
sh ould
Ġenter prises
Ġback drop
Ġdo i
m g
p c
Ġswit ches
Ġmodel ing
ĠM ig
Ġhapp ier
ĠNY PD
ress es
ins pired
Ġmet als
Ġcourt room
Ġhy ster
ĠSim mons
ern ame
F in
Ġimper ative
Ġsc aling
gu ards
ick y
Ġmark er
ĠCore y
Ġinterf aces
act ed
Ġsn apped
Ġannounce ments
Ġrespons ive
Ġins ulin
Ġdeter mines
ĠEvery body
I X
Ġarch ives
Ġhand c
ond o
Ġstretch ing
Ġbal ancing
Ġcontam ination
ĠE instein
Ġexp on
ill es
Ġst ip
Im agine
ĠMe yer
Ġreiter ated
D en
Ġret aliation
Ġ} );
Ġrival ry
Ġa rose
ĠEl ite
Ġundert aken
D ev
oss ibly
Ġb ast
Ġdevelop s
ĠH i
ĠSp art
ĠC raft
Ġrecept or
Ġwa ist
Ġs oda
pr im
Ġ24 0
Ġh orn
ed in
Ġpal m
Ġp ulse
Ġdepend ence
et c
ĠDO J
Ġ19 47
Ġar senal
ink le
Ġcha otic
s ided
\ -
ot ers
av ior
Ġf ost
ĠHaw ks
av in
ign ment
Ġtravel ers
Ġinf ants
ĠHy per
ĠB urg
Ġengine ered
gg er
19 90
Ġmerchand ise
Ġhard core
Ġattract ing
bal ance
Brit ish
Ġst ellar
Ġauthent ication
Ġd od
ĠR abb
Ġshort s
Ġobser ving
Ġimp air
cent er
Ġconfir ming
ĠBah rain
Ġdece ased
ĠC atherine
Ġgall ons
Ġje ans
am el
Ġcritic izing
Ġagree ing
Ġcompens ate
ĠON E
ĠH arm
Mc C
Ġwas hing
Ġpredict ing
Ġappar atus
Ġrev ival
Ġspecial ists
Ġinnov ations
anc ers
Ġl av
Ġvis ually
Ġanticip ate
Ġposs essed
Ġwor s
ĠPan ama
h n
Ġp ine
M el
it us
Ġth under
Ġele ven
Ġre ef
N OT
Ġl aughter
T urn
ie u
ĠTill erson
Ġdeleg ate
pect or
Ġopio id
Ġey eb
Ġ ì
ĠWalk ing
Ġrest ing
ĠUlt imately
Ġfl ame
Ġcore s
ick ers
Ġdistract ion
pl ates
ax ies
H y
Ġpen al
Ġpot ato
Ġw ipe
Ġbroadc aster
Ġwar mer
Ġstar red
ĠGil bert
ĠD ot
Ġclear ance
Ġaut umn
ĠV ision
ĠM az
Ġkidn apped
Ġwar riors
Ġpri zes
mod ern
ĠVal ve
Ġs idelines
Ġburn s
ĠMap le
squ are
Ġp and
ĠO t
Ġreg imes
Ġep it
bl ood
Ġdump ed
Ġ( .
Ġur gency
ĠSc ore
ster dam
Ġdom ains
ĠUs ers
Ġec ological
ĠL ay
y ers
ĠCent ers
ump ing
Other s
Ġhypot hes
C ode
Ġconcept ion
ĠExpl orer
Ġend ure
J S
ur st
ĠCo ver
ĠMan afort
Ġnegative ly
ĠJ azz
R ock
duct ed
Ġcontract ed
Ġbull shit
ĠGr ad
Ġo live
Ġvisit or
Ġcapt ures
Ġtheir s
Ġselect ive
Ġradio active
Ġdub ious
Add itional
Ġb ilateral
ev ent
ĠR apt
ĠBrend an
Ġbl ows
ĠH erman
Ġpr inter
Ġreact ors
Ġt ant
ĠPro duction
Ġro de
Ġnodd ed
ĠHay es
Ġrad ically
Ġvan illa
Ġrep airs
ĠPen insula
Ġinst ability
Ġseiz ure
Ġcateg or
Ġdepend ency
ĠDam age
Ġunbeliev able
Ġsever ity
ĠH ogan
Ġvolunt arily
ĠMerc ury
Ġexplos ions
Ġill icit
Ġastronaut s
ĠCraw ford
10 5
Ġshel ters
et itive
mo il
ount y
o an
Ġcontam inated
if ted
ort ium
Ġm arsh
Ġscreens hot
Ġpe an
ĠDet ails
h l
ĠR iley
W il
Ġs ights
Ġgood ness
ĠLeg acy
Ġlog in
Ġprogram mer
Ġth wart
ĠC ards
bl ue
Ġlone ly
we ather
P ict
ien cies
Ġobser ver
rec ord
Ġacc use
Ġque er
Ġassess ments
ĠEmir ates
oster one
Ġsubsid iary
ĠCris is
Ġcontent ious
Ġside walk
ia o
ĠB ristol
abl ished
let te
verse ly
Ġst al
b uster
ĠT W
amm ad
O O
Up on
ĠCom ment
ĠCon way
ĠPl aza
Ġpal ace
Ġstret ches
Ġd well
Ġcr unch
Ġthe rape
Ġh ollow
Ġpath way
pl aced
Ġb isexual
Ġprop he
S W
er m
er k
Ġdisadvant age
ĠâĨ Ĵ
ans ing
Ġdem ise
ent e
Ġcrypt o
Ġpour ing
ĠH ernandez
Ġshut ting
C T
en berg
Ġrob otic
in ters
Pl an
ĠGr ass
Ġhun ter
w ave
Ġdirect ive
Ch ief
More over
ĠSp icer
le ys
P rodu
ett ings
E ric
ĠSch ultz
Ġj ealous
ff iti
Ġrese mble
Ġaw aken
Ġr im
We ek
Ġcompet ent
ĠBru ins
Ġtransl ates
Ġfre ak
Ġrig id
Ġempir ical
Ġru ins
Ġd iving
ĠVi enna
Ġredu nd
K im
ĠG ross
fol k
ĠHon or
p arents
ĠRou te
H i
ĠS hip
Ġwithd rew
Ġcook ie
Ġmetaph or
Ġsell er
ĠSim ple
" ]
Ġsurpr ises
Ġto e
health y
Ġren amed
Ġre he
ar ium
ĠLe o
t z
Ġchar ities
ĠVe h
Ġcost ing
ĠAndre a
ed u
Ġr anged
ĠSh ane
Ġf og
ĠFr ame
Redd it
Ġs ack
Ġex terior
Ġlau nd
Ġrelent less
ĠRe play
ĠBl izzard
Ġineff ective
20 18
ple asant
N ovember
Wind ows
K evin
ott esville
Ġple as
ĠJed i
Ġins erted
Ġdo omed
Ġv om
Ġ ï¿½
ĠSu ccess
S B
200 1
Ġtr aced
Le ague
ĠBren nan
Ġdig its
Ġreminis cent
Ġd ull
Ġâ ī
ĠAP Is
AN K
ĠInvest ment
ĠCry pt
ill on
P ay
av an
Ġrem ed
ĠF lickr
ĠAd elaide
ry pt
John son
ĠInvest igation
200 3
Ġle aking
Ġown ing
he e
Ġpo pped
Ġpar an
ĠReg ardless
c led
Ġpres ervation
Ġacceler ated
Ġb end
Ġmod ifications
ĠChe ney
Ġchar m
ac s
Ġall ocation
Ġinto x
ore st
ĠT B
Ġviol ates
ĠP ain
OW N
e ur
Ġjuven ile
Ġle mon
ĠResp ons
Ġdict ator
Ġrepl icate
Ġher b
Ġdownload s
Ġp ensions
Ġpres erving
Ã ª
ĠP E
Ġdepend encies
ĠFood s
abul ary
Ġnot ices
Ġreward ing
Ġs rc
ĠF F
Ġmerch ants
all ah
Ġpig s
Ġa ven
Ġcont end
ĠC rist
Ġfeas ible
Ġappoint ments
ĠW u
Ġpen cil
Ġacceler ation
Ġbr ig
P ublished
elect ed
Ġf ra
ĠD ell
Ġrad ius
K en
ĠG ir
Ġm asks
P o
land er
Ġtw ins
Ġout dated
Bit coin
ĠT M
Ġatt achment
Ġlaugh s
ĠS end
ĠWeb b
ĠBeh ind
B esides
Ġye ast
Ġprosec ute
Ġup held
Ġsp ouse
! '
Ġr apper
Ġposs essions
ĠObserv atory
Ġdiscont in
Ġpo inter
,âĢĻ âĢĿ
ĠL ance
De cember
ant ry
rah im
l ings
Res p
or ian
Ġ195 9
ĠJud iciary
Ġiron ic
Ġl ou
Ġde af
ident ally
Ġn urt
OL L
Am azon
Ġup wards
H uman
Ġat oms
ĠR S
Ġv andal
st atic
ĠKush ner
ĠE gg
Ġenroll ment
ĠPir ates
ĠS oph
Ġret ros
w ife
ay an
Ġnegoti ation
Y ear
Ġveget able
at ured
Ġembr acing
ĠB A
be h
D O
oun ge
Ch inese
ĠP TS
ĠT aking
ĠNe g
Ġcont ributes
12 3
Ġtrain er
Ġfert ility
Ġprim itive
Ġtoss ed
Ġres olutions
ĠC opy
Ġneed le
Ġmicro phone
Ġfest ivals
ĠBeat les
ĠAr row
ĠF act
Ġbomb ings
ĠE lementary
Ġspir al
ĠBr anch
Ġha iled
Ġle aning
as is
Ġcongress man
s il
Ġdwar f
IS A
Ġshr ink
ĠS aw
Ġshoot s
Ġhun ters
Ġte asp
Ġoper a
Ġm ast
Ġ& &
any on
in ational
Ġcop ied
B Y
Ġcost umes
ĠSpe cifically
Ġ10 2
Ġall ied
Ġv apor
Ġv inyl
Ġforecast s
ĠT rent
Ġwithd rawn
Ġal lev
Ġin ad
Ġdis se
Ġmod ification
Ġ18 00
Ġre jo
S ave
Ġiter ation
Ġmechan ic
Ġmyth s
Ġstamp s
ĠZ ucker
ĠR F
ĠTh an
Ġmer ge
ĠConserv ation
ĠDev ils
Ġdimin ished
Ġhop eless
Ġdiscover ies
Ġdisappear ance
ĠVol ume
ĠDis covery
S omething
m ass
um i
ĠMan uel
Val ue
ĠS ah
omed ay
Ġinspect or
,âĢĻ âĢĻ
H as
Ad am
Ġt ally
Ġper tain
ĠD L
ĠCom edy
Ġanticip ation
w ic
Ġaccess ing
Ġt am
Ġvolt age
ĠA be
Ġcos mic
m ails
aw ays
Ġsmooth ly
ĠS kin
Ġuns ure
Ġdoub les
Ġv ault
Ġrad i
ĠProf essional
Ġch uck
Bet ween
f alls
Ġtur moil
Ġout spoken
B uild
ĠB orn
Ġr uth
ĠRock ets
op ed
Ġch amp
ĠMe et
Ġgif ted
ĠPro du
Ġsal ad
Ġg aze
Ġmamm als
h ops
V e
ĠSter ling
Ġp ier
Ġmy riad
Ġfr amed
Ġ10 4
iv able
Ġathe ists
ĠÐ ¸
Ġfore front
Ġoccur rence
ven ant
Ġalleg ing
Ġairst rikes
Ġpod ium
Ġoffs pring
Ġe man
Ġextract ed
ĠMir ror
ĠZ imbabwe
sec ure
Ġvalid ity
Ġfore nsic
Ġmilit ias
Ġadequ ately
Ġs om
Ġt outed
ĠK iss
ĠWhats App
larg est
Ġsex ist
ĠUs ually
ile aks
ĠB un
Ġinter val
Ġl b
Ġap ost
c ould
ĠSouth west
le aning
ĠNational s
J ones
Ġd un
os er
Ġnar ratives
ĠTw enty
m ult
Ġtrig gers
ĠAd obe
^ {
a ft
Ġcompat ibility
Ġcelebr ations
s rc
ĠMount ains
R ay
ĠGe off
Ġna ive
f alse
ĠMon ica
) ?
Ġjud ging
Ġintr ins
Ġm s
ĠD uty
Ġper ceptions
Ġstim ulation
Ġneuro log
ĠTro phy
ĠAli en
Ġr ansom
ĠBeng als
m atch
Ġground ed
ĠQual ity
Ġcan cell
Ġhe ft
ĠAct ive
Ġcr ashing
H ard
Ġche ek
w en
ĠSim ilar
st atus
Ġimm ort
I AL
ĠM ead
Ġpret ending
ĠRec ently
ĠMem ory
c ified
Ġelev ator
ĠÃ ®
Ġcreep y
Ġext rad
t imes
Ġsle pt
Ġexch anged
Ġw ires
ĠCle arly
Ġaster oid
Ġnarrow ly
Ġadoles c
Dem ocrats
it em
t ier
f ired
ĠJo in
Ġun ite
own s
Ġmark ers
Ġcollabor ative
S ar
T ech
Ġsuccess ion
OR Y
Ġwholes ale
I ll
ĠB irth
Semit ism
ret urn
ĠF M
F inal
Ġstreng thening
ĠC ord
ĠAl ger
ĠFl ag
Ġjust ices
ĠTer rit
Ġclean ed
18 0
Ġacknowled ging
Ġbol ster
ĠBald win
ĠB oss
E ver
Ġplace bo
Ġun armed
Ult imately
( $
ĠTr ack
ĠD LC
Ġo lig
ustom ed
Ġnorth west
iss an
part isan
Ġtop s
Ġe cc
Ġretrie ve
Ġemploy s
ari at
ĠLeban ese
p i
Ġsuper vision
ĠEx cept
ĠScient ific
ĠKenn eth
bor o
r h
Ġsustain ability
Islam ic
ĠG ul
C raft
Ġind oor
ĠN an
over ty
ĠG rowth
ĠH ond
S und
Ġ19 39
v ideo
Ġe ject
ĠBudd ha
Ġcomp ares
J ew
in vest
Ġdom ination
Ġperfect ion
he id
Ġcur se
Ġrefres hing
Ġspe cially
Ġnut rients
L ou
Ġmeaning less
Through out
isc her
Ġdepth s
Ġash amed
Ġevac uated
ĠCom ing
ĠSky pe
is ure
Ġrel iance
Ġ 000
Ġind o
Ġlun ar
V ict
Ġb idding
Ġdec ay
Ġdisg usting
Ġhypot hetical
Ġpredict s
Ġdis charge
or f
ĠCurt is
Ġh alls
ĠP ars
Ġcan s
ĠFl oyd
ĠCoff ee
Ġdecentral ized
f ight
our ing
ĠBeng al
read ing
Ġoverl ap
Supp ort
Ġhonest y
Ġbl asted
Ġvers atile
Ġsect arian
ĠTr ain
Ġsuper st
Ġdefe ats
Ġleft ist
AC A
Ġsc andals
Ar ch
ucc i
Ġresearch ing
Ġperpet rators
ors che
K it
ok a
Ġpo orest
Ġbe aches
ĠB ass
Ġcl o
ĠA part
l ins
ob ject
Ġho ax
ent ric
List en
Ġregul ator
ate l
Ġfrequ encies
ĠMy ster
Ġgrant ing
Ã ¸
Ġexp ired
Ġ4 50
Ġso ber
ĠK in
Ġsusp end
ĠMons anto
Ġde ported
ĠKurd istan
ĠB TC
Ġconcept ual
ĠBuzz Feed
ĠJackson ville
k owski
ĠN ike
Ġr ack
Ġanarch ist
Ġfut ures
Ġfirm ware
ĠJ et
ro ot
Ġpr ince
ĠYOU R
W R
Ġnight club
c ro
ĠB ert
ĠZimmer man
ors i
Ġgovern ed
Ġparent al
Ġlo oming
ĠO val
am ic
Ġâ Ķ
ĠRe ce
.. .<|
Ġsign aling
W ow
Ġtang ible
Ġrele vance
d oes
ĠZ oo
ĠP v
ĠJ SON
ĠC ros
ĠAn cient
ĠEv olution
H R
Ġramp ant
Ġturn over
ĠTechn ologies
Ġ2 20
Ġdecl ines
Ġeval uating
ĠE lder
Ġlivest ock
Ġcruel ty
Ġrecy cling
Ġun cover
Ġf rog
Ġjudge ment
ĠAbb as
B P
an ol
M aking
b ands
Ġextract ion
ĠCh oice
Ġembarrass ment
Ġdism ant
. ;
ĠÂ ·
ĠBris bane
Ġbit coins
Ġaccum ulated
he ard
ĠAny thing
ĠF ernand
Ġrelie ved
Ġbi ography
Ġsp ine
Ġfalse ly
ĠCamb od
ĠF resh
Ġto dd
Ġst ing
Ġfilm makers
Ġcorrespond ence
ĠR ew
ĠEc uador
Ġstake holders
A BC
t v
Ġid ol
ĠCh arter
Ġtax ation
Yes terday
Ġgl orious
ve red
ĠT L
Ġrep s
Se ason
Ġfrag ments
Ġunder went
be fore
ĠBlack Berry
ĠCan ucks
Ġsex ism
ĠMid west
Ġair lines
Ġreinfor ced
ĠK oh
ĠHel en
Ġwe ights
Ġreal ization
Ġyell ed
ĠRes ults
Ġdistract ed
En ter
Ġw anna
Ġhook ed
Ġstat istic
Ġre print
ĠEv ents
ĠL ud
Ġpart ition
Ġdiplom at
ot on
Pr ime
ĠViol ence
Ġsuper market
ul atory
Ġresemb les
Jan uary
pro ject
Ġanal ogy
ess a
els en
is ans
ĠCan on
oust ic
Ġconstitu ency
Ġer r
Ġsound ing
Ġstuff ed
Ġdivor ced
Ġthe ology
ĠCr us
ĠUp dated
Un iversity
L ess
Ġbom bers
Ġd os
ĠIr ving
ac a
Ġout raged
L ittle
ĠV P
W estern
ĠC ertainly
Ġsh iny
Ġj oked
ĠLe ad
Ġindirect ly
Ġg it
Ġnom inations
Ġbur ial
F rench
Ġk in
Ġtr ilogy
ĠJud a
secut ors
ĠK em
ĠIS Ps
ĠHe ath
Ġg room
ass is
Ġfundra iser
Ġbu ys
ĠCharl ottesville
Ġmem br
ĠInd ividual
Ġs outheast
Ġdest abil
ĠSalv ador
Ġgl oss
c ulture
Ġbr ass
are ndra
G H
ud s
Ġheight ened
ĠPlan ning
Ġoverth row
Ġillness es
Ġs ung
ush i
,' "
ĠB T
Ġdr ums
Sub ject
ĠUlt ra
st y
Ġfraud ulent
C redit
ĠAnd ers
Ġkidn apping
ĠB ened
Ġsell ers
be e
reg or
ph oto
Ġutil ized
Ġbelie vers
Ġ19 42
ĠIn qu
Ġcomp uls
En large
Ġindef initely
Ġcho pped
Ġgoal t
N ick
dog s
Ġsuscept ible
Ġreconst ruction
Ġac ids
ĠPer fect
ĠDar ren
Ġmel ting
Ġgl ow
ĠCon c
ĠSh ot
Ġsurround ings
Ġcease fire
Ġcur tain
vention al
Ġmiser able
Ġt apes
Ġlike wise
Ġir rational
ĠLa unch
b ag
Further more
ĠF ans
id able
Ġst acked
h agen
Ġmiss es
Ġur ine
Ġh ats
count ry
J osh
g age
ĠD S
ac ial
Top ics
Ġpop e
D ig
Ġm ant
P rior
s cient
ul ed
Le vel
Ġcatast rophe
ĠK ot
Scient ists
n c
Ġpro claim
Ġst oring
Ġobs ess
Ġunique ly
ĠN est
em a
ĠJ ur
Ġremark ed
r ance
board ing
Ġlapt ops
the med
AT A
met ry
W in
ĠAR M
ĠB row
M ur
ĠAng ular
Ġcouncil s
Ġhe ights
Ġinqu iries
ĠRh ode
Ġspat ial
Ġrec urring
Ġchar ism
ĠT ier
Ġf aint
Ġex ile
ĠE asy
Ġcomment ator
Ġ195 8
Ġcom r
IS S
ĠB le
it ating
rict ed
ĠGen esis
Ġsur geon
ĠJ azeera
Ġshr inking
ob ic
Ġs ang
Ġende av
art en
Ġsuper natural
ĠMot ion
ĠPan el
olester ol
Ġdis like
l ain
Ġe ch
Ġcr acks
em ade
ĠDes ert
Ġun pleasant
Ġtub es
ĠD ucks
ĠJohn s
Ġdest ined
Ġlif elong
Ġj ugg
ĠG ri
ĠB og
Ġoper atives
ĠLike wise
ĠSchne ider
ring ton
Ġdisagree ment
Ġdifferent ial
Ġauthor ization
right s
Ġdisp ers
ĠEx xon
ĠProtest ant
C ustom
a verage
Th ird
ĠAd mir
Ġelig ibility
F ederal
lud es
Ġgal axies
mark ed
g ae
Ġwith hold
Ġoff ender
Feb ruary
Ġcont enders
Ġovert urned
Ġvalid ation
200 2
pl aces
ĠIll ust
Ġphotograp hed
Ġmit igate
ĠKind le
ĠH ag
Ġreg ression
ett i
ĠG iant
ĠWy oming
ĠC anyon
Ġmad ness
Ġpund its
Ġdesign ation
d oc
st ru
ĠBl ade
Ġsurviv or
ĠB il
ĠIm port
arr ison
ush ima
Ġ\ (
Ġweaken ed
Ġ195 6
ĠCustom s
ĠAm sterdam
ĠD owntown
lant ic
Ġp ent
ĠN ate
Ġintermedi ate
Ġsc oop
qu arter
cre ate
V ol
Ġg y
a unch
Ġb unk
ol ia
Ġprop onents
Ġch ambers
L in
ĠL il
Ġt in
Ġsh arks
id ate
ĠFort une
ĠDav ies
ĠLi u
Ġhon ors
ĠCh in
Ġded uct
Ġhint ed
import ant
Ġinter ceptions
Ġmilit ar
ĠGall up
Ġrev olt
Ġpun ched
ĠAr s
w s
Ġb ounds
Ġprepar ations
ĠPart icip
Ġheter osexual
ir teen
ĠS V
ĠDian e
Ġgr abbing
ĠH ugh
um bs
Ġsl ap
ĠF REE
ĠTre vor
F OR
ĠEconom y
Ġconver ting
t urn
ĠBre aking
Ġhero ic
Ġpl ague
Ġsab ot
ig ators
ĠB erry
ĠS ig
ĠN ear
Ġcan vas
ĠSh ia
qual ified
Ġworth while
ĠRhod es
Ġunp aid
c ity
ĠQuest ion
Ġrehab ilitation
Ġhel pless
ĠRest aur
ĠThrough out
ĠM illion
ul ators
ĠBar rett
re z
en ment
ĠProv ince
ĠCl iff
n umber
Ġfair y
Ġcompos er
d in
Ġcrus hing
ĠC E
Ġclos et
L ee
Ġan th
ÑĤ Ð¾
te chn
ott est
ood y
ĠT ah
ĠE ston
Ġt enth
Ġdiscipl inary
Ġto mb
ot he
st ad
Ġre op
Ġon set
Ġsh am
Ġfranch ises
Cons ider
Ġpo orer
Ġrum or
S orry
Ġw olves
Ġforg ive
ĠO L
Ġspec ulate
Ch icago
Ġlung s
it ures
Ġ10 3
Ġlaw maker
Ġmar vel
Ġdraw ings
ĠBay ern
Ġconting ent
ot le
Ġun authorized
ĠW id
Ġreject ing
w ire
ĠP ierce
Ġch lor
ĠAm anda
ĠPir ate
Ġab normal
ĠAdd itional
âĢ¦ ]
ific ent
ang ular
f rac
Ġprint s
ĠKit chen
f ill
per ing
c ross
ĠCh i
Ġpedest rians
d ue
Ġaspir ations
Ġcoll ar
ĠNort heast
G roup
Ġsc outing
ĠSaf e
PD F
Ġsu ing
Ġad vertisements
ĠColon el
ĠW it
ĠW orth
pir acy
Ġkid ney
st ill
Ġret ention
uff er
ex pl
Ġedit ions
Ġabund ant
Ġgluc ose
c am
Ġzomb ies
Ġfore see
ĠMy ers
Ġsm oked
o it
ĠIntern al
c oll
od s
Ġland sc
Ġinfant ry
C ard
Ġd ess
Ġg ays
ern ick
Ġmin erals
Donald Trump
ĠÂ §
ex per
ĠD iff
Ġinstall ment
A ri
h ig
ra red
Ġsuprem acy
ic idal
Ġcl one
Ġfall out
Ġreconc iliation
lin er
Ġreb ound
Ġl bs
ĠP rest
Ġw inger
Ġdi agram
Ġex h
Ġspl ash
ol ation
c ule
ĠF X
Ġver ification
omet ric
ris y
Ġtel escope
ĠC oy
Ġalign ment
c od
ĠRe becca
ĠGu inea
Ġchance llor
Ġtelev ised
ĠS hen
ĠHass an
Ġplay ground
em y
ĠV ers
D ue
M a
pl er
ave z
em er
ump ed
ĠH aven
Ġby te
sm all
affe ine
ĠM int
Ġeffic acy
Ġv oy
Ġ195 4
Ġcomp ilation
ĠV ita
C y
B rian
C ould
art z
Ġco erc
ĠStand ing
Ġz oo
s afe
Mart in
Ġco herent
Ġexc uses
Ġdraft ing
R ather
Ġro gue
Ġmortg ages
O ld
Ġsupp ression
im ation
- $
Ġcl usters
Ġorganiz er
v able
ĠL akes
Ġsm ashed
Ġt sun
Ġsouth west
Israel i
ĠR SS
Ġs aga
Ġimag in
ĠO g
Ġcock tail
Ġst umbled
Ġblu eprint
Ġstri ve
ba um
ĠR ating
ĠF ell
ĠTest ament
L ondon
e g
Ġplag ued
ĠAt las
Ġdictators hip
Ġsuper star
Ġapp les
ĠC er
ĠM ate
ĠD ance
Ġdisag reed
f ocused
ĠT as
ĠG ur
Ġcirc ulated
Ġres h
Ġcountry side
ĠM oses
D eb
ub a
Ġunanim ously
Ġpro claimed
ĠD B
gl ass
re ne
og ene
Ġsc out
Ġunders c
B rad
qu et
Ġumb rella
ĠP am
Ġch orus
Ġaccus ation
ĠW er
Ġgl uten
ĠCoun sel
Ġfant as
ĠD iaz
Ġmon arch
stand ard
Ġmer ged
ĠM oy
ĠE R
ĠGu jar
Ġmanip ulated
Ġpecul iar
Ġdis able
ĠLe icester
ĠMe ga
Ġdismiss al
Ġpersu aded
Ġaccomplish ments
ĠP ine
ĠCom plex
Ġstaff er
Ġroll er
Ġrecept ors
ĠPrem ium
ĠRock y
Ġprohib its
Ġt iles
Ġaffidav it
Ġmult inational
iv ism
ĠW ine
P O
Ġs omeday
al ong
osp ace
Ġintimid ation
ĠIs is
Ġost ens
Ġinstruct or
Ġlear ns
t arians
Ġcomp ression
ĠJack ie
umn i
P E
ĠWag ner
ĠV ote
Ġener get
ĠComp anies
Ġprem ie
On line
Ġprotest ed
Ġd ots
Ġunl ocked
Ġl akes
Ġcontin uation
Ġbrew eries
ĠHug o
Ġmess y
eff icient
" );
o il
Ġdr astic
ĠNep al
j ah
ĠLyn n
ass ed
R om
Ġb iblical
th y
Ġcraft ing
ĠOs borne
Ġinnoc ence
Calif ornia
Ġdial og
ĠP ra
Ġm aid
Ġrational e
person al
educ ated
D ist
ĠRe venue
Ġbe lly
ĠWar rior
Ġbrows ing
c ano
Ġ19 17
Cre ate
Ġtherape utic
he avy
Ġhead phones
ĠPl atform
J UST
in as
Ġstap le
m or
Ġsqu at
ĠIndust ries
Ġst air
Ġtor rent
Ġmarch ing
Ġf ade
Ġfr inge
ĠF argo
Ġmaj ors
Ġcommod ities
Ġcler k
ĠN arendra
Ġprogress ives
Ġest e
kins on
Ġ ion
N early
Ġd ock
Ġtele com
ĠYork er
tr ade
b ons
Ġg el
F oot
G ov
ĠQu ant
Ġswift ly
Ġsh attered
real DonaldTrump
Ġinteract ing
Ġl ob
d eter
Ġse gregation
Ġre imb
bel ief
Ġfreel ance
de ath
ĠG em
ĠRep ly
ĠRef uge
Ġl id
ĠV as
Ġkill ers
Ġacc ustomed
pro duction
ĠMan ufact
Ġadjust ing
Ġresist ed
Ġubiqu itous
O pp
c irc
Ġp anc
Ġprop oses
Ġbad ge
U r
Ġl ith
us ra
Ġreprodu ction
Ġm esh
ĠR ol
Ġcar ved
if ax
ĠH av
Ġ10 6
ĠR unning
il ib
iv o
Ġpol ite
Ġox id
H am
Ġb ark
Ġneg lected
ĠIS O
Ġund en
Ġind icted
l ate
Ġdest iny
ĠT ag
ĠA zer
Ġsett ling
ĠH amb
ĠN OW
D i
Austral ia
ĠP RE
Ġopp oses
F ort
ĠT IME
ĠP ep
Ġscan ning
ĠN W
bour g
icult ural
Ġsk ies
Ġc ros
ĠW on
reat ment
Ġdilem ma
Ġdecor ated
Ġ Ã©
Ġm int
od ore
ĠMan it
Ġadvert isers
ĠH our
Ġsol itary
ĠR ise
ĠKore ans
ĠBur ton
Author ities
ablish ment
J es
ĠS ugar
rel igious
f iction
ĠV ern
lling ton
Ġ7 50
ĠC AP
Ġharm ony
ĠWat ers
Ġg ospel
Ġpoison ing
Ġdisreg ard
ve ment
Ù Ĩ
ĠInter view
Ġco hes
wart z
Ġback pack
Prof essor
ĠLuck ily
g io
ĠEuro pa
pher d
Ġb un
ol iberal
A cc
ed ience
Ġp uls
Ġunt o
ĠH uck
Ġshoot ers
ĠOff icials
Ġaccident al
ĠStr ategy
ĠFe el
Ġcross es
Ġang el
Ġthank ful
Ġadvert ised
Pr ice
Ġw ax
Ġl iable
Every body
ĠA WS
10 2
y g
ĠLink edIn
Ġemer ges
ĠBor is
Ġrep ression
ĠLen in
ĠMour inho
ĠEug ene
Ġmisdem eanor
11 5
Ġne oc
Ġw aking
Ġrepl ies
NAS A
Ġmight y
Ġge ographic
ĠPun j
ĠM ist
B at
ĠG addafi
W ater
u ilt
Ġcollect or
ĠChurch ill
ĠAng lo
ĠCl aire
ĠArmen ian
h ash
ĠB ast
Ġant it
Ġst alled
G ET
ĠS R
ĠJ ak
J ose
Ġhe x
Ġgovernment al
ĠOrig inally
ĠAv iv
In side
Ġdoub ling
Ġwild erness
Ġthank ed
ĠRel igious
rat t
Ġ195 7
ĠSerb ia
ĠSh awn
ĠMarx ist
ger ald
com b
ĠNew man
Ġsub missions
12 8
Ġstation ed
ĠPer u
Ġcyn ical
Ġrem ake
Ġric her
Ġreprodu ce
enz ie
Ġ195 3
ĠAmeric as
Ġsp ider
yr us
ĠC W
ĠN PC
Ġschedul es
D F
are l
hen ko
ĠAn s
Ġver ge
Ġdownload ing
f acebook
Ġweigh s
ĠF ury
Ġtr aps
Ġexist ential
Ġpar ole
Ġa ka
Ġbr ace
ĠPR O
ĠLab s
ĠCON T
ĠR ising
E nt
m ove
ĠHung arian
ĠSt ark
!! !!
Ġm ansion
ĠW ave
J ournal
Ġpir acy
te enth
Ġspecific ations
ĠZ omb
coh olic
r anking
Ġd ur
ĠK ub
ak is
Ġconcer ts
Ġsystem atically
Ġscreens hots
ĠDem s
udd y
Ġgar nered
Ġunanim ous
io let
Ġveget arian
Ġproc ure
Ġant agon
ĺ ħ
Ġtrans plant
Ġgard ens
Ġsurg ical
c f
at ri
ci um
Ġpolicy makers
ĠLe h
Ġl akh
ĠV ir
Ġth riving
Ġdiv isive
Ġtum or
ĠD ocker
ĠConst itutional
Ġearn est
Ġl enders
Ġcomment ing
ig ger
Ġv ow
Ġcl utch
ĠPer iod
ĠSt yle
Ġmedic ines
r ice
be y
cho ice
Ġlog istics
ĠRes earchers
gener al
Ġcertific ates
Ġpsy chedel
ub s
Ġrest ruct
C ore
ON D
Ġrem edy
Ġexagger ated
ĠHe ather
Ġ} ;
ĠHam mond
Ġbrand ing
Ġchar ming
or ously
Ġdown side
ĠS orry
Ġir regular
ĠSh ut
Ġwas ting
Ġsent iments
ĠM ale
Ġenfor cing
ĠFle et
Ġ ï
Ġf ried
ĠOut side
Ġmyth ology
Ġst igma
Ġdem ocrat
Ġdin osaurs
ĠB ag
um en
gr and
Eng lish
spe cial
Mem bers
ĠB oot
Ġspons orship
f ashion
Ġs ized
Ġarchitect ural
Ġy a
art icle
ĠCongress man
Ġblog gers
r ine
ĠL ar
ĠW ald
she et
f aced
p ensive
Ġinc arn
Ġam ple
ĠO C
ĠÂ Ĺ
Ġign ores
ĠI F
cript ions
Ġcommun al
s or
ĠRe y
ĠAn kara
Ġserv ant
Ġshort ages
ĠâĢ ķ
Ġo mn
ĠV ic
ĠRap ids
ĠFor ward
Ġ< <
Ġdepict ing
Ġtweet ing
the ir
Ġ19 43
Ġarchitect s
R on
ag netic
Ġcl oses
N umber
Ġform idable
ĠNob le
ĠSyri ans
Ġret iring
Sec ret
Ġcongest ion
Ġse ated
product ive
Ġn as
ast ics
Ġeven ly
Ġp ads
Ġanim ations
he rence
Ġcrack ing
Ġconce al
ĠFreder ick
Ġpat rons
Ġ( #
ĠRay mond
Ġimp art
Ġloud ly
ĠHig her
Ġd amp
Ġsoc ietal
Ġacclaim ed
B ur
Any way
Ġ19 55
De ath
Ġar ises
Ġpath ways
ĠWhe eler
ĠL enn
Ġdr ills
Ġaggrav ated
a qu
t ar
ari us
h ou
ĠA FC
Ġa rom
ĠCong o
Ġmass ively
ĠM aid
ĠF ri
Con nor
ĠF eed
Ġbu cks
ĠCons ult
Start ing
Ġincap able
Ġbod ily
ĠSy nd
Ġinject ed
à ¥
ĠWrit ing
4 50
10 4
ĠLeg ion
anger ous
oc hem
Ġenvelop e
Ġseiz ures
ace y
d ies
ĠGard ner
Ġn g
ĠNe igh
A ud
ĠRock et
Ġplum met
ĠO UT
ĠRE AD
ĠKat ie
ed a
in th
wh y
ic us
Ġske let
Ġdesc ended
Ġgoal ie
id ad
ĠZe lda
ĠS it
Ġref resh
Ġimp ending
Ġdeep est
Sund ay
Ġsupp lier
Ġref rain
Ġevac uation
Ġfire works
st ro
Ġper imeter
Ġcann on
orm an
Ġmerch ant
ĠT ool
ist ence
ET A
Ġm um
Ġmon key
ĠP owers
ĠG E
Ġgrad ual
Qu ery
Ġjurisd ictions
Ġiniti ate
b ishop
Ġp ac
Ġlast s
Ġsc ans
Ġwhere by
ĠVen us
ĠBuddh ism
W all
sole te
Ne ill
Ġanten na
I r
ĠRC MP
ĠL anka
Ġwho pping
Ġover c
old own
Ġaver ages
Ġun identified
ott i
ĠA ce
Ġc ough
al ine
Ġpup ils
T B
Ġcompan ions
Ġp act
ord e
Ġreserv ations
Ġindu ce
ĠOff icers
enc ia
im an
ef ined
h h
ĠS ikh
ruct ions
Ġcounsel ing
ĠRel igion
Ġproport ions
Ch arl
Go vern
= '
Ġmed d
ĠSex ual
Ġfor ged
ĠP orsche
Ġann ot
Ġd itch
d ependent
ĠS onic
ĠL TE
Ġplay able
Ġpredec essors
ĠJoy ce
C ast
ĠHans en
T em
ab ase
Ġtruth s
Ġspect acle
Ġexplo its
Ġaffili ation
Ġt apping
ĠPh ase
Ġrul ers
Ġir responsible
ĠEll en
ĠLaure n
Ġf al
IL E
Ġnit rogen
Ġrent ed
un ion
Ġrenew al
Ġopp ressed
ĠL SU
Ġun in
Ne ither
Ġbr akes
ĠVict ory
Ġs or
ad ic
Ġde gr
Ġmed als
ĠCom bat
ĠC ert
ĠM AR
Ġsw all
ĠÐ ¾
Ġsens ory
ĠF ighting
ĠAp ache
ĠIn come
Ġcirc ulating
Ġreg istry
Ġphotograp hers
L ight
ik ed
ĠMin ority
ĠAndrew s
Ġc it
ĠN olan
Ġphil anthrop
ĠCard inal
C BC
ep ernick
Ġfasc ist
Ġsw ear
Ġeleph ants
Ġprolifer ation
Ġd op
ab ee
ĠB rief
ĠSant os
Ġatroc ities
Ġcl an
ĠRe ich
pr us
Ġca fe
Ġtransform ing
AC H
Ġ19 49
Ġbur ger
Ġgest ures
Ġund o
Ġdem ons
me aning
ĠKu wait
Ġstub born
l ia
ree ze
priv ate
M ary
Ġstr ongh
oh yd
Ġbre asts
ĠT umblr
t ical
ĠC ous
ĠHe in
Ġhigh s
ĠSm ash
ĠM R
ĠE manuel
F und
com pet
10 3
f ires
Ġdisrupt ive
Ġm ans
Ġmem e
Ġculp rit
Ġch unks
Ġrun time
Ġspeed ing
Ġne p
y et
00 3
Ġflood s
Ġgood bye
Ġsuccess ive
Ġal ley
Ã Ĥ
ĠI o
Ġaw ake
Ġlim bs
Semit ic
ĠBra ves
Ġstri ps
ĠProduct ions
w ild
ĠP ip
ĠRe ality
ih il
Ġhal ted
se ys
Ġf ier
ĠMed al
Ġhe mp
as io
Ġmut ations
I ron
Ġalleg iance
ĠC ultural
ĠN iet
is man
ĠR aspberry
Ġlau ndering
ĠIns pector
Ġinad vert
ĠMah m
Ġgrat itude
p rop
y ll
sc ill
St r
Ġmut ation
ĠRoy als
ĠD ifferent
Ġpo pping
ĠSav age
Ġsl ope
Ä Ł
Ġexpend iture
ĠSuper ior
Ġr ude
Ġen cl
h un
Ġrem n
Ġrev ive
ill as
ĠCor nell
open hagen
Ġgrab s
ĠEn joy
IN D
ĠCelt ic
Ġand roid
ĠG ET
ĠGar rett
ĠElect oral
ĠJuda ism
edd y
Ġrespect ful
Ġmemo ir
Ġv ou
Ġcomfort ably
Ġplanet ary
ĠS ans
Ġlim itation
l n
Ġrest oring
l ass
Ġst all
Ġs ir
Ġsafe guard
ĠG olf
F un
Ġon ion
Ġvill ains
ĠD y
Ġcontinu ity
ĠRel ated
ov y
pict ured
Ġsur real
Ġsad ness
Ġchick ens
) [
Ġcor related
S ad
Le ft
Ġdepart ed
VID IA
B er
ĠP resent
Ġsp ur
Ġundergrad uate
ĠW enger
Ġ10 7
en za
Ġrob bed
ĠGree ks
Ġharass ed
ĠPeters burg
11 1
ĠP u
Ġ10 8
Ġtri angle
ĠCharl eston
ĠFro st
J ason
ill ions
com mittee
ĠG ent
Ġp oker
t arget
ĠE cho
ĠSp ark
ĠG ut
I B
ĠB om
Ġworld view
Ġpiv otal
Ġincorrect ly
ru gged
P an
com merce
Ġexcept ionally
L ocation
ĠRes istance
ĠMed ium
Ġauthent icity
W al
Ġtempor al
z ip
Ġmicro bi
ĠBel fast
Ġsu cks
Ġprofound ly
Ġinter ception
Ġgr ains
at ical
.âĢĿ )
// //
ĠS leep
ĠD NS
Ġ11 2
Ġdi ets
D D
Ġo z
Ġh ug
ody nam
Ġsl ate
S u
Ġbud dy
I tem
ld on
Ġpseud o
N P
Ġsimpl est
m oon
Ġdisc rep
og ram
Ġcommer cially
Ġinc ub
Ġsl iding
Ġgener als
Ġel bow
. /
whe el
Ġfor c
r ue
Ġcamp ing
ĠD re
ĠD uck
Ġun official
ĠCamer a
Ġassess ing
Ġper former
Ġdisc ern
Ġhit ter
ĠMarket ing
ott a
Ex p
ĠNe o
ĠM Y
ri o
M ond
Ġst d
ĠAl ban
ex isting
Ġrem oves
Ġincarcer ation
ĠP O
Ġdis comfort
Ġs ins
ĠHar old
Ġimpe achment
ic ular
Ġess ays
ĠT ucker
Ġge op
ass er
Ġske leton
ĠPod esta
Ġnep hew
Ġl ure
ĠWe ight
Reg ardless
z an
ĠT SA
osh op
p resent
Step hen
ĠJ ail
Intern ational
ut ory
f ig
Ġall erg
Ġexecut ing
Ġhypoc risy
Ġspec s
ĠR i
Ġver te
Ġinc idence
ĠRep orter
ĠJo an
ĠTechn ical
Ġequ als
Ġ19 46
Â Ĺ
idel ity
Ġwork load
Ġresp ir
ass ing
s ince
Ġmis ery
Gl obal
ep tion
Ġconf essed
Ġspec ulated
ĠChrist ine
ver ts
ar us
ĠMoh ammad
Ġsynt hes
ĠRevolution ary
Ġdr ift
B usiness
m ia
Ġtiss ues
re lease
Ġinj unction
Ġrain fall
Ġse af
Ġem pt
im o
ĠC aucus
Ġgra ffiti
Ġprovoc ative
ew orthy
Ġtest osterone
Ġdecre ases
Ġpil gr
W ed
Ġe lic
et r
ĠFl ore
Con nect
D ark
Ġc ove
ĠC OU
ong o
ĠPop ular
Ġbl oom
ĠCol bert
Ġhall uc
ĠEth ics
Ġsit uated
ĠSebast ian
ĠNic ole
d ain
ĠExt ra
b ai
Ġprep ares
Ġbigot ry
H en
Ġtot als
Ġcampaign ed
Ġz ip
ĠPre p
ĠMar athon
s kin
ĠL iz
Ġdev ote
Ġinflamm ation
it ant
Pro v
AN G
Ã± o
ĠM TV
Ġcoll usion
Ġge ek
Ġrail road
Ġsy rup
Ġrul er
Ġboard ing
Ġinv aded
ĠList en
asket ball
ĠF en
Ġtend encies
Ġpharm ac
Ġpuzz les
Ġsh ining
IS IS
Ġam en
inc re
Ġn ud
ĠBl ocked
ĠPed ro
ĠAm nesty
os lav
Pl ayer
ĠDur ant
Ġb aked
S F
ĠFull er
Ġdec omp
Ġinter vals
ĠSh ore
threat ening
ĠStrateg ic
ĠR ole
ĠCom put
ĠPatri ot
just ed
ĠRec ent
Ex pl
act ly
ĠTe en
Ġnot ions
at ra
b order
ub arak
Ġschizophren ia
any e
Ġdict ate
Ġst ain
au f
Ġvill agers
Ġtheoret ically
ĠD uc
ĠD EA
ĠCar p
Can adian
Ġt abs
et ics
Ġnew born
Ġper il
ĠL B
Ġun aff
cent ric
S ky
r itional
ĠSt ur
Ġprol ific
E st
Ġpreced ing
ĠF actory
Ġbo il
E V
Ġb aff
Ġspecial ty
ik ers
Tr ue
u ously
Ġconflic ting
ron ics
C ru
ĠFly ers
iss ue
Ġout we
ĠTH C
ar is
utter stock
Ġtoug hest
Ġre play
ĠP ale
ĠD HS
Ġper t
ĠDrag ons
op ia
Ġk ings
Ġqu ir
Ġfil ib
gress ive
ĠP av
ĠApp lication
Ġpair ing
v on
auc as
ĠLe eds
ĠArch ives
Ġpref ers
c reat
Ġsal mon
char acter
IC S
ĠAud i
g ithub
ĠUA E
ĠP oor
Ġsm ash
l ove
ĠZh ang
ĠSe vent
ran ch
ĠTh ing
ĠN R
st ant
ĠS ize
ĠP retty
ĠK re
Ġ-- >
Ġneighbour ing
Ġinex pensive
ĠHe b
ĠPat terson
ĠS aid
Ġo v
Ġl ocking
Ġyear ly
Ġinv asive
ĠZ ika
Ġbra ke
Ġf ills
Ġsm iles
Never theless
ĠNot ice
ĠBul gar
ĠMe chan
Ġex pelled
ĠBut ter
Ġsur rog
IN K
its u
ĠLie utenant
ĠAr ist
ĠE z
Serv ice
en ame
ĠLam ar
Ġpl ight
Ġur ges
Ġpro w
Ġexpl ode
het ics
t aking
Ġsim ulations
Ġrot ating
UC K
Ġcoun ters
Ġ10 9
ir ling
Ġins iders
Ġrestrict ive
ĠIndones ian
ĠP itt
Ġem ission
ĠCal vin
ang a
ĠMel issa
Ġx en
Ġadmin ister
P ER
ĠBrad ford
Ġmail ing
Ġwh ip
ĠLic ense
Ġexpl ores
ĠFe atures
Ġvoc abulary
ĠV oy
Ġgig antic
Will iams
ĠCu omo
Ġguess ing
Ġche at
ich i
Ġste er
Ġcl ay
Go ing
Ġunivers ally
ĠGujar at
rain e
Ġpass er
ĠMy an
Ġconfig ure
Ġpack ing
Ġinstall ations
ĠMult i
Ġc ues
ĠEp ic
Ġrab bit
Ġ2 30
r aining
Ġnow adays
alk er
l ich
Ġscore r
Ġal erted
Ġch olesterol
th ose
Ġam azed
ĠGod s
ĠAv ailable
ĠS ara
Ġimper fect
Ġcondemn ation
German y
ĠWh ole
Ġgr ammar
Ġaccum ulation
Ġimp aired
Ġvacc ination
Ġstr at
Ġperson a
ĠA id
ĠWi Fi
ĠGro ve
Ġh ottest
ous se
Ġs ou
ĠL ac
Ġapp end
W ait
oot er
ric ks
ĠBill board
gu y
Ġr app
ĠG erald
ĠIss ue
Ġh ates
Ġcommercial s
Ġappl ause
ĠÃ ¢
Ġpl ac
ĠFitz gerald
ĠW itch
Ġdevelopment al
c ounter
Ġcelebr ates
Ġlect ures
Ġlif es
ĠCh avez
Ġpost ure
Ġrat ios
M ic
g ering
Ġat om
Ġbr ink
Ġcommun ism
Ġdisproportion ately
Fr ance
Ġde port
Ġdefense man
hib ition
r t
Ġlaw ful
Ġgl am
OS S
Ġjihad ists
Des ign
k top
Ġritual s
ĠBay lor
Ġsmugg ling
M ont
r ath
Ġdist urbed
Ġsubsid y
ĠA W
Ġinsult ing
ĠJ ab
Ġexp ire
ĠInf o
Ġd ictionary
but ton
ĠSol utions
ĠKey stone
st re
Ġdescend ants
ĠSt am
Ġremember ing
c amera
Ġco ached
ĠNAS CAR
T M
oh an
Ġunder mining
Ġa we
OU ND
ĠChap man
Ġcris p
ĠJ as
ĠSor os
ĠMyan mar
ĠGu ate
ĠB ug
tt a
not es
ĠJoh ann
a ic
ĠH oney
ĠU E
Ġpolit ic
Sen ator
d uty
Ġch illing
rent ice
ym es
hard t
ĠMar ijuana
Ġinfect ious
Ġexpend itures
ĠLiber tarian
Ġinsurg ents
Ġoil s
f ounded
Ġ/ *
ĠS ettings
sp ot
Ġgl owing
Ġrum ored
rend ered
ĠLind sey
Ġhorm ones
n om
ct ica
Ġexperiment ing
h awks
Ġdiscrimin atory
Ġspecific ation
och ond
Ġair ing
ĠTw ilight
n as
ĠNic olas
Ġpractition ers
Ġconstruct ive
Ġfo am
ĠV it
cr ime
ĠPhilipp ine
Sen ate
ĠCh ang
Ã¡ s
Ġtra umatic
ĠStephan ie
Ġfam ed
Ġcler gy
w on
Ġsle w
che wan
ĠC oul
Ġext inct
ĠM AN
ĠR ash
ett es
Ġdecre asing
Orig inally
ĠD ocument
Ġdefin ite
R ev
oc ating
man ned
ĠX ia
Go vernment
Ġsal v
ĠV ander
Ġfr iction
ĠShe ikh
cap ital
ĠW yn
Ġconfig ured
Ġqu ar
Ġmot ors
ĠOrig in
Ġimp uls
Sim ilarly
Ġther m
ĠZion ist
19 99
nt on
10 9
e ast
Ġc emetery
ĠW ong
Ġhands ome
l ang
Ġd ynasty
iv or
Ġtrans cend
Ġrest s
K now
ĠFuk ushima
ext reme
li able
ag ent
Will iam
M ajor
ĠG C
Ġf ox
ĠCom ments
Ġpol ished
Ġb apt
Ġm ocked
Ġmunicipal ities
Ġp etty
Ġpe as
ĠResp onse
ra its
j ournal
Ġexhib ited
j ava
Ġ) :
Ġnic otine
ĠG amer
LA Y
Ġpatri ot
ur istic
T aking
ĠDis play
C arl
Ġr av
Ġle v
ĠC ain
ĠDe V
ĠP izza
Ġconsult ed
Ġtsun ami
ĠA CA
ĠM ental
Ġfort unes
ĠLes lie
ĠC openhagen
Ġunre asonable
! ),
Ġt ipped
Ġpro se
ĠOpp osition
ĠStand ards
P ath
ĠN om
Ġjud iciary
ĠFred die
Ġrestrain t
en ary
sw er
Mus ic
ĠSol omon
ri ented
Ġconf ess
Ġcontrad iction
is ch
T en
ign ant
ĠUnder ground
Ġhist ories
Ġrevers al
S n
Ġout doors
Ġphenomen al
ĠPsych ology
ĠT yson
ĠI PA
Ġcyber security
ĠL un
Ġsand wic
Ġbub bles
ĠS ke
Ġf aded
ĠH os
ket ch
Ġdisp atched
c ats
od o
Ġschedul ing
Ġrecons ider
Ġins ign
Ġinterpret ations
Ġtr unk
ĠSS D
ĠW ash
od us
ĠHas kell
Ġemploy ing
ĠOs ama
Ġ195 2
Ġt earing
ms on
av ier
Ġtr act
Ġplug ins
uper t
ĠL L
es que
ĠTe ams
m is
el o
ĠFr aser
Ġ13 5
vid ia
ĠW rite
com pl
17 0
reg ulated
ĠCy prus
ĠK ur
Ġinstinct s
ro b
Ġmon uments
v s
ĠConst ruction
m oney
ap i
iov ascular
ch in
ĠBened ict
Ġmush rooms
our cing
gl obal
Ġprin cess
ĠTr inity
ĠOb server
ij i
Ġgeomet ry
f inals
Ġp ains
Ġcommem or
Ġdistribut ing
ĠBrig ade
ĠOper a
Ġcher ry
ĠC ed
Ġra ided
Ġrent s
Ġesp ionage
ĠHell o
Ġmillenn ials
re b
bo at
Pal est
ber ries
Ġge ography
Ġboost ing
am oto
ĠW AS
ail ure
Ġgrand parents
Â ½
ĠW ILL
Ġpart nered
ĠShort ly
Ġ15 00
ĠN issan
ĠPh arm
Ġfulf illing
ĠAst ros
Ġouts iders
ĠDog s
Ġblat ant
t xt
Ġpenet ration
ĠR id
ĠBe e
Ġpass ages
ĠNon etheless
Ġsh ale
Ġcollect ors
Ġmand ated
Ġfemin ine
Sec urity
Ġkind ness
.âĢĻ âĢĻ
an amo
Ġl amp
Ġdrag ging
ĠAss ass
ĠChar acter
Ġp ins
ĠValent ine
L oad
Ġconc ussion
oy a
a ude
at hing
Ġs ulf
Ġsupp lements
Ġobst ruction
3 60
Ġoptim ization
Ġdiscour age
Com ment
ĠDet ective
Ġecl ipse
Ġstart ling
Ġs inking
iv ities
k ick
ĠSt rat
Ġpres crib
ne eded
ĠUn block
Ġlong standing
Ġuns pe
ĠSh arks
Ġrac ially
ĠRoc hester
ĠInnov ation
bro ken
all ic
Ġstrengthen ed
ĠE ld
az ingly
Ġregul ating
Ġclar ified
Ġhome work
ĠTre nd
ar ations
Ġread ings
Ġs acked
Ġin mate
ĠInterest ingly
Ġfront s
ĠFranc o
ĠFront ier
ĠSh ir
Ġecosystem s
i very
Ġs arc
Ġsl ash
T it
ĠAs ked
medi ately
Ġhe ars
Ġfin anced
Ġmanifest o
Ġexcell ence
ĠUn known
ĠM alt
Ã± a
c ritical
if ts
Ġconc urrent
Ġgun fire
Ġr ighteous
ess im
em on
h on
B ad
m aid
ĠMig uel
Ġsort ed
k ish
Ġstat ues
f ell
Ġmar itime
ĠArch ive
Ã ¯
l aughs
Ġsub set
Ġgu iding
Ġgen res
Ġeth ic
f ed
Ġheavy weight
Ġcompet ed
Ġoptim ized
H E
B T
r anked
Ġm aternal
tle ment
ĠMotor ola
ĠE VER
orn ings
ĠJav ascript
Ġ19 33
ĠSh arp
F ast
ĠKir by
Ġfat ally
Ġjewel ry
n ick
en h
Ġfront ier
Ġindic ations
h ma
Ġyouth s
Ġoun ce
. âĢĶ
E conom
Ġleg ends
ĠDecl aration
Ġout going
w agen
Ġch ased
ĠEx pect
25 6
ĠL ords
Ġfulf illed
am my
Orig inal
ĠAv iation
Ġethnic ity
ĠSpot ify
ĠArt icles
Ġgate way
Ġproceed ing
Ġd wind
Ġarc ade
Ġinv oked
Ġrun way
OL D
Ġinflamm atory
c uts
Mat thew
IG N
Ġcart oons
ĠJohn ston
Ġreal izes
ĠFr ances
ĠM K
Ġtrail ing
Ġpestic ides
Ġbl ues
Ġopen ness
ĠB end
ĠAll ied
Ġh amm
Ġdeploy ing
Ġpump ing
C ost
uc ing
Ġworks hops
Pri v
Ġunle ashed
Ġpen insula
est ablished
Ġexplo iting
Ġimpl ication
ĠJac obs
ĠPubl ishing
ĠC V
Ġmis represent
Ġoblig ed
Ġb ully
sh ort
U t
ent on
Ġun available
ĠBar on
Pre vious
I Z
ĠPay Pal
Ġorganiz ational
ĠAny way
Ġdef ects
Ġsp un
ĠIs n
ĠM T
cl ose
Ù Ĭ
ĠArt ist
Ġs unk
man agement
Ġoverr ide
IC A
Ġrock y
10 6
ĠCh icken
Ġpr aying
ĠMon roe
ld om
Ġunexpected ly
Ġastron omers
ĠPre vious
ĠAst ron
Ġabrupt ly
Ġcoh ort
Ġkn ives
udd le
Ġoversee ing
Ġhold ings
ĠAfric ans
Ġmoist ure
Ġ iv
ĠY ug
ĠCustom er
i ating
Ġpe aks
J udge
Ġbur nt
Ġframe works
Ġparent ing
ĠSch war
ĠIb rahim
Ġob ese
ĠH ers
Ġhes itate
Ġyield ed
umb les
Ġnarc iss
Ġchall enger
Ġf erry
ĠR um
Ġpar cel
ON G
Ġf eder
cept ive
Ġch ord
Ġad missions
Ġmod ular
Ġvisual s
Ġsplit ting
Ġtermin ation
Ġvib e
ĠV PN
C ase
q qa
ĠSh annon
ĠCon nor
R a
ĠOtt oman
h m
Ġw ishing
Ġphilos ophers
Bre aking
Ġun ins
ov able
Ġch assis
Ġbl ur
Ġad am
Ġ25 6
ĠStock holm
Ġnotor iously
EM A
ĠAr ms
ĠAthlet ic
g all
Ġplant ing
Ġlabel ing
ĠWATCH ED
Ġsummon ed
Ġas semble
her ty
Ġwor m
ĠInt o
ĠCy cling
osoph y
Cle arly
def ault
Ġbl ink
ĠA AA
act ivity
w omen
W orks
ĠJan et
Ġt ac
Ġh iking
Ġret ali
ment ia
Ġenerget ic
ĠO dd
Ġk idding
Ġm und
Ġspont aneous
l ide
Ġdecl ares
Ġsn ipp
Ġceremon ies
ĠX in
Ġwith stand
ar ray
N ov
Ġens l
Ġgrand children
pat rick
Ġbroadcast s
us ually
Ġbacter ial
Ġslog ans
W E
ĠP P
Ġfl ipped
M R
Ġp enny
Ġto re
ĠKa epernick
c orn
Ġmic row
Ġbi om
ĠDo om
Ġcontrac eption
Ġnot ify
Ġunder mined
Ġhom emade
Ġill umin
mans hip
Ġgener ators
ĠSol o
Ġwand ering
Ġhand ler
ut sche
ĠCom mercial
ĠSc out
Ġe ve
att led
ig ated
vis ors
Ġbl onde
Ġcentral ized
ĠT ank
Ġper vasive
Ġf ixture
ĠF ry
ing es
and ro
t im
Ġsil icon
Ġbe verage
Ġdemol ition
Ġcon ve
Ġexc luding
Ġtrig gering
oss ip
Ġmotiv ations
C oll
p ires
Ġmod s
Ġescal ation
Event ually
Jew ish
Ġstr anded
ĠAl bum
ĠOpp ortun
aid a
ĠGold berg
Ġs lick
Ġbeh old
am bo
be ck
F lor
i ya
Ġsoc ks
... ]
Ġtom atoes
v ine
Ġc ant
Ġprogress ed
Ġretain ing
ĠTown s
reat h
ĠAN Y
bet ween
iol a
z ero
ĠG ren
Ġhe ap
Ġw izard
Ġb ids
ĠK abul
Ġ17 5
: [
N F
att a
Ġfil ings
ĠSec urities
S k
ĠS ally
Ġsp rawling
Ġd ental
ĠG IF
reg ulation
l ists
ĠField s
ĠM W
ĠAur ora
ĠK ris
uck land
Ġproced ural
ĠV on
M il
Ġob solete
Oh io
ĠPengu ins
L uc
ys ics
he ne
Ġev id
ĠÂ ĸ
ĠBur ger
g ard
ĠMac ron
Ġ( (
ĠA ber
Ġor thodox
Ġcar te
Ġrespect able
x imately
ĠN igel
Ġsuper f
ip al
ĠReg ist
Ġlos ers
ĠHann ity
Ġbureaucrat ic
Ġblock ade
ĠTor res
Ġmet ropolitan
iv ist
Ġdiss atisf
R B
is y
ob il
Ġsid eline
Ġmis guided
St and
Ġsod ium
ĠM Hz
og rams
E ast
Ġ19 14
Ġresist ing
if ty
ĠSant orum
Ġsqu ares
Ġd urable
m t
Ġpione er
ĠNew ark
Ġsat ir
Ġcon quer
Ġcos m
E arth
ĠL uk
Ġhigh ways
il ot
get own
Ġdom est
ĠHor izon
Ġdatas et
Ġreject s
Ġc av
Ġrese ar
Ġgl ue
Ġstat utory
Ġcancell ation
Ġa isle
ĠO ption
sh are
M rs
Ġmat urity
ĠG ru
ĠL ok
ĠMoz illa
ĠRut gers
ĠGuant anamo
f at
ĠH iro
AR S
Ġrestrict ing
p ng
Ġl ent
Pro t
Ġsynt hesis
Ġc affeine
ĠHar b
ĠSte ele
ĠPer th
. *
ĠSw ord
ĠMad uro
l ated
To o
ĠC ec
Ġimag inary
Ġmetab olic
ĠAl v
ĠBlack s
Ġaw ait
ĠLu cy
ocaly ptic
Ġbal ances
H appy
in av
U B
Ġvan ished
Ġcor ro
St ream
Ġassist ing
aw k
ÑĢ Ð°
Ġrespir atory
ĠB ath
ĠSc and
Ġmon keys
Ġtest ament
it ious
13 5
ĠS ark
Ġse ating
Ġcub ic
Ġbus h
Ġlab s
ĠAdvis ory
S ystem
ĠH B
ĠL is
11 2
ĠLaw s
Ġle isure
Ġche ering
ev il
Ġsmok ers
Ġl ord
Ġstress ful
Ġutil izing
ic ially
Ġmagn ificent
rec ogn
dig it
Ġcan cers
Ġdisc arded
Ġar rows
Ġprev ailing
Ġvis ions
ĠPTS D
Ġimp over
Ġarm ored
ĠW ool
ĠRes cue
Ġconsult ants
Ġrum ours
Ġalph abet
Ġdem ographics
Ġsin ister
" ?
Ġs igh
ack ers
j ury
Ġth ieves
Ġce ased
Ġvers a
Ġobject ed
Ġre write
i ago
Ġstandard ized
onge vity
s ch
Ġund ec
id as
Ġab using
Ġelect rons
Ġlik ing
Ġinsist ence
Ġlaund ry
ĠZucker berg
E ff
o in
ĠH il
ĠPod cast
Ġcirc uits
at ible
Ġass im
Ġexp ands
Ġlive lihood
ĠD raw
are th
avor ite
Ġarbit ration
V ia
ĠF usion
Ġimpress ions
ĠBoy d
Ġ195 1
D L
j son
m ort
ĠJoe y
Ġtele communications
ĠQuest ions
rac use
not hing
Ġsc aled
Ġjud gments
Ġun for
Ġa ided
Ġn ap
R o
ov sky
Ġrel iably
Ġac oustic
ĠCre ated
/ -
Ġpump ed
Ġstim ulate
Ġ19 18
Ġpromin ence
Ġad here
ĠDani els
ĠM ubarak
Ġne oliberal
Ġ19 38
ĠWe ber
ows hip
ĠAg es
acc ount
Ġde ception
ĠR andom
Ġswing ing
ier i
an an
Ġaut obi
Ġrehe ars
ĠGreen e
CL OSE
Th ursday
ĠO T
al most
ĠSad ly
Ġfear ful
Ġpro let
is ine
ĠD as
ĠS ina
ĠP ixel
Ġincons ist
10 7
Ġcondem ning
Ġdiff ers
go ogle
Ġsacrific es
ĠAntar ctica
he a
ĠT witch
ĠN er
uck ing
ĠE y
ĠWhe never
ALL Y
Ġgrad uating
ess ment
U MP
Ġf uzz
Ġteasp oon
Ġprov oked
ron ting
ud get
ĠMon itor
ĠHoff man
ĠMar riage
go ers
ĠAna heim
ĠSub ject
Ġdisrupt ed
us a
Ġjihad ist
Ġrou ter
ĠD ew
c hens
st own
ĠP ool
ĠWol ver
ord ered
Ġtermin ated
Ġdisgr ace
ĠAl leg
Ġelev ation
en f
ĠPhys ics
oc re
ĠMart y
Ġtext ures
Ġbull pen
ĠH ang
Ġnostal gia
og o
M O
Ġst ared
Ġo riented
Ġn ause
lu ent
Mond ay
e on
Ġhur ry
Ġcollabor ate
ĠHann ah
ĠFinn ish
ĠF it
ĠAC T
ilib rium
raft ed
ĠManit oba
ĠV C
Ġconf ession
Short ly
ĠTon ight
ĠP ure
ĠSch wartz
ve illance
ĠV II
Ġpir ate
ĠL inks
Ġres umed
ĠHist orical
Ġheft y
ĠCrit ics
Ġtheat rical
Ġun sett
Ġpack et
Ġconserv atism
Ġsky rock
Ġpresum ed
S ean
Ġpir ates
Ġmel ted
Ġpossess es
ĠR iot
Ġb olt
Ġburd ens
ĠCom pl
Ġdownt urn
ĠWik ileaks
ĠStat us
Ġwheel chair
ĠA gg
cl air
Ġend urance
Ġtro lls
Ġc apped
Ġre written
Ġoverse es
ĠR NA
ĠElect ions
Ġmim ic
Ġostens ibly
Ġtem pted
Ġ[ âĢ¦]
Ñģ ÑĤ
Ġl ays
oper ation
fashion ed
c p
Ġconf inement
ĠF ul
Ġpun ches
ĠVol ks
Com ments
Ġp as
Ġsc outs
let ion
Ġunfair ly
Ġcomp ute
ĠN I
P rop
Ġw aving
ĠOri oles
Ġkey word
hy d
Ġinsult s
ir rel
re ally
Ġsubst it
Ġth igh
Ġchrom os
Ġext r
ĠS uff
ĠID F
ĠMic key
Ġfold ed
ĠWill ie
t ree
Ġgun shot
Ġ11 4
Ġentit lement
Ġviol ently
Ġharm less
Ġt ones
ach ine
sm ith
Sc roll
Ġout ward
ĠY ORK
in ness
Japan ese
ĠI X
uss y
Ġlegal ized
Ġban ana
ĠUg anda
l aughter
ang ling
Ġguess ed
ĠKaz akh
ĠL imb
Ġmon st
ĠBook er
ĠDI Y
â Ĺ
Act ually
on el
Ġdr ank
Ġgrav itational
Res earch
ĠR OM
Ġrot ate
ĠR anch
Ġpip elines
ff ield
Ġex ert
ĠG ust
Ġthink ers
ĠF ah
Ġing en
on ial
Ġtransfer ring
yr r
Ġfun nel
Ġcommand ing
ĠRe ason
Ġter med
Ġmut ually
or st
Ġsal vation
Ġmetabol ism
ĠF i
pe x
Ġrec ap
Ġjoint ly
ĠHard y
ĠSaskat chewan
ĠIran ians
l oss
Ġer osion
Ġexerc ising
Writ ten
ĠM H
Ġsp ies
ĠKn ox
ĠJ P
per cent
ĠM au
ĠL I
Ġun used
Ġ12 3
Ġpol es
Ġteam ed
ru ce
ĠAr ray
Ġbo ast
ĠSy racuse
at ts
P op
c ool
Ġclass ics
mod el
ĠD iana
d an
Ġrig ged
f est
Ġfil tering
out heastern
ĠDevelop er
Ġresent ment
at z
bet ter
Ġb ishops
ĠPer kins
Ġesc aping
R est
Ġbe gging
Ġg ast
Ġbet s
Ġwarm th
ĠCroat ia
Ġmarket ed
ĠWorld s
d rive
Ġundert ake
te ms
AN C
P akistan
state ment
ble ms
che t
Just ice
Ġmis con
Ġt an
Ġspe lling
ĠLiber ation
ow ler
Ġdeb ating
Tur key
ĠH ours
ĠHer bert
Ġguitar ist
Ġa rous
Ġve in
Ġrev ol
ĠP ull
St ay
ĠC ory
Ġ1 19
ĠRom ans
Or gan
ra e
indust rial
ĠB oulder
ĠL DS
ĠRe ader
Ġpe aked
Ġs ands
Ġant iqu
Ġspec ulative
Ġwid ow
inn amon
Ġp ne
ĠN u
ak o
per fect
L im
o os
D M
ĠSouth ampton
L ate
Ġam p
g ot
ixt ures
Ġmarginal ized
Ġm og
Ne il
Ġmelt down
ĠProper ty
s aving
Ġacqu aint
Ġcum ulative
ĠPro blem
ĠC lement
ĠF E
ĠBund es
ib o
Ġreserv ation
Ġfright ened
AN N
Ġinspect ors
e ight
[...]
