{
  "!": 33,
  "!!": 4951,
  "!!!": 14539,
  "!!!!": 22169,
  "!\"": 5099,
  "!'": 20710,
  "!)": 8682,
  "!),": 23323,
  "!).": 19492,
  "!,": 26641,
  "!<|": 7466,
  "!]": 31976,
  "!âĢĻ": 19889,
  "!âĢĿ": 4618,
  "\"": 34,
  "\")": 8552,
  "\"),": 18613,
  "\").": 18063,
  "\");": 21886,
  "\",": 2862,
  "\",\"": 11144,
  "\".": 2829,
  "\".[": 8709,
  "\":": 4947,
  "\":\"": 10376,
  "\":{\"": 30183,
  "\";": 15493,
  "\">": 9236,
  "\"?": 24024,
  "\"[": 19452,
  "\"]": 20572,
  "\"âĢĶ": 30768,
  "#": 35,
  "##": 4827,
  "###": 31158,
  "####": 8817,
  "########": 14827,
  "################": 24860,
  "$": 36,
  "$$": 27181,
  "%": 37,
  "%)": 6636,
  "%),": 17491,
  "%).": 20076,
  "%,": 8010,
  "%.": 7557,
  "&": 38,
  "'": 39,
  "''": 15661,
  "')": 17003,
  "');": 26561,
  "',": 6343,
  "'.": 8497,
  "':": 16021,
  "';": 25564,
  "']": 31635,
  "'d": 3016,
  "'ll": 2298,
  "'m": 1988,
  "'re": 1388,
  "'s": 425,
  "'t": 697,
  "'ve": 1852,
  "(": 40,
  "(\"": 10563,
  "($": 21017,
  "('": 12489,
  "((": 31890,
  "()": 5454,
  "().": 26139,
  "();": 12568,
  "({": 28015,
  ")": 41,
  ")\"": 25695,
  ")(": 14208,
  "))": 7785,
  "));": 27943,
  "),": 909,
  "),[": 30678,
  "),âĢĿ": 30067,
  ")-": 19987,
  ").": 833,
  ").<|": 19018,
  ").[": 11213,
  ").âĢĿ": 27630,
  ")/": 30639,
  "):": 3729,
  ");": 3017,
  ")<|": 10382,
  ")?": 20938,
  ")[": 22661,
  ")]": 30375,
  "){": 31062,
  ")|": 15092,
  ")}": 31356,
  ")âĢĶ": 24881,
  "*": 42,
  "**": 2137,
  "***": 9987,
  "****": 5036,
  "********": 9460,
  "****************": 16970,
  "*,": 31511,
  "*.": 31418,
  "+": 43,
  "++": 8728,
  "++++": 29790,
  "+,": 29898,
  "+.": 31095,
  ",": 44,
  ",\"": 774,
  ",'": 5452,
  ",'\"": 21327,
  ",''": 17459,
  ",,": 29314,
  ",[": 5632,
  ",âĢĻ": 5972,
  ",âĢĻâĢĻ": 20837,
  ",âĢĻâĢĿ": 20716,
  ",âĢĿ": 685,
  "-": 45,
  "-$": 21770,
  "-)": 30307,
  "-,": 29917,
  "--": 925,
  "---": 12770,
  "----": 1694,
  "--------": 3089,
  "------------": 25229,
  "----------------": 5755,
  "--------------------------------": 11675,
  "----------------------------------------------------------------": 28008,
  "->": 9708,
  ".": 46,
  ".\"": 724,
  ".\")": 30952,
  ".\"<|": 5837,
  ".\"[": 7269,
  ".'": 4097,
  ".'\"": 17103,
  ".''": 18451,
  ".'âĢĿ": 30139,
  ".(": 19224,
  ".)": 2092,
  ".),": 11951,
  ".).": 16684,
  ".)<|": 26010,
  ".*": 23957,
  ".,": 1858,
  ".-": 8573,
  "..": 763,
  "...": 1478,
  "...\"": 14108,
  "...)": 31531,
  "....": 3561,
  ".....": 28673,
  "........": 7920,
  "..........": 27333,
  "................": 15798,
  "................................": 31027,
  "...<|": 21165,
  "...]": 23832,
  "./": 22742,
  ".:": 13413,
  ".;": 21200,
  ".<|": 960,
  ".[": 1076,
  ".]": 10778,
  "._": 27186,
  ".ÂĶ": 27233,
  ".âĢĶ": 23577,
  ".âĢĻ": 4045,
  ".âĢĻâĢĻ": 23460,
  ".âĢĻâĢĿ": 16189,
  ".âĢľ": 13366,
  ".âĢĿ": 645,
  ".âĢĿ)": 22716,
  ".âĢĿ<|": 5302,
  ".âĢĿ[": 25918,
  "/": 47,
  "/-": 24081,
  "/.": 11960,
  "//": 1677,
  "////": 22717,
  "0": 48,
  "00": 454,
  "000": 948,
  "0000": 6750,
  "000000": 28823,
  "00000000": 19044,
  "001": 16154,
  "003": 22570,
  "01": 5625,
  "02": 6923,
  "03": 6935,
  "04": 6887,
  "05": 5682,
  "06": 6666,
  "07": 6766,
  "08": 6418,
  "09": 6710,
  "1": 49,
  "10": 1350,
  "100": 3993,
  "1000": 17778,
  "101": 18359,
  "102": 22078,
  "103": 22559,
  "104": 22361,
  "105": 20451,
  "106": 23656,
  "107": 24115,
  "108": 24549,
  "109": 23270,
  "11": 1680,
  "110": 13786,
  "111": 22678,
  "112": 23996,
  "113": 25322,
  "114": 24769,
  "115": 22088,
  "116": 26746,
  "117": 25747,
  "118": 26811,
  "119": 26247,
  "12": 1845,
  "120": 14099,
  "121": 27443,
  "122": 27268,
  "123": 20761,
  "124": 28088,
  "125": 17564,
  "126": 28738,
  "127": 25604,
  "128": 22132,
  "129": 26855,
  "13": 2293,
  "130": 17340,
  "131": 28929,
  "132": 29852,
  "133": 27565,
  "134": 28863,
  "135": 23986,
  "136": 30851,
  "137": 29538,
  "138": 31006,
  "139": 30529,
  "14": 2193,
  "140": 19690,
  "141": 31144,
  "144": 29008,
  "145": 27854,
  "147": 31326,
  "148": 31600,
  "149": 29437,
  "15": 1977,
  "150": 10572,
  "155": 27646,
  "16": 2164,
  "160": 19094,
  "165": 29938,
  "168": 25207,
  "17": 2391,
  "170": 23391,
  "175": 25114,
  "18": 2442,
  "180": 21008,
  "19": 1617,
  "190": 28037,
  "192": 29527,
  "1970": 29184,
  "1980": 25190,
  "1989": 29653,
  "199": 7525,
  "1990": 20290,
  "1991": 29656,
  "1992": 28614,
  "1993": 28485,
  "1994": 27114,
  "1995": 26442,
  "1996": 26304,
  "1997": 26426,
  "1998": 25672,
  "1999": 23268,
  "2": 50,
  "20": 1183,
  "200": 3034,
  "2000": 14160,
  "2001": 20612,
  "2002": 21488,
  "2003": 20633,
  "2004": 19776,
  "2005": 18984,
  "2006": 18311,
  "2007": 16923,
  "2008": 14484,
  "2009": 13514,
  "201": 31094,
  "2010": 12291,
  "2011": 11851,
  "2012": 10670,
  "2013": 10072,
  "2014": 8533,
  "2015": 8897,
  "2016": 8653,
  "2017": 10386,
  "2018": 20598,
  "2019": 27505,
  "202": 29404,
  "21": 3897,
  "210": 28763,
  "22": 3241,
  "220": 25865,
  "225": 29364,
  "23": 3535,
  "230": 26902,
  "24": 3354,
  "240": 25016,
  "25": 2592,
  "250": 10413,
  "255": 25318,
  "256": 23585,
  "26": 3833,
  "260": 30907,
  "27": 3717,
  "270": 30517,
  "28": 3968,
  "280": 29628,
  "29": 3975,
  "3": 51,
  "30": 1891,
  "300": 7378,
  "31": 5276,
  "32": 4450,
  "320": 27631,
  "33": 4192,
  "34": 4768,
  "35": 3810,
  "350": 17768,
  "36": 4632,
  "360": 23476,
  "37": 4915,
  "370": 27216,
  "38": 4718,
  "380": 31818,
  "39": 5031,
  "4": 52,
  "40": 2952,
  "400": 8062,
  "41": 6024,
  "42": 5866,
  "43": 5999,
  "44": 4592,
  "446": 29693,
  "45": 3826,
  "450": 22360,
  "46": 5268,
  "47": 5043,
  "48": 4912,
  "49": 5098,
  "5": 53,
  "50": 1691,
  "500": 4140,
  "51": 7791,
  "52": 7805,
  "53": 8034,
  "54": 7833,
  "55": 4896,
  "550": 28977,
  "56": 7593,
  "57": 7325,
  "58": 7227,
  "59": 6965,
  "6": 54,
  "60": 2730,
  "600": 9301,
  "61": 9019,
  "62": 9045,
  "63": 9061,
  "64": 5780,
  "65": 5822,
  "650": 25184,
  "66": 6513,
  "67": 7286,
  "68": 6972,
  "69": 7951,
  "7": 55,
  "70": 4169,
  "700": 10868,
  "71": 9248,
  "72": 8659,
  "73": 9319,
  "74": 8730,
  "75": 4713,
  "750": 19173,
  "76": 8524,
  "77": 6527,
  "78": 7056,
  "79": 8461,
  "8": 56,
  "80": 3448,
  "800": 8950,
  "81": 9830,
  "82": 9846,
  "83": 9700,
  "84": 9588,
  "85": 8247,
  "850": 30551,
  "86": 7662,
  "87": 8126,
  "88": 6634,
  "89": 8087,
  "9": 57,
  "90": 4377,
  "900": 14455,
  "91": 11358,
  "92": 10757,
  "93": 10835,
  "94": 11037,
  "95": 5791,
  "96": 10327,
  "97": 10906,
  "98": 10395,
  "99": 3173,
  "999": 25944,
  ":": 58,
  ":\"": 26444,
  "://": 2081,
  "::": 8176,
  ":<|": 7929,
  ":[": 23850,
  ":\\": 24753,
  ";": 59,
  ";[": 27658,
  "<": 60,
  "</": 7221,
  "<<": 29940,
  "<|": 704,
  "<|endoftext|>": 31998,
  "<|pad|>": 31999,
  "=": 61,
  "=\"": 5320,
  "='": 22454,
  "==": 2648,
  "====": 4589,
  "========": 7865,
  "================": 13710,
  "================================": 26267,
  "=>": 27865,
  "=âĢĿ": 14857,
  ">": 62,
  "><": 16617,
  "></": 19832,
  ">>": 5613,
  ">>>>": 13724,
  ">>>>>>>>": 28151,
  "?": 63,
  "?!": 15306,
  "?\"": 3587,
  "?'": 12328,
  "?)": 11299,
  "?),": 30991,
  "?).": 27070,
  "?<|": 11587,
  "??": 10182,
  "???": 31270,
  "?]": 27799,
  "?âĢĻ": 11214,
  "?âĢĿ": 2979,
  "@": 64,
  "A": 65,
  "AA": 7371,
  "AB": 10844,
  "ABC": 21221,
  "ABLE": 29853,
  "AC": 3140,
  "ACA": 21105,
  "ACE": 17388,
  "ACH": 22533,
  "ACK": 12755,
  "ACP": 27479,
  "ACT": 17518,
  "AD": 3702,
  "ADA": 26962,
  "ADE": 30958,
  "ADVERTIS": 12960,
  "ADVERTISEMENT": 13386,
  "AF": 10129,
  "AFP": 15044,
  "AFTA": 24724,
  "AG": 17686,
  "AGE": 27490,
  "AI": 25914,
  "AK": 15453,
  "AL": 3049,
  "ALE": 27678,
  "ALL": 10097,
  "ALLY": 24127,
  "AM": 3401,
  "AMA": 24751,
  "AME": 16839,
  "AMP": 27444,
  "AMY": 18951,
  "AN": 2296,
  "ANC": 24368,
  "ANCE": 30447,
  "AND": 9421,
  "ANG": 22872,
  "ANK": 20621,
  "ANN": 24431,
  "ANS": 19921,
  "ANT": 15764,
  "AP": 3752,
  "APD": 30659,
  "APP": 27018,
  "AR": 2444,
  "ARA": 29192,
  "ARC": 26752,
  "ARD": 14925,
  "ARK": 18077,
  "ARP": 29186,
  "ARR": 31208,
  "ARS": 23947,
  "ART": 10810,
  "ARY": 19172,
  "AS": 2459,
  "ASE": 17420,
  "ASH": 11897,
  "ASHINGTON": 15144,
  "ASS": 17830,
  "AST": 15771,
  "AT": 1956,
  "ATA": 21409,
  "ATCH": 10911,
  "ATE": 7845,
  "ATED": 11892,
  "ATH": 18906,
  "ATION": 11823,
  "ATO": 8013,
  "ATOR": 31860,
  "ATT": 25365,
  "AU": 31295,
  "AV": 13325,
  "AX": 31538,
  "AY": 10248,
  "Aaron": 28442,
  "Ab": 5496,
  "About": 8483,
  "Above": 29634,
  "Abs": 25269,
  "Ac": 15425,
  "Acc": 22059,
  "Access": 25014,
  "According": 3771,
  "Across": 31640,
  "Act": 9959,
  "Action": 24806,
  "Activity": 25660,
  "Actually": 24287,
  "Ad": 2582,
  "Adam": 20839,
  "Add": 6385,
  "Added": 19258,
  "Adding": 29660,
  "Additional": 20419,
  "Additionally": 19986,
  "Adv": 29113,
  "Advertisement": 3747,
  "Advertisements": 11829,
  "Advertising": 25211,
  "Af": 15778,
  "After": 2985,
  "Ag": 11105,
  "Again": 14367,
  "Age": 26692,
  "Ah": 13687,
  "Air": 18334,
  "Al": 2645,
  "Alex": 13625,
  "Ali": 25790,
  "All": 3510,
  "Almost": 19751,
  "Along": 19327,
  "Also": 7294,
  "Altern": 28199,
  "Although": 6074,
  "Am": 5824,
  "Amazon": 20732,
  "Americ": 4620,
  "America": 15474,
  "American": 6163,
  "Americans": 13982,
  "Among": 11339,
  "An": 2056,
  "Analy": 29828,
  "Analysis": 27830,
  "And": 1737,
  "Andre": 26554,
  "Andrew": 17898,
  "Android": 26606,
  "Andy": 28710,
  "Ang": 14862,
  "Ann": 19994,
  "Anna": 26984,
  "Another": 5664,
  "Ant": 13490,
  "Anth": 25563,
  "Anthony": 26799,
  "Anti": 26488,
  "Any": 7150,
  "Anyone": 17528,
  "Anyway": 22330,
  "Ap": 28615,
  "Apart": 31389,
  "App": 5876,
  "Apparently": 25084,
  "Apple": 14491,
  "April": 16618,
  "Ar": 4033,
  "Arab": 26208,
  "Arch": 21107,
  "Are": 9240,
  "Ari": 21701,
  "Around": 19743,
  "Ars": 28375,
  "Art": 9034,
  "Arthur": 26575,
  "Article": 14262,
  "As": 1558,
  "Ash": 26983,
  "Aside": 26258,
  "Ask": 28477,
  "Asked": 14126,
  "Ass": 8611,
  "Assad": 17650,
  "Associated": 27046,
  "Ast": 30266,
  "At": 2695,
  "Att": 12900,
  "Aud": 22372,
  "Aug": 14607,
  "August": 18294,
  "Aust": 12745,
  "Austral": 16096,
  "Australia": 22005,
  "Australian": 30351,
  "Aut": 19768,
  "Author": 14648,
  "Authorities": 22031,
  "Av": 14658,
  "Available": 26963,
  "Average": 31613,
  "Aw": 27015,
  "Az": 29580,
  "B": 66,
  "BA": 4311,
  "BB": 19808,
  "BBC": 27553,
  "BC": 2337,
  "BE": 15918,
  "BER": 15112,
  "BI": 3473,
  "BL": 12849,
  "BLE": 26487,
  "BM": 9112,
  "BN": 10890,
  "BO": 8020,
  "BP": 21192,
  "BR": 14706,
  "BS": 4427,
  "BSD": 25271,
  "BT": 23556,
  "BU": 29188,
  "BY": 20796,
  "Back": 8440,
  "Background": 25837,
  "Bad": 23536,
  "Bal": 30816,
  "Ball": 30948,
  "Ban": 30485,
  "Bank": 25992,
  "Bar": 11569,
  "Bas": 17655,
  "Base": 24663,
  "Based": 15484,
  "Basically": 27356,
  "Bat": 22097,
  "Battle": 27602,
  "Bay": 14014,
  "Be": 3746,
  "Because": 7400,
  "Before": 7855,
  "Begin": 30352,
  "Beh": 26814,
  "Being": 16235,
  "Bel": 11410,
  "Below": 20007,
  "Ben": 11793,
  "Ber": 22667,
  "Bern": 19709,
  "Bernie": 26082,
  "Berry": 18924,
  "Besides": 20705,
  "Best": 12705,
  "Bet": 13615,
  "Better": 29142,
  "Between": 20861,
  "Beyond": 19979,
  "Bi": 27655,
  "Big": 12510,
  "Bill": 15607,
  "Bit": 14532,
  "Bitcoin": 20698,
  "Bl": 4710,
  "Black": 11106,
  "Block": 24584,
  "Blood": 30538,
  "Bloom": 29487,
  "Blue": 18390,
  "Bo": 17164,
  "Bob": 19525,
  "Bon": 24536,
  "Book": 11174,
  "Books": 31891,
  "Born": 24890,
  "Boston": 27843,
  "Both": 8672,
  "Box": 19014,
  "Boy": 29269,
  "Br": 11380,
  "Brad": 21819,
  "Brazil": 31139,
  "Bre": 12419,
  "Breaking": 23714,
  "Brexit": 31435,
  "Brian": 21753,
  "Brien": 16666,
  "Bring": 30888,
  "Brit": 13903,
  "Britain": 28001,
  "British": 20295,
  "Bro": 17345,
  "Broad": 29478,
  "Bron": 16522,
  "Brown": 18440,
  "Bs": 30210,
  "Build": 20865,
  "Building": 27262,
  "Bur": 22329,
  "Bush": 28356,
  "Business": 22822,
  "But": 1307,
  "Buy": 15280,
  "By": 3762,
  "C": 67,
  "CA": 5344,
  "CAA": 11314,
  "CAR": 17663,
  "CB": 25772,
  "CBC": 22517,
  "CBS": 19237,
  "CC": 4479,
  "CD": 10574,
  "CE": 7308,
  "CH": 4876,
  "CI": 31546,
  "CL": 5514,
  "CLA": 15504,
  "CLOSE": 24103,
  "CNN": 13120,
  "CO": 9410,
  "COM": 14398,
  "COMMENT": 30304,
  "CON": 19509,
  "CP": 26919,
  "CR": 14942,
  "CS": 7257,
  "CT": 20526,
  "Cal": 10030,
  "Calif": 15819,
  "California": 21899,
  "Call": 17429,
  "Cam": 25752,
  "Camp": 20084,
  "Can": 6257,
  "Canada": 15650,
  "Canadian": 22929,
  "Cap": 13716,
  "Captain": 28059,
  "Car": 11169,
  "Card": 21691,
  "Care": 15245,
  "Carl": 23309,
  "Case": 23705,
  "Cast": 22467,
  "Cat": 27354,
  "Cent": 19406,
  "Center": 27075,
  "Central": 29061,
  "Certainly": 29400,
  "Ch": 2292,
  "Change": 26108,
  "Chapter": 26520,
  "Char": 15797,
  "Charl": 22452,
  "Charles": 24840,
  "Charlie": 31260,
  "Chat": 30322,
  "Che": 8550,
  "Check": 11889,
  "Chicago": 21627,
  "Chief": 20535,
  "Child": 18252,
  "Children": 26662,
  "China": 11581,
  "Chinese": 20756,
  "Cho": 29102,
  "Chris": 13945,
  "Christ": 9727,
  "Christian": 17277,
  "City": 14337,
  "Civil": 29937,
  "Cl": 4310,
  "Class": 15429,
  "Cle": 15084,
  "Clearly": 23737,
  "Click": 10013,
  "Client": 30000,
  "Climate": 26138,
  "Clinton": 12932,
  "Close": 29542,
  "Cloud": 19165,
  "Co": 8047,
  "Code": 20397,
  "Coin": 27831,
  "Col": 7884,
  "Cola": 26158,
  "Coll": 23814,
  "Color": 18916,
  "Com": 7255,
  "Comb": 25133,
  "Come": 17971,
  "Coming": 25169,
  "Comm": 10261,
  "Comment": 23479,
  "Comments": 24235,
  "Common": 25338,
  "Commun": 27968,
  "Community": 29699,
  "Comp": 9430,
  "Companies": 31912,
  "Complete": 31907,
  "Con": 4411,
  "Conclusion": 18759,
  "Conf": 15827,
  "Config": 31135,
  "Cong": 15470,
  "Congress": 19620,
  "Connect": 22842,
  "Connell": 29422,
  "Connor": 22349,
  "Cons": 8978,
  "Conservative": 31836,
  "Consider": 21619,
  "Const": 17637,
  "Cont": 5954,
  "Contact": 17837,
  "Content": 24610,
  "Context": 30115,
  "Contin": 17882,
  "Continue": 26618,
  "Control": 28734,
  "Controller": 27136,
  "Cook": 31623,
  "Copyright": 14432,
  "Cor": 11215,
  "Core": 22228,
  "Cost": 23619,
  "Could": 21754,
  "Coun": 24980,
  "Count": 16552,
  "Court": 19645,
  "Courtesy": 27219,
  "Cover": 28245,
  "Cr": 15655,
  "Craft": 21041,
  "Cre": 17811,
  "Creat": 29409,
  "Create": 21913,
  "Credit": 21334,
  "Crit": 19960,
  "Critics": 26083,
  "Cross": 25522,
  "Cru": 22953,
  "Cruz": 30258,
  "Cs": 29968,
  "Cur": 30095,
  "Current": 12756,
  "Currently": 18636,
  "Custom": 21472,
  "Cut": 30391,
  "Cy": 21752,
  "D": 68,
  "DA": 4835,
  "DAY": 11871,
  "DB": 13608,
  "DC": 11845,
  "DD": 22722,
  "DE": 11999,
  "DER": 25812,
  "DF": 22147,
  "DI": 16079,
  "DL": 24063,
  "DM": 24410,
  "DNA": 29174,
  "DO": 20754,
  "DP": 5547,
  "DR": 11157,
  "DS": 6672,
  "DT": 27008,
  "Da": 30881,
  "Daily": 27808,
  "Dam": 19763,
  "Dan": 19799,
  "Daniel": 19950,
  "Dar": 27546,
  "Dark": 22843,
  "Data": 12719,
  "Date": 18437,
  "Dav": 8142,
  "Dave": 26418,
  "David": 9350,
  "Davis": 28725,
  "Day": 14083,
  "De": 5984,
  "Dead": 25041,
  "Dear": 18731,
  "Death": 22332,
  "Deb": 21809,
  "Dec": 13870,
  "December": 20718,
  "Deep": 28951,
  "Def": 10033,
  "Defense": 27063,
  "Del": 17644,
  "Dem": 9496,
  "Democratic": 25213,
  "Democrats": 20981,
  "Den": 20246,
  "Dep": 14519,
  "Der": 29138,
  "Des": 4930,
  "Description": 24639,
  "Design": 23148,
  "Despite": 6631,
  "Det": 15730,
  "Details": 28438,
  "Dev": 20253,
  "Develop": 18214,
  "Di": 22004,
  "Did": 11642,
  "Die": 31252,
  "Dig": 21387,
  "Digital": 29679,
  "Direct": 15473,
  "Director": 25514,
  "Dis": 10638,
  "Disc": 18878,
  "Disney": 31579,
  "Dist": 21906,
  "Do": 5463,
  "Doc": 30755,
  "Does": 14273,
  "Dom": 31345,
  "Don": 3770,
  "Donald": 6452,
  "DonaldTrump": 21696,
  "Donnell": 18255,
  "Dou": 18640,
  "Down": 11377,
  "Download": 14838,
  "Dr": 7550,
  "Drive": 28493,
  "Due": 21736,
  "Dun": 31766,
  "During": 5915,
  "E": 69,
  "EA": 7737,
  "EAR": 31508,
  "EC": 3869,
  "ECD": 25387,
  "ECT": 15153,
  "ED": 3103,
  "EE": 12621,
  "EG": 13553,
  "EL": 4240,
  "ELD": 30752,
  "ELECT": 28776,
  "ELL": 16307,
  "EM": 4679,
  "EMA": 23723,
  "EMENT": 11665,
  "EN": 2837,
  "ENCE": 25346,
  "END": 18679,
  "ENS": 25058,
  "ENT": 5540,
  "EO": 3970,
  "EP": 8025,
  "EPA": 31819,
  "ER": 1721,
  "ERC": 31480,
  "ERE": 11061,
  "ERN": 25630,
  "ERO": 31707,
  "ERS": 6297,
  "ERT": 27017,
  "ERY": 25077,
  "ES": 2669,
  "ESPN": 27366,
  "ESS": 15374,
  "EST": 8765,
  "ET": 3913,
  "ETA": 22403,
  "ETH": 29202,
  "ETT": 30837,
  "EU": 16936,
  "EV": 22945,
  "EW": 7383,
  "EX": 10059,
  "EXT": 25642,
  "EY": 28621,
  "Each": 11361,
  "Earlier": 10075,
  "Early": 14608,
  "Earth": 23921,
  "East": 23908,
  "Econom": 23578,
  "Ed": 7602,
  "Edit": 28374,
  "Editor": 17402,
  "Educ": 29221,
  "Eff": 24045,
  "Egypt": 29035,
  "Eight": 26199,
  "Either": 27951,
  "El": 9726,
  "Ele": 30168,
  "Elect": 20175,
  "Element": 25299,
  "Ell": 29705,
  "Em": 11517,
  "Email": 16201,
  "Employ": 30494,
  "En": 6596,
  "End": 17140,
  "Energy": 31404,
  "Eng": 12390,
  "Engine": 28976,
  "English": 22257,
  "Enjoy": 30847,
  "Enlarge": 21347,
  "Ent": 22165,
  "Enter": 21248,
  "Environment": 29873,
  "Ep": 19564,
  "Episode": 29470,
  "Equ": 28656,
  "Er": 16144,
  "Eric": 20541,
  "Error": 25345,
  "Es": 18895,
  "Ess": 29011,
  "Est": 22941,
  "Euro": 12490,
  "Europe": 13711,
  "European": 18322,
  "Ev": 15147,
  "Even": 5253,
  "Event": 15498,
  "Eventually": 23818,
  "Ever": 21013,
  "Every": 5437,
  "Everybody": 22076,
  "Everyone": 14117,
  "Everything": 17416,
  "Ex": 4290,
  "Example": 25986,
  "Except": 29939,
  "Exception": 30887,
  "Exit": 30518,
  "Exp": 22757,
  "Exper": 19965,
  "Experts": 29414,
  "Expl": 22912,
  "Ext": 16437,
  "F": 70,
  "FA": 6551,
  "FB": 28435,
  "FBI": 31886,
  "FC": 4347,
  "FE": 25735,
  "FF": 9128,
  "FI": 14962,
  "FK": 26034,
  "FL": 3407,
  "FM": 25686,
  "FO": 9823,
  "FOR": 21564,
  "FP": 6663,
  "FR": 15676,
  "FS": 12263,
  "FT": 15692,
  "FW": 30363,
  "FX": 26145,
  "Facebook": 8999,
  "Fact": 27742,
  "Fair": 29695,
  "Fall": 31615,
  "Family": 25555,
  "Fans": 29407,
  "Far": 19784,
  "Fast": 23566,
  "Fe": 12456,
  "Feb": 16609,
  "February": 21484,
  "Federal": 21477,
  "Feed": 16770,
  "Few": 25381,
  "Fi": 10437,
  "Field": 27010,
  "Fig": 13266,
  "Figure": 12335,
  "Fil": 17281,
  "File": 17832,
  "Film": 30265,
  "Fin": 20217,
  "Final": 21000,
  "Finally": 10026,
  "Find": 19925,
  "Finding": 31686,
  "Fire": 16110,
  "First": 5477,
  "Fit": 31402,
  "Five": 17123,
  "Fix": 28498,
  "Fixed": 19022,
  "Fl": 10701,
  "Flor": 23829,
  "Florida": 26099,
  "Follow": 6057,
  "Following": 11418,
  "Food": 26294,
  "Foot": 21945,
  "For": 1883,
  "Force": 20085,
  "Ford": 31309,
  "Fore": 17720,
  "Foreign": 28962,
  "Form": 18711,
  "Former": 11051,
  "Fort": 22008,
  "Fortunately": 25870,
  "Four": 13253,
  "Fox": 15792,
  "Fr": 6888,
  "Frame": 28758,
  "Franc": 31817,
  "France": 23139,
  "Frank": 14951,
  "Fre": 25306,
  "Fred": 27844,
  "Free": 13244,
  "French": 21297,
  "Friday": 19997,
  "Friend": 24547,
  "From": 5206,
  "Full": 16345,
  "Fun": 22650,
  "Fund": 22557,
  "Further": 11273,
  "Furthermore": 21372,
  "Future": 29891,
  "G": 71,
  "GA": 9836,
  "GB": 4451,
  "GBT": 7026,
  "GC": 18802,
  "GE": 8802,
  "GEL": 25710,
  "GET": 22110,
  "GG": 29546,
  "GH": 21319,
  "GHz": 24933,
  "GI": 20058,
  "GL": 16668,
  "GM": 12499,
  "GN": 16257,
  "GO": 8660,
  "GP": 19662,
  "GR": 16582,
  "GS": 15177,
  "GT": 24621,
  "Gal": 29078,
  "Gall": 28049,
  "Game": 13372,
  "Games": 30201,
  "Gar": 25617,
  "Gary": 29207,
  "Gate": 24651,
  "Ge": 10305,
  "Gen": 16574,
  "Gener": 10524,
  "General": 13463,
  "Georg": 29874,
  "George": 18519,
  "Ger": 25652,
  "German": 13836,
  "Germany": 23094,
  "Get": 6588,
  "Getting": 19732,
  "Getty": 7558,
  "Girl": 29560,
  "Give": 25037,
  "Given": 12274,
  "Gl": 10908,
  "Global": 22811,
  "Go": 5039,
  "God": 13695,
  "Going": 23066,
  "Gold": 15681,
  "Good": 11234,
  "Google": 9738,
  "Got": 31855,
  "Gov": 21946,
  "Govern": 22453,
  "Government": 23253,
  "Gr": 11046,
  "Grand": 26359,
  "Graph": 27719,
  "Great": 15353,
  "Green": 13949,
  "Greg": 26748,
  "Group": 21662,
  "Gs": 29702,
  "Gu": 10909,
  "Guard": 25911,
  "Gun": 28557,
  "H": 72,
  "HA": 8647,
  "HC": 17235,
  "HD": 14097,
  "HE": 23555,
  "HF": 30993,
  "HI": 25898,
  "HL": 5138,
  "HO": 28494,
  "HP": 10804,
  "HR": 21177,
  "HS": 7675,
  "HT": 9397,
  "Ha": 26737,
  "Hack": 31643,
  "Had": 25150,
  "Half": 31349,
  "Hall": 28062,
  "Ham": 21991,
  "Hand": 19952,
  "Happy": 23971,
  "Har": 12659,
  "Hard": 20957,
  "Harry": 26419,
  "Has": 20838,
  "Have": 12191,
  "Having": 12817,
  "Haw": 29511,
  "Hay": 28630,
  "He": 1384,
  "Head": 16801,
  "Health": 18143,
  "Hel": 16759,
  "Hell": 30425,
  "Hello": 16910,
  "Help": 28196,
  "Hen": 22860,
  "Henry": 27946,
  "Her": 8830,
  "Here": 4093,
  "Hey": 10699,
  "Hi": 20565,
  "High": 13906,
  "Hill": 13513,
  "Hillary": 16100,
  "His": 5653,
  "Hist": 12343,
  "History": 16521,
  "Hit": 26012,
  "Ho": 29270,
  "Hol": 26459,
  "Hold": 25784,
  "Hom": 31343,
  "Home": 17962,
  "Hon": 27483,
  "Hop": 19718,
  "Hopefully": 25401,
  "Host": 29311,
  "Hot": 26243,
  "House": 14976,
  "Houston": 30917,
  "How": 2393,
  "However": 4195,
  "Hub": 15443,
  "Human": 20734,
  "Hun": 27801,
  "Hundreds": 28174,
  "Hy": 20356,
  "Hz": 9819,
  "I": 73,
  "IA": 3932,
  "IAL": 20963,
  "IAN": 26913,
  "IB": 22693,
  "IC": 3256,
  "ICA": 23654,
  "ICE": 11711,
  "ICH": 26671,
  "ICK": 15588,
  "ICO": 19499,
  "ICS": 22982,
  "ICT": 31485,
  "ID": 3861,
  "IDE": 18582,
  "IDS": 14125,
  "IE": 11108,
  "IES": 18839,
  "IF": 8282,
  "IFF": 31033,
  "IG": 5656,
  "IGH": 25843,
  "IGHT": 15121,
  "IGN": 23604,
  "II": 6072,
  "III": 15361,
  "IL": 4344,
  "ILE": 22482,
  "ILL": 11449,
  "IM": 5329,
  "IME": 15479,
  "IN": 2073,
  "INAL": 29140,
  "IND": 22628,
  "INE": 14823,
  "ING": 4105,
  "INGS": 28597,
  "INGTON": 14361,
  "INK": 23019,
  "INN": 30176,
  "INS": 25565,
  "INT": 20067,
  "IO": 12714,
  "ION": 5494,
  "IP": 5410,
  "IR": 6715,
  "IS": 2227,
  "ISA": 20784,
  "ISE": 29278,
  "ISH": 24645,
  "ISIS": 22889,
  "ISS": 21430,
  "IST": 12805,
  "IT": 3185,
  "ITE": 19493,
  "ITH": 14588,
  "ITION": 30108,
  "ITY": 14387,
  "IV": 5338,
  "IVE": 13193,
  "IX": 20232,
  "IZ": 23640,
  "Ice": 30227,
  "Id": 12201,
  "If": 1570,
  "Il": 28753,
  "Ill": 20995,
  "Im": 3447,
  "Image": 4554,
  "Images": 26601,
  "Imagine": 20243,
  "Imp": 29168,
  "Import": 26768,
  "Impro": 26828,
  "In": 793,
  "Inc": 19396,
  "Incre": 24917,
  "Ind": 5732,
  "Indeed": 14373,
  "Index": 28681,
  "India": 17146,
  "Indian": 26024,
  "Inf": 17359,
  "Info": 28920,
  "Information": 28104,
  "Initial": 31449,
  "Initially": 31073,
  "Ins": 19107,
  "Inside": 22118,
  "Inst": 7560,
  "Install": 31059,
  "Instead": 10418,
  "Int": 9876,
  "Inte": 13311,
  "Inter": 12820,
  "Interest": 18365,
  "Interestingly": 26157,
  "Intern": 15813,
  "International": 22789,
  "Internet": 28663,
  "Introdu": 29975,
  "Introduction": 25344,
  "Invest": 16244,
  "Investigators": 25596,
  "Ir": 22423,
  "Iran": 17692,
  "Iraq": 25219,
  "Iron": 22594,
  "Is": 3759,
  "Islam": 13488,
  "Islamic": 21039,
  "Israel": 10454,
  "Israeli": 21778,
  "Iss": 30681,
  "It": 937,
  "Item": 22729,
  "Its": 18452,
  "J": 74,
  "JP": 11042,
  "JS": 20401,
  "JUST": 21918,
  "Jac": 25991,
  "Jack": 13891,
  "Jackson": 25979,
  "Jam": 27475,
  "James": 13572,
  "Jan": 13530,
  "January": 21263,
  "Japan": 15586,
  "Japanese": 24272,
  "Jason": 22684,
  "Jay": 27821,
  "Jeff": 16842,
  "Jeremy": 31302,
  "Jes": 22033,
  "Jess": 31330,
  "Jesus": 28704,
  "Jew": 21053,
  "Jewish": 23819,
  "Jim": 16597,
  "Jo": 11516,
  "Joe": 17085,
  "John": 7043,
  "Johnson": 20631,
  "Join": 19600,
  "Jon": 16074,
  "Jonathan": 25267,
  "Jones": 20919,
  "Jordan": 28938,
  "Jose": 22113,
  "Joseph": 28882,
  "Josh": 21381,
  "Journal": 22172,
  "Jud": 26282,
  "Judge": 23678,
  "Jul": 19651,
  "July": 16567,
  "June": 16135,
  "Just": 5312,
  "Justice": 24373,
  "Justin": 27734,
  "K": 75,
  "KA": 26950,
  "KE": 10891,
  "KK": 16291,
  "KO": 29068,
  "KS": 30102,
  "Kat": 26352,
  "Ke": 9086,
  "Keep": 16070,
  "Kelly": 28667,
  "Ken": 20691,
  "Kevin": 20602,
  "Key": 13050,
  "Kim": 20559,
  "King": 16657,
  "Kit": 21112,
  "Kn": 29759,
  "Know": 23280,
  "Ky": 28085,
  "L": 76,
  "LA": 7699,
  "LAND": 29997,
  "LAY": 23304,
  "LC": 7834,
  "LD": 15001,
  "LE": 5758,
  "LGBT": 28168,
  "LINE": 30042,
  "LL": 25470,
  "LO": 25886,
  "LY": 13748,
  "La": 12765,
  "Lab": 17294,
  "Labour": 25161,
  "Land": 25832,
  "Large": 29730,
  "Last": 5060,
  "Lat": 28175,
  "Late": 24412,
  "Later": 15712,
  "Laughs": 27642,
  "Law": 15645,
  "Lay": 29965,
  "Le": 4301,
  "Lead": 19716,
  "League": 20614,
  "Leaks": 12055,
  "Lear": 16493,
  "Learn": 25534,
  "Lee": 21602,
  "Left": 22664,
  "Leg": 17901,
  "Len": 31655,
  "Les": 31837,
  "Less": 21280,
  "Let": 5336,
  "Lev": 29981,
  "Level": 21392,
  "Lew": 28276,
  "Lib": 30672,
  "Liber": 27583,
  "Life": 14609,
  "Light": 22509,
  "Like": 6688,
  "Lim": 24408,
  "Lin": 21531,
  "Line": 18840,
  "Link": 13125,
  "LinkedIn": 30013,
  "Linux": 28629,
  "List": 11002,
  "Listen": 21123,
  "Little": 21286,
  "Live": 19964,
  "Lo": 29151,
  "Load": 23468,
  "Local": 18675,
  "Location": 22702,
  "Log": 19522,
  "London": 21791,
  "Long": 15696,
  "Look": 8169,
  "Looking": 14282,
  "Lord": 26140,
  "Los": 25916,
  "Lou": 21062,
  "Louis": 27293,
  "Love": 18899,
  "Low": 24687,
  "Lu": 25440,
  "Luc": 23873,
  "Luck": 29530,
  "M": 77,
  "MA": 6081,
  "MAN": 11077,
  "MB": 11405,
  "MC": 16230,
  "MD": 17230,
  "ME": 17512,
  "MENT": 17818,
  "MG": 31277,
  "MI": 14579,
  "ML": 7302,
  "MM": 14990,
  "MO": 24165,
  "MON": 31909,
  "MORE": 19389,
  "MP": 7508,
  "MR": 23772,
  "MS": 7547,
  "MT": 27093,
  "Ma": 21737,
  "Mac": 15945,
  "Mad": 17826,
  "Made": 30476,
  "Mag": 26215,
  "Mail": 30936,
  "Main": 18174,
  "Major": 23286,
  "Make": 13651,
  "Making": 21194,
  "Mal": 13804,
  "Malley": 26871,
  "Man": 6486,
  "Manager": 26317,
  "Manchester": 31542,
  "Many": 6004,
  "Map": 18601,
  "Mar": 7942,
  "Marc": 19230,
  "March": 15766,
  "Marcus": 29648,
  "Mark": 10393,
  "Market": 31702,
  "Mart": 11749,
  "Martin": 21760,
  "Mary": 22545,
  "Mass": 19243,
  "Master": 25932,
  "Mat": 14949,
  "Matt": 16924,
  "Matthew": 23603,
  "Max": 17007,
  "May": 6855,
  "Maybe": 11708,
  "Mayor": 28285,
  "Mc": 8539,
  "McC": 20316,
  "Me": 7873,
  "Mean": 7665,
  "Meanwhile": 7876,
  "Med": 12573,
  "Media": 12126,
  "Meet": 26688,
  "Mel": 20332,
  "Mem": 14963,
  "Members": 22259,
  "Men": 12584,
  "Mer": 14826,
  "Merit": 29926,
  "Message": 25038,
  "Met": 14105,
  "Method": 25856,
  "Mex": 20127,
  "Mexico": 26338,
  "Mic": 23133,
  "Mich": 10090,
  "Michael": 11896,
  "Michel": 30374,
  "Microsoft": 16757,
  "Mid": 25263,
  "Mike": 14330,
  "Mil": 23869,
  "Mill": 30707,
  "Miller": 30251,
  "Min": 12314,
  "Mind": 28578,
  "Mir": 30033,
  "Miss": 18645,
  "Mo": 16901,
  "Mobile": 15204,
  "Mod": 10232,
  "Model": 25578,
  "Modern": 26533,
  "Moh": 30232,
  "Mom": 28670,
  "Mon": 11989,
  "Mond": 22761,
  "Monday": 24170,
  "Money": 24707,
  "Mont": 23153,
  "Moore": 29654,
  "Mor": 18133,
  "More": 4767,
  "Moreover": 20536,
  "Mos": 28486,
  "Most": 6150,
  "Mot": 29805,
  "Mother": 30563,
  "Move": 30542,
  "Moving": 28869,
  "Mr": 4426,
  "Mrs": 23938,
  "Ms": 9778,
  "Much": 16397,
  "Mult": 19887,
  "Multiple": 31759,
  "Mur": 21414,
  "Mus": 9845,
  "Music": 23335,
  "Muslim": 13924,
  "Muslims": 29795,
  "My": 3724,
  "N": 78,
  "NA": 4609,
  "NAS": 16418,
  "NASA": 22092,
  "NBA": 27406,
  "NBC": 10091,
  "NC": 7103,
  "ND": 11709,
  "NE": 17384,
  "NET": 13770,
  "NEW": 13005,
  "NF": 23851,
  "NFL": 28429,
  "NG": 13139,
  "NI": 25503,
  "NN": 4742,
  "NO": 18196,
  "NOT": 20337,
  "NOTE": 30331,
  "NP": 22732,
  "NPR": 28914,
  "NR": 24740,
  "NS": 9905,
  "NT": 12479,
  "NY": 13830,
  "Na": 29303,
  "Name": 11021,
  "National": 15452,
  "Naz": 30568,
  "Nazi": 25442,
  "Ne": 5503,
  "Nearly": 21938,
  "Need": 25497,
  "Neil": 24418,
  "Neill": 22421,
  "Neither": 22490,
  "Net": 10932,
  "Never": 12859,
  "Nevertheless": 23012,
  "New": 3793,
  "News": 8743,
  "Newsletter": 25810,
  "Next": 10521,
  "Nic": 28004,
  "Nick": 21351,
  "Night": 28247,
  "No": 3367,
  "Nob": 17992,
  "Nobody": 19911,
  "Node": 30620,
  "Non": 17414,
  "None": 16146,
  "Nor": 19747,
  "North": 12774,
  "Not": 4044,
  "Note": 8824,
  "Notes": 17540,
  "Nothing": 17791,
  "Notice": 30359,
  "Nov": 23761,
  "November": 20600,
  "Now": 3524,
  "Num": 29423,
  "Number": 22302,
  "Nusra": 30202,
  "O": 79,
  "OB": 27033,
  "OC": 6728,
  "OCK": 18568,
  "OD": 6321,
  "ODE": 31576,
  "OG": 14196,
  "OH": 17594,
  "OK": 9623,
  "OL": 4724,
  "OLD": 23600,
  "OLL": 20731,
  "OM": 3883,
  "OME": 16141,
  "ON": 2152,
  "OND": 22229,
  "ONE": 17449,
  "ONG": 23694,
  "OO": 20499,
  "OP": 3254,
  "OPA": 31722,
  "OR": 2856,
  "ORD": 17728,
  "ORE": 6639,
  "ORK": 16256,
  "ORN": 25098,
  "ORT": 14619,
  "ORTS": 30813,
  "ORY": 20993,
  "OS": 3115,
  "OSE": 16778,
  "OSS": 23146,
  "OST": 13884,
  "OT": 3636,
  "OTH": 25239,
  "OTUS": 31432,
  "OU": 4187,
  "OUND": 23177,
  "OUR": 17623,
  "OUT": 20082,
  "OW": 5549,
  "OWN": 20654,
  "Ob": 6490,
  "Obama": 11222,
  "Object": 18115,
  "Obs": 31555,
  "Obviously": 16250,
  "Occ": 28495,
  "Oct": 13745,
  "October": 19089,
  "Of": 5294,
  "Off": 7510,
  "Office": 28058,
  "Officers": 26003,
  "Official": 31076,
  "Officials": 18973,
  "Oh": 6065,
  "Ohio": 23871,
  "Ok": 19581,
  "Okay": 16755,
  "Old": 21767,
  "On": 2065,
  "Once": 7208,
  "One": 2840,
  "Online": 21876,
  "Only": 11649,
  "Op": 19079,
  "Open": 15975,
  "Oper": 19736,
  "Operation": 29034,
  "Opp": 21971,
  "Or": 6960,
  "Organ": 24392,
  "Orig": 13440,
  "Original": 23589,
  "Originally": 23246,
  "Os": 13860,
  "Other": 5969,
  "Others": 20395,
  "Our": 4836,
  "Out": 9965,
  "Outside": 26435,
  "Over": 5947,
  "Overall": 15838,
  "Own": 29574,
  "P": 80,
  "PA": 4472,
  "PC": 8580,
  "PD": 5745,
  "PDATE": 12311,
  "PDF": 21665,
  "PE": 21870,
  "PER": 23049,
  "PG": 8307,
  "PH": 15438,
  "PHOT": 30058,
  "PI": 11744,
  "PL": 10408,
  "PM": 8297,
  "PN": 14241,
  "PO": 21857,
  "PORT": 26466,
  "PP": 9022,
  "PR": 5879,
  "PRE": 30724,
  "PRO": 31173,
  "PS": 4538,
  "PT": 19829,
  "PU": 6402,
  "Pa": 29491,
  "Pac": 16834,
  "Pacific": 19769,
  "Pack": 25515,
  "Pad": 26917,
  "Page": 17744,
  "Pakistan": 24369,
  "Pal": 11010,
  "Palest": 23428,
  "Palestinian": 25768,
  "Pan": 22699,
  "Par": 13231,
  "Park": 25240,
  "Part": 8679,
  "Pass": 17390,
  "Pat": 12081,
  "Path": 23328,
  "Patrick": 26989,
  "Paul": 10276,
  "Pay": 20625,
  "Pe": 5728,
  "Pen": 29457,
  "People": 6700,
  "Per": 6725,
  "Perhaps": 11375,
  "Permalink": 31528,
  "Person": 15998,
  "Personal": 27852,
  "Pet": 30091,
  "Peter": 17529,
  "Ph": 2617,
  "Phil": 17318,
  "Phone": 25725,
  "Phot": 14698,
  "Photo": 4980,
  "Photos": 19984,
  "Pict": 20477,
  "Picture": 25767,
  "Pierre": 28014,
  "Pinterest": 27848,
  "Pl": 5000,
  "Plan": 20530,
  "Play": 15846,
  "Player": 22897,
  "Players": 26470,
  "Playing": 31930,
  "Please": 8761,
  "Plus": 18682,
  "Po": 20694,
  "Point": 14693,
  "Pol": 6451,
  "Police": 7195,
  "Polit": 30049,
  "Political": 26544,
  "Pop": 24340,
  "Port": 16054,
  "Post": 8008,
  "Posted": 14929,
  "Pot": 27407,
  "Power": 17057,
  "Pr": 7839,
  "Pre": 9958,
  "Prem": 27315,
  "Pres": 26221,
  "President": 8046,
  "Press": 12889,
  "Previous": 23639,
  "Previously": 29837,
  "Pri": 18741,
  "Price": 22073,
  "Prime": 21258,
  "Prince": 30832,
  "Print": 20122,
  "Prior": 21389,
  "Priv": 23622,
  "Pro": 4127,
  "Probably": 31560,
  "Produ": 20539,
  "Product": 29849,
  "Prof": 14653,
  "Professor": 22052,
  "Program": 31811,
  "Project": 19598,
  "Prom": 27364,
  "Prop": 24242,
  "Proper": 28913,
  "Pros": 31588,
  "Prosecutors": 29438,
  "Prot": 23951,
  "Prote": 28521,
  "Prov": 22871,
  "Ps": 11779,
  "Public": 15340,
  "Published": 20686,
  "Put": 15254,
  "Putin": 28655,
  "Q": 81,
  "QL": 10845,
  "QU": 19591,
  "Qaeda": 14353,
  "Qaida": 29182,
  "Qu": 6382,
  "Que": 18637,
  "Queen": 30074,
  "Query": 22409,
  "Quest": 17403,
  "Question": 26205,
  "Quick": 24827,
  "R": 82,
  "RA": 5047,
  "RB": 23899,
  "RC": 8741,
  "RE": 2174,
  "READ": 13773,
  "REAK": 31674,
  "RED": 18309,
  "REE": 15635,
  "REL": 14027,
  "RELATED": 15584,
  "RES": 14772,
  "RI": 8584,
  "RL": 9198,
  "RNA": 28364,
  "RO": 12549,
  "RP": 19076,
  "RS": 8148,
  "RT": 13026,
  "RY": 25907,
  "Ra": 23709,
  "Rad": 18503,
  "Radio": 28107,
  "Ram": 30237,
  "Rather": 21764,
  "Ray": 20933,
  "Re": 3104,
  "Read": 5149,
  "Real": 16467,
  "Really": 25796,
  "Reb": 31063,
  "Rec": 7790,
  "Recent": 24835,
  "Recently": 19819,
  "Record": 27459,
  "Red": 11059,
  "Redd": 19653,
  "Reddit": 20590,
  "Ref": 8260,
  "References": 13398,
  "Reg": 10259,
  "Regardless": 22782,
  "Reilly": 18361,
  "Rel": 6929,
  "Related": 8608,
  "Release": 28853,
  "Rem": 10049,
  "Remember": 15757,
  "Ren": 29880,
  "Rep": 5874,
  "Report": 26141,
  "Reports": 30688,
  "Republic": 11975,
  "Republican": 19420,
  "Republicans": 19597,
  "Request": 29799,
  "Res": 6044,
  "Research": 24291,
  "Researchers": 19212,
  "Residents": 31453,
  "Resp": 20722,
  "Rest": 24357,
  "Results": 28045,
  "Ret": 14657,
  "Return": 27243,
  "Reuters": 9488,
  "Rev": 23249,
  "Review": 17932,
  "Reviewer": 29353,
  "Rich": 13862,
  "Richard": 18494,
  "Rick": 28450,
  "Right": 11008,
  "Ro": 24076,
  "Rob": 14802,
  "Rober": 13835,
  "Robert": 16914,
  "Rock": 20407,
  "Rod": 24720,
  "Rog": 26977,
  "Roll": 30756,
  "Rom": 21893,
  "Roman": 29375,
  "Romney": 30585,
  "Ron": 22299,
  "Rose": 30416,
  "Rou": 29384,
  "Round": 26383,
  "Roy": 27188,
  "Rs": 29177,
  "Rub": 19035,
  "Ruby": 27603,
  "Run": 19515,
  "Running": 28815,
  "Rus": 29288,
  "Russ": 8601,
  "Russia": 13599,
  "Russian": 13890,
  "Ryan": 17872,
  "S": 83,
  "SA": 4183,
  "SAN": 25461,
  "SB": 20611,
  "SC": 10296,
  "SD": 11724,
  "SE": 9441,
  "SEC": 30271,
  "SF": 22900,
  "SH": 16818,
  "SI": 18296,
  "SL": 9532,
  "SM": 14078,
  "SN": 17713,
  "SO": 16118,
  "SON": 13934,
  "SP": 4779,
  "SQL": 18897,
  "SS": 5880,
  "ST": 4486,
  "SU": 10974,
  "SW": 20514,
  "Sad": 22663,
  "Sadly": 29046,
  "Sah": 30819,
  "Sal": 19211,
  "Sam": 16577,
  "Samsung": 28512,
  "San": 14774,
  "Sand": 15166,
  "Sanders": 18760,
  "Sar": 20990,
  "Sarah": 25247,
  "Sat": 24865,
  "Saturday": 19309,
  "Saudi": 28848,
  "Save": 20812,
  "Say": 28978,
  "Sc": 4132,
  "Sch": 14051,
  "School": 25950,
  "Science": 25078,
  "Scient": 17944,
  "Scientists": 21395,
  "Score": 28564,
  "Scott": 16202,
  "Script": 8630,
  "Scroll": 24268,
  "Se": 6843,
  "Sean": 24201,
  "Search": 25770,
  "Season": 21231,
  "Seattle": 29444,
  "Sec": 7367,
  "Second": 11947,
  "Secret": 22307,
  "Secretary": 31150,
  "Section": 29381,
  "Security": 23458,
  "See": 6362,
  "Select": 26898,
  "Self": 28567,
  "Semit": 14255,
  "Semitic": 22579,
  "Semitism": 20997,
  "Sen": 8543,
  "Senate": 23230,
  "Senator": 23192,
  "Send": 30794,
  "Senior": 28138,
  "Sep": 14371,
  "September": 19507,
  "Ser": 13584,
  "Series": 31272,
  "Serv": 18542,
  "Server": 28155,
  "Service": 23024,
  "Set": 12762,
  "Seven": 27073,
  "Several": 12152,
  "Sex": 24555,
  "Sh": 3021,
  "Sham": 29281,
  "Share": 10712,
  "She": 3214,
  "Shell": 29352,
  "Sher": 25654,
  "Short": 16966,
  "Shortly": 24183,
  "Should": 18896,
  "Show": 20069,
  "Side": 28561,
  "Sign": 13473,
  "Sil": 17548,
  "Sim": 9574,
  "Similar": 26744,
  "Similarly": 23265,
  "Simon": 31430,
  "Since": 5526,
  "Sing": 27328,
  "Sir": 25179,
  "Six": 19157,
  "Size": 24525,
  "Sk": 23855,
  "Sky": 22937,
  "Sl": 15149,
  "Sm": 8621,
  "Small": 24586,
  "Smart": 26934,
  "Smith": 16092,
  "Sn": 23346,
  "Snow": 27768,
  "So": 2167,
  "Social": 18725,
  "Soft": 27890,
  "Some": 3859,
  "Someone": 25049,
  "Something": 20829,
  "Sometimes": 13698,
  "Sony": 28077,
  "Soon": 24858,
  "Sorry": 21622,
  "Sound": 26763,
  "Source": 8960,
  "Sources": 18565,
  "South": 13211,
  "Sov": 31661,
  "Sp": 5744,
  "Space": 18116,
  "Spe": 6191,
  "Speaking": 10576,
  "Special": 18312,
  "Sports": 15309,
  "Spot": 30524,
  "Squ": 28329,
  "St": 1631,
  "Stack": 28420,
  "Staff": 27964,
  "Stan": 28344,
  "Stand": 23904,
  "Star": 8162,
  "Stars": 30590,
  "Start": 13551,
  "Starting": 22353,
  "Stat": 28029,
  "State": 10340,
  "Station": 10459,
  "Stay": 24388,
  "Ste": 5572,
  "Step": 10542,
  "Stephen": 22787,
  "Steve": 17451,
  "Steven": 25117,
  "Still": 9161,
  "Stock": 28302,
  "Stop": 19461,
  "Story": 9644,
  "Str": 22608,
  "Stream": 23976,
  "String": 15802,
  "Stud": 13600,
  "Students": 26482,
  "Sty": 29027,
  "Su": 22727,
  "Sub": 8024,
  "Subject": 21330,
  "Subscribe": 18953,
  "Such": 14132,
  "Sum": 16240,
  "Summary": 26257,
  "Sun": 19092,
  "Sund": 21047,
  "Sunday": 22391,
  "Super": 14404,
  "Supp": 11223,
  "Support": 21096,
  "Sur": 15006,
  "Sure": 17551,
  "Sus": 27541,
  "Sw": 18753,
  "Swed": 31174,
  "Sy": 13547,
  "System": 23993,
  "T": 84,
  "TA": 6179,
  "TB": 22436,
  "TC": 5129,
  "TE": 10746,
  "TER": 10034,
  "TH": 5595,
  "THE": 11930,
  "TI": 25760,
  "TION": 13165,
  "TIS": 12164,
  "TL": 19080,
  "TM": 23173,
  "TO": 11356,
  "TON": 10370,
  "TOR": 26365,
  "TP": 9874,
  "TR": 10403,
  "TS": 6369,
  "TT": 19447,
  "TV": 5813,
  "TY": 17422,
  "Table": 16526,
  "Take": 12196,
  "Taking": 23307,
  "Tal": 29339,
  "Talk": 26299,
  "Target": 31245,
  "Tax": 27109,
  "Taylor": 29160,
  "Te": 6229,
  "Team": 16886,
  "Tech": 20991,
  "Techn": 25941,
  "Ted": 30704,
  "Tele": 27978,
  "Tell": 24534,
  "Tem": 22469,
  "Ten": 23341,
  "Ter": 15927,
  "Tes": 31732,
  "Test": 18430,
  "Tex": 15840,
  "Texas": 17809,
  "Text": 18164,
  "Th": 801,
  "Thank": 10685,
  "Thanks": 10367,
  "That": 2131,
  "The": 445,
  "Their": 12035,
  "Then": 6241,
  "There": 1642,
  "Therefore": 26558,
  "These": 4295,
  "They": 2525,
  "Things": 19458,
  "Think": 19129,
  "Third": 21474,
  "Thirty": 30963,
  "This": 1207,
  "Thomas": 19897,
  "Those": 7964,
  "Though": 9253,
  "Thousands": 28160,
  "Thread": 29189,
  "Three": 11093,
  "Through": 12825,
  "Throughout": 21064,
  "Thursday": 24104,
  "Thus": 18791,
  "Tim": 15295,
  "Time": 10586,
  "Times": 25085,
  "Tit": 23518,
  "Title": 28709,
  "To": 2703,
  "Today": 7357,
  "Tom": 13153,
  "Tony": 25046,
  "Too": 23961,
  "Top": 10244,
  "Topics": 21385,
  "Tor": 14191,
  "Toronto": 25732,
  "Torrent": 27860,
  "Total": 18121,
  "Tr": 3137,
  "Tra": 26508,
  "Track": 30129,
  "Trans": 10879,
  "Travel": 31567,
  "Tre": 26832,
  "Tri": 26420,
  "True": 22949,
  "Trump": 4934,
  "Try": 27384,
  "Ts": 25379,
  "Tube": 6008,
  "Tuesday": 24792,
  "Tunes": 13964,
  "Tur": 14907,
  "Turkey": 24380,
  "Turn": 20339,
  "Tw": 16829,
  "Twenty": 28407,
  "Twitter": 12061,
  "Two": 6696,
  "Ty": 9967,
  "Type": 14020,
  "U": 85,
  "UB": 23973,
  "UC": 11293,
  "UCK": 23035,
  "UD": 12575,
  "UE": 13582,
  "UG": 19222,
  "UI": 13877,
  "UK": 16459,
  "UL": 8021,
  "ULL": 17116,
  "ULT": 29930,
  "UM": 13720,
  "UMP": 24130,
  "UN": 8119,
  "UP": 15959,
  "UPDATE": 13619,
  "UR": 7561,
  "URE": 19967,
  "US": 3145,
  "USA": 13616,
  "USD": 31115,
  "USE": 20095,
  "USH": 29607,
  "UST": 9091,
  "UT": 5902,
  "UTC": 19629,
  "UTERS": 12461,
  "Uk": 24837,
  "Ult": 16006,
  "Ultimately": 21016,
  "Un": 3928,
  "Under": 8378,
  "Unfortunately": 11768,
  "United": 16693,
  "University": 21279,
  "Unless": 26049,
  "Unlike": 15684,
  "Until": 15338,
  "Up": 5440,
  "Update": 10453,
  "Updated": 16185,
  "Upon": 20500,
  "Ur": 21976,
  "Us": 7963,
  "Use": 16454,
  "User": 18927,
  "Users": 28482,
  "Using": 13243,
  "Ut": 23635,
  "V": 86,
  "VA": 14837,
  "VC": 19295,
  "VD": 9722,
  "VE": 9187,
  "VEL": 30646,
  "VER": 7051,
  "VERTIS": 12635,
  "VI": 17034,
  "VID": 15278,
  "VIDIA": 22666,
  "VM": 16998,
  "VO": 29918,
  "VP": 10282,
  "VR": 15426,
  "Va": 31784,
  "Val": 13507,
  "Value": 20833,
  "Van": 24749,
  "Var": 30384,
  "Ve": 20878,
  "Ver": 16013,
  "Version": 28835,
  "Very": 19878,
  "Via": 24058,
  "Vict": 21076,
  "Video": 12962,
  "View": 10078,
  "Virgin": 30785,
  "Vis": 17954,
  "Vol": 21524,
  "Vs": 28799,
  "W": 87,
  "WA": 13888,
  "WAR": 26054,
  "WASHINGTON": 15956,
  "WATCH": 27398,
  "WC": 27379,
  "WE": 23769,
  "WH": 14456,
  "WN": 31772,
  "WR": 21152,
  "WS": 12520,
  "WW": 18926,
  "Wait": 23110,
  "Wal": 22706,
  "Wall": 22419,
  "Want": 19414,
  "War": 12073,
  "Ware": 31990,
  "Was": 18746,
  "Washington": 14978,
  "Watch": 9580,
  "Water": 22099,
  "Way": 25854,
  "We": 1031,
  "Web": 19062,
  "Wed": 22838,
  "Wednesday": 25525,
  "Week": 20548,
  "Welcome": 18547,
  "Well": 5707,
  "West": 13838,
  "Western": 21288,
  "Wh": 1156,
  "What": 2000,
  "Whatever": 18418,
  "Whe": 10435,
  "When": 2076,
  "Whenever": 29018,
  "Where": 8556,
  "Whether": 13405,
  "Which": 12610,
  "While": 3044,
  "White": 11933,
  "Who": 8143,
  "Why": 5003,
  "Wil": 20466,
  "Wild": 27245,
  "Will": 8444,
  "William": 23285,
  "Williams": 23059,
  "Wilson": 30205,
  "Win": 21411,
  "Wind": 15482,
  "Windows": 20601,
  "Wire": 30001,
  "With": 2984,
  "Within": 19283,
  "Without": 15585,
  "Women": 17329,
  "Wood": 26394,
  "Word": 31419,
  "Work": 13409,
  "Working": 25964,
  "Works": 23743,
  "World": 12043,
  "Would": 17923,
  "Wow": 21167,
  "Writ": 14046,
  "Write": 25526,
  "Writing": 27900,
  "Written": 24323,
  "X": 88,
  "XX": 12995,
  "Y": 89,
  "YS": 27100,
  "Yeah": 11133,
  "Year": 20748,
  "Yes": 6128,
  "Yesterday": 21226,
  "Yet": 9170,
  "You": 1817,
  "YouTube": 29813,
  "Young": 19082,
  "Your": 8939,
  "Z": 90,
  "[": 91,
  "['": 30295,
  "[/": 16412,
  "[]": 31924,
  "\\": 92,
  "\\\"": 26302,
  "\\)": 30280,
  "\\-": 20277,
  "\\/": 19489,
  "\\\\": 17480,
  "]": 93,
  "])": 16409,
  "],": 5835,
  "],\"": 27987,
  "],âĢĿ": 31706,
  "].": 5092,
  "]:": 13079,
  "];": 16538,
  "]<|": 12457,
  "][": 2991,
  "]]": 20100,
  "^": 94,
  "^{": 20927,
  "_": 95,
  "__": 1414,
  "___": 19785,
  "____": 2636,
  "________": 4613,
  "________________": 8415,
  "________________________________": 16949,
  "_{": 17111,
  "`": 96,
  "a": 97,
  "aa": 13238,
  "ab": 408,
  "aba": 15048,
  "abad": 14254,
  "abama": 7480,
  "abase": 22470,
  "abb": 5217,
  "abbing": 12463,
  "abe": 10687,
  "abee": 22524,
  "abel": 14591,
  "aber": 31690,
  "abet": 9956,
  "abetes": 12455,
  "abeth": 8786,
  "abi": 16607,
  "abil": 8360,
  "abilities": 5716,
  "ability": 1899,
  "abin": 5817,
  "abinet": 8018,
  "abis": 6775,
  "abit": 29674,
  "abl": 12944,
  "able": 574,
  "abled": 5888,
  "ables": 3388,
  "abling": 12329,
  "ablish": 17195,
  "ablished": 20492,
  "ablishment": 22032,
  "ablo": 16827,
  "ably": 1292,
  "abor": 3207,
  "abortion": 25181,
  "about": 11158,
  "abouts": 25438,
  "above": 28394,
  "abs": 7930,
  "abul": 13909,
  "abulary": 20669,
  "abwe": 19822,
  "aby": 4108,
  "abytes": 31504,
  "ac": 312,
  "aca": 21284,
  "acas": 31880,
  "acc": 6865,
  "accept": 11719,
  "acceptable": 13176,
  "access": 16891,
  "accessible": 30780,
  "acco": 9144,
  "account": 24094,
  "accur": 14766,
  "ace": 559,
  "acebook": 2304,
  "aced": 2286,
  "acent": 12965,
  "acer": 12468,
  "acerb": 18220,
  "aces": 2124,
  "aceutical": 13393,
  "acey": 22367,
  "ach": 632,
  "acha": 31550,
  "ache": 5886,
  "ached": 2447,
  "achel": 9848,
  "achelor": 19628,
  "acher": 9939,
  "achers": 15489,
  "aches": 3495,
  "achi": 18633,
  "achine": 24266,
  "aching": 8012,
  "achment": 11188,
  "acht": 17735,
  "achus": 8117,
  "achusetts": 8231,
  "acial": 21384,
  "acies": 12379,
  "acing": 4077,
  "acious": 13831,
  "acity": 4507,
  "aciÃ³n": 24892,
  "ack": 449,
  "acked": 7331,
  "acker": 13937,
  "ackers": 24026,
  "acket": 9024,
  "ackets": 27807,
  "acking": 6836,
  "acks": 5155,
  "acle": 6247,
  "acles": 10429,
  "aco": 11250,
  "acon": 8459,
  "aconian": 30875,
  "acre": 10373,
  "acs": 20647,
  "act": 506,
  "acted": 20225,
  "acter": 6091,
  "acters": 27465,
  "actic": 13992,
  "acting": 25324,
  "action": 2613,
  "actions": 7446,
  "activ": 18684,
  "active": 7599,
  "actively": 28272,
  "activity": 23741,
  "actly": 22913,
  "actor": 11204,
  "actory": 12600,
  "acts": 9526,
  "acular": 12336,
  "acy": 1486,
  "ad": 324,
  "ada": 4665,
  "adal": 29021,
  "adan": 24520,
  "adata": 17497,
  "adays": 17649,
  "add": 3344,
  "addafi": 17749,
  "adder": 30882,
  "addock": 31411,
  "addy": 14165,
  "ade": 675,
  "aded": 5160,
  "adel": 6653,
  "adelph": 7299,
  "adelphia": 7364,
  "adem": 3515,
  "adena": 31288,
  "adequ": 15238,
  "ader": 5166,
  "aders": 9917,
  "ades": 2258,
  "adesh": 10889,
  "adh": 18347,
  "adi": 10394,
  "adia": 27338,
  "adian": 17091,
  "adic": 22494,
  "adin": 27877,
  "ading": 4339,
  "aditional": 17211,
  "adium": 5076,
  "adjusted": 29806,
  "ado": 4019,
  "ador": 6113,
  "ados": 19816,
  "adow": 5771,
  "adows": 13352,
  "ads": 7109,
  "advant": 13111,
  "ady": 4596,
  "ae": 4335,
  "aed": 7559,
  "aeda": 8968,
  "ael": 2741,
  "af": 1979,
  "afa": 26284,
  "afe": 9308,
  "afer": 30021,
  "afety": 25968,
  "aff": 1449,
  "affe": 13752,
  "affeine": 21745,
  "affer": 26633,
  "affle": 31026,
  "afi": 13037,
  "afia": 20159,
  "afort": 19294,
  "aft": 20928,
  "after": 9603,
  "ag": 370,
  "aga": 9288,
  "again": 16336,
  "against": 27941,
  "agan": 6427,
  "agar": 29016,
  "age": 504,
  "aged": 1816,
  "agement": 2975,
  "agen": 10545,
  "agent": 23284,
  "ager": 2425,
  "agers": 6085,
  "ages": 1131,
  "agg": 8530,
  "agged": 14844,
  "agger": 9962,
  "aggering": 17104,
  "agging": 14476,
  "agh": 9619,
  "aghd": 13666,
  "agher": 24589,
  "agi": 25006,
  "agic": 9115,
  "agine": 11076,
  "aging": 2574,
  "agle": 18690,
  "agn": 4957,
  "agne": 19541,
  "agnetic": 22300,
  "ago": 3387,
  "agog": 28338,
  "agogue": 25669,
  "agon": 3504,
  "agonal": 27632,
  "agonist": 15176,
  "agram": 7240,
  "agrams": 31296,
  "agraph": 12203,
  "ags": 4246,
  "agu": 11864,
  "ague": 1747,
  "agues": 5040,
  "ah": 1026,
  "aha": 13859,
  "ahan": 15952,
  "ahar": 29748,
  "ahi": 31516,
  "ahl": 13565,
  "ahn": 14780,
  "aho": 15403,
  "ahon": 24615,
  "ahoo": 11023,
  "ahu": 9563,
  "ai": 2011,
  "aic": 23188,
  "aid": 1978,
  "aida": 23823,
  "aign": 1435,
  "ail": 611,
  "ailable": 10309,
  "ailand": 13916,
  "ailed": 9472,
  "ailing": 11681,
  "ails": 1914,
  "ailure": 23434,
  "aily": 2887,
  "aim": 1289,
  "ain": 390,
  "aine": 5284,
  "ained": 1503,
  "ainer": 16559,
  "aining": 1573,
  "ains": 1378,
  "aint": 3649,
  "ainted": 15636,
  "aints": 5735,
  "air": 1004,
  "aird": 27829,
  "aire": 6914,
  "aired": 15034,
  "aires": 14818,
  "airo": 14666,
  "airs": 3506,
  "airy": 13295,
  "ais": 9445,
  "ait": 4698,
  "aith": 3949,
  "aj": 1142,
  "aja": 24762,
  "aji": 26996,
  "ajo": 26264,
  "ajor": 1348,
  "ak": 470,
  "aka": 8829,
  "akable": 28795,
  "ake": 539,
  "aked": 4204,
  "akedown": 26771,
  "aken": 1657,
  "akens": 28441,
  "aker": 3041,
  "akers": 3336,
  "akes": 1118,
  "akespe": 17400,
  "akespeare": 17627,
  "akh": 9844,
  "aki": 9949,
  "akin": 27886,
  "aking": 830,
  "akis": 22181,
  "akistan": 4599,
  "ako": 24406,
  "aks": 4322,
  "aku": 14209,
  "aky": 15134,
  "al": 283,
  "ala": 6293,
  "alach": 28163,
  "alan": 31608,
  "ald": 1802,
  "aldi": 31595,
  "ale": 1066,
  "aleb": 26624,
  "aled": 5690,
  "aleigh": 26591,
  "ales": 2036,
  "aley": 13726,
  "alez": 17757,
  "alf": 1562,
  "ali": 7663,
  "alia": 8945,
  "alian": 6484,
  "aliation": 19470,
  "alid": 12006,
  "alin": 14643,
  "aline": 22434,
  "aling": 5545,
  "alion": 19719,
  "alis": 27901,
  "alities": 25621,
  "ality": 1546,
  "alk": 966,
  "alker": 23082,
  "alking": 18691,
  "all": 447,
  "alla": 27206,
  "allah": 20675,
  "allas": 6786,
  "alle": 6803,
  "alled": 3027,
  "alleng": 29195,
  "allic": 23497,
  "alling": 9596,
  "allow": 15749,
  "alls": 5345,
  "ally": 453,
  "almost": 24106,
  "alo": 7040,
  "alog": 12998,
  "alogue": 28072,
  "alone": 17725,
  "along": 21859,
  "alph": 13957,
  "als": 873,
  "alse": 4079,
  "alsh": 17633,
  "also": 14453,
  "alt": 2620,
  "alth": 1083,
  "although": 15365,
  "alties": 9944,
  "alty": 6281,
  "aly": 3421,
  "alys": 29175,
  "alysis": 9887,
  "am": 323,
  "ama": 1287,
  "amac": 8756,
  "amacare": 8856,
  "aman": 12158,
  "amas": 15327,
  "amation": 15630,
  "amb": 3617,
  "amba": 27990,
  "amber": 7829,
  "ambers": 15706,
  "ambig": 25958,
  "ambled": 26659,
  "ambling": 11389,
  "ambo": 23827,
  "amboo": 29782,
  "ame": 491,
  "amed": 2030,
  "amel": 20310,
  "ament": 1864,
  "amental": 25315,
  "aments": 11044,
  "amer": 2195,
  "amera": 18808,
  "ames": 1017,
  "ami": 8086,
  "amic": 21162,
  "amiliar": 17693,
  "amily": 6655,
  "amin": 6112,
  "amina": 29961,
  "amination": 29243,
  "amine": 10776,
  "aminer": 26041,
  "aming": 3229,
  "amins": 27845,
  "amm": 5024,
  "ammad": 20498,
  "ammar": 16985,
  "ammed": 8591,
  "ammy": 23588,
  "amo": 15624,
  "amon": 17937,
  "among": 30787,
  "amoto": 23432,
  "amount": 18292,
  "amous": 9957,
  "amp": 674,
  "ampa": 11180,
  "amped": 15158,
  "amph": 26066,
  "amphetamine": 31126,
  "ampion": 5859,
  "ampions": 3527,
  "ampionship": 4568,
  "ampire": 18057,
  "ampires": 31922,
  "ample": 1475,
  "amples": 18560,
  "amps": 13549,
  "ampton": 16604,
  "ams": 1863,
  "amsung": 8022,
  "amus": 26611,
  "amy": 15527,
  "an": 272,
  "ana": 2161,
  "analysis": 24697,
  "anamo": 23461,
  "anan": 24099,
  "anas": 17573,
  "anc": 1163,
  "ance": 604,
  "anced": 3213,
  "ancer": 18528,
  "ancers": 20323,
  "ances": 1831,
  "anch": 3471,
  "anche": 5383,
  "anches": 11980,
  "anchester": 7449,
  "anchez": 16491,
  "ancial": 2484,
  "ancies": 15926,
  "ancing": 4971,
  "anco": 25825,
  "ancock": 31997,
  "ancouver": 8188,
  "ancy": 4741,
  "and": 388,
  "anda": 4880,
  "andal": 6389,
  "andals": 18045,
  "ande": 30593,
  "anded": 12259,
  "andem": 25974,
  "ander": 4345,
  "andi": 29493,
  "anding": 16773,
  "ando": 17158,
  "andom": 4569,
  "andon": 4660,
  "andra": 25067,
  "andro": 23804,
  "android": 30884,
  "ands": 1704,
  "andum": 24767,
  "andy": 12518,
  "ane": 1586,
  "aned": 19980,
  "aneous": 14490,
  "aneously": 26563,
  "anes": 6644,
  "aney": 18571,
  "ang": 669,
  "anga": 23045,
  "ange": 883,
  "anged": 5685,
  "angel": 8544,
  "anger": 2563,
  "angered": 15691,
  "angerous": 22363,
  "angers": 5855,
  "anges": 6866,
  "anging": 4711,
  "angle": 9901,
  "angled": 19486,
  "angles": 28224,
  "angling": 24279,
  "ango": 15022,
  "angu": 2339,
  "anguage": 11282,
  "anguard": 26329,
  "angular": 21649,
  "ani": 3232,
  "ania": 5037,
  "anic": 25919,
  "anie": 31056,
  "aniel": 5821,
  "anies": 16723,
  "anim": 10834,
  "aning": 7898,
  "anish": 6421,
  "anity": 19611,
  "anium": 13533,
  "ank": 970,
  "anka": 13376,
  "anke": 27548,
  "anked": 13303,
  "ankind": 29305,
  "anking": 12819,
  "anks": 2971,
  "ann": 1614,
  "anna": 8454,
  "annah": 25329,
  "anne": 15824,
  "annel": 4638,
  "annels": 8758,
  "anners": 18251,
  "anni": 27687,
  "annie": 30121,
  "annon": 9673,
  "anny": 7416,
  "ano": 5171,
  "anoia": 26717,
  "anol": 21193,
  "another": 27416,
  "anqu": 28325,
  "ans": 493,
  "ansas": 5948,
  "ansen": 29631,
  "ansing": 20519,
  "ansion": 5209,
  "ansk": 31740,
  "ansom": 18073,
  "anson": 19296,
  "ant": 424,
  "anta": 19066,
  "ante": 14118,
  "anted": 4585,
  "antha": 28451,
  "anthrop": 18482,
  "anti": 15047,
  "antic": 7740,
  "antically": 29540,
  "antics": 28410,
  "antine": 17544,
  "anting": 15029,
  "antle": 15580,
  "antly": 3875,
  "anto": 13729,
  "antom": 17893,
  "anton": 19156,
  "antry": 20719,
  "ants": 1212,
  "any": 1019,
  "anyahu": 11507,
  "anye": 22920,
  "anyon": 20793,
  "anz": 27942,
  "anza": 31097,
  "ao": 7067,
  "ap": 464,
  "apa": 31733,
  "apan": 2575,
  "ape": 2181,
  "aped": 5778,
  "apego": 31456,
  "aper": 2035,
  "apers": 5234,
  "apes": 7266,
  "apest": 30628,
  "aph": 3133,
  "api": 23401,
  "aping": 8886,
  "apolis": 9587,
  "apon": 29396,
  "apor": 14789,
  "apore": 10228,
  "app": 1328,
  "appa": 25494,
  "apped": 4845,
  "apper": 10853,
  "apping": 5651,
  "appings": 29868,
  "apple": 24763,
  "appointed": 26793,
  "appro": 15561,
  "appropri": 10401,
  "appropriate": 12007,
  "approved": 26114,
  "appy": 8224,
  "aps": 1585,
  "apse": 6849,
  "apt": 2885,
  "apter": 5618,
  "aptic": 31123,
  "apture": 25972,
  "apy": 14179,
  "aq": 30731,
  "aqu": 22339,
  "aque": 17799,
  "ar": 284,
  "ara": 3529,
  "arag": 28127,
  "arak": 19524,
  "aran": 4520,
  "aration": 9765,
  "arations": 23505,
  "arc": 2460,
  "arcer": 15236,
  "arch": 988,
  "arching": 30943,
  "archive": 30483,
  "archs": 29910,
  "archy": 9110,
  "arcity": 27518,
  "arcraft": 29050,
  "ard": 458,
  "arded": 11572,
  "arden": 6327,
  "ardi": 18531,
  "arding": 14572,
  "ardless": 13268,
  "ardo": 10952,
  "ardon": 19636,
  "ards": 1450,
  "ardy": 30964,
  "are": 528,
  "area": 18977,
  "ared": 1126,
  "arel": 22148,
  "aren": 5151,
  "arency": 10112,
  "arendra": 21318,
  "arent": 1551,
  "arenthood": 13011,
  "arently": 11880,
  "arents": 12983,
  "arer": 11844,
  "ares": 3712,
  "arest": 13218,
  "aret": 8507,
  "areth": 24055,
  "arette": 14413,
  "arettes": 12666,
  "arez": 15914,
  "arg": 864,
  "arge": 1203,
  "arget": 10284,
  "argo": 8910,
  "ari": 3356,
  "aria": 9879,
  "arian": 3429,
  "arians": 11753,
  "ariat": 21029,
  "aries": 3095,
  "arily": 3010,
  "arin": 16788,
  "aring": 1603,
  "ario": 4521,
  "arios": 11736,
  "arious": 18976,
  "aris": 22958,
  "arity": 6979,
  "arium": 20578,
  "arius": 22341,
  "ark": 678,
  "arks": 5158,
  "arl": 6076,
  "arlier": 7872,
  "arly": 876,
  "arm": 2044,
  "arma": 12023,
  "armac": 31929,
  "armed": 11233,
  "arming": 14076,
  "arms": 8548,
  "arn": 6096,
  "aro": 10831,
  "aron": 7403,
  "around": 12858,
  "arp": 5655,
  "arr": 3357,
  "arrass": 8191,
  "array": 23760,
  "arre": 9362,
  "arrison": 21509,
  "arro": 29152,
  "arrow": 27889,
  "arry": 6916,
  "ars": 951,
  "arse": 17631,
  "arsh": 5079,
  "arson": 10673,
  "art": 428,
  "arta": 28713,
  "arted": 11114,
  "arten": 21441,
  "arter": 2294,
  "arters": 6047,
  "arth": 3083,
  "arthed": 30527,
  "arthy": 13502,
  "article": 22266,
  "articles": 27504,
  "artisan": 14324,
  "artment": 1683,
  "arts": 15109,
  "artz": 21755,
  "aru": 15843,
  "arus": 22817,
  "ary": 557,
  "as": 291,
  "asa": 16306,
  "asant": 9550,
  "asc": 3176,
  "ascal": 25217,
  "ascist": 26925,
  "ascript": 17685,
  "ascular": 18023,
  "ascus": 16646,
  "ase": 624,
  "ased": 825,
  "aser": 6915,
  "asers": 28892,
  "ases": 1442,
  "ash": 1147,
  "asha": 17906,
  "ashed": 5173,
  "ashes": 7619,
  "ashi": 15578,
  "ashing": 1854,
  "ashington": 2095,
  "ashion": 5513,
  "ashtra": 29294,
  "asi": 14478,
  "asia": 31979,
  "asing": 2140,
  "asio": 22592,
  "asion": 7776,
  "asis": 20780,
  "asive": 15967,
  "ask": 2305,
  "aska": 7778,
  "asket": 16874,
  "asketball": 22883,
  "asking": 26309,
  "asks": 6839,
  "asm": 14412,
  "asma": 15497,
  "ason": 821,
  "asonable": 17598,
  "asonic": 30114,
  "asons": 2550,
  "asp": 5692,
  "aspberry": 19303,
  "asper": 30949,
  "ass": 576,
  "assad": 28778,
  "assador": 8946,
  "assadors": 31568,
  "asse": 20089,
  "assed": 21892,
  "asser": 22776,
  "asses": 16474,
  "assic": 26776,
  "assing": 22808,
  "assion": 11280,
  "assis": 21306,
  "assium": 30582,
  "assuming": 30623,
  "assy": 9827,
  "ast": 472,
  "aste": 4305,
  "asted": 8900,
  "aster": 1873,
  "astered": 29290,
  "astern": 5841,
  "asters": 7164,
  "astery": 28146,
  "astic": 3501,
  "astical": 31157,
  "astically": 13442,
  "astics": 22312,
  "asting": 9542,
  "aston": 30894,
  "astrous": 15758,
  "asts": 6996,
  "asty": 8394,
  "asure": 6042,
  "asures": 15857,
  "asury": 9503,
  "asy": 4529,
  "at": 266,
  "ata": 1158,
  "atable": 16656,
  "atal": 12150,
  "atalie": 27523,
  "atar": 9304,
  "atch": 1016,
  "atched": 15232,
  "atcher": 31214,
  "atches": 26817,
  "atching": 17249,
  "ate": 368,
  "ated": 515,
  "ateful": 10864,
  "ateg": 2555,
  "ategory": 17013,
  "ategy": 3886,
  "atel": 21125,
  "atell": 6472,
  "atellite": 27038,
  "ately": 1270,
  "ater": 739,
  "ateral": 9810,
  "atered": 28496,
  "aterial": 2622,
  "atern": 9566,
  "aternal": 15541,
  "aternity": 16218,
  "aters": 13960,
  "ates": 677,
  "ateur": 13655,
  "atever": 3544,
  "atform": 3164,
  "ath": 841,
  "athan": 6174,
  "athe": 25945,
  "athed": 28507,
  "ather": 1038,
  "athered": 7783,
  "atherine": 13920,
  "athering": 25147,
  "athetic": 16323,
  "athing": 23472,
  "athom": 29109,
  "athon": 11987,
  "athy": 7639,
  "ati": 7039,
  "atible": 24050,
  "atic": 2040,
  "atical": 22715,
  "atically": 4484,
  "atican": 14974,
  "atics": 17097,
  "atile": 12589,
  "atility": 17132,
  "atin": 12368,
  "ating": 805,
  "atinum": 19798,
  "ation": 342,
  "ational": 796,
  "ationally": 12724,
  "ations": 589,
  "atisf": 16219,
  "atism": 19685,
  "ative": 859,
  "atively": 9930,
  "atives": 2637,
  "ativity": 19408,
  "atlantic": 31304,
  "ato": 5836,
  "atoes": 12168,
  "aton": 13879,
  "ator": 1559,
  "atorial": 17825,
  "atories": 18259,
  "atorium": 24780,
  "ators": 1985,
  "atory": 2949,
  "atra": 22916,
  "atre": 12331,
  "atri": 22198,
  "ats": 1675,
  "atsu": 25670,
  "att": 2307,
  "atta": 23852,
  "attack": 17807,
  "attacks": 29839,
  "atter": 11856,
  "attered": 10667,
  "attering": 19030,
  "atti": 27267,
  "attle": 3879,
  "attled": 23794,
  "atts": 24339,
  "atum": 30045,
  "atur": 2392,
  "atural": 2720,
  "aturally": 7535,
  "aturday": 3114,
  "ature": 1361,
  "atured": 20750,
  "atures": 5259,
  "aturing": 30116,
  "atus": 10438,
  "atz": 24352,
  "au": 555,
  "auc": 12567,
  "aucas": 22975,
  "aucus": 12016,
  "aucuses": 27065,
  "aud": 3688,
  "aude": 23471,
  "audi": 27055,
  "auer": 13975,
  "auf": 22923,
  "aug": 7053,
  "augh": 1563,
  "aughed": 14935,
  "aughs": 16331,
  "aught": 3337,
  "aughter": 3575,
  "aughtered": 29558,
  "aughters": 12143,
  "aukee": 12867,
  "aul": 2214,
  "ault": 2130,
  "aun": 7179,
  "aunch": 21526,
  "aunted": 24859,
  "aunting": 19317,
  "aur": 2892,
  "aura": 31466,
  "aus": 7958,
  "ause": 671,
  "ausible": 15284,
  "aut": 2553,
  "auth": 18203,
  "author": 9724,
  "authored": 31492,
  "authorized": 18794,
  "aution": 27440,
  "autions": 30311,
  "aux": 13807,
  "av": 625,
  "ava": 4791,
  "available": 16358,
  "aval": 8777,
  "avan": 20626,
  "ave": 1039,
  "aved": 9415,
  "aven": 5103,
  "aver": 9151,
  "average": 21473,
  "avers": 28878,
  "avery": 11813,
  "aves": 3306,
  "avez": 21739,
  "avi": 16400,
  "avier": 23377,
  "avin": 20282,
  "aving": 2641,
  "avior": 20279,
  "avoid": 25466,
  "avor": 6748,
  "avorite": 24056,
  "avour": 31290,
  "avy": 2912,
  "aw": 700,
  "awa": 6720,
  "aware": 8941,
  "awatts": 31866,
  "away": 8081,
  "aways": 20852,
  "awei": 27520,
  "awi": 19286,
  "awk": 23978,
  "awks": 10581,
  "awn": 5078,
  "aws": 13035,
  "ax": 969,
  "axies": 20355,
  "axis": 26709,
  "axy": 6958,
  "ay": 318,
  "aya": 11862,
  "ayan": 20746,
  "aye": 30430,
  "ayed": 12469,
  "ayer": 5191,
  "ayers": 6532,
  "ayette": 24553,
  "aying": 8103,
  "aylor": 24866,
  "ays": 566,
  "ayson": 28092,
  "az": 1060,
  "aza": 6125,
  "azar": 19217,
  "azard": 31350,
  "aze": 6785,
  "azed": 14131,
  "azeera": 19179,
  "azer": 19506,
  "azers": 25412,
  "azi": 6763,
  "azine": 4854,
  "azines": 14900,
  "azing": 4320,
  "azingly": 23500,
  "azon": 4649,
  "azor": 18615,
  "azy": 12734,
  "azz": 7700,
  "b": 98,
  "ba": 7999,
  "bable": 27861,
  "bably": 11703,
  "bach": 18005,
  "back": 1812,
  "backed": 13033,
  "backs": 8877,
  "bad": 15201,
  "bag": 21371,
  "bai": 22857,
  "bal": 7601,
  "balance": 20294,
  "balanced": 27421,
  "ball": 1733,
  "balls": 18043,
  "ban": 3432,
  "band": 3719,
  "bands": 21195,
  "bane": 18136,
  "bank": 18351,
  "bar": 6779,
  "bard": 19610,
  "bart": 12639,
  "bas": 18182,
  "base": 9815,
  "based": 2793,
  "bast": 18298,
  "bat": 11281,
  "baum": 21787,
  "bay": 30868,
  "bb": 16651,
  "bc": 24912,
  "be": 1362,
  "bean": 14065,
  "bearing": 28760,
  "beat": 11654,
  "bec": 8218,
  "because": 12501,
  "becca": 19336,
  "beck": 23828,
  "becue": 27342,
  "bed": 3108,
  "bedroom": 28846,
  "bee": 21339,
  "before": 21234,
  "begin": 31317,
  "beh": 20753,
  "being": 11141,
  "beit": 12977,
  "bel": 6792,
  "belie": 24546,
  "belief": 21956,
  "believ": 15934,
  "bell": 7893,
  "ben": 10796,
  "bench": 27130,
  "ber": 518,
  "bered": 9632,
  "berg": 3599,
  "berger": 18446,
  "berman": 26100,
  "bern": 27507,
  "bernatorial": 30746,
  "berra": 26046,
  "berries": 23429,
  "berry": 9373,
  "bers": 1157,
  "bert": 4383,
  "berto": 26740,
  "bery": 11447,
  "bes": 11485,
  "best": 12862,
  "bet": 11973,
  "better": 24353,
  "between": 23841,
  "bey": 22219,
  "bf": 30246,
  "bi": 8885,
  "bial": 20107,
  "bian": 11038,
  "bians": 26206,
  "bid": 25244,
  "bie": 12268,
  "big": 13151,
  "bike": 28430,
  "bil": 28016,
  "billion": 18509,
  "bilt": 29436,
  "bin": 10559,
  "bing": 9955,
  "bird": 19536,
  "birds": 31843,
  "birth": 25909,
  "bish": 27547,
  "bishop": 22412,
  "bit": 2638,
  "bitious": 11228,
  "bits": 9760,
  "bl": 2963,
  "black": 14345,
  "blank": 29158,
  "ble": 906,
  "bled": 19765,
  "blem": 13976,
  "blems": 24371,
  "bles": 12613,
  "bley": 31617,
  "blind": 30052,
  "bling": 18081,
  "block": 11437,
  "blog": 14505,
  "blood": 20382,
  "blown": 25589,
  "blue": 20474,
  "bn": 8416,
  "bnb": 26473,
  "bo": 2423,
  "board": 3722,
  "boarding": 21406,
  "boards": 12385,
  "boat": 23427,
  "body": 2366,
  "bomb": 28779,
  "bon": 3950,
  "bone": 15466,
  "bons": 21943,
  "book": 1813,
  "books": 10672,
  "boot": 26889,
  "bor": 2724,
  "border": 22917,
  "borg": 25881,
  "borhood": 29150,
  "born": 6388,
  "borne": 12304,
  "boro": 21036,
  "borough": 14689,
  "bot": 15905,
  "both": 16396,
  "bottom": 26909,
  "bound": 10692,
  "bour": 4804,
  "bourg": 22013,
  "bourne": 10384,
  "bow": 9351,
  "bows": 28558,
  "box": 3831,
  "boy": 6870,
  "boys": 11388,
  "bps": 19466,
  "br": 1723,
  "bra": 16995,
  "brain": 28331,
  "bral": 25571,
  "brance": 30972,
  "brand": 20081,
  "branded": 28949,
  "braska": 15450,
  "bre": 4792,
  "bread": 30175,
  "break": 9334,
  "breaker": 27607,
  "breaking": 11110,
  "breaks": 26075,
  "brew": 12445,
  "brid": 10020,
  "bridge": 9058,
  "bright": 28979,
  "bringing": 29687,
  "bro": 7756,
  "broken": 23496,
  "brook": 17840,
  "brow": 31193,
  "bs": 1575,
  "bsite": 14797,
  "bsp": 27241,
  "bt": 27126,
  "bu": 12383,
  "buck": 29691,
  "bucks": 18227,
  "budget": 28534,
  "build": 15435,
  "building": 15081,
  "built": 19108,
  "bul": 14422,
  "bull": 13679,
  "bum": 3734,
  "buquerque": 30038,
  "bur": 6153,
  "burg": 6831,
  "burgh": 8000,
  "burn": 11981,
  "bury": 9602,
  "bus": 18202,
  "business": 19995,
  "buster": 20496,
  "busters": 24598,
  "but": 4610,
  "button": 23163,
  "buy": 27072,
  "by": 1557,
  "bye": 16560,
  "byn": 12247,
  "c": 99,
  "ca": 8175,
  "cair": 29888,
  "cal": 10731,
  "call": 16338,
  "called": 5930,
  "cam": 21680,
  "camera": 23170,
  "camp": 17714,
  "can": 6005,
  "cann": 29547,
  "cano": 21911,
  "cap": 10926,
  "capital": 23258,
  "caps": 25405,
  "car": 7962,
  "carbon": 24893,
  "card": 11270,
  "cards": 31556,
  "care": 5783,
  "carry": 30873,
  "cars": 31127,
  "cart": 31687,
  "cas": 27473,
  "case": 8478,
  "cast": 2713,
  "caster": 30600,
  "casting": 20146,
  "castle": 15059,
  "cat": 11791,
  "cation": 25363,
  "cats": 23361,
  "cause": 24507,
  "cc": 531,
  "cca": 13702,
  "ccess": 1526,
  "ccording": 2416,
  "cd": 16376,
  "ce": 346,
  "cean": 5446,
  "ceans": 16869,
  "ced": 773,
  "cedented": 9670,
  "cedes": 15660,
  "ceed": 2987,
  "ceived": 6637,
  "cel": 5532,
  "celer": 6982,
  "cell": 4233,
  "celona": 11659,
  "cember": 2942,
  "cend": 13634,
  "cent": 1023,
  "center": 20303,
  "centric": 22936,
  "century": 11479,
  "cept": 1048,
  "ception": 4750,
  "ceptions": 9567,
  "ceptive": 23696,
  "cer": 1057,
  "cers": 7031,
  "cert": 31482,
  "certain": 6519,
  "cery": 31440,
  "ces": 728,
  "cess": 978,
  "cest": 9668,
  "cester": 28560,
  "cf": 22197,
  "ch": 354,
  "cha": 13694,
  "chain": 7517,
  "chair": 14506,
  "chan": 3614,
  "change": 3846,
  "changing": 19754,
  "channel": 29429,
  "chant": 16885,
  "char": 13350,
  "character": 22981,
  "chard": 28583,
  "charg": 11520,
  "charge": 12574,
  "charged": 16736,
  "charging": 31011,
  "chat": 18668,
  "che": 2621,
  "check": 10175,
  "checked": 25616,
  "ched": 1653,
  "chedel": 19929,
  "chel": 27430,
  "chell": 10611,
  "chem": 19602,
  "chemical": 31725,
  "chen": 6534,
  "chens": 24147,
  "cher": 4181,
  "chers": 6597,
  "ches": 2105,
  "chet": 24372,
  "chewan": 23239,
  "chi": 12871,
  "chie": 2895,
  "chief": 15896,
  "child": 9754,
  "children": 16131,
  "chin": 23403,
  "ching": 10415,
  "chn": 1277,
  "chnology": 17556,
  "cho": 6437,
  "choice": 22220,
  "chool": 1169,
  "chron": 12190,
  "cht": 18638,
  "church": 29833,
  "chy": 28598,
  "ci": 1056,
  "cia": 30814,
  "cial": 2494,
  "cially": 1970,
  "ciation": 18910,
  "cience": 4285,
  "cient": 3656,
  "cier": 27413,
  "cies": 3039,
  "cific": 8388,
  "cifically": 17247,
  "cified": 20968,
  "cig": 19906,
  "cigarettes": 26968,
  "cil": 2530,
  "cill": 14787,
  "cin": 19905,
  "cing": 2118,
  "cious": 5157,
  "ciously": 18863,
  "cip": 25039,
  "cipl": 19717,
  "cipled": 31683,
  "ciples": 7030,
  "ciplinary": 29844,
  "circ": 21972,
  "cision": 19279,
  "citation": 11184,
  "city": 21582,
  "cium": 22199,
  "civil": 31927,
  "ck": 731,
  "cker": 13503,
  "cknow": 4731,
  "cks": 4852,
  "cl": 1260,
  "clad": 31780,
  "claim": 8599,
  "claimed": 13308,
  "clair": 24214,
  "clamation": 24605,
  "class": 5402,
  "cle": 3029,
  "clean": 28191,
  "clear": 25827,
  "cled": 20640,
  "cles": 7695,
  "click": 15851,
  "client": 26738,
  "cliffe": 30865,
  "cling": 7724,
  "clipse": 31224,
  "clock": 18534,
  "close": 23648,
  "closed": 14696,
  "closure": 13871,
  "cloud": 24773,
  "club": 17418,
  "clus": 2790,
  "clusion": 14678,
  "clusive": 16260,
  "cm": 15801,
  "co": 1314,
  "coal": 28856,
  "cock": 18459,
  "cod": 21726,
  "code": 12049,
  "coh": 5208,
  "cohol": 5579,
  "coholic": 22177,
  "coin": 3390,
  "coins": 13451,
  "col": 5589,
  "coll": 21687,
  "collar": 28307,
  "colm": 15861,
  "color": 15244,
  "colored": 26121,
  "com": 913,
  "comb": 22129,
  "come": 3068,
  "comed": 12350,
  "comes": 8996,
  "comfort": 19530,
  "coming": 4348,
  "comings": 25121,
  "comm": 14508,
  "comment": 25140,
  "comments": 31469,
  "commerce": 22700,
  "committee": 22686,
  "common": 19196,
  "commun": 10588,
  "communication": 31545,
  "communications": 19009,
  "community": 30263,
  "comp": 11424,
  "compass": 16123,
  "compet": 22558,
  "compl": 23390,
  "complete": 19868,
  "computer": 29012,
  "con": 1058,
  "cond": 18355,
  "conf": 8984,
  "conference": 31626,
  "config": 19123,
  "coni": 30097,
  "connect": 12432,
  "connected": 17928,
  "conom": 1279,
  "cons": 6037,
  "conscious": 18267,
  "const": 9797,
  "constitutional": 14960,
  "consuming": 29983,
  "cont": 4196,
  "content": 16703,
  "contin": 25647,
  "continental": 30131,
  "contract": 27816,
  "control": 15123,
  "controlled": 12587,
  "cool": 24341,
  "coon": 29592,
  "cop": 27689,
  "cor": 10390,
  "core": 8325,
  "corn": 23776,
  "correct": 30009,
  "cos": 5989,
  "cost": 14847,
  "cosystem": 9972,
  "cot": 19795,
  "cott": 11537,
  "could": 20915,
  "count": 11854,
  "counter": 23126,
  "country": 21380,
  "course": 19854,
  "court": 17541,
  "cover": 8636,
  "covered": 29544,
  "covery": 16114,
  "cow": 7059,
  "cp": 24230,
  "cr": 7734,
  "cracy": 19260,
  "craft": 3726,
  "crat": 12640,
  "cre": 10414,
  "creat": 22979,
  "create": 21523,
  "created": 25323,
  "crib": 9093,
  "cribed": 13256,
  "crime": 23228,
  "cript": 7000,
  "cription": 7959,
  "criptions": 22281,
  "critical": 23528,
  "cro": 21154,
  "croft": 31481,
  "cross": 21655,
  "cry": 15186,
  "cs": 13568,
  "css": 31564,
  "ct": 332,
  "cted": 18954,
  "ctic": 9000,
  "ctica": 23214,
  "ction": 631,
  "ctions": 2833,
  "ctive": 12069,
  "ctor": 2642,
  "ctors": 4558,
  "ctory": 25300,
  "ctr": 9221,
  "ctuary": 29590,
  "cu": 28519,
  "cue": 19284,
  "cul": 3735,
  "cular": 11541,
  "culation": 15623,
  "cule": 21718,
  "cules": 14080,
  "cultural": 26452,
  "culture": 21316,
  "culus": 15698,
  "cup": 28804,
  "cur": 19270,
  "current": 16661,
  "cus": 7761,
  "custom": 30126,
  "cut": 9152,
  "cuts": 23602,
  "cutting": 25118,
  "cy": 971,
  "cycl": 18805,
  "cycle": 29285,
  "cyclop": 25651,
  "cyclopedia": 29213,
  "cz": 27579,
  "cÃ©": 27026,
  "d": 100,
  "da": 7802,
  "daily": 27286,
  "dain": 22855,
  "dale": 12943,
  "dam": 12286,
  "dan": 24345,
  "dar": 26069,
  "dark": 25535,
  "dat": 28538,
  "data": 11810,
  "date": 6059,
  "dated": 8840,
  "dates": 24446,
  "daughter": 27675,
  "day": 743,
  "days": 13820,
  "db": 15024,
  "dc": 30222,
  "dd": 2110,
  "dden": 4952,
  "dding": 30248,
  "de": 3151,
  "dead": 24830,
  "deal": 26969,
  "death": 21958,
  "deb": 16951,
  "dec": 12651,
  "ded": 9378,
  "deen": 31771,
  "deep": 19187,
  "def": 6109,
  "default": 23738,
  "defense": 17737,
  "define": 30491,
  "defined": 25224,
  "degree": 14496,
  "del": 14845,
  "dem": 8393,
  "demand": 24821,
  "den": 5293,
  "dep": 11035,
  "dependent": 22461,
  "depth": 17957,
  "der": 1151,
  "des": 8826,
  "desc": 16406,
  "describ": 26237,
  "described": 28807,
  "description": 29664,
  "design": 26089,
  "designed": 26626,
  "dest": 18033,
  "det": 19538,
  "deter": 21953,
  "dev": 11957,
  "develop": 15611,
  "developed": 28171,
  "df": 11336,
  "di": 12975,
  "dict": 10972,
  "did": 19618,
  "die": 15292,
  "dies": 22368,
  "dig": 13297,
  "digit": 24008,
  "dimensional": 18137,
  "din": 21598,
  "dinand": 31783,
  "ding": 12444,
  "dir": 28024,
  "direct": 13242,
  "directed": 29215,
  "director": 27300,
  "dis": 6409,
  "disc": 14958,
  "display": 14022,
  "displaystyle": 18263,
  "dist": 18474,
  "distance": 29252,
  "dit": 8663,
  "div": 9664,
  "division": 30193,
  "dney": 9041,
  "do": 4709,
  "doc": 21503,
  "document": 27972,
  "does": 21170,
  "dog": 9062,
  "dogs": 21352,
  "doing": 16042,
  "dollar": 17404,
  "dom": 3901,
  "dominated": 26306,
  "don": 9372,
  "done": 29476,
  "door": 9015,
  "doors": 19206,
  "dot": 28932,
  "dou": 24660,
  "double": 27285,
  "down": 2923,
  "download": 27664,
  "dr": 10943,
  "dragon": 27732,
  "draw": 26124,
  "dream": 29525,
  "dri": 8708,
  "drive": 24365,
  "driven": 13456,
  "driving": 18585,
  "dro": 6997,
  "drop": 12689,
  "dropping": 30505,
  "drug": 28256,
  "ds": 10313,
  "du": 655,
  "duc": 6331,
  "duct": 2476,
  "ducted": 20408,
  "duction": 9998,
  "due": 21658,
  "duino": 25905,
  "dule": 5907,
  "dullah": 18985,
  "duty": 23193,
  "dy": 10135,
  "e": 101,
  "ea": 25228,
  "each": 30571,
  "ead": 1324,
  "eah": 4939,
  "eal": 2206,
  "ealous": 16270,
  "eals": 9527,
  "ean": 3905,
  "eanor": 17314,
  "ear": 465,
  "earance": 31136,
  "earch": 4104,
  "earchers": 13269,
  "eared": 3154,
  "earing": 7283,
  "early": 10461,
  "ears": 4454,
  "earth": 18827,
  "eas": 26673,
  "east": 23271,
  "eat": 28602,
  "eating": 26566,
  "eb": 1930,
  "ebus": 25750,
  "ec": 765,
  "eca": 29421,
  "ecause": 3050,
  "ecd": 18468,
  "ech": 2737,
  "eches": 13840,
  "econom": 12540,
  "economic": 15437,
  "ect": 523,
  "ected": 16038,
  "ection": 8665,
  "ective": 9193,
  "ector": 14050,
  "ects": 11563,
  "ecut": 8246,
  "ecutive": 9025,
  "ed": 275,
  "edIn": 16610,
  "eda": 22378,
  "edd": 5808,
  "eddy": 22635,
  "ede": 16496,
  "eded": 12812,
  "eder": 5355,
  "ederal": 1810,
  "ederation": 9261,
  "edge": 14794,
  "edia": 5629,
  "edience": 22060,
  "edin": 20266,
  "eding": 8773,
  "edition": 28834,
  "edo": 25815,
  "eds": 5606,
  "edu": 20585,
  "educ": 15953,
  "educated": 21905,
  "edy": 6190,
  "ee": 1756,
  "eed": 2935,
  "eeks": 26800,
  "een": 10015,
  "eer": 28084,
  "ees": 2879,
  "ef": 979,
  "efe": 17925,
  "efeated": 29084,
  "eff": 3221,
  "effect": 27907,
  "effective": 26291,
  "efficient": 21885,
  "efined": 22445,
  "efully": 6538,
  "eg": 21792,
  "ei": 18970,
  "eight": 24433,
  "either": 31727,
  "ek": 926,
  "eking": 18303,
  "eks": 2329,
  "el": 429,
  "ela": 9278,
  "elaide": 19128,
  "eland": 8419,
  "elcome": 11939,
  "ele": 9570,
  "elect": 7863,
  "elected": 20687,
  "election": 10547,
  "electric": 25273,
  "eled": 17336,
  "eler": 16246,
  "eless": 5119,
  "elf": 14560,
  "elia": 30127,
  "eligible": 29179,
  "elin": 24901,
  "eline": 4351,
  "elines": 17858,
  "eling": 10365,
  "ell": 967,
  "ella": 14428,
  "ellar": 14442,
  "ellation": 26048,
  "elle": 10962,
  "elled": 17835,
  "eller": 11853,
  "elli": 25817,
  "elling": 15687,
  "ello": 11664,
  "ellow": 5971,
  "elly": 5839,
  "elman": 26788,
  "elo": 23385,
  "elong": 17860,
  "els": 1535,
  "elsen": 21267,
  "elsh": 17081,
  "elsius": 28142,
  "elson": 9404,
  "elt": 2100,
  "elta": 13304,
  "elve": 10703,
  "em": 433,
  "ema": 21402,
  "emade": 21450,
  "email": 15055,
  "emaker": 30995,
  "emale": 15663,
  "eman": 8040,
  "emb": 25844,
  "embed": 31895,
  "ember": 2583,
  "emed": 9292,
  "emen": 7424,
  "emer": 21740,
  "emet": 16836,
  "emetery": 17062,
  "emic": 10036,
  "emies": 30788,
  "emin": 11998,
  "eming": 28508,
  "emit": 11795,
  "emon": 23534,
  "employ": 5843,
  "employment": 28424,
  "empt": 17613,
  "emption": 19457,
  "ems": 7821,
  "emy": 21734,
  "en": 268,
  "ena": 6514,
  "enable": 30023,
  "enabled": 26648,
  "ename": 23025,
  "enary": 23333,
  "enas": 29146,
  "enberg": 20527,
  "enburg": 31177,
  "enc": 13280,
  "ence": 584,
  "enced": 5281,
  "encer": 12048,
  "ences": 2964,
  "ench": 25468,
  "encia": 22443,
  "encies": 3742,
  "encing": 8995,
  "ency": 1337,
  "end": 396,
  "enda": 6032,
  "endant": 28315,
  "endar": 10317,
  "endas": 28234,
  "ended": 1718,
  "ender": 2254,
  "endered": 26483,
  "enders": 7060,
  "endez": 30339,
  "ending": 1494,
  "endment": 5400,
  "endo": 28594,
  "endof": 702,
  "endoftext": 703,
  "endon": 31518,
  "endor": 29553,
  "ends": 2585,
  "ene": 1693,
  "ened": 2914,
  "ener": 911,
  "eneration": 18513,
  "energy": 18600,
  "enery": 26287,
  "enes": 18833,
  "eness": 10216,
  "enez": 9231,
  "enezuel": 10070,
  "enf": 24156,
  "enfranch": 29979,
  "eng": 1608,
  "enge": 3347,
  "engeance": 26397,
  "enger": 6124,
  "engers": 8092,
  "engine": 18603,
  "ength": 3955,
  "engu": 13833,
  "enh": 23571,
  "ening": 2998,
  "enko": 25649,
  "enly": 17396,
  "enment": 21592,
  "enn": 1726,
  "enna": 12990,
  "enne": 28526,
  "ennial": 24691,
  "ennis": 9208,
  "enny": 8164,
  "eno": 25661,
  "enos": 25736,
  "ens": 642,
  "ense": 1074,
  "ensed": 17133,
  "ensen": 16760,
  "enses": 4888,
  "ensible": 27563,
  "ensing": 26603,
  "ension": 3239,
  "ensions": 5668,
  "ensitive": 18798,
  "ensity": 6780,
  "ensive": 1815,
  "enson": 16251,
  "ensor": 29073,
  "ensual": 28164,
  "ensus": 6548,
  "ent": 299,
  "ental": 10178,
  "ente": 20521,
  "ented": 4220,
  "enter": 9429,
  "enth": 7844,
  "enthal": 29368,
  "ential": 1725,
  "entially": 3224,
  "entials": 14340,
  "entin": 30831,
  "enting": 29990,
  "ention": 1161,
  "entions": 14884,
  "ently": 2183,
  "enton": 23636,
  "entric": 21122,
  "entry": 18219,
  "ents": 755,
  "enture": 6028,
  "enty": 3660,
  "env": 31124,
  "eny": 31856,
  "enz": 17072,
  "enza": 22673,
  "enzie": 22139,
  "eon": 24171,
  "eor": 12872,
  "ep": 513,
  "epend": 2419,
  "ependence": 14041,
  "ependent": 7874,
  "epernick": 22518,
  "eping": 7165,
  "eprint": 18572,
  "eps": 26275,
  "ept": 7395,
  "eption": 22812,
  "equ": 4634,
  "er": 263,
  "era": 7567,
  "eral": 1539,
  "erala": 27252,
  "erald": 11255,
  "erals": 16112,
  "erate": 27209,
  "erc": 3291,
  "ercise": 27606,
  "ere": 657,
  "ered": 1144,
  "eree": 18113,
  "erek": 15879,
  "erem": 29719,
  "eremy": 9749,
  "eren": 16725,
  "erence": 1932,
  "erences": 4932,
  "erent": 9791,
  "erential": 29371,
  "erer": 13371,
  "erers": 18776,
  "erg": 9149,
  "ergy": 29755,
  "eria": 9787,
  "erie": 18524,
  "eries": 8876,
  "ering": 1345,
  "erion": 29365,
  "erk": 20516,
  "erm": 20515,
  "erman": 1957,
  "ern": 1536,
  "ername": 20216,
  "ernand": 11009,
  "ernandez": 15333,
  "ernel": 11789,
  "erness": 17624,
  "ernick": 21694,
  "erno": 31340,
  "ero": 3736,
  "eroids": 30182,
  "eros": 26789,
  "erous": 5096,
  "err": 11594,
  "error": 26959,
  "erry": 3796,
  "ers": 360,
  "ersion": 12045,
  "erson": 914,
  "ert": 2004,
  "ertain": 1459,
  "ertainly": 16194,
  "erted": 8861,
  "erting": 15516,
  "erts": 9294,
  "erv": 1263,
  "ervation": 14007,
  "ervative": 17605,
  "ervatives": 28925,
  "erve": 3621,
  "erved": 5749,
  "erves": 6470,
  "erving": 12464,
  "ery": 2268,
  "es": 276,
  "esame": 30877,
  "esar": 18651,
  "esc": 6599,
  "escope": 16072,
  "ese": 2836,
  "esh": 8721,
  "esides": 12037,
  "esis": 13241,
  "esity": 13927,
  "esome": 6099,
  "eson": 31571,
  "especially": 15235,
  "esque": 23382,
  "ess": 413,
  "essa": 21266,
  "essage": 17445,
  "esse": 29320,
  "essed": 7388,
  "essee": 9523,
  "essential": 27409,
  "essim": 23533,
  "ession": 2974,
  "essional": 13501,
  "essions": 5611,
  "essler": 27916,
  "essment": 24129,
  "essor": 5979,
  "essors": 19916,
  "est": 384,
  "esta": 16133,
  "established": 23625,
  "estation": 31072,
  "este": 17011,
  "ested": 10213,
  "esteem": 28303,
  "ester": 8268,
  "estern": 2961,
  "esters": 5781,
  "estial": 28589,
  "estic": 4212,
  "estinal": 25089,
  "estine": 20118,
  "estival": 5800,
  "eston": 17114,
  "estone": 12766,
  "estones": 28724,
  "ests": 2725,
  "esty": 8929,
  "estyle": 10236,
  "esville": 17152,
  "esy": 7434,
  "et": 322,
  "eta": 16794,
  "etary": 7630,
  "etc": 20270,
  "ete": 15193,
  "eted": 20176,
  "eteen": 30791,
  "eteenth": 24874,
  "eter": 2624,
  "etermined": 28367,
  "eters": 8979,
  "eth": 3165,
  "ethe": 9612,
  "etheless": 10929,
  "ether": 6842,
  "ethical": 26677,
  "ethyl": 30397,
  "etic": 5505,
  "etics": 22931,
  "eties": 25822,
  "etime": 7825,
  "eting": 13979,
  "etition": 16101,
  "etitive": 20453,
  "eto": 30795,
  "eton": 16681,
  "etooth": 17419,
  "etr": 22840,
  "etro": 3732,
  "etroit": 6419,
  "ets": 1062,
  "etsk": 24918,
  "ett": 3404,
  "etta": 14110,
  "ette": 5779,
  "ettes": 23244,
  "etti": 21496,
  "ettings": 20540,
  "etts": 7938,
  "etty": 4283,
  "etus": 26030,
  "ety": 2874,
  "etz": 18993,
  "eu": 12894,
  "eur": 20655,
  "ev": 2049,
  "eval": 19646,
  "even": 9748,
  "event": 20421,
  "ever": 992,
  "everal": 7496,
  "every": 15558,
  "evil": 24000,
  "evin": 5914,
  "ew": 562,
  "eway": 17731,
  "eworthy": 22834,
  "ews": 16530,
  "ex": 1130,
  "example": 28731,
  "exc": 27348,
  "except": 19625,
  "exe": 24684,
  "existent": 28875,
  "existing": 22764,
  "exp": 14817,
  "exper": 21698,
  "expl": 21676,
  "ext": 10646,
  "extreme": 23282,
  "extremely": 30988,
  "ey": 4905,
  "eye": 27408,
  "eyed": 18226,
  "ez": 7526,
  "f": 102,
  "fa": 18811,
  "face": 2939,
  "facebook": 22153,
  "faced": 22273,
  "facing": 25155,
  "fact": 20173,
  "fair": 18541,
  "fake": 26153,
  "fall": 7676,
  "falls": 20862,
  "false": 20936,
  "family": 18649,
  "fan": 16667,
  "far": 15188,
  "fare": 8216,
  "fashion": 22262,
  "fashioned": 24229,
  "fast": 7203,
  "fat": 23945,
  "father": 10596,
  "fax": 19517,
  "fc": 29401,
  "fd": 29242,
  "fe": 5205,
  "fect": 2538,
  "fed": 23551,
  "feed": 15125,
  "feeding": 25489,
  "feld": 13707,
  "fell": 23542,
  "felt": 28063,
  "female": 28736,
  "femin": 30044,
  "fer": 2579,
  "ference": 4614,
  "fest": 24347,
  "fet": 27350,
  "few": 27403,
  "ff": 497,
  "ffield": 24296,
  "ffiti": 20544,
  "fi": 12199,
  "fiction": 22036,
  "field": 3058,
  "fields": 28226,
  "fif": 29116,
  "fig": 22791,
  "fight": 21091,
  "fighting": 25614,
  "figure": 24882,
  "fil": 13869,
  "file": 12242,
  "files": 26685,
  "fill": 21653,
  "filled": 18332,
  "film": 25606,
  "fin": 15652,
  "final": 18139,
  "finals": 23413,
  "find": 25285,
  "finder": 29369,
  "fing": 31681,
  "fire": 6961,
  "fired": 20984,
  "fires": 22560,
  "first": 11347,
  "fish": 11337,
  "fit": 10431,
  "fits": 19194,
  "fitting": 29972,
  "five": 13171,
  "fix": 17486,
  "fl": 3120,
  "flation": 28618,
  "flies": 28549,
  "flight": 19957,
  "flix": 8740,
  "float": 26457,
  "floor": 26755,
  "flow": 12092,
  "flower": 28916,
  "flu": 16541,
  "fly": 13522,
  "focused": 21802,
  "fol": 9244,
  "fold": 13623,
  "folk": 20561,
  "follow": 27804,
  "font": 26678,
  "foo": 29410,
  "food": 19293,
  "foot": 6668,
  "for": 1644,
  "force": 2986,
  "forcement": 12964,
  "ford": 3464,
  "fore": 779,
  "forest": 30259,
  "forestation": 31186,
  "fork": 31903,
  "form": 717,
  "formance": 11905,
  "format": 29203,
  "formation": 4825,
  "formed": 12225,
  "former": 11588,
  "formerly": 31949,
  "formers": 25960,
  "forming": 14612,
  "forms": 27832,
  "fort": 3391,
  "forth": 24685,
  "fortunately": 6284,
  "forward": 11132,
  "found": 8167,
  "founded": 23204,
  "founder": 12742,
  "four": 14086,
  "fox": 12899,
  "fr": 9847,
  "frac": 21650,
  "frame": 15261,
  "fre": 28149,
  "free": 5784,
  "frey": 31042,
  "fried": 29629,
  "friend": 6559,
  "friendly": 11349,
  "from": 7614,
  "front": 7706,
  "fs": 12713,
  "ft": 729,
  "ften": 14449,
  "fter": 619,
  "ftime": 26581,
  "fu": 27876,
  "fuel": 25903,
  "ful": 921,
  "full": 15732,
  "fully": 2835,
  "fulness": 15651,
  "fun": 18639,
  "function": 10737,
  "fund": 9102,
  "funded": 14037,
  "funding": 20038,
  "furt": 24657,
  "fy": 26429,
  "g": 103,
  "ga": 4694,
  "gaard": 28894,
  "gae": 21481,
  "gage": 21382,
  "gal": 10469,
  "galitarian": 31577,
  "gall": 23726,
  "gam": 25481,
  "game": 6477,
  "games": 27955,
  "gan": 946,
  "gang": 26212,
  "gar": 4969,
  "gard": 23879,
  "gars": 26104,
  "gary": 12175,
  "gas": 6529,
  "gate": 10637,
  "gay": 18129,
  "ge": 480,
  "geant": 25929,
  "gebra": 29513,
  "ged": 1936,
  "gel": 14070,
  "gem": 19378,
  "gen": 4199,
  "gence": 11700,
  "gencies": 30892,
  "gency": 4591,
  "gender": 6920,
  "gener": 8089,
  "general": 22223,
  "generated": 28406,
  "generation": 15799,
  "gent": 6161,
  "gently": 28993,
  "geon": 8637,
  "geoning": 26280,
  "geons": 31311,
  "ger": 1397,
  "gerald": 22128,
  "gered": 9789,
  "geries": 25141,
  "gering": 23134,
  "gers": 4899,
  "gery": 6853,
  "ges": 3091,
  "gest": 2980,
  "get": 1140,
  "gether": 1900,
  "getown": 23925,
  "gets": 10462,
  "gg": 1014,
  "gged": 10917,
  "gger": 20289,
  "ggest": 1773,
  "ggie": 20139,
  "gging": 17563,
  "ggle": 15890,
  "ggles": 31684,
  "ggy": 18602,
  "gh": 462,
  "ghai": 16615,
  "ghan": 4471,
  "ghazi": 16780,
  "gi": 13313,
  "gia": 6049,
  "gian": 13067,
  "gic": 24498,
  "gie": 20193,
  "giene": 27540,
  "gin": 1623,
  "ging": 2716,
  "gio": 22054,
  "girl": 17578,
  "git": 24511,
  "github": 22984,
  "give": 30135,
  "given": 31718,
  "giving": 13167,
  "gl": 5435,
  "glas": 12662,
  "glass": 21814,
  "global": 23407,
  "glomer": 28184,
  "gly": 10955,
  "gmail": 19118,
  "gment": 5578,
  "gments": 12096,
  "gn": 5113,
  "go": 2132,
  "goal": 27846,
  "goers": 24139,
  "going": 4574,
  "gold": 25283,
  "gom": 16237,
  "gomery": 16852,
  "gon": 16821,
  "gone": 18835,
  "good": 10927,
  "google": 24118,
  "gor": 6716,
  "gorith": 7390,
  "got": 24414,
  "gotten": 28287,
  "gov": 11263,
  "government": 11690,
  "governmental": 27049,
  "gow": 17579,
  "gr": 894,
  "grad": 10661,
  "gradation": 24764,
  "grade": 10110,
  "gram": 1250,
  "grand": 22256,
  "graph": 10457,
  "grass": 29055,
  "grat": 16750,
  "grav": 15901,
  "gre": 31523,
  "great": 16369,
  "gree": 13041,
  "green": 15057,
  "greg": 6366,
  "gregated": 25109,
  "gregation": 12863,
  "gren": 27884,
  "gress": 1788,
  "gression": 29872,
  "gressive": 22970,
  "grid": 27894,
  "gro": 14055,
  "ground": 2981,
  "group": 12154,
  "groups": 29973,
  "growing": 19800,
  "grown": 18384,
  "growth": 26076,
  "gs": 15560,
  "gt": 12744,
  "gu": 4685,
  "guard": 12543,
  "guards": 20220,
  "gue": 17037,
  "guided": 19626,
  "gun": 7748,
  "gus": 10157,
  "guy": 23114,
  "guyen": 31294,
  "gy": 1290,
  "gypt": 5017,
  "h": 104,
  "ha": 3245,
  "hab": 5674,
  "habi": 27615,
  "had": 16922,
  "hagen": 21376,
  "haired": 28937,
  "hal": 14360,
  "half": 12248,
  "hall": 18769,
  "ham": 2597,
  "hammad": 13318,
  "hammer": 27438,
  "han": 8857,
  "hand": 5358,
  "handed": 12171,
  "hang": 30994,
  "hani": 29683,
  "happy": 31945,
  "haps": 2559,
  "har": 9469,
  "hard": 9817,
  "hardt": 23197,
  "harm": 28118,
  "hart": 17369,
  "has": 10339,
  "hash": 22106,
  "hat": 17408,
  "hate": 31049,
  "hatt": 9667,
  "hattan": 10477,
  "haul": 13249,
  "haus": 25779,
  "have": 13305,
  "haw": 18188,
  "hawks": 23216,
  "he": 258,
  "hea": 24121,
  "head": 2235,
  "headed": 14739,
  "heading": 30178,
  "heads": 15906,
  "health": 12579,
  "healthy": 20575,
  "heard": 21205,
  "heart": 17659,
  "hearted": 18107,
  "heast": 8199,
  "heastern": 15524,
  "heat": 30290,
  "heavy": 21915,
  "hed": 708,
  "hedral": 19189,
  "hedul": 5002,
  "hee": 20636,
  "heed": 19826,
  "heid": 21057,
  "height": 26200,
  "heim": 8969,
  "heimer": 14504,
  "heit": 26727,
  "hel": 2768,
  "held": 9345,
  "hell": 16717,
  "hello": 31324,
  "help": 14445,
  "helps": 29647,
  "helsea": 8884,
  "hem": 4674,
  "hement": 28939,
  "hemy": 31662,
  "hen": 862,
  "hend": 15748,
  "hene": 23875,
  "henko": 22149,
  "hens": 4975,
  "hensive": 28985,
  "hent": 7538,
  "her": 366,
  "here": 1468,
  "hered": 5643,
  "herence": 22316,
  "herent": 7661,
  "heres": 19321,
  "heric": 13301,
  "hern": 2628,
  "hero": 10601,
  "hers": 1911,
  "herty": 23732,
  "hes": 1018,
  "hesda": 30154,
  "hesis": 8915,
  "hest": 3472,
  "hester": 18026,
  "het": 3177,
  "hetamine": 25836,
  "hetic": 6441,
  "hetical": 18266,
  "hetically": 28503,
  "hetics": 23031,
  "hett": 15542,
  "hetti": 31454,
  "hetto": 31633,
  "hew": 13971,
  "hey": 17118,
  "hh": 22446,
  "hi": 5115,
  "hib": 3320,
  "hibition": 23142,
  "hift": 24637,
  "hig": 21702,
  "high": 8971,
  "highest": 28304,
  "hill": 12180,
  "hin": 26166,
  "hing": 676,
  "hip": 1013,
  "hips": 6448,
  "hire": 10624,
  "his": 14075,
  "hist": 10480,
  "historic": 27497,
  "history": 31938,
  "hit": 18946,
  "hl": 20464,
  "hm": 23711,
  "hma": 23574,
  "hn": 20330,
  "hner": 14424,
  "ho": 8472,
  "hod": 2456,
  "hof": 29299,
  "hol": 12482,
  "hold": 3042,
  "holder": 14777,
  "holders": 9599,
  "hole": 14444,
  "holes": 25097,
  "holm": 19263,
  "hom": 29471,
  "home": 13521,
  "hon": 23535,
  "hood": 2646,
  "hop": 8958,
  "hops": 20877,
  "hor": 16957,
  "horn": 29136,
  "horse": 27914,
  "host": 5829,
  "hot": 8633,
  "hots": 15826,
  "hou": 22342,
  "hour": 8446,
  "hours": 30889,
  "house": 4506,
  "houses": 18857,
  "hov": 31745,
  "how": 4670,
  "hower": 26411,
  "hp": 28671,
  "hr": 11036,
  "ht": 5535,
  "htaking": 29082,
  "htm": 27873,
  "html": 9447,
  "http": 5616,
  "https": 8111,
  "hu": 16918,
  "hua": 27337,
  "hum": 15568,
  "human": 10436,
  "hun": 22620,
  "hurst": 28862,
  "hus": 6671,
  "hy": 8171,
  "hyd": 24246,
  "hydro": 31392,
  "i": 105,
  "ia": 529,
  "iability": 8625,
  "iable": 3791,
  "iably": 16561,
  "iac": 9942,
  "iago": 24033,
  "iah": 11596,
  "iak": 26323,
  "ial": 494,
  "ially": 1729,
  "ials": 10465,
  "iam": 3053,
  "iami": 6645,
  "iams": 5199,
  "ian": 648,
  "iana": 7306,
  "iance": 3854,
  "iances": 15251,
  "iang": 13918,
  "iani": 19720,
  "iann": 27813,
  "iano": 9209,
  "ians": 1408,
  "iant": 3097,
  "iao": 20490,
  "iar": 11412,
  "iary": 12546,
  "ias": 5342,
  "iasm": 13601,
  "iat": 6158,
  "iate": 9023,
  "iated": 11640,
  "iates": 30110,
  "iating": 23676,
  "iation": 4286,
  "iatric": 18127,
  "iatus": 28812,
  "iaz": 16585,
  "ib": 587,
  "iba": 24839,
  "ibal": 19057,
  "iban": 10239,
  "iband": 25952,
  "ibe": 25348,
  "iber": 1826,
  "iberal": 16682,
  "ibi": 26322,
  "ibilities": 7504,
  "ibility": 2228,
  "ibl": 10606,
  "ible": 897,
  "ibles": 16991,
  "ibli": 26472,
  "iblical": 16078,
  "ibling": 29049,
  "iblings": 17819,
  "ibly": 3007,
  "ibo": 24428,
  "ibr": 3260,
  "ibrary": 4663,
  "ibus": 30233,
  "ic": 293,
  "ica": 4083,
  "icable": 19698,
  "icago": 3927,
  "ical": 593,
  "ically": 1128,
  "icals": 27189,
  "ican": 6351,
  "icans": 19285,
  "icate": 7687,
  "icated": 3438,
  "icates": 19958,
  "icating": 15924,
  "ication": 4928,
  "ications": 4826,
  "ice": 499,
  "iced": 3865,
  "icer": 7230,
  "icers": 14768,
  "ices": 1101,
  "icester": 20166,
  "ich": 484,
  "iche": 15003,
  "ichever": 24828,
  "ichi": 23063,
  "ichick": 31316,
  "icht": 17983,
  "ici": 4686,
  "icia": 30010,
  "icial": 4227,
  "icially": 24005,
  "icials": 13019,
  "ician": 6301,
  "icians": 4281,
  "iciaries": 25957,
  "iciary": 12597,
  "icidal": 21705,
  "icide": 4988,
  "icides": 16012,
  "iciency": 6731,
  "icient": 3513,
  "icing": 6061,
  "icio": 31987,
  "icious": 6312,
  "icip": 4352,
  "icism": 9466,
  "icit": 3926,
  "icity": 8763,
  "ick": 660,
  "icked": 11034,
  "icken": 7093,
  "icker": 19432,
  "ickers": 20352,
  "icket": 8438,
  "ickets": 14926,
  "icking": 8321,
  "icks": 3324,
  "icky": 20221,
  "icle": 1627,
  "icles": 3092,
  "ico": 3220,
  "icon": 4834,
  "icro": 2541,
  "icrosoft": 4275,
  "ics": 882,
  "ict": 707,
  "icted": 5156,
  "icter": 28488,
  "iction": 2955,
  "ictionary": 16124,
  "ictions": 8492,
  "icts": 12561,
  "icular": 22772,
  "icularly": 19670,
  "icult": 2090,
  "icultural": 22014,
  "icus": 22381,
  "icut": 12530,
  "icy": 4682,
  "icz": 24556,
  "id": 310,
  "ida": 3384,
  "idable": 21374,
  "idad": 22385,
  "idal": 11224,
  "idan": 28277,
  "idant": 30621,
  "idas": 24038,
  "idate": 21535,
  "idation": 29605,
  "idav": 19488,
  "iday": 2225,
  "idays": 13292,
  "idd": 1649,
  "idden": 5269,
  "idding": 12427,
  "iddle": 2328,
  "iddled": 30165,
  "iddles": 28335,
  "iddy": 31490,
  "ide": 490,
  "ided": 1387,
  "idel": 5737,
  "idelines": 7670,
  "idelity": 22805,
  "iden": 11179,
  "idence": 1676,
  "idency": 7448,
  "ident": 661,
  "idental": 31254,
  "identally": 20729,
  "identified": 16540,
  "idents": 3033,
  "ideo": 6298,
  "ideos": 15969,
  "idepress": 25819,
  "ider": 1514,
  "idered": 3015,
  "idering": 5042,
  "iders": 3908,
  "ides": 1511,
  "idespread": 7935,
  "idge": 3170,
  "idges": 14359,
  "idi": 18098,
  "idian": 25690,
  "iding": 2490,
  "idious": 29866,
  "idis": 25001,
  "idity": 17157,
  "ido": 15113,
  "ids": 2062,
  "idy": 18632,
  "ie": 448,
  "iece": 9077,
  "ied": 829,
  "ief": 1909,
  "ieg": 27302,
  "iegel": 29834,
  "iel": 8035,
  "ield": 1225,
  "ielding": 31678,
  "iem": 29881,
  "ien": 2009,
  "ience": 1192,
  "ienced": 24502,
  "iences": 8688,
  "iencies": 20478,
  "iens": 10587,
  "ient": 1235,
  "ients": 2547,
  "ier": 1218,
  "ierce": 9536,
  "iere": 11149,
  "ieri": 24098,
  "ierra": 14788,
  "ierre": 12005,
  "iers": 3258,
  "iership": 29204,
  "ies": 440,
  "iesel": 28064,
  "iest": 6186,
  "iet": 1160,
  "ietal": 18883,
  "ieth": 18314,
  "ieties": 8892,
  "iets": 25548,
  "iety": 1846,
  "ieu": 20340,
  "iev": 9657,
  "ieval": 14525,
  "ieve": 16360,
  "ieves": 18845,
  "iew": 816,
  "if": 367,
  "ifa": 18979,
  "ifax": 21983,
  "ife": 907,
  "ifer": 7376,
  "ifest": 8291,
  "iff": 737,
  "iffany": 31744,
  "iffe": 19386,
  "ifference": 25910,
  "ifferent": 12904,
  "iffs": 9652,
  "ifi": 25566,
  "ifiable": 16318,
  "ific": 856,
  "ificant": 16337,
  "ification": 3059,
  "ifications": 7355,
  "ificent": 21648,
  "ificial": 29455,
  "ified": 1549,
  "ifier": 10970,
  "ifiers": 16342,
  "ifies": 7718,
  "ifle": 19054,
  "iform": 7070,
  "ift": 2362,
  "ifted": 20458,
  "ifting": 13691,
  "ifts": 23529,
  "ifty": 23911,
  "iful": 4437,
  "ifully": 16309,
  "ify": 2083,
  "ifying": 3989,
  "ig": 328,
  "iga": 14590,
  "igan": 4884,
  "igans": 31336,
  "igate": 9751,
  "igated": 23795,
  "igating": 25863,
  "igation": 7104,
  "igator": 26192,
  "igators": 21572,
  "ige": 11601,
  "igel": 18806,
  "igen": 7907,
  "igenous": 9857,
  "iger": 6579,
  "igers": 12896,
  "igg": 6999,
  "igger": 22212,
  "iggins": 18974,
  "iggle": 26265,
  "iggs": 17365,
  "igh": 394,
  "ighed": 12874,
  "ight": 436,
  "ighte": 15849,
  "ighteen": 25636,
  "ighteous": 18768,
  "ighter": 4967,
  "ighters": 5556,
  "ighth": 10269,
  "ighting": 11730,
  "ights": 2962,
  "ighty": 20078,
  "igi": 29610,
  "igible": 26283,
  "igion": 17264,
  "igious": 9627,
  "igma": 13164,
  "ign": 553,
  "ignant": 23342,
  "igned": 4123,
  "ignment": 20283,
  "ignt": 13908,
  "ignty": 14098,
  "igo": 18388,
  "igr": 3157,
  "igrant": 8225,
  "igrants": 4704,
  "igrated": 30513,
  "igration": 3671,
  "igs": 16665,
  "igue": 16481,
  "igure": 6927,
  "ih": 4623,
  "ihad": 8311,
  "ihar": 28650,
  "ihil": 22586,
  "ii": 6977,
  "iii": 29072,
  "ij": 2548,
  "ija": 30564,
  "iji": 23411,
  "ijing": 8775,
  "ijuana": 4052,
  "ik": 1251,
  "ika": 9658,
  "ike": 508,
  "iked": 22510,
  "iker": 18159,
  "ikers": 22948,
  "ikes": 8202,
  "ikh": 10551,
  "ikhail": 31752,
  "iki": 9579,
  "iking": 14206,
  "iko": 17635,
  "il": 350,
  "ila": 8948,
  "ilant": 31901,
  "ilar": 1910,
  "ilarly": 7290,
  "ilated": 30153,
  "ilater": 30136,
  "ilateral": 12676,
  "ilaterally": 30747,
  "ilation": 11176,
  "ild": 695,
  "ilda": 28645,
  "ile": 583,
  "ileaks": 20910,
  "iled": 3969,
  "ilem": 18434,
  "iler": 7707,
  "ilers": 18173,
  "iles": 3440,
  "iley": 9017,
  "ili": 2323,
  "ilia": 17004,
  "ilian": 31753,
  "iliar": 4509,
  "iliary": 31654,
  "iliated": 26337,
  "iliation": 13899,
  "ilib": 21987,
  "ilibrium": 24178,
  "ilies": 3525,
  "ilight": 17834,
  "iling": 4604,
  "ilingual": 31525,
  "ilion": 26868,
  "ilipp": 7828,
  "ilit": 5916,
  "ilitary": 15965,
  "ilitating": 29970,
  "ilitation": 17701,
  "ilities": 2542,
  "ility": 919,
  "ill": 355,
  "illa": 5163,
  "illance": 6122,
  "illard": 27853,
  "illas": 22623,
  "ille": 3159,
  "illed": 3240,
  "iller": 4550,
  "illery": 14023,
  "illes": 20241,
  "illian": 31865,
  "illing": 4280,
  "illion": 955,
  "illions": 22685,
  "illo": 13759,
  "illon": 20624,
  "ills": 2644,
  "illusion": 29063,
  "illy": 6092,
  "ilo": 28960,
  "ilogy": 18433,
  "ilot": 23924,
  "ils": 5054,
  "ilst": 11454,
  "ilt": 2224,
  "ilton": 7750,
  "ilty": 5905,
  "ily": 810,
  "im": 321,
  "ima": 7613,
  "imag": 20080,
  "image": 13338,
  "images": 25764,
  "imagin": 30347,
  "imal": 5094,
  "iman": 22444,
  "imate": 1742,
  "imated": 15546,
  "imately": 3110,
  "imates": 27295,
  "imation": 21769,
  "imb": 4954,
  "imbabwe": 19872,
  "ime": 524,
  "imedia": 18643,
  "imen": 19582,
  "imens": 12590,
  "imensional": 16586,
  "iment": 2941,
  "imental": 16952,
  "iments": 6726,
  "imer": 19031,
  "imes": 964,
  "imet": 27257,
  "imeter": 15868,
  "imeters": 30025,
  "img": 17324,
  "imi": 25754,
  "imin": 3142,
  "iminal": 3396,
  "imination": 18635,
  "imir": 10971,
  "imity": 17733,
  "imize": 10518,
  "imm": 8257,
  "immer": 10750,
  "immers": 31236,
  "imming": 26711,
  "imo": 22830,
  "imon": 25433,
  "imore": 7984,
  "imp": 7315,
  "import": 15216,
  "important": 21543,
  "imposed": 30062,
  "impro": 30396,
  "imps": 25594,
  "impse": 16456,
  "ims": 12253,
  "imson": 25241,
  "imum": 3519,
  "in": 259,
  "ina": 1343,
  "inal": 1352,
  "inally": 3266,
  "inals": 9417,
  "inance": 13381,
  "inary": 3368,
  "inas": 21919,
  "inate": 14459,
  "inated": 3873,
  "inating": 9182,
  "ination": 1904,
  "inational": 20794,
  "inations": 7222,
  "inav": 23972,
  "inburgh": 18873,
  "inc": 1804,
  "ince": 886,
  "inch": 8729,
  "incial": 11474,
  "incinn": 12691,
  "incinnati": 12779,
  "include": 27133,
  "including": 8424,
  "incoln": 10354,
  "income": 10691,
  "incre": 22891,
  "inct": 4562,
  "inction": 8943,
  "inctions": 28605,
  "ind": 537,
  "inda": 20158,
  "indal": 31299,
  "independent": 31489,
  "inder": 7678,
  "inders": 29134,
  "index": 16106,
  "inding": 7373,
  "induced": 19097,
  "indust": 18959,
  "industrial": 24394,
  "ine": 512,
  "inea": 18539,
  "ined": 1381,
  "inel": 19945,
  "inem": 6499,
  "inement": 19397,
  "inence": 29775,
  "inent": 5426,
  "inental": 18672,
  "iner": 7122,
  "iners": 18241,
  "inery": 14644,
  "ines": 1102,
  "inese": 3249,
  "iness": 1215,
  "inez": 15402,
  "inf": 8799,
  "infect": 30349,
  "inflamm": 31670,
  "info": 15659,
  "information": 15726,
  "informed": 28808,
  "ing": 278,
  "inge": 10763,
  "inged": 29703,
  "ingen": 29442,
  "inger": 4040,
  "inges": 23803,
  "ingham": 19896,
  "inging": 13104,
  "ingle": 17148,
  "ingly": 4115,
  "ingo": 28644,
  "ingrich": 17568,
  "ings": 656,
  "ington": 9168,
  "ingu": 6867,
  "inho": 15423,
  "ini": 5471,
  "inian": 19249,
  "ining": 3180,
  "inion": 24443,
  "inis": 15555,
  "inished": 29909,
  "init": 26015,
  "inite": 11244,
  "initely": 12466,
  "inition": 25853,
  "inity": 7309,
  "ink": 670,
  "inke": 30487,
  "inker": 26510,
  "inking": 7767,
  "inkle": 20274,
  "inks": 3072,
  "inn": 3820,
  "innamon": 24403,
  "inner": 17820,
  "inness": 24271,
  "ino": 2813,
  "inoids": 30687,
  "inois": 8222,
  "inos": 14124,
  "inous": 26936,
  "input": 25309,
  "inqu": 20132,
  "ins": 1069,
  "inski": 19029,
  "insky": 20106,
  "inson": 6928,
  "inspired": 20211,
  "inst": 10991,
  "install": 26894,
  "instein": 10111,
  "insula": 14281,
  "int": 615,
  "intage": 15729,
  "inte": 5368,
  "integr": 18766,
  "intelligence": 26637,
  "intend": 7073,
  "intendent": 18797,
  "intendo": 8490,
  "intensive": 30665,
  "inter": 4799,
  "interest": 7972,
  "interested": 29943,
  "intern": 26503,
  "inters": 20529,
  "inth": 22379,
  "into": 19861,
  "inton": 1943,
  "introdu": 25884,
  "inv": 19239,
  "invest": 21054,
  "iny": 3818,
  "inyl": 19681,
  "io": 994,
  "iod": 2287,
  "iol": 1582,
  "iola": 23842,
  "iolet": 22189,
  "iological": 16229,
  "iologist": 25349,
  "iology": 13868,
  "ion": 297,
  "iona": 31973,
  "ionage": 19655,
  "ional": 1555,
  "ionally": 5921,
  "ione": 8272,
  "ioned": 14129,
  "ions": 505,
  "iop": 14204,
  "ior": 1472,
  "iors": 11776,
  "ios": 4532,
  "iosity": 13708,
  "iot": 5272,
  "iotic": 27864,
  "iots": 13612,
  "iott": 18158,
  "ious": 692,
  "iously": 1689,
  "iov": 20053,
  "iovascular": 23402,
  "iox": 11496,
  "ioxide": 13705,
  "ip": 560,
  "ipal": 23889,
  "ipe": 4316,
  "ipedia": 10632,
  "ipeg": 17213,
  "iper": 13380,
  "ipers": 28669,
  "ipes": 24451,
  "iph": 13593,
  "iphate": 27788,
  "ipher": 12219,
  "ipl": 6788,
  "iple": 2602,
  "iples": 31303,
  "ipment": 30215,
  "ipp": 4598,
  "ipped": 4467,
  "ipper": 29993,
  "ippers": 26726,
  "ippi": 11072,
  "ipping": 5462,
  "ipple": 20002,
  "ips": 2719,
  "ipse": 16245,
  "iqu": 1637,
  "ique": 2428,
  "iques": 6383,
  "ir": 341,
  "ira": 8990,
  "irable": 13161,
  "iral": 28128,
  "iration": 18171,
  "irc": 2045,
  "ircraft": 31778,
  "ird": 1396,
  "irds": 6279,
  "ire": 580,
  "irect": 1077,
  "irection": 20178,
  "ired": 1255,
  "ires": 2663,
  "irez": 25130,
  "irgin": 4453,
  "iri": 14868,
  "irie": 27013,
  "iries": 17756,
  "iring": 3739,
  "irk": 13746,
  "irl": 2141,
  "irlf": 9368,
  "irlfriend": 9386,
  "irlines": 15805,
  "irling": 23038,
  "irm": 2458,
  "irmed": 15682,
  "irming": 26680,
  "irms": 7159,
  "iro": 6889,
  "iron": 1842,
  "irrel": 24248,
  "irs": 11773,
  "irst": 652,
  "irsty": 25485,
  "irt": 2450,
  "irteen": 21555,
  "irth": 3522,
  "irts": 9158,
  "irtual": 14598,
  "irty": 6156,
  "irus": 18526,
  "iry": 8464,
  "is": 271,
  "isa": 9581,
  "isal": 30111,
  "isan": 7278,
  "isance": 30152,
  "isans": 21268,
  "isation": 4840,
  "isations": 31965,
  "isc": 2418,
  "iscal": 7379,
  "isch": 23340,
  "ischer": 21065,
  "isco": 18410,
  "isconsin": 7389,
  "isd": 10645,
  "isdom": 10193,
  "ise": 747,
  "ised": 1325,
  "isen": 12837,
  "iser": 5048,
  "isers": 13163,
  "ises": 2770,
  "isexual": 18737,
  "isf": 4929,
  "ish": 714,
  "isha": 19299,
  "ishable": 29472,
  "ished": 1296,
  "isher": 5456,
  "ishers": 10977,
  "ishes": 5894,
  "ishi": 24733,
  "ishing": 2976,
  "ishly": 27287,
  "ishment": 19706,
  "ishop": 9499,
  "ishops": 19990,
  "isi": 19340,
  "isible": 13787,
  "isine": 24110,
  "ising": 1545,
  "ision": 1114,
  "isions": 3231,
  "isite": 19159,
  "isition": 10379,
  "isitions": 26562,
  "isive": 11575,
  "isk": 9709,
  "isl": 2618,
  "isle": 18048,
  "isly": 30818,
  "ism": 929,
  "isman": 22598,
  "isms": 11603,
  "iso": 30305,
  "isode": 11682,
  "isoft": 28144,
  "isol": 30268,
  "ison": 1609,
  "isons": 9192,
  "isp": 8056,
  "ispens": 30081,
  "ispensable": 31487,
  "isphere": 19686,
  "iss": 767,
  "issa": 14140,
  "issan": 21023,
  "issance": 13959,
  "isse": 19585,
  "ission": 1498,
  "issions": 6310,
  "isson": 28590,
  "issue": 22955,
  "ist": 387,
  "ista": 11716,
  "istan": 2889,
  "istance": 11216,
  "istant": 10416,
  "istas": 31175,
  "isted": 5254,
  "istence": 22402,
  "istent": 7727,
  "ister": 1572,
  "isters": 5793,
  "istic": 2424,
  "istical": 19999,
  "istically": 14750,
  "istics": 4463,
  "istine": 28599,
  "isting": 8615,
  "istle": 10827,
  "istries": 27404,
  "istry": 4128,
  "ists": 931,
  "isure": 21071,
  "isy": 23900,
  "it": 270,
  "ita": 5885,
  "itable": 4723,
  "itably": 12729,
  "itage": 8867,
  "ital": 1236,
  "itals": 7491,
  "itan": 19679,
  "itant": 22870,
  "itar": 7533,
  "itarian": 6946,
  "itars": 28672,
  "itary": 9459,
  "itas": 20031,
  "itate": 12337,
  "itated": 13728,
  "itating": 21432,
  "itation": 3573,
  "itational": 18918,
  "itations": 16505,
  "itative": 13258,
  "itbart": 13227,
  "itch": 3205,
  "itched": 26749,
  "itches": 19382,
  "ite": 575,
  "itect": 5120,
  "ited": 837,
  "itely": 3812,
  "item": 20982,
  "itement": 11390,
  "iter": 4897,
  "iterranean": 16184,
  "ites": 2749,
  "ith": 343,
  "ithe": 28575,
  "ither": 1628,
  "ithmetic": 30732,
  "ithub": 15239,
  "iti": 8312,
  "itial": 14600,
  "itially": 18020,
  "ities": 855,
  "itimate": 24444,
  "itime": 18554,
  "iting": 1758,
  "ition": 663,
  "itional": 1916,
  "itionally": 8431,
  "itions": 1838,
  "itious": 23985,
  "itis": 14402,
  "itive": 1774,
  "itiveness": 25540,
  "itives": 19460,
  "itivity": 12236,
  "itiz": 2660,
  "itizens": 29860,
  "itness": 4002,
  "itnesses": 20075,
  "ito": 10095,
  "itol": 9583,
  "itor": 3498,
  "itoring": 30459,
  "itors": 6167,
  "itous": 17879,
  "its": 940,
  "itsu": 23020,
  "itt": 4765,
  "itted": 16728,
  "itter": 9519,
  "itting": 8693,
  "ittle": 6483,
  "itual": 9621,
  "itud": 31415,
  "itude": 4099,
  "itudes": 9829,
  "iture": 9898,
  "itures": 21629,
  "itus": 20333,
  "itute": 3433,
  "itutes": 15369,
  "itution": 2551,
  "itutional": 4917,
  "ity": 414,
  "itz": 4910,
  "itzer": 18318,
  "iu": 20025,
  "ium": 1713,
  "ius": 4728,
  "iv": 461,
  "iva": 13071,
  "ivable": 20884,
  "ival": 2389,
  "ivalent": 30128,
  "ivals": 8716,
  "ivan": 12213,
  "ivas": 27745,
  "ivated": 26794,
  "ive": 421,
  "ived": 1548,
  "ively": 2163,
  "iven": 1462,
  "iveness": 6687,
  "iver": 1735,
  "ivered": 5698,
  "iverpool": 8564,
  "ivers": 1132,
  "iversal": 26825,
  "iversary": 8296,
  "iverse": 4013,
  "iversity": 1430,
  "ivery": 23515,
  "ives": 1036,
  "ivia": 19426,
  "ivic": 13588,
  "ivid": 1783,
  "ividual": 1946,
  "ivier": 29955,
  "ivil": 2220,
  "iving": 1377,
  "ivision": 31881,
  "ivism": 21855,
  "ivist": 23897,
  "ivities": 23484,
  "ivity": 3628,
  "ivo": 21988,
  "ivor": 23277,
  "ix": 922,
  "ixed": 8788,
  "ixel": 11311,
  "ixels": 17197,
  "ixon": 10335,
  "ixt": 6890,
  "ixture": 10223,
  "ixtures": 24415,
  "ixty": 19939,
  "iy": 8760,
  "iya": 23830,
  "iz": 543,
  "iza": 24492,
  "izabeth": 9175,
  "izable": 13178,
  "izard": 12715,
  "izards": 15208,
  "izarre": 10843,
  "ization": 1619,
  "izations": 11199,
  "ize": 1217,
  "ized": 1168,
  "izer": 9775,
  "izers": 16429,
  "izes": 4702,
  "izing": 2764,
  "izon": 7762,
  "izons": 28879,
  "izont": 14325,
  "izoph": 18498,
  "izophren": 18689,
  "izz": 6898,
  "izza": 10132,
  "izzard": 16556,
  "iÃ³n": 18218,
  "iÄĩ": 29919,
  "j": 106,
  "ja": 8469,
  "jack": 26235,
  "jad": 24471,
  "jah": 21890,
  "jamin": 11584,
  "jan": 12356,
  "jar": 13782,
  "jas": 29159,
  "jav": 31877,
  "java": 23300,
  "jay": 31869,
  "je": 15690,
  "ject": 794,
  "jee": 28973,
  "jet": 25982,
  "ji": 9465,
  "jiang": 31442,
  "jin": 28921,
  "jo": 8068,
  "job": 29229,
  "join": 28797,
  "journal": 23298,
  "joy": 2728,
  "jpg": 17100,
  "jri": 29492,
  "jriwal": 30167,
  "js": 9910,
  "json": 24064,
  "ju": 17047,
  "jud": 9315,
  "jug": 30716,
  "jury": 24027,
  "just": 3568,
  "justed": 22910,
  "justice": 28580,
  "k": 107,
  "ka": 5242,
  "kan": 26758,
  "kar": 17886,
  "kara": 19930,
  "kay": 6258,
  "ke": 361,
  "ked": 7471,
  "kee": 10092,
  "keep": 8754,
  "keeper": 12886,
  "keepers": 20093,
  "keeping": 17845,
  "kees": 13680,
  "kef": 25678,
  "kefeller": 26119,
  "kel": 6643,
  "keley": 11221,
  "kell": 16993,
  "ken": 3760,
  "kens": 15036,
  "ker": 7454,
  "kered": 26937,
  "kers": 16849,
  "kes": 11286,
  "ket": 5666,
  "ketch": 23359,
  "key": 2505,
  "keys": 14134,
  "kg": 14011,
  "kh": 14798,
  "ki": 4063,
  "kick": 23485,
  "kil": 26531,
  "kill": 15013,
  "kin": 4949,
  "kind": 11691,
  "king": 9291,
  "kins": 4692,
  "kinson": 21936,
  "kish": 23540,
  "kit": 18537,
  "km": 12486,
  "kn": 16633,
  "know": 16165,
  "known": 4367,
  "ko": 7015,
  "kok": 27079,
  "kov": 18944,
  "kowski": 21142,
  "ks": 590,
  "kt": 28715,
  "ktop": 23149,
  "ku": 29051,
  "kward": 11644,
  "ky": 2783,
  "l": 108,
  "la": 4587,
  "lab": 26496,
  "label": 26058,
  "lad": 8294,
  "lah": 8619,
  "lahoma": 8963,
  "laim": 11320,
  "lain": 21447,
  "lake": 26890,
  "lam": 2340,
  "lamm": 27966,
  "lan": 7990,
  "lance": 18146,
  "land": 997,
  "lander": 20695,
  "landers": 28693,
  "lando": 9855,
  "lands": 4452,
  "lane": 25582,
  "lang": 23275,
  "language": 18358,
  "lant": 4438,
  "lantic": 21517,
  "lar": 26147,
  "larg": 15469,
  "large": 11066,
  "largest": 20907,
  "las": 12526,
  "lash": 13763,
  "lass": 22645,
  "lasses": 30543,
  "last": 15389,
  "lasting": 27131,
  "lat": 19168,
  "late": 21997,
  "lated": 23960,
  "later": 28922,
  "lation": 15839,
  "laughs": 23546,
  "laughter": 24278,
  "lav": 18074,
  "law": 6254,
  "laws": 26481,
  "lay": 15502,
  "lb": 25857,
  "ld": 333,
  "lda": 19496,
  "lder": 7219,
  "ldom": 23660,
  "ldon": 22730,
  "le": 295,
  "lead": 25307,
  "leader": 25180,
  "leaders": 29788,
  "leading": 11107,
  "league": 17028,
  "leaning": 20917,
  "leans": 10315,
  "lear": 2515,
  "lease": 3638,
  "leased": 15794,
  "leck": 29255,
  "lect": 815,
  "lected": 12162,
  "lection": 1458,
  "lections": 31008,
  "led": 1011,
  "ledge": 3040,
  "ledged": 29340,
  "lee": 9755,
  "leen": 17462,
  "leep": 10876,
  "left": 9804,
  "leg": 1356,
  "legal": 16302,
  "legates": 28535,
  "lege": 2466,
  "lein": 30454,
  "lem": 14464,
  "lement": 2032,
  "lementary": 14042,
  "lements": 12317,
  "len": 14267,
  "lene": 26043,
  "length": 16384,
  "ler": 1807,
  "lers": 7415,
  "les": 831,
  "lesh": 11819,
  "less": 1261,
  "lessly": 8106,
  "lessness": 16113,
  "let": 1732,
  "letcher": 25086,
  "lete": 7866,
  "leted": 11039,
  "letes": 30477,
  "letion": 24238,
  "leton": 12470,
  "lets": 5346,
  "lett": 14972,
  "lette": 20493,
  "letter": 14446,
  "leum": 18719,
  "lev": 2404,
  "levant": 13933,
  "levard": 17964,
  "level": 4419,
  "leveland": 8347,
  "levision": 3893,
  "lex": 2657,
  "ley": 1543,
  "leys": 20538,
  "lf": 1739,
  "li": 954,
  "lia": 22542,
  "liable": 23283,
  "liament": 4160,
  "lib": 13312,
  "liber": 19973,
  "liberal": 27244,
  "lic": 639,
  "lication": 15700,
  "lications": 24634,
  "lich": 23083,
  "lick": 3941,
  "lickr": 14981,
  "lict": 20026,
  "licted": 26810,
  "lide": 23754,
  "lie": 13901,
  "lied": 11543,
  "lient": 14715,
  "lier": 2115,
  "liers": 15854,
  "lies": 6944,
  "liest": 10082,
  "lif": 30846,
  "life": 5663,
  "lift": 28020,
  "lifting": 30899,
  "lig": 4857,
  "liga": 27991,
  "light": 2358,
  "lights": 14052,
  "lihood": 10689,
  "lik": 30808,
  "like": 2265,
  "lim": 2262,
  "liminary": 12295,
  "limited": 10711,
  "lin": 2913,
  "line": 1323,
  "linear": 29794,
  "lined": 9480,
  "liner": 21709,
  "liners": 26148,
  "lines": 5751,
  "liness": 26295,
  "ling": 1326,
  "lings": 20721,
  "lington": 14821,
  "lining": 16579,
  "link": 11257,
  "linked": 24481,
  "lins": 21119,
  "lio": 30721,
  "lis": 25965,
  "lish": 2295,
  "list": 6953,
  "listed": 17206,
  "lists": 23861,
  "lit": 18300,
  "liter": 16207,
  "little": 30099,
  "lium": 28102,
  "liv": 18076,
  "live": 13581,
  "lived": 20008,
  "liver": 12245,
  "living": 28257,
  "ll": 298,
  "lla": 7717,
  "llah": 17942,
  "llect": 6475,
  "llectual": 26286,
  "lled": 2683,
  "ller": 5620,
  "llers": 12658,
  "lli": 11489,
  "llig": 2684,
  "lligence": 3102,
  "lling": 2046,
  "llington": 22038,
  "llo": 13271,
  "llor": 11253,
  "lls": 7019,
  "lly": 10357,
  "ln": 22643,
  "lo": 5185,
  "load": 2873,
  "loaded": 19261,
  "loading": 28359,
  "loc": 25328,
  "local": 16248,
  "lock": 7382,
  "locked": 28301,
  "loe": 29706,
  "log": 7903,
  "loid": 31151,
  "lon": 15817,
  "long": 6039,
  "loo": 26774,
  "look": 5245,
  "looking": 11019,
  "loop": 28047,
  "lopp": 27067,
  "lor": 4744,
  "lord": 25040,
  "loss": 24320,
  "lost": 30676,
  "lot": 27660,
  "love": 22988,
  "loving": 28314,
  "low": 8845,
  "lower": 24618,
  "lp": 918,
  "ls": 7443,
  "lt": 2455,
  "ltry": 29219,
  "lu": 11677,
  "lud": 754,
  "lude": 13683,
  "luded": 17300,
  "ludes": 21478,
  "luding": 6662,
  "luent": 24169,
  "lund": 31820,
  "lus": 26479,
  "lv": 6936,
  "lves": 27809,
  "ly": 306,
  "lying": 3246,
  "lymp": 5524,
  "lyn": 5544,
  "lynn": 10895,
  "m": 109,
  "ma": 3060,
  "mac": 27761,
  "machine": 31848,
  "mad": 8532,
  "made": 9067,
  "mag": 25395,
  "mage": 24934,
  "magic": 28553,
  "maid": 23537,
  "mail": 4865,
  "mails": 20851,
  "main": 12524,
  "major": 19405,
  "majority": 28363,
  "make": 18525,
  "maker": 8759,
  "makers": 4978,
  "making": 7704,
  "mal": 7617,
  "mala": 25446,
  "male": 26787,
  "malink": 25110,
  "man": 760,
  "management": 23652,
  "mand": 19421,
  "mania": 26417,
  "mann": 7739,
  "manned": 23251,
  "mans": 9395,
  "manship": 23785,
  "manuel": 14569,
  "many": 19093,
  "map": 12072,
  "mar": 3823,
  "mare": 12214,
  "mares": 27373,
  "mark": 4010,
  "marked": 21480,
  "market": 9872,
  "markets": 28448,
  "marks": 13999,
  "married": 28585,
  "mart": 12476,
  "mary": 8482,
  "mas": 5067,
  "mass": 20830,
  "master": 13080,
  "mat": 8890,
  "match": 20950,
  "matched": 30553,
  "mate": 7939,
  "mates": 5974,
  "math": 9842,
  "matic": 12287,
  "max": 17385,
  "may": 11099,
  "maybe": 25308,
  "mb": 2166,
  "mber": 1658,
  "mble": 10798,
  "md": 27289,
  "me": 2501,
  "meal": 27817,
  "meaning": 22539,
  "med": 1129,
  "medi": 2435,
  "media": 12066,
  "mediate": 28012,
  "mediately": 23520,
  "meg": 27006,
  "mega": 19177,
  "mel": 14943,
  "mem": 16565,
  "member": 16823,
  "members": 31068,
  "men": 3554,
  "ment": 379,
  "mental": 17921,
  "mentation": 15775,
  "mented": 10849,
  "mentia": 23748,
  "mentioned": 15920,
  "ments": 771,
  "mer": 581,
  "merce": 10758,
  "mercial": 16675,
  "meric": 834,
  "mers": 9366,
  "mes": 6350,
  "message": 28357,
  "met": 4516,
  "metal": 31996,
  "meter": 26585,
  "metic": 17884,
  "metric": 28342,
  "metry": 21410,
  "mg": 20203,
  "mi": 13750,
  "mia": 22823,
  "mic": 10215,
  "mid": 12070,
  "middle": 26160,
  "midt": 17245,
  "mile": 14731,
  "military": 27574,
  "mill": 16614,
  "million": 11207,
  "min": 1115,
  "mination": 14287,
  "mind": 9475,
  "minded": 12305,
  "mine": 4205,
  "mined": 15077,
  "minent": 16355,
  "mines": 14306,
  "ming": 1877,
  "mingham": 14796,
  "mington": 29408,
  "mining": 17555,
  "minist": 1954,
  "minster": 16011,
  "minute": 9317,
  "mir": 10371,
  "mis": 23384,
  "miss": 3967,
  "missible": 24563,
  "mission": 3977,
  "missions": 9936,
  "mit": 1390,
  "mite": 28942,
  "mith": 25242,
  "mits": 10584,
  "mitt": 18922,
  "mitted": 3392,
  "mittee": 3988,
  "ml": 6565,
  "mm": 5757,
  "mn": 12989,
  "mo": 7140,
  "mobile": 27644,
  "mod": 7343,
  "mode": 26133,
  "model": 24343,
  "modern": 20372,
  "moil": 20454,
  "mon": 2779,
  "mond": 5752,
  "money": 23400,
  "mong": 25561,
  "mons": 11355,
  "mont": 7426,
  "month": 7586,
  "monton": 15330,
  "mony": 9133,
  "moon": 22734,
  "mor": 21921,
  "more": 3606,
  "mort": 24065,
  "mos": 15293,
  "mosp": 5729,
  "most": 1600,
  "mostly": 25728,
  "mot": 24438,
  "mother": 12422,
  "mount": 17303,
  "mouth": 13226,
  "move": 22166,
  "moving": 27771,
  "mp": 3272,
  "mph": 17967,
  "ms": 962,
  "mson": 23376,
  "mt": 23915,
  "much": 25913,
  "mult": 20924,
  "mun": 6851,
  "mund": 15795,
  "munition": 13864,
  "mur": 29819,
  "mus": 16279,
  "must": 28372,
  "mut": 19841,
  "my": 1797,
  "n": 110,
  "na": 2677,
  "nails": 31668,
  "naire": 26840,
  "nam": 6604,
  "name": 6564,
  "named": 11689,
  "names": 14199,
  "namese": 18019,
  "nan": 11203,
  "nar": 17772,
  "nas": 23222,
  "nation": 25156,
  "national": 14344,
  "natural": 11869,
  "nav": 30160,
  "nc": 21396,
  "nce": 1242,
  "nces": 3283,
  "nd": 356,
  "nder": 694,
  "ndering": 19641,
  "nders": 26074,
  "ndra": 18889,
  "ne": 691,
  "neapolis": 15818,
  "neath": 13849,
  "necess": 10134,
  "neck": 27560,
  "nect": 1761,
  "ned": 1197,
  "nedy": 8245,
  "nee": 28782,
  "needed": 23488,
  "neg": 11451,
  "negie": 25963,
  "nel": 4760,
  "nell": 5765,
  "nels": 17602,
  "nen": 26087,
  "ner": 1012,
  "nered": 12865,
  "nerg": 30325,
  "nergy": 5968,
  "ners": 2477,
  "nery": 30521,
  "nes": 1965,
  "nesday": 2811,
  "nesota": 7014,
  "ness": 1170,
  "nesty": 14169,
  "net": 3902,
  "netic": 10042,
  "neutral": 27849,
  "never": 12721,
  "new": 3615,
  "news": 10398,
  "nex": 15227,
  "next": 25061,
  "ney": 1508,
  "neys": 19183,
  "ng": 818,
  "ngth": 20160,
  "ni": 8069,
  "nia": 17129,
  "nic": 6595,
  "nick": 23570,
  "nie": 11219,
  "night": 4651,
  "nik": 14520,
  "nine": 27885,
  "ning": 725,
  "nings": 19812,
  "nis": 19188,
  "nm": 27148,
  "nn": 29603,
  "no": 4291,
  "node": 27412,
  "nom": 23213,
  "non": 11468,
  "none": 31536,
  "noon": 5443,
  "nor": 12396,
  "normal": 13189,
  "not": 1809,
  "note": 12931,
  "notes": 23186,
  "nothing": 24070,
  "noticed": 26598,
  "nov": 31143,
  "now": 2179,
  "nown": 3813,
  "ns": 2521,
  "nsic": 17955,
  "nt": 435,
  "ntil": 9008,
  "nton": 23269,
  "null": 19501,
  "num": 26022,
  "number": 21595,
  "numbered": 31289,
  "nut": 15447,
  "nuts": 29726,
  "ny": 3366,
  "nyder": 16748,
  "o": 111,
  "oa": 13688,
  "oad": 1530,
  "oan": 20456,
  "oard": 12309,
  "oat": 18844,
  "ob": 667,
  "oba": 17849,
  "obal": 2242,
  "obar": 31187,
  "obb": 6587,
  "obby": 5188,
  "obe": 5727,
  "ober": 1835,
  "obi": 15786,
  "obia": 30247,
  "obic": 21438,
  "obil": 23901,
  "obile": 6886,
  "obiles": 30580,
  "object": 21120,
  "obo": 27769,
  "obs": 8173,
  "oby": 25653,
  "oc": 427,
  "oca": 10004,
  "ocal": 4948,
  "ocaly": 13805,
  "ocalypse": 19603,
  "ocalyptic": 23969,
  "ocamp": 25547,
  "ocate": 12793,
  "ocated": 10676,
  "ocating": 23250,
  "ocation": 7018,
  "ocations": 28152,
  "ocaust": 13895,
  "occ": 13802,
  "occup": 17841,
  "occupied": 25120,
  "ocene": 28703,
  "ocese": 24844,
  "och": 5283,
  "oche": 28422,
  "ochem": 22364,
  "ochond": 23219,
  "oci": 1778,
  "ocial": 9994,
  "ociated": 19559,
  "ocide": 14429,
  "ocious": 30421,
  "ocity": 14115,
  "ock": 791,
  "ocked": 3619,
  "ocker": 12528,
  "ocket": 6455,
  "ockets": 12515,
  "ockey": 6601,
  "ocking": 5468,
  "ocks": 3954,
  "oco": 26613,
  "ocol": 5075,
  "ocolate": 9363,
  "ocr": 4250,
  "ocracies": 26438,
  "ocracy": 4790,
  "ocrat": 1581,
  "ocratic": 6213,
  "ocrats": 14909,
  "ocre": 24158,
  "ocument": 9109,
  "ocumented": 14068,
  "ocur": 12013,
  "ocus": 12354,
  "ocused": 19020,
  "ocy": 16679,
  "od": 400,
  "oda": 12014,
  "oday": 3911,
  "odd": 5634,
  "odder": 31887,
  "ode": 1340,
  "oded": 8889,
  "oder": 18879,
  "odes": 4362,
  "odge": 10503,
  "odic": 26044,
  "odied": 28347,
  "odies": 4970,
  "oding": 8367,
  "odka": 27057,
  "odo": 23362,
  "odor": 26498,
  "odore": 22023,
  "odox": 9907,
  "ods": 21688,
  "odus": 23370,
  "ody": 1194,
  "odynam": 22725,
  "oe": 2483,
  "oen": 8001,
  "oenix": 9269,
  "oes": 3557,
  "of": 634,
  "off": 2059,
  "office": 29541,
  "official": 15570,
  "offs": 11193,
  "oft": 7406,
  "often": 24885,
  "og": 525,
  "oga": 10341,
  "ogan": 6894,
  "ogen": 7861,
  "ogene": 21816,
  "ogenic": 17156,
  "ogenous": 30188,
  "ogens": 25431,
  "ogether": 7788,
  "ogg": 12877,
  "oggle": 30977,
  "ogle": 2320,
  "ogn": 2311,
  "ognitive": 29001,
  "ogo": 24164,
  "ogram": 22736,
  "ograms": 23907,
  "ograp": 1953,
  "ograph": 2300,
  "ographer": 16543,
  "ographers": 28876,
  "ographic": 6657,
  "ographical": 16523,
  "ographically": 28499,
  "ographics": 20015,
  "ographs": 31598,
  "ography": 4547,
  "ogs": 20115,
  "ogue": 5617,
  "ogy": 9984,
  "ogyn": 17987,
  "oh": 1107,
  "oha": 28251,
  "ohan": 23174,
  "ohn": 1413,
  "ohyd": 22547,
  "oi": 24963,
  "oice": 9690,
  "oid": 2316,
  "oids": 19703,
  "oil": 21887,
  "oin": 24046,
  "oint": 1625,
  "ointed": 18991,
  "oir": 18260,
  "oirs": 31459,
  "ois": 9516,
  "oise": 29763,
  "oit": 21685,
  "oj": 12442,
  "oji": 26856,
  "ojure": 27798,
  "ok": 487,
  "oka": 21113,
  "oke": 2453,
  "oked": 6337,
  "oken": 5895,
  "oker": 10657,
  "okes": 2668,
  "oki": 31644,
  "okia": 16502,
  "oking": 5703,
  "oko": 16226,
  "oks": 25633,
  "oku": 16989,
  "ol": 349,
  "ola": 5142,
  "olan": 14433,
  "olar": 9970,
  "olas": 11249,
  "olate": 31757,
  "olation": 21717,
  "old": 776,
  "oldown": 22428,
  "olds": 9338,
  "ole": 2506,
  "olean": 26245,
  "olen": 8072,
  "oler": 13373,
  "oles": 3992,
  "olester": 20066,
  "olesterol": 21445,
  "olf": 4465,
  "oli": 10321,
  "olia": 21528,
  "oliberal": 22058,
  "olic": 3907,
  "olics": 16756,
  "olicy": 24670,
  "olid": 10820,
  "olin": 31408,
  "oline": 13384,
  "olis": 7915,
  "olit": 5124,
  "olitan": 11499,
  "olith": 19642,
  "olithic": 25806,
  "olitical": 10968,
  "olitics": 17968,
  "olk": 13021,
  "olkien": 27261,
  "oll": 790,
  "olla": 27878,
  "ollah": 13394,
  "ollar": 11134,
  "ollen": 30376,
  "ollo": 16685,
  "ollow": 990,
  "olls": 24807,
  "olly": 4770,
  "ollywood": 6381,
  "oln": 9961,
  "olo": 13571,
  "olog": 908,
  "ologic": 27713,
  "ological": 2753,
  "ologically": 12087,
  "ologies": 5239,
  "ologist": 6492,
  "ologists": 8198,
  "ologne": 26363,
  "ologue": 31981,
  "ology": 1386,
  "olph": 9053,
  "olphin": 25851,
  "olphins": 13769,
  "ols": 10520,
  "olson": 27172,
  "olt": 7789,
  "olute": 3545,
  "olutely": 14566,
  "olution": 2080,
  "olutions": 13837,
  "olve": 6454,
  "olved": 5469,
  "olves": 9255,
  "olving": 9976,
  "oly": 4374,
  "olyn": 30730,
  "om": 296,
  "oma": 6500,
  "omach": 11963,
  "oman": 4603,
  "omas": 4513,
  "omatic": 15035,
  "omb": 2659,
  "ome": 460,
  "omed": 9691,
  "omeday": 20835,
  "omen": 3518,
  "omer": 11672,
  "omers": 16627,
  "omes": 9142,
  "omet": 890,
  "ometer": 16645,
  "omething": 8236,
  "ometimes": 6411,
  "ometown": 15444,
  "ometric": 21721,
  "omez": 24655,
  "omi": 15788,
  "omic": 10996,
  "omical": 20141,
  "omin": 6220,
  "omination": 26225,
  "oming": 6482,
  "omm": 2411,
  "ommend": 27826,
  "ommod": 8496,
  "omo": 15348,
  "omon": 18302,
  "omore": 17519,
  "omorph": 25010,
  "omp": 3126,
  "ompl": 5704,
  "ompson": 9349,
  "oms": 4878,
  "omsky": 31057,
  "omy": 9793,
  "on": 262,
  "ona": 4071,
  "onal": 17232,
  "once": 26594,
  "ond": 620,
  "onda": 12031,
  "onde": 16599,
  "onder": 9742,
  "onding": 31043,
  "ondo": 20235,
  "ondon": 3076,
  "onds": 12227,
  "ondu": 30120,
  "onduct": 11049,
  "one": 503,
  "oned": 10936,
  "onel": 24288,
  "oneliness": 30974,
  "onen": 30219,
  "onent": 3942,
  "onents": 3802,
  "oner": 12885,
  "ones": 1772,
  "onest": 16626,
  "oney": 1288,
  "ong": 498,
  "onge": 14602,
  "ongevity": 24035,
  "ongh": 17287,
  "ongo": 22846,
  "ongs": 30853,
  "ongyang": 17334,
  "oni": 13474,
  "onia": 12293,
  "onial": 24302,
  "onian": 28640,
  "onic": 7342,
  "onies": 15807,
  "oning": 11258,
  "online": 30409,
  "only": 9039,
  "onna": 6398,
  "onnaissance": 25698,
  "ono": 29292,
  "onom": 5504,
  "onomous": 30860,
  "onomy": 30098,
  "ons": 699,
  "onse": 2482,
  "onsin": 7385,
  "onso": 20183,
  "onst": 2652,
  "onstruction": 30192,
  "ont": 839,
  "onte": 27184,
  "onto": 4828,
  "onut": 16761,
  "ony": 1588,
  "onym": 4968,
  "onymous": 6781,
  "onz": 10348,
  "oo": 3287,
  "ood": 730,
  "oody": 21607,
  "ook": 565,
  "ookie": 19135,
  "ooks": 30962,
  "ool": 1000,
  "ools": 13639,
  "oom": 4372,
  "oon": 2232,
  "oons": 12618,
  "oop": 11883,
  "oor": 2893,
  "oos": 24409,
  "oot": 1051,
  "ooter": 23111,
  "ooth": 5966,
  "ooting": 13872,
  "oots": 16395,
  "op": 391,
  "opa": 29615,
  "opal": 29143,
  "opard": 13396,
  "opath": 19280,
  "opathy": 28540,
  "ope": 3139,
  "oped": 20869,
  "open": 9723,
  "openhagen": 22625,
  "opening": 31586,
  "oper": 3406,
  "operation": 24228,
  "operative": 27740,
  "opers": 27260,
  "opes": 13181,
  "opez": 17461,
  "oph": 2510,
  "opher": 7917,
  "ophers": 19845,
  "ophile": 26732,
  "ophob": 10983,
  "ophobia": 16632,
  "ophobic": 18698,
  "opia": 22966,
  "opian": 31367,
  "opic": 16485,
  "oping": 14167,
  "ople": 585,
  "oples": 11906,
  "opoulos": 17736,
  "opp": 13667,
  "oppable": 31320,
  "oppy": 29675,
  "ops": 2744,
  "opsis": 31155,
  "opt": 11000,
  "option": 26821,
  "opular": 15689,
  "opus": 28193,
  "opy": 6453,
  "opyright": 9940,
  "oqu": 19219,
  "or": 273,
  "ora": 6641,
  "orable": 9854,
  "orage": 5367,
  "oral": 5669,
  "orate": 11383,
  "oration": 6897,
  "orb": 31947,
  "orc": 29779,
  "ord": 578,
  "ordable": 13468,
  "ordan": 6522,
  "orde": 22439,
  "order": 2849,
  "ordered": 24151,
  "ordering": 30671,
  "orders": 6045,
  "ordin": 5557,
  "ordinarily": 25414,
  "ordinary": 9233,
  "ordinate": 24910,
  "ordinates": 30896,
  "ordination": 29854,
  "ordinator": 30057,
  "ording": 1135,
  "ordon": 8710,
  "ords": 4270,
  "ore": 375,
  "orean": 26320,
  "ored": 1834,
  "orem": 26403,
  "oren": 26296,
  "orer": 12211,
  "orers": 28416,
  "ores": 5176,
  "orest": 20650,
  "oret": 9420,
  "orf": 21083,
  "org": 4011,
  "organ": 9138,
  "organized": 26194,
  "orge": 9069,
  "ori": 12440,
  "oria": 11847,
  "orial": 4200,
  "orian": 20723,
  "oric": 7069,
  "orical": 11912,
  "orically": 17203,
  "orie": 20174,
  "orient": 12458,
  "oriented": 14881,
  "ories": 1686,
  "orig": 12717,
  "original": 16003,
  "oring": 2409,
  "orious": 9405,
  "ority": 14860,
  "ork": 944,
  "orks": 3687,
  "orkshire": 25050,
  "orld": 1821,
  "orm": 618,
  "ormal": 9044,
  "ormally": 27791,
  "orman": 22399,
  "orn": 1266,
  "orne": 7625,
  "orney": 3694,
  "orneys": 10654,
  "ornia": 2905,
  "ornings": 23562,
  "orns": 13941,
  "oro": 19876,
  "orough": 7722,
  "orous": 9207,
  "orously": 22237,
  "orp": 19316,
  "orph": 12940,
  "orrh": 31216,
  "orrow": 4429,
  "orry": 6083,
  "ors": 662,
  "orsche": 21111,
  "orse": 6101,
  "orses": 12881,
  "orship": 9468,
  "orsi": 21157,
  "orst": 24310,
  "ort": 398,
  "orted": 7050,
  "orter": 3882,
  "orters": 2947,
  "ortex": 29738,
  "orth": 1136,
  "orthern": 4349,
  "orthy": 17558,
  "orting": 15615,
  "ortion": 5280,
  "ortions": 14149,
  "ortium": 20459,
  "orts": 1889,
  "ortun": 1764,
  "ortunate": 12478,
  "ortunately": 4433,
  "orum": 17759,
  "orus": 15090,
  "ory": 658,
  "os": 419,
  "osa": 8043,
  "osal": 31813,
  "osate": 31109,
  "osaur": 17317,
  "osaurs": 18713,
  "osc": 18919,
  "ose": 570,
  "osed": 1262,
  "osen": 5250,
  "oser": 20921,
  "oses": 3282,
  "osevelt": 15363,
  "osexual": 7862,
  "osh": 3981,
  "oshi": 18007,
  "oshop": 22785,
  "osi": 15041,
  "osing": 2407,
  "osion": 18557,
  "osis": 6998,
  "osit": 8391,
  "osite": 5657,
  "osition": 2765,
  "ository": 14403,
  "osity": 16479,
  "oslav": 22896,
  "oso": 30890,
  "osoph": 19086,
  "osophy": 23736,
  "osp": 2002,
  "ospace": 21860,
  "ospel": 15187,
  "osph": 16902,
  "osphere": 19065,
  "ospital": 3295,
  "oss": 802,
  "ossible": 4673,
  "ossibly": 20254,
  "ossier": 24756,
  "ossip": 23812,
  "ost": 463,
  "ostal": 15668,
  "oster": 7087,
  "osterone": 20485,
  "ostic": 16629,
  "oston": 5045,
  "osure": 4693,
  "osures": 15207,
  "ot": 313,
  "ota": 3923,
  "otal": 6518,
  "otally": 25688,
  "ote": 1971,
  "otech": 28829,
  "otechnology": 27150,
  "oted": 4846,
  "oter": 17496,
  "oters": 20278,
  "otes": 7318,
  "oth": 866,
  "othe": 21613,
  "other": 851,
  "otherapy": 18913,
  "othing": 29260,
  "oths": 26346,
  "othy": 14247,
  "oti": 3838,
  "otic": 6175,
  "otics": 18147,
  "otine": 18884,
  "oting": 10277,
  "otion": 11486,
  "otional": 26013,
  "otive": 17383,
  "otle": 21636,
  "oto": 2694,
  "oton": 21257,
  "ots": 1709,
  "ott": 1602,
  "otta": 22756,
  "ottage": 29506,
  "otte": 10747,
  "otted": 27059,
  "otten": 7282,
  "ottenham": 16832,
  "ottest": 21606,
  "ottesville": 20603,
  "otti": 22431,
  "otto": 27118,
  "ottom": 15180,
  "otton": 12888,
  "oty": 5422,
  "otype": 8579,
  "otypes": 12410,
  "ou": 280,
  "oub": 10912,
  "oubted": 14087,
  "oubtedly": 14416,
  "ouch": 8305,
  "ouched": 27584,
  "oud": 2865,
  "ouf": 31397,
  "oufl": 27532,
  "oug": 29080,
  "ough": 605,
  "ought": 2810,
  "oul": 3485,
  "ould": 415,
  "oulder": 17509,
  "oulos": 17212,
  "oun": 903,
  "ounce": 8860,
  "ounced": 7901,
  "ounces": 28403,
  "ouncing": 16321,
  "ound": 650,
  "ounded": 5899,
  "ounder": 25987,
  "ounding": 9165,
  "ounds": 3855,
  "ounge": 20755,
  "ouns": 26179,
  "ount": 609,
  "ountain": 20021,
  "ounter": 18125,
  "ounty": 20455,
  "oup": 11178,
  "our": 468,
  "ourage": 26967,
  "ource": 3662,
  "ourced": 24854,
  "ources": 3189,
  "ourcing": 23406,
  "oured": 7947,
  "ourge": 15912,
  "ourgeois": 18842,
  "ouri": 9311,
  "ouring": 21092,
  "ourn": 1782,
  "ournal": 2353,
  "ournals": 18030,
  "ournament": 17896,
  "ourney": 5983,
  "ours": 5457,
  "ourse": 8600,
  "ourt": 2664,
  "ous": 510,
  "ousand": 31680,
  "ousands": 16639,
  "ouse": 1045,
  "oused": 27736,
  "ouses": 11407,
  "ousing": 12911,
  "ously": 3307,
  "ousse": 23106,
  "oust": 14913,
  "oustic": 21270,
  "ouston": 6077,
  "out": 446,
  "outed": 15043,
  "outh": 1466,
  "outheast": 12303,
  "outheastern": 24349,
  "outhern": 4328,
  "outine": 30588,
  "outing": 11964,
  "outs": 4911,
  "outube": 13740,
  "ouver": 8108,
  "oux": 19227,
  "ov": 712,
  "ova": 10054,
  "ovable": 23716,
  "ovak": 19373,
  "ovakia": 24734,
  "oval": 8575,
  "ovan": 18656,
  "ove": 666,
  "oved": 2800,
  "ovember": 2771,
  "oven": 16405,
  "over": 2101,
  "overed": 2508,
  "overs": 11196,
  "overty": 21044,
  "overy": 4677,
  "oves": 5922,
  "ovic": 14635,
  "ovich": 16138,
  "ovie": 26964,
  "oving": 5285,
  "ovo": 16134,
  "ovsky": 24077,
  "ovy": 22656,
  "ovych": 30157,
  "ow": 325,
  "owa": 7079,
  "owd": 26542,
  "owder": 11593,
  "owed": 7168,
  "oween": 14632,
  "owell": 12537,
  "ower": 850,
  "owered": 6908,
  "owers": 3870,
  "owing": 8097,
  "owitz": 17574,
  "owl": 4920,
  "owler": 24378,
  "owment": 31762,
  "own": 598,
  "owned": 10473,
  "owner": 17006,
  "owners": 13054,
  "owns": 20987,
  "ownt": 5599,
  "owntown": 19442,
  "ows": 1989,
  "owship": 24092,
  "owski": 10425,
  "ox": 1520,
  "oxic": 28395,
  "oxide": 30807,
  "oxy": 30608,
  "oy": 735,
  "oya": 23470,
  "oyal": 4629,
  "oyd": 11718,
  "oyle": 18198,
  "oys": 20195,
  "oz": 7909,
  "ozy": 25175,
  "p": 112,
  "pa": 9552,
  "pace": 13095,
  "pack": 10293,
  "pad": 18744,
  "page": 8107,
  "paid": 16958,
  "pal": 19996,
  "pan": 6615,
  "panz": 29030,
  "paper": 19875,
  "par": 2047,
  "parable": 26993,
  "paralle": 29074,
  "param": 27780,
  "pard": 26718,
  "pared": 26425,
  "parent": 19848,
  "parents": 20563,
  "park": 19890,
  "part": 3822,
  "particularly": 26728,
  "partisan": 21024,
  "party": 9582,
  "pass": 5856,
  "pat": 8392,
  "patch": 20187,
  "path": 13251,
  "patient": 28140,
  "patrick": 23764,
  "pay": 16495,
  "payer": 26134,
  "paying": 25895,
  "pc": 20204,
  "pdf": 15260,
  "pe": 437,
  "peace": 19098,
  "pecially": 2187,
  "pect": 786,
  "pected": 7046,
  "pecting": 30172,
  "pection": 16492,
  "pective": 4755,
  "pectives": 17474,
  "pector": 20343,
  "ped": 9341,
  "peer": 29460,
  "pelled": 14155,
  "pen": 4106,
  "pensive": 22274,
  "pent": 25225,
  "people": 13867,
  "per": 552,
  "perature": 30319,
  "percent": 24328,
  "pered": 13962,
  "perfect": 24407,
  "performance": 25984,
  "performing": 26250,
  "perhaps": 25509,
  "peria": 30468,
  "perial": 12919,
  "pering": 21654,
  "perm": 17838,
  "peror": 12864,
  "pers": 18454,
  "person": 5318,
  "personal": 21904,
  "pert": 16557,
  "perture": 31484,
  "pes": 7112,
  "pet": 5736,
  "pex": 24314,
  "pg": 10156,
  "ph": 1078,
  "phal": 29114,
  "phan": 11705,
  "phas": 5401,
  "phasis": 28089,
  "pher": 16589,
  "pherd": 22056,
  "phies": 26941,
  "phil": 30019,
  "phis": 17179,
  "phone": 4648,
  "phones": 8428,
  "phot": 31477,
  "photo": 21341,
  "php": 14147,
  "phy": 6704,
  "pi": 21031,
  "pic": 15342,
  "pical": 17412,
  "pically": 18101,
  "pick": 31101,
  "pict": 18574,
  "pictured": 22657,
  "pie": 17435,
  "piece": 12246,
  "pill": 29599,
  "pin": 11866,
  "ping": 11502,
  "pir": 3148,
  "piracy": 21671,
  "pire": 5271,
  "pired": 5517,
  "pires": 23815,
  "piring": 31020,
  "pit": 14518,
  "pite": 2204,
  "pl": 500,
  "place": 4908,
  "placed": 20511,
  "placement": 19983,
  "places": 21489,
  "plan": 13186,
  "plane": 29552,
  "planned": 30941,
  "plant": 16175,
  "plate": 8837,
  "plates": 20354,
  "platform": 25841,
  "play": 2001,
  "played": 18383,
  "player": 9894,
  "playing": 16362,
  "plays": 31231,
  "ple": 1244,
  "pleasant": 20599,
  "pled": 8813,
  "plement": 26621,
  "pler": 21738,
  "ples": 2629,
  "pless": 14927,
  "plete": 8587,
  "plex": 13190,
  "pling": 12093,
  "pload": 8233,
  "plom": 5709,
  "plot": 31039,
  "ploy": 1389,
  "plus": 9131,
  "ply": 2066,
  "pm": 5090,
  "png": 23949,
  "po": 7110,
  "pocket": 31986,
  "point": 4194,
  "points": 12903,
  "pol": 16545,
  "policy": 30838,
  "polit": 26672,
  "political": 19037,
  "politics": 29019,
  "poll": 29282,
  "pool": 7029,
  "poon": 28136,
  "poons": 29711,
  "poor": 31473,
  "pop": 13454,
  "por": 1808,
  "pora": 29765,
  "porary": 5332,
  "porate": 30997,
  "port": 608,
  "portation": 9617,
  "ported": 8790,
  "porting": 19927,
  "portion": 7902,
  "ports": 3517,
  "pos": 16689,
  "pose": 18175,
  "position": 24527,
  "positive": 24979,
  "post": 6876,
  "pot": 12178,
  "pound": 15553,
  "power": 6423,
  "powered": 12818,
  "pp": 378,
  "ppe": 25023,
  "pped": 1544,
  "pper": 3341,
  "ppers": 8767,
  "ppery": 26432,
  "pping": 2176,
  "ppo": 14473,
  "ppy": 11422,
  "pr": 1073,
  "pract": 25093,
  "pre": 3424,
  "pread": 7887,
  "pres": 18658,
  "present": 22786,
  "president": 16875,
  "press": 9159,
  "pret": 6384,
  "pri": 4131,
  "price": 24886,
  "priced": 26494,
  "pril": 2569,
  "prim": 20263,
  "prime": 26803,
  "pring": 13826,
  "print": 6545,
  "prise": 7655,
  "prises": 16111,
  "prising": 12711,
  "prisingly": 17575,
  "priv": 16208,
  "private": 22544,
  "pro": 1928,
  "probably": 24593,
  "process": 18423,
  "proclaimed": 31286,
  "produ": 15243,
  "produced": 25613,
  "producing": 30834,
  "product": 12661,
  "production": 21966,
  "productive": 22310,
  "prof": 4982,
  "professional": 29619,
  "profile": 11803,
  "profit": 7799,
  "profits": 25193,
  "program": 27724,
  "project": 21264,
  "prom": 14380,
  "pron": 31374,
  "proof": 14188,
  "prop": 22605,
  "proper": 25432,
  "prot": 28298,
  "prote": 14161,
  "protected": 24957,
  "prov": 14702,
  "prus": 22530,
  "ps": 2024,
  "pse": 13810,
  "psons": 27529,
  "psy": 14889,
  "psych": 25482,
  "pt": 519,
  "pta": 26231,
  "pted": 5654,
  "ptic": 15205,
  "ption": 1488,
  "ptions": 8691,
  "ptive": 25517,
  "pton": 8724,
  "pts": 14427,
  "pty": 6288,
  "pub": 25417,
  "public": 13028,
  "published": 27167,
  "punk": 30190,
  "pur": 13856,
  "purpose": 28698,
  "pus": 26344,
  "push": 29808,
  "put": 2544,
  "puted": 14415,
  "puter": 11683,
  "px": 14754,
  "py": 13629,
  "q": 113,
  "qa": 18301,
  "ql": 19407,
  "qqa": 23706,
  "qu": 434,
  "qual": 13913,
  "qualified": 21578,
  "quality": 12840,
  "quar": 26553,
  "quarter": 21522,
  "quarters": 7578,
  "que": 3947,
  "quel": 27725,
  "quer": 11867,
  "querque": 29670,
  "query": 28279,
  "ques": 11621,
  "quest": 8774,
  "question": 25232,
  "quet": 21820,
  "quez": 18194,
  "quire": 16511,
  "quirer": 30743,
  "quist": 26005,
  "quite": 30850,
  "quote": 26954,
  "r": 114,
  "ra": 516,
  "rab": 19328,
  "rac": 6464,
  "race": 17319,
  "racial": 28967,
  "ract": 1321,
  "racted": 19038,
  "raction": 19369,
  "ractions": 31619,
  "racuse": 24069,
  "rad": 4391,
  "rade": 27154,
  "rae": 24393,
  "rael": 1958,
  "raeus": 30159,
  "raf": 19545,
  "raft": 1643,
  "rafted": 24179,
  "rag": 25887,
  "rage": 7353,
  "raged": 16026,
  "rah": 11328,
  "raham": 12824,
  "rahim": 20720,
  "raid": 6971,
  "raig": 9656,
  "rail": 30651,
  "rain": 2773,
  "raine": 23069,
  "rained": 13049,
  "raining": 23080,
  "raising": 26974,
  "rait": 11984,
  "raits": 23297,
  "ral": 1294,
  "ram": 4088,
  "ramble": 27200,
  "rament": 13721,
  "ramento": 15376,
  "ramid": 19759,
  "rams": 16542,
  "ran": 2238,
  "rance": 21405,
  "ranch": 22991,
  "rand": 25648,
  "random": 31474,
  "rane": 12624,
  "ranean": 14690,
  "range": 4984,
  "ranged": 30954,
  "ranging": 25828,
  "ranked": 23557,
  "ranking": 22178,
  "rans": 27281,
  "rant": 5900,
  "rap": 1393,
  "rape": 14003,
  "raper": 25072,
  "raph": 7503,
  "rapped": 9218,
  "rapping": 31242,
  "raq": 3090,
  "rar": 24889,
  "rared": 21703,
  "rary": 7100,
  "ras": 7316,
  "rase": 24793,
  "rast": 3187,
  "rastructure": 5145,
  "rat": 1243,
  "rate": 4340,
  "rated": 3715,
  "rates": 7275,
  "rath": 23154,
  "rather": 30151,
  "ratic": 27935,
  "rating": 7452,
  "ration": 1310,
  "rational": 17958,
  "rations": 6733,
  "rative": 7843,
  "ratives": 19993,
  "rator": 8203,
  "rators": 7841,
  "ratory": 29697,
  "ratt": 22123,
  "ratulations": 29190,
  "raud": 5705,
  "rav": 4247,
  "rave": 20024,
  "raved": 30811,
  "ravel": 17684,
  "raven": 24654,
  "ravis": 15800,
  "ravity": 25734,
  "ravo": 28195,
  "raw": 1975,
  "rawl": 15002,
  "rawling": 16959,
  "rawn": 5723,
  "rax": 28280,
  "ray": 2626,
  "rays": 18205,
  "raz": 2990,
  "razil": 5875,
  "razy": 5803,
  "rb": 30080,
  "rc": 11480,
  "rd": 4985,
  "re": 260,
  "rea": 19191,
  "reach": 14151,
  "reaching": 24968,
  "read": 1008,
  "reading": 21094,
  "ready": 1380,
  "real": 4898,
  "realDonaldTrump": 21950,
  "really": 24249,
  "ream": 2333,
  "reamed": 15129,
  "reams": 7562,
  "reat": 640,
  "reated": 14541,
  "reath": 23839,
  "reating": 18097,
  "reatment": 22018,
  "reb": 23426,
  "rec": 8732,
  "reci": 26742,
  "reck": 10797,
  "recogn": 24007,
  "record": 20480,
  "rect": 2969,
  "rection": 9424,
  "rections": 17767,
  "recy": 16735,
  "red": 450,
  "reddit": 19724,
  "redible": 28457,
  "redict": 13704,
  "redients": 26683,
  "redit": 7007,
  "redited": 19485,
  "redits": 26033,
  "ree": 613,
  "reed": 1913,
  "reedom": 3203,
  "reek": 10765,
  "reen": 1406,
  "reens": 5537,
  "rees": 5004,
  "reet": 2608,
  "reeze": 22543,
  "ref": 7774,
  "reg": 2309,
  "regist": 28983,
  "regn": 27468,
  "regon": 7213,
  "regor": 21340,
  "regular": 17764,
  "regulated": 23392,
  "regulation": 23860,
  "rehens": 25000,
  "rehensible": 29831,
  "rel": 2714,
  "reland": 5978,
  "related": 5196,
  "release": 22825,
  "released": 26973,
  "reli": 27347,
  "religious": 22035,
  "rell": 10241,
  "rella": 18928,
  "rem": 1363,
  "reme": 2116,
  "remlin": 14417,
  "ren": 912,
  "rence": 6738,
  "rench": 3236,
  "renched": 19864,
  "renches": 29773,
  "rencies": 11885,
  "rency": 4990,
  "rend": 10875,
  "render": 13465,
  "rendered": 23210,
  "rene": 21815,
  "renn": 25358,
  "rent": 1154,
  "rentice": 23195,
  "reon": 26874,
  "rep": 7505,
  "repe": 30228,
  "report": 26849,
  "reported": 26361,
  "repre": 8554,
  "reprene": 8595,
  "represent": 14379,
  "represented": 29787,
  "requ": 11592,
  "requency": 29913,
  "rer": 13580,
  "rera": 19516,
  "rero": 28050,
  "rers": 27753,
  "res": 406,
  "resa": 13592,
  "rescent": 26790,
  "resent": 1878,
  "resents": 5909,
  "resh": 3789,
  "reshold": 10787,
  "resident": 1521,
  "resistant": 25441,
  "resolution": 27064,
  "resp": 4523,
  "respect": 15173,
  "respond": 5741,
  "respons": 14225,
  "response": 30401,
  "responsible": 19218,
  "ress": 594,
  "ressed": 3713,
  "resses": 20210,
  "ressing": 10925,
  "ression": 3508,
  "ressive": 5315,
  "rest": 916,
  "rested": 28305,
  "restrial": 19974,
  "result": 31262,
  "ret": 1237,
  "retch": 30224,
  "retched": 29209,
  "rete": 7441,
  "retion": 14610,
  "rets": 8602,
  "rett": 7105,
  "retty": 17887,
  "return": 20998,
  "rev": 19895,
  "review": 19632,
  "reviewed": 28368,
  "revolution": 27965,
  "rew": 1767,
  "rey": 4398,
  "rez": 21591,
  "rh": 21037,
  "ri": 381,
  "ria": 7453,
  "riad": 19376,
  "riage": 3844,
  "riages": 15070,
  "rial": 4242,
  "rian": 4065,
  "rians": 16603,
  "rib": 838,
  "riber": 25233,
  "rible": 5300,
  "ribly": 15394,
  "ribut": 2357,
  "ribute": 4586,
  "ributed": 5712,
  "ributes": 9610,
  "ribution": 4008,
  "ric": 1149,
  "rica": 27101,
  "rical": 8186,
  "ricane": 10227,
  "ricanes": 19558,
  "rice": 22218,
  "rich": 6215,
  "riched": 28230,
  "ricia": 24902,
  "rick": 4715,
  "ricks": 23112,
  "rics": 10887,
  "rict": 1938,
  "ricted": 21433,
  "rid": 5911,
  "ride": 25858,
  "ridge": 12622,
  "ridges": 31622,
  "rie": 5417,
  "ried": 2182,
  "rief": 3596,
  "riel": 14103,
  "rien": 13665,
  "riend": 1299,
  "rient": 8170,
  "riented": 23337,
  "rients": 19372,
  "rier": 5538,
  "riers": 8015,
  "ries": 1560,
  "rif": 9707,
  "rific": 7530,
  "rifice": 11160,
  "rig": 4366,
  "riger": 18874,
  "right": 2354,
  "rights": 21468,
  "rik": 8153,
  "rike": 11138,
  "rikes": 16686,
  "ril": 24489,
  "rill": 19268,
  "rily": 29361,
  "rim": 4776,
  "rimin": 9052,
  "riminal": 25598,
  "rimination": 7008,
  "rimp": 25729,
  "rin": 11956,
  "rina": 18901,
  "rine": 22269,
  "ring": 1934,
  "rington": 21464,
  "rint": 13343,
  "rio": 22760,
  "rior": 10018,
  "riors": 9809,
  "rip": 6274,
  "ripp": 14733,
  "ript": 2457,
  "ription": 4191,
  "rique": 25830,
  "rir": 30708,
  "ris": 2054,
  "rise": 17306,
  "rises": 25878,
  "rising": 17096,
  "risk": 17063,
  "rison": 6593,
  "rist": 1483,
  "ristol": 19251,
  "rists": 30647,
  "risy": 21722,
  "rit": 711,
  "rite": 9167,
  "rites": 27419,
  "ritical": 15463,
  "rities": 15983,
  "rition": 10948,
  "ritional": 22938,
  "ritis": 29336,
  "ritz": 26395,
  "rium": 19190,
  "rive": 6707,
  "rived": 15957,
  "river": 29604,
  "riving": 13647,
  "rix": 9918,
  "rm": 31543,
  "rne": 27294,
  "ro": 308,
  "road": 5328,
  "roads": 17831,
  "rob": 23396,
  "robe": 27345,
  "roc": 12660,
  "rock": 10483,
  "rod": 16850,
  "rodu": 2153,
  "roduction": 13435,
  "roe": 18726,
  "rog": 5522,
  "rogen": 15390,
  "roid": 3994,
  "rol": 4031,
  "rolet": 26844,
  "roll": 3963,
  "rolled": 8230,
  "roller": 13138,
  "rolling": 14184,
  "rolls": 24989,
  "rolog": 30660,
  "rom": 395,
  "rome": 6569,
  "ron": 1446,
  "rone": 15264,
  "rones": 14930,
  "rong": 14778,
  "ronic": 4819,
  "ronics": 22952,
  "rons": 11571,
  "ront": 4232,
  "ronting": 24134,
  "room": 3196,
  "rooms": 9171,
  "root": 21149,
  "roots": 14253,
  "rop": 1673,
  "roph": 10023,
  "rophe": 18611,
  "rophic": 15705,
  "ropical": 27165,
  "ropolis": 26651,
  "ropolitan": 13085,
  "ropri": 8731,
  "ropy": 29523,
  "ror": 1556,
  "rors": 6776,
  "ros": 4881,
  "rose": 13823,
  "ross": 1204,
  "rost": 27283,
  "rot": 12192,
  "rote": 2070,
  "rots": 25260,
  "rou": 478,
  "roud": 5220,
  "rough": 736,
  "rought": 2738,
  "round": 738,
  "roup": 952,
  "rous": 7910,
  "rov": 17780,
  "rovers": 25388,
  "row": 814,
  "rowd": 3450,
  "rowing": 10198,
  "rown": 2815,
  "rows": 9539,
  "rowth": 14009,
  "roy": 3551,
  "rs": 3848,
  "rt": 23143,
  "ru": 606,
  "ruary": 3166,
  "rub": 29892,
  "ruce": 24335,
  "ruck": 31815,
  "ruct": 1411,
  "ructed": 18518,
  "ruction": 2824,
  "ructions": 22448,
  "ructive": 12951,
  "ructure": 2910,
  "rue": 22745,
  "rued": 26263,
  "rug": 1967,
  "rugged": 22698,
  "rugu": 24744,
  "ruit": 5144,
  "rule": 27537,
  "ruly": 31239,
  "rum": 6147,
  "run": 5108,
  "runner": 14492,
  "running": 17321,
  "rup": 12079,
  "rupal": 31184,
  "rupt": 3512,
  "ruption": 5615,
  "rus": 14898,
  "rust": 12968,
  "ry": 571,
  "ryan": 27011,
  "rying": 11330,
  "ryn": 28766,
  "rypt": 20630,
  "rys": 19797,
  "rÃ©": 24452,
  "s": 115,
  "sa": 10149,
  "sac": 30738,
  "safe": 21759,
  "sal": 25820,
  "san": 18056,
  "save": 27314,
  "saving": 24421,
  "say": 17472,
  "sburg": 29062,
  "sc": 1499,
  "scale": 8735,
  "scape": 7709,
  "scar": 10745,
  "scars": 31502,
  "scenes": 24805,
  "sch": 24036,
  "sche": 14676,
  "school": 13036,
  "science": 15462,
  "scient": 21390,
  "scill": 22607,
  "scope": 31696,
  "screen": 10162,
  "scrib": 4510,
  "scribe": 9606,
  "script": 15874,
  "se": 326,
  "sea": 7212,
  "search": 16103,
  "season": 4829,
  "seat": 19385,
  "sec": 2259,
  "second": 13086,
  "secret": 18996,
  "sect": 9491,
  "section": 9858,
  "sections": 28999,
  "sector": 27414,
  "secure": 20898,
  "security": 10733,
  "secut": 3892,
  "secution": 16777,
  "secutive": 10894,
  "secutor": 27362,
  "secutors": 21301,
  "see": 4059,
  "seek": 28091,
  "seen": 16014,
  "sein": 16149,
  "sel": 749,
  "select": 25628,
  "seless": 11573,
  "self": 980,
  "sell": 7289,
  "seller": 27989,
  "selling": 13943,
  "sels": 8105,
  "selves": 1887,
  "semb": 4628,
  "semble": 14501,
  "sembly": 6172,
  "sen": 5550,
  "senal": 8707,
  "sensitive": 28574,
  "sequ": 3024,
  "sequently": 19839,
  "ser": 2387,
  "series": 24517,
  "serious": 26944,
  "serv": 4639,
  "server": 15103,
  "service": 15972,
  "serving": 25131,
  "ses": 9781,
  "set": 3080,
  "sett": 19248,
  "setting": 30546,
  "seud": 13100,
  "seven": 24948,
  "sever": 25978,
  "sewhere": 27085,
  "sex": 6871,
  "sexual": 18696,
  "sey": 3906,
  "seys": 22588,
  "sh": 1728,
  "shadow": 18447,
  "shaped": 16720,
  "share": 23937,
  "sharing": 17313,
  "shaw": 27512,
  "she": 7965,
  "shed": 30368,
  "sheet": 22272,
  "shield": 30239,
  "shine": 18745,
  "ship": 7248,
  "ships": 24832,
  "shire": 9028,
  "shirt": 14224,
  "shirts": 19683,
  "shit": 17293,
  "shoot": 27113,
  "shop": 31510,
  "shore": 11608,
  "short": 23634,
  "shot": 12240,
  "shots": 25568,
  "should": 20199,
  "show": 16241,
  "si": 16935,
  "sic": 18876,
  "side": 1515,
  "sided": 20276,
  "sight": 16784,
  "sign": 12963,
  "signed": 29994,
  "significant": 29026,
  "sil": 20782,
  "sim": 15653,
  "sin": 31070,
  "since": 22809,
  "sis": 14640,
  "site": 17423,
  "six": 17982,
  "size": 11775,
  "sized": 12576,
  "sk": 13083,
  "ski": 13681,
  "skin": 22866,
  "sky": 13202,
  "sl": 10014,
  "slaught": 28170,
  "slist": 31443,
  "sm": 7423,
  "small": 21744,
  "smart": 26197,
  "smith": 24267,
  "sn": 17902,
  "so": 551,
  "soc": 29935,
  "social": 16142,
  "soever": 15483,
  "soft": 4080,
  "sold": 24562,
  "sole": 6713,
  "solete": 22420,
  "some": 10447,
  "something": 16883,
  "sometimes": 27716,
  "son": 1264,
  "song": 29166,
  "sonian": 29630,
  "soon": 27994,
  "sor": 22283,
  "sound": 31118,
  "source": 13129,
  "sover": 20006,
  "sp": 3543,
  "space": 14735,
  "span": 19225,
  "spe": 4652,
  "speaking": 19908,
  "special": 22258,
  "specific": 12362,
  "speed": 11364,
  "spir": 25899,
  "spl": 27151,
  "spoken": 15784,
  "spons": 16232,
  "sponsored": 20111,
  "spot": 23207,
  "squ": 16148,
  "square": 20377,
  "src": 20931,
  "ss": 863,
  "sson": 13881,
  "st": 303,
  "stack": 30640,
  "stad": 21614,
  "staff": 27332,
  "stage": 13466,
  "stairs": 18512,
  "stakes": 31785,
  "stal": 9681,
  "stan": 12389,
  "stanbul": 19088,
  "stand": 1433,
  "standard": 21831,
  "standing": 5508,
  "stant": 22994,
  "star": 7477,
  "stars": 30075,
  "start": 12216,
  "starter": 10522,
  "stasy": 31413,
  "stat": 28513,
  "state": 5252,
  "stated": 18169,
  "statement": 24370,
  "states": 26952,
  "static": 20738,
  "station": 17707,
  "status": 20961,
  "stay": 28365,
  "ste": 4236,
  "stead": 25459,
  "sted": 25731,
  "steen": 31347,
  "stein": 5184,
  "stellar": 28957,
  "stem": 947,
  "sten": 24683,
  "step": 9497,
  "steps": 18867,
  "ster": 1762,
  "sterdam": 20387,
  "sters": 6992,
  "stick": 16209,
  "still": 21673,
  "stock": 12913,
  "ston": 3521,
  "stone": 6907,
  "stones": 28683,
  "stood": 6265,
  "stop": 10674,
  "store": 13082,
  "storm": 12269,
  "story": 12562,
  "stown": 24148,
  "str": 6921,
  "stra": 11528,
  "stract": 8273,
  "strap": 27228,
  "stre": 23166,
  "stream": 5082,
  "street": 27784,
  "strike": 26908,
  "string": 12041,
  "stro": 22396,
  "strom": 18664,
  "strong": 10610,
  "stru": 21504,
  "struct": 27939,
  "sts": 5767,
  "stud": 19395,
  "sty": 21332,
  "style": 6566,
  "su": 17793,
  "sub": 10176,
  "success": 27506,
  "such": 11201,
  "sum": 19308,
  "sun": 17199,
  "super": 19059,
  "supp": 12441,
  "support": 26334,
  "supported": 30803,
  "sur": 12423,
  "sw": 2173,
  "swer": 23334,
  "swick": 26319,
  "sworth": 27651,
  "sy": 2106,
  "sych": 3179,
  "sylv": 7971,
  "sylvania": 8032,
  "syn": 30923,
  "system": 15395,
  "t": 116,
  "ta": 7247,
  "tab": 24508,
  "table": 13576,
  "tag": 19669,
  "tail": 13173,
  "tailed": 29745,
  "tails": 25013,
  "tain": 932,
  "tainment": 10463,
  "take": 15733,
  "taker": 28431,
  "taking": 23032,
  "tale": 25189,
  "talk": 15490,
  "tank": 25924,
  "tar": 22340,
  "target": 22689,
  "tarian": 11240,
  "tarians": 21866,
  "tax": 17678,
  "td": 28971,
  "te": 399,
  "team": 14937,
  "tec": 29250,
  "tech": 11643,
  "techn": 21605,
  "ted": 1024,
  "tee": 2284,
  "teen": 7108,
  "teenth": 22174,
  "tees": 13224,
  "tel": 9640,
  "tell": 27028,
  "telling": 15613,
  "tem": 1248,
  "tember": 2726,
  "temporary": 26475,
  "tempt": 1961,
  "tems": 24367,
  "ten": 1025,
  "tenance": 9427,
  "ter": 347,
  "terday": 5348,
  "tered": 3437,
  "tering": 6416,
  "terior": 14916,
  "term": 3938,
  "tern": 758,
  "ternal": 5760,
  "terns": 29753,
  "terror": 10986,
  "terrorism": 15639,
  "terrorist": 31142,
  "ters": 888,
  "terson": 20020,
  "tery": 4729,
  "tes": 7755,
  "tesque": 31438,
  "test": 7769,
  "testing": 31293,
  "text": 673,
  "th": 418,
  "tha": 13359,
  "thal": 11522,
  "than": 13337,
  "thanks": 30711,
  "that": 5509,
  "the": 1122,
  "their": 22296,
  "theless": 9046,
  "them": 15978,
  "themed": 21408,
  "then": 8041,
  "thening": 18765,
  "ther": 492,
  "there": 7333,
  "thereum": 14892,
  "these": 25711,
  "thew": 7474,
  "they": 9232,
  "thia": 30774,
  "thing": 1199,
  "think": 12604,
  "thinkable": 29684,
  "thinking": 24581,
  "third": 15424,
  "thirds": 14536,
  "this": 7668,
  "thodox": 10976,
  "thood": 10727,
  "thora": 28909,
  "those": 23087,
  "though": 1922,
  "thought": 24977,
  "thouse": 19622,
  "thread": 25724,
  "threat": 17244,
  "threatening": 22905,
  "three": 15267,
  "thro": 31915,
  "throp": 10374,
  "through": 9184,
  "ths": 14734,
  "thur": 11195,
  "thus": 31943,
  "thy": 21895,
  "ti": 18826,
  "tic": 15538,
  "tical": 22550,
  "tick": 26070,
  "tics": 13024,
  "tier": 20983,
  "ties": 4170,
  "tight": 30329,
  "tim": 23805,
  "time": 2410,
  "times": 20973,
  "ting": 777,
  "tingham": 29624,
  "tingly": 28476,
  "tion": 5498,
  "tit": 12349,
  "title": 17393,
  "tle": 860,
  "tlement": 23559,
  "tles": 28969,
  "tlet": 25027,
  "tml": 25144,
  "to": 1358,
  "ton": 1081,
  "too": 10590,
  "toos": 25758,
  "top": 5314,
  "tor": 14213,
  "total": 25816,
  "touch": 29200,
  "town": 11120,
  "tox": 29328,
  "tr": 3280,
  "tra": 10694,
  "track": 11241,
  "trade": 21942,
  "traditional": 30195,
  "train": 25973,
  "trained": 30641,
  "trans": 9375,
  "tre": 25385,
  "tree": 24259,
  "tri": 24619,
  "trl": 29306,
  "tro": 25664,
  "true": 16813,
  "ts": 887,
  "tsburgh": 10087,
  "tsky": 30806,
  "tt": 1311,
  "tta": 23185,
  "ttes": 12103,
  "ttle": 31323,
  "ttp": 2867,
  "ttps": 4112,
  "tun": 26415,
  "turn": 21567,
  "turned": 25599,
  "tv": 21222,
  "tw": 15856,
  "twitter": 6243,
  "two": 11629,
  "txt": 23448,
  "ty": 852,
  "tyard": 31883,
  "type": 8499,
  "types": 26627,
  "tz": 20580,
  "u": 117,
  "ua": 6732,
  "uable": 6625,
  "uably": 11613,
  "uador": 20196,
  "ual": 742,
  "ually": 923,
  "uan": 7620,
  "uana": 3997,
  "uania": 27952,
  "uant": 29531,
  "uart": 16763,
  "uary": 2545,
  "uate": 5012,
  "uated": 6585,
  "uates": 11839,
  "uating": 11063,
  "uation": 2207,
  "uations": 5940,
  "ub": 530,
  "uba": 21810,
  "ubarak": 22918,
  "ube": 3743,
  "uber": 17788,
  "ubl": 1748,
  "uble": 28426,
  "ublic": 757,
  "ublin": 13712,
  "ublished": 10734,
  "ubs": 22226,
  "uc": 1193,
  "ucc": 15266,
  "uccess": 11168,
  "ucci": 21108,
  "uce": 7946,
  "uced": 13734,
  "uch": 781,
  "uchi": 27867,
  "uchs": 30286,
  "ucing": 23620,
  "uck": 1385,
  "ucked": 17040,
  "ucker": 11374,
  "ucking": 24124,
  "uckland": 23866,
  "ucks": 5702,
  "ucky": 4963,
  "ucle": 15511,
  "uclear": 3251,
  "uct": 4964,
  "uction": 8624,
  "uctions": 26701,
  "ud": 471,
  "uda": 16926,
  "udd": 4239,
  "uddenly": 19601,
  "uddle": 23668,
  "uddled": 28361,
  "uddy": 22186,
  "ude": 2596,
  "udeau": 11910,
  "uded": 17285,
  "uder": 27527,
  "udes": 8161,
  "udge": 12625,
  "udget": 24135,
  "udic": 25838,
  "uding": 24758,
  "udo": 24576,
  "uds": 21320,
  "ue": 540,
  "ued": 1566,
  "uel": 2607,
  "ueless": 31793,
  "ueller": 13354,
  "uels": 11734,
  "uer": 7998,
  "uerto": 12198,
  "ues": 899,
  "uesday": 2649,
  "uese": 16580,
  "uez": 12230,
  "uf": 3193,
  "ufact": 3665,
  "uff": 1760,
  "uffed": 16387,
  "uffer": 21675,
  "ufficient": 14940,
  "uffle": 18021,
  "uffled": 29474,
  "uffs": 19393,
  "uffy": 16440,
  "ug": 1258,
  "ugar": 16854,
  "ugby": 11497,
  "uge": 1974,
  "ugg": 4214,
  "uggage": 28701,
  "ugged": 13607,
  "ugger": 24611,
  "uggets": 25408,
  "ugging": 13841,
  "uggish": 30444,
  "ugh": 6686,
  "ught": 8991,
  "ugin": 26433,
  "ugs": 12080,
  "uh": 9718,
  "ui": 10532,
  "uild": 4155,
  "uilding": 6919,
  "uilt": 22100,
  "uine": 7540,
  "uing": 3323,
  "uit": 3160,
  "uitive": 28905,
  "uits": 8753,
  "uity": 14908,
  "uj": 13329,
  "uk": 3138,
  "uka": 19411,
  "uke": 5035,
  "ukes": 28249,
  "uki": 14697,
  "ul": 377,
  "ula": 4848,
  "ular": 1097,
  "ularly": 2499,
  "ulars": 28737,
  "ulas": 29439,
  "ulate": 4890,
  "ulated": 4631,
  "ulates": 15362,
  "ulating": 7923,
  "ulation": 1753,
  "ulations": 5896,
  "ulative": 13583,
  "ulator": 14969,
  "ulators": 21589,
  "ulatory": 21261,
  "ule": 2577,
  "uled": 21391,
  "ulence": 29995,
  "ulent": 13790,
  "ules": 7666,
  "ulf": 4641,
  "ulic": 27754,
  "ulin": 15658,
  "ulk": 15406,
  "ull": 750,
  "ullah": 27214,
  "ulled": 30965,
  "ulling": 30054,
  "ullivan": 13737,
  "ully": 2129,
  "ulous": 6489,
  "ulously": 16584,
  "uls": 6078,
  "ulse": 11065,
  "ulsion": 14452,
  "ult": 596,
  "ultan": 24875,
  "ultane": 9122,
  "ults": 12200,
  "ultural": 8501,
  "ulture": 6845,
  "ulty": 10409,
  "ultz": 17475,
  "ulu": 14633,
  "ulum": 13747,
  "ulus": 26471,
  "uly": 1898,
  "ulz": 26971,
  "um": 404,
  "uma": 8248,
  "umably": 27301,
  "uman": 4032,
  "umat": 25516,
  "umatic": 16262,
  "umb": 2303,
  "umbai": 15770,
  "umber": 6690,
  "umbered": 25138,
  "umbing": 30040,
  "umbl": 13996,
  "umble": 9735,
  "umbled": 12475,
  "umbles": 23688,
  "umbling": 13555,
  "umblr": 15234,
  "umbo": 24919,
  "umbs": 21560,
  "ume": 2921,
  "umed": 17766,
  "umen": 22255,
  "ument": 1905,
  "uments": 3069,
  "umer": 7948,
  "umers": 25493,
  "umes": 8204,
  "umi": 20831,
  "umin": 8004,
  "uming": 12210,
  "umm": 12465,
  "ummy": 16863,
  "umn": 4849,
  "umni": 21869,
  "umns": 14973,
  "ump": 806,
  "umped": 21741,
  "umper": 17583,
  "umph": 10484,
  "umping": 20394,
  "umps": 19043,
  "umption": 27401,
  "umpy": 31393,
  "ums": 6901,
  "un": 405,
  "una": 11698,
  "unal": 18515,
  "unch": 1950,
  "unciation": 25350,
  "unct": 13626,
  "unction": 5747,
  "uncture": 28726,
  "und": 879,
  "under": 5335,
  "undred": 3020,
  "undreds": 16421,
  "une": 1700,
  "unes": 8674,
  "ung": 2212,
  "unge": 16086,
  "unged": 24541,
  "ungle": 14549,
  "unicip": 8796,
  "unicipal": 10044,
  "unicipality": 26051,
  "union": 22485,
  "unior": 8318,
  "unique": 15695,
  "unit": 27434,
  "unity": 11080,
  "unk": 3156,
  "unks": 15344,
  "unky": 25761,
  "unless": 27227,
  "unning": 7137,
  "uns": 14578,
  "unt": 2846,
  "untary": 27054,
  "unte": 5840,
  "until": 27450,
  "untu": 11172,
  "uo": 31460,
  "uous": 5691,
  "uously": 22950,
  "up": 901,
  "update": 31207,
  "uper": 8232,
  "upert": 23380,
  "upid": 7703,
  "upiter": 18450,
  "upload": 29736,
  "upon": 29756,
  "upp": 4409,
  "ups": 4902,
  "ur": 334,
  "ura": 7351,
  "urable": 13410,
  "urai": 24984,
  "ural": 1479,
  "urally": 17380,
  "urance": 3782,
  "urances": 25386,
  "uras": 15646,
  "uration": 5339,
  "urations": 24454,
  "urb": 4583,
  "urban": 30607,
  "urbed": 17986,
  "urch": 1745,
  "urchase": 26324,
  "urches": 11259,
  "urd": 2549,
  "urdy": 28110,
  "ure": 501,
  "ureau": 5425,
  "ured": 1489,
  "uren": 30520,
  "urer": 30026,
  "urers": 31334,
  "ures": 984,
  "urg": 3526,
  "urger": 27779,
  "uri": 12948,
  "uries": 4282,
  "uring": 845,
  "urious": 16335,
  "uristic": 23306,
  "urities": 11950,
  "urity": 1484,
  "url": 13733,
  "urn": 782,
  "urned": 12707,
  "urning": 3008,
  "uro": 1300,
  "urous": 27685,
  "urp": 30835,
  "urrection": 27863,
  "urred": 12984,
  "urrent": 7782,
  "urring": 14401,
  "urry": 16427,
  "urs": 1467,
  "ursday": 2818,
  "urse": 10742,
  "ursed": 31019,
  "ursor": 25302,
  "urst": 20402,
  "urt": 3483,
  "urther": 1848,
  "uru": 14334,
  "ury": 1495,
  "us": 386,
  "usa": 24143,
  "usable": 29121,
  "usal": 6318,
  "usalem": 9222,
  "usat": 26461,
  "usc": 16678,
  "usch": 24475,
  "uscript": 15810,
  "use": 1892,
  "used": 1407,
  "usement": 26093,
  "user": 10527,
  "users": 20190,
  "uses": 2954,
  "useum": 5399,
  "ush": 1541,
  "ushed": 16265,
  "ushes": 25638,
  "ushi": 21326,
  "ushima": 21510,
  "ushing": 15773,
  "usiness": 5897,
  "using": 3434,
  "usion": 3960,
  "usions": 15863,
  "usive": 8064,
  "usk": 19028,
  "usp": 18757,
  "usr": 24701,
  "usra": 21978,
  "uss": 999,
  "ussed": 26813,
  "ussen": 27334,
  "ussia": 26078,
  "ussian": 31841,
  "ussion": 13330,
  "ussions": 18860,
  "ussy": 24274,
  "ust": 438,
  "ustain": 16363,
  "ustainable": 19306,
  "usted": 8163,
  "uster": 5331,
  "usterity": 14765,
  "usters": 12552,
  "usting": 11350,
  "ustom": 1933,
  "ustomed": 21021,
  "usually": 23766,
  "ut": 311,
  "uta": 30981,
  "utable": 24450,
  "utan": 31675,
  "utation": 29568,
  "utch": 6525,
  "ute": 1177,
  "uted": 8746,
  "uten": 9530,
  "utenant": 15010,
  "uter": 10958,
  "uters": 5081,
  "uterte": 17560,
  "utes": 1902,
  "uth": 1105,
  "uther": 11271,
  "uthor": 1477,
  "utic": 19052,
  "utical": 13260,
  "uties": 8239,
  "util": 30353,
  "uting": 14901,
  "ution": 996,
  "utions": 3264,
  "uto": 11796,
  "uton": 25659,
  "utory": 22790,
  "utral": 19002,
  "uts": 5706,
  "utsche": 23790,
  "utt": 12577,
  "utter": 10767,
  "utterstock": 22959,
  "utton": 18606,
  "uture": 1629,
  "uty": 3777,
  "utz": 24712,
  "uu": 30088,
  "uum": 14152,
  "uv": 14971,
  "ux": 3296,
  "uxe": 28177,
  "uy": 6357,
  "uz": 10495,
  "uzz": 5323,
  "uzzle": 26808,
  "v": 118,
  "va": 6691,
  "vable": 21773,
  "vag": 28647,
  "val": 2594,
  "valid": 12611,
  "vals": 12834,
  "value": 12703,
  "van": 9770,
  "vana": 31960,
  "vance": 17752,
  "vant": 4844,
  "var": 11518,
  "vard": 8609,
  "vari": 28723,
  "vas": 11071,
  "vasive": 19672,
  "vation": 10969,
  "vd": 25646,
  "ve": 304,
  "ved": 867,
  "veillance": 24187,
  "vel": 653,
  "velength": 25035,
  "vell": 29111,
  "velop": 1022,
  "velt": 15086,
  "vement": 22046,
  "ven": 563,
  "venant": 20889,
  "venge": 30556,
  "vent": 3136,
  "vention": 4546,
  "ventional": 21365,
  "ventions": 16322,
  "ventus": 27906,
  "venue": 3678,
  "ver": 331,
  "verage": 1803,
  "verages": 25332,
  "vere": 4037,
  "vered": 21228,
  "vern": 795,
  "verning": 12771,
  "vernment": 9414,
  "vers": 682,
  "verse": 4950,
  "versely": 20494,
  "version": 11807,
  "vert": 1699,
  "verted": 16394,
  "vertise": 2796,
  "vertisement": 3234,
  "vertisements": 9626,
  "vertising": 19387,
  "verts": 22816,
  "verty": 6903,
  "very": 541,
  "ves": 1052,
  "vest": 4354,
  "vet": 16126,
  "vette": 29744,
  "vey": 5406,
  "veyard": 24817,
  "vez": 25537,
  "vi": 10678,
  "via": 10155,
  "vial": 16347,
  "vic": 28308,
  "vict": 30267,
  "vid": 19027,
  "video": 21049,
  "vidia": 23388,
  "vie": 24868,
  "view": 1209,
  "vig": 31261,
  "vik": 30335,
  "ville": 3971,
  "vin": 6722,
  "vine": 23834,
  "ving": 961,
  "viol": 14219,
  "violence": 31256,
  "violent": 19783,
  "vious": 12266,
  "viously": 7696,
  "viron": 2078,
  "vironment": 2251,
  "vironments": 11274,
  "vis": 5210,
  "vised": 15673,
  "visible": 28326,
  "vision": 9699,
  "visor": 13162,
  "visors": 23796,
  "vity": 20051,
  "vm": 31154,
  "vo": 11704,
  "voc": 16986,
  "vol": 11318,
  "volent": 27428,
  "volume": 30916,
  "von": 22974,
  "vor": 16573,
  "vote": 27862,
  "vous": 29053,
  "vs": 23398,
  "vy": 7340,
  "w": 119,
  "wa": 10818,
  "wage": 17202,
  "wagen": 23582,
  "wait": 17338,
  "wal": 13223,
  "wald": 19464,
  "walk": 9457,
  "walker": 25605,
  "walks": 24715,
  "wall": 11394,
  "wan": 7162,
  "war": 5337,
  "ward": 892,
  "wards": 1996,
  "ware": 1587,
  "wart": 6806,
  "wartz": 22050,
  "was": 9476,
  "watch": 10019,
  "water": 5854,
  "waukee": 12988,
  "wave": 20533,
  "waves": 25833,
  "way": 1009,
  "ways": 1302,
  "wd": 27765,
  "we": 721,
  "wealth": 14381,
  "wear": 14447,
  "weather": 20476,
  "web": 17259,
  "wed": 10427,
  "week": 9825,
  "ween": 958,
  "weet": 7924,
  "wegian": 17301,
  "weight": 6600,
  "well": 4388,
  "welling": 25452,
  "wen": 20959,
  "went": 18124,
  "wer": 14639,
  "were": 20048,
  "wered": 8585,
  "west": 6443,
  "western": 12375,
  "wh": 1612,
  "what": 4841,
  "whe": 12663,
  "wheel": 22743,
  "whel": 6196,
  "whelming": 31138,
  "when": 12534,
  "where": 2395,
  "whether": 24671,
  "which": 4518,
  "while": 3874,
  "white": 10836,
  "who": 7794,
  "whose": 31948,
  "why": 22380,
  "wi": 27213,
  "wic": 20845,
  "wich": 10448,
  "wick": 14873,
  "wid": 12283,
  "wide": 3909,
  "width": 13477,
  "wife": 20745,
  "wig": 24913,
  "wik": 25367,
  "wiki": 26236,
  "wild": 22583,
  "will": 10235,
  "win": 4346,
  "wind": 10496,
  "wing": 4919,
  "winning": 11765,
  "wire": 21640,
  "wise": 3489,
  "wit": 1417,
  "witch": 4394,
  "with": 5038,
  "without": 19682,
  "withstanding": 25920,
  "witter": 1937,
  "witz": 25356,
  "witzer": 11863,
  "witzerland": 12119,
  "wives": 31012,
  "wn": 672,
  "wo": 3128,
  "wolf": 28106,
  "wolves": 31631,
  "woman": 6802,
  "women": 23742,
  "won": 23237,
  "wood": 3629,
  "word": 6115,
  "words": 11660,
  "work": 1589,
  "worked": 28320,
  "worker": 26514,
  "workers": 19700,
  "working": 14545,
  "works": 4528,
  "world": 7772,
  "worm": 25658,
  "worth": 8317,
  "worthy": 16315,
  "would": 16305,
  "wp": 26861,
  "wright": 25371,
  "writ": 5868,
  "write": 14812,
  "writer": 13362,
  "writers": 25848,
  "writing": 14220,
  "written": 12181,
  "wrote": 31928,
  "ws": 21550,
  "ww": 2162,
  "www": 3987,
  "wy": 26152,
  "wyn": 25556,
  "x": 120,
  "xc": 31552,
  "xd": 28623,
  "xi": 31331,
  "ximately": 23886,
  "xit": 8592,
  "xml": 27915,
  "xon": 19113,
  "xt": 538,
  "xton": 18532,
  "xual": 5917,
  "xx": 9635,
  "xxxx": 25143,
  "xy": 6677,
  "y": 121,
  "ya": 4111,
  "yan": 3630,
  "yang": 15465,
  "yard": 8099,
  "yards": 30581,
  "yd": 15683,
  "ye": 7594,
  "year": 1599,
  "years": 19033,
  "yer": 9040,
  "yers": 20392,
  "yes": 9687,
  "yet": 22569,
  "yg": 22079,
  "ying": 1070,
  "yl": 3445,
  "ylan": 16415,
  "yle": 2399,
  "yll": 22606,
  "ylon": 19210,
  "ylum": 9833,
  "ym": 5128,
  "ymes": 23196,
  "ymph": 24463,
  "yn": 2155,
  "ynam": 5057,
  "ynasty": 17260,
  "ync": 17251,
  "ynchron": 25083,
  "ynchronous": 29529,
  "yo": 9054,
  "yon": 17051,
  "yond": 3025,
  "you": 6742,
  "your": 16445,
  "youtube": 18221,
  "yr": 5602,
  "yre": 28185,
  "yrr": 24304,
  "yrrha": 24857,
  "yrus": 22143,
  "ys": 949,
  "ysc": 26708,
  "ysical": 17122,
  "ysics": 23874,
  "ysis": 3130,
  "yson": 16953,
  "yssey": 26502,
  "ystem": 7926,
  "yth": 5753,
  "ython": 8494,
  "yton": 25997,
  "z": 122,
  "za": 4531,
  "zai": 26312,
  "zan": 22783,
  "zb": 12784,
  "zbollah": 16128,
  "ze": 3073,
  "zed": 8823,
  "zel": 17926,
  "zen": 4576,
  "zens": 7062,
  "zer": 5848,
  "zero": 23843,
  "zes": 12414,
  "zh": 16083,
  "zhou": 28612,
  "zi": 15137,
  "zilla": 24503,
  "zing": 9204,
  "zip": 22708,
  "zman": 26638,
  "zo": 12981,
  "zon": 27246,
  "zona": 6332,
  "zone": 11194,
  "zos": 30332,
  "zsche": 31298,
  "zy": 8997,
  "zyme": 27237,
  "zz": 3484,
  "zza": 29551,
  "{": 123,
  "{\"": 18371,
  "{\\": 14998,
  "{{": 28883,
  "|": 124,
  "|>": 701,
  "|>\"": 19289,
  "|>(": 17289,
  "|>[": 31276,
  "|>âĢľ": 16550,
  "}": 125,
  "},": 17606,
  "}\\": 26657,
  "}{": 25597,
  "}}": 10224,
  "~": 126,
  "~~": 14775,
  "~~~~": 25377,
  "¡": 161,
  "¢": 162,
  "£": 163,
  "¤": 164,
  "¥": 165,
  "¦": 166,
  "§": 167,
  "¨": 168,
  "©": 169,
  "ª": 170,
  "«": 171,
  "¬": 172,
  "®": 174,
  "¯": 175,
  "°": 176,
  "±": 177,
  "²": 178,
  "³": 179,
  "´": 180,
  "µ": 181,
  "¶": 182,
  "·": 183,
  "¸": 184,
  "¹": 185,
  "º": 186,
  "»": 187,
  "»¿": 28610,
  "¼": 188,
  "½": 189,
  "¾": 190,
  "¿": 191,
  "À": 192,
  "Á": 193,
  "Â": 194,
  "Â¢": 25917,
  "Â£": 13637,
  "Â©": 15988,
  "Â®": 14307,
  "Â°": 9162,
  "Â±": 26995,
  "Â´": 26951,
  "Â·": 12443,
  "Â»": 17311,
  "Â½": 23436,
  "ÂĢ": 16771,
  "ÂĢÂ": 18693,
  "ÂĢÂĻ": 28244,
  "ÂĴ": 8862,
  "ÂĶ": 12497,
  "ÂĹ": 22804,
  "ÂĿ": 26689,
  "ÂŃ": 2915,
  "Ã": 195,
  "Ã¡": 5303,
  "Ã¡n": 16509,
  "Ã¡s": 23232,
  "Ã¢": 11251,
  "Ã£": 14030,
  "Ã£o": 14705,
  "Ã¤": 7243,
  "Ã¤r": 30618,
  "Ã¥": 12609,
  "Ã¦": 31597,
  "Ã§": 11238,
  "Ã§Ã£o": 30398,
  "Ã¨": 11445,
  "Ã¨re": 27654,
  "Ã©": 2383,
  "Ã©e": 17626,
  "Ã©mon": 13526,
  "Ã©n": 26288,
  "Ã©s": 14035,
  "Ã©t": 18167,
  "Ãª": 20665,
  "Ã«": 28373,
  "Ã¯": 23545,
  "Ã±": 10218,
  "Ã±a": 23527,
  "Ã±o": 22873,
  "Ã³": 6942,
  "Ã³n": 11152,
  "Ã´": 26154,
  "Ã¶": 7131,
  "Ã¶r": 18881,
  "Ã¸": 21129,
  "Ãº": 17219,
  "Ã¼": 7158,
  "Ã¼r": 15848,
  "ÃĤ": 22575,
  "Ãī": 31873,
  "ÃĹ": 13753,
  "ÃŁ": 25447,
  "Ãł": 18212,
  "ÃŃ": 6757,
  "ÃŃa": 18287,
  "ÃŃn": 30959,
  "Ä": 196,
  "Ä«": 29238,
  "Ä±": 19898,
  "Äģ": 15064,
  "Äĥ": 10803,
  "Äĩ": 17349,
  "Äį": 19174,
  "ÄŁ": 22615,
  "ÄŁan": 31147,
  "Å": 197,
  "Å¡": 19313,
  "Å£": 31816,
  "Å«": 28120,
  "Å¾": 25091,
  "ÅĤ": 29056,
  "Åį": 15985,
  "ÅŁ": 26402,
  "Æ": 198,
  "Ç": 199,
  "È": 200,
  "ÈĻ": 27003,
  "É": 201,
  "Ê": 202,
  "Ë": 203,
  "Ì": 204,
  "Í": 205,
  "Î": 206,
  "Î±": 19796,
  "Î²": 30341,
  "Î½": 27433,
  "Î¿": 28613,
  "Ï": 207,
  "Ð": 208,
  "Ð°": 6465,
  "Ð±": 28959,
  "Ð²": 18372,
  "Ð³": 29326,
  "Ð´": 17758,
  "Ðµ": 6291,
  "ÐµÐ½": 25312,
  "ÐµÑĤ": 28592,
  "Ð·": 24947,
  "Ð¸": 7728,
  "Ð¹": 27959,
  "Ðº": 14392,
  "Ð»": 12453,
  "Ð¼": 17348,
  "Ð½": 9948,
  "Ð¾": 5390,
  "Ð¾Ð": 9016,
  "Ð¾Ð²": 26047,
  "Ð¾Ð»": 30793,
  "Ð¿": 29986,
  "Ñ": 209,
  "ÑĢ": 9215,
  "ÑĢÐ°": 23979,
  "ÑĢÐµ": 31429,
  "Ñģ": 8489,
  "ÑģÑĤ": 24226,
  "ÑĤ": 7276,
  "ÑĤÐ¾": 21604,
  "Ñĥ": 13889,
  "Ñħ": 29769,
  "Ñĩ": 26943,
  "Ñĭ": 17382,
  "ÑĮ": 18029,
  "Ñı": 16707,
  "Ò": 210,
  "Ó": 211,
  "Ô": 212,
  "Õ": 213,
  "Ö": 214,
  "×": 215,
  "Ø": 216,
  "Ø§": 17890,
  "Ø±": 26645,
  "Ù": 217,
  "ÙĦ": 15678,
  "Ùħ": 26538,
  "ÙĨ": 22047,
  "Ùĩ": 31991,
  "ÙĪ": 31756,
  "ÙĬ": 23649,
  "Ùİ": 17679,
  "ÙĲ": 28886,
  "Ú": 218,
  "Û": 219,
  "Ü": 220,
  "Ý": 221,
  "Þ": 222,
  "ß": 223,
  "à": 224,
  "à¤": 11148,
  "à¥": 22358,
  "à²": 26135,
  "à´": 30486,
  "à¸": 16672,
  "á": 225,
  "â": 226,
  "âĢ": 290,
  "âĢ¢": 4436,
  "âĢ¦": 1547,
  "âĢ¦\"": 24710,
  "âĢ¦.": 10625,
  "âĢ¦<|": 31478,
  "âĢ¦]": 21647,
  "âĢ¦âĢ¦": 14887,
  "âĢ¦âĢ¦âĢ¦âĢ¦": 29380,
  "âĢ¦âĢĿ": 14314,
  "âĢ²": 20060,
  "âĢ³": 11868,
  "âĢĭ": 12748,
  "âĢĲ": 10143,
  "âĢĵ": 1780,
  "âĢĶ": 928,
  "âĢĶâĢĶ": 5229,
  "âĢĶâĢĶâĢĶâĢĶ": 9267,
  "âĢĶâĢĶâĢĶâĢĶâĢĶâĢĶâĢĶâĢĶ": 16768,
  "âĢĶâĢľ": 29838,
  "âĢĺ": 4757,
  "âĢĻ": 329,
  "âĢĻ)": 30841,
  "âĢĻ,": 7681,
  "âĢĻ.": 6868,
  "âĢľ": 715,
  "âĢľ[": 24879,
  "âĢĿ": 407,
  "âĢĿ)": 11406,
  "âĢĿ),": 19139,
  "âĢĿ).": 17376,
  "âĢĿ,": 3974,
  "âĢĿ.": 2959,
  "âĢĿ:": 16527,
  "âĢĿ;": 19562,
  "âĢĿ?": 17570,
  "âĢĿâĢĶ": 14724,
  "âĤ¬": 11542,
  "âĤ¬âĦ¢": 25279,
  "âĦ": 12523,
  "âĦ¢": 12743,
  "âĪ": 29085,
  "âĪĴ": 13349,
  "âĶ": 12802,
  "âĶĢ": 14021,
  "âĶĢâĶĢ": 16862,
  "âĸ": 8766,
  "âĸĪ": 14263,
  "âĸĪâĸĪ": 17619,
  "âĸł": 30298,
  "âĹ": 24286,
  "âĺħ": 27217,
  "âĻ": 18825,
  "ã": 227,
  "ãĢ": 7705,
  "ãĢģ": 16931,
  "ãĢĤ": 14824,
  "ãĢĮ": 31858,
  "ãģ": 11850,
  "ãĤ": 16274,
  "ãĥ": 13183,
  "ãħ": 28908,
  "ä": 228,
  "å": 229,
  "æ": 230,
  "ç": 231,
  "è": 232,
  "é": 233,
  "ê": 234,
  "ë": 235,
  "ì": 236,
  "ìĿ": 30294,
  "í": 237,
  "î": 238,
  "ï": 239,
  "ï¼": 11409,
  "ï¼Į": 26382,
  "ï½": 29764,
  "ï¿": 7223,
  "ï¿½": 7428,
  "ï¿½ï¿½": 24542,
  "ð": 240,
  "ðŁ": 13331,
  "ñ": 241,
  "ò": 242,
  "ó": 243,
  "ô": 244,
  "õ": 245,
  "ö": 246,
  "÷": 247,
  "ø": 248,
  "ù": 249,
  "ú": 250,
  "û": 251,
  "ü": 252,
  "ý": 253,
  "þ": 254,
  "ÿ": 255,
  "Ā": 0,
  "ā": 1,
  "Ă": 2,
  "ă": 3,
  "Ą": 4,
  "ą": 5,
  "Ć": 6,
  "ć": 7,
  "Ĉ": 8,
  "ĉ": 9,
  "Ċ": 10,
  "ċ": 11,
  "Č": 12,
  "č": 13,
  "Ď": 14,
  "ď": 15,
  "Đ": 16,
  "đ": 17,
  "Ē": 18,
  "ē": 19,
  "Ĕ": 20,
  "ĕ": 21,
  "Ė": 22,
  "ė": 23,
  "Ę": 24,
  "ę": 25,
  "Ě": 26,
  "ě": 27,
  "Ĝ": 28,
  "ĝ": 29,
  "Ğ": 30,
  "ğ": 31,
  "Ġ": 32,
  "Ġ!": 10085,
  "Ġ!=": 24970,
  "Ġ\"": 488,
  "Ġ\"\"": 26674,
  "Ġ\"...": 30710,
  "Ġ\"/": 29821,
  "Ġ\"[": 19445,
  "Ġ#": 1886,
  "Ġ##": 28103,
  "Ġ$": 762,
  "Ġ%": 7392,
  "Ġ&": 1799,
  "Ġ&&": 20792,
  "Ġ'": 1182,
  "Ġ''": 13307,
  "Ġ(": 397,
  "Ġ(\"": 9997,
  "Ġ(#": 22321,
  "Ġ($": 7433,
  "Ġ('": 31994,
  "Ġ((": 23881,
  "Ġ()": 13051,
  "Ġ();": 31592,
  "Ġ(+": 17547,
  "Ġ(-": 17163,
  "Ġ(.": 20384,
  "Ġ(@": 3426,
  "Ġ(Â£": 17069,
  "Ġ(âĢľ": 8909,
  "Ġ)": 2185,
  "Ġ))": 25469,
  "Ġ),": 14968,
  "Ġ).": 10100,
  "Ġ):": 23301,
  "Ġ);": 11814,
  "Ġ*": 3350,
  "Ġ**": 18721,
  "Ġ***": 28167,
  "Ġ*/": 18956,
  "Ġ+": 2634,
  "Ġ+=": 29122,
  "Ġ,": 1664,
  "Ġ-": 664,
  "Ġ--": 1456,
  "Ġ---": 20163,
  "Ġ-->": 22998,
  "Ġ->": 7869,
  "Ġ.": 1214,
  "Ġ..": 18965,
  "Ġ...": 3192,
  "Ġ....": 27971,
  "Ġ..........": 31111,
  "Ġ./": 31351,
  "Ġ/": 2052,
  "Ġ/*": 23205,
  "Ġ//": 5802,
  "Ġ/>": 25693,
  "Ġ0": 1112,
  "Ġ00": 8310,
  "Ġ000": 21073,
  "Ġ01": 12920,
  "Ġ02": 14751,
  "Ġ03": 16294,
  "Ġ04": 17119,
  "Ġ05": 17424,
  "Ġ06": 18579,
  "Ġ07": 16716,
  "Ġ08": 17147,
  "Ġ09": 16960,
  "Ġ1": 383,
  "Ġ10": 1043,
  "Ġ100": 2263,
  "Ġ1000": 11296,
  "Ġ101": 14059,
  "Ġ102": 20799,
  "Ġ103": 21630,
  "Ġ104": 20883,
  "Ġ105": 18369,
  "Ġ106": 21985,
  "Ġ107": 22672,
  "Ġ108": 22680,
  "Ġ1080": 19497,
  "Ġ109": 23037,
  "Ġ11": 1730,
  "Ġ110": 13897,
  "Ġ111": 19549,
  "Ġ112": 22720,
  "Ġ113": 25361,
  "Ġ114": 24261,
  "Ġ115": 20133,
  "Ġ116": 25650,
  "Ġ117": 25939,
  "Ġ118": 26532,
  "Ġ119": 24390,
  "Ġ12": 1519,
  "Ġ120": 9717,
  "Ġ1200": 28885,
  "Ġ121": 27670,
  "Ġ122": 27420,
  "Ġ123": 24332,
  "Ġ124": 28551,
  "Ġ125": 16575,
  "Ġ126": 28982,
  "Ġ127": 25989,
  "Ġ128": 18319,
  "Ġ129": 29135,
  "Ġ13": 2069,
  "Ġ130": 13853,
  "Ġ131": 31344,
  "Ġ132": 29528,
  "Ġ133": 30439,
  "Ġ134": 31353,
  "Ġ135": 23387,
  "Ġ137": 31140,
  "Ġ138": 31218,
  "Ġ14": 2008,
  "Ġ140": 15175,
  "Ġ144": 28161,
  "Ġ145": 26955,
  "Ġ15": 1540,
  "Ġ150": 7819,
  "Ġ1500": 23440,
  "Ġ155": 27605,
  "Ġ16": 1924,
  "Ġ160": 16404,
  "Ġ1600": 28475,
  "Ġ165": 28934,
  "Ġ17": 2068,
  "Ġ170": 20150,
  "Ġ175": 23849,
  "Ġ18": 1480,
  "Ġ180": 13912,
  "Ġ1800": 20810,
  "Ġ185": 27499,
  "Ġ1880": 30213,
  "Ġ1890": 28520,
  "Ġ19": 689,
  "Ġ190": 24479,
  "Ġ1900": 19195,
  "Ġ1910": 26506,
  "Ġ1911": 29761,
  "Ġ1912": 29218,
  "Ġ1913": 30667,
  "Ġ1914": 23909,
  "Ġ1915": 26801,
  "Ġ1916": 25988,
  "Ġ1917": 21912,
  "Ġ1918": 24084,
  "Ġ1919": 26691,
  "Ġ192": 26623,
  "Ġ1920": 13597,
  "Ġ1921": 29903,
  "Ġ1922": 30005,
  "Ġ1923": 31691,
  "Ġ1924": 30744,
  "Ġ1925": 31409,
  "Ġ1927": 31978,
  "Ġ1928": 30027,
  "Ġ1929": 26300,
  "Ġ1930": 12516,
  "Ġ1931": 30573,
  "Ġ1932": 27839,
  "Ġ1933": 23564,
  "Ġ1934": 26764,
  "Ġ1935": 27442,
  "Ġ1936": 24599,
  "Ġ1937": 25392,
  "Ġ1938": 24090,
  "Ġ1939": 21048,
  "Ġ1940": 13929,
  "Ġ1941": 20091,
  "Ġ1942": 21344,
  "Ġ1943": 22297,
  "Ġ1944": 19779,
  "Ġ1945": 16193,
  "Ġ1946": 22803,
  "Ġ1947": 20272,
  "Ġ1948": 18617,
  "Ġ1949": 22534,
  "Ġ195": 5641,
  "Ġ1950": 9711,
  "Ġ1951": 24062,
  "Ġ1952": 23374,
  "Ġ1953": 22140,
  "Ġ1954": 21749,
  "Ġ1955": 22331,
  "Ġ1956": 21513,
  "Ġ1957": 22124,
  "Ġ1958": 21428,
  "Ġ1959": 20724,
  "Ġ196": 3706,
  "Ġ1960": 7881,
  "Ġ1961": 18333,
  "Ġ1962": 17900,
  "Ġ1963": 17198,
  "Ġ1964": 15841,
  "Ġ1965": 15829,
  "Ġ1966": 16965,
  "Ġ1967": 13771,
  "Ġ1968": 13931,
  "Ġ1969": 14718,
  "Ġ197": 2671,
  "Ġ1970": 6782,
  "Ġ1971": 15058,
  "Ġ1972": 14256,
  "Ġ1973": 14181,
  "Ġ1974": 14957,
  "Ġ1975": 14113,
  "Ġ1976": 14057,
  "Ġ1977": 14865,
  "Ġ1978": 14333,
  "Ġ1979": 12310,
  "Ġ198": 2273,
  "Ġ1980": 5992,
  "Ġ1981": 13641,
  "Ġ1982": 13200,
  "Ġ1983": 13175,
  "Ġ1984": 11721,
  "Ġ1985": 12369,
  "Ġ1986": 11752,
  "Ġ1987": 12275,
  "Ġ1988": 11558,
  "Ġ1989": 10474,
  "Ġ199": 1632,
  "Ġ1990": 5542,
  "Ġ1991": 10017,
  "Ġ1992": 9416,
  "Ġ1993": 9698,
  "Ġ1994": 8916,
  "Ġ1995": 8769,
  "Ġ1996": 8353,
  "Ġ1997": 8351,
  "Ġ1998": 7922,
  "Ġ1999": 7409,
  "Ġ2": 393,
  "Ġ20": 534,
  "Ġ200": 872,
  "Ġ2000": 4894,
  "Ġ2001": 5796,
  "Ġ2002": 6263,
  "Ġ2003": 5696,
  "Ġ2004": 5246,
  "Ġ2005": 4788,
  "Ġ2006": 4395,
  "Ġ2007": 3945,
  "Ġ2008": 3127,
  "Ġ2009": 3191,
  "Ġ201": 588,
  "Ġ2010": 2705,
  "Ġ2011": 2578,
  "Ġ2012": 2221,
  "Ġ2013": 2135,
  "Ġ2014": 1942,
  "Ġ2015": 1882,
  "Ġ2016": 1805,
  "Ġ2017": 2252,
  "Ġ2018": 4830,
  "Ġ2019": 8487,
  "Ġ202": 30435,
  "Ġ2020": 9027,
  "Ġ2021": 27904,
  "Ġ2022": 26202,
  "Ġ2025": 26159,
  "Ġ2030": 19971,
  "Ġ205": 29440,
  "Ġ2050": 25136,
  "Ġ21": 2875,
  "Ġ210": 26447,
  "Ġ215": 26105,
  "Ġ22": 2906,
  "Ġ220": 21181,
  "Ġ225": 26630,
  "Ġ23": 3006,
  "Ġ230": 23079,
  "Ġ24": 2485,
  "Ġ240": 20264,
  "Ġ25": 2285,
  "Ġ250": 9768,
  "Ġ255": 30358,
  "Ġ256": 23720,
  "Ġ26": 3358,
  "Ġ260": 26999,
  "Ġ27": 3275,
  "Ġ270": 26448,
  "Ġ28": 3273,
  "Ġ280": 28459,
  "Ġ29": 3701,
  "Ġ3": 637,
  "Ġ30": 1836,
  "Ġ300": 6245,
  "Ġ3000": 24478,
  "Ġ31": 4393,
  "Ġ32": 5052,
  "Ġ320": 26707,
  "Ġ33": 6226,
  "Ġ330": 29798,
  "Ġ34": 6605,
  "Ġ35": 4416,
  "Ġ350": 15133,
  "Ġ36": 5433,
  "Ġ360": 11433,
  "Ġ365": 26644,
  "Ġ37": 6260,
  "Ġ38": 6208,
  "Ġ39": 7063,
  "Ġ4": 741,
  "Ġ40": 2776,
  "Ġ400": 7656,
  "Ġ401": 29295,
  "Ġ41": 7991,
  "Ġ42": 7228,
  "Ġ43": 8063,
  "Ġ44": 7798,
  "Ġ45": 5084,
  "Ġ450": 21131,
  "Ġ46": 8136,
  "Ġ47": 7853,
  "Ġ48": 6361,
  "Ġ480": 31180,
  "Ġ49": 6521,
  "Ġ5": 783,
  "Ġ50": 2375,
  "Ġ500": 5499,
  "Ġ5000": 29451,
  "Ġ501": 30815,
  "Ġ51": 8805,
  "Ġ512": 27650,
  "Ġ52": 8622,
  "Ġ53": 9354,
  "Ġ54": 9648,
  "Ġ55": 7414,
  "Ġ550": 29430,
  "Ġ56": 9906,
  "Ġ57": 10249,
  "Ġ58": 10307,
  "Ġ59": 10003,
  "Ġ6": 943,
  "Ġ60": 3542,
  "Ġ600": 10450,
  "Ġ61": 11515,
  "Ġ62": 10874,
  "Ġ63": 11143,
  "Ġ64": 7537,
  "Ġ65": 7514,
  "Ġ650": 25705,
  "Ġ66": 10871,
  "Ġ67": 11536,
  "Ġ68": 11527,
  "Ġ69": 12359,
  "Ġ7": 1061,
  "Ġ70": 4645,
  "Ġ700": 12555,
  "Ġ71": 12972,
  "Ġ72": 10636,
  "Ġ720": 30817,
  "Ġ73": 12737,
  "Ġ74": 12760,
  "Ġ75": 6734,
  "Ġ750": 22039,
  "Ġ76": 12020,
  "Ġ77": 12451,
  "Ġ78": 12923,
  "Ġ79": 13749,
  "Ġ8": 1119,
  "Ġ80": 4298,
  "Ġ800": 10700,
  "Ġ81": 14153,
  "Ġ82": 13062,
  "Ġ83": 14321,
  "Ġ84": 14309,
  "Ġ85": 10298,
  "Ġ86": 14493,
  "Ġ87": 14565,
  "Ġ88": 13429,
  "Ġ89": 15248,
  "Ġ9": 1152,
  "Ġ90": 4458,
  "Ġ900": 16710,
  "Ġ91": 15544,
  "Ġ911": 14791,
  "Ġ92": 14952,
  "Ġ93": 14835,
  "Ġ94": 15604,
  "Ġ95": 9330,
  "Ġ96": 14527,
  "Ġ97": 14858,
  "Ġ978": 28111,
  "Ġ98": 14226,
  "Ġ99": 9250,
  "Ġ:": 2077,
  "Ġ:)": 16781,
  "Ġ::": 13540,
  "Ġ:=": 24736,
  "Ġ;": 4153,
  "Ġ<": 2680,
  "Ġ<-": 27212,
  "Ġ</": 11312,
  "Ġ<<": 22293,
  "Ġ=": 1403,
  "Ġ==": 11732,
  "Ġ=>": 5308,
  "Ġ>": 3532,
  "Ġ>>": 14816,
  "Ġ>>>": 19526,
  "Ġ?": 8895,
  "Ġ@": 2804,
  "ĠA": 330,
  "ĠAA": 19818,
  "ĠAAA": 23740,
  "ĠAAP": 24831,
  "ĠAB": 13512,
  "ĠABC": 8135,
  "ĠAC": 8880,
  "ĠACA": 23317,
  "ĠACC": 17375,
  "ĠACL": 14234,
  "ĠACLU": 18106,
  "ĠACT": 24177,
  "ĠAD": 7677,
  "ĠADHD": 27462,
  "ĠAF": 17782,
  "ĠAFC": 22343,
  "ĠAFL": 18096,
  "ĠAFP": 11578,
  "ĠAG": 16015,
  "ĠAHL": 24434,
  "ĠAI": 8933,
  "ĠAIDS": 18590,
  "ĠAJ": 26467,
  "ĠAK": 17229,
  "ĠAL": 6673,
  "ĠALL": 14883,
  "ĠAM": 4434,
  "ĠAMA": 31910,
  "ĠAMC": 27688,
  "ĠAMD": 13575,
  "ĠAN": 5384,
  "ĠAND": 8304,
  "ĠANY": 23840,
  "ĠAP": 4038,
  "ĠAPI": 8479,
  "ĠAPIs": 20620,
  "ĠAR": 7407,
  "ĠARE": 19814,
  "ĠARM": 21412,
  "ĠAS": 7954,
  "ĠAT": 6014,
  "ĠATM": 28427,
  "ĠAU": 27031,
  "ĠAV": 20154,
  "ĠAW": 23157,
  "ĠAWS": 22077,
  "ĠAZ": 28415,
  "ĠAad": 28518,
  "ĠAaron": 10671,
  "ĠAb": 2364,
  "ĠAbb": 8986,
  "ĠAbbas": 21191,
  "ĠAbbey": 28718,
  "ĠAbbott": 12341,
  "ĠAbd": 11514,
  "ĠAbdel": 27569,
  "ĠAbdul": 18331,
  "ĠAbdullah": 20092,
  "ĠAbe": 20849,
  "ĠAber": 23882,
  "ĠAboriginal": 24808,
  "ĠAbout": 8060,
  "ĠAbove": 24666,
  "ĠAbr": 18028,
  "ĠAbraham": 17127,
  "ĠAbrams": 25949,
  "ĠAbs": 15622,
  "ĠAbsolutely": 25214,
  "ĠAbstract": 25940,
  "ĠAbu": 11387,
  "ĠAbuse": 26656,
  "ĠAby": 31444,
  "ĠAc": 4699,
  "ĠAcadem": 7161,
  "ĠAcademy": 7890,
  "ĠAcc": 8604,
  "ĠAccept": 30069,
  "ĠAccess": 10254,
  "ĠAccording": 4098,
  "ĠAccount": 14722,
  "ĠAccountability": 30906,
  "ĠAce": 22432,
  "ĠAch": 24694,
  "ĠAchie": 27963,
  "ĠAcross": 27177,
  "ĠAct": 2734,
  "ĠAction": 8402,
  "ĠActiv": 16283,
  "ĠActive": 20955,
  "ĠActivity": 31906,
  "ĠActor": 25073,
  "ĠActually": 18150,
  "ĠAd": 1469,
  "ĠAdam": 7245,
  "ĠAdams": 10686,
  "ĠAdd": 4315,
  "ĠAdded": 16858,
  "ĠAdding": 27371,
  "ĠAdditional": 21646,
  "ĠAdditionally": 11986,
  "ĠAddress": 24969,
  "ĠAdelaide": 20629,
  "ĠAdminist": 6954,
  "ĠAdministration": 7952,
  "ĠAdministrator": 30766,
  "ĠAdmir": 21475,
  "ĠAdmiral": 24596,
  "ĠAdobe": 20926,
  "ĠAdolf": 29346,
  "ĠAdrian": 18399,
  "ĠAdult": 26670,
  "ĠAdv": 8816,
  "ĠAdvance": 27588,
  "ĠAdvanced": 16808,
  "ĠAdvent": 13210,
  "ĠAdventure": 19112,
  "ĠAdventures": 26687,
  "ĠAdvertisement": 26393,
  "ĠAdvis": 19613,
  "ĠAdvisory": 23992,
  "ĠAdvoc": 31797,
  "ĠAer": 17439,
  "ĠAf": 2019,
  "ĠAff": 6178,
  "ĠAffairs": 9650,
  "ĠAffordable": 15331,
  "ĠAfgh": 30858,
  "ĠAfghan": 4730,
  "ĠAfghanistan": 5825,
  "ĠAfric": 2855,
  "ĠAfrica": 4712,
  "ĠAfrican": 4725,
  "ĠAfricans": 23671,
  "ĠAfter": 2390,
  "ĠAg": 2848,
  "ĠAgain": 6709,
  "ĠAgainst": 12365,
  "ĠAge": 9096,
  "ĠAgency": 6943,
  "ĠAgent": 18132,
  "ĠAgents": 30354,
  "ĠAges": 24093,
  "ĠAgg": 24213,
  "ĠAgr": 14451,
  "ĠAgree": 14026,
  "ĠAgreement": 15534,
  "ĠAgricult": 15492,
  "ĠAgriculture": 18463,
  "ĠAgu": 26188,
  "ĠAh": 7628,
  "ĠAhmad": 16945,
  "ĠAhmed": 16268,
  "ĠAid": 23102,
  "ĠAir": 3693,
  "ĠAirbnb": 28814,
  "ĠAirlines": 16301,
  "ĠAirport": 11521,
  "ĠAj": 18619,
  "ĠAk": 9569,
  "ĠAl": 1098,
  "ĠAlabama": 7831,
  "ĠAlan": 10347,
  "ĠAlaska": 11118,
  "ĠAlb": 15743,
  "ĠAlban": 22763,
  "ĠAlbany": 25178,
  "ĠAlbert": 8493,
  "ĠAlberta": 12612,
  "ĠAlbum": 23821,
  "ĠAlbuquerque": 31338,
  "ĠAlcohol": 25925,
  "ĠAld": 14440,
  "ĠAle": 8635,
  "ĠAleppo": 16081,
  "ĠAlert": 29900,
  "ĠAlex": 4095,
  "ĠAlexa": 28691,
  "ĠAlexand": 16534,
  "ĠAlexander": 9123,
  "ĠAlexandria": 26174,
  "ĠAlexis": 25789,
  "ĠAlf": 14033,
  "ĠAlfred": 19193,
  "ĠAlger": 21003,
  "ĠAlgeria": 29521,
  "ĠAli": 7680,
  "ĠAlice": 15550,
  "ĠAlien": 20947,
  "ĠAlison": 29969,
  "ĠAlive": 30933,
  "ĠAll": 1622,
  "ĠAllah": 16228,
  "ĠAllan": 26826,
  "ĠAlleg": 24154,
  "ĠAllen": 8387,
  "ĠAlliance": 10539,
  "ĠAllied": 23615,
  "ĠAllies": 31051,
  "ĠAllison": 28562,
  "ĠAllow": 30015,
  "ĠAlmost": 15671,
  "ĠAlong": 15543,
  "ĠAlonso": 26518,
  "ĠAlp": 10773,
  "ĠAlpha": 16132,
  "ĠAlready": 25608,
  "ĠAlso": 5073,
  "ĠAlt": 13001,
  "ĠAltern": 14991,
  "ĠAlternative": 25712,
  "ĠAlternatively": 30701,
  "ĠAlthough": 4976,
  "ĠAlto": 31398,
  "ĠAlv": 23965,
  "ĠAlvarez": 29010,
  "ĠAlways": 20023,
  "ĠAlz": 18464,
  "ĠAlzheimer": 19126,
  "ĠAm": 1897,
  "ĠAmanda": 21643,
  "ĠAmazing": 26446,
  "ĠAmazon": 5297,
  "ĠAmb": 12063,
  "ĠAmbassador": 17781,
  "ĠAmber": 25472,
  "ĠAmendment": 7775,
  "ĠAmer": 30174,
  "ĠAmeric": 885,
  "ĠAmerica": 1903,
  "ĠAmerican": 1374,
  "ĠAmericans": 2727,
  "ĠAmericas": 22141,
  "ĠAmnesty": 22895,
  "ĠAmong": 9337,
  "ĠAmsterdam": 21515,
  "ĠAmy": 14313,
  "ĠAn": 1226,
  "ĠAna": 16833,
  "ĠAnaheim": 24140,
  "ĠAnaly": 16198,
  "ĠAnalysis": 17632,
  "ĠAnalytics": 28219,
  "ĠAnat": 27279,
  "ĠAnch": 28216,
  "ĠAncient": 21175,
  "ĠAnd": 799,
  "ĠAnders": 21335,
  "ĠAnderson": 8642,
  "ĠAndre": 9869,
  "ĠAndrea": 20584,
  "ĠAndreas": 29944,
  "ĠAndrew": 5862,
  "ĠAndrews": 22512,
  "ĠAndroid": 4883,
  "ĠAndy": 10677,
  "ĠAnfield": 31537,
  "ĠAng": 2899,
  "ĠAngel": 3809,
  "ĠAngela": 15832,
  "ĠAngeles": 4783,
  "ĠAngels": 19917,
  "ĠAnglo": 22103,
  "ĠAngular": 21415,
  "ĠAnim": 13761,
  "ĠAnimal": 15767,
  "ĠAnimals": 26374,
  "ĠAnimation": 27447,
  "ĠAnkara": 22285,
  "ĠAnn": 6450,
  "ĠAnna": 10417,
  "ĠAnne": 13760,
  "ĠAnnie": 26820,
  "ĠAnniversary": 26859,
  "ĠAnnual": 20167,
  "ĠAnonymous": 18046,
  "ĠAnother": 6290,
  "ĠAns": 22150,
  "ĠAnt": 3951,
  "ĠAntar": 16255,
  "ĠAntarctic": 25657,
  "ĠAntarctica": 24120,
  "ĠAnth": 7573,
  "ĠAnthony": 8397,
  "ĠAnti": 12733,
  "ĠAnton": 8303,
  "ĠAntonio": 10311,
  "ĠAny": 5377,
  "ĠAnyone": 16517,
  "ĠAnything": 21206,
  "ĠAnyway": 23643,
  "ĠAp": 8669,
  "ĠApache": 22504,
  "ĠApart": 21118,
  "ĠApollo": 18666,
  "ĠApost": 27593,
  "ĠApp": 2234,
  "ĠAppalach": 29949,
  "ĠApparently": 17288,
  "ĠAppeal": 29781,
  "ĠAppeals": 18854,
  "ĠApple": 3553,
  "ĠApplication": 22972,
  "ĠApplications": 31885,
  "ĠAppro": 18940,
  "ĠApps": 25715,
  "ĠApr": 18122,
  "ĠApril": 2682,
  "ĠAqu": 14244,
  "ĠAr": 1049,
  "ĠArab": 3804,
  "ĠArabia": 8160,
  "ĠArabian": 26897,
  "ĠArabic": 15065,
  "ĠArabs": 18799,
  "ĠArbor": 31133,
  "ĠArc": 15519,
  "ĠArcade": 30821,
  "ĠArch": 6791,
  "ĠArchae": 30249,
  "ĠArchbishop": 28802,
  "ĠArcher": 27303,
  "ĠArchitect": 17335,
  "ĠArchitecture": 28238,
  "ĠArchive": 23544,
  "ĠArchives": 22977,
  "ĠArctic": 12477,
  "ĠArduino": 28502,
  "ĠAre": 4668,
  "ĠArea": 10544,
  "ĠAren": 10720,
  "ĠArena": 12078,
  "ĠArg": 24612,
  "ĠArgent": 10372,
  "ĠArgentina": 13602,
  "ĠArgentine": 26775,
  "ĠAri": 5299,
  "ĠArist": 23022,
  "ĠAristotle": 31708,
  "ĠArizona": 6656,
  "ĠArk": 9642,
  "ĠArkansas": 13059,
  "ĠArlington": 25024,
  "ĠArm": 8019,
  "ĠArmed": 16300,
  "ĠArmen": 13743,
  "ĠArmenia": 26102,
  "ĠArmenian": 22105,
  "ĠArmor": 27922,
  "ĠArms": 23724,
  "ĠArmstrong": 17566,
  "ĠArmy": 4927,
  "ĠArn": 14636,
  "ĠArnold": 18110,
  "ĠAround": 16159,
  "ĠArray": 24336,
  "ĠArri": 30078,
  "ĠArrow": 20772,
  "ĠArs": 21549,
  "ĠArsenal": 10549,
  "ĠArt": 4522,
  "ĠArthur": 13570,
  "ĠArticle": 12638,
  "ĠArticles": 23593,
  "ĠArtist": 23650,
  "ĠArts": 11926,
  "ĠAs": 1108,
  "ĠAsh": 7796,
  "ĠAshe": 30047,
  "ĠAshley": 18822,
  "ĠAshton": 31660,
  "ĠAsia": 6299,
  "ĠAsian": 7097,
  "ĠAsians": 27923,
  "ĠAside": 25335,
  "ĠAsk": 18157,
  "ĠAsked": 23519,
  "ĠAss": 2299,
  "ĠAssad": 9889,
  "ĠAssange": 16029,
  "ĠAssass": 23464,
  "ĠAssassin": 30179,
  "ĠAssault": 26128,
  "ĠAssembly": 9759,
  "ĠAssessment": 28845,
  "ĠAssistance": 28428,
  "ĠAssistant": 15258,
  "ĠAssoci": 3565,
  "ĠAssociate": 26666,
  "ĠAssociated": 9090,
  "ĠAssociates": 27828,
  "ĠAssociation": 4735,
  "ĠAst": 9049,
  "ĠAston": 25682,
  "ĠAstron": 23664,
  "ĠAstros": 23444,
  "ĠAt": 1634,
  "ĠAth": 12945,
  "ĠAthe": 25375,
  "ĠAthens": 18458,
  "ĠAthlet": 16018,
  "ĠAthletic": 23725,
  "ĠAthletics": 29133,
  "ĠAtlant": 5106,
  "ĠAtlanta": 7966,
  "ĠAtlantic": 8907,
  "ĠAtlas": 21794,
  "ĠAtmosp": 30147,
  "ĠAtomic": 29886,
  "ĠAtt": 4493,
  "ĠAttack": 14911,
  "ĠAttorney": 7146,
  "ĠAub": 16930,
  "ĠAuburn": 20032,
  "ĠAuckland": 25002,
  "ĠAud": 8954,
  "ĠAudi": 22983,
  "ĠAudio": 19836,
  "ĠAug": 2516,
  "ĠAugust": 2920,
  "ĠAur": 18767,
  "ĠAurora": 23864,
  "ĠAust": 2120,
  "ĠAustin": 8465,
  "ĠAustral": 2643,
  "ĠAustralia": 3788,
  "ĠAustralian": 5445,
  "ĠAustralians": 18535,
  "ĠAustria": 15101,
  "ĠAustrian": 20044,
  "ĠAut": 6581,
  "ĠAuthor": 7258,
  "ĠAuthorities": 26694,
  "ĠAuthority": 10299,
  "ĠAuto": 14622,
  "ĠAutom": 19500,
  "ĠAv": 6000,
  "ĠAvailable": 23090,
  "ĠAval": 25529,
  "ĠAvatar": 29901,
  "ĠAve": 13772,
  "ĠAven": 16032,
  "ĠAvengers": 19455,
  "ĠAvenue": 7564,
  "ĠAverage": 19494,
  "ĠAvery": 26739,
  "ĠAviation": 23590,
  "ĠAviv": 22117,
  "ĠAvoid": 28958,
  "ĠAw": 12930,
  "ĠAward": 9219,
  "ĠAwards": 12514,
  "ĠAway": 25640,
  "ĠAwesome": 30921,
  "ĠAx": 15169,
  "ĠAy": 12113,
  "ĠAz": 9676,
  "ĠAzer": 22000,
  "ĠAzerbai": 24442,
  "ĠAzerbaijan": 27681,
  "ĠAzure": 24608,
  "ĠB": 353,
  "ĠBA": 20752,
  "ĠBB": 13821,
  "ĠBBC": 5673,
  "ĠBC": 11095,
  "ĠBCE": 30369,
  "ĠBDS": 30572,
  "ĠBE": 12288,
  "ĠBEL": 30587,
  "ĠBI": 27700,
  "ĠBIG": 30597,
  "ĠBJP": 13481,
  "ĠBL": 13531,
  "ĠBM": 10173,
  "ĠBMI": 30718,
  "ĠBMW": 17042,
  "ĠBO": 17920,
  "ĠBP": 14936,
  "ĠBR": 15255,
  "ĠBS": 28550,
  "ĠBT": 21328,
  "ĠBTC": 21138,
  "ĠBU": 25060,
  "ĠBUT": 28818,
  "ĠBY": 13635,
  "ĠBYU": 31731,
  "ĠBa": 8848,
  "ĠBab": 11934,
  "ĠBaby": 16775,
  "ĠBabylon": 31657,
  "ĠBach": 18089,
  "ĠBachmann": 27898,
  "ĠBack": 6010,
  "ĠBacon": 27824,
  "ĠBad": 8781,
  "ĠBag": 22254,
  "ĠBaghd": 15182,
  "ĠBaghdad": 16037,
  "ĠBah": 11609,
  "ĠBahrain": 20305,
  "ĠBailey": 18476,
  "ĠBain": 26248,
  "ĠBak": 16769,
  "ĠBaker": 12159,
  "ĠBal": 9915,
  "ĠBald": 16377,
  "ĠBaldwin": 21011,
  "ĠBalk": 24510,
  "ĠBall": 8511,
  "ĠBalt": 7660,
  "ĠBaltic": 26712,
  "ĠBaltimore": 8666,
  "ĠBan": 10571,
  "ĠBand": 10814,
  "ĠBang": 8749,
  "ĠBangkok": 28604,
  "ĠBangl": 14656,
  "ĠBangladesh": 16120,
  "ĠBank": 4487,
  "ĠBanks": 17031,
  "ĠBanner": 31851,
  "ĠBannon": 15351,
  "ĠBapt": 16977,
  "ĠBaptist": 19004,
  "ĠBar": 2075,
  "ĠBarack": 6227,
  "ĠBarb": 10509,
  "ĠBarbara": 14875,
  "ĠBarber": 29582,
  "ĠBarcelona": 12264,
  "ĠBarcl": 24650,
  "ĠBarclays": 29689,
  "ĠBard": 29108,
  "ĠBark": 18420,
  "ĠBarn": 16340,
  "ĠBarnes": 18288,
  "ĠBarnett": 30415,
  "ĠBaron": 23638,
  "ĠBarr": 24928,
  "ĠBarrett": 21590,
  "ĠBarry": 12747,
  "ĠBart": 12655,
  "ĠBarton": 27271,
  "ĠBas": 7279,
  "ĠBase": 9271,
  "ĠBaseball": 15664,
  "ĠBased": 14063,
  "ĠBash": 13422,
  "ĠBashar": 18291,
  "ĠBasic": 19894,
  "ĠBasically": 19617,
  "ĠBasin": 28212,
  "ĠBasketball": 25092,
  "ĠBass": 21116,
  "ĠBast": 22107,
  "ĠBat": 6111,
  "ĠBates": 29272,
  "ĠBath": 23981,
  "ĠBatman": 9851,
  "ĠBatt": 17024,
  "ĠBattalion": 29818,
  "ĠBattery": 28516,
  "ĠBattle": 8207,
  "ĠBattlefield": 30060,
  "ĠBav": 29894,
  "ĠBay": 4027,
  "ĠBayern": 21634,
  "ĠBaylor": 23151,
  "ĠBe": 1455,
  "ĠBeach": 8187,
  "ĠBeacon": 27464,
  "ĠBean": 25948,
  "ĠBear": 15736,
  "ĠBears": 12804,
  "ĠBeast": 14933,
  "ĠBeat": 11976,
  "ĠBeatles": 20771,
  "ĠBeau": 28269,
  "ĠBeaut": 16520,
  "ĠBeautiful": 27030,
  "ĠBeauty": 24561,
  "ĠBec": 18453,
  "ĠBecause": 4266,
  "ĠBeck": 9307,
  "ĠBeckham": 28897,
  "ĠBecome": 29978,
  "ĠBed": 15225,
  "ĠBee": 23451,
  "ĠBeer": 15804,
  "ĠBefore": 7697,
  "ĠBeg": 29505,
  "ĠBegin": 19487,
  "ĠBeginning": 29620,
  "ĠBeh": 12450,
  "ĠBehavior": 27095,
  "ĠBehind": 20704,
  "ĠBeijing": 9197,
  "ĠBeing": 11242,
  "ĠBeir": 29379,
  "ĠBeirut": 30696,
  "ĠBel": 3750,
  "ĠBelarus": 26445,
  "ĠBelfast": 22710,
  "ĠBelg": 9412,
  "ĠBelgian": 17150,
  "ĠBelgium": 13546,
  "ĠBelieve": 30287,
  "ĠBell": 7068,
  "ĠBelle": 30531,
  "ĠBelow": 10185,
  "ĠBelt": 16155,
  "ĠBen": 3683,
  "ĠBench": 31807,
  "ĠBend": 23614,
  "ĠBened": 21337,
  "ĠBenedict": 23404,
  "ĠBenef": 25069,
  "ĠBeng": 12391,
  "ĠBengal": 21093,
  "ĠBengals": 20949,
  "ĠBenghazi": 17155,
  "ĠBenjamin": 12408,
  "ĠBenn": 12114,
  "ĠBennett": 14604,
  "ĠBenson": 28702,
  "ĠBent": 17520,
  "ĠBentley": 31221,
  "ĠBer": 4090,
  "ĠBerg": 18471,
  "ĠBerger": 26540,
  "ĠBerkeley": 11953,
  "ĠBerlin": 9598,
  "ĠBern": 5068,
  "ĠBernanke": 31183,
  "ĠBernard": 13907,
  "ĠBernardino": 28998,
  "ĠBernie": 8180,
  "ĠBernstein": 30998,
  "ĠBerry": 21573,
  "ĠBert": 21155,
  "ĠBes": 26349,
  "ĠBesides": 16782,
  "ĠBest": 6952,
  "ĠBet": 6171,
  "ĠBeta": 20050,
  "ĠBeth": 18151,
  "ĠBetter": 14681,
  "ĠBetty": 27127,
  "ĠBetween": 14062,
  "ĠBever": 19398,
  "ĠBeverly": 25197,
  "ĠBeyon": 30558,
  "ĠBeyond": 14703,
  "ĠBh": 13174,
  "ĠBhar": 26873,
  "ĠBi": 9977,
  "ĠBible": 9181,
  "ĠBiblical": 31372,
  "ĠBiden": 15346,
  "ĠBie": 24642,
  "ĠBig": 4359,
  "ĠBike": 25343,
  "ĠBil": 21507,
  "ĠBill": 3417,
  "ĠBillboard": 23113,
  "ĠBillion": 31609,
  "ĠBills": 17395,
  "ĠBilly": 14587,
  "ĠBin": 18677,
  "ĠBing": 25504,
  "ĠBio": 19595,
  "ĠBiology": 27331,
  "ĠBir": 11300,
  "ĠBird": 15154,
  "ĠBirds": 29236,
  "ĠBirmingham": 15565,
  "ĠBirth": 20996,
  "ĠBishop": 15015,
  "ĠBit": 4234,
  "ĠBitcoin": 5317,
  "ĠBitcoins": 28098,
  "ĠBj": 28881,
  "ĠBl": 1291,
  "ĠBlack": 3038,
  "ĠBlackBerry": 21235,
  "ĠBlackhawks": 28157,
  "ĠBlacks": 23966,
  "ĠBlade": 21505,
  "ĠBlair": 14271,
  "ĠBlake": 11932,
  "ĠBlank": 29915,
  "ĠBlasio": 26101,
  "ĠBlazers": 30910,
  "ĠBle": 21431,
  "ĠBless": 29350,
  "ĠBlind": 27949,
  "ĠBlizzard": 20596,
  "ĠBlock": 11843,
  "ĠBlockchain": 24575,
  "ĠBlocked": 22893,
  "ĠBlog": 12409,
  "ĠBlood": 11247,
  "ĠBloom": 9449,
  "ĠBloomberg": 12353,
  "ĠBlu": 11774,
  "ĠBlue": 6201,
  "ĠBlues": 13819,
  "ĠBluetooth": 19438,
  "ĠBlvd": 31637,
  "ĠBo": 3539,
  "ĠBoard": 6239,
  "ĠBoat": 31426,
  "ĠBob": 6320,
  "ĠBobby": 14869,
  "ĠBod": 26595,
  "ĠBody": 17332,
  "ĠBoe": 9864,
  "ĠBoehner": 16441,
  "ĠBoeing": 15932,
  "ĠBog": 21460,
  "ĠBoise": 31197,
  "ĠBoko": 30434,
  "ĠBol": 10360,
  "ĠBold": 27040,
  "ĠBolivia": 31527,
  "ĠBolshe": 28719,
  "ĠBolt": 24627,
  "ĠBolton": 28505,
  "ĠBom": 22694,
  "ĠBomb": 16978,
  "ĠBon": 9156,
  "ĠBond": 13777,
  "ĠBonus": 30312,
  "ĠBoo": 31961,
  "ĠBook": 5612,
  "ĠBooker": 24284,
  "ĠBooks": 13537,
  "ĠBoom": 31946,
  "ĠBoost": 28577,
  "ĠBoot": 22260,
  "ĠBooth": 30800,
  "ĠBor": 11017,
  "ĠBorder": 15224,
  "ĠBorders": 31431,
  "ĠBorg": 31212,
  "ĠBoris": 22082,
  "ĠBorn": 20866,
  "ĠBos": 13294,
  "ĠBosnia": 28289,
  "ĠBoss": 21012,
  "ĠBoston": 5309,
  "ĠBot": 19273,
  "ĠBoth": 5525,
  "ĠBottom": 28241,
  "ĠBou": 12875,
  "ĠBoulder": 24395,
  "ĠBoulevard": 19356,
  "ĠBour": 18674,
  "ĠBow": 10208,
  "ĠBowie": 26450,
  "ĠBowl": 7354,
  "ĠBowman": 31032,
  "ĠBox": 10105,
  "ĠBoy": 6399,
  "ĠBoyd": 24061,
  "ĠBoyle": 29810,
  "ĠBoys": 16971,
  "ĠBr": 1777,
  "ĠBra": 9446,
  "ĠBrad": 6827,
  "ĠBradford": 23050,
  "ĠBradley": 13407,
  "ĠBrady": 12855,
  "ĠBrain": 17274,
  "ĠBranch": 20777,
  "ĠBrand": 13317,
  "ĠBrandon": 12507,
  "ĠBrat": 30925,
  "ĠBraves": 22580,
  "ĠBrazil": 6209,
  "ĠBrazilian": 13598,
  "ĠBre": 4024,
  "ĠBreak": 15282,
  "ĠBreaking": 21568,
  "ĠBreitbart": 14682,
  "ĠBren": 17273,
  "ĠBrend": 16271,
  "ĠBrendan": 20423,
  "ĠBrennan": 20615,
  "ĠBrent": 19390,
  "ĠBrett": 17867,
  "ĠBrew": 8427,
  "ĠBrewer": 30705,
  "ĠBrewers": 27668,
  "ĠBrewery": 25868,
  "ĠBrewing": 15593,
  "ĠBrexit": 9678,
  "ĠBri": 25474,
  "ĠBrian": 7235,
  "ĠBrid": 28297,
  "ĠBridge": 9247,
  "ĠBrief": 22525,
  "ĠBrig": 16097,
  "ĠBrigade": 23417,
  "ĠBright": 17269,
  "ĠBrighton": 28201,
  "ĠBring": 26597,
  "ĠBris": 20120,
  "ĠBrisbane": 21202,
  "ĠBristol": 20491,
  "ĠBrit": 2018,
  "ĠBritain": 4584,
  "ĠBritish": 2957,
  "ĠBritt": 27292,
  "ĠBro": 1940,
  "ĠBroad": 8696,
  "ĠBroadcasting": 26515,
  "ĠBroadway": 15895,
  "ĠBrock": 19425,
  "ĠBrom": 25971,
  "ĠBron": 8976,
  "ĠBroncos": 13885,
  "ĠBronx": 24630,
  "ĠBronze": 30677,
  "ĠBrook": 6446,
  "ĠBrooklyn": 10275,
  "ĠBrooks": 14312,
  "ĠBros": 13659,
  "ĠBrother": 8330,
  "ĠBrotherhood": 16090,
  "ĠBrothers": 14861,
  "ĠBrow": 21413,
  "ĠBrown": 3898,
  "ĠBrowns": 14932,
  "ĠBru": 7209,
  "ĠBruce": 9549,
  "ĠBruins": 20550,
  "ĠBrun": 14145,
  "ĠBruno": 27842,
  "ĠBrunswick": 26960,
  "ĠBrus": 12135,
  "ĠBrussels": 12646,
  "ĠBry": 8038,
  "ĠBryan": 14966,
  "ĠBryant": 14762,
  "ĠBu": 10748,
  "ĠBub": 25720,
  "ĠBuc": 19760,
  "ĠBucc": 28328,
  "ĠBuccane": 30467,
  "ĠBuch": 19849,
  "ĠBuchanan": 29871,
  "ĠBuck": 12653,
  "ĠBucks": 26876,
  "ĠBud": 9575,
  "ĠBudd": 8473,
  "ĠBuddh": 18435,
  "ĠBuddha": 21051,
  "ĠBuddhism": 22418,
  "ĠBuddhist": 18141,
  "ĠBudget": 13942,
  "ĠBuff": 8863,
  "ĠBuffalo": 12720,
  "ĠBuffett": 27940,
  "ĠBug": 23184,
  "ĠBuild": 14193,
  "ĠBuilding": 12399,
  "ĠBul": 10392,
  "ĠBulgar": 23014,
  "ĠBulgaria": 24644,
  "ĠBull": 7518,
  "ĠBulldogs": 28817,
  "ĠBullet": 25123,
  "ĠBulls": 13811,
  "ĠBun": 20911,
  "ĠBund": 12905,
  "ĠBundes": 24427,
  "ĠBundesliga": 30929,
  "ĠBundy": 28927,
  "ĠBur": 5277,
  "ĠBureau": 9026,
  "ĠBurg": 20287,
  "ĠBurger": 23878,
  "ĠBurke": 18862,
  "ĠBurlington": 31287,
  "ĠBurn": 10391,
  "ĠBurning": 28123,
  "ĠBurns": 19712,
  "ĠBurr": 31105,
  "ĠBurton": 22030,
  "ĠBus": 14523,
  "ĠBush": 4176,
  "ĠBusiness": 7522,
  "ĠBut": 824,
  "ĠButler": 14946,
  "ĠButter": 23017,
  "ĠButton": 29076,
  "ĠBuy": 13453,
  "ĠBuzz": 14265,
  "ĠBuzzFeed": 21140,
  "ĠBy": 2798,
  "ĠByrne": 30155,
  "ĠByron": 29362,
  "ĠByz": 31182,
  "ĠC": 335,
  "ĠCA": 8771,
  "ĠCAN": 18900,
  "ĠCAP": 22040,
  "ĠCAR": 25378,
  "ĠCB": 10538,
  "ĠCBC": 15431,
  "ĠCBD": 24535,
  "ĠCBO": 28755,
  "ĠCBS": 8593,
  "ĠCC": 11030,
  "ĠCCTV": 27545,
  "ĠCD": 7037,
  "ĠCDC": 18061,
  "ĠCDs": 31935,
  "ĠCE": 21600,
  "ĠCEO": 4812,
  "ĠCEOs": 24894,
  "ĠCF": 19202,
  "ĠCFL": 31119,
  "ĠCG": 31920,
  "ĠCH": 8928,
  "ĠCI": 18408,
  "ĠCIA": 6563,
  "ĠCITY": 28369,
  "ĠCJ": 29022,
  "ĠCL": 11605,
  "ĠCM": 14856,
  "ĠCNBC": 25673,
  "ĠCNN": 6154,
  "ĠCO": 8209,
  "ĠCOL": 29183,
  "ĠCOM": 15132,
  "ĠCON": 10856,
  "ĠCONT": 22163,
  "ĠCOP": 30648,
  "ĠCOU": 22845,
  "ĠCP": 17073,
  "ĠCPS": 30386,
  "ĠCPU": 10910,
  "ĠCR": 11495,
  "ĠCRE": 31742,
  "ĠCS": 9895,
  "ĠCSS": 15240,
  "ĠCT": 16311,
  "ĠCU": 29812,
  "ĠCV": 23630,
  "ĠCW": 22144,
  "ĠCa": 12471,
  "ĠCab": 15387,
  "ĠCabinet": 16000,
  "ĠCable": 19379,
  "ĠCad": 20018,
  "ĠCaesar": 24702,
  "ĠCaf": 31800,
  "ĠCafe": 26149,
  "ĠCage": 24971,
  "ĠCain": 23312,
  "ĠCairo": 17990,
  "ĠCal": 2084,
  "ĠCald": 25726,
  "ĠCalder": 27125,
  "ĠCaldwell": 30406,
  "ĠCalgary": 14148,
  "ĠCalif": 2780,
  "ĠCaliforn": 28358,
  "ĠCalifornia": 3001,
  "ĠCall": 7603,
  "ĠCaller": 26619,
  "ĠCalvin": 23044,
  "ĠCam": 7076,
  "ĠCamb": 18208,
  "ĠCambod": 21212,
  "ĠCambodia": 25871,
  "ĠCambridge": 13022,
  "ĠCamer": 6881,
  "ĠCamera": 22750,
  "ĠCameron": 8322,
  "ĠCamp": 5273,
  "ĠCampaign": 12686,
  "ĠCampbell": 11970,
  "ĠCampus": 25128,
  "ĠCan": 1471,
  "ĠCanad": 1968,
  "ĠCanada": 2966,
  "ĠCanadian": 4483,
  "ĠCanadians": 11070,
  "ĠCanadiens": 24991,
  "ĠCanal": 26441,
  "ĠCanberra": 27855,
  "ĠCance": 27519,
  "ĠCancer": 16938,
  "ĠCand": 16553,
  "ĠCandy": 30144,
  "ĠCann": 17853,
  "ĠCannabis": 25416,
  "ĠCannon": 26008,
  "ĠCanon": 21269,
  "ĠCant": 15746,
  "ĠCanter": 30857,
  "ĠCanucks": 21236,
  "ĠCanyon": 21499,
  "ĠCap": 3795,
  "ĠCape": 14756,
  "ĠCapital": 9671,
  "ĠCapitals": 31161,
  "ĠCapitol": 10464,
  "ĠCaps": 31925,
  "ĠCapt": 9057,
  "ĠCaptain": 10199,
  "ĠCaption": 11220,
  "ĠCar": 1763,
  "ĠCarbon": 25251,
  "ĠCard": 6577,
  "ĠCardiff": 25424,
  "ĠCardinal": 22516,
  "ĠCardinals": 15298,
  "ĠCards": 20473,
  "ĠCare": 7432,
  "ĠCarey": 25762,
  "ĠCarib": 15790,
  "ĠCaribbean": 16487,
  "ĠCarl": 6986,
  "ĠCarlos": 14259,
  "ĠCarlson": 27000,
  "ĠCarly": 29486,
  "ĠCarn": 26120,
  "ĠCarnegie": 27005,
  "ĠCarney": 30478,
  "ĠCarol": 4525,
  "ĠCarolina": 5143,
  "ĠCaroline": 27389,
  "ĠCarp": 22928,
  "ĠCarpenter": 27431,
  "ĠCarr": 17224,
  "ĠCarrie": 28339,
  "ĠCarrier": 31792,
  "ĠCarroll": 17389,
  "ĠCars": 25894,
  "ĠCarson": 13418,
  "ĠCart": 16512,
  "ĠCarter": 9367,
  "ĠCas": 11432,
  "ĠCasc": 31832,
  "ĠCase": 10445,
  "ĠCasey": 17823,
  "ĠCash": 17297,
  "ĠCasino": 31774,
  "ĠCass": 13484,
  "ĠCast": 7206,
  "ĠCastle": 15027,
  "ĠCastro": 16730,
  "ĠCat": 7204,
  "ĠCatal": 16157,
  "ĠCatalan": 28963,
  "ĠCatalonia": 31781,
  "ĠCatch": 30525,
  "ĠCategory": 28565,
  "ĠCath": 5356,
  "ĠCathedral": 27544,
  "ĠCatherine": 20307,
  "ĠCatholic": 6542,
  "ĠCatholics": 17815,
  "ĠCats": 29032,
  "ĠCaucas": 24800,
  "ĠCaucus": 22831,
  "ĠCause": 27311,
  "ĠCav": 16278,
  "ĠCaval": 19782,
  "ĠCavaliers": 24631,
  "ĠCave": 24884,
  "ĠCavs": 30479,
  "ĠCay": 27436,
  "ĠCe": 19058,
  "ĠCec": 23962,
  "ĠCed": 23420,
  "ĠCedar": 31578,
  "ĠCel": 19710,
  "ĠCele": 19428,
  "ĠCelebr": 27785,
  "ĠCell": 16160,
  "ĠCelsius": 29208,
  "ĠCelt": 13801,
  "ĠCeltic": 22629,
  "ĠCeltics": 20192,
  "ĠCemetery": 29713,
  "ĠCensus": 19149,
  "ĠCent": 1881,
  "ĠCenter": 3119,
  "ĠCenters": 20393,
  "ĠCentral": 5207,
  "ĠCentre": 7987,
  "ĠCentury": 12542,
  "ĠCer": 21798,
  "ĠCert": 22498,
  "ĠCertain": 31682,
  "ĠCertainly": 21289,
  "ĠCh": 623,
  "ĠCha": 19071,
  "ĠChad": 16743,
  "ĠChain": 28349,
  "ĠChair": 8542,
  "ĠChairman": 10860,
  "ĠChal": 30004,
  "ĠChall": 12174,
  "ĠChallenge": 16277,
  "ĠChamber": 14661,
  "ĠChambers": 28859,
  "ĠChamp": 28754,
  "ĠChampion": 17526,
  "ĠChampions": 11366,
  "ĠChampionship": 7250,
  "ĠChampionships": 19282,
  "ĠChan": 16621,
  "ĠChance": 12495,
  "ĠChancellor": 16056,
  "ĠChand": 15644,
  "ĠChandler": 24786,
  "ĠChang": 23231,
  "ĠChange": 10766,
  "ĠChanges": 24672,
  "ĠChannel": 10345,
  "ĠChaos": 25200,
  "ĠChap": 12650,
  "ĠChapel": 29446,
  "ĠChapman": 23178,
  "ĠChapter": 14414,
  "ĠChar": 3198,
  "ĠCharacter": 23465,
  "ĠCharg": 14611,
  "ĠCharge": 26839,
  "ĠChargers": 19358,
  "ĠCharl": 5621,
  "ĠCharles": 6649,
  "ĠCharleston": 22682,
  "ĠCharlie": 10007,
  "ĠCharlotte": 13378,
  "ĠCharlottesville": 21309,
  "ĠChart": 26456,
  "ĠCharter": 21224,
  "ĠChase": 15939,
  "ĠChat": 27866,
  "ĠChavez": 23130,
  "ĠChe": 3362,
  "ĠCheck": 8563,
  "ĠCheese": 28867,
  "ĠChef": 28497,
  "ĠChelsea": 9704,
  "ĠChem": 16591,
  "ĠChemical": 24856,
  "ĠChen": 15625,
  "ĠCheney": 20645,
  "ĠCher": 13818,
  "ĠChern": 30364,
  "ĠCherry": 24962,
  "ĠChes": 25544,
  "ĠChess": 31522,
  "ĠChester": 25794,
  "ĠChev": 20088,
  "ĠChevrolet": 28275,
  "ĠChi": 21656,
  "ĠChicago": 4135,
  "ĠChick": 31390,
  "ĠChicken": 23657,
  "ĠChief": 5350,
  "ĠChiefs": 15581,
  "ĠChild": 6745,
  "ĠChildren": 9713,
  "ĠChile": 14514,
  "ĠChin": 21540,
  "ĠChina": 2325,
  "ĠChinese": 3422,
  "ĠChip": 16221,
  "ĠCho": 12959,
  "ĠChocolate": 25713,
  "ĠChoice": 21197,
  "ĠChoose": 26629,
  "ĠChris": 4626,
  "ĠChrist": 1844,
  "ĠChristian": 3827,
  "ĠChristianity": 11983,
  "ĠChristians": 8049,
  "ĠChristie": 12786,
  "ĠChristina": 29462,
  "ĠChristine": 22815,
  "ĠChristmas": 5991,
  "ĠChristopher": 11084,
  "ĠChrom": 27140,
  "ĠChrome": 11727,
  "ĠChron": 11402,
  "ĠChronicle": 14663,
  "ĠChronicles": 31092,
  "ĠChrys": 24774,
  "ĠChrysler": 28031,
  "ĠChuck": 12869,
  "ĠChurch": 4527,
  "ĠChurchill": 22102,
  "ĠCi": 31405,
  "ĠCincinnati": 13385,
  "ĠCind": 25008,
  "ĠCinem": 19229,
  "ĠCinema": 27525,
  "ĠCirc": 8155,
  "ĠCircle": 19051,
  "ĠCircuit": 12596,
  "ĠCisco": 29382,
  "ĠCit": 16974,
  "ĠCities": 20056,
  "ĠCitiz": 11523,
  "ĠCitizen": 19962,
  "ĠCitizens": 16104,
  "ĠCity": 2103,
  "ĠCivic": 26609,
  "ĠCivil": 7301,
  "ĠCl": 1123,
  "ĠClaim": 25805,
  "ĠClaire": 22104,
  "ĠClar": 13794,
  "ĠClara": 25846,
  "ĠClare": 20114,
  "ĠClark": 10109,
  "ĠClarke": 16343,
  "ĠClarks": 29154,
  "ĠClarkson": 31861,
  "ĠClass": 6885,
  "ĠClassic": 15388,
  "ĠClaud": 27224,
  "ĠClaus": 30292,
  "ĠClause": 31269,
  "ĠClay": 15008,
  "ĠClayton": 26705,
  "ĠCle": 6680,
  "ĠClean": 15310,
  "ĠClear": 20145,
  "ĠClearly": 20977,
  "ĠClement": 24425,
  "ĠClemson": 25552,
  "ĠCleveland": 8727,
  "ĠCli": 19255,
  "ĠClick": 9323,
  "ĠClient": 30068,
  "ĠCliff": 21594,
  "ĠClimate": 11582,
  "ĠClin": 16062,
  "ĠClinic": 27277,
  "ĠClinical": 28771,
  "ĠClint": 18234,
  "ĠClinton": 2098,
  "ĠClintons": 24558,
  "ĠClippers": 26011,
  "ĠClo": 31247,
  "ĠClock": 26632,
  "ĠClose": 15307,
  "ĠCloud": 11346,
  "ĠClub": 6364,
  "ĠCly": 28491,
  "ĠCo": 1847,
  "ĠCoach": 14457,
  "ĠCoal": 10441,
  "ĠCoalition": 11842,
  "ĠCoast": 7576,
  "ĠCob": 18593,
  "ĠCobb": 27550,
  "ĠCoc": 20065,
  "ĠCoca": 26025,
  "ĠCoch": 29621,
  "ĠCock": 30944,
  "ĠCod": 26697,
  "ĠCode": 9113,
  "ĠCody": 24653,
  "ĠCoff": 16787,
  "ĠCoffee": 21089,
  "ĠCohen": 12483,
  "ĠCoin": 17282,
  "ĠCoke": 31558,
  "ĠCol": 1710,
  "ĠColbert": 22849,
  "ĠCold": 11086,
  "ĠCole": 10247,
  "ĠColeman": 18813,
  "ĠColin": 16176,
  "ĠColl": 7615,
  "ĠCollect": 15415,
  "ĠCollection": 17161,
  "ĠCollective": 31348,
  "ĠColleg": 31799,
  "ĠCollege": 4977,
  "ĠCollins": 11761,
  "ĠCologne": 29532,
  "ĠColomb": 13809,
  "ĠColombia": 17434,
  "ĠColombian": 30773,
  "ĠColon": 14954,
  "ĠColonel": 21668,
  "ĠColor": 5533,
  "ĠColorado": 6378,
  "ĠColts": 17549,
  "ĠColumb": 6151,
  "ĠColumbia": 8420,
  "ĠColumbus": 12901,
  "ĠCom": 1082,
  "ĠComb": 16137,
  "ĠCombat": 22497,
  "ĠCombine": 30262,
  "ĠCombined": 31714,
  "ĠComcast": 17044,
  "ĠCome": 7616,
  "ĠComedy": 20843,
  "ĠComet": 31591,
  "ĠComey": 9919,
  "ĠComic": 17075,
  "ĠComics": 14137,
  "ĠComing": 21069,
  "ĠComm": 1959,
  "ĠCommand": 10973,
  "ĠCommander": 16357,
  "ĠComment": 20501,
  "ĠComments": 23289,
  "ĠCommerce": 14675,
  "ĠCommercial": 23791,
  "ĠCommission": 4213,
  "ĠCommissioner": 12108,
  "ĠCommit": 30792,
  "ĠCommittee": 4198,
  "ĠCommon": 9571,
  "ĠCommons": 11477,
  "ĠCommonwealth": 17514,
  "ĠCommun": 4449,
  "ĠCommunication": 27747,
  "ĠCommunications": 13121,
  "ĠCommunist": 12723,
  "ĠCommunity": 8349,
  "ĠComp": 3867,
  "ĠCompanies": 21874,
  "ĠCompany": 6973,
  "ĠCompar": 31394,
  "ĠCompared": 28539,
  "ĠCompetition": 26117,
  "ĠCompl": 24208,
  "ĠComplete": 18421,
  "ĠComplex": 21845,
  "ĠComput": 22908,
  "ĠComputer": 15643,
  "ĠCon": 1626,
  "ĠConc": 21360,
  "ĠConcept": 26905,
  "ĠConcer": 19053,
  "ĠCond": 14641,
  "ĠConf": 7365,
  "ĠConfeder": 14207,
  "ĠConfederate": 17630,
  "ĠConference": 7976,
  "ĠCong": 2448,
  "ĠCongo": 22345,
  "ĠCongress": 2615,
  "ĠCongressional": 12024,
  "ĠCongressman": 22267,
  "ĠConn": 19151,
  "ĠConnect": 8842,
  "ĠConnecticut": 13097,
  "ĠConnor": 23708,
  "ĠConrad": 31751,
[...]
