#version: 0.2
t h
i n
Ġ \
Ġ $
o n
Ġ a
Ġ th
t i
r e
Ġth e
e n
a l
e r
_ {
Ġ s
Ġ Ġ
Ġ o
m a
i s
l e
o r
Ġ c
ti on
t e
t a
b e
Ġ f
r a
Ġ w
Ġo f
n d
Ġ$ \
i g
l a
r o
^ {
d e
Ġ p
Ġ in
Ġ t
e s
a r
e q
a t
Ġ is
( \
Ġa nd
} \
{ \
s e
s i
in g
m e
v e
i c
h a
Ġ b
) $
h e
} $
Ġt o
Ġ e
ma th
o l
en d
i t
Ġth at
Ġ n
s u
Ġ (
Ġ d
c e
Ġ Ċ
o t
ra c
ĠĠ ĠĠ
m p
re f
g in
Ġf or
be gin
, \
u a
f t
l y
a n
Ġw e
_{ \
ig h
f rac
v er
l o
Ġ re
Ġc on
Ġ g
} {
en t
Ġ T
s t
m b
l l
c al
$ .
i te
Ġ =
c t
o u
} }
e d
Ġ be
Ġ u
c tion
r igh
$ ,
Ġ &
c h
Ġ on
g a
i th
) \
Ġ i
r i
m ma
p h
e t
h o
Ġp ro
m u
Ġs u
ua tion
righ t
Ġ de
Ġa n
eq uation
} )
le ft
} (
Ġc o
d ot
Ġb y
Ġa s
Ġw ith
d a
} ,
be l
o re
Ġ m
la bel
in e
g e
p ha
in t
^{ \
p p
Ġ ha
al pha
Ġ ma
e ta
i m
Ġ I
= \
t o
Ġ -
Ġ 1
_ \
Ġe x
mb da
math b
b le
Ġ S
math cal
Ġ 0
Ġa re
te d
- \
Ġ L
Ġ +
i r
p si
Ġ v
lo w
i v
ti m
c ite
} .
o m
p ro
s p
ĠĠ Ġ
o f
$ $
Ġ A
l ine
d u
ĠT he
te x
l ta
t er
la mbda
o me
u r
} ^
p er
u s
ig n
u n
le q
i f
} ^{
ph i
Ġ C
eq u
Ġw h
tim es
e c
Ġa l
Ġ it
ig ma
he re
Ġ F
Ġth is
} _
dot s
a s
it y
* }
la r
Ġ h
ti al
W e
q ua
) }
t r
ti ve
T he
l on
su m
a tion
+ \
ft y
su b
in fty
ra n
| \
mp le
f in
Ġc an
Ġp o
^{ -
ti c
t s
$ \
b ig
al ign
Ġha ve
d s
mathb b
re s
en ce
u p
ĠĠĠĠ ĠĠĠĠ
i l
Ġ B
ro m
ti l
$ -
ic h
^ \
Ġ 2
u t
} _{
f or
Ġ H
p a
tex t
ore m
p i
Ġ (\
d i
v ar
t ri
Ġ x
eq ref
til de
c o
Ġo r
ol low
x i
Ġs e
o w
se t
~ \
ta r
be ta
ĠT h
si on
Ġi f
d er
Ġ\ \
Ġ P
p ar
s igma
m ent
Ġf ollow
a b
o te
psi lon
i de
Ġ M
r m
tion s
ga mma
i z
u re
th eta
Ġf rom
} (\
ta u
c a
i d
ro w
un ction
Ġa t
) ,
Ġs a
r ho
Ġ le
qua d
g le
en er
Ġ me
n t
de lta
Ġa ll
)$ .
h at
th e
p o
Ġwh ich
Ġ [
} {\
i e
a te
Ġsu ch
n e
) .
e ll
Ġthe n
D e
Ġ R
Ġ$ (
a se
Ġs et
th er
Ġ k
}$ .
o ver
Ġ l
Ġf unction
c dot
ou nd
\ \
s o
q u
^ *
) =
i es
c on
a ct
par tial
Ġ N
Ġco mp
ta in
s s
c k
Ġp a
m s
o de
Ġ y
al l
ite m
b ar
Ġ {\
G a
Ġn ot
u m
ho w
Ġu n
Ġd is
ra y
e x
Ġsu b
Ġo b
c es
o d
Ġ E
}$ ,
)$ ,
b f
p s
e ct
a nd
ome ga
a ch
n u
i ll
g eq
pro of
i a
s ta
0 0
mathb f
t y
mb er
ar ray
Ġthe re
i al
se ction
me ga
O mega
m in
or m
Ġs ta
Ġ G
Ġ We
Ġan y
Ġde fin
Ġa pp
tar row
i an
Ġg ener
Ġon e
f f
y s
si tion
Ga mma
e re
in ce
u mber
Ġ {
c l
Ġp ar
ro up
r u
a re
Ġ D
T h
Ġf in
h i
r t
g ra
u lar
\ |
b ra
m o
l d
Ġha s
ol u
ĉ ĉ
tri x
o p
Ġw here
w o
ou s
d ing
Ġb ound
Ġg iv
s q
] {
or ph
s f
L et
De lta
Ġ X
s c
Ġu s
if f
Ġs pa
se d
righ tarrow
tr ic
var phi
su l
ĠI n
Ġpo int
w ide
Ġs how
Ġ }
Ġ r
I n
\ [
ca p
Ġc ase
u l
al ly
^{ (
sq rt
k e
re e
} }\
e psilon
Ġfollow ing
Ġre sul
Ġn e
at or
b o
ir c
Ġs ome
) ^
l dots
Ġ equ
u nd
Ġn on
ta tion
t ing
Ġd en
Ġt wo
a pp
Ġ z
& \
o times
) )
f ig
en sion
Ġex p
[ \
ir st
Ġ lo
Ġw ill
ct or
B ig
over line
a ce
Ġs p
Ġ ra
Ġ K
Ġcon t
eq n
ver y
2 0
Ġex is
w here
w e
e mp
o g
a d
c c
Ġal so
Ġin te
la n
Ġ 3
} ^{\
math rm
re d
Ġe ach
Ġn o
al u
o se
n ab
ge bra
Ġon ly
} ,\
mp l
nab la
Ġs o
\ ]
Ġd o
i p
ol ds
l im
Ġ V
v are
ĠThe orem
L a
Ġ W
Ġfollow s
vare psilon
} _{\
Ġgiv en
e mma
Ġ\ ,
po sition
Ġd iff
1 2
ĠTh en
a m
Ġa r
} [
Ġc la
Ġ mu
Ġ |
Ġ U
si der
orph is
ĠL et
Ġspa ce
Ġm o
Ġ :
} =
i x
Ġco mple
i tion
Ġ j
cl u
\ ,
Ġob tain
Ġn umber
Ġg roup
Ġa d
f ra
) =\
1 0
di tion
Ġpro of
Ġc or
ic al
a st
ar y
c irc
o th
es s
P hi
Ġc ha
p t
ĠĠ Ċ
g or
Ġle t
al ity
Ġ ver
ti sf
a mple
lo g
re sp
Ġf irst
line ar
per ator
Ġas su
Ġre p
Ġ equation
Ġin ter
Ġ O
Ġg ra
ec tive
de f
ran gle
Ġs olu
im ension
) (
v es
sub set
e ction
n ce
fra k
\ {
du ce
La mbda
Ġsa tisf
Ġe le
Ġfor m
ĠF or
Ġo ver
Ġv ar
Ġ la
is e
th m
Ġs i
. .
y n
it s
ve ctor
ch i
Ġ ta
ti es
ĠTh is
Ġfin ite
Ġ <
p e
ar d
p end
- -
le mma
lan gle
g h
app a
k appa
Ġt ran
ys te
Ġf act
Ġp er
F or
l ic
Ġse e
Ġpro ve
ĠL emma
ma trix
r k
eqn array
b u
Ġre la
c dots
Ġe very
Ġdefin ed
ma in
emp h
Ġdiff ere
Ġs t
Ġpro ble
st ru
ra w
il ity
Ġ es
) ^{
le m
c ent
Ġt er
ff ic
c ol
g er
) }\
Ġs tr
} )$
sp ace
n o
S igma
orphis m
um er
s si
g es
ti me
' s
Ġo ther
Ġor der
Ġ 4
iz e
wide tilde
ode l
z eta
mu la
le d
m all
ote s
ĠĠĠĠ ĠĠĠ
Ġal gebra
s er
math frak
on d
Ġre sp
ou ld
equ ence
n ow
ment s
Ġwh en
ent s
nd er
Ġcon sider
ti ma
Ġgener al
or k
Ġit s
Ġ ,
si m
Ġu se
ol d
' '
ĠĠĠĠ Ġ
Ġpro per
le s
Ġma p
Ġs yste
) ;
te s
e ps
Ġ\ {
} -
Ġo p
, -
er t
d raw
1 1
o x
Ġ Y
t en
in d
c up
Ġsa me
| ^
Ġ$ (\
ĠP ro
}) .
ĠĠĠĠĠĠĠĠ ĠĠĠĠĠĠĠĠ
res en
f ine
er o
ra me
Ġun i
Ġexis ts
ĠI f
a su
r al
se c
n on
l i
Ġ vector
igh t
ou t
Ġus ing
Ġo ur
} +
} ;
d is
c re
bo ve
Ġo perator
ri me
sub section
Ġa bove
ol og
ou r
ti cal
a k
v i
co mp
c or
y m
Ġv alu
p ut
ma n
l ti
on g
as es
in u
i re
ma rk
iv al
clu de
Ġcor resp
] $
d en
ffic i
Ġ q
Ġb ut
Ġapp ro
Ġthe se
Ġresul t
} )\
n ot
j ect
pro p
ref ore
the orem
Ġ en
gra ph
Ġp re
Ġin de
Ġu p
Ġproble m
; \
Ġpar tic
Ġ >
Ġu nder
Ġp ol
a y
Ġ\ |
v en
/ \
} =\
Ġbe t
q quad
i j
si tive
a u
Ġgra ph
iz ation
Ġma n
Ġ qu
Ġcon sta
Ġ J
b b
Ġm odel
Ġ ho
l us
tri bu
Ġ time
ti t
sc ri
ver t
ve c
Ġc lo
p m
Ġre g
] \
Ġma trix
w h
P ro
m m
id th
Ġme asu
or d
Ġsolu tion
s ing
n eq
) -
Ġes tima
Ġs ince
om ial
Ġfunction s
Ġc ho
Ġtran s
Ġc ur
n orm
Ġi mpl
p la
we en
Ġ Q
}) ,
i i
. ,
Ġassu me
{ (
i ve
1 9
Ġde fine
Ġ linear
Ġm ore
Ġs h
] :
fig ure
Ġcon tain
Ġcon dition
for ma
s h
Ġc al
ie ld
Ġ Z
a ted
u e
var ian
b m
Ġse ction
} }{
Ġthe orem
T I
l it
Ġex ample
Ġbet ween
wide hat
Ġden ote
Ġex t
& =
ma x
y mb
a ble
Ġequ ival
Ġg et
Ġ ro
Ġan al
Ġcon stru
Ġresul ts
c he
ymb ol
or y
r y
e m
u ct
Ġma y
\ }$
Ġk now
le t
Ġt ri
Ġ$ {\
Ġcorresp on
de d
mb ox
du ct
Ġmu lti
e e
ĠI t
Ġcla ss
i lar
ation s
Ġsyste m
p rime
Ġs equence
} }$
}^ \
pp ose
te q
Ġcon ver
' $
fin ition
Ġpartic ular
( -
u la
e ver
Ġlo cal
Ġcont inu
Ġth an
Ġcomp u
cent er
c m
Th is
ic s
1 3
umer ate
Ġpoint s
r f
Ġfor mula
R e
su p
ta b
on e
Ġsta te
v ing
) }{
ex p
Ġn ow
en umerate
se e
I f
r ic
Ġm in
< \
Ġpo sitive
) ]
Ġn orm
Ġt y
V ert
Ġimpl ies
se teq
lon g
Ġconsta nt
Ġc ol
Ġ qua
w idth
ym me
) ,\
Ġstr uct
im ilar
P si
duce d
s k
1 5
gor ith
$$ \
min us
om orphism
ec ond
Ġin to
} |
yn omial
) |
c y
Ġcomple x
und er
) +
c i
Ġe d
v al
op lus
^ +
en tial
or s
Ġi den
Ġ .
Ġrep resen
Ġi mp
non umber
w ith
u d
sub seteq
Ġ& \
Ġ$\ {
i on
}\ \
set minus
Ġh olds
ia ble
Ġ "
a me
Ġ& =
\ !
Ġme an
Ġ- -
Ġf ix
ĠA s
Th en
} ]
Ġme th
} +\
ĉ Ċ
ma p
Ġwe ll
b ab
er s
Ġ lar
Ġd imension
Ġd er
for m
. }
i b
qu e
ta ble
iz ed
Ġ 5
Ġo ut
t ro
Ġre al
pro d
} :
Ġw r
text bf
c ha
Ġw as
Ġa b
Ġ$ $
ec ted
rame ter
st ra
Ġin equ
Ġdis tribu
ĠPro position
is h
lar y
d d
Ġd ire
ed ge
. \
Ġ ref
Ġbound ed
1 6
1 4
i ed
Ġh y
ol lary
ĠS ince
Ġdefin ition
Ġ\ <
Ġpa per
st o
an t
A s
ex t
Ġpol ynomial
{ -
Ġb oth
Ġcon s
Ġs econd
Ġdo es
Ġde g
fin ite
ĠS ection
mo oth
Ġ te
a ck
ĠB y
Ġco m
Ġ )
be d
Ġ `
n g
o v
Ġz ero
st y
rac ter
Ġpro duct
C on
Ġpro bab
Ġiden ti
sty le
olog y
B y
Ġcorrespon ding
Ġu sed
ces s
nd om
} -\
im al
Ġp res
n ode
_ +
^{ -\
Ġf ield
ffici ent
d imension
Ġ- \
big g
}} (
v alu
_{ (
Ġexis t
) }$
Ġw ork
en g
ne l
) :
Ġvar iable
b it
~ $
pend ent
Ġter ms
Ġl im
gorith m
ur ther
l f
b olds
a si
y ing
Ġ right
Ġs mall
Ġa u
Ġ$ [
bolds ymbol
o k
Ġd ia
Ġn ode
}^{ (
Ġmeasu re
di tions
\| _{
equ iv
is t
g roup
u b
m id
ig en
sp lit
u se
c ia
w edge
Ġ: =
sc r
ind ent
I t
Ġstruct ure
in c
ou gh
du ction
Ġpa ir
Ġs ing
\ }
Ġcontinu ous
Ġne ed
s in
Ġpa rameter
wh ich
ne w
c us
Ġ _{
R E
_ *
col on
$ }
Ġde scri
Ġi de
Ġra ndom
g ral
varian t
ective ly
Ġmulti p
Ġ he
s tar
orph ic
Ġ$ |
S ince
Ġdiffere nt
cal l
Ġmo du
Ġas so
2 5
xi ma
g y
w ise
g u
tion al
te p
j ective
Ġcha racter
Ġty pe
Ġinequ ality
Ġele ment
u ll
o int
Ġbound ary
) ^{\
) {
z e
p ic
item ize
or t
Ġy ou
in ate
P i
u ppose
eng th
d x
Ġresp ect
Ġcon ditions
1 8
p re
}\ ,
i o
lim its
ĠTh us
om orphic
ie l
Ġin tro
Ġs ymme
c om
at ur
Ġs ol
v ial
si ty
forma tion
Ġde ter
Ġsp ec
d ic
Ġ |\
n i
a g
\ <
Ġequival ent
Ġfin d
no indent
Ġ 6
Ġcomp act
) _{
: \
a tive
Ġcha n
Ġs mooth
vi ous
Ġthe ory
w er
map sto
Ġclo sed
ti ce
u st
Ġsatisf ies
le ss
Ġprobab ility
Ġinte ger
n er
Ġde pend
ore over
for all
Ġele ments
Ġw ould
Ġcomp on
' (
L E
Ġp la
} _\
Ġh ence
Ġequ al
Ġ( -
a ta
The orem
in k
ve d
The ta
Ġex act
}} {\
Ġ how
ic e
i ly
Ġg e
bo x
Ġl i
iel ds
Ġop tim
Ġre st
| _{
u gh
Ġvalu e
tic es
h line
2 00
Ġe igen
a c
Ġs imilar
Ġho m
on al
if orm
en s
s mall
= (
' \
Ġ left
cia ted
Ġpo ssi
Ġobtain ed
m i
Ġob ser
b ul
ĠR e
b y
Ġsi mple
g ence
re mark
Ġfix ed
ca use
mo du
) }(
ĠC on
dimension al
Ġto p
Ġlar ge
Ġassu mp
si de
ord inate
s la
ta tions
pla y
n ected
Ġ end
) ^{-
er r
Ġthe ir
Ġuni que
Ġpro cess
d im
ate gor
1 7
pa ra
mu m
v ide
Ġgiv es
n ti
le ar
Ġinte gral
at ure
Ġapp ly
O N
Ġdeg ree
Ġw ho
Ġpar t
ve x
de finition
ic ation
bul let
co s
math scr
Ġg o
ase d
Ġappro xima
E S
Ġa ction
b ound
Ġmeth od
con g
Ġequation s
' _
Ġproper ty
Ġlim it
Ġ ran
Ġw ay
as is
in clude
Ġme tric
Ġd ata
Ġter m
Ġcal led
Ġthe y
n s
if old
Ġop en
Ġc ou
Ġc ategor
pro position
l t
Ġn atur
Ġha nd
N ow
cap tion
Ġsu pp
Ġ` `
Ġm on
ro ugh
g en
)\ ,
graph ics
) {\
Ġset s
include graphics
Ġresp ectively
o sition
Ġre qu
Ġvalu es
P L
tr y
^ -
. $
T o
p matrix
Ġth us
$ )
c ases
w ork
dis play
Ġinde pendent
Ġmo st
emp ty
Ġe ven
Ġsta nd
Ġspa ces
Ġf am
to p
al gebra
ow ever
Ġbe en
to m
Ġasso ciated
Ġcom mu
Ġbe cause
)$ -
Ġnorm al
Ġs ign
}^{ -
Ġar gu
Ġ }\
f ill
Ġexp res
Ġsu m
ver se
ti v
Ġc y
Ġ low
Ġle mma
at ing
,\ ,
Ġmu st
Ġco e
is tic
mb in
tex tit
)\ \
Ġsolu tions
Ġpro vide
Ġ De
Ġdistribu tion
t t
u al
Ġpa th
Ġta k
b ility
Ġma in
Ġvar i
Ġ\ ;
under line
i tial
rac t
d t
Ġ\ (
ve l
h en
n ess
) )$
Ġt ra
Ġed ge
ĠF ig
Ġver tex
Ġproper ties
& &
ĠH ence
Ġh igh
m c
E x
Ġwr ite
Ġ line
Ġver tices
t ure
' ,
Ġcomple te
h y
Ġa cc
Ġc irc
Ġshow s
Ġdeter min
Ġcla ssi
he d
align ed
2 2
sk ip
$ (
Ġs ide
Ġsu rf
Ġhy per
Ġv otes
)} {\
y mp
b s
Ġrest ric
ic k
Ġder iv
PL Y
RE PLY
man n
\ {\
i le
_{ -
u res
e ed
N ote
Ġ+ \
TI ON
Ġun iform
) /
Q U
olu tion
ar row
m on
ver s
) -\
in f
Ġth ree
Ġle ast
Ġ here
w a
Ġs cal
th at
Ġd iv
la tion
Ġa ct
ener gy
ho m
ith er
e l
Ġb asis
de g
gra m
n tial
Ġal gorithm
j oint
Ġl ength
Ġma x
TI T
Ġs che
ĠThe refore
Ġman y
Ġcon nected
h space
Ġla t
ES TION
ing s
an g
QU ESTION
v otes
TIT LE
Ġup votes
Ġs er
ĠS o
Ġrepresen tation
al s
Ġsub set
e p
Ġwe ak
pp er
Ġi ma
Ġpossi ble
Ġconstru ction
Ġappro ach
Ġs tar
s cal
e ar
Ġsa y
Ġsub group
Ġ= \
) )\
Ġin finite
Ġgener ated
Ġdo main
Ġestima te
Ġstand ard
c ted
Ġg ive
Ġgroup s
ta n
o s
) +\
p r
la t
Ġma ps
2 3
ga tive
c ur
b ack
Ġst ud
an gle
j ection
Ġnatur al
f ul
2 1
ta nce
Ġab out
] ,
) _
z ero
Ġst ra
su me
ĠĠĠĠ ĠĠ
d f
ie w
Ġin itial
[ (
Ġco ordinate
~ $\
n ote
ĠT o
Ġb und
Ġshow n
es tion
r r
Ġn ote
Ġreg ular
Ġc ases
a ge
Ġle a
s te
a ces
Ġdis cus
Ġcal c
\ ,\
t in
is ts
Ġ _
Ġcont ra
iv en
E E
l n
Ġdire ct
Ġth rough
ome tric
: =
m is
Ġa m
Ġt ru
re st
ga in
lo or
Ġde comp
mma nd
Ġ err
sta ck
ft er
col or
Ġta ke
Ġis omorphism
t al
bit ra
Ġcontain s
Ġknow n
orphis ms
x y
2 4
o ot
Ġli ke
un ctor
C o
Ġext ension
~ ~
c u
Ġne w
Ġvariable s
ĠN ote
Ġsp ect
$ ;
i ties
big l
Ġcon vex
l u
s on
ve lo
Ġre main
n ing
yn am
t on
}} }
Ġ ent
Ġmean s
ic ally
Ġoperator s
Ġwho se
a p
Ġsi mpl
re m
Ġsu fficient
lo ck
\ |\
ymp to
d frac
Ġob ject
Ġs en
igh b
}$ -
big r
tric es
k s
Ġp ri
d o
Ġconver gence
k er
es t
c ise
Ġbe low
si ze
ta g
or ollary
} )$.
la ck
Ġ\ ]
mo st
Ġla st
Ġar bitra
ro und
, $
Ġf ree
s ign
\ }$.
in ally
qua re
Ġcategor y
ab s
cre te
* {
Ġe m
n ame
7 5
Ġno tation
Ġfam ily
Ġad dition
L emma
Ġcont ro
Ġ 8
o ted
t or
C C
Ġ energy
. $$
o b
clu sion
: =\
Th us
po int
_ -
\ '
en ces
Ġ1 0
k z
Ġtru e
}} ,
ĠM oreover
Ġcur ve
v ol
Ġsymme tric
Ġinte gra
S p
ĠA l
Ġfact or
Ġeigen valu
Ġcon clude
ve e
3 0
Ġassump tion
Pro of
Ġin cre
o perator
k ip
Ġs ize
\ "
lic it
ter n
Ġbe ing
display style
Ġe ither
}} (\
] $.
R R
Ġprove d
si an
Ġpre vious
re g
Ġwh at
Ġstud y
ĠH owever
io ta
Ġro ot
t ra
c le
math sf
w ard
tar y
Ġrela tion
Ġnumber s
i od
lo b
Ġin variant
I I
ys is
Ġc ent
du ci
Ġsatisf ying
b in
ffici ents
Ġanal y
ti kz
al le
c la
Ġ 7
( (
as ing
Ġs tep
ĠL ie
o id
ly ing
Ġco mbin
Ġi r
Ġtri vial
st ract
a ti
Ġinter val
Ġal low
Ġcalc ula
Ġpo wer
k et
Ġma trices
s tic
m en
le ction
ec ess
Ġlow er
Ġsh ould
m ore
ig in
f oot
}^ *
& =\
v space
Ġ very
) --
Ġj ust
ĉĉ ĉĉ
Ġargu ment
' )
th es
P P
Ġn et
olog ical
Ġqu estion
t ur
o ther
Ġc lear
ta tive
lic ation
u ra
Ġ /
Ġwh ile
) },
Ġthe refore
Ġcontro l
l in
foot note
t frac
Ġe v
,\ \
Ġman ifold
empty set
Ġran k
Ġun it
Ġc he
Ġw a
Ġidenti ty
Ġne ighb
Ġerr or
Ġsurf ace
duci ble
Ġf unctor
Ġed ges
Ġdiffere ntial
modu le
^* \
' }
' t
d iff
] $,
Ġser ies
if ied
tr m
Ġset ting
Ġu pper
Ġsen se
Ġw or
um n
Ġinde x
Ġcoe fficients
o ds
Ġthe m
Ġc h
si c
inc ip
Ġden otes
Ġra te
b ol
tex trm
it er
su re
$ };
re l
nt um
{ {\
Ġcirc le
f ore
Ġem bed
Ġcor re
^* $
Ġcon ne
D E
b matrix
| ^{
du ces
Ġidenti f
= -
Ġn ext
00 0
Ġexp on
Ġsatisf y
\ }\
Ġoptim al
Ġb ased
Ġa c
S uppose
Ġal ong
. ~
Ġt or
pic ture
f unction
Ġspec ial
co mmand
de t
Ġpro jection
Ġexpres sion
ex ample
stra int
j u
b l
9 0
Ġas ympto
Ġen ough
Ġstr ong
center ing
Ġcho ice
int er
pp ing
Ġexp licit
Ġn ecess
Ġre a
}{ (
Ġsyste ms
Ġarbitra ry
d iv
Ġbund le
Ġpar ti
}$ $
ow n
Ġexist ence
r on
w t
Ġpro po
an ish
Ġde ta
es e
Ġcompon ent
Ġco de
Ġe mp
( {\
Ġb i
app ro
$ ).
me d
Ġor igin
m it
Ġit er
or ding
{ }
n ts
Ġche ck
Ġp r
Ġf urther
as y
tical ly
Ġder ive
per p
Ġdis tance
long rightarrow
ru le
me ds
Ġin sta
er tain
ĠĠĠĠĠĠĠĠ ĠĠĠ
Ġn umer
{ $
A l
meds kip
tab ular
^* (
new command
Ġrep la
}} _{
bin om
Ġconstru ct
Ġy ields
ro ss
Ġpre cise
Ġcho ose
re ducible
ĠS uppose
Ġr ing
[ -
ro p
scal e
+ (
c ing
Ġanal ysis
Ġqua nti
Ġima ge
on ical
ot op
m es
4 5
0 5
) })
il s
Ġ{ $
3 2
\< ^
con t
Ġth ose
ĠFig ure
Ġnet work
H om
) }}
or der
Ġcla im
Ġparameter s
} )$,
ens or
9 9
Ġclassi cal
ent ly
tiv ity
Ġor th
bol ic
.. .,
Ġwith out
H ence
ot ential
c r
er nel
Ġsi mp
Ġide al
Ġd x
Ġmax imal
g ener
ject ure
\ }$,
}\ |
l er
Ġd ynam
Ġcontra dic
Ġf e
s en
be q
me di
3 3
Ġsub s
th or
A n
Ġdia gram
si ve
ad y
Ġc a
The refore
Ġ$ |\
Ġa gain
$ :
4 0
Ġ quad
it ten
an ce
Ġ *
ge ther
Ġle vel
Ġgraph s
mo gen
b lack
Ġh old
ĠN ow
Ġcompon ents
bra ce
nd eed
) ^\
Ġsu r
Ġrela tions
less sim
ĠM a
Ġstate ment
Ġequival ence
wa ys
Ġ$ -
da g
Ġrequ i
Ġsche me
Ġpres ent
Ġd ual
Ġmin imal
t ran
operator name
Ġin duced
mu lt
cor ollary
tab l
Ġe asi
0 1
se ts
ta nt
Ġk ernel
Ġv ia
] }
u ally
Ġm orphism
}} ^{
in de
o ti
Ġf low
th en
Ġsing ular
er g
Ġd ue
o is
m od
Ġcompu te
ĠThe re
lob al
Ġe asy
ma tic
Ġext end
Ġcompu tation
co mple
ab stract
if ic
\| _
Ġdecomp osition
Ga us
Ġchan nel
al f
Ġ\ |\
Ġproble ms
medi ate
Ġe ff
qu en
E q
Ġre call
3 5
Ġalgebra ic
sim eq
Ġpro ce
Ġin formation
Ġ[ \
Ġdire ction
} /
c at
Ġden sity
Ġv iew
side red
Ġcon straint
Ġpr incip
p l
ĠE q
Ġ$ $\
6 0
Ġma ke
Ġf ib
il b
Ġse para
Ġlocal ly
Ġimp or
Ġdiv is
Ġvector s
tric t
Ġc ould
ĠC orollary
Ġc ertain
sla nt
Ġexact ly
Ġal ways
urther more
hi ft
ere nce
Ġin dic
Ġa ff
Ġes tabl
Ġanal og
Ġsu per
}) =
c ou
Ġmeth ods
Ġrela tive
Ġwe re
Ġinte rest
Ġco ver
Ġwe ight
Ġir reducible
Ġo dd
Ġqua ntum
ti f
Ġb lock
Ġsu ppose
ĉĉ ĉ
Ġte ch
a ction
de fin
bel ian
al g
H ere
Ġclass es
Ġs equ
mogen e
Ġpolynomial s
du al
Ġf a
S o
\! \!
c lo
c d
] (
Ġver sion
c ity
Ġden oted
ome try
an sion
a f
Ġbound s
Ġcon sidered
Ġdis crete
=\ {
Ġsing le
Ġlo g
i or
Ġs trict
Ġ( $
Ġal most
Ġsta tes
norm al
Ġf ound
Ġt ur
ar t
Ġcou n
ĠĠĠĠ Ċ
ĠL e
Ġo per
text width
Ġ$ .
scri pt
z ation
Ġestima tes
ju ga
Pro position
Ġalgebra s
Ġis omorphic
Ġrela ted
ĠA n
. ~\
ĠĠ ĠĊ
b x
ri tical
ar p
ĠĠĠĠĠĠĠĠĠĠĠĠĠĠĠĠ ĠĠĠĠĠĠĠĠĠĠĠĠĠĠĠĠ
asi c
Ġmodel s
su mp
l p
Ġv al
Ġra di
ti ll
}} _
M a
Ġper iod
Ġa fter
5 0
Ġt ensor
Ġp otential
S S
2 7
tit le
Ġpar tial
T A
le v
tri vial
F rom
} '
Ġp rime
Ġto tal
Ġcan onical
) (\
big cup
Ġapp ear
i mum
Ġ$\ {\
}{ |
p tion
ri er
ĠĠĠĠĠĠĠĠ Ġ
Ġapproxima tion
Ġre s
Ġqua si
) >
re es
)} _{
sta nd
ate s
Ġcan not
res s
)-- (
Ġ row
G L
cha n
Ġv anish
b i
.. .
if y
or ted
c ref
Ġchan ge
^{ (\
ĠE x
^{ *
Ġan s
Ġ1 2
d y
ĠC o
Ġst u
si ble
Ġintro duce
Ġm om
po thes
Ġasympto tic
| _
ie mann
p ri
Ġbe ha
Ġsh all
sla sh
Ġbe long
Ġu su
,\ ,\
Ġm od
Ġinter section
Ġ 9
Ġdescri bed
Ġgener ator
mogene ous
et y
ar ch
ment al
sp ec
Ġcoordinate s
}) }
Ġ$ ,
Ġrep res
lo cal
ste ad
it z
Ġf rame
er n
Ġcontain ed
r ing
om in
Ġ\ [
Ġequ ality
xi mum
s a
Ġc all
Ġcharacter istic
end ix
&= &
Ġparti tion
Ġp resen
mu lti
Ġto gether
re at
ma ke
Ġimpor tant
) }_
Ġwe igh
Ġdia g
Ġeasi ly
if olds
Ġexample s
hom ology
ri es
Ġcha in
Ġs he
Ġreg ion
ilb ert
Ġte st
Ġra tional
def n
\ }.
ĠB ut
Ġf ields
ma t
\ )
ri d
tikz picture
c f
Ġs te
I nt
oti ent
ho od
Ġcur ves
i ver
il ton
og onal
Ġconne ction
\| ^
Con sider
su ch
Ġuniform ly
} |\
v a
g g
Ġi m
L e
velo p
und a
in ary
e y
Ġpol y
Ġf our
as on
Ġ ^{
Ġ Gaus
var theta
Ġs till
Ġref er
Ġge ometric
li ed
ch o
Ġs to
\[ \
Ġo cc
| _{\
2 8
Ġmin im
( -\
di ent
ra tic
Ġex ce
Ġtak ing
Ġobser v
Ġo ri
U sing
otop y
ne gative
Ġs quare
k es
O n
Ġf ull
ll ip
Ġsufficient ly
k ov
m f
re p
no tag
Ġb ack
se ct
appro x
M oreover
in es
Ġh ol
Ġin verse
mult line
} &
} [\
ch ie
as s
cl ic
Ġrepla ce
Z Z
Ġ\ !
Ġab s
{ |
Ġori en
Ġpres er
Ġan other
ra ble
ar is
Ġintro duced
Ġcon ven
unda mental
B bb
Ġ\ (\
T here
in te
/ (
vers al
alle l
Ġnumer ical
Ġembed ding
Ġsub space
Ġfor ms
imilar ly
ĠH ere
Ġsta ble
ĠL a
b a
3 4
Ġneighb or
s g
Ġexp ansion
( [
)} (\
p ol
v ature
Ġpropo sed
Ġstu di
back slash
Ġin f
x x
Ġin vol
Ġb ase
Ġma ximum
F ig
Ġdiag onal
Ġ times
ga ther
r d
Ġconver ges
circ le
Ġa chie
Ġse m
) }.
am ilton
ĠO n
Ġdescri be
> \
k now
Ġsp lit
Ġcorresp ond
\| _{\
re nt
Ġim mediate
Ġlat tice
Ġsimp ly
ha n
ess ential
g et
par t
uation s
Ġc u
_{ [
che ck
g l
pa ge
Ġad d
S E
\ ;
Ġ ,\
Ġre ason
in variant
n a
Ġsupp ort
p df
Ġwor ds
Ġgeneral ized
Ġa ver
Ġfinite ly
f ree
Ġeigenvalu es
Ġma t
ĠA pp
Ġsa mple
Ġtop ology
com es
}} .
Ġf il
igh tarrow
Ġprecise ly
Ġper mu
c A
Ġwr itten
Ġinsta nce
Ġderiv ative
2 6
re ady
Ġn ame
Ġs ymbol
Ġb all
Ġpro jective
w r
Ġhy pothes
in ed
)$ $
Ġcon juga
{ $\
Ġp ha
Ġt ree
Ġcons equence
R ightarrow
en tion
} }$.
al e
c C
Ġcho sen
Ġtop ological
o si
not in
ula ri
Ġ }{
ut ing
te ly
Ġbeha vi
)= (
Ġinteger s
z ed
Ġcontradic tion
Ġ$\ |
ble m
Ġdetermin ed
ĠR iemann
iz ing
Ġl ink
Ġde si
' _{
ou ble
tin ct
Ġspect ral
ad d
ten ded
Ġclo se
) |\
stru ct
tit u
dag ger
i er
F inally
Ġdiffere nce
L L
se lf
9 5
Ġs ha
9 8
] {\
] ^
Ġconsta nts
cu ment
Ġlo ss
i k
ii i
ĠL i
Ġt w
Ġrestric tion
, ...,
Ġ ^
Ġg lobal
X i
Ġse lf
E N
Ġal ready
Ġre duced
Ġobser ve
e ma
Ġocc ur
Ġpla ne
ic ity
}) ^
| =
cha stic
] .
Ġlo ok
con d
Ġcorrespon ds
ĠI ndeed
Ġne gative
| $
Ġqu otient
Ġassump tions
Ġc ell
Ġ â
Ġbe fore
c an
ch ing
Ġaff ine
ca te
e v
stack rel
Ġdepend s
\ }_{
Ġde velop
- (
do cument
ode sic
is ion
om orphisms
Ġin duction
0 2
ce il
p le
Ġco mm
Ġtri angle
S ection
Ġexpon ential
ĉĉ Ċ
n ces
sump tion
Ġw ant
c tic
ver al
ide s
Ġuni on
Ġle ss
ian t
Ġse mi
Ġsatisf ied
ĠF rom
ĠS ch
se ud
ĠH ilbert
rop y
Ġc ar
}} ^
know n
Ġsu ffic
{ {
Ġcur vature
p es
le ct
sub subsection
n n
y mple
pa th
Ġe llip
}\ ,\
Ġau tom
| }
ĠAs sume
\ },
1 00
Ġsol ve
Ġhigh er
is hed
pre c
As sume
Ġsupp orted
;\ ;\
Ġquad ratic
Ġans wer
Ġorth ogonal
Ġdis tinct
3 6
Ġf re
Ġ\ }
c s
Ġrequ ire
Ġf undamental
c ri
de l
Ġin clude
Ġ essential
Ġmin imum
Ġse en
Ġobject s
e f
Ġ&= &
Ġla w
8 0
Ġtrans form
). $$
Ġsequ ences
Ġc ritical
) _{\
lf loor
Ġmultip lic
Ġse veral
st r
valu ed
su pp
Ġde duce
rf loor
F F
lo c
ng ent
ti ble
amilton ian
var rho
Ġacc ording
varian ce
g o
Ġco homology
f rom
Ġfunction al
defin ed
Re call
S L
g r
Ġanaly tic
Ġmu ch
Ġma pping
Ġnecess ary
9 6
| |
v dots
ĠGaus sian
G iven
Ġdesi red
Ġre mark
{ (\
ni ver
forma nce
ĠU sing
ty pe
r um
he ther
ĠDe finition
Ġin stead
M P
Ġa belian
ĠN o
Ġpair s
S et
ha nd
A pp
h box
ĠCon sider
fig ura
N N
N o
or i
Ġb asic
Ġin ner
Ġbe comes
Ġdis joint
Ġtrans formation
ca se
ĠTh ese
Ġm ention
Ġno tion
Ġcon jecture
ou rier
Ġpha se
ro duction
Ġco inc
di ag
Ġ\ {\
ĠM ar
Ġad j
0 4
A B
) !
Ġapp lied
Ġl ines
m its
Ġdimension al
Ġdeta ils
ou nt
ir d
Ġmeasu res
) }$.
Ġstar t
$ ),
c M
c tive
Ġpa ra
Ġscal ar
ex ists
Ġpro position
t wo
in s
li ke
la ted
Ġin ver
Ġ& &
re al
leq slant
' $.
s ymme
: }
Ġmom ent
Ġd one
Ġe val
Ġsymme try
Ġstrict ly
- $
ymple ctic
H H
Ġincre asing
lic ations
F irst
Ġlat ter
rac tion
Ġstudi ed
Ġ long
I N
ul er
Ġrequi red
Ġs it
cate gor
b il
Ġvari ety
Ġsuffic es
m y
Ġw idth
Ġremain s
Ġ ~
olu me
f ect
Ġ _{\
Ġmodu le
Ġp hy
ch itz
m odel
our ce
Ġcontain ing
Ġunder stand
sub stack
Ġ$ {
Ġestabl ish
pp ed
O m
): =\
Ġw hether
Ġwa ve
Ġho mogeneous
da te
Ġhe lp
ps chitz
Ġcomm on
mu l
Ġrepresen tations
ran ge
Ġ ]
b re
Ġm y
ul t
} }$,
k ing
) )$.
3 1
Ġob vious
ĠN e
w ar
for ward
Ġorigin al
Ġcy cle
M M
= {
sh arp
Ġ2 0
Ġcons ists
equ ently
O ne
inde x
9 7
rac ket
u sion
ĠRe mark
on s
^* _
Ġgo od
Ġapply ing
Ġcol lection
il d
cre asing
Ġhom omorphism
Ġallow s
sub figure
th ing
}) ^{
q ed
Ġtech ni
i tions
Ġhol omorphic
= (\
Ġ math
Ġge odesic
00 00
stru ction
Ġs l
h ol
cont inu
ĠO ne
on t
Ġmultip le
Ġusu al
a v
c F
_{ -\
) |^
4 8
Ġimp ro
Ġne ar
iz es
Ġg a
Ġre co
ran g
ar mon
i mpl
Ġdiscus sion
] =
ic es
al ities
Ġnode s
Ġcomp are
Ġconstru cted
Ġi ll
Ġsub sets
T r
Ġex tended
ĠW hen
l b
S ch
d own
0 3
De finition
Ġexp la
in v
ran k
T E
Ġha ving
Ġin clusion
* \
Ġper formance
Ġuse ful
modu les
Ġsu mma
Ġdirect ly
Ġma ss
ĠF urthermore
Ġform al
Ġco st
5 5
Ġre cur
ati ves
ois son
ĠH amiltonian
Ġpar ts
ĠF irst
M R
Ġderive d
ix ed
L i
Ġcent ral
a a
c O
th is
Ġhom otopy
0 6
Ġc ross
Ġeigenvalu e
Ġcoe fficient
! \
u stra
Ġclassi f
c er
Ġcon text
. )
}) =\
Ġneighbor hood
Ġ{ $\
Ġaddition al
b old
au thor
Ġprovide d
tur b
under set
Ġoptim ization
Ġstra te
Ġc l
0 7
Ġinter pre
en ote
un i
& &\
h t
Ġpresen ted
da p
b its
th ick
end s
Ġproce du
Ġ ;
sta ble
re en
Ġcon figura
over set
Ġsto chastic
S O
Ġgra dient
big oplus
Ġdynam ics
Ġ label
Ġcommu tative
] ^{
Ġstra ight
Ġin ves
e eq
cc cc
}) _{
ĠH a
Ġg row
}. $$
Ġcorre ct
Ġ\ ,\
c H
con dition
Ġhyper bolic
cou n
per im
ĠU niver
Ġ$ [\
b r
bound ed
\ }}
' )$
or iz
Ġsp here
Ġ{ };
ta te
Ġa round
N ext
Ġact s
Ġstruct ures
Ġaver age
d r
u ch
ĠF inally
gorith ms
seud o
Ġellip tic
Ġlea ds
t w
Ġdiffere nti
^{ +
Ġor bit
Ġhypothes is
Ġsu i
Ġ begin
Ġad mits
sp aces
c S
0 8
Ġother wise
b d
6 5
S T
) [
Ġden se
ti ga
ak ing
form al
Ġon to
Ġhow ever
hi le
Ġy our
ĠG iven
w ay
_{ {\
the re
Ġide a
f act
A L
m ine
Ġth ink
tan gle
th ough
Ġre ce
ot ent
Ġcon tribu
Ġman ifolds
Ġan gle
reg ular
Ġnon linear
Ġre cent
f r
Ġcon e
}} ^{\
Ġabs olu
Ġsp an
Ġent ries
Ġd ouble
te in
Ġge ometry
b ly
c L
Ġf lat
W hen
3 8
Ġg en
Ġin duces
ener ate
Ġspect rum
Ġinterest ing
Ġb ran
ĠĠĠĠĠĠĠĠ ĠĠĠĠĠĠĠ
O ur
Ġa g
3 7
. \\
k a
Ġal tern
Ġradi us
op en
Ġh alf
A A
Ġname ly
Ġsi mula
spec ial
o sing
Ġli ft
Ġcompu ted
Ġgener ic
Ġd t
Ġno ise
ges t
\! \
tion ary
s ol
if ication
te red
Ġcol umn
Ġf o
armon ic
u cl
Ġimp ly
Ġde sign
Ġroot s
man ifold
fin ity
xy matrix
l m
aris on
Int roduction
z z
): =
a x
small skip
y er
_{ +
' $,
ar ily
-- --
gener al
}} )
com mu
M S
Ġsa id
ar iant
B C
Ġperiod ic
Ġfact ors
Ġdepend ing
is ting
qu es
Ġtur n
Ġran ge
I m
Ġ\| _{
4 4
H owever
Ġta ngent
Ġste ps
Ġdefin es
k k
) }$,
Ġe t
) )=
red ic
Ġb o
Ġsh ort
Ġill ustra
h bar
cla ss
Ġval id
) }^
mis sible
Ġpo sition
a co
f i
Ġth ird
Ġvari ation
Ġ ?
W ith
o graph
forma tions
or th
ĠF ourier
ua ran
l ength
Ġs ymplectic
che d
Ġ rule
Ġmon ot
tran s
Ġb u
men tary
} >
uaran te
ĠC h
is ted
s quare
de red
+ |
B B
Ġuni versal
] _{
8 5
tin y
Ġwith in
sum ing
min i
$. }
oriz on
$ (\
s l
ĠL ag
Ġprovide s
Big l
Ġrepres ent
b ser
2 9
Ġpro ves
O O
ic ial
Ġlar ger
Ġit self
ab ility
Ġdefin itions
}$ }
Ġargu ments
, $$
Ġprocedu re
y l
Ġb ij
Ġd u
su rf
ĠC ar
text up
Ġdescri ption
ten s
A T
pla ce
Ġresul ting
$ '
Ġeff ect
Th m
Ġapp lication
Big r
for ms
si cal
ore l
Ġconstraint s
( |
Ġre duction
, .
Ġv olume
s es
S U
Ġas ser
g n
matic s
c les
lear ly
Ġinequ alities
P r
Ġal gorithms
). $
b ib
Ġcomp osition
a h
ĠMa the
Ġinves tiga
6 4
i la
), (
^* (\
res sion
iz er
t u
tri angle
] ^{\
Ġau to
Ġg reat
ig roup
Ġgenerator s
Ġdiff ic
= .
make title
Ġcon f
dis t
bl ue
l ies
Ġpath s
' (\
' m
}} }\
Ġsmall er
Ġderiv atives
Ġmultip lication
Ġcomplex ity
Ġdeter mine
i ma
^{ [
tex ts
yste m
Ġbehavi or
Ġstrong ly
our se
Ġsta bility
cho ose
con ver
Ġfib er
st er
A d
Ġ @
int ro
A ut
Ġapp lications
Ġvari ous
Ġth ough
is ed
ĠAl so
ti s
ce ll
s ince
line width
Ġsui table
C P
&= &\
v olution
Ġt r
i me
Ġcur rent
)} =
) <
Ġg uarante
Ġre c
}} =
it ing
h fill
Ġin jective
in ing
}( -
par ti
il i
ch y
] _
an ach
ous ly
Ġprincip le
Ġsurf aces
ucl ide
v iew
quen ess
c D
ĠW ith
pri ate
uclide an
Ġsu re
p f
Ġtak es
v v
Ġev ent
Ġimmediate ly
led ge
j k
Ġtra ce
C D
Ġsu g
\ /
Ġre si
c E
Ġ1 6
o ve
en cy
Ġm ight
Ġra ther
clu ding
Ġr un
Ġcy clic
Ġdistribu tions
Ġn or
pha n
Ġtak en
Ġp lan
Ġbelong s
Ġgra ded
ula tion
_{ |
th ors
b erg
Co mp
rang ian
Ġla ter
Ġp ut
Ġnon zero
_{ (\
A R
ĠP oisson
mul tic
comple x
tic le
i ds
un c
Ġexp ected
Ġma rk
co ordinate
b ot
Ġrea der
, (
Ġsit uation
EE E
Ġinter sect
pro duct
Ġvar ian
Ġc ard
au chy
l ot
T T
ran t
Ġd own
Ġnecess arily
le f
;\ ;
Ġin put
phan tom
^{ *}
Ġma de
Ġp at
x rightarrow
Ġframe work
Ġstar ting
Ġdivis or
Ġof f
Ġk ey
ĠMar kov
Ġin finity
* *
' }\
P S
pa city
big skip
for med
Ġmodu les
Ġgener ating
au to
Ġele ct
ar g
Ġgener ality
9 4
Ġact ually
Ġex perim
er m
ĠRe call
d z
ĠUniver sity
f g
var i
Ġc ourse
Ġwork s
Ġinde ed
con vex
6 6
ol umn
C M
or ies
au se
Ġp ur
B e
b v
ĠE uler
Ġf ace
of f
ĠO ur
ite d
C H
b c
}. $
Ġf ar
Ġtri ang
c ome
Big g
Ġent ropy
Ġle ar
ĠS ub
Ġsection s
e ded
Ġappro priate
Ġma kes
Ġf ul
mini page
Sp ec
la m
display math
Ġprocess es
sta te
o du
Ġconven i
Ġa ble
da sh
v an
symme tric
Ġre mo
L S
o sed
C h
Ġclo sure
equ ival
Ġsp in
ĠTh at
}} ,\
' =
l ie
ollow ing
b en
Ġassume d
Ġr ig
}} _{\
comp act
g s
impl ies
Ġ( $\
Ġproof s
categor y
Ġau thors
s is
il ib
p ter
C T
cc ording
ĠEx ample
ĠM ore
b p
c P
Ġp ure
Ġemp ty
s equently
ce pt
Ġper turb
Ġcl ust
se l
Ġ\ }$
Ġtor us
){ $
me asu
b t
' ,\
algebra s
I d
Ġd s
Ġs c
Ġty pes
multic olumn
Ġpla ce
f a
ilib ri
Ġregular ity
u de
l or
Ġre wr
D D
Ġsign al
Ġl iter
Ġcomplete ly
re n
Ġp redic
TA C
Ġhom ology
ti o
Ġau thor
cy cle
Ġd on
we ak
Ġcol or
0 9
Ġpar allel
osi te
Ġweigh ts
ĠĠĠĠĠĠĠĠ ĠĠ
Ġd raw
v p
Ġdimension s
Ġstraight forward
cite p
bser ve
Ġl ies
' )\
Ġproduct s
f il
Ġde ca
Ġcomp ati
si tions
C S
~ (\
g f
ĠLi pschitz
Ġprincip al
function s
Ġpermu tation
orm al
sk i
Ġexplicit ly
Ġ '
Ġdiscus sed
C ref
= -\
Ġuni tary
Ġstrate gy
Ġ velo
H S
Ġ ti
) ).
Ġta ble
Ġs hift
ph er
sub sec
varian ts
Ġcontinu ity
@ {
Ġi mple
Ġd y
Ġsimilar ly
Ġgeneral ization
Ġcon clusion
Ġas sign
)\ |_{
Ġclear ly
Ġwhen ever
Ġmo tion
R S
Ġam ong
S ub
Ġmention ed
Ġspec ific
s m
8 8
Ġv is
}\ }$
E nd
w or
}) (
Ġcent er
) ),
H EN
ser v
M A
Ġfo cus
s tep
6 7
Ġmeasu rable
Ġcategor ies
Ġ$\ |\
Ġrepresen ted
ab ove
re sul
Ġh orizon
Ġfre quen
Ġconsider ing
in ner
Ġp seudo
Ġne eded
Ġse g
ho ok
Ġsche mes
Ġs ource
Ġg au
m n
id ing
s mooth
f ield
Ġinver tible
la nd
}( {\
Ġproce ed
ter s
text tt
Ġautom orphism
ĠPro of
clo se
li er
it ude
$ {\
}^ +
Ġ }$
Ġm ode
con v
Ġwh y
ve ct
q q
Ġintegra tion
Ġ ..
] )
du ctive
point s
la tions
xi om
ar ith
4 7
Ġbet ter
i ble
is ing
p res
}\ |\
ĠB orel
Ġof ten
Ġcommu n
D P
t le
Ġweak ly
ie ties
Ġm orphisms
k l
Ġor d
Ġsol ving
G r
es tima
Pro p
} <
ĠY ou
be low
sc he
C orollary
Ġscal e
Ġver ify
al k
Ġinter f
ĠB anach
du cing
B ut
De f
diff ere
Ġd omin
Ġf lu
pm od
Ġfin al
pla ne
Ġdiscus s
)\ ,\
G G
' }$
Ġp rac
Ġsu c
i mp
I EEE
Ġliter ature
Ex t
Ġa dap
Ġpa rame
B ox
Ġc r
Ġcard in
R es
t x
\ %
Ġremain ing
al gorithm
l ing
Ġl ist
* }\
Ġobserv ation
Ġinter ior
te mp
_{\ {
c B
20 17
er mi
Ġdefin ing
c ial
ĠC auchy
ti an
gra ms
Ġon es
ke y
ar ies
Ġiter ation
Ġsee ms
Ġbe st
Ġunder lying
) )$,
Ġd iver
Ġele mentary
row n
Ġth ick
v able
ting u
Ġtran sp
Ġrequi res
con nected
Ġ ^{\
] [
9 3
Ġ }{\
8 7
Ġar c
ha s
Ġapproxima te
Ġter min
20 18
o o
Ġin side
S u
Ġformula s
c G
op t
ĠRiemann ian
Ġper fect
^ *}
Ġsur jective
ĠS imilarly
ĠS et
Ġsta ted
Ġho me
Ġk not
b ased
ta ge
}) -
20 19
Ġf i
Ġgen us
cal led
Ġgau ge
p ec
Ġte mp
co ding
4 2
alle st
$ &
$ }}
pa nd
di tive
k i
pro per
tri ang
20 16
ad ic
tri es
ĠLag rangian
Ġdistribu ted
a ves
struct ure
v skip
},\ \
Ġmo tiv
Ġare a
( (\
Ġside s
ĠDe fine
Ġf ig
be t
}\ |_{
Ġad joint
ow er
m er
ĠG al
Ġtran sition
Ġsta tionary
Ġre con
S I
rep resen
var pi
the o
$- -
Ġtrans mit
Ġ )$
lev ant
F ix
ec ause
S imilarly
Ġde c
_{ {
ps line
u mp
& -
Ġsl ight
Ġan ti
Ġde al
mis sion
L ie
Ġexpres sed
Ġw ord
Ġlo op
ĠE uclidean
Ġrep e
Ġsem igroup
( {
Ġformula tion
Ġshe af
Ġcode s
L o
ar ge
is ation
op tim
ograph y
Ġsubgroup s
ist ent
Ġs m
Ġt ry
Ġse p
Ġto o
Ġequal s
Ġidentif y
Ġh is
pro blem
Ġvelo city
Ġha pp
k in
] }\
Ġoper ation
ad joint
Ġus es
} &\
Ġro le
s ch
gra d
4 3
si mple
sa tisf
si mp
Ġphy sical
ĠApp endix
Ġdis cre
7 0
V ar
script style
}= (
ĠT able
Ġbund les
C A
Ġmon oid
Ġequ ilibri
)} ,\
20 14
Q Q
ĠI s
S P
di am
ĠR es
Ġexp ec
e ff
^+ $
}) )
Ġweigh ted
Ġsign ific
F urthermore
pro j
Ġb inary
footnote size
}} =\
ur ing
p or
Ġestima tion
Ġcomple tes
di re
le y
Ġref erence
Ġtra ject
{ .
Ġ1 1
d om
Ġcalcula te
M od
tar get
ste in
ĠAl gorithm
od y
w ers
Ġcr iter
Ġdiff e
Ġconfigura tion
Ġc ut
continu ous
] \\
Ġad missible
Ġuni queness
n ed
. \]
pro b
M O
Ġen ti
| }{
a ra
) /\
, {\
ĠT HEN
} ]\
Ġ }}
Ġessential ly
bib li
Ġconver g
sp ect
Ex ample
ta ct
hi p
Ġpur po
Ġsm allest
Ġsub section
co de
Ġno tice
Ġeval ua
Ġsug ges
script size
L ong
Ġintegral s
20 15
Ġp ull
e le
Ġexce pt
X X
s hift
war ds
res h
m ic
s co
Ġ1 5
Ġfe w
Ġa x
Ġf rac
hy per
hook rightarrow
Ġre se
U psilon
ir ich
S i
res ted
b ut
Ġappear s
big cap
Ġhe ight
Ġgener ally
Ġ\ )
)} =\
20 13
Ġcover ing
C F
] ;
Ġ$ -\
p d
Ġreplace d
Ġ1 3
down arrow
Ġpro ving
irich let
R I
Ġobser ved
va ila
tens or
Ġmax im
Ġp lot
c X
v x
ulari ties
Ġcombin ator
b ase
Ġcalcula tion
Ġacc ount
u u
mi tive
Ġanalog ous
ri ly
Ġvarian ce
ĠC la
Ġexp lo
Ġcombin ation
4 9
Ġis o
Ġev olution
here nt
s ha
Th ese
Ġvanish es
cent ra
Ġmodu li
B S
Ġbij ection
n um
ĠP o
pl ing
ce p
) _\
f l
a cent
pol y
Ġlinear ly
Ġf ast
Ġcoun table
Ġrestric ted
Ġmath ema
i us
op f
bibli ography
Ġon ce
an al
Ġindic es
U n
C ha
ed u
ĠĠĠĠĠĠĠĠ ĠĠĠĠĠ
De fine
Ġacc u
ĠCo mp
}. \
Ġcons isting
er ing
Ġver tical
20 10
um ns
C ase
} /\
wh en
Ġinte rested
ermi tian
th an
f lat
eq q
S h
Ġor dered
Ġnetwork s
Ġs qua
] ]
Ġequ i
un iform
Ġrepres ents
an y
}) }\
t rac
deg enerate
wor ds
g ne
$\ \
9 2
Ġthe ore
t ors
s ym
Ġe ar
Ġmon omial
pa rameter
ist ence
il ies
se p
Ġm is
Ġtechni ques
b R
mpl ing
] _{\
ore d
su beq
' }(
ra tional
ver tex
â Ģ
ne g
f irst
Ġeff ective
} ~
I nd
chan ge
4 6
lim in
Ġenti re
e g
Ġpartic le
Ġcom es
Ġqu ite
il p
Ġy ield
ck now
7 7
l s
ĠĠĠĠĠĠĠĠ ĠĠĠĠ
per iod
Ġtech n
Ġmodu lo
ra ph
4 1
Ġcomp arison
C O
) )^
Ġestabl ished
ar se
Ġmo ve
bra tion
ĠJ aco
> ]
K K
Ġdevelop ed
}, $
ar ing
Ġnon negative
lim sup
c N
N R
Ġo pp
Ġgo al
Ġ[ -
bo lev
}) ^{\
end ing
Ġwho le
h n
vaila ble
r s
under brace
w w
Re mark
Ġconjuga te
Ġdu ality
Ġintegra ble
~~ ~~
Ġscal ing
{ |\
Ġfor ce
ĠMathe matics
is o
us ing
) )}
Ġsta bil
| ^{\
d v
Ġextend s
ide d
mon stra
Ġb low
Ġdis tingu
}: =\
ere nces
Ġsimpl icial
A C
8 6
bre ak
Ġor bits
small matrix
Ġar row
^* ,
sta nt
der iv
ti stic
mbin ing
us h
Ġcoinc ides
D F
}^{ (\
t z
for mula
es h
he ight
r b
Ġgrow th
Ex p
te st
ir t
tra tion
pher ical
Ġidentif ied
Ġk ind
Ġtrans formations
para graph
Ġ )\
ar c
de comp
Ġs par
} ]$
lef tarrow
Ġa v
a ke
L em
Ġunique ly
Ġde te
par allel
L T
}} +
c T
Ġspa tial
Ġinter action
cla im
Ġus er
> >
Ġnatur ally
Ġcol umns
Ġcor ollary
Ġh armonic
),\ \
subeq uations
Ġestima tor
pa ir
Ġsu ms
ĠB e
)$ ;
Ġbran ch
geq slant
Ġabsolu te
)} _{\
i led
Ġsha pe
Ġcon formal
Ġsplit ting
Ġcorrespond ence
al ance
Ġif f
g an
Ġsignific ant
is es
Ġj oint
Ġcomp uting
Ġtor sion
p q
Ġvar ieties
Ġlim its
20 20
low er
Ġe fficient
ĠS ee
S ee
Ġin variants
Ġper form
ur al
h alf
l brace
Ġ1 4
I ndeed
Ġdifferenti able
Ġprobab il
al se
u ter
S ym
a ff
Ġde sc
r ceil
l ceil
+ }
Ġorien ted
Ġrec tangle
}}\ \
Ġshow ed
Ġconver ge
Ġra tio
Ġgreat er
p th
}: \
Ġout put
Ġme chan
be sg
besg ue
sq cup
Ġdeg rees
ve red
Ġhorizon tal
5 6
> \<
po s
}\ ;
lar ge
}} +\
Ġpla y
f p
C or
g round
O P
! }
Ġcomple ment
Ġde creasing
) "
), $
Ġgo ing
Ġde monstra
lan g
ĠH ow
wh ite
}) ^{-
Ġ ru
Ġinter po
c ian
colon eqq
Ġoper ations
h d
Ġcompati ble
ro pic
as so
l vert
Ġinterval s
Ġcomputation al
d or
Ġar ticle
Ġt rac
ization s
ter min
b or
Ġcou nt
Ġto ol
Ġb ig
| }\
po sitive
b und
Ġfin ding
add ress
if ically
Ġnon trivial
gh t
Ġgo es
Ġre levant
Ġsing ularities
ol i
pla cian
F T
cor resp
clo sed
b k
Ġres olution
}$ )
ĠW hat
Ġn ull
Ġrese arch
Ġa vailable
v ity
up le
Ġexpec tation
ĠI I
Ġtur ns
Ġequilibri um
surf ace
Ġh ard
titu te
Ġb ox
left rightarrow
du e
P a
Ġj ump
20 12
7 8
No tice
Ġst re
Ġshow ing
n al
ĠC ase
Ġimpro ve
bu st
H a
ra d
Ġpara bolic
n or
)\ |
b er
f e
Ġfrequen cy
bo ok
Ġimple men
Ġorien tation
}{ {\
Ġa im
Ġ( (
c R
s ystem
) <\
Ġconne ct
Ġextension s
la y
resp ectively
) *
Ġclassif ication
ar io
\, .
ĠEq uation
is m
A P
Ġre duce
nu mber
coun ter
sc il
Ġsp eed
Ġcondition al
Ġro tation
Ġlar gest
N e
u mann
i rac
ĠA nd
un it
ĠD enote
' -
\| _\
n c
A t
new line
Ġfam ilies
di a
)} ]
) &
r times
) ]{
ke w
Ġide als
Ġwa ys
Ġar ri
l ue
Ġadj acent
do main
S t
Ġg rid
Ġfig ure
rm k
ca ted
A nd
Ġcy cles
u v
at ures
Ġsimpl icity
Ġbo ok
Ġd ig
Ġmathema tical
pi es
7 6
Ġblock s
M o
r brace
rac y
id ent
Ġlear ning
Ġ( {\
Ġlo c
con s
} |^
Ġc re
b C
Ġ target
b racket
Ġde v
] }$
r vert
Ġasser tion
_+ $
l ink
Ġembed ded
dor ff
I s
c p
en ario
ĠS ci
Ġl ie
ie ce
$ ?
Ġtri ple
}_{ (
O p
^+ (
Ġca pacity
Ġdiffic ult
lo y
20 11
Ġob jective
sing ular
Ġlea ding
Ġdynam ical
us dorff
Ġin cluding
et s
ut ure
Ġt reat
Ġdetermin ant
Ġaltern ative
Ġde formation
9 1
ter m
Ġtrans mission
^* $.
Ġequi pped
gne tic
Ġad ditive
Ġslight ly
Ġpartic les
olu tions
part ment
|\ ,
b Z
Ġcont rac
Ġ ~\
Ġt rees
Ġvanish ing
p u
l Vert
in eq
con j
N S
Ġnormal ized
Ġdomain s
Ġreg ar
Ġtheorem s
ra m
Ġas suming
im odu
p y
sic s
r g
Ġcombinator ial
str ong
{ [
text normal
Ġd om
Ġequivalent ly
ĠD irichlet
k o
)$ }
Ġout side
8 4
pl ot
Ġsub graph
){ $\
w it
_* \
bigg l
S ec
Ġcompare d
ri ef
Ġb racket
p ical
Ġapproach es
Ġrow s
ĠThe y
math op
ĠAs sumption
l ra
Ġpreser ves
rt ing
ema il
Ġre duces
Ġm esh
Ġp iece
Ġimpl ic
\, ,
comple te
M at
Ġ }(
| -
Ġpa ck
tain ed
Ġexpon ent
_* (
'' (
3 9
re la
Ġmultiplic ity
}) ,\
}_ +
ĠA t
Ġlog arith
Ġdia grams
me an
Ġat ta
cc c
id en
ul us
ic ture
erg od
Ġre tur
Ġcon tact
b lock
bigg r
Ġsubs equence
Ġb ra
Ġpo p
ti ves
Ġfrac tional
Ġpri mitive
D is
Ġmean ing
Ġin div
Ġexpla in
Ġcon centra
Ġsa ys
P o
Ġexpression s
ilp otent
Ġra tes
Ġ\\ [
w ell
c ar
Ġsol ved
Ġdiff usion
Ġcon cept
Ġmodu lar
Ġincre ases
Ġdiscre ti
le cted
bound ary
8 9
Ġsymbol s
Ġb it
Ġquanti ty
Ġdefin ite
Ġp en
Ġdeca y
ee p
E R
Ġa xiom
lang ua
}; \
la g
r n
Ġp as
Ġgener ate
Ġact ing
ub ic
Ġoccur s
Ġfil tration
de scri
M C
ĠLe besgue
Al so
V V
ro ben
Ġno tations
u te
b A
r Vert
su per
id ence
)} }\
Ġj o
Ġfunctor s
Ġchan ges
Ġclust er
Ġs ec
Ġb ot
cy clic
ot ropic
Ġsub ject
5 2
t ot
O R
B F
Ġinfinite ly
ĠH e
roben ius
Ġmetric s
\' {
la p
ll i
M e
Ġl ight
sive ly
Ġindiv i
Ġsub spaces
t ree
rown ian
commu tative
su cc
Ġis su
Ġdis k
G al
Ġo mit
ive d
p ng
Ġcho ices
I S
y pe
^* )
@ {-
Ġd id
tikz cd
au x
Ġzero s
ec k
lin es
Ġeigen vector
ing er
r gin
cite t
ĠS tep
}: =
om en
Ġre d
Ġstate ments
it tle
7 2
Ġv irt
Ġref lection
Ġreg ulari
)$ )
the ory
Ġas k
Ġd ri
)( -
le vel
> \<^
Ġb rief
}} -
Ġful ly
Ġse mis
Ġtrans lation
Ġthan k
verse ly
Ġ{ }
D S
| <
O r
et er
p mb
Ġpro ject
equiv ariant
| $.
Ġd i
}. }
es tions
Ġstr ing
Ġusu ally
L P
Ġsingular ity
Ġtechn ical
tif ication
Ġle ad
)^{ -\
rest ric
Ġneed s
ic y
Ġdire cted
Ġsc enario
is k
ga tion
sf er
make box
Ġcontribu tion
Ġde cre
Ġp ass
ĠNo tice
T M
ha ve
me tic
v s
)) =\
Ġcharacter ization
^* $-
Ġcho osing
on om
Ġb and
Ġax is
g iven
b z
+ |\
in put
g ray
Ġfin ally
}$ ;
Ġrelative ly
Ġ[ [
asi ble
Ġequ iv
Ġdepend ence
ra di
\" {
] ,\
^* _{
v c
equ ality
| ,
Ġr ings
A M
i mple
lic e
s hed
Ġmonot on
), $$
ĠA ll
Ġrewr ite
Ġparti tions
Ġexp ect
Ġcompu tations
Ġasso ci
at er
: :
in i
ĠH opf
Ġex pand
)}\ \
b P
mb f
c K
Ġcriter ion
O f
f old
Ġg u
Ġcoinc ide
han ks
}}{ (
d le
Ġb lack
Ġcomplex es
cri pt
Ġg ap
ter ing
period ic
Ġcommun ication
\\ \
Ġco variance
im its
inte gral
Ġapp lies
be s
B ound
ch or
\ -
ĠC learly
b X
Ġp ref
Ġcou pling
}) +
Ġm ess
5 7
no ther
ma ry
D iff
}} )$
Ġc ru
^* $,
m r
Ġo scil
200 9
d l
Ġbe come
D enote
Ġaction s
Ġre view
Ġmore over
ec tivity
Ġsa mpling
} <\
resh old
j or
P re
}} }{
Ġext ra
on ormal
Ġrepla cing
8 3
Ġsu mmand
Ġ\ :
re nce
d if
Ġsub algebra
prec eq
Ġb re
y y
Ġg round
on ding
co ver
Ġ| |
Ġad mit
) }^{
Ġf ill
Ġad ding
Ġtechni que
= [
I C
ot ing
re t
Ġa way
ĠNe w
Ġf uture
^{- (
def i
en tered
Ġrig id
Ġr ise
Ġaccu racy
Ġp ick
n et
c n
5 3
cor re
x t
Ġsample s
Ġderiv ation
err or
Ġiter ations
ou rho
Ġse arch
ĠC ha
}$ };
lin der
deg ree
Ġparame tri
Ġco me
S tate
Ġpri mes
}\ !
j i
sp here
pend ence
ay lor
su res
fra g
I R
D M
\\ [
Long rightarrow
}^{ +
Ġm ix
Ġpro ven
C al
Ġcon cer
Ġqu estions
optim al
os able
Ġknow ledge
sin h
ĠGal ois
be a
Ġmultiplic ative
ĠWe yl
}}\ ,
Ġseg ment
con stant
Ġmoment um
Ġperturb ation
Ġm ixed
d g
in ted
Ġcons istent
Ġd uring
Ġw alk
/ /
). \
8 2
S tep
for d
Ġk eep
Ġ langua
cha racter
Le ft
ĠE ach
& +
tab ly
Fig ure
Ġcoun ter
si tivity
}- -\
od ge
ĠF ix
D G
f ol
M ore
Ġmonot one
Ġin c
parti te
ĠTheorem s
' +
ng ing
as sumption
Ma in
u pper
ĠSo bolev
)+ (
Ġinvol ving
ho mogeneous
Ġin v
C L
tit uting
man ifolds
Ġus ers
mu lta
Ġrela x
Ġwhere as
5 1
p c
o ch
Ġg ame
ĠD o
ha m
Ġachie ve
tis tical
)- (
e igen
w hat
multa ne
lim inf
le x
Ġmod ified
Ġord inary
ex act
}=\ {
Ġav oid
8 1
5 4
Ġsuc ces
re me
Ġcardin ality
rting ale
Ġpurpo se
Ġcell s
Ġcontra st
ĠU n
Ġbu il
co sh
$\ {
\ },\
7 3
ĉ Ġ
E s
ĠNe umann
Ġcontrol s
A S
ul ti
o ids
Ġsepara ble
a ds
math tt
Ġquanti ties
)}{ (
ĠB rownian
inc ar
C R
Ġin ductive
Ġdeta iled
}) }{
Ġar ith
v ir
valu e
ith ful
}) :
tistic s
I P
Ġ ergod
ĠC al
atur al
T H
}\ ]
se mb
> ,
ot s
Ġis omorphisms
j o
Ġref erences
Ġs pherical
Ġto t
cla ssi
,- .
~ (
Ġerr ors
po sed
multi p
ter ial
in stein
ĠLa placian
e a
math ds
] ^-
Ġintro duction
ĠĠĠĠĠĠĠĠ ĠĠĠĠĠĠ
e ven
dis tribu
Ġma king
ĠHa usdorff
Ġshe aves
Ġpo wers
U N
m om
ch ar
ĠCon sequently
Ġad van
)= -
Ġtheore tical
) ^*
,\ ;
---- ----
r put
Ġpat tern
than ks
conver gence
bund le
II I
fact or
up arrow
me tric
a ma
g end
] =\
ns tein
Ġre ach
mm er
Ġinterpre tation
A N
s ome
Ġta sk
Ġp e
Ġ+ (
ation al
Ġo uter
U nder
" ,
Ġ #
Ġre ally
ho ose
h h
Ġconverg ent
dots c
ra te
ĠB S
ps frag
Ġincre ase
Ġachie ved
C la
s he
Ġlea ves
ĠM e
n m
Ġfact s
Ġco dimension
g cd
(\ {
u c
7 4
Ġrecent ly
O bserve
d dots
Ġexce p
Ġconveni ent
lim it
l se
serv ation
ĠS uch
ssi ble
)$ :
pol ynomial
Ġbi linear
h u
( |\
Ġ Î
ah ler
Ġ ...
Ġhe at
Ġlo cus
text style
Ġmat ching
| ^{-
Ġ$( -
Ġasympto tically
E Q
6 3
ĠD irac
s olution
Ġcru cial
Ġ( .
Ġobserv ations
w ord
b asis
Ġinvestiga te
p lus
g ies
M ar
Ġgiv ing
ten cy
) &=
i y
ere d
mm ing
}} )\
g ru
Ġet c
v ent
g t
da shed
sup set
f ib
o per
o dot
)} +\
Ġorth onormal
g on
e ther
Ġha d
Ġpro por
Ġent ry
ĠR ic
18 0
en ess
{( -
p in
Ġ lon
Ġ{ {\
Ġpro pa
Ġreco ver
Ġregion s
P R
re c
Ġn ilpotent
7 9
Ġsome thing
Ġball s
Ġarbitra rily
Ġu til
u k
i red
ĠP DE
}, $$
var iable
l r
Ġs cat
Ġprojection s
| (
Ġsumma ri
L R
ener al
Ġequiv ariant
Ġres ol
c V
he ad
6 8
'' $
inte gra
Ġun til
Ġun known
u psilon
Ġopp osite
Ġima ges
, ~
200 8
C l
Ġthe sis
Ġexperim ent
c I
Ġpresen tation
le xi
1 20
C at
ge ometric
-- -
)} -
Ġde vi
Ġde f
Ġstr on
Ġsqua res
Ġima gin
g m
er ature
co der
stra ined
umer ical
rac k
Ġm id
Ġdirection s
Ġcorre lation
s d
f low
Ġdetermin istic
Ġ( -\
< -
Ġtot ally
ir ical
Ġtw isted
P ar
Ġsta ck
Ġend ow
> }[
S TA
ra ndom
Ġs kew
qua si
A r
Ġ1 00
Ġidenti ties
pres er
Ġide as
Ġanalog ue
Ġthe ories
Ġdeta il
mula tion
b w
Ġbot tom
Ġte ll
Ġiden tical
ourho od
se cond
Ġorder ing
ker nel
r ite
, +
Ġen sure
h ence
ri ed
w p
ĠPro blem
mathbb m
Ġp hen
Ġru les
u x
Ġt re
$ }\
p lan
6 2
Ġsimula tion
ord an
w hile
g ular
: //
Ġexperim ents
Ġemp loy
p gf
Ġ\ #
S M
sp an
g lobal
Ġun bounded
b ing
o ps
be cause
Ġcommu ta
Ġmat ter
Ġmonoid al
S A
] )$
Ġimplic it
P er
Ġa mpl
Ġv ary
auto ref
' _{\
Ġ< \
se para
Ġconver se
h s
C learly
C E
er re
appro xima
Ġt ends
estima te
ili ary
Ġc ubic
Ġlangua ge
K er
sco pe
O b
tro l
Ġcon gru
other wise
osi tions
Ġview ed
ĠR E
Ġinvol ved
triang leq
Ġdetermin es
ir r
Ġrestric t
ten tion
Ġpair wise
Ġcalcula tions
^ +\
Co mbining
equ ences
b all
Ġcalc ulus
Ġfor ward
B P
Ġfactor ization
v t
Ġ1 9
over rightarrow
Ġpoint wise
Ġc entered
})\ \
represen tation
D I
Ġexpla ined
comp on
C ar
m d
inde pendent
Ġcomp lic
if ies
a cc
B G
` `
ad j
B M
il le
ympto tic
Ġ& =\
h igh
la te
p ower
s eq
Ġphen omen
ther wise
b ro
g re
Ġne ver
un ct
_{ |\
H e
f ont
en berg
measu re
Ġco pies
p led
Ġ eq
Ġco herent
[ {\
Ġsi multane
ima ge
Ġfi bration
text color
diag onal
)} +
* (
Ġma terial
su r
Ġcu sp
f am
Ġcommu tes
Ġplan ar
S tr
Ġnon empty
]{ $
c ritical
_+ (
Ġpri or
Ġfin ish
m al
Ġs lo
le ment
to pe
Ġpartial ly
ma il
ĠAn y
cha in
Ġin tu
al most
Ġs yn
s how
ĠF robenius
Ġabsolu tely
f ull
pa ce
ol der
fill draw
Ġro bust
A ll
B r
Ġprobabil ities
ĠM o
, +\
ĠN ext
Ġth reshold
ĠB ecause
Ġ ray
Ġexcep tional
, -\
Ġtran sfer
)=\ {
\ ).
Ġarith metic
oth ing
Ġf aces
)\ }$
Ġdoes n
h skip
Ġpropo se
new theorem
Ġremain der
Ġear lier
ten ess
'' ,
R a
ĠM or
Ġpermu tations
rough out
^+ _
Ġestima ted
tra ce
A cknow
Ġpro duce
Ġsh arp
Ġnor ms
$. \\
, }
D u
al so
Ġinterpo lation
on ly
200 0
ĠF urther
l en
Ġtran sitive
Ġpossi bly
Ġ\ }$.
Ġbehavi our
Ġget s
an ts
) &\
sche me
Ġb alance
the less
Ġinter nal
lt ra
sto od
)= -\
Ġspar se
Ġti ght
Ġhapp ens
be led
ĉĉ ĉĊ
tern al
hy p
}\ {
ee a
da ta
Ġsure ly
Ġin variance
). \]
Ġla yer
as h
Ġfa ithful
Ġfe asible
}{ $
Ġstron ger
Ġm er
Ġmark ed
. (
at z
Ġpull back
v dash
con st
Ġcan ce
Ġal though
s ig
ll ing
resul t
com ment
Ġb in
gra ded
- |
b n
Ġb lue
def ine
S F
) &=\
ĠT aylor
hed ral
c ross
f ile
pu ts
Ġin volution
n othing
Ġtra ining
B R
ame ly
7 1
model s
ffici ency
Ġmu t
Ġch arge
differe ntial
te sian
Ġsh or
ĠCla im
! ]
z ing
Ġbe lie
Ġâ Ī
6 1
}( [
Ġchannel s
p ts
ĠH ermitian
App lying
b ian
ma tically
' =\
Ġvariation al
5 8
t ract
to kes
su s
Ġcy linder
f s
e ch
cia tive
ĠH odge
Ġag ree
Ġis ometric
Pro b
Ġtor ic
Ġidentif ication
Ġc f
STA TE
Ġor gan
Ġcomplic ated
Ġis ometry
Ġpol icy
E d
Ġ ĉ
Ġs ite
200 7
M y
i da
K L
bb R
texts c
r ig
Ġn ice
in al
b q
[ [
re a
Ġreg ime
Ġmat ch
B A
v u
Ġde pendent
if ted
Ġau x
diam ond
Ġcomple tion
Ġe lse
the ore
box times
Ġ< =
ar i
}\ )
con e
Ġd a
Ġam ount
Ġlook ing
| |\
ĠG e
ĠQ u
s ma
a ges
}$ :
Ġsimpl ify
C G
P ic
B o
r p
Ġext reme
en e
Ġevery where
Ġ\| _
od d
Ġi mmer
\!\! \!\!
)} }{
Ġab stract
Ġ text
Ġpas sing
}) _
= =
}^{ *
Re p
a z
Ġw ide
s equence
Ġautom orphisms
Ġp icture
if ying
Ġf l
A G
ĠĠĠĠĠĠĠĠĠĠĠĠĠĠĠĠ ĠĠĠ
Ġsee m
ca ve
var sigma
Ġthan ks
j j
}} -\
t f
cur ve
200 6
Ġtraject ory
de termin
ial ly
. }\
as ymp
Ġfib ers
ĠA d
}( (
Ġcont raction
Ġ(\ <
c ro
our ces
)= (\
ĠP a
Ġex hi
Ġergod ic
= }
Ġy ear
Ġmom ents
A D
Ġty pical
' ve
)\ )
Q u
ear ch
Ġpres sure
Ġindependent ly
t un
la st
Ġsta tistical
v anish
eed back
n p
}{ |\
Ġf oli
re newcommand
Ġpro gram
Ġpreser ving
dire ct
limin aries
) ^{(
= {\
Ġdiver gence
Ġpres ence
Ġun its
Ġ\ [\
var nothing
Ġma ch
| +
Ġrelations hip
Ġup on
ax is
ce ler
ĠU nder
C ol
Ġpo st
Ġse lection
Ġallow ed
we igh
an chor
Ġinterf erence
Ġeval uation
G e
le an
Ġapproxima tions
h olds
Ġb ases
t p
ĠO bserve
A ccording
corresp onding
Ġphy sics
Ġdiffe omorphism
$ }.
Ġunderstand ing
Ġme mber
y tic
our s
n ol
ĠO r
Ġneighb ourhood
de pendent
pic ally
Ġspec ified
Ġresi due
\ >
= &
Ġ1 8
)) _{
{ -\
group s
descri ption
T hat
Ġiso lated
b H
ĠNew ton
an o
Ġlimit ing
ĠPo incar
Ġs wit
ext ension
_ +\
Ġ- --
vir on
Ġconfigura tions
Ġper formed
Ġconven tion
Ġevalua te
] }(
Ġat tention
Ġme m
n r
Ġ" \<
f ollowing
Ġac ross
Ġlemma s
Ġmo ves
}} |
O I
Ġpo inted
f un
Ġno tions
Ġflu id
p ect
Ġcontradic ts
Ġconveni ence
ĠA ccording
}) }{\
Ġro und
E qu
Ġcalcula ted
Ġdec ision
Ġdiffic ul
Ġhigh est
}{ (\
ĠM on
con ne
An y
lo op
" ;
Ġguarante e
ha ng
Ġtry ing
ot o
Ġmo ving
Ġy et
t d
col umn
equival ent
dis crete
}\ }_{
ĠS pec
Ġend s
Ġanaly ze
Ġd ot
Ġ },
v y
war z
se m
de s
Ġun ity
O F
k y
Left rightarrow
Ġhyper plane
L M
f ication
lo v
E M
Ġconnection s
od rom
resul ts
Ġ /\
Ġfa il
ĠA fter
Ġexpres s
rem al
ng ed
ma nd
ĠB es
ran s
Ġunder stood
, [
lat tice
r is
loc ation
T wo
Ġpiece wise
Ġma gn
Ġdivis ors
c ies
Ġ{ {
Ġcombin ing
Ġ2 00
p en
_* $
l ist
Ġback ground
ry st
in finite
radi us
} '$
Ġappear ing
Ġ\ ,\,
t n
set counter
g ue
a i
Ġto wards
Ġl ittle
n atural
D o
6 9
c Z
}_{ -
ow ski
W hat
Ġthrough out
t b
\ ),
Ġp ush
)} )\
| $,
let on
ion s
ĠC an
Ġga in
Ġma gnetic
Ġlink s
Ġpaper s
app endix
Ġcirc u
Ġpri ori
{ #
e very
df n
Ġu nd
D R
Ġbrief ly
Ġman ner
}) -\
Ġun less
}) +\
Ġhypothes es
}^{ *}
c U
A b
ĠĠĠĠĠĠĠĠ Ċ
Ġb ro
}$ \
Al g
Ġacc ura
S C
Ġ\, .
c line
otop ic
Ġaux iliary
Ġinvol ves
se mi
Ġemp irical
}} }{\
d ynam
ter ior
Ġprac tice
Ġtriangle s
5 9
vious ly
able s
or n
Ġsubs titu
Ġad v
Ġhome omorphism
si mpl
tive ly
ate ly
_* (\
fin al
Ġar cs
Ġb ody
Ġtrivial ly
v b
ĠG ra
}[ (
Ġsimula tions
sg n
Ġillustra te
c ard
Ġb ar
c b
ver gence
Ġat temp
X Y
Ġco py
Ġindivi dual
D ec
Ġwork ing
Ġf raction
we ight
Ġorder s
)} )$
Ġref ine
Ġse lect
hed ron
ĠCon jecture
a fter
res sed
d V
ab ly
Ġcharacter ized
b S
te re
$ ]
Ġco ding
] +
ic ations
stand ard
Ġreal ization
la ri
dia gram
Ġrefer red
P T
sim ilar
ol y
Ġma jor
bibliography style
f n
ens ors
Ġp h
ator s
w n
Ġvalu ed
Ġn ature
er cise
Ġsub category
Ġreg ard
Ġup date
} ~\
)\ ;
re v
at ura
F S
is omorphism
Ġobvious ly
le ase
] &
ĠLa place
f ixed
Ġre ad
uni que
Ġsta ge
Ġar ise
Ġprac tical
12 3
w are
bre ve
n at
B E
Ġconnect ing
rid ge
ve p
Ġf it
Ġen sures
| >
Ġ\ &
Ġ }_{
Ġconstruction s
b G
Ġguarante es
Ġtemp erature
Ġgroup oid
\ }}\
Ġinclude s
Ġj us
ide al
am es
ĠB er
ho se
M L
Ġgener ates
go od
Ġprevious ly
Ġflu x
Ġd z
Ġlon ger
mo ve
Ġ3 0
un ov
Ġcharacter s
Ġretur n
iv es
tan ces
sum es
s b
equival ence
Ġma rgin
Ġhyper surface
n b
Ġgeneral ize
an s
Ġsub manifold
co v
h armonic
}) _{\
Ġ1 7
Ġc li
Ġampl itude
Ġpa ge
D er
pa rame
}. \]
)\ |^
ĠS e
O S
Ġdeg enerate
Ġconcer ning
si ties
Ġa mb
V er
Ġs low
Ġrece ived
/ .
}} ^{(
Ġde coding
}$ ).
}_{ +
& $
Ġ$ *
S e
Ġiter ative
Ġflow s
ne ighb
_{ *
ĠL o
scri pts
at ern
Ġs ix
Ġ til
v r
Ġsimpl er
}} ]
ĠCh ern
Ġother s
pro vide
Ġcon volution
Ġsymme tries
at ch
Ġdistingu ish
ĠM I
Ġfe atures
n es
Ġspan ned
Ġdivis ible
m t
Ġdescribe s
Ġdesc ent
al low
Ġthough t
Ġendow ed
f ollow
b asic
bab ility
y ap
&& &&
F P
v phi
Ġb en
ĠC he
Ġver ified
Ġpoly tope
ĠO DE
Ġr isk
Ġimagin ary
Ġobtain s
ec ke
Ġpop ulation
valu es
Ġcommu te
Ġcombin ed
M T
big wedge
ex istence
ot t
Ġs ends
200 5
a ve
f unctor
b E
\ })
+ (\
O M
s titute
sim al
bil ities
Ġide mp
T aking
la s
C B
li hood
Ġcom ments
Ġrepresent ing
Ġsumma tion
Ġno ted
= &\
nol imits
[- >]
Ġexponential ly
Ġtraject ories
ec es
ty le
Ġissu e
ic ro
o ssible
min imal
th od
Ġresp ective
)) )
Ġas s
' )$.
^- (
Ġp ric
Ġmeasure ment
\ _
Ġpo lar
or ts
Ġro ugh
B ecause
ĠLemma s
R o
Ġne ither
Ġan ten
Ġlea f
c ut
K S
Ġad ded
ir ing
Ġunit al
m k
Ġrea ds
me ter
) ]\
Ġrepe ated
m ing
Ġconclude s
cri min
th ree
Ġde pth
ron t
ĠR o
Ġintersect s
w ill
Ġmeasure ments
f lo
Ġ[ (
thes is
}} ;
no tation
n x
ine ar
g ing
ul ts
ome tries
Ġcu be
f unc
tab ility
Ġrece iver
Ġadvan tage
f ace
}^ -
De partment
S c
Ġs tri
Ġsemis imple
Ġconjuga cy
In te
}, {\
Ġ& $
\ `
)}\ ,
l k
}\, .
ĉĉĉĉ ĉĉĉĉ
ay es
in a
Ġtriang ular
g reen
r c
Ġg lu
" ]
int y
R ic
Ġsp e
Ġcontinuous ly
Ġlevel s
ori en
S ome
l vec
Ġreg ression
G S
g men
N on
Ġcount ing
Ġbi partite
ĠIn te
=\ {\
}^{ [
Ġfib re
comp osable
Ġdiv ide
$. \
ĠSci ence
Ġinclude d
f m
Ġin ser
tif ied
Ġsol ves
ti ty
e ach
Ġ{ (
graph s
Ġun stable
Ġfil ter
ĠG reen
Ġf ive
RE AL
Ġar ises
}{ -
G D
ĠRic ci
Ġpair ing
}) (\
Ġarri ve
Ġex ternal
}} }}
}{ $\
ster ior
inter val
Ġcross ing
Ġrecon struction
)/ (
ĠT ake
$$ (
Ġ\ |^
Ġca us
Ġtransp ort
ier arch
Ġdiscreti zation
a vi
! }\
ĠYou ng
Ġa tom
ĠS econd
Ġcance l
pec ially
C N
}[ !
Ġ\, ,
iz able
I D
at op
g b
ed om
ij k
I V
Ġp i
\ ;\
Ġtw ist
tain s
Con sequently
Ġfe ature
Ġwr ong
v f
Ġpre ce
ether ian
sec u
Ġbegin ning
ĠApp lying
^- $
Ġadap ted
math it
Ġqu iver
Ġlet ting
Ġchain s
Ġinf er
Ġinde pendence
c ern
Ġscat tering
or bit
g p
th in
H y
: \,
Ġclose ly
ĠS ome
Ġquanti zation
Ġimp ossible
Ġco vers
vari ety
}= -
Ġadd ress
\{ (
ĠM at
Ġca pt
Ġsta tistics
I M
}| ^{
gin e
Ġf eedback
ction s
Ġradi al
ĠĠĠĠĠĠĠĠĠĠĠĠĠĠĠĠ Ġ
Ġstre ng
multi row
Ġdynam ic
H o
int o
20 21
ĠSch r
Ġinterpre ted
i ra
$& $
iz ers
" .
Ġalgebra ically
Ġ ^{-
R ec
ser ies
parti tion
Ġimpro ved
T S
ĠW hile
ta inty
are d
Ġ2 4
Ġch all
Ġconvex ity
Ġindic ates
Ġarrow s
Ġrig or
Ġrestric tions
,\ ]
x ample
^* )$
b F
lob ally
r v
Ġfa ils
C om
Ġlocal ization
Ġelect ron
h er
Ġw ish
Ġlog ic
Ġnot ing
fra me
Ġbe am
Ġen viron
Ġsu pre
Ġu ltra
La g
}\ }
Ġimplemen tation
T V
ĠA r
pa ren
hol omorphic
n ers
Ġar ray
Ġexis ting
T R
Ġ\| _{\
}{ }
Ġc m
B V
Ġcomp osite
Re al
ĠGaus s
Ġdeg ener
Ġv ol
Ġtri ed
y z
Ġma rtingale
Ġden omin
preser ving
Ġmath e
| |_{
Ġlogarith mic
f re
ĠĠĠĠ ĠĊ
Ġ\{ (
Ġstud ying
yap unov
ĠĠĠĠ ĠĠĊ
ve y
key words
on es
Ġcompact ness
, ...
Ġkernel s
sel ves
ĠE lement
Ġla beled
}^{ -\
Ġ\ '
Ġform ally
Ġme et
Ġpure ly
: (
si t
in verse
Ġrequire ment
Ġstand s
ell ip
odrom y
p n
Ġmagn itude
inte ger
F urther
Ġwr iting
Ġiden tically
Ġac celer
Ġw ire
i int
tr in
Ġwa ves
ĠCon dition
h r
D ia
Ġdemonstra te
Ġas sumes
k j
un cated
Ġde lay
: [
L ip
A fter
Ġi d
t l
Ġsol id
co e
Ġch ar
ker n
Ġrepresen tative
si ded
tation al
en um
f c
ĠJaco bian
ĠE n
Ġb its
| ^\
): \
Ġform er
200 4
bet ween
)} -\
os es
Ġslo pe
ĠS U
$ [
sta bility
Ġpro g
)\, .
ĠAn al
ĠRes earch
)| ^{
Ġdis c
\ #
Ġset up
Ġpo les
Ġ\ ;\;
ĠH om
cal c
ĠO therwise
Ġlo ops
u i
Ġ5 0
in j
Ġra m
a o
ĠJ ordan
d dot
Ġtop olog
Ġdiv ides
-\ !
Ġno thing
ĠCar tan
O ut
Ġf alse
ĠSub section
Ġbound aries
for ce
b Q
tima te
sk y
Ġ= &
Ġnormal ization
Ġwh ite
Ġpro j
S econd
Ġsem ic
& +\
T hanks
Ġa f
Ġsimultane ously
comp u
Ġf ore
da y
Ġsign als
Ġse lected
N orm
z a
Ġhapp en
' }(\
mple x
b B
algebra ic
)) ^{
ĠJaco bi
st ring
Ġregulari zation
. ]
de c
h tt
u ge
Ġeffect s
Ġm icro
A nother
' _\
ĠF unction
cer tainty
Ġre ver
Ġs ent
v ille
) ]$
' }{
h it
Ġresp on
a belian
Ġal pha
Ġh ierarch
R P
equ al
- (\
o mp
Ġcontinu e
Ġco variant
ou th
ref ul
ĠN amely
G P
Ġco arse
1 10
Ġac tive
âĢ Ļ
long mapsto
con trol
ar k
Ġindex ed
Re g
{- }
W hile
as hi
** **
ch ron
Ġco re
B D
Ġmess age
od al
v is
Ġtw ice
Ġar range
Ġcon cern
I T
ĠI nt
Ġfre edom
ĠS u
Ġpo sitions
secu tive
Q ua
la b
x b
Ġemp ha
Ġcon servation
Y ou
ro ot
yste ms
Ġcirc les
decomp osition
Ġe fficiency
Ġconjuga tion
Ġcharacter ize
Ġdia meter
G F
Ġinc ident
' }}
M F
Ġin sp
math ring
ĠA gain
Be fore
fore ach
Ġthere in
con jecture
}\| _
i math
ot on
Ġtri p
den sity
Ġminim izer
s F
bm od
Ġwor th
Ġval uation
(\ |
Ġdiffere nces
so v
Ġmem ory
o bs
Ġindic ate
Ġlat tices
em bed
Ġapp e
proper ty
Ġimmer sion
li ft
T ake
d m
Ġas pect
im it
tic s
x p
( $
form ing
tere xample
Ġevalua ted
Cha pter
' |
â Ī
Ġw on
k m
Ġrun s
Ã ©
}) )\
Ġfor med
Ġde pic
Ġproper ly
surf aces
E C
Ġinter mediate
Eq uation
Ġcon du
f o
Ġpossi bility
re lation
Ġtrans forms
cy cles
m orphism
}) )$
Ġthe rm
u sed
rt in
ĠS ta
d ro
Ġsignificant ly
Ġfor ces
ula tions
Ġangle s
$ },
ll l
tun ately
B L
it al
}| _{
=\ ,
Ġ ...,
Ġlaw s
con struction
'' \
Ġan nu
Ġv on
b T
ss s
ac u
Ġta il
Ġend points
Ġty pically
Ġyear s
R C
Ġtool s
Ġcom ing
es sian
Ġsome times
M in
center line
Ġlength s
Ġsepara ted
Ġeasi er
Ġse ctor
}_{ {\
b h
oti ents
ro th
k h
ces sing
* {\
art z
Ġe la
id den
Ġdiscussion s
}= -\
}\ }$.
Ġde mand
Ġcar ry
E n
ale ph
Ġact ual
anal ytic
Ġext remal
Ġcomple teness
categor ies
Ġrecur rence
Ġ- (
Ġ\ ;\
} '(
Ġ. $$
G R
Ma x
200 3
Ġcombin ations
\ }^
Ġ. =
Ġbounded ness
Ġaxiom s
| .
P D
ti le
}\ |^
Ġhand le
App endix
A x
Ġvirt ual
f y
Ġes pecially
la ting
i med
be z
on ential
Ġ2 5
ern ou
Ġgu ess
Ġfour th
Ġcha nging
D iv
V ol
Ġpotential s
Ġ$\ ,
ĠI ts
Ġpropor tional
Ġk ine
imodu le
Ġcou pled
up les
measu rable
Ġnumer ically
follow s
Ġg re
Ġhelp ful
Ġen semb
con juga
Ġth ings
Ġex terior
nt z
Ġev ents
Ġdo ing
Ġasso ciative
}+ (
Ġsupre mum
}= (\
$ |
M on
Ġasymptotic s
$ _
S D
g i
tr ue
Ġsugges ts
> [
Ġdis crimin
E D
et ale
\ (
Re f
Ġin s
Ġsign ature
ele ment
Ġcont in
ĠL ore
ge bro
Ġg rant
Ġeigenvector s
l ight
proper ties
de creasing
Ġca reful
satisf ies
b is
d ouble
M I
Ġre scal
Ġs ket
ma r
ga m
U U
Ġresi dual
n k
Ġcomp ac
{ }\
fol ding
Ġd ou
Ġtre ated
Ġs izes
Ġinfinite simal
Ġ\ }.
Ġdevi ation
dition al
Ġassoci ate
k en
F in
Ġsimple x
Li pschitz
Ġstudi es
Ġevent ually
Ġinde composable
Ġloc ation
: $
ta ng
C an
Ġcompact ly
G eneral
Ġapproxima ted
at o
v m
]{ $\
Ġre lies
texts f
a cy
Ġpo le
M ap
dis c
Ġembedding s
k u
lat or
mom ent
Ġc and
la tes
_+ ^
l its
Ġspace time
ymme tric
Ġparticular ly
}} }$
ta ngent
ernou lli
as ymptotic
in itial
' .
sup seteq
{ }{
spect ral
k n
Ġinvestiga ted
)} ^{\
c Y
Ġapp re
ĠT ype
di ents
Ġsepara tely
b ur
| )
'' _
Ġlea ve
classi cal
Ġaff ect
p ed
Ġpro duces
Ġg lobally
P C
Ġin ten
Ġo wn
ĠK o
S ol
Ġregar ding
Ġne ural
po sitions
[ ]
Ġweak er
ĠE very
m rm
ri x
sha pe
)\ |_
Ġfoli ation
ha ps
Ġillustra ted
or dered
Ġ }^{
Ġformula ted
Ġw all
ĠC ou
Ġpo set
s ys
or o
vanish ing
ĉ ĠĠĠ
pha se
| <\
fig ures
Ġ\\ \
Ġd im
s y
C I
Ġconstruct ing
compon ent
C a
Ġfunction als
S um
B ar
' })
Ġh ull
Ġsto pping
Ġsa dd
)\ |_{\
Ġaccura te
Ġmid dle
ss ess
Ġmode s
Ġar ising
)$ ]
c ore
pp ings
ter ns
- >
12 5
Ġqu atern
Ġcol l
); \
w hose
M ulti
pro jective
Ġis otropic
Ġexpon ents
Ġmonoton icity
Ġ| ^
Ġf ra
Ġpen al
di ly
ri e
b ic
c Q
c ation
st ric
rom ov
ula ted
Ġelect ric
R iemann
cou nt
)} |
Ġme di
}^* \
â Ĥ
Ġoptim ality
200 2
ĠV er
Ġre verse
$. )
Ġre pro
irr or
r ical
^* _{\
Ġremark s
s w
S a
Ġseg ments
an cy
Ġtell s
Ġ3 2
Ġdistingu ished
y ond
},\ ,
Ġcontribu tions
ll er
gra mming
Ġgra ding
ink owski
a ding
Ġorgan ized
N P
Ġequival ences
Ġpla ys
Ġmonomial s
= |
ou nts
Ġbelie ve
m l
m v
Ġde le
Ġtermin ology
G M
'' .
Ġmeasu red
Ġaltern ating
R T
Ġla y
continu ity
Ġcon secutive
ĠO b
ma ps
)\ ]
sump tions
Ġpreser ve
ca st
Ġdomin ant
ro v
Ġtriang ulation
de pend
Ġdomin ated
fam ily
Ġlabel s
F ollowing
) ~
s tituting
b g
d p
Ġminim ization
al ks
set length
t v
Ġgeodesic s
s O
ran ce
nu ll
s n
). }
b ran
Th roughout
Ġdiff er
flo at
ryst al
al es
Con t
Ġdete ction
Ġhom omorphisms
theore tic
an k
Ġaver ag
Ġb if
t uple
com ing
div is
Ġma tro
re duced
com m
Ġlift ing
i ent
Ġm ind
re ad
Ġdev oted
co ded
}^{ +\
cep ts
Ġ& :=
inter section
Ġd r
Con clusion
lem en
is omorphic
Ġsa ke
M E
co sity
Ġ6 0
Ġversion s
ĠD is
Ġpo lari
sp in
ĠC hoose
ĠP ol
Ġst ress
wa p
Ġho pe
aris ki
Ġrandom ly
c W
ni hi
Ġ Ga
bb Z
Ġprece ding
Ġreal ized
ard y
ĠI nd
cent ral
Ġcheck ed
Ġco mb
ĠSch ur
le in
i u
Ġ& &\
Ġqu e
Ġ+ +(
U p
1 000
M or
ro s
vari ate
h l
\ @
ĠL yapunov
H ow
Ġpo sterior
Ġapproxima tely
| =\
align at
end i
Ġan gular
Ġover all
! (
def eq
Ġpar ity
_{ >
Ġagain st
h dots
{\ |
K M
Ġlim ited
Ġintegra ting
and er
Ġminim izing
Ġdecre ases
ph y
w as
ĠC a
Ġpri mary
j p
Ġsol vable
Ġcompu ter
Ġ )}
ĠG L
cal C
ĠM odel
g ree
Ġrewr itten
ĠĠĠĠĠĠĠĠĠĠĠĠĠĠĠĠĠĠĠĠĠĠĠĠĠĠĠĠĠĠĠĠ ĠĠĠĠĠĠĠĠĠĠĠĠĠĠĠĠĠĠĠĠĠĠĠĠĠĠĠĠĠĠĠĠ
b end
i date
) }}{\
Ġcon crete
Ġ\ }$,
S m
Ġbu ild
( [\
^{ {\
tor sion
)| $
)\ }
gener ic
ever theless
Ġac cess
Ġe p
sta b
Ġbin omial
ĠF in
fin ed
ledge ments
la w
' },
E ach
Ġspect ra
Ġstrate gies
Ġden sities
C c
Ġmod ification
ĠC l
;\;\ ;\;\
)$ ).
* }{
ĠI II
Ġinf lu
Ġz eta
T or
Ġapp lic
Ġmodu lus
ig u
as hed
}\, ,
Ġd rop
Ġlet ters
al t
S R
( .
Ġrea dily
+ {\
Ġ item
ĠC P
Ġestima tors
* {-
ta il
K o
ure d
Ġpreser ved
ĠE instein
symme try
Ġintro ducing
bra tions
ĠT aking
Ne w
a ver
)\ }_{
Ġremo ve
are nt
is otropic
tur bed
n orth
ĠS t
ch er
og on
Ġmach ine
Ġpres cri
}) ;
deriv ative
Ġapp endix
Ġpro v
lim inary
ĠLe gend
a ut
b ody
re call
ĠSpec ifically
)) -
Ġcon es
Ġmechan ics
bound s
G H
Ġun certainty
Ġextend ing
Ġth ing
ra ise
ĠO f
W W
Ġtermin al
T P
200 1
}^* $
g d
A gain
Ġintersection s
Ġbalance d
Ġknot s
l c
Ġdescri bing
ion ic
}} ^\
b theta
led g
or g
tern ative
h f
s r
equ ent
Ġeigen functions
Ġvar iant
Sp in
B H
scripts cript
ve ps
Ġpo ssess
ĠWith out
Ġformula te
ont inu
Ġdraw n
en able
Ġregar ded
to col
aff ine
Ġsubstitu tion
sp ective
sma sh
Ġf lag
Ġtrans verse
T e
re cur
}] $.
P h
Ġmix ing
15 0
can onical
Ġnon e
Ġcar ried
\}. $$
d R
bf x
Ġexpansion s
orth ogonal
endi eck
.~ (\
Ġadv ance
Ġcla imed
Ġar gue
Ġsadd le
it eness
in equality
_- (
ro matic
Ġre ady
Ġ4 0
multi put
Ġmon odromy
man y
cal ly
F L
roth endieck
Ġinterf ace
}\| _{\
D C
:=\ {
gra dient
ant or
div ision
Ġdenomin ator
Ġdiv ided
stric t
Ġhol onom
ĠH y
here nce
$- $
Ġtreat ment
OI U
Ġma ppings
Ġend omorphism
0000 00
bo th
con sider
satisf ying
Ġmultip lier
Ġspe aking
sf ul
ĠAl though
ge l
Ġsequ el
mb b
P E
ric k
ĠC or
po ssi
Ġreco very
Ġ( {
Ġp lus
W RI
Ġex ten
Ġsimpl ified
Ġbe yond
Ġg ot
Ġp unct
}[ {\
Ġrecur sive
ĠIn stitute
s ame
)\, ,
s ample
Ġmin or
scriptscript style
Ġdis tances
r ink
\ :
r l
ga p
Ġpossi bilities
| {\
F C
Ġstar ts
_- $
f lu
asso ciated
Ġste ady
|\ \
ĠMa x
Ġpro file
in creasing
B Z
Ġachie vable
G A
WRI TE
ill ing
j ectivity
Ġsmooth ness
] )\
Ġsepara te
Ġfollow ed
Ġinver sion
bez ier
s P
d ow
Ġreason ing
Ġtest ing
om ic
Ġ( [
Ġvary ing
g al
Ġreason able
E X
rop ical
c z
Ġco vered
restric tion
Ġfast er
ĠP ar
iff ere
ma trices
O T
Su pp
v w
ĠLore ntz
Ġbre ak
Ġconf ir
pro jection
Ġcons ist
Ġassign ment
u ff
,\,\ ,\,\
distribu tion
Ġ3 5
n ice
ur istic
Ġadap tive
Ġphenomen on
Ġd ashed
ar po
An al
Ġbra id
Ġmis sing
Ġv io
Ġen umer
Ġde ep
la yer
11 1
on ds
)) (
Ġth in
Ġsetting s
Ġpa st
l ind
Ġsit uations
^* )\
cu be
G raph
acu um
Ġdifficul ty
exp ansion
Ġs atura
ific ations
Ġt ensors
ĠF ind
Ġimpl ication
Ġinsta nces
oid al
comp ati
Ġspec ifically
^+ }
Ġun folding
Ġrecur sion
plan es
Ġfa ir
| +|
] ^\
Ġv or
Ġconcentra tion
}, ...,
Ġcon strained
S ta
}} ^{-
con ditions
ĠC ox
Ġpat terns
Ġref or
Ġcoun terexample
bb s
d w
gener ated
algorithm ic
d B
Ġper s
cur l
{ .}
or b
de cor
ab i
Ġexp lan
Ġcor ners
Ġcons equently
an n
ser ved
+\ !
Ġl ot
Ġcolor ing
| _\
sub float
\| ^{
B er
ĠI N
dis tance
R M
ech n
wa ve
qu estion
th us
ĠB ayes
s v
b L
E very
Ġ$\ #
ĠT wo
Ġauto matically
Ġcompu table
Ġhome omorphic
Ġqu ick
tot al
ĠĠĠĠĠĠĠĠĠĠĠĠĠĠĠĠ ĠĠĠĠĠĠĠ
Ġre ve
Ġformula e
Ġlike ly
- {\
}. )
ĠC ol
Ġsepara tion
iden tity
Ġpurpo ses
cor ner
Ġcont ent
Ġspan ning
b rid
^- _
}) ^\
Ġin gre
j a
/ (\
Ġhigh ly
dition ally
_{ [\
Ġ$[ -
Ġor b
Ġcontrol led
z er
Ġreason s
Ġâ Ĩ
Ġrefine ment
ĠH ar
local ly
} &=
P ut
for tunately
ĉĉĉĉ ĉ
ĠThe ory
Ġcons is
Ġinteraction s
In ter
Ġca pa
Ġa mple
ĠPro per
Ġsuc cess
pr incip
' re
re als
Ġfor cing
Ġlift s
Ġsimple st
weigh ted
id al
Ġpropa gation
Ġrespon se
Ġra d
c x
})\ ,
Con versely
]^- {\
Ġbij ective
ĠCha pter
Ġ ),
ou ville
c v
Ġdis si
ma tical
Ġscal es
tor us
m ix
par tic
Ġpoly gon
^+ _{
Ġex change
Al though
Ġco cycle
Ġup da
Ġref lect
Ġde lta
general ized
Ġsome what
ĠE qu
_+ ,
E P
Ġobtain ing
Ġdri ft
ob ject
Ġf erm
Ġ ri
ĠW i
ch es
ir al
Ġperturb ations
Ġsphere s
tor tion
Ġta ng
5 00
lemen tary
c ot
, {
Ġcon cave
ĠS NR
an ti
Ġob struction
v in
ĠR ec
, "
Ġanaly tical
) )\\
Ġconsis tency
Ġw ater
Ġremo ved
n f
Ġin duce
}} [
Ġelect ro
Ġconsider ation
ĠMa th
it on
al th
Ġp ub
ĠB ra
, (\
^ -\
Ġpro gramming
igh ts
^+ (\
g ent
ĠZ ariski
od inger
te o
Ġf ine
] -
h ar
G ra
[ $\
cor o
Ġdecomp ose
nd s
cha nged
ĠP r
Ġch ild
pin label
P ri
Ġ )^
Ġga ve
ĠP art
Ġ ign
)| _{
Ġbuil ding
+\ |
T able
Y au
ig gs
Ġcongru ence
}_{ [
' )=
Ġpara graph
ga us
S pace
Ġcar rier
ad missible
co prod
] _\
)) }\
) &=&
Ġre cor
)$ \
Ġ: \
| }{\
li ers
Ġcol ors
D A
Ġir re
)\ |\
Ġb ul
' )$,
\ }\\
Ġh ist
G E
ĠR a
trin sic
k t
} '\
Ġau gmen
Ġimpor tance
Ġexhi bit
Ġper spective
Â ł
p b
gine ering
tran sp
lexi ve
Ġmut ually
de pth
res sible
f b
Ġcont our
Ġrea ding
C K
ma y
pro cess
e val
Ġd g
a dap
Ġlike lihood
Ġglu ing
Ġs ources
uniform ly
ed ges
f ix
ss mann
s L
Ġsequ ential
den ote
d b
er y
an ge
ure nt
Ġqu otients
Ġdis play
P art
Ġfix es
\, (
Ġâ Ģ
Ġ$ <
ma ss
Ġt ropical
S H
qua ntum
Ġsp lits
' ll
Ġal location
Ġin t
ĠH ecke
Ġma pped
ne y
Ġ\ }_{
Ġremo ving
Ġan nihi
es p
te l
ga te
25 0
. },
^* ,\
Ġgener ation
arpo on
line color
00 1
P I
al p
alg o
ti er
Ġ2 3
E T
ram ified
Ġenviron ment
f d
' d
Ġ- >
Ġfl uct
Gaus sian
Ġtest s
Ġ$ +
Ġsha re
min im
pi d
' ]
J aco
Ġ ve
er c
Ġcomple ted
Ġde formations
p sp
b V
^* =
T op
ĠW rite
Ġlook s
Ġ} }\
ore nstein
S ing
K a
}, {
Ġcontin uation
possi bly
Ġs lice
ĠB oth
s A
S W
Ġat trac
Ġrelax ation
A V
Ġsucces sful
ip otent
tain ing
un g
n l
Ġrun ning
Ġidemp otent
to ff
il de
IEEE eqnarray
Ġattemp t
H K
i ous
Ġmotiv ated
Ġ ).
Ġw in
Ġmathe matics
Ġcomp aring
Ġpla ces
thes e
R N
Ġrecall ing
Ġ\ },
unc ation
o h
no ise
cr it
A u
Ġcoll ision
H P
Ġt uple
F G
S V
al i
)-- (-
Ġimplemen ted
cho ol
Ġsome one
ht bp
k x
d ig
den se
Ġpro tocol
E L
ĠLe vi
Ġ: :
Pro blem
Ġvis cosity
ĠF ollowing
z en
P oisson
bold math
Ġ lying
Ġcon cepts
Ġimp ose
ke l
Sch warz
ĠMor se
ta ke
chan nel
hol m
Pre liminaries
c ision
Ġ$\ {(
}{ .
cat en
ĠS ec
el low
~~ ~
[ $
with out
ĠPro ve
ĠS tein
ĠG r
a da
it ch
para m
\/ }
Ġc ap
Ġsign s
Ġf all
op le
M N
ĠF e
S tokes
G N
ĠSection s
H ilbert
act ing
un ion
Ġ !
in duced
C V
pro bability
& -\
P A
ĠMI MO
t m
Pro j
Ġtr uncated
Ġinvol ve
subset neq
place ment
normal ized
= $
dot ted
Ġpredic tion
Ġconverg ing
Ġch art
ha us
Ġdiv iding
Ġmargin al
Ġbif ur
pr ising
neighb or
[ -\
ellip tic
Ġjo in
, ~\
B a
M SE
Ġg reen
' :
Ġre son
] $-
max imal
or al
Ġcor ner
d n
ĠDe partment
scale box
Ġdiscrimin ant
ĠS how
ĠD ue
co st
Ġdivis ion
a rable
Ġatta ched
19 99
me mber
Ġde coder
, *
})$ -
Ġmer omorphic
ogon ality
I F
Ġe limin
Ġmain ly
& (
Ġguarante ed
Ġestablish es
Ġsubs equent
Ġequal ities
' }$.
Ġdefin able
Ġdecre ase
^{* }\
[ (\
lem m
Ġv s
Ġrepe at
}) }$
du als
sol id
Ġcontra ry
Ġpla yer
ĠQ ua
})- (\
ĠM inkowski
Ġp lu
et ti
C r
}) |
Ġstreng th
Ġcon n
)| =
Ġimp act
A c
ĠP er
Ġgrow s
S im
+ (-
ĠH essian
Ġgra vity
Ġrigor ous
ĠCo hen
h ard
)! }
ĠB ernoulli
Ġlet ter
Ġsche du
B K
to gether
to ms
d ir
a ms
L C
Ġcol our
Ġ( $(
co mpl
ma gnetic
h ler
v ation
ĠW hy
yn kin
pothes is
normal size
Ġnon commutative
ĠLag range
get s
}\ !\
Ġcommuta tor
te ch
ou n
}} _\
var kappa
f h
(\ |\
and om
}\ }$,
ĠS tr
ay ley
Ġbran ching
G K
)} ;
b N
,\ {
Ġintu ition
o c
Ġcomb ine
. \,
ĠS h
eqn o
i ta
ĠĠĠĠĠĠĠĠĠĠĠĠĠĠĠĠ ĠĠ
19 98
Ġ )$.
Ġcommu ting
' /
ri an
m cal
G en
Ġco hom
ra t
n y
k p
w s
la ter
.. ..
el se
ir th
ro u
B i
12 8
top es
the red
Ġdecomp ositions
L B
Ġex am
ĠP ut
Ġsummari ze
: =(
succ eq
g ed
Ġcircu it
Ġpric e
u ck
^{* }(
^+ ,
S ha
es ted
Ġemploy ed
b D
Ġindic ated
n as
ĠCon versely
u es
Ġl isted
Ġmotiv ation
avi er
ĠS p
@{- }[
@ /
con straint
3 00
Ġsket ch
^+ $.
t raction
pa ck
t ty
form ally
integra ble
}\ }\
Ġcharacteristic s
Ġintegra te
sta tes
Ġback ward
non e
Ġcha pter
$ ~
' ^
g rid
r un
Ġo be
posed ness
qu otient
T C
he v
Ġcol ored
Ġtra vel
o ck
- }
Ġ: =\
m S
}] $,
og en
Ġsug gest
c J
te ful
Ġplan es
Ġdetermin ing
b U
Ġcol lect
Ġal gebro
z es
Ġ2 1
Ġstabil izer
Ġv acuum
sing le
ĠY ang
}_ *
Ġgeneral izes
Ġmultip lying
Ġconcern ed
Ġa gg
Ġre ducible
Ġwon der
if ford
ca ula
is y
Ġneighb ors
Ġcom ment
oo lean
b M
ĠEx p
+ {
p seudo
Ġb ad
Ġt end
ca y
Ġ ^\
Ġre ly
G o
con f
ta tives
Ġpa y
F A
Ġensemb le
is enberg
ĠP ic
go ing
^+ $,
Ġde fect
Ġor ig
Ġwire less
Ġs ending
Ġinflu ence
Ġ& -
Ġno vel
ĠAl gebra
regular ity
a th
^* _\
F un
in ation
Ġ(- .
Ġw ind
Ġat tract
}}$ $
H L
=\ !
tif y
ĠA nother
)} _\
P ol
sh ort
Ġmember s
}^* (
sco pic
S s
H F
Ġmultip ly
Ġin puts
)> \
bot tom
Ġassign ed
Re l
vers ality
H D
re duction
as ser
qua nti
}) ]
;\;\ ;
rr bracket
k r
vector s
ĠG rothendieck
Ġcirc ular
Ġrequire ments
z y
llip tic
V ect
Ġrela y
ll bracket
Ġrela te
}\ {\
conne ction
s ymbol
l der
Ġmu l
as sume
ra tion
Ġpref er
st s
_{ *}
c g
ies z
co h
Ġg over
Ġimprove ment
ac ency
con tra
Eq n
du ality
S NR
O V
N C
coun table
[- >,
Ġconsider ations
us er
}- (
\ }=
Ġtr ig
Ġf usion
raise box
Ġag rees
Ġtrans formed
13 5
D ue
Ġgra teful
ĠT hanks
F I
Ġlow est
Ġcriter ia
sub group
Ġso ft
-------- --------
h p
v or
equation s
t g
Ġcons equences
Ġmo le
N umerical
ver tices
or igin
x v
R n
h ic
Ġscenario s
ib n
Ġpi eces
Ġbi as
O U
Ġp or
ĠC R
eq def
Ġag ent
ver b
) [\
M odel
ĠS O
min imum
Ġcompati bility
F r
ter ms
Ġen coding
Ġ }.
Ġbi rational
Ġcre ate
Ġre ductive
ak a
/ [
^{ |
UN CT
De l
\ })$
S uch
ble ms
Ġh ar
Ġsubs tituting
ĠCo mbining
ma s
Ġprov iding
& \\
d ri
e ref
_{\ {\
ct ually
m g
Ġexce ed
caula y
L u
Ġkine tic
Ġf la
Lo cal
Ġben ef
Ġa toms
w artz
Ġcorre ction
Ġsugges ted
' )}
Ġal ign
Ġ _\
Ġestima ting
serv ative
v ia
Ġcon v
Ġlogarith m
f u
n mid
Ġcardin al
Ġmo der
red holm
Ġminim ize
u be
ig ible
Ġp seud
ju mp
' )^
u tr
}} }(
ĠCox eter
Ġfrequen cies
is s
dis joint
d h
} &=\
,\ ,\,
\ ,\,
h ind
cell s
s G
er ies
Ġex clude
ed y
Ġro oted
c il
approxima tion
s C
ĠM ulti
exp licit
ound ation
)) +
ĠRe f
corre ct
E uler
n ecess
column width
Ġm irror
T x
Ġjump s
}) /
Ġ$( {\
H M
ra r
Ġdepic ted
Ġstruct ural
x shift
con n
ele ments
ent ropy
T ilde
Ġprobabil istic
Ġbuil t
Ġbound ing
Ġdig raph
Ġentire ly
Ġabs or
)}$ $
Ġapplic able
scal ar
Ġpo sitivity
Ġdis per
d ge
q bezier
{- .
Ġw alks
] (\
ĠIn stead
Ġass ms
)^ +
ti g
ell er
tw isted
cor por
p otential
Ġam ounts
b beta
Ġdevelop ment
Ġwor st
s qua
]{ .
a ult
ver sion
Ġsummand s
Ġthe ta
Ġparametri zed
- $\
}( -\
Ġiter ated
C hoose
da ma
\, ,\
Ġbelong ing
ili ar
bor dis
re ly
p x
Ġfil tered
'' )
Ġadj unction
Ġen tangle
lb rack
L arge
Ġ" (
ima ges
Ġd v
m ond
ĠG romov
> "
)) ^{-
B T
lo ss
Ġex ercise
Ġhy p
m ode
[ $(
Ġdot ted
Ġhe uristic
rm d
10 1
Ġpe ople
B es
b and
> =
F M
Ġinterpre t
big otimes
R em
G u
Ġans wers
Ġachie ves
ĠA rtin
ma tion
struct ures
Ġg as
Ġ }(\
co mbin
Ġis otopy
U niver
ir reducible
Ġ2 2
\! -\!
H C
Ġindic ator
, &
Ġvari ations
ĠT echn
Ġte tra
Ġprobab ly
Ġser v
m R
dire ction
du nd
Ġ} ^{\
Ġgeometric ally
parame tric
rela x
D en
cal A
Ġexplan ation
# #
L O
Ġl en
sch ild
u le
)) ,\
Ġempha size
Ġla ck
new page
Ġintegra nd
strong ly
m or
Ġintu i
ti tion
ign e
] |
o la
ĠĠĠĠĠĠĠĠĠĠĠĠĠĠĠĠ ĠĠĠĠĠ
ec ker
Ġex per
Ġsa ying
Ġe vol
Ġdeal ing
w all
L A
}} |\
big vee
k not
d k
ula te
}. \\
fl align
Ġimple ment
example s
Acknow ledgements
t um
al a
ĉ ĠĠ
I L
ro b
bb C
i bbs
mid t
Ġend point
Ġbro ad
Ġh int
Ġformal ism
it t
pla in
Ġu l
ob tained
W rite
] }{
Ġsub module
n z
F unction
f k
qu ote
do es
}$ ),
),\ ,
Ġcar ries
F R
Ġse min
{ ,
Ġstar ted
Ġlo cated
ys hift
Ġf ront
chi me
rela tive
= >
+\ |\
m tx
Ġag ents
Ġ= (
Ġanalog y
ar ds
ur st
Ġlay ers
L p
Ġbe hind
Ġcertain ly
ssi ve
ol la
it ting
ĠHa ar
b Y
exp onential
Ġ( |
L in
Al gorithm
)$. }
M D
Ġomit ted
Ġa cyclic
){ };
Ġpre cision
Ġfix ing
Ġconsider s
e z
\\ &\
ibn iz
ĠS te
Ġmechan ism
con formal
i vers
sp arse
te ct
o tic
E rr
cal O
valu ating
ger y
Ġfree ly
K u
Ġref ined
an el
Ġ& +
Ġrepresen tatives
ĠDo es
de an
Ġcomp osed
Ġfin ds
Ġtrip les
x z
Ġcy cl
ga thered
ĠA lex
class es
w i
Ġmodel ing
\, {
_+ (\
Ġcross ings
ĠN umber
P DE
Ġcons titu
ent al
cccc cccc
Ġissu es
$\ {\
Ġden oting
f our
su fficient
Ġresol vent
be red
cal H
Ġinten sity
Ġa bu
Ġ. $
Ġun ramified
)\ }$.
hyper bolic
gl igible
Ġk e
D i
Ġin jection
)) }{
Ġcand idate
Ġto pic
Ġpro cessing
ĠS ol
Ġs ci
Ġc rystal
ĠPro positions
ĠN evertheless
S G
g tr
D om
Ġexpand ing
L og
Ġallow ing
Ġb is
differe nt
Ġaspect s
Ġpro duced
re qu
,... ,\
up s
! }{
modu lar
Ġco set
ab c
Ġpre liminary
Ġalpha bet
Ġin er
Ġro ta
Ġcou ple
Ġinf imum
s outh
Ġfa ding
- |\
ro tate
mon o
gg ing
Ġinf erence
ĠGra ssmann
' }^
F D
c of
K P
ĠG er
ul i
Ġon line
27 0
Ġis ometries
>> >
] },
stru cted
f C
operator s
Ġocc up
Ġquad ra
Ġidentif ying
he af
ĠC ho
ide finite
fil led
quad ratic
hom omorphism
d c
bra kk
ĠF oundation
With out
Ġappre ciated
ival ently
Ġhierarch y
Ġwh ence
N et
Ġinclusion s
ct ure
R F
ĠR ad
Ġrestric ts
par ticle
v olume
{ }^
n h
Ġhyper surfaces
Ġho le
}= "
P e
sta tionary
Ġintegra bility
. (\
Ġmin us
\}$ $
g row
os z
inate s
C he
ar r
Ġdecomp osed
Ġqu ar
U E
app ly
l times
\| $
| /
ĠM in
b ys
en sure
Ġsub sta
Ġde duced
p resen
sp a
S cal
Ġnon degenerate
Ġb ic
ot ropy
Ġorb ifold
comp are
ne ar
Bbb k
Ġscal ed
chime dean
ma rgin
ĠĠĠĠĠĠĠĠĠĠĠĠĠĠĠĠ ĠĠĠĠ
~~~~ ~~~~
Ġcomple mentary
Ġin corpor
Ġspec ify
Ġ )^{
lit z
ĠSci ences
s olutions
}). $$
di es
ĠB oolean
m A
bl ing
ob j
la x
ĠF r
Ġefficient ly
b alance
m cl
Ġholonom y
ev y
E V
Ġs ort
}$ \\
e ld
Ġam enable
vers es
f q
Ġde st
Ġela stic
Ġdata set
Ġmatro id
}| _{\
ke leton
Ġfra mes
c ertain
"; "
s H
r cl
or bits
Ġch ord
Ġsyn chron
Ed ge
rr rr
Ġper haps
rig id
19 96
Ġqu ality
Ġep im
Ġstr ings
H T
tima tely
Ġ$* $-
_ -\
s E
Ġ&= &\
}$. }
Ġrecur sively
wr ite
differe nti
Ġre ar
Ġnear ly
tan h
Ġspar sity
a mb
z s
def ault
de cay
ust om
_ *}
Ġexam ine
Ġprescri bed
. }}
bb on
T ri
Pro per
Ġin trinsic
S tab
Ġparame tric
ĠLa urent
v ich
m x
R G
Ġhyper planes
ger s
Ġsol ver
j l
Ġrecon sider
ra nd
I rr
Ġis n
Ġver sus
Ġcomp ression
Ġsh rink
Ġdesign ed
Ġtor i
Ġfurther more
Ġpres ents
@ {\
ĠF lo
ĠI m
\% $
iv ing
sc end
a e
S imilar
Ġrough ly
ti e
co vered
Ma caulay
)) ^{\
Con dition
al y
|\ ,\
Ġg ames
ĠD u
ĠP e
Ġref ers
cal M
dama rd
Co h
] _-
or ing
ĠP hy
M an
Ġbox es
Ġclust ers
Ġtransmit ted
Ġmin i
Ġcol la
Ġconjecture d
W h
multip lic
Ġan tic
Ġac cep
Ġcon caten
Ġ2 6
\ (\
ra tio
ĠM y
B O
Ġmess ages
sub j
ĠS tokes
Ġvis ual
me thod
Ġp lease
Ġ$( -\
ĠCal abi
pa per
Ġun ipotent
Ġcell ular
P SL
Ġhom otopic
ci pro
Ġfinish es
l ip
z i
is om
stra p
Ġappe ared
iv ari
Ġsupp orts
Ġcli que
ĠT r
Example s
on ically
ĠC ayley
h or
cal X
Ġdis tortion
ho ff
Ġsur vey
Ġ\! \
N L
} ''
f loor
h b
hom otopy
ĠMathe matical
Ġsub division
h ou
Ġsumma ry
Ġray s
D L
H I
diff erence
Ġin comp
embed ding
al an
ĠB ound
Ġtr uncation
Ġshift s
compati ble
Ġdis ks
Ġob sta
g ives
Ġpro x
Ġtrac k
M u
r w
ial gebra
ĠP re
Ġ> =
Ġsmooth ing
pa re
Sub stituting
Long leftrightarrow
star t
Ġper turbed
ww w
) &=&\
ĠH ardy
Ġabu se
Ġin her
, |
top ology
co herent
ashi on
ho ods
Ġanten nas
Ġ2 7
ĠCh ina
R V
ba tim
IN R
Ġsign ed
\ }}$
e en
v ct
Ġstri p
ner gy
Ġsqua red
ĠS imilar
Ġany thing
ot one
in it
mu ra
Ġlabel led
variable s
r ich
ivari ate
\ )-
^* }\
Ġpoly topes
con strained
clo sure
Ġcompac tification
Ġlo ad
Ġra pid
provide d
Ġapproxima ting
Ġsh ifted
er kin
Ġt un
}| $
$ |\
l q
ho ck
App ro
io ds
Ġdifferential s
represen tations
Ġn odal
Ġbracket s
Ġany one
){ {\
or ting
^\ #
Ġparametri zation
\ }_
p at
Ġord inal
Ġcoun tably
Ġad opt
ha nce
Ġf ract
cl ip
Ġmod ify
Ġbranch es
Ġrea ction
sto chastic
righ th
}$ &
P s
ĠI V
Ġreco vered
Ġd B
Ġm m
_+ $,
weak ly
ontinu ous
Ġ2 8
^* -
} "
r hd
ĠCar tesian
ĠB o
Ġ" \
P O
00 000
j an
Ġat tained
asu re
han k
ledg ments
' $-
Ġbul k
- )
par ts
The y
IEEE proof
da ble
19 97
Ġpha ses
J J
Ġannu lus
s X
Ġimp osed
Ġreco gn
| |^
Ġsur prising
Ġatta ck
ara bic
Ġta me
Ġcontrac tible
}= [
ur n
e u
J o
re nts
Ġ| |\
co cycle
Ġcost s
Ġchall en
Ġsub variety
be ll
Ġcon ject
}( |
olog ies
code s
arc tan
Ġask ed
ro t
y a
Ġtopolog ically
subj class
s sec
_+ }
osz ul
ol l
simple x
Ġperform ing
ch ite
av y
po le
tribu tion
s ay
Ġevery thing
Ġlinear ized
)$ };
' ),
D f
te m
Ġfor get
ĠA belian
$ ^
Ġpenal ty
> )
Ġd ro
Ġare as
Ġma cro
75 0
D T
Int ro
L G
ĠN ational
( $\
Ġm ild
B W
at um
ht b
Ġeigen function
Ġsummari zed
in jective
Ġshor test
Ġorien table
}{ {
Ġme ta
P oint
ic z
asi cally
Ġ\ ).
are st
Ġanaly zed
ti zation
\ }^{
v ability
ac tive
Ġpe ak
i h
v k
),\ ]
F ourier
Ġgeneral ised
N E
hed ra
qu et
ĠD G
Ġhe ter
bb P
ĠC ent
ternative ly
v z
pr p
}}\ ,\
Ġwor ld
) *{
U ni
the refore
)= {\
de finite
Ġget ting
Ġcontinu um
Ġintersect ing
Ġwide ly
b mu
Ġco prime
Ġconclusion s
ĠBes sel
1 12
Ġdiffe omorphisms
Ġinductive ly
Cla im
Ġmulti variate
si bility
ex a
}] ,
Ġfam iliar
! \!
cal S
ne xt
ding er
cor r
Ġtransmit ter
Ġque ue
G W
P M
G reen
u er
Ġcounter part
ĠÎ ±
Ġmut ual
Ġpri mal
ĠPic ard
cus sion
partic ular
re lated
cont ents
ĠK illing
z ations
4 00
Ġe f
ensure math
is ter
Ġcorrect ly
^{ '
d omin
s wap
Ġ ĉĊ
> (
b W
ĠP oint
ron ecker
) '
Ġâ ī
| +\
Ġtrans versal
ĠCla ssi
) )\,
ĠRes ults
' ))
, ..
Ġpre condition
ĠB a
cal D
}} },
clu ster
Ġrad ical
H ol
od ynam
O pt
P f
c lear
Ġad op
mid dle
ĠAnal ysis
Ġma ssive
K T
Ġb os
f ast
B N
e fined
]^- {
ar b
comp arison
re lations
S tar
Ġadj acency
T a
ros sed
Ġ er
ic ular
supp ort
G m
ĠĠĠĠĠĠĠĠĠĠĠĠĠĠĠĠ ĠĠĠĠĠĠĠĠ
erm ite
Ġe lim
ci ties
Ġvalid ity
L inear
)}{ |
rg b
Ġinsp ired
Ġtra de
Ġve hic
Ġsemigroup s
ĠF act
T X
base line
C W
s lo
fil ter
Ġf lexi
ĠPro p
parameter s
Ġsur jection
SE Q
Ġref lexive
|= |
Ġhe l
Ġpoly g
Ġagg re
ĠO p
h m
})$ $
cur rent
ĠRe g
H z
ĠJ o
N A
ĠDe l
pend icular
ĠS V
Ġcla ri
imodu lar
^{* }$
arg min
se g
ĠProper ty
trans form
Ġswit ching
ou ter
* -
b rac
Ġeff ectively
= {(
ĠHe isenberg
Ġ 90
M U
ĠG roup
cy c
tiv ation
Ġout line
Ġcontro ller
T F
Ġexperiment al
Ġspec ies
ta ne
Ġamb ient
], [
Ġconcentra ted
_+ $.
ma rtingale
B u
Ġreal izations
! $
}= {\
s est
Ã ¶
}{\ |
ĠR HS
}} )$.
z able
g c
Ġop tion
ĠĠĠĠĠĠĠĠĠĠĠĠĠĠĠĠ ĠĠĠĠĠĠ
Ġf ashion
Ġdete ct
Ġf ol
gtr sim
ĠEx t
C ON
=\ ;
Ġtrans lations
}} :
co mb
C ov
Ġclo ser
Ġjo ining
ta ils
Ġconven tional
\},\ {
Ġ )$,
ĠâĨ Ĵ
^{( -
main thm
Ġorth ogonality
N a
cross ing
Ġcompu tes
ĠMon te
Ġgra vi
{ }_
Ġc are
^{ |\
wo od
note q
Ġmultiplic ities
Ġre ducing
add plot
or age
^{\ ,
tiv istic
P G
ĠS tate
cap e
Ġanaly tically
Ġpack et
ĠRe al
tif ic
ention ed
{\ '
Ġq ed
ian s
ĠG orenstein
uni versal
ĠIn ter
Ġen ables
p ure
ĠS L
ĠN on
A v
Ġdig its
Ġband width
[- ]
Ġsem idefinite
R d
Ġsta tic
Ġnon local
No tation
cho ice
ĠCl ifford
Ġco herence
I J
Sp an
aa a
no v
Ġ ~~
19 95
Op tim
s D
Ġran ges
th rough
top ological
( *
C ur
bf u
}| =
w d
orem entioned
Ġanalog ously
] +\
O DE
Ġsucces sive
Ġ$| |
ĠM AT
u zz
og ene
ĠE ven
G C
ĠQu estion
Ġun like
Ġtriang ulated
Ġme ets
ire cted
mes h
A ss
Ġout puts
Ġcon served
} *{
col im
@ <
Ġres ource
ce ed
Ġco product
ĠK a
dynam ics
su mma
al d
ed ia
ĠN avier
Ġcalcula ting
Ġsimilar ity
ĠC om
\ }=\
Ġ tes
Ġsubs titute
)) -\
Ġsen sing
T ra
h k
^* )^
Ġclaim s
Ġcaus al
in o
ĠOb viously
nice frac
S Y
ĠD iffere
id is
Ġaddition ally
Ġcontinu ed
V I
Ġlocal ized
D t
Ġar chite
Ġvar ies
r ings
}, ~\
ens en
Ġsub manifolds
2 10
ch en
Ġ( (\
$\ ,
Ġapp arent
Ġsite s
}}\ |
Ġtru th
B ased
Ġcontradic ting
ĠBayes ian
Ġthem selves
Ġanten na
Ġh idden
W itten
ĠT op
H amiltonian
en ti
Ġg er
Ġful fill
s ymplectic
co homology
ĠA D
SE T
exp ec
Ġef for
Jaco bi
R A
t rees
| |_
sub s
Ġdifferenti ation
ĠW h
reg ion
r x
; \\
x s
}) }.
\\ &
Riemann ian
){ .
per turb
coe fficients
ok ing
T rans
Ġn a
Ġ ],
}_{\ {
Ġimpl ied
a q
Con vergence
k ind
Ġcomp arable
Ġbifur cation
ĠE s
Ġacceler ation
bys hev
Ġ\ ),
ĠG eneral
F e
: .
G roup
Ġarrange ment
Ġ )=
po lar
sem igroup
' }$,
o i
the y
ul tra
C ho
ĠN SF
Ġarri val
Ġmode led
gl s
t c
ier stra
Ġinsta nt
Ġf an
she af
Ġamb igu
Ġfunctor ial
Ġutil ity
Ġc rossed
Ġx y
net work
tran sla
cal E
)} }$
Ġno isy
tang ular
Ġaf orementioned
Ġgeneralization s
psp icture
d W
14 0
Ġloc ations
diff usion
G T
T ype
Fig ures
au tom
# \
ĠC SI
princip al
cur ves
lin ed
name ly
H ar
Ġdiff ers
'' }
htt p
W ang
b imodule
Ġs ti
}) ).
me as
ish er
cover ing
C s
Ġaverag ing
i ti
v n
La m
T t
Ġresi du
e k
Ġcan onically
Ġphenomen a
if e
tran sitive
â Ł
spect rum
n umerical
Ġf ac
F orm
determin ed
}$ }}
tur ns
Ġquad r
ps h
ĠD en
ad ditive
ĠCar lo
I ma
}) }(
h g
} '_
ĠR iesz
Ġatom ic
Ġimplicit ly
ĠRE AL
min ation
Ġhy brid
Ġsc ore
Ġpoly hedral
S te
ĠP h
)\ !
ir s
ĠF redholm
Ġstra tum
) )}{\
K R
Ġrefor mula
L U
f z
Ġexplo it
Ġsample d
H A
mid way
depend ing
Ġir rational
big sqcup
su it
Ġnon singular
Ġinitial ly
}\ ;\
Ġabs ence
B oth
q p
Ġex ec
Ġd atum
lef teq
se y
ĠAs sumptions
me m
=\ {(
Ġne gligible
Ġquadra ture
U M
Ġquick ly
Ġuni verse
)] ^
ĠU p
Ġfre qu
Ġthrough put
cons istent
@ {}
Ġquanti tative
Q P
ĠC M
}] =
par r
Ġimp lying
Ġco bordis
Ġconf usion
}). $
ĠPDE s
w itz
non linear
We yl
b K
) ^*\
O C
orien ted
Ġcu bes
yn man
re si
po lation
Ġrep orted
ĠNo etherian
ĠAs suming
b low
Ġper pendicular
Ġful filled
_ _
Ġoper ad
Ġobserv able
Ġinvestiga tion
B OO
Ġsubsta ntial
Ġre normal
de sc
Ġdis placement
T L
Ġd ra
Ġle d
app ear
ĠA SM
se mis
per mu
ĠRad on
T f
Ġbig ger
Ġcha mber
ĠH iggs
in n
s M
ind ic
f box
ð Ŀ
Ġn ested
}} ]\
ĠS DE
Ġdis continuous
Ġhyper geometric
+ +
Ġspin or
ĠT e
m ixed
kip edia
Ġmix ture
Ġw it
arpoon up
ca de
R D
ar gu
cal L
16 0
ĠB ol
ey words
Ġmark et
}} }^{
ĠG rant
Comp arison
ge odesic
Ġrequ iring
condition al
on ic
e w
Ġobserv ables
Ob viously
P F
Ġestablish ing
: \\
$ -\
Ġgener ically
Ġev idence
t A
Ġclo ck
Ġst orage
19 94
~$ (
Ġserv ice
+ +(
tr u
}(\ {
ĠH el
ss on
Ġdemonstra ted
ĠThe ir
3 60
x u
le ctive
nor ms
Ġ1 99
Ġa bb
equ i
ce d
Ġreplace ment
Ġpop ular
r h
character istic
ĠH amilton
deg ener
ĠR ham
va cy
ĠU SA
R L
As suming
25 6
Ġquanti f
Ġ ener
Ġcent re
Ġ }^
\, {\
Ġp ul
id x
anal ysis
ĠG ibbs
\, $
j unction
bi ased
Mat rix
Ġorig inally
Ġ3 6
ex ist
P GL
Ġwind ow
Ġadj ust
con clusion
Ġso on
m P
an a
Ġ4 5
Ġnumer ator
ta ges
ite ms
ill i
Ġclassif ied
24 0
F q
pro ve
l hd
Ġcon ic
Ġw est
ĠS eg
Ġta n
Ġderiv ations
enum i
cal e
land s
Ġcon servative
d S
Ġmultip liers
color ing
c en
F il
ĠD ec
ti a
T ime
rac le
Ġcommu tation
}} &
Ġh tt
up date
f ields
w f
ur ity
R W
Ġpre image
Ġdy adic
- {
gor ov
Ġobser ving
ori ta
ov l
_- ,
split ting
cu sp
var ieties
Ġout come
*} [
Ġdis connected
conver ges
gree k
. -
ĠLe ibniz
ĠC antor
Ġextreme ly
m E
Ġillustra tes
{\ |\
eng ing
H J
high er
s x
compon ents
co eff
Co mplex
A F
coordinate s
Ġear ly
Ġsp ir
Ġretur ns
ir k
ĠO nce
in variants
A m
velo pe
Ġmod ifications
Ġpoint ing
}/ {
ĠK lein
\ ^
Ġhyper graph
Ġsu p
Ġ6 4
Ġexplo re
ru e
ierstra ss
ua te
av g
out put
tri v
d bar
in ds
Ġman ip
Ġpropor tion
Ġre cipro
Ġvarian ts
Ġp anel
Ġjoint ly
Ġtherm odynam
$$ |
ĠB ob
ĠM an
H opf
cou pling
y x
\! +\!
Ġplot s
multip lication
Ġco s
Ġaugmen ted
Ġco oper
ot al
Ġ3 4
Ġd ic
Ġyield ing
Ġver ifies
w est
> -
re y
ĠLi ouville
Ġf ee
Ġsub algebras
Ġour selves
se arrow
}$ '
mid rule
> $
Ġcu mula
e b
\{ -
prop to
Ġprog ress
Mar kov
Ġvirt ue
^* =\
Ġram ified
en space
Ġro tations
C y
Ġsl ot
== ==
Ġre l
ĠF ano
lind rical
s yn
ĠV ar
pla cing
Ġn u
{\ {
Ġre dund
ec tives
Ġs end
t ures
Ġa da
}} .$$
Ġcou nts
x ag
B I
Ġsepara ting
ĠB ased
Ġs tyle
C ond
Ġinter tw
b xi
p ation
un if
Ġpass es
}] _{
Ġcode word
Ġchar ges
is er
st ret
] ^{-
Ġt rick
Ġsu mming
Ġ& \\
V ec
cal P
ĠFlo er
Ġp il
Ġ }\\
Ġcontribu te
action s
f it
H E
Ġsta tistic
v phantom
cha nging
ex pand
corresp ond
Ġa xi
Ġgravi tational
p z
As sumption
N D
ho le
Ġthere by
Ġover lap
pro tect
$ {
Ġ. \
Ġneighbor hoods
Ġp ort
' }{\
Ġconcer ns
\!\! \
Ġse es
ĠM L
quen cy
Ġdis t
$\ |
Ġne utr
Ġequ ally
d q
ull back
et al
Ġsub scheme
Ġper iods
righth arpoonup
Ġ, $
Res ults
| ^{-\
Ġgra dients
ol mo
at ter
ĠN P
A ff
] \,
H u
Ġsol iton
IN SEQ
Ġrestric ting
Ġmole cu
cur vature
s T
og ously
two head
\!\! \!
b ow
Ġa cknow
in er
Ġmon ic
Ġsupp osed
tt t
polynomial s
Ġrea ched
ch mark
Ġtheore tic
^{*} _{
on ed
val id
Ġsimpl ifies
\ })\
Ġcapt ure
Ġlear n
L b
ff er
{- }\
Ġillustra tion
Ġho mogen
t X
res olution
qed here
Ġhist ory
tw ist
Ġtemp oral
Ġstre am
^ !
ĠWe il
l v
et o
tri zation
10 5
D es
g w
when ever
{ +}
in duction
ca re
are a
Ġ[ ]
Ġrecur rent
Ġtran sitions
Ġasser tions
Ġfi brations
Ġri bbon
an e
ll ll
}| |
Ġstu ck
)}. $$
Ġfrac tions
Ġrescal ing
Ġchall enging
pr int
fib er
b ad
conjuga te
duci bility
O ver
ctor s
TH M
b al
}}$ -
cont rac
R ed
bb r
Ġext ract
Ġauto ma
ĠL inear
con tains
Ġen hance
p ow
ran e
V E
Y Y
ill en
} >\
in variance
Ġellip se
] }(\
ke wise
Ġfluct uations
ing ly
s al
cal F
ho p
small setminus
g oth
an ces
Ġiter ates
con cave
ub ert
s hip
Ġtran scend
^- _{
Ġmost ly
uni tary
ĠS a
O D
Ġo c
},\ ]
] )$.
sub ject
sta t
)| _{\
ĉĉĉĉ ĉĉ
ĠA ut
ĠA lice
och schild
Ġalgebro id
s N
ĠT rans
Ġcorre lations
Ġe valuating
ĠB ar
Ġ{ -
che t
ep litz
Ġplay ers
D a
estima tes
Ġo u
fi les
Ġ1 000
f erence
E u
ub ini
resp ect
] /(
Ġattract or
ĠA m
ĠTechn ology
)) +\
Ġconn ectivity
neighbor hood
] }$.
Ġ ,\\
pro x
i ence
i der
Ġb oot
Ġlink ed
)| _
Ġtra ffic
Ġne arest
inter sect
Ġgroup oids
A E
Ġen coded
function al
mogene ity
N T
' "
Ġs igma
y i
uc lear
Ġconf idence
omin us
ĠĠĠĠ ĉ
, #
s ource
e fficient
_{ <
th ods
Ġclust ering
Ġiter ate
Ġfail ure
ta rily
p ref
Ġi i
Ġv ice
Ġtra ditional
d A
text greek
B ra
in cluding
ill s
u su
) }}(
texts l
Ġda mp
ua ng
a gain
s z
ategor y
co lation
t L
e ither
Inte gra
13 0
Ġ@ >>>
Ġsubgraph s
Ġpolari zation
den oted
]{ }
AA A
Al gebra
Ġcur ved
Ġhom ological
Ġepim orphism
E G
comp osition
D B
Qu estion
Ġscalar s
restric ted
ign er
Ġintro duces
H am
}\ ,\,
r q
}^+ $
ĠCal c
BOO LE
Multi p
Str uct
bund les
ot ents
per fect
complex ity
tri m
ver batim
^{* *
Ġplace d
twohead rightarrow
] -\
trac ting
mer sion
onom ous
l ished
Ġtransp ose
po st
ac ute
Ġincre ased
G ener
Ġcur rents
}\ \[
A a
ĠEq uations
Ġc ustom
ou x
)^{ |
Ġtang ential
f undamental
| (\
fi bration
Ġagree ment
Ġsatura ted
ak i
Ġsur gery
re vi
ĠK ronecker
Ġun changed
Con jecture
Ġhe ad
Ġkeep ing
^+ _{\
Ġex a
Ġlinear ity
T W
] }{\
**** ****
f er
b j
Ġemp lo
Ġans atz
Diff ere
al ing
M ac
gra ding
den s
Ġcomputation ally
/ {\
19 93
SS S
ĠW hit
no align
Ġface ts
P oly
m C
set up
+ }\
)\ }\
Ġindivi duals
] (-
Ġde li
olmo gorov
olla ries
Ġrigid ity
ian ce
O MA
ob tain
Ġul timately
Ġregulari zed
Ġins ight
Ġthink ing
sche tz
Ġcommuta tivity
T ran
il nor
z b
d X
Ġre min
f rk
ĠSch warz
Ġspir it
path s
ti ght
Ġse man
An n
ti r
grow th
lus h
ces sible
err ing
Ġcurrent ly
Ġcha nged
V al
tal e
on ometric
Ġta ut
s B
_* ,
pro blems
lines kip
Ġs ound
h ref
tiv ated
iter ion
he at
cia tivity
y low
Ġ= -
}) },
Ġpossess es
Big gl
W i
Ġb ridge
N M
ve ction
Ġpower ful
ax ter
htt ps
)} :
q s
Ġb last
bb E
ival ent
col ored
t uples
Ġ3 7
ĠEn gineering
Ġada pt
v ate
^{- (\
ograph ic
Ġan isotropic
Ġingre dient
lap se
ote q
Ġsimpl ices
balance d
Ġto wer
^{ {
Ġ} =
st d
ga uge
Ġfin iteness
]= [
| ~
ĠS um
Ġasser ts
al ong
Ġcu ts
po p
r inf
Ex istence
Ġcon sumption
Ġ1 98
Ġno etherian
' >
\, |\,
ĠLegend re
j n
Ġ items
ĠRE WRITE
) `
Con v
ro bust
ud y
Ġev ident
Ġan om
T y
Ġ$( (
x ic
ti os
S ur
dis k
Ġtrans late
set ting
inter ior
Ġcommon ly
nd ard
Ġga mma
)\ }$,
I so
In v
&& &
}_{ (\
str ut
decor ate
p v
b as
Ġmedi um
}( (\
lf and
' )=\
be ha
la ble
)\ <
ua n
imp ro
Ġrec tangular
Sch midt
jp g
ĠMa in
el s
ar ding
} *
Ġs ensor
sta bil
Ġstructure d
h orizon
sche mes
Ġentangle ment
y ou
ĠS T
A H
Ġto ler
Ġput ting
cal R
scal ing
Ġpropa g
So bolev
' -\
on to
Ġremark able
Ġcondition ed
Ġclassif y
b I
x f
Ġout per
I ST
Ġover view
Ġcre ated
Ġoscil lat
Ġver sa
h fil
mat ch
S K
w in
Ġdifficul ties
lo ch
ub ble
ĠG raph
Ġx s
{ ,}
)$ ?
$$ {\
Ġsa w
f ront
mu n
ref f
sis tency
H ilb
ĠN at
d oteq
O nce
Ġrepresen table
ur witz
}^{ {\
ĠEq s
Ġcover age
S ystem
im es
y u
)$ ),
fig s
un iv
f schetz
Ġde cor
t H
ro se
F act
Ma the
ĠC S
ĠN AT
section s
tz mann
res ol
Ġidentif ies
ull er
' }_{
Ġs hock
Ġoscil lator
Z hang
Ġo racle
Theorem s
' +\
S ect
ty pes
rr r
Ġtil ing
Ġun imodular
}| }
) _+
Q R
aver age
b ij
}) =(
bf a
; $
{ }_{
Ġtable au
B l
en ing
^* }$
Ġsta tion
n big
Ġr ich
ian g
divis or
La bel
Ġpotential ly
in formation
ate st
Ġvol tage
$ "
cl i
Ġco tangent
Cont inu
Ġfair ly
asi bility
Ġh ermitian
ĠAd ditionally
Lag range
ic ies
Ġpositive ly
M V
h x
Ġf lo
ni k
Ġtrac es
ĠWi ener
Ġc ause
Ġf ile
}\, (
ic it
ĠS erre
ex tended
ĠMax well
q t
I mp
Ġpref ix
H il
ĠExample s
ar bitra
Ġsub tle
Ġ ^{(
E A
}{ *}{
d H
Ġrecor d
cc ur
ĠHa damard
Ġcohom ological
A SS
$, }
inter pre
stret ch
an ov
R B
ĠG o
ven ess
t k
Ġrescal ed
Ġrece ive
Ġdiffe omorphic
$ ''
ide l
] ]$
re cy
Ġ2 9
for th
ĠPhy sics
Ġp hi
^- (\
uni queness
Or der
the tic
Ġswit ch
w an
it o
ali tative
_ !
ĠB etti
co dim
Ġ4 8
differenti able
vers ally
Ġtra in
pa tive
pdf string
asser stein
@{ =
F c
b alpha
Ġen su
con tained
Ġa ir
ĠTh roughout
\ }_{\
Ġg erm
ĠA b
Ġcorre lated
Ġbeha ves
r up
or pdfstring
tex orpdfstring
m L
lo mb
C u
om y
Ġexten sively
b la
Ġfib res
ĠR ob
ar ity
Ġstra ta
Ġrelax ed
or ds
\| (
Ġsha dow
Ġme rely
= [\
Ġref ere
S ig
ver age
Ġconject ures
\}. $
ha se
order ing
Ġlabel ing
ful ly
Big gr
lefteq n
Ġsui tably
N F
Cla ssi
sym m
Ġnonlinear ity
p ancy
Ġcategor ical
eff ective
Ġparameter ized
Ġcar tesian
O L
L ine
ĠA P
| }$
^{\ #
ĠChe byshev
Ġover come
^* }(
+ [
Ġbran ched
Ġreal ize
table of
, [\
rec tangle
Set ting
Ġgeometric al
l j
ens tein
Ġper forms
co pe
' }^{
ĠK oszul
Ġis otropy
st re
Ġk inds
D irac
as sump
; \,
ta c
Ġv an
}} )$,
tableof contents
sta ge
Ġrela tes
C hen
R H
) }),
jo in
Ġho mo
Ġbeam forming
os en
ri ds
Ġa part
Ġshor ten
$- $\
ĠOp tim
Ġop tions
r iting
Ġc au
ĠT M
Ġpoly hedron
ĠD es
] )=
))$ $
Ġin jectivity
ĠH an
ĠK u
Ġelectron s
F l
i di
Ġsu sp
Ġmaxim ize
) _{(
Ġsmooth ly
Ġfrequ ently
Ġface t
ittle wood
Ġstack s
W here
in ver
tabular newline
re ma
ough ly
e ast
'' (\
exp ect
exp ression
j h
be ds
tane ous
S em
ho mo
G rad
~\ (
and au
ĠĠĠĠĠĠĠĠĠĠĠĠĠĠĠĠ ĠĠĠĠĠĠĠĠĠ
Ġintegra ted
en o
ĠS hi
m orphisms
Ġn otes
Acknow ledgments
Ġram ification
}( {
table au
flu x
| )\
)} |\
B x
l not
Ġimpro ves
s ystems
Ġsee k
in care
ĠĠĠĠĠĠ ĠĊ
Ġdev ices
ĠM ac
ĉĉĉĉ Ċ
Ġcheck s
)) _
^- ,
f lush
$$ (\
|\ ;
13 2
in sta
cl in
ĠDe f
Ġres ources
d P
mon otone
}{ }{
Ġmultip lied
ĠP lan
app ing
unit length
Ġminim izers
ot omic
x a
cal B
[ ]{
Ġex position
Ġcheck ing
ĠD MS
)) "
Ġformula tions
ni kov
f olds
19 92
k b
} ',
me tis
}}{ |
show s
j math
$ }\\
E ven
Ġintui tive
ĠM ay
Ġreach es
f X
Ġhy dro
Ġadd ressed
Ġb asically
Ġser ver
f int
A K
Ġnor med
triang ler
L m
Ġ= -\
ĠG u
@ \
Ġinter acting
Ġsing leton
Ġcomp e
ĠI d
if ert
Ġr ng
le ma
Ġn uclear
Ġwe dge
R edu
ee b
ĠS ha
= (-
p ush
f S
Ġfore st
E instein
necess ary
)} [
v o
Ġsub script
Ġ= >
Ġtrans lates
ĠSub set
turns tile
ĠP ri
) ^*$
g A
Ġrela ting
st u
Ġne f
Ġmonoton ically
cise ly
inter cal
v atures
Ġener gies
C Y
f aces
č Ċ
Ġy es
f ess
_* ^
Ġas king
.. .\
ĠFe ynman
Ġinc idence
ro man
}{ #
tri zable
c lock
Ġsh aring
ator y
Ġreflection s
Ġconf used
C ent
âŁ ©
}) --
$ }{
T w
dis tingu
p k
Ġprocedu res
r z
Ġcongru ent
D ata
Ġsugges tions
tic ity
Ġ\ >
ĠD ynkin
Ġc ame
R i
ho st
lic ate
ex am
\| =
Ġen jo
Ġcent ers
g k
ĠS P
ĠA u
Ġun countable
J ac
j s
Ġabb revi
D N
lo ad
m ical
simpl icial
B asic
F a
S eg
ĠB V
m h
w u
B ack
hi ps
Ġimplic ations
le igh
Ġconven tions
Ġ= :
imodu les
z u
Ġobsta cle
ĠBe fore
gaus sian
Ġexpla ins
Ġund irected
Ġw an
Ġboot strap
Ġupda tes
Ġsent ence
or tant
ĠS tar
b Sigma
Ġminim ality
ĠDel igne
Ġexhi bits
Ġmul tic
F K
O A
Ġmini max
] }$,
Ġhe xag
f tarrow
ĠC W
} &=&
)} )$.
f an
he l
dots b
Ġser ve
Ġadmit ting
ĠK ac
Ġtan gle
int roduction
Ġfill ing
e h
&= -\
anal og
Ġen velop
comple ment
e lementary
act s
ime ter
Ġe ight
Ga m
ĠF ubini
19 91
de sign
Ġlim i
side s
weigh ts
ord in
New ton
finite ly
rep res
Ġdisper sion
is ha
Ġper colation
Ġref lected
11 5
Ġequilibri a
ĠCon t
U T
triangler ight
ĠUniver sit
ga ard
}' (\
I Z
res sing
cccc c
Ġpack ing
uff le
$$ \|
}^* (\
Ġ3 1
e ig
Ġin homogeneous
to day
sub space
Ġfe wer
Ġcareful ly
O o
Es tima
^{ +\
Ġdec ide
ĠGal erkin
Ġdou bly
ĠAlex ander
Ġappropriate ly
R m
dynam ic
ĠLegend rian
Ġde formed
ere lliptic
}) ),
Ġcomp r
Ġga ins
Ġ\{ -
simp s
Ġincomp ressible
Ġfam ous
di tivity
. }.
Ġquatern ion
M odu
Ġ8 0
s kew
Ġhel ps
ho me
c frac
Ġc s
S q
ab or
) ~\
Ġdi lation
& $\
um ford
Ġsyste matic
Ġgraph ical
ci ate
E H
de v
B Q
12 1
pre lim
Ġorien tations
S tra
Ġcol imits
K h
M c
Ġtherm al
ex cept
ĠHy pothesis
s S
b phi
'' _{
multi ple
Ġt en
[- ,
later al
Ġo ld
Ġautom orphic
u ri
xx x
b nd
~ ~\
\{ |
Ġcomp ositions
Ġ\( (
: {\
he t
Ġa de
E F
log arith
Ġch iral
sta tic
re main
tri ple
Dec omp
ge om
Ġ[ -\
O therwise
a w
black square
ĠV ol
Ġwit ness
Ġelim inate
] &\
c tible
Ġ`` $
U B
mb rane
pa ges
ĠR F
bur g
Ġmay be
p ing
ogene ous
OIU Y
la tive
Ġcancel lation
til ity
i q
Ġâ Ł
ator ial
Ġpri vacy
l z
separa ble
Ġdevi ations
ge o
han non
Ġb imodule
Ġsection al
us z
Ġpredic ted
long leftrightarrow
Ġ }$.
ent ry
ĠTh m
L d
P lan
Proof s
ĠB ur
Ġlinear ization
Ġsp read
Ġco sets
cou pled
ĠFig ures
L at
p ass
Ġf li
Ġh er
U C
ord on
B anach
Ġproj ected
satisf y
For mula
R ad
Ġcy lindrical
Ġt uples
Ġt ube
Ġ| _{
o pp
Ġna ive
qq qq
), (\
alu e
stra nd
ĠBer nstein
Ġqu alitative
olog ically
Ġsemis table
Ġpers istence
D b
Ġde l
33 3
Ġp in
Ġ3 3
Cla ss
Ġs ink
10 2
ak er
Ġoccur ring
Ġign ore
Ġde als
co inc
{ $(
âĢ ĵ
p ot
Ġenumer ation
> .
sub module
ode s
$}} ;
Ġclo sest
Ġsha red
cer ning
pgf xy
g v
Ġpor tion
B un
}\ ;\;
}^{ *}\
19 90
ma pping
Ġch arg
]{. /
)] $.
Ġsta y
rou ble
Ġpol icies
Ġsta ting
Sp ect
g x
Ġelectro magnetic
Ġtrig onometric
ge ometry
matic a
sub st
S tein
De fin
)| $.
Ġminim izes
Ġfig ures
}=\ {\
> _
Ġgre atest
C lo
ĠH ochschild
Car tan
Ġcobordis m
Ġadop ted
F u
d yn
P b
il son
cha ins
Ġ\! \!
fre quency
Ġupda ted
am ming
ĠSch wartz
var ying
the ir
ĠFor mula
Ġext rac
ach ing
Ġsimultane ous
= }\
ĠC how
ia ted
und efined
Ġclassif ying
}| _
ĠLa x
Ġtext book
Ġexec u
ĠC hen
cha pter
T ate
Ġben chmark
Ġschedu ling
C auchy
$ ^{
ri p
Ġelimin ation
Ġrecon struct
to chastic
col sep
Ġgreat ly
) ).$$
Ġdev ice
trans formation
Ġal one
no i
$ [\
}) >
ĠInt roduction
) ?
S DE
Ġ$- $
st ro
mo s
RE WRITE
dis cre
' ;
text qu
ste alth
ee e
Ġfl ip
tic ing
Bo ok
| }{|
ut ine
E e
y e
00 5
H at
Ġ. \]
tir ling
&= (
s frac
Ġmodu lation
P c
res sive
Ġsecond ary
g ot
Ġbo dies
}} ),
Ġch romatic
Ġrapid ly
Ġho les
Ġ }_
Ġcode words
Ġtran si
Ġperfect ly
W ave
Ġexp en
para bolic
] $$
Ġsimula ted
di tary
$ =
ib ility
Con struction
Ġaverag ed
Ġcombinator ics
ever al
Ġreal s
: -
ec ti
bra id
is ms
is enstein
ĠHamiltonian s
rinf eld
up ut
^* )$.
Ġen able
ĠM as
Ġ$ }
m H
Ġres is
ĠMe an
Ġrandom ness
Ġcondu c
n umer
Ġtable aux
ance l
Ġdomin ating
Ġchar ts
ti mum
},\ ,\
Ġdecomp oses
Ġs top
&& +\
Err or
Ġmesh es
ay leigh
Ġpack ets
)$ \\
Ġrectangle s
Ġdissi pation
_{\ !
ĠH all
}) )$.
Ġl ifted
P W
proj lim
j b
ĠA cknow
ĠĠĠĠĠĠĠĠĠĠĠĠĠĠĠĠ ĠĠĠĠĠĠĠĠĠĠĠ
Ġac qu
ĠApp ro
R O
Ġt rouble
Ġra tios
S z
Ġs in
)! }\
h c
= ~
^{ [\
cal G
array stretch
Ġem beds
Ġga ps
ĠSet ting
der s
= |\
ip e
let ter
Ġrobust ness
f alse
. "
{} &
Univer sity
cent ric
B b
para tion
Col or
^* +
Ġa ut
Ġcol imit
Ġtopolog ies
par s
}} }(\
ĠA re
Ġambigu ity
Ġs w
-\ {
app end
bra ted
ĠClassi fication
d F
ĠComp ute
$ ]{
r me
la tex
Ġ$$ (
commu ta
@/ ^
Ġfor th
Ġ& $\
La place
tic k
Ġcur vatures
Ġ Ã
l g
Ġplot ted
ĠBes ides
cal T
C Z
b dd
L c
r H
Ġrepeated ly
S n
Ġdri ven
con ven
F robenius
c q
}\ \\
Ġmotiv ic
ab a
h text
Ġmoder n
tri zed
plan ar
_- (\
Ġpen cil
L ower
con struct
N LS
y d
la ss
Ġprincip les
Ġexpand ed
B axter
Ġp t
Ġis otopic
ps circle
Ġde t
ĠH ermite
Ġ`` $\
Ġtable s
pha nt
v d
bf v
Ġconcaten ation
s V
w b
ĠA ctually
y b
Ġ ''
Ġexten sive
ĠM orita
},\ ;
AB C
u y
Ġreve al
Ġb ubble
Ġse ed
Ġcomp ens
W F
] }}
Ġtask s
Ġwan ted
Ġanalog ues
Ġbeha ve
Fin ite
ic a
Ġzero es
Ġmatch es
Ġsuffic e
ric hed
Ġexpec tations
17 0
B en
ob ius
Ġdistribu tional
Ġend ing
P V
Ed it
ĠS I
D im
degener acy
Ġstabil ization
ĠB ru
U pper
dis p
ĠUn fortunately
Ġregard less
A W
h phantom
Ġver ification
ida tion
L D
] /
convex ity
Ġgrow ing
ĠU E
Ġ$\ ,\
ĠW ang
ĠĠĠĠĠĠĠĠĠĠĠĠĠĠĠĠ ĠĠĠĠĠĠĠĠĠĠĠĠ
Ġdisplay ed
po ch
Ġarchite cture
ĠA B
12 4
' }_
end proof
us es
product s
Ġslow ly
10 8
round ed
^+ }\
ol s
fact ors
)$ );
number s
Ġexa min
\{ -\
T D
Ġlog ical
J S
A X
ag ed
squa res
e uler
Es timate
^{+ }
Ġ} ;
" )
Ġbre vity
E nt
h old
k f
$ }]
& {\
Ġen coder
* )
si te
Ġlea ving
d int
D ual
ĠWe ierstrass
Ġ@ >
Su c
Ġmon o
men tation
dire cted
}} }_{
ĠS pa
par box
)}) ^
Ġcusp idal
Ġeffor t
Ġs lic
}} &\
ou red
R u
)= [
Ġax es
le gend
han nel
I ts
14 4
) }^{(
Ġamplitude s
E m
k G
Ġcho se
Ġdeca ys
z ag
Ġle xic
Ġdis covered
Ġph oton
~ }
Ġmo tions
_{ _{
Ġreg ret
thin space
ĠEqu ivalently
Ġmu lt
Ġend omorphisms
clin ic
ĠMe thod
p as
X iv
i ro
Ġpay off
E nergy
[ |
] ].
ĠP et
ĠDe hn
Ġ( #
Y M
in omial
ĠI RS
ĠPol ish
Ġar tif
equ alities
ti bility
ĠS ing
Ġex haus
i tary
)= |
bra ket
Ġe ast
)$. \\
Î »
re size
Ġ> \
Ġout comes
Ġrestric tive
con figura
no sov
ins ler
Ġem er
Ġaver ages
Ġrandom ized
)) |
P U
}}\ |\
Ġ+ (-
pair s
Ġd ay
We ak
resize box
n v
ĠL ang
n rm
Ġme t
oted bl
textqu otedbl
Ġreve als
ic i
A i
gen us
separa ted
Ġnotice d
})-- (\
) }},
D H
dx dy
< <
Ġ4 7
ĠGrassmann ian
an cial
Ġquar tic
) }^\
ilibri um
in clusion
ĠJ ensen
p redic
Ġcommun ications
Ġdescri p
Ġcumula tive
a ccording
j x
}} )=
ĠC A
Ġ= \{
Ġinde termin
Ġidemp otents
Ġpropo sitions
Ġsuccessful ly
at om
2 25
Z ero
Ġrever sible
g z
] }_{
with in
Ġsha pes
Ġ& (
fin d
_{+ }
Ġ 75
}, -
Ġoccur rence
ĠH ee
Ġbra ided
Ġ1 97
Ġexce ption
ca vity
Ġprox imal
ĠY es
on ent
Ġmaxim ization
' }=
S k
Ġ= =>
defin es
)-- ++(
Ġplay ed
}) |\
Ġa ware
ĠN et
diff e
M W
ref eq
Ġoptim ized
Ġdig it
ĠP ick
norm alf
o sc
ĠL P
Ġl ens
Ġequ ip
ir y
Ġrep ort
Ġpo sed
con centra
Ġdesi rable
Ġdraw ing
Ġdi hedral
v q
mu t
fib rant
node s
reg ulari
ĠT ho
Ġtw ists
state ment
Ġmechan ical
}). \
du c
Ġma ster
\\ [-
pre tty
Ġalgorithm ic
\ },\\
f A
Ch ar
F ree
ĠS m
H ess
hol tz
Ġquad ric
(\ {\
Ġ= &\
R an
... ,\
Ġmass es
}] }
f M
bb N
}] .
fess or
corre lation
Ġ5 3
urst on
normalf ont
base lineskip
ĠF ock
T est
Ġc ub
ĠS pace
Ġgre edy
Ġsen sitivity
C Q
Ġobser ver
Ġcu toff
Let ting
ma tr
}, (
bel ong
M B
ĠM any
E v
}^ +(
ĠM SE
Ġsuper algebra
Ġradi ation
ĠE nd
)| }
Ġpartition ed
Ġsec recy
ĠH int
Ġan chor
distribu ted
ĠâĪ Ī
Ġingre dients
O c
Ġval ua
t T
Me an
Ġf its
Ġmin ima
Ġb irth
Ġ7 0
ka i
proof s
/ {
ur l
mon oid
Ġrear range
di vergence
Ġname d
ou se
Ġ })
Ġper son
Ġbro ken
u ro
M i
sub algebra
box ed
Ġjus tified
Ġat tains
Ġderiv ing
H ermitian
[ {
âĤ ģ
Ġn at
R U
}{ =}
Ġstra tification
Ġsur v
Ġen velope
ĠCo mplex
mean s
Ġ4 6
n j
sh or
N amely
19 88
Ġne ur
tif ying
strict ly
ea rance
, |\
}} [\
Ġge ometries
s equences
le ts
}\ },
ĠN ash
Ġmon oids
Ġbo o
< |
sta ction
Ġlo st
igh ted
Ġnotation al
phy sical
tur n
asso ciative
Z p
r in
Ġdou bling
H W
lu gging
Ġinsta bility
Ġhe avy
m D
Ġb ary
Ha usdorff
\ }}(
Ġdiscre pancy
u f
Ġpro files
Ġc at
mat ter
ui tively
Ġc er
ĠU ni
F f
}), $
S how
ic o
j m
ra s
cont raction
_{ _
ĠPr incip
y ah
ĠQua ntum
Ġ\ /
k d
Ġprog ression
y ields
ĠSe ifert
I den
T s
C ou
T c
ie gel
< +\
Ġanaly zing
contra dic
Ġ| (
resp onding
I ter
] )$,
N ot
] .$$
m M
Ġmin ors
Ġcha nce
ns on
Ġquanti zed
~ {\
pla ys
w ang
Ġsub matrix
As ymptotic
Ġo pacity
Ġaccording ly
clock wise
ib on
Ġp p
p de
Ġ\ }}
Ġco kernel
Ġdom inates
ĠSch ubert
Ġsymbol ic
Ġmu tation
Ġeval uations
ca pacity
ĠTo eplitz
Ġclassi c
Ġne gle
Ġcollection s
bd ry
u pp
tri b
Dia mond
Ġde p
ymme try
Ġas ymmetric
00 2
s pherical
mu st
it ons
ind ices
=\ |
)\ ).
}{ *
G g
}$ ?
al ph
Ġ4 2
le ad
In itial
la pping
)= (-
triang ular
Ġcondu ctor
Su mma
au g
}}{ {\
eigen values
am alg
Pa th
Ġ\,\ ,\,
C U
Ġcon formally
acc i
Ġdense ly
ĠE lect
Ġpre tty
ser ve
sha ped
Ġ\ ,\,\
19 89
end aligned
k g
} ]{
| +|\
Ġcharacter izes
Ġnow here
co ker
Ġexp lor
moment um
ou nce
Ġ Gamma
la stic
ran ts
ĠT ate
ĠK an
u h
Ġiner tia
p rf
Ġsub complex
Gaus s
b ru
Ġs pi
Ġpat ch
G O
f ound
object s
tribu ted
x e
Ġneutr al
Ġs na
re q
_- ^
Ġse ven
Ġb ring
H igh
Ġ< >
Li u
co arse
ĠW ill
ĠCont inu
0000 0000
T HEN
p g
ĠU se
fill color
g G
count ing
Ġt alk
ĠRec ently
Ġ$| |\
Ġstreng then
, &\
conne ct
e lect
appro ach
adap tive
rest r
at ou
da m
ĠI sing
)=\ {\
j e
Ġ- (\
pretty ref
T ho
ĠBol tzmann
Ġexplo iting
Ġela bor
S N
_{\ ,
Ġun certain
Ġmultip les
display break
phant ine
Ġblow up
ov ich
T hank
|, |
i res
ĠL u
ĠK er
Ġin coming
B orel
Co mple
transp ose
R K
Ġl ife
ĠLa w
ĠZ hang
z p
Ġsta ys
cha ble
}} }.
Ġdis cs
dis tinct
eigen value
f x
Ġad vers
Ġvirt ually
be ck
Ġout going
u man
ĠS DP
Ġâ Ħ
Ġcontrac ting
Put ting
p ub
}- {\
Ġop timum
Ġconstru ctive
c it
Ġdiscreti zed
N b
Ind ex
Ġ6 5
Ġanti symmetric
Ġdetermin ants
ĠB C
ĠMulti p
D ist
Ġdesc end
F ind
ĠE rd
sc at
approxima te
I E
ĠIn equality
$ ):
l st
as sum
Ġb atch
con sistency
La placian
ps dots
)) ^\
or on
)] =
lear ning
p w
en ta
ĠS E
var projlim
bb Q
c as
Ġtil ting
ĠH o
Ġ\; .
Ġlear ned
Ġp l
ĠLe fschetz
Ġtriang ulations
Recall ing
P Q
ida tes
b ile
Ġfoli ations
re nces
la bility
Ġpil ot
Comp u
M ills
q r
Ġneighb our
b an
olu tive
Ġman age
_+ )$
val ent
is ations
ula ting
R ight
S B
}( |\
}$. \\
ĠMo st
t G
Ġvor tex
}. ..
ik i
me l
âĤ Ĥ
Y ang
rang ing
F E
h v
) _*
Ġres olutions
Ġcontribu tes
b rk
Ġbe ta
Ġdis continuity
bb b
:= (\
:\ ;
0 11
us cript
We il
Ġinsta n
rang ed
Ġpolyg ons
g L
Ġs cope
ĠS ylow
ĠF UNCT
Ġbook s
}} )^{
0 10
F p
con str
Ġdata sets
cep tional
Ġfee l
Ġcau sed
is ometry
qu id
d ra
ĠO ther
Ġwave let
Ġsoft ware
ro ots
ne arrow
de kind
' ).
Ġ\, =\,
Ġta ck
\ ;\;
q w
su c
ĠEs tima
) }^{-
K n
ev ent
Ġ/ /
in son
Ġ$ &$
mon oton
ĠB i
ĠR am
P B
Ġ[- >]
Ġre li
di ver
U V
Ġcylinder s
vari ation
Ġpa rent
H O
Dia g
m T
Ġcomp re
Ġ{ {{\
Ġgen e
t R
Ġwe b
ĠR eeb
Ġconnect s
Ġnorm ally
Ġcentral izer
Ġdegener acy
S pa
Ġpunct ured
ich m
Ġproceed s
Conclusion s
ron wall
be ing
Ġcut ting
Ġtransitive ly
Ġco chain
Proper ties
L W
ĠF orm
Ġwonder ing
D irichlet
}_ -
ĠO F
ma ti
co very
12 2
Ġ }$,
Comp aring
B or
O perator
F B
u g
Ġsol vers
Pa rameter
Ġquatern ionic
chan ges
Ġform ing
classi fication
d ou
ĠB ell
}^* _
ĠF re
m X
m Z
Ġe ase
O ther
)$ --
Ġout lined
ĠSub ject
S eq
d al
' <
\, (\
Ġmacro scopic
Ġresidu es
Ġd ura
Ġme mbrane
Ġchallen ge
j ust
Ġcomple ting
Ġre tri
b dy
Ġin d
}\ |^{
Ġelse where
con c
ĠQu illen
in stead
: $\
}} ).
Ġfract al
en sus
ĠĠĠĠĠĠĠĠĠĠĠĠĠĠĠĠ ĠĠĠĠĠĠĠĠĠĠ
Ġ Â
Ġ} =\
Ġlink ing
Ġanti po
im g
*} {\
b idden
Ġrela tivistic
Ġco sm
Ġhome omorphisms
Ġadvan tages
irk hoff
Ġjus tify
Ġl ists
Ġin verses
integer s
Sub set
us s
ric tion
cur sion
Ġou tage
re ver
_{ ,
ar th
fill style
stand ing
Rec ently
H c
ĠR IS
^+ )
Ġfor mation
iv ity
)) )\
i et
S equence
defin able
),\ ;
^- }
Ġmeaning ful
Ġshor ter
sp l
Ha ving
& :=
' |\
Ġcirc um
2 20
ms f
n R
er man
v g
on i
,\ ;\
Ġmathema tically
A f
Hy p
Ġin iti
_+ )
Ġsec onds
graph y
Der iv
ĠCou lomb
ĠT y
> }
Ġd V
Ġco ded
xima tion
Lag rangian
ĠBra uer
en tific
ĠY our
Ġrota ting
V a
m j
ĠC N
CC C
compu tation
d ark
is ometric
ĠR andom
Ġ, $$
Ġmon omorphism
Ġadap tation
H i
Ġra tion
}\ }.
ĠG ram
Ġbar rier
s R
ers on
commu te
S el
> *{
11 11
Ġd ots
ĠM ate
] })
Ġsimpl ification
Ġsub mersion
Ġchild ren
cha p
N ormal
Ġquad ri
Ma th
line break
al ga
} ')
ĠDe fin
t q
ĉĉ Ġ
Ġto ward
titu de
Ġreduction s
pro po
)+ (\
P et
w ing
iv ita
sp ite
)}\ |
gener ating
le ast
i A
ĠS INR
stra te
conver ted
deriv atives
Ġmolecu les
)] ,
( #
y th
col our
modu lo
ub ular
}) /\
po ssible
ĠHee gaard
' })$
Ġh im
arbitra ry
Ġext ent
hol der
Ne umann
)* {\
Ġser ves
gg ed
n q
ĠNet work
ĠK olmogorov
Ġperiod icity
Ġ\| _\
Ġrece ivers
bo la
s qu
as se
}_{ -\
domain s
F i
der ived
V c
usz tig
th ird
ĠR ayleigh
Ġtw isting
s K
{ [\
interval s
ĠR L
Ġab ility
con sta
Ġvelo cities
X u
du ally
19 87
ga ted
inter text
Ġex it
R ob
Ġg lue
ti yah
allow break
/ |
E st
Ġproject or
Ġoscil lations
Ġsub tree
g ic
Ġemplo ying
ĠGe lfand
12 6
ĠU AV
B MO
N p
N umber
de q
Ġn arrow
Ġche mical
equ als
}\ ).
comp ute
Ġdown link
j es
B re
}) _\
ĠN a
Ġpla te
Ġsemic ontinuous
$ )}
Ġpack age
Ġmonoton ic
v matrix
ob servation
in finity
M any
arb oux
xy z
Ġdiver ges
Ġsome how
cell color
ne ed
^+ )$
Spec ifically
La st
Ġen coun
B c
on a
tro p
Ġreader s
Ġsta ges
eter min
ĠSta tistics
ĠL DP
ĠP DF
Ġcol lapse
dx dt
Ġdid n
14 5
ire ct
ĠCon vergence
Ġframe d
{\ "
Ġcon vert
F rac
au er
Ġb ialgebra
] .$
Ġspecial ization
Ġexper ience
Ġtes ted
ĠL og
Ġdesign s
inj lim
lo s
Ġtranscend ental
on ym
ĠInte gra
Ġ$ +\
ĠF alse
Ġiterative ly
Ġtoler ance
en cies
ĠLet ting
Ġd W
um es
ĠA x
Ġferm ionic
la nder
)}\ ,\
\ }^{\
Ġco erc
io phantine
{( }
Cha p
Optim al
D V
le a
x iv
z o
ĠT rue
Ġequ idis
Ġfil ters
be st
In f
Ġmethod ology
Ġ} ,\
Ġ\| (
k v
Ġfin ancial
DI T
Ġho ok
op n
bed ding
)) ;
] ).
@{- >}[
Ġrenormal ization
tra tions
u w
ĠMat rix
| >\
per ime
Ġknow ing
wr itten
z t
s atura
ĠD av
Ġmaxim izing
t re
Po incar
S Q
Ġreson ance
V e
Ġassign s
ĠT ime
Ġso cial
n il
as sign
Ġdirection al
Ġdemonstra tes
*} (\
Ġ} _{\
Ġex ci
p red
con tact
Ġun biased
Ġradi i
ec het
Pri mary
Ġopp osed
a mp
ĠCar tier
Ġinv olutions
ĠH urwitz
se lect
pri m
+ }$
Ġn eces
g H
m holtz
Ġmean t
Ġto ok
Ġgover ned
G lobal
su lta
pro g
Ġinser t
min or
ĠCP U
zz o
@{= }[
p rt
abs olu
ĠC ur
equival ently
Ġmedi an
In stead
Ġcycl otomic
ĠG ener
conver gent
e i
st en
Ġ3 8
a wa
ĠL at
ĠT ra
Ġst ored
) }).
d der
ledge ment
Ġconfir m
Ġ\ }\
Ġsepara tes
Ġassoci ation
ĠLorentz ian
Ġshe ar
Ġcommun ity
Ġt s
Ġspan s
K G
ĠBe the
ir ch
}| |\
Ġin correct
)}{ (\
Do es
Ġreco vers
g ant
ĠS im
cu sed
Ġcolla ps
adap ted
Ġpo s
Ġaccu mulation
K N
Ġco fibrant
}) }^
Ġphysical ly
Ġth m
Ġver ifying
- .
ĠS ystem
Ġoptim ize
gener ator
Ġdamp ing
sp eed
ĠĠĠĠĠĠĠĠĠĠĠĠĠĠĠĠ ĠĠĠĠĠĠĠĠĠĠĠĠĠĠĠ
H N
ĠS ystems
Ġ| [
pages tyle
ĠR us
Ġapp earance
Ġis ogen
Ġ ;\
bab il
a xiom
}} )^
un k
| )^{
an sive
tin ction
)\ }.
âĢ Ŀ
Ġh itting
Ġimmer sed
B ur
L Y
f at
ĠâŁ ¨
A cal
bb x
Ġcontrac tions
l brakk
r brakk
ca ti
ul ty
triangle left
Ġforce d
}}{ (\
ĠE isenstein
ĠD ia
gaus s
Ġ tau
Ġp iv
6 00
E uclidean
Ġas semb
Ġclari fy
var injlim
T ree
Ġreg imes
argu ment
Ġcondition ing
10 4
integra tion
O W
U L
C ivita
b bf
}/ {\
frac tional
ĠIn formation
C X
ĠS tra
R andom
Ġeigen space
ĠMAT CH
G c
ach ie
inver tible
}+ {\
Ġpri vate
s keleton
ill er
^+ _\
Ġup link
tag on
ĠC ON
{ ~
ilton ian
li que
R ank
R et
like lihood
RE S
Ġre member
^{\ {
Ġc up
A dd
bin ary
| )$
origin al
es tabl
Ġexce ll
Ġtetra hedron
Ġcon texts
'' $.
our nal
19 0
pri mitive
Ġdissi pative
itch in
}} )}
ĠS chool
}/ (
T B
ri l
ĠS che
P p
ext ra
Ġin stru
top rule
Ġstre t
ta king
ĠL HS
sim ir
D av
per m
Ġ$( $
s ph
ĠD er
Ġir regular
Ġnumer ous
Ġsignific ance
Ġdiver sity
_* )
&& +
Ġdifferenti ability
Sp lit
10 3
bi linear
g ro
Ġta ils
Ġdele ting
. ~$
l ma
-\ !\
)| |
Ġwor se
@{ }}
Ġt ension
tor ic
Ġtemp ered
" };
H R
H Y
@ <-
ĠF insler
big triangle
M et
an i
id ently
Ġbre aking
Ġ )(
}) ,\\
Ġrigor ously
G ordon
}} (-
)( .
Ġhigh l
Ġph ra
Ver tex
Ġcho oses
sk ii
ce du
Ġfi bered
block s
insta nce
22 2
T au
ed er
Ġ& &&
ĠS i
och romatic
Ġthermodynam ic
Ġ* )
multiplic ative
I A
ĠB en
Ġf und
at s
Ġcoun ted
Ġ4 3
rm i
... +
Ġband s
> *
sical ly
A ctually
w k
D et
}_+ $
@{ --
K i
e mb
Ġpub lished
ĠW asserstein
Ġhyp erelliptic
ĠM ilnor
J M
v ised
Ġtransi ent
Ġin complete
Ġ- .
cr iterion
T an
K r
}+\ |
@/ _
Ġview point
illi ard
Ġdevelop ing
ĠA C
pro ved
Ġselect ing
$ ~\
): =\{
13 4
)} )$,
Ġun ivariate
G V
Ġd f
}} /
Ġexplo red
* }(
ĠS k
sa mpling
Z F
Ġcha otic
Ġman uscript
Ġconjuga tes
ĠN one
Ġst ore
per s
Ġcaus es
i bration
ri ers
qu ot
Ġen code
u ts
er ve
factor ization
ĠF rance
Ġcusp s
b nu
^- $.
adj acent
perime tric
val ley
' }}\
p M
Ġpro mis
u ine
Ġfe asibility
Ġe con
if th
a de
Ġcons titute
|- |
}~ (
ext end
ĠCon struction
Ġreflect s
he el
po staction
Ġ}$ \
A bs
gen ces
Ġtrac table
as suming
* #
Pro duct
Con f
Ġsector s
\; .
Z h
Ġac tivation
Ġlon gest
Q p
con sidered
Ġdifferent ly
K w
Ġro utine
w ered
} &=&\
] ),
m z
ĠFirst ly
tx t
Ġman if
Ġshe ll
Ġaff ected
Ġb as
ab out
isha ble
Ġforget ful
g lu
~ ,
Ġimp osing
Ġtrivial ization
X cal
ue l
know ns
erg man
ibon acci
al though
PP P
m F
Consider ing
MI MO
presen tation
q h
ĠComp uter
autom orphism
item sep
imp ly
Ġflexi ble
q c
Be low
psi ze
^{+ }(
ĠâĢ ľ
le ading
* ,
c ular
ĠC e
esp ite
le g
uck er
H ecke
ĠH en
23 4
Ġexclude d
ch ine
fa ult
erg ing
tif iable
w v
on ov
ich ot
' [
T U
W hy
Ġro tate
F o
Ġco algebra
ĠCh ris
q x
)- (\
eq s
main theorem
T u
Ġde spite
\}, $$
E l
os eness
Ġsci ence
D c
equ ential
Ġreal istic
Ġbenef it
c ancel
19 86
ĠR K
," \
de formation
aris ons
}, ~
Ġ\ ;\;\
}{\ |\
Ġso le
Ġe pi
ĠT ran
Ġasso ciativity
r To
bf f
o ke
Ġti les
Ġaccura tely
Ġac compl
tikz style
Ġpro duction
Ġcons ensus
=\ ,\
Ġsuper position
K e
c ous
Ġs ensors
optim ization
Ġwall s
ch arge
ĠĠĠĠĠĠĠĠ ĠĠĠĠĊ
ex perim
ur is
linear ly
Ġmatch ings
@{ .
] ;\
Ġran ks
i ability
be lling
Ġsa fe
^{\ ,\
Le b
Ġirre levant
e asy
Ġellip so
tech n
I de
e eqn
ĠM R
Ġspatial ly
Ġ ]$
ĠJ ust
Ġexcell ent
Ġ$ =
Ġrese mb
[ ]{\
Ġobe y
A p
K W
\{ (\
Vect or
Ġ) ^{-
dri ven
11 3
ha te
gener ators
Ġmotiv ates
Ġsynchron ization
b ert
Ġcommun ic
Ġ5 8
Ġmaxim ally
Ġatta ch
Ġdura tion
W hit
is son
mo ving
ĠW igner
'$ }
vel ength
Ġs ymple
Ġ4 9
Ġwork ed
Ġsubs equently
rting ales
Ġcomple ments
Ġsequential ly
mat ching
hol onom
c ubic
ar m
C one
)}) _{
O h
10 6
Ġgeneral izing
17 5
ĠB or
ĠW ork
C n
S mall
j t
la ssi
| -\
Ġb or
Ġfil led
ref lection
Ġcondition ally
ta ted
Ġtrac king
Ġpass age
su n
Ġg ray
Ġmaterial s
Ġsub ring
R r
Ġf ron
Ġcorre ctions
< ^
ch t
gu erre
intro duced
Ġdest ination
âĪ Ĵ
Ġwin ning
N I
Ġrefor mulation
lar ity
\}$ ;
Ġsub bundle
16 5
Ġcol lected
light gray
T aylor
it ter
ect or
Ġsubs ystem
Ġturn ed
x M
}+ (\
F ont
s lice
ĠGe ometry
Ġ( |\
Ġslo pes
* )]
pri mal
Ġcross es
C irc
i w
)) /
}}$ }
Ġfo cused
oned a
f und
Ġconcentra te
w ind
estima tion
S g
Ġdesc ends
y g
Ġco in
Ġ$ >
un e
Ġho mogeneity
ver tical
Ġdep loy
10 7
ĠNo tation
horizon tal
S che
). \\
ĠWhit ney
ish ing
A lt
ĠW here
Ġnu cle
w tilde
pi e
Ġrespect s
lat tices
Ġph ot
di ed
Ġro les
Ġtrans lated
per f
iff alse
Ġredund ant
Ġfa vor
measu res
key word
A e
Ġg rids
fol io
omin al
lim ited
DG C
Ġcharacter izations
ĠLi kewise
Ġbegin s
p ullback
bb A
R en
H h
}$ }\
Ġd ila
mod ified
P u
S erre
expec tation
ĠL ater
ry lov
Ġappre ciate
Ġin tended
tran sition
Ġsec urity
Ġ\< ^
Ġpo sets
p ur
ur y
Ġcomp ressed
ro te
N U
Ġfor mat
Ġ5 5
es tim
tan ley
Ġinstan taneous
ĠC H
}\ ),
F re
E c
)| }{
z hang
ga tivity
if undefined
am i
Ġa rm
Ġhand led
Y Z
s tically
dd d
:\ :
In put
Ġhere ditary
bs y
van ov
Ġtravel ing
ĠT V
Ġenvelop ing
Ġpres heaf
Ġdegener ation
Ġaxi o
Ġh uman
L N
5 12
Ġpolari zed
p les
t M
Ġcon junction
dots m
Ġneighbor ing
i T
Ġknow s
ste ps
he aves
un o
ĠInte gral
Ġre ward
provide command
ar s
ĠI den
d E
ĠS C
Gal ois
pat tern
Ġvalua ble
ĠĠ ĉ
)$. \
,- >]
tur m
val uation
Ġ) ^{\
N ik
seg ment
< (
Ġvehic le
K B
ĠPro bability
decor ation
g mail
transla tion
Ġ{ |
Q C
P en
ĠP on
)] .
Cha racter
Ġsupp orting
ryst als
l cl
licit ly
mix ing
Ġrever sed
group oid
: ,
[ [\
19 2
Ġobe ys
Ġf riction
Ġr w
' |^
men ted
b on
Ġpro grams
ex ceptional
)) (\
Ġn il
ĠA xiom
Ġdescrip tions
H odge
es ts
cal f
ĠSecond ary
\! =\!
E DIT
P N
ma rt
Hy per
uzz y
ĠH amming
F OR
}' _{
\}. \]
H an
Ġpre liminaries
Ġrecipro cal
ĠODE s
lon e
Ġdiver gent
Ġ 99
pz c
Ġincre ments
ev olution
B U
Ġb order
corresp onds
ĠTe ichm
Ġ\, |\,
Ġda ys
Ġs ine
}_{ {
Ġneighb ours
' }^{\
y al
y es
Ġen tails
ival ence
2 11
Ġun knowns
Ġdis turb
ag ing
. :
z in
}) }}
nu jan
Ġinter change
R ate
Ġ4 1
Ġen gineering
deriv ation
Ġ }\,
m K
Ġmon ad
^{+ }$
Ġrelations hips
Ġ title
e th
Ġsu ff
}: =\{
G i
~ .
ma ximum
sign al
ra k
Ġrepe ating
Sim ons
ĠN umerical
t P
Ġme trizable
'' $,
R c
]_- {\
Ġmulti linear
Ġs im
col lection
Ġbroad cast
T Q
< =
su e
Un iform
}) )=
coe fficient
c w
ĠN LS
Ġsub field
in cre
Ġvor ticity
ĠF er
ob ner
s low
pri mary
descri bed
exact ly
D v
* [
F H
in duces
$$ |\
ah n
ĠO ut
H el
stre am
G w
Ġcontrac tive
Ġresis tance
Ġop in
is hi
Ġb atter
Ġhierarch ical
$ _{
Ġdevelop ments
] ,\\
v center
pri ori
Ġvis ible
ma j
Ġun ified
Ġ5 4
math pzc
Ġdis tinction
Ġbase line
12 7
)}$ -
t ol
equ ilibrium
in vol
{ }{\
_{ _{\
per t
)) )$
sphere s
nd le
(\ <
con tro
{ +
cr is
Ġcha os
Ġsen sitive
Ġmat ched
om on
optim ality
Ġdig ital
V R
cal I
Ġstra tified
m N
' =(
,\ \[
Ġsuper symmetric
)} &
onal d
)}} .
Ġmathe matic
Ġartif icial
w g
Ġat tain
Ġdistribu tive
ub er
ĠR ight
}}( {\
aves dro
I B
Ġdecomp osable
ĠCla ss
ĠB P
h rule
en ko
Ġd if
Ġmom enta
Ġs wap
I r
T ab
ĠComp u
| }}
con taining
: (\
f la
^* )$,
Ġass ess
ĠE rr
fil tration
M G
it m
cal V
Ġconsider ably
Ġli quid
v h
ĠN ot
le ments
Ġco p
determin istic
f F
o od
Ġhigh light
a ger
ject s
Ġshrink ing
N B
ph ra
ĠO bser
Ġ ]\
ĠC at
,.. ,
2 13
E ll
Ġaltern ate
Bes ides
I G
Ġf ru
Ġ\\ [-
uch sian
E t
R t
le ave
fi brations
$& $\
Ġ ))
Ġh armon
{ _
RI P
x ra
ĠSub stituting
ber ger
\}, $
Ġpo or
VV V
' \<
Ġplu g
ser ting
Ġe ver
Ġ )=\
Ġ{ }^
tif ies
er on
ĠConsider ing
ĠSu pp
M s
over brace
Ġsur jectivity
compact ness
F rob
lo ok
Ġho sp
cor d
3 75
ĠS ur
bottom rule
Un fortunately
Ġaim s
[ <-
bi as
w ould
}) ^*
b sigma
n ack
ch ild
@ [
s Y
ĠTo gether
ĠF isher
ĠX X
er a
us ted
Inte gral
le man
(\ ,\
ĠD iff
$, $
de p
20 5
Str ong
O B
D W
L F
ĠD ata
Ġutil ize
ĠAm ong
ĠNo ether
ĠGer many
s wit
ĠAl ternatively
Ġd ie
Ġt ubular
ha o
Ġproject s
Ġin ducing
ua ted
}) }(\
ĠP aris
]{ };
Ġnon decreasing
Ġper imeter
Ġav oids
Ġprefer red
go al
G B
\ }\,
Ġunion s
Qua ntum
Ġ$ {{\
ĠM P
' }.
$\ |\
Ġvol umes
Ġno ticing
bi us
}} .$
Ġgeneral isation
restric t
modu li
ĠF atou
19 83
^- $,
asso c
Ġinitial ization
Ġ2 000
ĠN ormal
Ġclo sures
set linear
den otes
cedu re
al tern
hyper ref
Ġcand idates
Ġseman tics
{ *
Ġc as
Ġu ne
la beled
Ġoff er
y v
= "
k A
Ġla nd
l bl
}) <
Ġcover ings
P ick
ten ing
V F
bra ry
Ind u
ltra mi
Ġsusp ension
] }.
19 84
W a
Ġun able
L im
Ġiner tial
) }}}
Ġe poch
ira s
W u
M m
Ġf ram
)} &\
th t
en ed
Ġcomp an
Par tial
ĠE X
b one
s nr
ul ia
Ġcardin als
Ġc lean
um mer
0 25
A MS
\ }|
d in
cccc cc
Re gular
complex es
$. }\
ĠLo cal
f v
n ilpotent
ĠA R
)}) =
unit al
U se
Ġex cess
Ġcommuta tors
t S
bo ol
com mon
ad v
Ġaff ir
or ange
Ġen force
ob serv
m kern
se arch
ula nt
Ġcre ation
^{- |
)] $,
ĠDe dekind
{ }$
Sch ur
! )
: ]
}}{ =}
Ġfil trations
T erm
h w
ĠEuler ian
Ġpredic t
iffere ntial
ĠT ri
Ġnorm ality
V s
ar n
bf series
e ger
{ =
Ex act
hen sive
k c
}{ }^
m W
Ġco ar
Ġdifferenti ate
}}{ {
Ġ5 00
C AT
}{ [
Ġconstru ctible
Ġins ights
in duct
te ll
nc line
T N
n w
Ġperturb ative
av oid
H cal
ĠS he
D K
Ġcode book
ĠBe low
Ġent er
C ap
Ġw rote
ref er
Ġ1 20
)! }{
lan ts
Mo st
Ġpre coding
M om
ĠIn itial
ĠO P
:\ ,\
Ġfactor ial
Ġpro finite
ĠT or
Ġmatro ids
' })\
~ :
Ġcapt ures
Ġp df
ound s
ĠO ver
Ġhe art
Ġsur round
mom ents
d j
Ġinv olutive
Ġmeet ing
a j
te ction
Ġcounter parts
Ġergod icity
sufficient ly
ĠL andau
Ġcontinu es
Ġac cessible
Ġdifferenti ating
g D
To gether
Al ternatively
iras oro
Ġ\; =\;
bf X
usu al
}^ +\
_{- }
parti tions
Ġf old
Ġoutper forms
E mp
r ally
commu tes
R x
Ġdete ctor
n L
Ġorbit al
\!\!\!\! \!\!\!\!
tie lt
\| (\
stu died
ĠS GD
ĠK re
Ġdeca ying
s se
cong ru
ĠS c
cl m
circ led
ay a
Ġcharacter izing
Si mple
Ġad ds
Ġaccu mula
la ps
ps arc
L ee
Ġrepro ducing
ich artz
Ġimagin e
} &&
ĠI mp
Ġ= (\
Ġs keleton
ha el
ly eq
ĠPrincip le
T Y
in p
ba um
Ġrecon structed
Ġright most
P ower
| |_{\
ul se
Ġop tical
ecti veness
)\| _\
ama nujan
Ġcharg ed
R p
Ġinsp ection
max im
Ġcircu its
local ization
D x
s at
)| <\
Ġtur ning
11 8
Ġresol ve
functor s
ck s
character ization
de x
rea ding
| ,\
Ġ1 96
circ u
Ġfac ili
lassi cal
Ġex cursion
Ġre new
M as
Ġlat ent
Ġal lo
iter ation
Ġdiagonal s
pair ing
u ph
Ġsol itons
ds on
IEEE author
Ge ometric
in z
ĠS hannon
t up
Ġre traction
}} .\
bib item
C b
Li ouville
Ġdete cted
resh olds
T d
}) }$.
c j
)} <\
nder son
te t
. &
11 4
Ġexpen sive
{- }(
Ġachie ving
Ġrela tivity
Ġto ur
:=\ {\
sum s
Ġexplo ited
en n
Ġc e
me t
Ġpol ym
permu tation
Ġpro p
T ur
ga me
^{+ }_{
Ġfit ting
}' $.
ĠS cha
desc ent
^{*} (\
orien tation
)= &\
Ġrotation al
Ġ Ï
Ġ ĉĉ
fa ff
ĠA ust
ĠW ol
P ara
b ach
conjuga cy
Ġval uations
L g
app lied
err on
+\ !\
], $
ĠM ap
lem me
de st
bf y
correspond ence
ĠK L
Ġbos onic
h P
Ġ5 2
ĠFin ite
Ġ3 9
u der
Ġ$\ \
ĠV I
a mpl
Ric ci
^* }{
Ġrep lic
Ġmer idi
Ġpa ges
ze l
index ed
extension s
_* $.
comple tion
tielt jes
Ġnon convex
Ġensemb les
Ġf uzzy
Ġd p
5 000
\} )$.
Ġautoma ton
c ir
ĠB re
am ily
w is
Ġs y
os co
sen se
Ġoscillat ory
inter polation
Ġger ms
Ġco cycles
t C
Ġoper ads
B on
as ym
& (\
ia o
Ġrefere e
e psi
Ġpredic tions
mon omial
Ġsimula te
_{+ }\
box plus
Ġdic tionary
l mm
se mic
ĠR S
_* $,
ĠÎ »
D d
Ġa ge
de m
ĠD iv
en a
Ġ} }{
ĠShi mura
Ġ{ [
h ua
ma tro
}- >}[
ĠK P
le ge
col l
bo ot
mark ed
}} }$.
Ġac tivity
con volution
19 85
oto pies
ounce d
C e
S olution
Ġde dic
^+ ,\
wor ld
dis cussion
' }=\
sub sets
B s
R b
)\ ;\
in als
if x
q n
Ġco ales
}+ {
Cal c
)\ ),
v ents
ĉĉĉĉ ĉĉĉ
in ser
4 14
K eywords
ĠG M
ord inary
Ġ ess
Ġs cre
de le
de lay
Ġmis take
|= |\
}+\ |\
tif ications
Q ED
Ġarrange ments
K ac
c here
ichot omy
is on
Ġen umerate
m w
Ġfall s
Ġ$ =$
Ġe avesdro
Ġacc ord
Ġmicro scopic
P al
): =(
Ġatta ching
Ġattemp ts
ĠP as
^* :
Qua d
r T
t us
ak ian
)} /
Th ree
ell i
Ġstar s
Ġv ola
Ġanaly se
Ġtra ined
le b
ĠB PS
ĠM C
]$ ;
la ce
)* (
rb rack
lan k
t D
rest ingly
ĠS iegel
First ly
Out put
m Q
ĠL ee
Ġmon ochromatic
99 99
## ##
J K
r A
Ġcl ip
}] (
Ġstud ents
formula tion
eq ua
Ġcon ical
per turbed
corre lated
mu nd
act or
cy linder
concentra tion
N s
ref l
Cho osing
G l
back ground
Ġdimension ality
L V
\, =\,
Ġassoci ates
3 30
Ġb old
_+ ^{
Ġclock wise
La p
Ġsub varieties
0 12
f R
Ġ\ ;\;\;
Ġan n
da ms
Ġradi o
ontinu ity
). (
Ġlike wise
f B
z h
pro pa
Ġde fault
14 3
avi ly
B n
R ing
Ġgen uine
k ra
} ~~
)^{ |\
Ġ\; ,
graph ic
Ġcall s
SU B
Lo c
it ality
da ira
Ġmeasu ring
orien table
Q G
)) _{\
$ );
F UNCT
de pendence
)\ },
Ġpar alle
Ġhtt ps
M umford
U R
beq n
dash v
Dis crete
q f
simp ly
ĠPa uli
g ive
l is
Ġtaut ological
G er
is omorphisms
W ol
Ġd m
qua te
bf s
sub fig
ili ation
; {\
G EN
l la
me ister
Ġequ ic
Sub section
] }=
il ding
00 3
co d
33 33
ta ker
Ġto uch
pro cessing
F V
Ġcarry ing
ĠR un
ĉ ĠĊ
Ġmo bile
er ay
vi ties
\, :\,
Ġtun ing
en u
to o
en v
Ġfin er
Ġsol vability
ĠP oly
Ġrece ives
as sumptions
over leftarrow
z x
ĠE arth
ĠPro gram
N O
Ġencoun tered
M cal
Ġtri al
AD MM
Ġattrac tive
! \!\
Ġh it
^- )
U h
} '}
E ff
Ġth or
Ġfor bidden
ĠCon ditions
Ġp ix
ĠHan kel
C ut
J B
e ad
ĠP L
ĠĠĠĠĠĠĠĠĠĠĠĠĠĠĠĠ ĠĠĠĠĠĠĠĠĠĠĠĠĠĠ
Ġport folio
ĠL S
Ġflux es
Ġpre vent
Ġinf ected
ĠG ronwall
S he
Ġs ke
ar di
Ġsub modules
E cal
)\ !\
gr p
del bar
Ġdepend ency
Ġ} +
Ġfil tering
$ ^*$-
ĠS ect
ĠI EEE
Ġun knot
ĠSV D
h al
Ġp ic
Ġ[ {\
Ġ$* $
ĠĠĠĠĠĠĠĠĠĠĠĠĠĠĠĠ ĠĠĠĠĠĠĠĠĠĠĠĠĠ
Ġinser tion
G p
H s
})$ ;
inte rest
Ġinser ting
Ġ| ^{
Ġultra filter
sub groups
wh ence
Ġpro ducing
Ġen codes
anal y
' )}\
N evertheless
vec x
Ġcol ours
Co mbin
} *\
19 82
da tion
{\ ,
v irt
Te X
Ġchallen ges
s I
Ġresol ved
ĠFin ding
Ġrewr iting
ĠG R
simpl ices
O rd
V dash
)] _{
ergod ic
F N
ĠS W
star ting
ĠK eywords
Ġper mit
Ġdecision s
ĠHel mholtz
ra p
< /
pl ings
ma cher
Ġf ifth
); (
ĠS tirling
ĠJ ones
D ir
ree k
o scil
ĠV al
ĠB loch
ĠP lease
Ġsp ins
Ġpre paration
Re lation
Sch wartz
Ġreli ability
M ag
18 5
Ġdri ving
Ġpa ren
d M
le af
Ġrel iable
po isson
Ġb us
scal ed
ĠĠĠ ĉ
{{ {
ta me
Ġmention ing
\` {
}) }\\
pro ject
XX X
Equ ivalently
onym ous
Ġ5 7
B ou
ĠB ergman
Ġinher its
Ġtrans versality
Ġ& +\
Ġsatura tion
K dV
10 9
at omic
ex m
q a
15 5
ĠĠ ĉĠĠ
Ġ$ .$
}$. \
Ġhint s
Integra ting
Ġfactor izations
ho d
fr g
Ġproceed ing
inter p
constraint s
3 20
Ġf un
11 7
Ġpartition ing
dynam ical
N at
S hi
spec ified
Ġcos ine
' )|
Ġwa velength
re ct
Ġti le
thm ref
13 6
Ġ) _{
Ġaugmen tation
}), $$
8 00
ĠF ibonacci
>> }[
Ġhar der
front matter
Ġme dia
Ġdis continu
pe an
Ġ$+ $
es ub
'' '
ĠRam sey
45 0
_{+ }$
Ġuni versality
Ġstra nds
^* -\
Ġc ele
tar ity
Ġcongru ences
Ġs lower
sp t
ĠF INSEQ
Ġ(\ {
}). }
Ġ5 6
a der
ĠA tiyah
Ġdesc ending
P H
Ġsti ff
B in
S f
s tit
ft en
Ġhe avily
Ad S
hate ver
Ġtransp osition
l ish
ra ther
Multip lying
ĠC F
color box
pri or
central ized
co herence
IN T
necess arily
l cm
ĠA F
LE M
Ġconsider able
14 7
}_{ |
Ġspace like
re place
ma cro
11 6
â ī
Ġlo ci
Ġre sulta
ĠWi kipedia
ĠCent er
L I
Ġapproxima tes
Ġin herent
dd r
or ms
ĠCa simir
W T
X b
Ġs qu
ĠM et
! }{\
ĠB u
Ġ4 4
cou ra
P cal
ĠC O
ĠH igh
v on
tic les
}_{ >
)} >
ĠM odu
Ġdiff u
al king
atur ally
Ġindic ating
ĠAccording ly
Ġanal ys
acc u
p to
P as
}] ^
Fig Font
Set FigFont
AN D
Ġflexi bility
ĠE uro
Ġam alga
DE s
point wise
Ġoscil lation
Ġarray s
,\ ;\;
Ġco fibration
(\ ,
Ġper cen
A g
K Z
j ected
j ac
_{ (-
Ġc larity
Ġexact ness
Ġsu s
our n
Ġdetermin ation
ĠN E
Ġover head
^* )=
where as
lat ors
od ifferential
Ġbijection s
Ġreflect ing
la sov
ĠCo mbin
Ġdomin ation
lo o
}) )$,
Ġclo ud
Ġsubstantial ly
Ġcontra variant
ct ures
Ġmode lling
Ġinte gr
bu ild
Spec ial
Wh ich
e an
du ctor
uph arpoon
Ġtop ics
Ġhtt p
7 07
w x
}} >
Ext ension
H b
}} <\
Ġcont ours
Ġtrip let
Anal ysis
Ġintertw ining
me thods
ĠMar tin
Ġalternative ly
Ġaut onomous
da d
Ġparameter ization
Ġmain tain
)|\ ,
b ridge
chere l
lev ance
cur v
| )^
pr inger
mic ro
Ġblow ing
Ġfocus ing
b tau
Ġsub tracting
to c
}\, ,\
}^* $.
ĠC as
Ġleft most
N um
\ ;\;\
Ġref erring
Ġquanti fy
ge p
conver ge
---------------- ----------------
tran sfer
ia ms
Ġpush out
Ġferm ions
shor ten
consta nts
v D
ĠN C
}] _
? }
i X
b lambda
Ġru led
f ar
}[ -
Ġout ward
structure d
Ġimprove ments
f D
la bell
Ġ| {\
defin ing
linear ity
frac tion
A xiom
}$ (
fra m
Ġpolynomial ly
Ġpri ma
she ll
Ġsna psh
x d
app lications
Ġpunct ures
repres ent
Ġ( )
sp ring
Ġmid point
K F
f V
ref ine
' )^{
Ġw ants
^{- }
Ġlocal ity
Ġbe sides
Ġcompre hensive
W al
t U
Ġspec ification
S mooth
Bound ed
k ar
Ġconstruct s
Ġvehic les
6 25
I ll
Ġ\, $
hy pothesis
DE F
Ġde ci
tr uncated
Ġf oot
Ġavoid ing
m B
orth and
P hase
c ending
\[ (
Ġoper ating
Ġmass less
spect ra
f G
ĠP D
con structed
d ox
in y
Dis cussion
ri end
li u
Ġz one
Ġsimpl ifying
Ġaggre gation
S ign
}} }^
ĠD F
fl ip
radi al
\ :\
Ġpa ti
p ort
y t
Ġ& {\
Ġ\\ &
Ġrepro duce
A MP
yn chron
Ġele gant
Ġthree fold
be fore
}( [\
p unct
th ose
si x
var Phi
Ġcomp osing
Ġlog istic
velo city
var Gamma
Ġspe ak
ĠP I
Ġshe et
R am
\ &
j et
Ġent ers
Ġaccord ance
u bar
{ *}
Ġd ark
K ey
Ġs ie
Ġde licate
Ad ditionally
}| $.
q b
Ġ\, (
Ġb end
23 1
och ner
V S
che v
}] =\
Ġphot ons
I H
c in
sh ould
Struct ure
Ġcele brated
Ġext rem
bf w
ĠD rinfeld
@{ }[
b J
\, }
g ment
for ces
]{ -
cli que
Ġex clu
t N
Anal ogously
in ery
Ġattrac ting
pro c
Ġ@ {
Bound s
lift ing
}^{ {
ĠLe ft
> ](
p al
Ġp end
Ġmoder ate
+\ ,
Ġdeal t
s hi
Ġcre ates
Ġcons tel
tr ig
Ġheter ogeneous
S cript
General ized
Ġaf fin
R X
Ġâī ¤
Ġtime like
sub array
Ġro ute
ĠLang lands
2 60
}- $
Ġsucces sively
Ġpropag ator
Ġre comm
A I
ex mp
Ġinv oke
) )=(
Ġde gra
Ġas ks
F ield
Ġn orth
}' $,
Ġstra in
tr unc
Ġdiagonal izable
N m
ide meister
bf C
font size
Ġdro pped
@{-- >}[
' },\
S y
ĠL ast
}- (\
d L
bf k
Ġrepla ces
le e
Ġ{ (\
cal N
Ġv ide
ĠAD MM
Ġord inals
Ġiso perimetric
lic z
Ġcontrol lability
;\;\;\;\ ;\;\;\;\
ĠB on
XX REAL
Ġ$\ ;
ĠĠĠĠĠĠĠĠ ĠĊ
Ġsl iding
ĠĠĠĠ ĉĉ
25 5
Ġcar ds
App lications
ĠBes ov
q i
}{ }_{
Ġcomp ressible
The o
bf m
Ġ} -
Y u
la in
)}\ |\
Ġcontradic t
ĠFunction s
ĠC r
ort un
slo pe
_+ ,\
rotate box
U P
at ta
alan cing
}} ,\\
Ġde code
ĠĠĠĠĠĠĠĠ ĠĠĊ
Ġar ranged
}} }^{\
co hom
Ġca che
Ġ* *\
Ġhar ves
zz i
_{ [-
^{* *}
Ġbatter y
r isk
v ac
configura tion
Ġsumma ble
Ġtermin ates
b be
Ġe uclidean
w z
th reshold
_{+ }(
Ġsuper script
po les
19 5
RR R
Ġhist or
Ġintui tively
j ectives
me ta
\! :
Ġcontrac ted
re ce
Ġen riched
Ġdedic ated
stit ut
)\, ,\
ar Xiv
cy l
)) >
pe ating
Ġoccur rences
you ng
page ref
spa tial
b sub
= :
Ġwa iting
Ġwin ding
}$ ]
'' =
,\,\ ,\,
th rm
ĠN OMA
Ġqu ery
Ġneces sity
Ġhe ads
ĠJo hn
k ap
oron oi
d rop
}} <
Ġremo val
Ġdeca des
Ima ge
j aco
ĠF ried
\| $.
Ġra ised
Back ground
C over
}| |_{
lo so
Ġj ob
Ġhosp itality
}, -\
}}, $$
Ġeff ectiveness
You ng
n T
La w
th al
on line
iel sen
Ġbehavi ors
car rier
upharpoon right
J ordan
vari ational
Ġmajor ity
Ġlo ose
ar ticle
Ġ1 80
Ch ern
Ġquad rant
d D
si zed
Ġinde finite
b ble
f ref
Ġdiscus sing
Ġalign ment
â Ħ
ha pe
_{\ |
ĠT uring
Ġco mmand
row s
show n
j v
Ġ9 5
Ġparame tr
z n
Ġglu ed
ta t
Ġsome where
&= -
Ġminim ized
Ġs es
gle ftarrow
Ġradi ally
ik h
S ph
Ġsub tract
bran ch
Ġfram ing
Ġd w
ynam ics
ympto tically
full ref
Ġinher ited
ti tive
co variance
ĠOr der
tig ating
ĠPe zzo
de velop
ec m
P res
CO MP
Ġtil ings
[ |\
ĠD arboux
Un ion
idel ity
lead sto
yz y
] [\
}^{ |
Ġre tract
ard o
Ġprecondition er
Ġaffir ma
us lander
Con vex
^{+ }\
Ġke pt
Ġabbrevi ate
bigtriangle up
w alk
cal Q
f P
H V
si l
ha ving
op e
Ġbase point
N c
V o
d on
ig e
ro gate
}+ |
allow displaybreak
pie ce
allowdisplaybreak s
Ġmulti dimensional
Ġassign ing
Ġjus tification
blow up
w al
se vich
)] ^{
ag ree
L s
z f
re ads
19 80
Ġ$( *
ta nd
con text
Ġiniti ated
ar xiv
Ġsub categories
]\ !
Ġoptim izing
Ġjo ined
ec han
il ing
plot s
Ġpric es
bf z
Ġcor ollaries
Bound ary
combin atorial
C ox
Sum ming
beha vi
s ho
ma jor
ian chi
. ~$\
S INR
Ġtur bul
CM C
Ġquadri lateral
m ot
ĠK ey
O cal
or ig
Ġm inu
men tion
Ġtight ness
2 16
Ġself adjoint
EN T
Ġ| _{\
Ġla nds
i en
Ġcomp arisons
000 1
\\ -
Ġz ig
ĠV alue
nti ating
l x
arc cos
ĠMarkov ian
left margin
impl icit
@{ ^{(
i pa
n B
p atch
Ġ| .
)! (
Ġoccup ied
Ġincorpor ate
f w
make at
Ġcapt ured
M il
Ã ¤
are to
oh nson
Ġc aching
co p
co ef
Ġtran sf
Ġreformula ted
o S
Ġcli ques
A re
h X
bb T
Ġtheore tically
c rystal
g S
mu tation
})\ ,\
23 0
. ]{
bf c
IN TE
Ġti gh
J P
o M
Sol ving
j r
us al
k ed
deg rees
Ġimpro ving
Ġmaxim ality
ĠB ott
ne gativity
Ġdual s
Ġfaithful ly
Q S
p et
ĠC G
Ġcircu ms
Ġaffect s
J L
Ġcon duct
Ġha ven
Ġutil ized
spec ific
Ġquantif ier
be e
Ġimp er
e es
] }_
e pi
Ġsuper ior
direct ly
x g
13 7
d Z
ear ning
ĠDec omp
}^{* }$
ĠF ield
ire n
X BOOLE
Ġth resholds
Ġrecomm end
}^{ +}
we ep
Ġexpres sing
Ġ-- (
Ġsupp ly
i pher
ĠM ag
ĠY et
vi ation
d ating
$ ^\
Ġcon cluding
Ġla mination
ĠOn ly
M ay
ustra tion
VE CT
Ġanom aly
A lex
imension al
28 8
Ġc ited
Ġn ames
ide als
Ġmulti set
lin eto
D r
E b
m G
inter nal
math ord
Ġrever sing
ĠPol ynomial
ro zen
}) :=\
ĠL in
100 00
Ġ{ }_
Ġser vers
Ġsole ly
S er
ĠC all
\,\ ,\
P lot
o z
ĠN S
_{- }(
F ib
Ġh uge
_- }
ĠH itchin
lines tyle
pen al
13 3
&& \\
Ġplu gging
}} }}\
se en
ĠS el
20 1
res on
Ġmo ved
yl or
Ġoff ers
w ere
mp s
il enberg
ĠH ir
bb F
Ġvis cous
N t
rar row
e ve
Ġconfir med
ĠO perator
y ck
Ġima ging
23 5
}, &
ĠWe ll
ĠD L
Ġfin ished
commu n
Ġauto matic
t B
bf A
Ġsl ots
e per
}} )=\
ont sevich
. ''
k T
Ġabsor bing
Ġsemin al
K O
Ġuni tarily
Ġalign ed
Ġslic es
; (
F s
t ld
)$ &
Con j
com odu
Ġda tab
techn ical
Ġd ate
,\,\ ,\
essential ly
pres ent
in ite
ga s
ĠP A
Ġsubs equences
Ġirre ducibility
ĠWh ite
def ect
Ġspin ors
ref ree
f ac
ro tation
su i
), &
back ward
h es
l parr
r parr
ell in
f urther
Ġ\ .
}\ :
Ġch ords
Ġquanti le
Ġlimi tations
MM SE
j f
ve cc
) }}(\
Ġpolyg onal
Ġsubs hift
Ġexecu tion
eff ect
Ġh al
hand le
a ded
Ġconf lic
ex change
Ġsec ure
ma z
Ġm i
$$ [
dim en
Equ iv
Ġc le
we yl
ij kl
Ġ& -\
Ġgover ning
de ep
Ġun constrained
c entered
st op
ĠE M
Ġsta bly
pe z
Ġpredic ate
0 75
Ġpost p
B lock
for cing
n ary
P in
non zero
Ġmod al
o T
> '
ĠLi u
f ourier
)* +{
S tability
Ġmechan isms
}^{\ ,
ĠErr or
a gin
s sup
00 4
Op en
Ġmach inery
( (-
\!\! \!\
a res
cy cl
ap an
Ġstud ent
Ġ20 10
]_- {
}^* $,
ĠTHEN L
Ġfirst ly
B all
ĠStr uct
Ġa p
Ġla tency
olog ous
- [
ers en
' ]$
bf n
L imit
{ )}
Ġn um
Ġat traction
Ġspa cing
Ġsh orthand
Ġhy po
a ir
ve re
ĠD P
! [
f mf
ta sk
theore tical
F Y
ct r
we i
Ġferm ion
squa red
G U
19 79
Ġexpres ses
cons ists
Ġ lambda
Ġ ,\,
Ġpoly hedra
w orth
Ġar g
Ġacceler ated
A belian
b ld
para ms
ta p
Ġisometric ally
P lease
til ting
C hi
ra bility
}| ^{\
ob jective
' :=
Ġans wered
ĠCou rant
Ġcolour ing
Eu Script
] /\
Ġma xima
ĠGe ometric
J ust
m left
' )-
S chool
m right
ĠM S
k q
}| }\
on orm
ĠI ter
C t
cal a
})$ }
ĠPro fessor
P lugging
Ġat las
Ġeigen spaces
Ġshift ing
L l
}} )_{
ĠM ic
T OP
ĠW riting
13 8
Ġf loor
ĠBS s
Ġadvance d
G s
Ġt u
)| }{|
Ġcou plings
App lication
Ġsubsection s
ol o
rame tric
P n
lar ger
in bow
ta iled
ad mits
ub in
{ {{\
Ġat tribu
Ġdis appear
inde p
Ġremark ed
ĠC lo
F W
V C
i id
Ġcorrespond ences
be g
^- _{\
'$ )
Ġcooper ative
intersect ing
qu i
con tr
15 7
Ġcounterexample s
th a
2 12
Ġs il
Ġes cape
formula s
S up
L an
so b
mark ings
B X
Ġan ces
satura ted
}) }^{
Ġsub critical
F unc
[ \|
ric e
Ġ ^*
ut te
sf d
Ġcould n
Ġconstitu tes
Ġreformula te
ĠA cade
}} }$,
ho v
ĠV irasoro
24 5
comple tely
tors or
N u
t len
an ten
}^{* }(
Ġf eed
19 78
F INSEQ
Ġcustom ers
A mp
Ġha m
ell ing
Ġincre ment
Ġcomm en
Ġmaxim izes
Ġenhance d
Ġextrac ted
dis si
@{- >>}[
q d
ure r
k al
)} ,\\
~$ (\
Ġtor oidal
Ġfinding s
}' ,\
check mark
h ull
Ġre levance
ĠC T
u to
]+ [
perturb ation
ta kes
Ġb ud
so c
Ġwrite s
od ing
small er
\ }=\{
il la
po set
add le
Ġsub div
* }}
ĠTh urston
Ġnever theless
T ot
po inted
19 81
}}{ }
Ġpullback s
ida ble
ĠP ower
im odal
bo ard
Ġdia mond
. *
Ġanom al
g lob
\ }},
J H
T ensor
Ġd A
_+ }\
m I
ca sion
)! }{(
Ġt ric
ck er
Ġmodel led
)} _{(
)! \
sol vable
Ġfore cast
Ġcolla bor
$ ,\
ĠB irkhoff
ĠV ari
Ġbelie f
titu tion
Ġhard ware
I Q
e o
Ġloss es
ĠEuro pean
^{- }_{
L AB
q k
ĠH u
princip le
zen ge
ĠS ay
as m
ĠUniver si
ĠDiffere ntial
] ],
Ġinf e
Section s
Ġvis it
ar iance
ĠV an
tic ular
Ġannu li
Ġh oriz
Cr it
divis ible
ĠCho osing
l h
s U
Ġnear by
Ġthick ness
L ittlewood
U S
Ġargu ed
_{ *}\
Ġcharacter isation
M f
ter ra
gra mma
Plan ck
Ġp red
Ġadj o
Q FT
supp orted
Ġmargin als
Ġ$ )
}} },\
ph istic
Ġde s
Ġ}\ ;
fe ld
Ġpunct ure
Ġlexic ographic
S DP
T i
d one
exp ected
dash rightarrow
Rep resen
==== ====
ĠP yth
semis table
Ġtack le
ĠM i
ĠN atural
dis cus
)| $,
hand ra
imp ortant
os hi
ĠRecall ing
calc ulus
)$ }\
st ron
ĠZ F
f lag
Ġ rid
,\ |\
Ġ} +\
Lemma s
sp ar
ĠD IS
Ġtri als
preser ves
Proper ty
en yi
ver ti
ceed ing
Ġensu ring
ĠBru hat
? )
frame box
: "
Ġimmersion s
H iggs
}). \]
Ġcollision s
Ġre normalized
_\ #
k as
mula tions
Âł Âł
@{^{( }->}[
_{ /
olu tional
> {
app ed
ĠCon trol
S GD
X c
te ta
su rd
cons isting
tru ecm
Ġj et
Ġsu spect
di aba
Ġidentif ications
ĠSecond ly
n C
ynam ic
D s
r G
ĠG P
Ġ7 2
f H
B lue
Ġter nary
Ġvio lated
z ig
}- {
Ġlarge ly
Ġresulta nt
Ġen coura
a cyclic
\}$ -
inde ed
mean ing
Ġconduc tivity
y ellow
act ory
AB LE
les on
Ġmulti scale
Ġbreak s
C cal
en ded
ve t
Ġn ominal
Ġv ic
Ġvola tility
IEEE keywords
ĠPo st
ĠPro duct
Ġ0 5
Ġpub lic
i B
mp ed
so ft
~$ {\
SE P
s ca
3 12
Ġaccep ted
p ounds
Ġ${ }^
Ġfla gs
math ema
Ġprotocol s
Ġopp ortun
Ġfulfill s
Z a
iz ability
Ġelabor ate
F inal
Ġdis e
+ ,
C all
\, |\,\
Ġke eps
the equation
Ġnormal ize
Ġvarian ces
Ġfi les
Si mulation
Ġopin ion
re turn
Ġh its
app lication
len beck
v ph
an other
par se
]{ ->
distribu tions
ĠWh ich
We ll
x q
la ys
ĠE nergy
ĠK al
ĠT ur
Ġcoun it
al ways
h H
ist or
ĠM LE
|}{ $
Ġremin d
Ġcon cavity
ĠF u
! }{(
L DP
r it
Ġm im
ĠC FT
Ġmo tives
Ġtran sitivity
Ġs kip
Ġhyper graphs
ar chimedean
da bility
vi kov
o pacity
Ġexhaus tive
}{ @{}
ĠM u
)}{ |\
, *}
15 6
Ġcycl ically
cite d
rea th
Second ly
$ ^{\
in lev
ra tes
W E
ro d
aff iliation
belong s
3 18
Ġb ond
ite s
def s
Ġcent ro
f ied
ĠComp uting
P AR
\\ &=
tribu tions
Ġ12 8
per formance
)= &
(- ,
)| |_{
Ġan onymous
x bf
math rel
Ġro om
Ġpromis ing
ĠA ss
Ġsyn thetic
try agin
nor ma
ĠS z
45 6
Ġdown ward
H t
y o
ord ination
es ting
'' )$
cu bes
ma nder
ĠD C
ĠJ ulia
bs x
at son
Ġdec ided
)} <
ag ue
sur jective
s st
ta x
}} )^{\
ĠH asse
gra vity
}] )
F lo
@{- },
Ġentangle d
the or
gu ing
es ter
de mo
)$ }.
co variant
con es
Ġinterpre tations
requ ire
)| .
ud in
m ca
: |
^- _\
Ġus age
}}\ ;
Ġtrans versely
ul sive
Ġcol linear
Ġexceed s
P os
up shape
ĠM DP
si a
ha ra
condition ed
Ġre called
ĠS olution
pack age
Ġcompan ion
ĠT hank
F rame
}) <\
Ġmove ment
Ġ- {\
Ġw ild
99 9
a cl
Ã ł
ĠE d
ĉ ĠĠĠĠĠ
3 15
Al pha
direction al
squ ig
ĠC DF
L ang
or tation
si vity
}, ...,\
^* +\
ĠS turm
ĠC C
Ġqu ivers
)| ^{\
Ġg host
Ġcondu cted
O rb
dri ft
M AT
ta ries
led ges
Ġpick ing
ĠP R
Ġro bot
Ġpla ying
L ow
st udy
Ġ|\ ,
Cor responding
\; ,
arg max
en skip
Ġb ivariate
Ġas cending
Pro ve
ĠBa ire
ro pies
ta ken
Ġset t
ĠW al
ay ashi
Ġdeterminant al
Ġdecor ated
v as
hy po
Ġsemic lassical
Ġi ii
Ġsu be
Î ±
mis sibility
, ~~
\{ |\
ext remal
V P
b ou
su ff
ri ties
* >
' )^{-
ho vanov
var s
one y
.\ ,\
ategor ies
P t
}\ }}
ca nd
Ġinterf aces
bb z
ĠM AP
LL L
P m
ok er
sp ired
ĠX BOOLE
ĠAs so
comple teness
N i
in force
ĠMon ge
C J
e lem
Ġconclude d
Ġfib rant
&+ &
ĠAnal ogously
13 9
Ġexplor ation
ĠU Es
pres cript
ĠS ym
})\ |_{
_{\ #
)| <
_- $.
recur sion
Ġen counter
A LL
P Y
ĠL ittlewood
Mor se
C p
W P
Ġsec ret
H G
vari ates
^{- }(
C as
inf er
Ġpul se
lo ops
ac ulty
T K
h art
Ġtransmission s
B ru
Ġh ours
Ġy shift
Do main
}^{+ }$
b if
Ex perim
m sp
re w
Ġre vis
Eq uations
,\,\,\,\ ,\,\,\,\
the m
sol ve
ĠStar ting
), ~
nc il
EX P
da st
Ġobstruction s
Ġspec ifying
Ġdec imal
ourho ods
Ġ6 2
}^* ,
J an
d N
Ġ9 6
Comp uting
L AR
Ġcapa ble
\, ,\,
. $\
D own
se lection
im er
Ġa id
Ġacc ounts
n th
Ġd S
r F
rac tical
Ġup dating
Ġtwist or
8 66
T emp
ĠS uc
ss ential
Ġfocus es
11 9
ĠY oneda
{ :
Ã ®
Is om
W S
)}$ }
B ase
H all
hi er
) '(
T O
phistic ated
fill ing
+ .
co vers
Ġcor rup
_- $,
Ġelect rical
Ġ= \,
Ġspace times
exp ansive
can not
Ġforth coming
me et
Ġun clear
eps fig
determin ant
{ =}
| },
fil tered
ball s
)} :=\
)= {
con stru
bi partite
w rt
Ġde cla
ellow ship
m oto
o y
Ġround s
}_{\ {\
Ġtrade off
M bar
ĠSpa ces
Ġ" $
multiplic ity
ĠS er
stra ight
dimension s
_- )
mo v
use ful
uch s
Ġ rho
N r
[ "
ĠT hom
Ġ) {\
Ġinterpo lating
Univer sit
Ġevol ves
; }
G romov
arc sin
Ġpush forward
bran es
) ).$
S ob
d C
Ġbra iding
Ġrearrange ment
ĠLa guerre
S to
W riting
] .\
de macher
ps set
bounded ness
] )}
d ynkin
ĠB ro
po lari
00 6
13 1
G orenstein
Ġconver s
ĠS pect
d ar
y ra
or is
et te
Ġpropo sal
l to
Ġcomp ound
ĠJ an
Con s
Ġinvestiga tions
f ive
st on
Ġj unction
Ġa go
19 6
)& :=
aut onomous
int s
Ġc ot
[\ |\
y pical
App ly
poly tope
L t
ĠS pin
footnote text
ĠCo mple
Ġconcept ual
\ }^\
| }(
lra r
Ab stract
Ġro ll
estima tor
mention ed
Ġ(\ |
Ġreson ant
ĠW ilson
Ġpartic ip
Ġargu ing
Ġfru it
^* \|^
* }$
x n
re view
Ġsuccess or
Ġisogen y
c ru
dia grams
Ġcre ating
)] _
Ġabsor bed
( [-
d onald
Ġf at
Ġp le
Ġb imodules
12 34
Ġstand ing
zero s
ĠCom mun
absolu te
p an
s till
super script
Summa ry
Ġbenef its
monoton icity
g ar
ĠM echan
ĠProper ties
f st
ma sh
)) ]
Ġattrac ted
}) |^
Ġnon compact
ĠRemark s
S un
r N
\# \
X Z
n P
Ġmultiplic ations
ĠD iophantine
a A
ĠM DS
Appro x
C LT
Ġw ider
squig arrow
i V
circle dast
label ing
ĠA W
Ġpresent ing
over pic
L ist
ti tions
Ġsub class
)^{ [
Ġpresen tations
la nt
)}( -
Ġimportant ly
arith metic
ĠKo daira
ou ts
Ġcol oured
Con trol
Ġcub ical
Ġ }}{\
ĠW u
Ġco fibrations
ĠK dV
Ġdemand s
sp n
Ġprima rily
for k
iren berg
Ġration ally
n X
W b
ad ditivity
add to
Ġgu ide
Ġ$ ^
******** ********
Ġ )}\
A rg
Ġhol ding
)}. \
}\ }_{\
16 7
Ġ${ }_
ilp ot
Ġchord al
Ġn ine
ich ards
z ar
H or
S imp
Ġd up
ru ll
bb D
separa tion
Ġco compact
}\| _\
ĠApp ly
00 7
}: =(
Ġ }{(
Ġde velo
_{+ ,
ĠChe valley
ĠFer mat
u z
ma ster
Ġt ending
ert ur
bb S
l w
sta ted
diaba tic
}} }_
)\ \[
$$ =
how ever
Ġla dder
bb H
Ġmod ifying
compu ted
mark ov
Ġhence forth
Ġhom otop
Ġnormal izing
flush right
Ġw hatever
ĠP al
Ġimp oses
28 0
R och
ĠC ould
16 8
=\ !\
ĠS tanley
K im
ve lling
Ġdis plays
bu ll
Ġneur ons
Ġcosm ological
Ġs chool
ĠĠ ĉĉ
ĠCou ncil
Ġhyp ered
ĠI ma
co ord
Ġ| -
Ġhyperbolic ity
conne ctions
Ġplan ning
ĠS w
)( (
scr A
a ther
N ode
cr cr
trans formations
Ġs eq
Ġre ality
ĠQ FT
H B
partic les
B eta
D U
Reg arding
Ġellipso id
ĠP U
Ġla belling
b gamma
Ġsurv ival
ĠR oughly
ĠRe idemeister
f L
Ġsemin orm
O bser
ous tic
SE C
Ġacknow ledges
im ity
parame trization
Ġquadr uple
re duce
}), (\
Ġnet s
)\, (
Ġb a
ri al
)}, $$
Ġinstant on
ĠA nosov
ys on
)| ,
Ġfli ps
remark s
ĠHy per
Ġfluct uation
con tain
$\ ;
14 2
ĠCal der
q e
re r
Ġflat ness
Ġ& :
act ually
wide check
Ġeigen states
en ough
ĠF D
let ons
Or th
J a
x o
ri ff
19 77
N oting
z w
$$ =\
Ġsha ded
E igen
defin itions
Ġharmon ics
Ġm ill
ĠL imit
sh ifted
16 3
car tesian
}^{+ }\
Ġrequ est
Ġin su
pa nder
\| ^{\
Ġ8 1
Ġscat tered
' ^{-
_* )$
K ra
R f
in tic
ch in
ĠG old
In eq
ok ker
22 1
Ġre nder
' \\
B ro
ar ial
}> >
Ġdigraph s
ĠUn like
lo u
F ar
S b
re pe
]\ }$
Ġcontro lling
trib uting
DGC strand
ĠF L
bf e
)| =\
J C
r V
Ġpseud odifferential
in equalities
Ġcont ract
Ġpre images
L K
co erc
}) [
ĠR edu
Pro d
Ġmach ines
: ~
Ġh or
ance d
glu ing
im mediate
t F
t end
Ġ+ (\
)) }$
Ġshort ly
Ġu v
right squigarrow
W ill
Ġinf ection
Con cerning
Max well
Ġcon dens
ĠL y
l und
iv an
ĠH ol
Ġar ticles
Ġt ors
compati bility
: {$
}) }_{
Ġaltern atives
p lo
}\, {\
rela tivistic
}] ^{
cha stically
Ġplace ment
Ġposterior i
Q Coh
d T
^* }^
}}{ |\
sto kes
Ġquadr ics
P X
su ppose
ĠP en
mo tion
Su per
14 6
Ġenjo ys
F ried
in ction
im od
ĠD E
lan ce
su ally
ĠM MSE
Ġlo se
Ġ\, {\
factor ial
B ol
y ear
Ġsub scripts
MA P
C handra
Ġ| }
semis imple
T er
Ġ ~~~
H n
pp ro
Ġuni versally
arrow s
Ġ }$$
^ (
Ġre trac
}^{ [\
ap ri
Ġ\# \
Ġbi ased
sen ess
}^{+ }(
Ġhexag on
Z e
mu lants
yg mund
W itt
bf r
lin eno
AR I
Ġweigh ting
Re placing
)] }
onal dson
po sitivity
Ġsurround ing
ay ama
ket ch
Lat tice
Ġ* *
B ell
r R
Ġlangua ges
Redu ction
Ġval idation
ven tion
19 76
Com ment
F low
F our
S l
m q
Ġsub lattice
normal ization
ĠL ine
ĠB r
Ġ2 55
Ġsha res
Ġmm Wave
T cal
Am ong
Pol ynomial
\ ~
g q
ĠB ou
Ġla min
ĠPro cess
Ġav o
Ġrota ted
anten na
Ġco variates
ĠB la
ĠApp lied
Ġmole cular
re verse
ent y
Le besgue
inv olution
avoid ing
it en
ĠY u
Ġp uzz
}) ^{(
Ġutil izing
Ġnegle ct
ĠL abor
Ġcentral ized
' )(
Ġre v
Ġear th
lon gleftarrow
ces sed
ĠK ummer
Ġinter act
Ġdefect s
Star ting
K lein
Ġi id
int r
Ġuniform ity
G ar
Ġ5 1
sur j
fam ilies
vm ode
ĠB R
Spect ral
)] =\
Ġhyper cube
Ġaffirma tive
Ġso phisticated
dis tortion
Ġtechn ology
o I
ĠTable s
ledg ment
Ġqu eries
Ġreason ably
Ġmotiv ate
Ġvide o
F ull
this pagestyle
ĠSol ving
Ġdiscontinu ities
re ason
Defin itions
EN O
A rea
re pr
)$ '
mo p
Ġcu ri
$, }\\
ex ercise
ag s
was awa
Ġstation arity
E K
N f
cal U
Ġassign ments
Ġb l
ĠY ama
A U
ĠK rylov
lem ref
Ġresearch ers
Dis c
Last ly
m V
Ġcon st
il lem
recur sive
Ġp ants
ĠDen oting
Sp c
Ġproj ec
et c
Ġ[ (\
ak ov
ĠMathe matica
langua ge
] },\
Ġ( ``
an nu
ric es
Ġli brary
K k
d cat
Ġconsist ently
Ġaccep table
Ġrecipro city
L H
}: }
Ġ~ ~\
ĠM V
Ġdraw back
dd bar
represen ted
separa ting
h ist
ĠS un
Ġour s
)| }\
lr corner
Ġign ored
3 21
he lp
ĠC y
ampl itude
z k
tra ject
lect ing
ĠHar nack
0 15
] }|
Ġb ur
and s
Ġpredic tive
Ġabsor ption
W A
Ġbi ological
Ġcla use
ack now
w iki
leave vmode
_{\ {|
ĠS everal
text superscript
Ġsem if
Ġb rings
}^ *}
)\ \\
embed ded
depend s
\ })=
In equality
Ġ( *
ff i
Exp ect
2 15
r E
ot z
ĠT X
ĠF ermi
au ti
S everal
k Q
| )^{-
}} }\\
}) }$,
con clude
sec ref
U ps
h z
ta ylor
ĠS tochastic
Set s
Ġannihi lation
commuta tor
ted ious
}^{ |\
o a
Ġregular ly
ĠL asso
^*} (\
ref erence
ĠA nderson
Re lated
Qua si
is en
Ġg cd
fa ithful
C f
as ymptotically
Ġproject ing
Ġattract ors
D O
L usztig
Ġapproach ing
- ,
in side
Ġenviron ments
Ġtes sel
L cal
ĠI C
ab la
ck et
S Z
Ġsmall ness
toff el
Ġ )\\
Ġ} |
L ore
R oot
y ield
ĠMas lov
ore tical
[\ ,
pand ing
Ġsurprising ly
Ġco domain
Ã ¥
bo v
Ġpart ly
ĠRic cati
Ġobsta cles
r Cl
ĠB ER
pro babil
mon de
Ġqu bit
ĠQ R
Ġvis ited
Ġmark s
8 75
Ġcoinc idence
contradic tion
L AT
on o
de ll
thick ness
Mo ody
ĠStr ichartz
}} )(
\| .
Ġconverse ly
ĠLagrangian s
si mulation
Ġb illiard
}} ^*
ht p
Ġappe aling
c sc
Ġoc casion
un ch
ĠF uchsian
)} =(
un less
D n
o ccur
la re
ast er
k ins
ĠV oronoi
Ġbu ffer
F g
Ġcon stra
Ġl ive
Ġ" ...
flush left
Ġde ath
integral s
Ġcustom er
Ġre phra
st one
ĠF ran
ex po
Ġcolor ings
oper ation
control led
Ġacknow ledge
is able
ĠL ip
Ġ3 00
^+ $-
Ġla g
ten tial
Res ult
ĠPut ting
Ġer asure
Ġg irth
Ġanalytic ity
M Z
a round
in ct
Ġsqua refree
Ġ$\# \
circu it
N n
Re v
ack ey
Ġsupp ress
commu ting
um en
she aves
Ġdenomin ators
Den sity
cal Y
abs or
Ġinves tigating
B v
ab cd
Ġqua sis
38 4
Ġ6 3
e lastic
f T
Ġsa tell
t V
ĠC AT
Ġ$[ -\
State ment
Sim on
Ġbud get
sp c
Ġsearch ing
Ġpro tot
Ġde coded
Ġnon parametric
Ġover lapping
Ġqu bits
pre vious
b vec
Ġ\ }.$$
ty pical
ĠD NN
rightarrow s
) '$
i ors
Ġre lying
12 9
altern ating
right rightarrows
Ġes t
ĠIn tern
Ġimplemen tations
_{* }(
end xy
Ġle cture
pres sure
L n
che l
C i
M p
Ġany more
\} }$.
Ġrational s
um in
ĠJ S
Var i
Ġre pair
ĠD i
> -\
s j
mb ridge
Ġma rtingales
bf i
]$ :
Ġ5 9
35 0
Ġmat ters
ĠP areto
ĠR ule
ĠLe vel
coinc ides
T otal
ul um
Sh v
Ġresidu ally
ĠS as
\| ,
}] _{\
Ġ ].
ĠP erron
od ory
big O
AR D
): }
Ġ9 2
Ġsymple ct
O g
ĠR amanujan
j g
ĠB our
Acknow ledgement
A verage
in ity
und le
Ġconnected ness
ĠCol lege
Ġd k
lo zenge
Ġsta tus
pre liminaries
I MP
f erm
17 6
Ġa periodic
co th
Ġevol ving
Ġup ward
19 75
ĠMo ore
ĠSol ve
ĠGroup s
erg ed
Ġback wards
Ġann ounced
Ġv ast
Ġun conditional
lower bound
singular ity
M b
)/ (\
wr iting
LAR GE
T G
Ġelimin ated
un stable
ep f
Ġsubs olution
Ġ }}}
ref lexive
pend ing
ĠAlgebra ic
Ġma nu
er ro
lo gram
lon gation
\\ \\
sh uffle
Ġcol lective
I w
d an
}) :=
qua nt
sta n
on en
}_ +\
Ġpa rac
asymptotic s
Ġto pos
interpre tation
ĠA c
J X
Ġb c
Ġ{ $(
Ġad vection
ĠZ FC
- (-
Ġ$ };
Li kewise
ta ut
ro ll
us a
Ġpas sive
Ġdele ted
Ġc ry
,\ {\
ge red
vi o
z v
sk et
Ġ6 8
,\ |
ĠB ochner
' ^{
Ġre versal
Ġ= {\
}} ,$
hom otopic
Ġsemi direct
ts s
}}\ !
Ġpara bola
Lie b
flu id
+ )
th ref
Ġen lar
Ġtre ating
ti ties
ĠM U
Ġnatur ality
gener ate
Ġproject ors
Ġapparent ly
B ott
unda ment
smooth ness
ĠOptim ization
B d
n N
ar cs
Ġg rants
Ġde lays
\| {\
}[ {
; -
ĠPar tial
be comes
Bes sel
ĠDav id
ĠA N
|\ {
Ġle ak
Ġindex es
)}. $
Ġphi loso
' )+
Ġrecogn ize
DI F
Ġfunctorial ity
Ġenjo y
Ġk er
' \}$
B asis
F O
su ma
-\ ,
om it
I K
}} :=\
ĠL eray
textquotedbl left
page break
in st
ol is
termin al
Ġelastic ity
ĠM AC
Ġclo pen
Ġcombin es
iso lated
to f
up lus
)| >
. ).
W Z
Ġpla in
er ts
Ġ\{ (\
Ġexamin ed
co q
20 2
lineno math
v X
Ġ( `
}{ }^{
Ġma gne
Ġreal izable
Ġdiscreti zations
Ġappe al
\ ^{
end er
Ġdef er
b ited
put morphism
Ob j
Tra ce
M inkowski
ĠW itt
}] {\
Ġflu ids
As so
wa ra
Ġdiscus ses
}}. \]
ĠSm ith
Ġper for
Ġc ri
Ġvio lation
iet oris
F cal
a sp
in ductive
ĠT an
$ }}}
Ġde ck
us sian
Ġ\\ &\
ss en
ander monde
K c
am ong
S table
T ar
u q
Ã ¨
\| =\
ĠâĪ Ĵ
Ġ tedious
F t
} "]
Ġsur rogate
ĠPa inlev
Ġhistor ical
B J
ir rep
Den oting
tlen eck
p ull
Ġ+ +(-
fra med
)}\ |_{
transp ort
tech ni
}_+ ^
}{* }{$
& <
d Y
ma g
un lhd
ĠG F
Ġsugges ting
Ġent ering
+ $
. |
),\ ,\
ĠStein er
select font
i dual
Ġ ~~~~
Ġn p
Ġselect s
bij ection
K l
M H
ĠM od
Ġcorrect ness
15 2
Ġmark ing
Ġstabil izes
se v
end picture
ĠT a
ĠC hannel
ĠM A
la mb
ĠM ellin
ĠApp lications
&&&& &&&&
O E
t bl
begin picture
\! -\!\
Ġnormal ised
Ġminim ally
ĠÎ ²
define color
Ġoscillat ors
x c
holonom ic
Ġpercen tage
K ato
\, |
Ġconjuga ted
}} }=
Ġhe ights
Ġste ms
R ie
cm id
Go od
b atch
ta ting
be it
Ġreach ing
M ult
] )=\
n S
Ġz er
ey er
d il
Ġ\ %
}) }=
ĠP faff
ĠRun ge
ĠA S
Ġne gation
go es
ĠInt uitively
}$ }.
phy sics
| {
ĠS D
] }^
Ġ2 56
ut ta
}^* _{
â Ĩ
^{ <\
Ġorder ings
ough t
|_{ [
No tations
Ġevol ve
ĠPlan cherel
( )
- }\
ca uch
CS I
curve arrow
$$ \{
Ġsuper algebras
coun ted
impro ved
re ws
ac cessible
mc F
name d
> )"
\ };
me chan
Ġn eck
cal g
the ight
k ine
m O
qu otients
20 8
ad ditional
Ġin cur
res cal
ne ll
bb B
hd an
equi pped
/ }
Ġreson ances
Ġimplement ing
G h
}^ -(
=- (
ulari zation
oper ad
ĠInd u
ĠState ment
cmid rule
ĠS M
pa p
Ġran ging
frame work
un tz
Ġtw in
ĠâĪ §
D Z
K an
su sp
gra nd
ima g
Ġspecial ize
Comp act
ĠI R
dis cr
similar ly
ĠB og
and rov
)}) }
BS DE
Ġmaxim ized
ĠExp licitly
| }.
Ġra re
mon oidal
h erm
ĠComp aring
ĠGeneral ized
Sem i
inz burg
d sum
Ġconfir ms
la place
Ġs outh
Q M
Ġde eper
ist ration
ss f
}} })
ho mogeneity
Ġcont ents
Ġste psize
Ġsie ve
0 30
K V
hyper link
Ġpric ing
Ġinser ted
if ier
Ġh oro
ĠJ apan
inde pendence
}^{ (-
De g
\| }
dash int
S pe
Ġneighb ourhoods
Ġmy self
Ġtransmit ters
ll ig
}^* )
ak ayama
16 2
ĠCan ada
B Y
as z
po se
lt wo
ĠEx ercise
y k
ĠĠĠĠĠĠĠĠĠĠĠĠĠĠĠĠ Ċ
Ġmanip ulations
Ġdeli very
'' )\
Ġuni taries
Ġ_{ {\
qu iver
Ġpat ches
Ġp ipe
ms c
^{* }$-
ĠHa ving
wide bar
expand after
coordinate system
similar ity
Ġmathematic ians
ĠF P
\\ &&
Ġsub optimal
Ġreal izes
angle s
ichards on
h ilbert
set coordinatesystem
ĠG ar
Ġsh uffle
Ġfactor isation
ĠPa rameter
ĠDIS CH
. );
3 45
Ġw arp
ĠMate m
G I
pro ps
qu ar
Ġconver ted
mc A
tis ation
ĠLDP C
ĠK az
Mar tin
B ER
Ġs yzy
es is
}) }{(
stack s
cr v
qqqq ff
S ymbol
Ġlimi tation
B t
c mp
| }$.
Ġredund ancy
x bar
Ġ\| (\
Tho mas
N W
)$ }}
Ġg r
no ta
Ġs ym
ha in
Ġn c
cusp idal
b psi
Ġco boundary
we b
les co
ka wa
bru ch
Ġ$ ;
c art
e vol
ĠT x
)}{ =}
Ġpic tures
k wd
cal K
Ġy s
Ġpla sma
H ir
s cl
}= {
ĠSu per
ĠTo da
Li ft
C x
)) }.
ves tiga
S tochastic
Ġdesign ing
Mo tivated
ter al
Sch r
R ho
Ġ$[ (
})= (\
mf g
on ally
Ġma r
$\ \\
general ization
b imodules
22 4
Ġ\! \!\!\!
Sta ndard
X B
p il
ex c
Ġcirc ulant
Ġasser t
H en
ĠA BC
_{( -\
z g
ro oted
Ġ6 7
)}) ;
sla shed
Ġnonlinear ities
ynchron ous
S impl
be en
ph en
Ġga ther
Ġoperation al
@ (
m U
In serting
2 75
b O
le c
ĠAcade my
ĉĉ ĠĠĠ
cu toff
Ġsuper symmetry
van s
Per f
md default
Ġade quate
is ot
satisf ied
r D
ig er
ĠP hase
ila teral
ĠCalc ulus
` ,
ow itz
y tableau
ĠF ren
ĠPro ving
Ġ\! \!\!
Dec lare
O l
^{ ''
hol ding
L ength
v l
bran e
Ġpers istent
ĠF eller
il led
Ġcent red
Y N
k w
\} )$,
}\; .
rn old
Ġalgebro ids
summa ry
Ġ$ _
19 73
Ġnegative ly
sur vey
}}\ |_{
aa aa
ccur lyeq
Ġ ]{
) '\
-\ |
Ġtri m
Ġconstel lation
trivial ly
ila rities
ĠDefin itions
E p
ad van
pre ccurlyeq
member ship
Ġsus cep
0 40
B la
ta tes
^* .
eter mine
/ --
ch osen
ĠA uslander
Ġstra nd
2 90
p seud
17 4
th r
)} [\
Ġpres heaves
Uni queness
Ġscore s
We i
ĠH er
^* )^{-
Ġbra ids
F ock
M ES
de formed
ĠG ross
N ull
Ï Ģ
ref erences
Th ird
Ġadjoint s
Ġdele te
\{ {\
14 1
Ġ6 6
Ġrepe tition
pgf lineto
}}_{ {\
ou l
Ġ- /
ĠS R
)) :
Ġdise ase
}$ --
$\ +
labell ist
Ġ( =
Ġcol location
Ġpreser vation
MA C
z d
. }\\
text md
Ġcomp ares
bul k
s W
qu o
Ġro uting
on ents
Ġhomo clinic
inser t
ĠE ng
Ġ %
man i
Le v
s rc
sp inc
Ġreg ula
Ġrun time
Ġfol iated
ĠS an
Ġcur l
Con st
order s
Ġfruit ful
rho bar
cri ption
7 32
14 9
Ġ6 1
_{- }\
Ġpara dox
Ġphy sic
Pa ir
pre cisely
Res tric
D irect
w c
re write
Ġmanage ment
Ġper man
quanti zation
de tails
Ġla x
Ġsemi linear
adj ust
) )$-
Ġnice ly
Ġvor tices
textquotedbl right
})$ :
Ġro d
Ġ" (\<
Ġcoerc ive
Ġany where
ĠPro blems
Ġsubs ystems
Me asure
Per formance
m ref
Ġ$$ |
gebro id
resi dual
c pt
ol ing
Ġsatisf actory
ĠS eries
is otropy
_+ +
}}^{ (\
Ġsto ps
Ġadj usted
nes ted
)}) ^{
Ġtarget s
. )--
G ray
N x
f ying
en viron
pp p
^{* },
C han
Mo ore
Ġund efined
Ġste ep
Ġpermu ting
minim ize
^* ),
Ġob jectives
ĉĉĉĉ ĉĊ
Ġmer ge
U c
sp ac
Ġpa ired
Ġham iltonian
j un
re mum
$\ ,.
up default
special ly
is c
ĠĠĠĠĠĠĠĠĠĠĠĠĠĠĠĠĠĠĠĠĠĠĠĠĠĠĠĠĠĠĠĠ Ġ
Ġtetra hedra
M er
var Delta
hu ge
g las
IST S
ĠP C
thes es
g ating
s ff
ven ue
Ġhomogen ization
Ġcop ula
B rownian
S w
S cha
t mp
comp ac
t W
au gmen
inf o
> {\
g li
te en
Ġobser ves
}) )=\
irc le
Ad ding
leq no
^* [
)\; .
Ġsent ences
am enable
gl ue
recur rence
{\ #
eff ding
Ġstabil izers
an tic
Ġde form
ĠR H
Re lative
] <\
+ ...+
Ġdis car
J c
L f
z m
Ġ1 50
14 8
R set
Ġn s
sto ch
Ġderiv es
Ġtransp ortation
illem ot
x k
domin ant
Ġsub problem
ere ntial
16 9
pher ically
b us
un its
un bounded
Ġcapa cities
ĠB ianchi
Ġ} -\
Ġcounter clockwise
auti ful
: {
E ps
pro file
ons es
Ġarith me
indic ator
E r
i P
de mic
Ġsyste matically
I X
Ġad ditivity
Ġpla u
Ġindex ing
MA GE
cp x
ĠElect rical
x to
th s
pi ro
_* ,\
S al
y en
mb o
Ġr s
ount ing
ĠIt aly
_+ ^\
Ġ\( (\
' }_{\
Ġsto chastically
cons equence
Ġsubstitu tions
ĠA mer
'' +
ib erg
gu illemot
B is
f rown
Algebra ic
A Q
ze bruch
reg man
cauch y
x h
}) &\
Ġboo lean
Ġinfe asible
H p
)} }$.
23 6
ĠP l
OR D
ĠDiffere nt
Ġsu perp
ĠV ector
.\ <
& /
Ġn erve
ĠD M
regulari zed
b lam
r lap
ĠO R
Ġpara dig
Be ltrami
SI MP
ĠB rown
f al
Ġaddress es
Ġd q
ĠT hose
od ym
Ġ7 6
Ġsummari zes
Ġjus tifies
Ġ< -
B ernoulli
ha i
}{ }\
Ġ4 00
out side
A h
Ġ\| ^{
inter mediate
O s
V u
Ġw ins
Ġin distingu
ĠS pringer
ĠK ing
Ġrank ing
ĠSU B
3 25
Ġ& <
int en
)] (
Ġâ Ĭ
H Z
Ġmo bility
inter ference
Ġdisper sive
ĠS imple
^{* })
Ġ\' {
s lic
n om
ĠS em
Ġ} &
^+ )\
build rel
q m
| &\
mp son
ĠT er
Ġ20 20
z ard
Ġt alking
strate gy
on ce
)--( .
sha dow
Ġbifur c
N G
)) <
Ġ\, :\,
10 24
appro priate
ide mp
Ġrea chable
]$ }
}}, {\
divis ors
Ġ\ @
K ernel
M al
d Q
Ġma sk
var Omega
vanish es
t Y
ĠS ign
ca me
Ġmon ograph
Ġanalys es
i R
Ġ* \
Ġaccompl ished
de ter
sch ke
Ġrecover ing
ĠLat in
te lli
par ity
al ternative
}$ &$
ĠL an
Le gend
High er
med break
C lique
] }=\
ĠK hovanov
Ġtour na
Ġavo ided
Ġdimension less
)^{- (
angle d
inter action
ĠLi ke
ĠObser vation
}} /\
* $
O K
}} :\
Ġ1 95
s de
Ġs b
Ġco final
Ġex otic
ĠA bel
)}) =\
S v
Ġin fra
Ġcomplex ification
ro mann
)), $$
Ġ )}{
s sed
Ġcon fined
Ġm es
Ġinv oking
en c
L op
W ork
q l
V A
f Z
op man
Ġinter n
Ġ8 4
tra in
Ġconv olutional
` ;
15 4
Uh lenbeck
e asi
du cation
Ġfiber wise
X x
Ġle g
Ġlogarith ms
Q c
s nd
Ġsp reading
\}. \
pro ving
ĠP eter
ĠM al
'' ,\
Ġpri ors
Ġadvers ary
r us
Ġtrans versally
Ġsuc ceed
ĠInt ro
Ġapplic ability
Ġhomogen ous
c ra
ĠK ato
ĠW ick
character s
$ },\\
The ir
20 7
allow s
/ $
c star
Ġp q
Ġcoproduct s
ĠVer ma
P l
s Z
ch art
Estima tes
j d
ol lar
U Y
ir case
Ġ" '
lap sed
orn ia
colour ing
con verse
ĠV o
comp an
R bb
l isting
ma ta
}, (\
Ġ )+
F ra
N H
comp uting
Ġ7 3
ĠĠĠĠĠĠĠĠĠĠĠĠĠĠĠĠĠĠĠĠĠĠĠĠĠĠĠĠĠĠĠĠ ĠĠĠ
at t
it or
eta ils
&= (\
ti vities
Li ke
Ġequic ontinuous
Ġi e
mu ta
Ġdis covery
]{ {\
}] }\
Exp licit
ĠF undamental
Ġ{ #
18 7
^- ,\
ĠScha uder
A ction
bin omial
^{* ,
Ġs can
if ornia
Ġ\| {\
smooth ing
ĠSeg al
Decomp osition
Ġv ac
Up date
)*{ };
f on
in ese
}^{ }
{( }\
ste ady
ĉ ĠĠĠĠĉ
/ -
ĠOF DM
}} _{(
gra de
Ġac cept
Ref erences
^{ }
mo ves
&=& -\
Ġmembers hip
domin ated
The ory
Ġdis place
Ġeffor ts
t E
ĠS itter
A ux
coun tably
Ġ&:= &
)} :=
Ġsub linear
Ġjo ins
semb le
mat ched
compu table
~~~~~~~~ ~~~~~~~~
Ġ ~$
t to
ga tes
resol vent
ic an
Ġb alancing
Ġspec ifies
Ġeavesdro pper
R iesz
X n
Ġser ved
&\ ,
Ġdual izing
j us
)} |^
Ġsub domain
Ġra inbow
M ic
ĠT ar
ri k
N irenberg
p here
ĠN N
Ġspecial ized
Ġinf lation
Ġpull ing
Ġcomp ose
mber t
ĠG W
Ġpredic tor
}\! \!
bb m
\{\ |
d os
ri a
ĠR ing
Ġsee ing
ĠRe placing
Ġc d
Ġc rystals
es sel
no tice
22 8
Ġdatab ase
L ater
s ti
Ġun ary
20 4
Ġevolution ary
T Z
Ġu nt
}). \\
Ġconver sion
m irror
}) )^
Ġ$\{ (\
la ne
Ġ> >
amb igu
e al
Ġs gn
Ġs tick
Ġi j
~\ (\
array colsep
Ġprac tically
Classi fication
! )^
n A
Ġh at
^{- {
Ġreal izing
66 66
I mpl
Ġsp ot
ĠM O
24 3
Ġinver tibility
& \|
G ro
o sp
r B
Ġ\ )-
sing ularities
Ex ercise
las so
Ġcer tific
ĠPon tryagin
& ~
y ang
Ġle ts
E O
Ġpro b
of unctor
d G
exp onent
ce v
Le ftarrow
categor ical
A nosov
Ġu lt
)) |\
Ġper verse
Ġcooper ation
Ġallo cated
' /\
h ermitian
Ġschedu le
C ell
Ġlo oseness
O k
ĠB is
19 74
U I
sc ha
)_{ |
F EM
16 6
B rown
i prod
Ġper mits
OP T
b om
b sk
)}, {
Ma ps
cccc ccc
ĠST RIP
: }}
Ġ\ =
ni er
}' )$
'' -
bol oid
Ġ.. .\
Ġspeed s
Ġaggre gate
ĠC LT
^+ =
n subseteq
}[ ][
ĠC V
\}\ ]
be am
In n
Ġen large
Con ne
18 4
rough t
ĠAb stract
a R
k C
Ġexpla ining
F an
ro y
ch r
}= (-
val s
Ġdistinguish ing
Ġpi one
ĠCon nes
Ġbu mp
G reek
}| $,
Ġcent ury
bur n
ĠAcknow ledgements
Ã Ń
pp i
ac le
Ġbo ol
Ġfore sts
ar range
umer al
)}. \]
interest ing
> _{
{\ {\
ond on
Ġfa iled
ĠK ar
ĠY ork
ĠP CA
lim func
rie mann
bow tie
K b
ĠM ach
Ġte am
ĠNumber s
j ourn
ent ries
ext ends
Ġtemp er
riff ith
N V
ĠL R
Ġso cle
$ ]{\
Ġ: \,
S LE
}}$ )
}\, (\
Appro ximation
Ġminu tes
Ġvis its
ange vin
c pl
g uarante
)| +
Ġcorre cted
B al
Ġ$\ <
ĠS S
Con cluding
DI FF
Ġdis order
Ġst ory
be as
Ġle gi
Ġsub trees
fib re
j ap
comodu le
15 9
ull ivan
Ġflo ating
' :=\
pe ak
Ġcorresponding ly
/ |\
D l
E k
Ġhis to
Ġm oll
ĠM er
CON V
matro id
f rm
Ġf rozen
}{ *{
sk ian
KK T
integra bility
Ġrear ranging
Ġger be
ĠE ither
ĠPro ject
\ >\
in ality
re ier
\| <\
Ġquatern ions
Ġfol ding
L Z
)\ |^{
Co hen
Ġent ropies
Ġmanif est
}} ))
sp lits
vare ps
ara th
Ġfacili tate
T ak
\ )\
h il
ru les
Ġmeridi an
K E
Ġ" ?
Ġtermin ate
L yapunov
ll ers
sta tistical
}) )}
non trivial
b rack
st rip
Ġn ilpot
ces sive
Ġannihi lated
Z ygmund
i M
19 7
$$\ |\
Fact or
logarith mic
Ġconvers ations
Ġsumma r
provide s
Ġinver ting
pow ers
il st
Ġpick ed
mathema tical
curvearrow right
ĠE P
wi kipedia
app lying
bs on
sub subsec
00 8
n H
over bar
.~ (
S en
Ġchamber s
Ġdiffu sive
B m
ĠSc ott
Ġ- {
ck ing
_+ )\
Ġtransp arent
}) {\
am ing
A J
i ot
k is
en z
Ġs q
Ġdivis ibility
Ġpredic table
pa red
Ġgra d
22 3
Ġ7 4
^{*} _{\
IS C
D J
s ymp
In stitute
ĠUn iform
ĠA iry
\, ,\\
Ġstraightforward ly
process es
f usion
Ġ6 9
ĠRe lation
Ġcontrol lable
Ġf as
Ġde coupled
sui table
or ry
}) ]\
Me thod
ĠT est
ĠA ns
Ġte ach
Ġinitial ized
gre edy
ĠH is
Ġ| _
Ġro ad
15 3
B ayes
tu be
si e
intro duce
Ġzer oth
c vx
| [
ta ni
ir ically
,- )$
equival ences
CF T
Mathe matics
@ .
H f
K ar
V B
we g
Ġcontain ment
resi due
is tically
ĠB asic
Ġsp ine
ĠK ra
^- )$
local ized
&& -\
ĠSta ndard
IEEEauthor block
? ?
f ct
Remark s
ĠMe thods
ĠK rull
exp lo
17 7
on est
Ġpro min
tis tically
diamond suit
Ġunlike ly
Ġ9 4
Sm ale
)^{ (\
17 8
Ġdiver ge
Ġaffin oid
s addle
ma gn
Ġpo se
Ġle gs
ag o
Ġlog ics
DB LP
Ġb orn
hrule fill
t Z
^{ '}
19 8
Ġacc om
Ġpref erence
presen ted
Ġseman tic
m space
Ġbe autiful
); ;
Ġtra velling
Mo ser
& {
ĠA v
Ġsp ring
emp irical
Ġincreasing ly
pt l
}=\ {(
s af
leq q
ĠPro f
flow s
C ode
Ã ¼
di rac
ĠFig s
upper bound
simpl ified
ans atz
I W
c is
se ctor
23 7
Ġproposition al
Ġde centralized
)}( {\
sol ving
fi ers
Ġpolym er
y an
^{ <
ĠT OP
Ġal ter
cor ol
ish es
={ [
Ġoff spring
E mb
ĠMAT LAB
Ġreveal ed
Ġcollaps es
\ -\
Ġb rid
sy st
om orph
]$ )
Ġw heel
Ġcomp ress
Ġat ten
Ġ$\{ -
Ġ9 8
F n
h ot
ne th
Ġsub differential
H er
is a
_- ,\
$- {\
beha ved
) _*\
B ir
V M
eeq a
sol iton
virt ual
b ft
Ġresp onses
asu res
=- .
Ġiter ating
w ski
Ġess ence
F x
L ink
s Q
po sterior
ĠK irch
Ġdele tion
usu ally
{ ^
}} |^
Ġsa nd
Ġpla nt
d dagger
ĠTop ology
modu lus
ĠCat alan
, ''
}} }=\
}} )^{-
Ġver tically
Ġ20 17
' ))\
Ġdefinite ly
b Delta
o le
) *\
Ġcomple tions
}), (
23 3
e lim
ĠC D
co mma
ĠK KT
sh rink
Ġ ic
ĠRa demacher
Ġbary center
Ġsim ilarities
ĠF okker
}_{ [\
_+ }$
], $$
N or
Ġc hi
^{- }$
di o
ipher al
G re
ĠS al
24 8
tic a
(- (
Ġprior ity
! \!\!
s equential
ĠB run
ĠD an
Ġelliptic ity
Ġcrystal line
Ġmolecu le
Classi cal
= +\
i ers
)= |\
_+ -
Ġinfinite sim
I tem
la h
un t
man ces
Ġdepic ts
ĠForm ally
accu racy
tri p
Ġsplitting s
fe asible
h E
Ġal le
'' '(
Function s
Ġnew ly
Ġc ast
ĠT R
ĠA dams
19 72
Ġ8 5
m ote
| }^{
Ġin exact
par ta
Ġsp line
Ġ~ =~
Ġholonom ic
C hannel
c st
ĠB ox
16 4
arse val
L y
b lank
Ġsu ited
}^ -$
rigid ity
di al
ust er
ob ayashi
Ġden ois
beq a
ĠTh ough
ĠSt one
Ġ$ <\
w ater
Ġto ld
BV P
ĠL earning
Ġtrans mits
Ġpair ings
S ymmetric
ĠEx perim
Ġtrac ial
+ }(
ĠAl gorithms
^* |
Continu ous
ĠOptim al
establ ished
mis phere
Ġpor ous
A Z
}; \\
Ġdynam ically
ordin ated
and el
ĠCa mp
B el
tikz set
Ġbas in
ĠDecomp osition
is or
,\ :
Ġ- |
Ġv i
ij en
hom omorphisms
)}) ^{-
Ġtr unc
La TeX
)}\ }_{
ok a
A Y
ĠC ap
sign ed
ssential ly
D ouble
S X
] }_{\
ĠM cK
}\! \!\
)) <\
Ġsuper solution
Ġtransmit ting
ĠWhit taker
g iving
de si
Ġpo si
ĠK im
ĠChe eger
{ }^\
Ġ\ }$$
sk a
I c
{ }}
}_ +(
ĠB G
sta tistics
\| $,
})\ )
Per iod
Ġhydro dynamic
m ess
int ert
Ġl ives
20 3
24 6
real ization
Ġb rought
MM A
âĢ İ
diffe omorphism
romann umeral
Ġsemic ontinuity
Ġ eqn
n M
ĠS ti
Ġany way
Ġsem iring
V alue
g B
non negative
Ġo ct
ch ord
^+ }$
ĠMa ximum
., ~\
Ġprox imity
k R
ĠD S
B og
h orn
Ġgeneral ise
Ġoper ate
Ġdou bt
Ġantipo dal
T ru
]= [\
Ġdro pping
Q N
Z d
ma te
ce ption
d cases
s norm
de cre
ĠI de
}= &\
li pschitz
Ġtransform ing
H amilton
Ġp yra
Ġd X
ĠP S
Ġindivi dually
uris ub
se ch
Ġ| (\
ang ular
symbol s
T echn
ĠCal ifornia
o j
{ }^{\
ĠM PC
vi i
Pro positions
ĠRo ta
K al
Ġ$ &
Ġ$ ]
xima te
ĠRe l
ĠEx istence
ow ers
ĠJ ack
ĠCor ollaries
dig it
clear page
l V
v line
Cal Q
un ing
}^{- }
24 7
unique ly
Ġ *}
Ġre cast
frak g
)& (
i E
}) }=\
ĠR ate
Ġnoise less
hh h
Ġdisturb ance
Defin ing
Ġthor ough
di ve
ucl id
Ġoscil lating
Ġstri ps
G b
Ġd ichotomy
Ġg y
sc u
fig ref
MP C
Ġsci entific
f oli
pgf math
Ġrespon sible
mem ory
Ill ustration
g reat
s J
Ã ¡
ta rea
ic ated
du st
ĠE m
26 5
ĠDo F
T HH
ĠCent ral
R s
sul t
Ar row
Ġbis ection
ĠAW GN
D h
ĠB F
30 7
trans mission
Ġun correlated
ĠK ontsevich
Z M
Ġbe came
ĠA ND
fin iteness
^*} {\
Ġexis tential
b ases
k N
ov a
)}} ^
Ġpermu tes
ialgebra ic
A y
J u
Con struct
Man in
Ġoc ta
he art
_\ <
ĠF rank
res holding
dis tr
Ġhe ld
Ġresi duals
b dot
h A
w ald
in cl
nd on
ĠA MS
ĠX REAL
18 8
Ġoff line
Whit ney
swit ch
lo ading
label led
po i
bs m
Sp here
penal ty
i H
pro cedure
)- $
Ġlook ed
$\, ,
T ang
ib re
Ġ[ :
ne x
represen table
ĠOr licz
@< .
4 75
Ġresol ving
I mm
h size
ĠM N
Ġcomp ara
w ick
Ġimp ulse
Ġheuristic s
V W
or acle
ent o
Ġsa f
SU RE
Res earch
Ġexperiment ally
b rown
e j
ilb er
F ixed
I to
ha mel
ĠC u
ad m
Ġdiag onally
}^+ $,
trac king
Ġpop ulations
Ġarchite ctures
behavi or
' ^\
}) ^{-\
ĠR u
no isy
.... ....
ĠLast ly
' ^{\
J Y
Ġ& \,
mi le
rad ical
ĠB lack
Ġsub word
are r
Ġdro ps
line thickness
23 2
sp e
ie u
DF OR
ĠTho mas
Ġexci tations
Ġrenew al
Ġc it
Ġbi holomorphic
ĠSpec ial
3 10
set plo
iter ate
>*{ };
setplo tarea
U u
x vec
la sh
Ġu mb
Ġcap ital
Ġpeak s
m ise
Ġrea ctions
dv tx
sd p
B f
G Z
al gorithms
^{ >
sen sitive
link s
Graph s
K utta
b Theta
ĠF und
ĠO N
19 9
C oker
}) =-
ad dition
Ver tices
Ġcuri ous
}] \\
Ġdecomp osing
Ġclassif ier
ici ency
mb ar
)\ :
alu es
Ġla te
Ġen gine
v rule
(\ !
Ġclassical ly
] ]$.
Ġex its
Ġintegra tor
neighb ourhood
ĠAppro ximation
p j
en se
de cess
ef el
& :=\
H ardy
Ġcon ta
Ġun necessary
ĠO pen
According ly
Clo sed
Ġretri eval
Ġvic inity
' )]
Q F
Ġ0 0
^* )}
b st
Ġe l
Ġthree folds
pothes es
Ġ ðĿ
Ġdiffusion s
0 45
L andau
V is
âŁ© ,
Ġantipo de
}= [\
Ġcu mulants
EN DFOR
trans verse
Ġw ra
Ġcon den
Ġ$( [
Ġsub gradient
L ab
Ġcollaps ing
\ }\,.
w inger
Ġf idelity
End For
Ġhighl ighted
ĉ ĠĠĠĠ
l ds
Ġp al
Ber nstein
ĠBur gers
Ġimper fect
inforce ment
E f
pro posed
ĠF uk
ĠN OT
ger m
Ġbro ader
Ġstiff ness
Un like
Ġ\ :\
Ġ[- >,
fol ded
ĠSeg re
x X
Ġg ate
Ġare n
ĠC I
yn olds
Con ditions
ĠNewton ian
' ]\
si zes
^{- }\
r hs
Ġf riend
Ġinver ted
tang ential
ĠStr ong
K I
t ory
Ġe man
tr al
^{* }_
Ġ20 15
Ġa diabatic
Ġ~ |~
trac table
M ass
j z
et z
Ġas set
Ġinequ ivalent
30 5
)|\ \
V an
ĠC L
b bar
Ġs k
ĠF I
)}\ ;
Le vi
}{ -\
20 6
Ġar chimedean
{- >
ĠB ere
Ġmo tive
Wi ener
Ġlegi timate
se min
its hape
ht ml
Ġbar s
Ġs pherically
sp line
nor me
ĉĉĉĉĉĉĉĉ ĉĉĉĉĉĉĉĉ
r L
^{ }_{
Ġre le
ir m
ss a
O me
ĠA dv
Ġnegle cted
A k
a ro
Ġs weep
ĠM it
Ġround ing
PE AT
' }+
b se
m cc
er tion
}{ _
ĠI wasawa
Ġsur pr
Ġinves t
^* )=\
ĠĠĠĠĠĠĠĠĠĠĠĠĠĠĠĠĠĠĠĠĠĠĠĠĠĠĠĠĠĠĠĠ ĠĠ
ĠInte restingly
SK I
Ġensu red
ĠRob in
s ort
u mb
con tin
Rec ur
ĠWhite head
ĠI tem
Ġeasi est
Ġval ence
Int uitively
temp erature
punct ured
\ }}(\
se veral
}} =(
Ġk m
\}$ )
ag ent
ĠCon struct
oly gon
D cal
ĠA g
ĠD espite
au ff
condition ally
ĠDis crete
ĠModel s
ib er
Ġcom on
Ġwork ers
gg ling
vD ash
- '
Z z
cite s
ĠD un
'' }\
]( .
{ <
\, .$$
Ġ9 1
contrac tible
Ġsuper critical
}^+ _
N il
Ġign oring
te cted
gen ta
ĠRes tric
p lu
ri zing
infinite ly
ome o
})\ |
Ġconflic t
Ġplau sible
it man
ly ap
co x
Ġperfor mances
Ġcon d
sp read
ĠExt ension
K C
ne u
or a
cl s
Ġequ ilateral
Ġfa ult
Ġstabil izing
ĠPer haps
R Hom
Ġ= $
Ġex cited
Ġ )-
c cl
h M
)=\ \
Ġ7 1
Ġstri king
OIUY OIU
Ġparadig m
t binom
iden tification
psp olygon
Iden tity
scat tering
R ig
con servative
)) },
Le vel
)] \\
ura moto
mit ted
pol icy
Ġempha sis
Ġqu al
Ġconf using
d st
ma king
Ġtra pez
~~ ~\
ĠCha racter
D espite
b pi
Â °
Ġrela ys
19 70
Ġga ussian
Ġround ed
Ġbos on
' }-
Ġto y
SI C
w ich
w hether
rm H
}[ (\
)}) (
ellip se
autom orphisms
n bd
Ġ= =
ĠâĪ Ģ
logarith m
Q AM
f eedback
Ġb ins
Ġco res
pp y
}^{- }(
') "
Ġfound ation
dap tive
Net work
Ġs orted
ch on
un cate
ĠD om
})$ )
22 6
D g
Ġf resh
< *
H d
Ġs hed
Ġp si
for get
Con straint
18 6
zi one
S ize
ĠB ose
Ġqua ndle
Ġbot tleneck
ot ts
ĠP layer
ĠG Hz
Ġ9 3
}$ },
ca usal
ass isted
fr p
Ġconstitu ent
Ġindistingu ishable
ĠS cho
gen e
cou ple
Ġarri ves
Ġautoma ta
A o
N OMA
| )}
}}$ ;
tran sf
cs name
Ġannihi lator
' \,
F lat
I i
t Q
Ġto u
Ġex changing
Ġhyper k
Ġtu bes
over lapping
Ġspace d
Ġimpro per
experim ents
bo o
16 1
R k
or ov
Ġexponential s
Ġfla vor
urisub harmonic
T n
m to
Le ib
imp lying
A PP
s ke
25 2
ĠHa hn
ĠCh ar
Ġoff set
Ġsaf ety
N AT
V v
)$ },
sub spaces
\! +\!\
K re
thick lines
R HS
projection s
ĠS pe
Ġframework s
Ġelimin ating
er f
Ġune xp
R at
{ }^{
is ible
ee as
Ġadap ting
v N
po incare
ĠD r
ĠD ou
Ġwould n
ĠMar k
}^+ $.
mode s
la u
de coding
Ġv ague
15 8
Al most
ier i
\ <\
Ġbe ams
Ġhe misphere
*{ .
Ġpseudo convex
Def n
Ġproj ectively
eval uation
w icz
ĠI S
ext reme
Ġpla t
ĠMat lab
S ketch
\!: \!
Ġcommen su
Ġf g
Ġ9 7
orth o
T b
de e
der ive
Ġval idate
9 00
b our
h D
Ġ$ {(
Ġcircums tances
Ġe ta
)) }^
On ly
ĠBS DE
ĠS tu
bf b
)| |\
' }^\
h L
$ )$
H older
ĠI P
ty p
M n
Ġde duces
exp r
Ch ris
fa il
is ers
ig raph
ĠMechan ics
r br
ĠT D
Ġu rn
big idx
ĠH S
Ġl n
ĠW itten
ĠU K
_+ =
ĠJ ohnson
Ġexpon enti
) [-
ĠM umford
circ les
ĠMean while
Z hu
non lin
Ġtensor ing
Ġrec tifiable
Ġresemb les
b zero
forma tive
orth ogonality
_ (
d vol
}) )^{
Ġsubstitu ted
Ġlexic ograph
lst listing
p on
Ġb id
lo ose
Ġnon positive
ĠAn n
F er
Ġw reath
Ġto day
frac tal
)^ -
Ġsp iral
ĠMultip lying
/ ~
b ord
ha ust
ĠS A
)| }{\
}}\ ,.
metric s
or f
ben o
en chel
}+ |\
Car tier
g host
n is
), {\
Ġtemp or
Z b
] ^{(
j w
x m
in version
ĠI H
Ġ1 44
ul is
})\ ]
Ad j
Ġregar ds
' }^{(
p A
tex theight
tor i
Ġdivisor ial
Ġdefin iteness
Ġmi tiga
ie f
bb c
Ġorb ifolds
ĠCalc ulate
S an
ia vin
Re als
)] ^{\
y p
bracket s
environ ment
s sp
~\ \
par indent
ĠD yck
)\, =\,
28 5
ĠEs timate
Ġsatell ite
e ight
compu tational
}$& $\
Ġexamin ing
! !
ĠD T
sto pping
Compu tation
ticular ly
$ _{\
ref ined
ĠS tieltjes
Ġremo vable
gan ization
Car tesian
le aves
ta ck
A z
Ã ²
no break
ĠCh inese
qu atern
ĠUn ion
l ich
Ġ7 8
Ġrece iving
] ]\
Ġc rack
ĠĠĠĠĠĠĠĠ ĠĠĠĊ
Ġsmooth ed
ĠWhen ever
mf p
W il
r j
ĠM F
ĠE ve
hy brid
ĠCar leson
Ġ$| {\
Ġtang ency
Ġpul led
C ard
Ġlocal izing
][ ]{
( .,
17 9
Ġtre nd
)+ (-
ĠMa urer
minim ization
sign ific
}' _{\
Ġin j
}[ [
Ġ+ |
Ġst range
Ġpre pare
Ġcou ples
Ġnormal isation
fore st
{} &\
Ġre serv
ĠV ia
Ġbenef icial
sc ore
_* ^{
boot strap
Ġ[ .
ĠN oting
ĠV e
)^{ *}
cus ing
_{- }$
:= [
ĠRes ult
H essian
Ġm en
Ġqu ote
ĠChern off
hier arch
it ud
Ġpre coder
Greek math
Ġ tim
Q q
ĠC E
Ġreview ed
intersection s
Ġtemper atures
Y X
)$. )
Ġtrans lating
Ġ20 16
Ġ( ?
og ous
cc qqqq
25 7
and ering
ĠK e
symme tries
IEEE membership
Ġbuil ds
F X
T p
] |{\
ĠV E
Comp ute
ĠComp arison
\; $
}) =\{
Th ough
ĠPre cisely
W atson
Ġd ama
ff f
ĠD R
Ġnon vanishing
15 1
gn l
p P
ĠS LE
Ġevalua tes
xx xx
Ġtransp ositions
pop ulation
V D
{$ (\
P OS
x R
re ps
Ġ( '
Ġd P
17 3
Ġnormal izer
ĠDer iv
C yl
N K
lemma s
margin al
ĠTrans form
ĠC re
Ġun imodal
mu ch
Ġ- >]
)}\ }$
Ġholomorphic ally
Gal erkin
addto counter
In j
Ġrecor ded
SV D
g onal
Ġcry pto
d at
su g
,\ <
ri m
ĠR i
Ġnon increasing
cu ts
measu red
uri ous
ow en
ss c
)}\ ,.
link ed
Ġpen tagon
' ),\
) ^*$.
}| ,
Qua nti
r to
\, ;
o ta
ĠR an
Ġout liers
Ġoptim izer
Ġswit ches
Ġmemory less
dense ly
be ging
)| =|
Regular ity
beging roup
C how
Ġ$ :
Ġs lack
ĠG EN
bran ching
pa d
ck e
}[ $
\, $.
Ġpath wise
Ġdiver gences
fra mes
dis per
im m
Ġtri es
ĠMac donald
})\ }$
iter ative
Ġnum bered
le ads
ĠU V
Ġstre ams
Ġdom inate
( }
\} }$,
Out line
ĠKre in
h j
ur in
)] ^{-
|- |\
ĠChris toffel
res ta
Ġsub interval
ĠWe ak
Ġcomple mented
Pre liminary
20 22
&=& (
Ġsket ched
d U
}}\ }$
ĠGra dient
Ġcapa bility
D rinfeld
r M
temp oral
L k
ĠV andermonde
Ġsymme trization
h R
i as
z hou
he lm
ur ally
IN G
r ality
ro me
}\ ;\;\
ga u
ura te
vaila bility
Ġmaxim izer
Nik odym
C ay
o il
)- {\
19 4
Ġexci tation
S quare
Ġsa ving
_{- ,
S ys
sp lain
_{+ +
Comp are
ĠSche me
ĠS PDE
Ġun ivalent
wh t
omp act
O G
v box
ĠTh ird
inde l
Sm ith
T rue
Ġde ad
Ġco action
sub caption
we l
bu bble
orth onormal
mini max
ĠA M
Ġy ellow
^+ =\
explicit ly
RU LE
, >=
Ġs ought
ĠD a
sign ature
}| }{
Ġ7 9
ĠUp date
$ )]
I MAGE
X t
d To
w y
Ġ( "
}) +(
In verse
Ġinter play
old en
li k
|}{ $\
Ġex po
Ġ ^{-\
I u
s set
), ...,
Ġcal i
varian ces
_+ ^{\
Co mb
Ġview ing
Ġrad ar
Ġk illed
ĠSDE s
Ġparalle logram
^{ }_
}\ ,\,\
Ġsepara bility
a mpling
o cc
de ff
ĠB A
Wh ite
S il
i I
ĠT AR
Ġm n
))\ ,\
Ġtransfer red
Ġun ordered
Ġun fortunately
sh all
Ġ$\{ {\
Ġoptim ally
R Z
ĠD AG
}{| |
ĠHar ish
Ġ\ })
Ġcon j
ne ider
)| +|
Ġindetermin ate
Ġprogression s
\ }+
Ã ³
}} }_{\
ĠE E
20 9
ĠSci entific
apri ori
Ġsub schemes
Ġhom otopies
Ġstabil ized
Ġbig ra
sket ch
b io
c ub
s pp
ĠA LL
Ġno table
Ġswit ched
' )^{\
a mma
u chi
{ :}
Ġex posed
ow ed
ind iv
Ġparen theses
E rd
Ġo d
Ġpro longation
" :
E B
j q
&& -
{\ ,\
label s
i lo
regulari zation
' }^{-
Ġ- ,
ze g
ige on
Ġreserv o
r S
ch arg
Ġrela tional
ac celer
$$ -\
ex ternal
beq s
]{- }(
Ġintern ally
h ess
}) _{(
ys cale
Ġ< *
mula ted
tab colsep
* ]
N cal
bf p
18 2
prec sim
Ġremo ves
ĠTAR SKI
T v
_- )$
Ġadv ice
Ġdegener ates
: _
D p
ser ves
Ġ20 18
Met ric
Ġfund ed
s so
al og
ab br
vec f
gen frac
Ġac oustic
Ġwave function
Ġbos ons
Ġassemb ly
n F
w ol
x leftarrow
ĠD uring
pre p
Ġcompe tition
c ould
cal h
ont ally
tot ally
Ġbifurc ations
F UN
n in
ĠM ackey
reg ions
Ġgrading s
Ġoptim isation
nb hd
in berg
et ing
ab er
Ġmanip ulation
'' _{\
Ġsto ck
SU R
g X
mb s
Ġproble matic
Ġext inction
}| |^
Ġexclu sively
' );
}(\ |
Ġhand les
Ġo pt
Ġcon cord
wa h
Ġ20 14
Ġ[- ,
ĠR OM
Ġult rametric
B our
q z
ĠT S
co py
R os
in ess
si multane
use package
vv v
elect ric
Ġaccom mo
! :
Ġin consistent
Ġpas sed
B etti
sub sect
Ġdis cover
Ġsub domains
}& &\
i D
ho mogen
17 2
Ġbra in
* _
op norm
^- }\
22 7
Ġbo ard
P bb
| _{(
bb er
}| (
Ġbin ding
Ġsnapsh ots
F b
^ !\
Ġp uts
Mathe matical
| )^{\
}} }}}
prop or
Ġtru ly
Ġanalog s
b ri
Ġnon smooth
Sing le
ĠB D
no vation
Ġpre vents
Ġabs ent
Cha in
fc ir
! }$
Ġle ver
ĠG IT
cla ture
omen clature
Ġzig zag
st ress
). .
Ġ} )\
Ġdia gramma
Top ological
ĠNone theless
3 40
> ;
g K
Ġcon vection
ĠI FS
Ġex clusion
ĠL ondon
Ġbary centric
piece wise
Ġanomal ous
f ro
g def
Ġar ity
Ġemp irically
cont our
r C
Ġco al
}_ *(
un ay
Ġen closed
bet ter
s age
19 71
ob vious
ĠDis tribution
4 000
ma c
du p
ca pa
)) ))
19 67
tens ors
infinite simal
C ould
}\ },\
Ġstabil ize
PR OP
}_{+ }^{
sample s
G n
d dag
on ese
Ġsta tions
ĠArtin ian
pare ns
ee l
Ġsche matic
$: }
66 7
Ġincorpor ated
Mom ent
Ġb io
_* }\
H OIU
OIU P
J e
h C
re ach
Ġin fin
show ing
Ġdeci dable
L infty
le ctor
if num
di ame
cur ly
iew icz
color able
gener ation
Ġbran e
Ġparametri ze
Ġsemin orms
S ample
ĠP arseval
ac s
OO O
b Gamma
cal o
di er
con servation
)) ,\\
Ġcol lar
rela tively
ĠReg arding
E lliptic
19 3
Ġtermin ation
ra el
Ġter med
Ġthermodynam ics
for s
Ġtri valent
re levant
Ġcon cise
m J
x ing
th o
lambda b
Ġser ious
Un it
Ġemplo ys
auff man
E i
circ ular
Ġinter changing
ni tive
Ġdraw s
fil ters
Ġ )}{\
Ġ< _
Ġpla quet
it ted
'$ };
make cell
ah l
Ġcompe titive
b auer
}[ $\
au d
_* ^{\
Ġ|\ {
mon odromy
ĠSet s
ĠOr nstein
a tivity
ar per
at ten
Ġg ran
}) :\
qu at
Ġsta tistically
C ategory
F ul
y on
Ġrela ying
A ct
ĠO per
Ġab st
Ġcontro llers
ĠPlan ck
pub lished
\ }+\
ĠF EM
Ġsign atures
< _
S trict
e me
Ġe mission
Ġpla cing
ha ber
ci on
Ġ8 3
Ġdiscreti ze
H g
Ġb onds
ollow s
ne utr
Ã¶ lder
D on
M K
Ġre tain
ĠB el
Ġle gal
Ġqu intic
Ġconf lu
ĠKo opman
] =-
l le
ĠT u
sta tion
Re lations
Ġconveni ently
asymp t
@{. >}[
ti gu
}) &
sp i
\, $,
ob serve
F ran
x scale
ll corner
Ġex cluding
group oids
23 8
|}{ |\
Differe ntiating
in prod
oper ations
n an
Ġpend ulum
ĠF E
La x
Ġcl ub
AC E
Ġcoerc ivity
^* )^{
loc ations
Ġseem ingly
G ibbs
Ġpro vable
Ġco adjoint
theta v
Ġsp ent
Ġ$$ (\
_+ }(
( "
k X
ar ri
Ġb ide
)}\ |_
Ġdepend encies
Ha damard
S ep
ĠF ra
ĠH art
Ġstu ff
antor ovich
Ġheter o
Ġadvers arial
O bs
n E
}} )\\
ati o
âĪ Ī
g O
s mile
}^+ (\
) ^*(
all iavin
Ġrelax ations
S ay
ij ing
DD D
connect ing
Y a
ĠTh ree
ĠE H
Ġnon abelian
am splain
Ġ$- (
ĠâĦ ķ
Ġsuperp otential
ĠR ank
ev rey
combin ation
ham iltonian
j c
bf F
spect ratio
Ġdi pole
Equ ivalence
q v
ĠJ ac
)< +\
N d
Ġin dust
pa spectratio
Ġsubs heaf
|| _\
Ġpredic ts
h is
ĠP P
resp ective
Ġpur sue
h bt
Ġcon ges
int d
Ġh our
Ġ$( (\
&\ |\
LE X
ĠAust ral
Ġ )\,
D an
V T
Ġsub harmonic
verti ii
$ ^*$
in sky
$$ -
ĠWe i
ĠWe instein
ĠMathe mati
n ec
| )$.
ĠGraph s
A cc
Z i
Ġo wing
}$. )
Ġho st
under stood
Ġtechn ically
OF DM
im s
parame trized
parta ment
] &&
a one
(( -\
ĠLabor atory
resta table
} **
)} }\\
Ġno tably
Ġent ropic
pack ing
Ġpromin ent
b th
r node
Ġcon ormal
Ġsu cc
ĠK le
Ġprojec tiv
G J
ĠF aculty
Ġ} }$
Ġ| $
Hil m
discre tization
Ġfavor able
}{ !}{
ĠL M
ðĿ Ĳ
' )}{
Ġsa ve
ĠK ore
ci ety
37 8
' ))$
V i
^{* }}
Ġcompac tifications
Ġoutper form
b ern
k L
ĠT A
)= [\
ĠD A
Mu kai
] |\
z ur
Ġw arm
con cat
ĠCon straint
C os
Q CB
ow icz
Ġmu tations
T its
W ilson
l ct
ga wa
Ġso lar
Ġ7 7
Ġformal ize
Ġlands cape
intert w
i man
ĠC untz
Ġle verage
Ġdeploy ment
Ġturbul ence
& *
ha ul
ign orm
bo son
em er
cont ract
Ret urn
Ġsugges tion
ĠEng lish
' \|_{
n K
cdot p
Del igne
ĉ ĠĠĠĠĠĠĠ
\ }:
Ġal co
Ġmagnitude s
ĠNetwork s
Ġex emp
] }]
}} ;\
=\ |\
ĠL ower
}. ]
Ġreal ised
Ġsuper singular
G rothendieck
o e
| }$,
Ġindetermin ates
ester ov
W L
p E
Ġhe alth
fre q
v G
Ġla ser
ĠGal ile
period icity
Ġsyn thesis
' _{(
Ġin vert
Ġpix els
$ _\
ĠCar not
Acknow ledgment
spac ing
}} )}\
so bolev
ĠG re
summa tion
H m
ĠF ellowship
Ġapp end
\, |\
new ton
sg d
Ã© tale
: }\
D w
qu bit
In finite
Ġadjust ment
Ent ropy
Ġ$(* )$
o val
Ġad missibility
conn ectivity
ĠBo hr
coinc ide
Ġl in
.\ @
Ġ10 8
Ġasser ted
Ġkine matic
h ta
in r
ol ov
}} :=
ti zed
math strut
ĠE igen
}] ^{\
Po incare
ril lov
` ]
]{ @{}
pri mes
remain der
R un
c node
j y
Ġ20 13
Dec ay
, }\\
c df
or ok
Ġse x
po si
}{ *}{\
Ġ0 1
om ics
Ġman aged
sur gery
Ġelectric ity
ĠMay be
Ġ _{(
E W
int op
Ġcal ibration
^{+ +
ĠPoincar Ã©
u o
{ }_{\
De gree
Ġsub problems
Ġ8 2
Ġfa v
Ġtessel lation
ĠI D
ĠS olutions
ĠB MO
Ġcharacter ised
ens ored
Ġattack s
ĠSUB SET
Z n
| $$
Ġde coupling
ĠL angevin
ĠNo vikov
G d
ĠN orth
NN s
sol ved
Ġwish es
ĠT P
os a
Ġpresen table
&- &
Ġsuff ix
ĠKaz hdan
cal Z
ĠD onaldson
linear ized
Ġ\! \!\!\!\!
ĠCor responding
riffith s
Ġsu fficiency
ĠF a
$- --
ctor al
bound ing
Ġbo ils
cro ssed
Dia gram
t j
v L
mathb in
asi ew
Ġtigh ter
z c
Ġ. }
Ġ\! +\!
suma bly
Ġ tilde
F redholm
Ġn x
non empty
IEEE tran
ertur b
' }|
te tra
con fig
eps fbox
Ġrequ ests
triangle s
Ġcombinatorial ly
m il
Ġdis tor
ĠD ol
ĠQ C
Ġext raction
Ġsem ialgebraic
Q H
lo oseness
lo aded
ves ter
Ġprocess or
24 4
uc as
ĠBla schke
y ama
Con nes
cle an
Ġsto pped
{ ``
Ġwe l
Ġro lling
_{* ,
Ġmono pole
)+ {\
_{+ }^{
Ġ vec
Ġab surd
Ġ_ ,
na ive
)). \]
ĠAd S
H uang
S hift
Ġf ont
Ġj ud
B ern
L Q
h ilb
s ref
al ready
^* /
s ymb
y h
ĠN orm
hu is
odrom ic
Ġses qui
( '
R cal
ĠQ M
No ether
easi ly
ĠL usztig
In fC
lan i
] })$
ore lli
umber some
ĠSt re
Ġserv ices
r W
ĠB L
)= +\
mo tiv
corre ction
Ge ometry
i L
s or
long to
Ġcas cade
Ġ\ }_{\
ce ived
ĠD on
32 6
develop ed
]{ |
Ġop ens
ĠFin Sequence
Ġint end
" ']
ta ctic
si o
Ġto wers
}{ }{\
mb i
Ġde par
col umns
prop ref
Pr incip
] ))
Ġsu ffer
23 9
Ġvisual ize
ĠS il
Ġen comp
ĠRe es
err ors
Ġfactor ing
Ġev idently
] =\{
)} }$,
ĠE lements
}] ,\
oun tain
P DF
ĠB B
Ġdim er
repres ents
Ġsec ant
h G
axiom s
K H
N one
c prime
ĠP u
CD F
al lo
Ġper me
Ġtra ding
rg od
F h
Ġquanti fiers
Ġca vity
add legend
ĠIntegra ting
le pi
ĠR G
ib li
Differe nt
perturb ative
in line
ĠComp ared
ĠKal man
" {
a X
e pendent
bb ling
18 9
Ġgo als
Ġga ined
Ġcrucial ly
Can telli
b de
Ã Ĺ
an onical
ĠR en
yn g
Ġblow s
ĠCN RS
Ġequidis tant
ARI TH
u ggling
Ġa side
Ġshe ets
Ġep is
Ġdegra dation
er ial
bf T
Ġsol itary
Ġpropo ses
D etermin
ind rom
i tation
re construction
en q
ator ics
)}) ^{\
aver aged
ĠRa ther
m ol
itud inal
)}+\ |
adj unction
distingu ished
ut z
Con stant
ĠRe gular
Ġlea der
ju gating
Ġexcep tions
Ġcance ls
Opt A
makeat letter
A mb
N ame
S cho
Ġre ducibility
Ġwork er
18 3
ni ties
refine ment
Ġab und
a vailable
Ġsub intervals
ĠX u
Ġ| |_{
PS K
resul ting
$ )-
W C
ev an
Ġ~ (
'' }$
MS C
PS h
requ ired
Ġsw apping
T m
rm v
ĠIn verse
)| ^{-
Co st
impro ve
V ia
is cent
Ġcon sult
}) &=\
Al go
Ġund e
* },
ĠH H
ĠE mail
bu d
G ru
c ustom
v F
Ġsu ble
Ed ges
Ġuncertain ties
P erm
Ġnon constant
draw Color
}] +
ob served
ĠL Seg
sume d
ĠEx act
Ġwitness es
P hy
Ġtra pped
Ġrefine ments
2 14
D y
la unay
end group
ĠN L
RE M
hand les
BB B
Ġfall ing
Ġbic ategory
dra ft
deter mine
ur ning
ĠB ig
E h
S eries
k P
| }^
ct s
ĠD f
pe at
, ,
I RS
cl t
Ġne at
exp l
ĠCon vex
4 90
ĠS till
partial ly
Ġpuzz le
P x
m se
~ |~
ĠB ack
row th
ĠG ab
yl vester
ĠBell man
Ġsupp lementary
Ġg lass
bf L
sq subseteq
Ġ$(\ {
Ġdx dt
Ġdri ve
ĠVar iable
D Q
en ability
Ġco chains
)} }{(
ĠPfaff ian
Ġsa mpl
As sumptions
}& {
R oughly
p ics
ĠB ri
Ar chimedean
itch fork
Ġcommunic ate
Ġs mash
ĠU pper
Ġexhibit ing
v sp
ĠS to
Ġ+ \|
Ġsp on
lic ity
Ġdegener ations
Ġque ues
Ġpiv ot
ĠMic hael
absor bing
3 24
ĠRK HS
wah ori
0 90
Ġfin itary
Ġte lesco
Ġa rtin
)=\ {(
scri bed
otop e
ĠSe iberg
^{** }$
Ġepi demic
0 13
}} }+
ĠF FT
ĠB lock
Ġ} )$
exp ressed
_* =
Ġgrateful ly
ogene ity
Differe ntial
Ġblock ing
nor med
Z FC
as k
ĠB asis
pm f
RI S
dig raph
Ġfract ure
K ap
he ll
Ġe psilon
36 5
sel ian
D ou
W asserstein
Y our
b rho
w isted
f ly
x r
Ġreal isation
Ġ20 19
Lo op
OR M
Ġrefere es
Ġtransf ers
big circ
Ġ10 1
x w
Ġo range
mu b
+\ \
fin ding
}_{ |\
ĠR ed
Ġsub traction
\[ (\
/ *
z hu
on y
ck i
Ġr k
ordin ator
ĠHigh er
D un
W B
d binom
Ġ- $
33 6
ĠSchwarz schild
found ed
Ġf undament
Ġqu en
S ame
in comp
er ner
Ġs n
mo other
Ġ[- ]
ĠâĢ ĵ
conclusion s
l A
Ġ1 10
leq s
Ġdo cument
Ġexplo its
Ġwe alth
Ġas ynchronous
Ġdec iding
rig or
] )^
om mu
ĠC Y
Ġindic ators
A le
O per
00 9
Ġinfer red
congru ence
g j
z il
ĠH ong
bb y
ag ore
bound aries
ĠĠĠĠĠĠĠĠĠĠĠĠĠĠĠĠĠĠĠĠĠĠĠĠĠĠĠĠĠĠĠĠ ĠĠĠĠĠĠĠ
)(- .
independent ly
Ġnucle us
are n
0000 000
Ġgre y
Ġantic ipa
ew ner
p D
Ġd ice
\\ &=\
^{* }$.
Ġincorpor ating
J ones
ore ma
Ġsub modular
)) ).
under lying
_* :
ĠAd ding
Ġvio late
g T
2 95
re move
ĠI M
ting s
bb k
IN AL
MM M
}_{+ }$
Pal ey
F isher
Ġre state
ĠThe oretical
ĠN ielsen
In variant
17 1
cell ular
Ġbrid ges
} !
Ġcon tributing
co set
ĠD I
diff ic
propa gation
B cal
a ided
Ġw f
Ġpre decess
Ġanswer ing
Ġcobordis ms
Em bedding
Ġboo st
V II
AL G
Po sitive
ĠMo tivated
b lob
h ss
Ġre ject
ĠL arge
aux iliary
Par tition
Ġske in
de ux
ed en
); \\
_* )\
asiew icz
Ġsub object
oper ative
Ġencoura ge
Ġvio lates
K A
es ti
ch ern
Ġti p
Ġsemic on
Ph ys
erc ises
Ġepoch s
y r
Ġ$ {{
im mer
In c
Ġ\! \!\
sm allest
Ġconcrete ly
Ġm erging
Ġmulti grid
(- .
Ġcomponent wise
Ġquasi conformal
28 4
b order
Ġal beit
long table
26 4
ME A
Ġrecogn ized
ĠStruct ure
vare p
Ġamalga mation
0 35
i S
orb ifold
colon eq
jk l
acc urate
Ġpenal ized
}} }{(
]\ ,\
$ }(
F ano
al ed
Ġpro fit
}| +
ĠCha p
FM ISC
ern and
Ġsqu ee
S in
ps es
k H
t ter
in vestiga
^* }}
do c
commuta tivity
A ns
ss sec
ogen ous
ĠDefin ing
B lack
D X
ĠIn stitut
ert on
cu le
32 8
An gle
ĠĠĠĠĠĠĠĠĠĠĠĠ ĠĠĊ
prising ly
E mail
Ġm or
ĠL ind
ĠTh rough
ok s
26 7
F m
S x
n ic
eq a
Ġn th
to s
Ġ+ {\
ĠP ID
)] _{\
Exp onential
Ġtun nel
Ġdecor ation
U l
u H
Ġcollect ing
ig ration
lo cus
]\ )
}}$ };
25 00
27 6
Ġwave lets
j ee
lo ying
Ġpro hi
ĠP i
bf Q
ĠD irect
Ġexplan ations
Ġc umbersome
to wer
Ġl iving
30 4
38 5
Ġamong st
ĠAr chimedean
summa ble
h slash
Ġ\{ |
)\, |\,
Ġfo cal
Sing ular
Spa ces
& |
ĠH ess
id ance
ke e
CO MM
Ġcontrac ts
&+ &\
Ġobe ying
K x
h N
o ss
Ġb lob
ĠV V
ĠW il
]: =
Ġbubble s
Ġmagne tization
M LE
w bar
ure wicz
div ide
tw onorm
)& :=\
Ġexpect s
Ġexchange able
}) )\\
gu yen
Ġdemonstra ting
Ġexper ts
Ġoccup ation
Ġtourna ment
P age
m frak
r ref
row color
Ġ) _
Ġrequ ested
lm k
Ġaxi al
s orted
es pecially
pro ves
^{- |\
Ġnon standard
ire less
})= -\
ĠĠĠĠĠĠĠĠĠĠĠĠĠĠĠĠĠĠĠĠĠĠĠĠĠĠĠĠĠĠĠĠ ĠĠĠĠ
combin ed
Ġ@> {\
' )}$
la d
Ġb ending
G ab
iter ated
a way
ĠT ensor
Ġser ving
my label
ĠRE PEAT
Gra dient
Ġclo sing
@{ <-
ĠPo incare
Ġ\\[ .
Ġalpha be
ĠLore nz
Ġcohom ologies
S ource
res sively
Min imal
channel s
Ġbor dis
' }}$
z bar
cal i
AR T
Ġconstitu tive
Comple te
' }+\
Ġpre para
fact s
X fr
e vi
g ons
Ġg ad
ĠN or
ry ing
ee ch
ture d
30 1
Ġsh arper
ura ev
g ens
Ġw ar
Ġ( [\
Ġ& {
}^ -\
ĠE ilenberg
End o
Com m
om ent
xi ties
ab bre
Ġthere of
^+ }(
inte g
Ġintegr ally
Ġwarp ed
su mmand
ĠS IC
Ġra ising
Ġpre pared
ĠRe presentation
K ol
v ision
Ġin formal
}) ^*\
ĠL em
We ight
sc i
ĠK ap
D m
al ex
Ġd h
Ġcaus ality
Ġcharg ing
. }$
P rime
mu s
Ġpropa gate
Ġbor row
' <\
to ol
}| >
] _{(
c ils
Ġ2 50
+ },
E I
ĠM ori
}= &
Ġpre print
struction s
trin sically
Ġta b
[- >](
Ġquasi linear
Ġexhi bited
Ġsix th
o cal
the footnote
Ġgra nd
C od
L HS
P at
` .
ref or
ĠT T
ĠS equence
ĠA ra
ĠR et
val idation
Ġge ode
Ġjo bs
ĠCa mbridge
Ġdetect ing
R ange
Ġco multiplication
ny i
ĠSpect ral
J A
Ġth row
ith ub
{( -\
Ġtor que
Ġsu n
ĠC U
ss es
Ġconv olutions
] }^{
Th rough
sh aring
Ġobserv ability
Rec on
SUR ABLE
ĠA dd
ĠC am
ĠIn put
Ġ" $\
ĠAs ymptotic
Ġfib red
een o
ĠMay er
Ġpyra mid
ĠMathemati k
ith metic
Ġcomp osi
}' =
Ġmultiplicative ly
ĠPh D
Ġeman ating
s ms
en eq
il t
[ $,
com men
reg ression
iter ia
fil t
Ġtangle s
@{. }[
ikh onov
}) &=
all ing
agore an
Ġrepe titions
descri be
ĠWol fram
* (\
ol di
Ġ$$\ |
calc ulation
Ġforget ting
A rtin
Ġre volution
ss m
Ġdia m
Ġoccur red
Ġhexag onal
ĠGM RES
Ġ till
int l
co cycles
ad ically
_- =
)}, $
Cor r
curve to
Ġrandom ization
conven tion
0 60
| .$$
19 68
}| =\
Ġ\! -\!
ĠSi mulation
^* },
sch ur
ĠMe asure
t I
Ġf urn
ĠT utte
journ als
H al
de ath
ĠP T
ĠP OD
Ro bust
- },
Q D
ĠT emp
}| |_
TT T
supset neq
Ġshadow ing
uris tically
" }
$ (-
l son
te or
de lim
ĠS IR
Ġh onest
ke ep
frak p
;\ ,\
Ġ8 6
Ġ20 11
Ġtrace less
commun ication
C k
Ġre jection
il er
pa rent
}(\ {\
ie g
ĠE nt
Ġmultic ast
Ġin direct
ĠF R
)} /\
ĠM ass
\| <
comp osite
$ ]\
[ $.
ĠE v
Ġopen ing
#### ####
{ ;
col oured
^+ )^
Ġbasic s
ĠInte ger
Ġ$< $
dund ant
discus sed
H ermite
eqn ref
Ġ$$ {\
Ġ@ >\
G rant
}}\ !\
Ġ ĉĉĊ
S AT
bb L
Ġmain taining
mc O
l man
ti ti
Ġgraph ic
r set
|< |
V ietoris
Ġ$ ^*$-
ĠV lasov
ductor y
Ġ ~$\
comp ose
Sp f
45 5
LL N
Ġneur on
}} }+\
Ġhas h
Ġlo ck
bv p
$\\ $\
minim izing
Ġhoriz ontally
ti k
ĠC ra
ĠC over
Ġtru st
DE R
vis cosity
ĠIN TE
ĠF ree
ĠE ducation
numer ics
\ }}{\
a ware
ĠT om
cal m
Ġlo ads
ili pp
p T
s ound
ph ys
un ipotent
ĠH F
ĠD etermine
2 18
mp er
dot p
ĠO rd
Ġen clo
sing leton
ĠEstima tion
ĠRL VECT
contro ls
W I
f uture
Ġi v
bf S
Ġorgan ization
eq us
Ġillustra ting
Ġdef iciency
Ġfit ness
J T
P eter
| ~\
re mo
re cht
ta s
sp er
Ġleak age
k M
Ġd end
@ #
m oreover
x j
We ighted
cc i
Ġper ipheral
prec ision
Represen tation
Ġcorrup ted
F U
i F
l if
}) }}\
dis crimin
Pa per
Ġarrival s
4 05
R g
ple x
Ġi k
Ġund ec
! }.
Ġb lo
ĠD ie
-- (
bordis m
Ġpanel s
L X
] })\
re ll
Ġs ho
Ġc am
ĠT otal
ĠM CMC
^* }$.
sk er
Ġpropag ating
ASS UM
A O
Ġinter iors
vec u
Ġsing letons
gg g
FF F
state vec
X REAL
o mplex
Ga p
Ġfact ored
ata ke
:=\ {(
Min im
n ls
w l
ex terior
ff ler
no tations
ris on
adv ance
orok hod
T ags
lar d
conjuga tion
Ġpl urisubharmonic
in et
,\ ;\;\
ĠA long
Ġdx dy
Ġremin iscent
ur ling
\| }\
Ġqua s
Ġarri ving
Ġextrac ting
. [
ĠO k
Ġgra de
theorem style
uni q
Ġacceler ate
Ġdelay ed
Ġphysic ists
D imension
N Y
~ =~
ĠB ert
ĠM en
ak u
lear row
\,\ ,\,
Ġguess ing
+\ ,\
Ġ20 12
Du ality
Ġdim in
} ''(
ver ts
)}$ ;
Ġsimpl ifications
iden tify
Ġdamp ed
tr uncation
Pro jection
ĠInd ex
N g
P op
set box
^+ -
dec ision
high est
S ymp
^{ '}(
ĠP lugging
sq cap
Point s
Ġ$ ^{
Ġpro ton
od in
}' )\
\|\ |
Ġinstru ctive
Pen rose
( +
ref s
=\ \
ĠBound s
0 33
; .
ign ore
il inson
ĠE mp
ĠG en
main result
pr n
iden tities
gv ac
sten haber
C ross
Ġth read
Ġe lu
)) /\
19 69
30 6
iden tified
Compu tational
signific ant
Ġin tr
Ġun perturbed
Ġra ises
)| -
Ġ8 9
Ġqueue ing
permu tations
Ġcentro id
ĠAdv anced
q g
ire gular
ration ally
B loch
i Y
x B
ĠP ara
ĠCon tra
^- )\
Ġdecre ased
ref lect
var d
vari ous
icy clic
approxima tely
Lore ntz
ar ranging
tric k
}^{\ #
non degenerate
network s
F amily
_ !\
ĠA MP
ĠB M
Ġ{ -}
do i
ĉĉĉĉĉĉĉĉ ĉ
Ġtang ents
B an
n D
q Q
ĠE C
'$ ;
Ġretur ned
hl fors
Quad ratic
{ },
Ġde sing
ise ux
theorem s
ĠPa th
ĠFact or
ĠSti efel
ĠV II
Ġlocal isation
Ġfair ness
gli ardo
C ayley
G k
th ur
is ition
ĠR W
dd t
^{* }$,
ĠQua nti
Ġconn ective
ĠBR ST
Ġs s
Ġafter wards
vent ually
* .
w en
ma ted
Ġpro fessor
ow ards
lat ory
Ġenumer ated
har m
Ġport ra
addlegend entry
. $}
m set
ĠInd ia
ĠPh ys
' )_
= +
it H
ot or
ĠR ou
Le vy
: \{
@ >>>
ri en
Ġhand ling
reg istration
inde composable
@{- >
Ġphra se
Legend re
ĠE r
\}$ :
inter acting
lev y
SO S
Car lo
determin es
G Sp
as su
use font
ĠRe ynolds
Form ally
pas sing
Ġcon ics
il ities
M ix
U K
Ġbig gest
Che ck
rever sible
Ġa vailability
ĠI F
bar y
}\,\ ,\,
Inte ger
Jaco bian
Ġperman ent
mb P
the enumi
spec tives
Ġscat tere
ration ality
' :\
' =\{
in var
Ġr fl
Ġsp urious
}+ (-
forma t
)| &\
Ġconv ince
Ġf unc
ĠZ ero
tro pical
Me as
H r
Ġex changes
Ġen rich
)+ +(
ynam ical
)* +{\
Ġdila tions
k ur
~$ {
uel le
m ouse
de mi
}. (
)) )$.
Z R
igh tening
Ġwh ilst
xi al
ĠM M
pur ple
ran ishi
)_{ -
Ġsupp ressed
ĠMo ser
I TE
i N
intro s
]- [
tru th
pub lic
ĠRus sian
Ġin tractable
du n
Ġsub trac
Ġ8 8
32 7
ĠVol terra
neutr al
! ,
f unct
k at
} ---
Ġra ise
\}$ }
under standing
pr b
35 3
St re
Ġin tra
}) -(
'\ )
Un if
opp osite
ĠR osen
Ġsub matrices
under bar
]^ (.
str ings
Ġpub lication
ĠCent re
Ġquantif ied
)\< ^
Ġinfinitesim ally
. ),
en velope
Ġ( *)
ĠW ald
Ġgu idance
Ġpush ing
partament o
] }^{\
vec y
ri z
28 6
Ġbelie ved
3 11
h B
Ġi mm
Ġ$| (
99 7
Ġdot size
Ã¤ hler
Ġsett led
U D
bi qu
temp t
Ġcompr ises
coll ision
t mop
imp ort
en umer
ho pf
Ġm s
ĠD FT
bb X
wh y
ever i
&& &\\
Ġrecor ds
Q l
en riched
&\ !
) }}_{
. {
is try
up gamma
}}\ ]
u bov
Ġaccep tance
ma terial
ma gic
Ġse vere
ul sion
Ġtermin als
Ã® Ã
great er
l inf
ri f
pro o
^* :\
Ġmulti graph
my def
yy y
$\ {(
ri el
Ġsta ircase
caption setup
Ġlong itude
)^+ $
i um
ĠF O
rm default
over lap
ting er
Ġincomp arable
dark red
X S
x L
end owed
}\; ,
b df
t J
ĠN akayama
Ġ* -
Ġrepro duction
ĠAlgebra s
TF UN
Aff ine
g nitive
ve ys
Ġ& (\
lm d
n aturally
ĠM el
ca d
ĠW a
Ġrep elling
Ġprescri ption
Th urston
Ġ\| $
Ġtra ver
Sch ro
Ġpref actor
Ġfulfill ing
b pf
d bl
Ġi on
proof of
3 000
Ġestima tions
L ions
ce iver
ĠR V
les ky
}}$ }}
ey e
Ġstabil iser
Anal ytic
Ġannihi lates
ĠSum ming
la tional
Ġin trinsically
'' }(
:\ :\
Ġoper ates
cz os
exponential ly
Cent er
n ick
Ġ& &&&
lim iting
,* }(
)} )\\
so hn
'' =\
inter face
Ġinterest s
Ġparame trix
eigen vector
Ġ** @{-},
| }}\
de viation
ot tom
[\ {
Ġmult inomial
J N
ĠU L
ĠU sually
Ġrecogn ition
diame ter
] \,.
}) })
Ġk ink
)) }(
Ġno ises
Ġarri ved
A sc
^{ ^{\
ĠF eder
di ma
He isenberg
cof ib
Ġqualitative ly
Ġa head
}{ !}{\
ĠT s
$$ {
Ġdiscre tisation
ĠAlex androv
Ġinjection s
Ġh und
{$ '$}
ple ctic
length s
)\; ,
Ġreconstruction s
P CA
Ġd ip
ab ling
)}} =
Ġillustra tive
analog ue
Ġconden sed
' )_{
is sa
so s
center dot
}| -
\> $
qu ist
Ġ< <
)-- (\
Ġabs orb
sit uation
Tor us
ĠPri mary
2 96
k im
ref oil
ou los
ĠI to
ĠBer ry
p H
}} ~
'' :
Ġem erging
Ġtrace d
Ġpur su
Ġ1 60
frak a
ĠZ hu
ĠIntern ational
Ġb d
)} ]\
ĠK S
Ġappro a
Ġ_{ -
Ġ200 9
ĠMan in
ra g
ĠN aka
ĠG ray
Ġ{ |\
]. \]
H omeo
t K
re placing
Ġis ot
}) |_{
ys in
Ġj ournal
Ġ<= >
ppro x
augmen ted
sub ref
AL U
triang ulation
pack et
Ġemer ge
4 16
P Z
v th
bf j
}\| (
& &=
] }}\
g min
set t
cent re
19 1
_+ =\
ep ler
us hed
Ġcommu tant
67 8
Var id
Ġtranscend ence
, :
S at
W H
ex it
ĠRe LU
MA X
B as
b orel
pp ler
)| |^
99 8
Ġdomin ance
Ide al
ĠFuk aya
ĠQ P
Ġsh allow
Ġ) ^\
ĠâĨ Ĳ
ĠXX REAL
c ry
maz ure
Ġdevelo ps
P an
Ġro u
triangle down
fa ir
P y
Y ama
ĠT ao
ĠS ymmetric
})\ ,.
))\ ]
Ġdi verse
L ar
ta ri
im o
Ġfast force
= #
Ġmeasu rability
34 7
Ġsl ide
M t
Ġp s
me ters
ed o
}) )_{
Ġk n
lit tle
Ġori ent
tis m
ĠSp lit
ĠPoint s
Ġ '$
w ig
Sh ort
Ġstrengthen ed
Ġsub cases
ke ley
Ġ@ .
Exp ansion
Ġunexp ected
' }-\
K at
cal p
Ġop tics
Ġ` $
tan ts
Ġpix el
Ġances tor
): =(\
ĠRe ed
omin o
Inter section
ijen huis
G cal
te gy
ref mark
ĠC han
Ġ ĉĉĉ
R y
T rop
se ven
Ġpro be
=\ ;\
par tim
ĠK n
ii int
$( {\
consider ing
Ġexceed ing
Ġ Ã©tale
G Y
] ]:
mi er
Ġsignal ing
S ES
n V
big m
represent ing
is i
}\ <
pro ba
mula ting
Pro bability
coun terexample
Ġmis match
M x
Ġde duction
Ġco ordination
}' =\
span ning
slo ped
abbr v
2 17
Ġ& &&&&
\, }\
Ġst alk
ĠGa u
C oun
Q A
S inger
f itting
z is
lit erature
os ce
Set Kw
car riers
multip lier
Ġg ates
ĠI mpl
ish art
05 0
ik x
Cent ral
ĠMate matica
up ta
fl uct
Ġstrengthen ing
ĠRus sia
Ġ$ ).
cal W
})\ |^
cat C
Ġ,\ ]
Ġmotiv ating
Ġsub ordinate
Ġbi partition
Ġmis ses
Ġfail ures
Ġke ys
Leib ler
kee paspectratio
J R
V il
Ġte le
Ġcommu nities
24 1
b ayes
Ġat tributed
mc D
No ise
ĠMap le
]{-> }(
A long
e E
im i
ĠB aker
Ġspect rally
semigroup s
Ġ rt
ĠP hi
Gener ic
Ġopportun ity
Y I
of ic
fine ment
cy an
))$ ;
Ġpostp one
Ġ(` !
K t
Ġa rt
se con
ĠL E
ĠA Ps
ser ver
18 1
ĠAl g
asso ciativity
ĠDes ign
Ġecon omic
S olutions
s and
v pi
Ġw ent
ĠSch midt
trans versal
Ġrec ipe
Ġcumula nt
Ġspi ke
ĠM D
^{( +
ĠRe peating
Circ le
re nd
^* \|_
bab ly
ok ed
Ġorth o
clo s
" ?
$ ,\\
@ }
g R
s an
u F
v theta
Ġd c
ref e
Ġ1 23
wa ps
}}\, ,
Ġinvest ment
G f
O dd
ut y
10 10
34 2
Qu ot
rich s
ðĿ ĺ
ph ic
reg ret
Ġidentif iability
spar sity
immediate ly
Ġarithme tical
Ġal g
co algebra
){ }
Po st
Ġb ag
Ġ: }
Ġfound ations
Ġ~ .
Ġcompac tified
ĠCO MP
Ġ ridge
L ind
b id
g ithub
sion s
Se lf
rescal ed
L x
W igner
] <
s tima
Ġex haust
Ġstand ardi
footnote mark
lb d
Ġregula tor
4 64
k lo
^- =
&& =\
J W
is cher
ĠD imension
^{+ }}
dou bling
ĠVE CT
E is
N abla
Ġin tric
Ġh f
Ġsub st
Ġtri diagonal
Ġsubject s
AS M
\ }}}
{- };
Ġsum med
Estima tion
8 000
M ed
ch romatic
Ġadvan ces
X f
inter po
Ġpiv otal
o ften
nu l
}}\ )
ĠK el
ess sup
av o
Ġextra polation
kernel s
Max imal
Ġrevis it
a F
(\ !\
}} }-
Ġu biqu
ĠD omin
}^{\ {
ĠBour gain
pre cise
)\, {\
Ġbide gree
f em
Ġover laps
ven umber
}, [
ĠC ases
ĠN ik
ĠFor mulation
Ex panding
_- )\
Ġquanti zer
SI R
Ġdescend ants
llig ent
# \{
K D
ince ton
mc L
nn n
partim ento
M esh
Y es
po v
hy dro
crete ly
card inality
relax ation
configura tions
b varphi
h ra
k on
Ġs orts
Ġt iny
lar gest
co dimension
Ġgra dually
Ġquanti fication
ada ys
x U
Ġre scale
}) },\
Ġl ots
ĠD etermin
Ġemer gence
semin orm
Ġ '(
igh ter
Ġcon sum
ĠE l
ĠG lobal
ak is
ĠQ ED
ci ation
hyper plane
H op
mb q
ĠL O
ĠM apping
ĠCar leman
)), $
ĠSpa in
annu lus
k B
s mc
var Sigma
qq q
Ġmix tures
v A
un known
ĠK en
Ġsatisf action
ger be
A q
] >
Ġ\ <\
ho colim
ĠS en
Ġsymme trized
upper case
Declare Math
i ft
z l
ha d
Ġx shift
Ġsub family
\|\ \
Ġac compan
|}{ }
Non linear
k lov
un ity
[\ ![
lu x
ĠComp act
Ġsesqui linear
H alf
ï ¼
Ġre active
ne gligible
ĠFor tunately
37 6
. '
K f
n od
en orm
la cing
an nihi
ps mall
ĠK i
ĠU S
Ġcontinu ing
25 4
Ġnumber ing
ob er
Ġsynchron ous
B undle
ĠClassi cal
M el
]$ ).
Ġ\! =\!
aff il
Complex ity
straight forward
P RE
P seudo
g rant
be an
Ġla sso
comp ression
Ġlength y
Ġcall ing
pec tation
Ġlag rangian
L v
ti ques
un til
W o
int O
sub modules
ĠB regman
Ġtextbook s
Ġtors or
Ġcertific ate
F ormal
ĠC B
ĠF il
}] )$
medi an
ĠâĦ Ŀ
Ġtou ching
s inc
ĠN y
ĠBe ijing
kine tic
Ġs ki
Ġp ec
Ġb ru
ich ard
\}$ ).
Ġ`` \
ĠĠĠĠĠĠĠĠĠĠĠĠĠĠĠĠĠĠĠĠĠĠĠĠĠĠĠĠĠĠĠĠ ĠĠĠĠĠ
Ġlong itudinal
i K
ĠU N
Ġ8 7
Ġdiagonal ization
link ing
ĠGo od
absolu tely
O MP
Ġanaly sed
Q CT
^ (-
la placian
sub manifold
Ġeven ly
Co eff
\; =\;
un ip
ĠF our
25 8
Ġhom omorphic
ecess ary
ĠĠĠĠĠĠĠĠĠĠĠĠĠĠĠĠĠĠĠĠĠĠĠĠĠĠĠĠĠĠĠĠ ĠĠĠĠĠĠĠĠĠĠĠĠĠĠĠĠ
SU M
ent ric
Ġex changed
sh ot
Ġsuper gravity
Ġcapa cit
Cox eter
yield ing
ĠC n
00 11
Ġ} |\
IR ST
Ġhetero clinic
K oszul
S lo
}_ *\
Ġresul ted
saf e
Q T
ft ing
ĠS tability
ne vich
^* ))
Ġver batim
=( (
ĠBound ary
S d
i W
is se
ic ol
ĠH ill
In ner
bb br
ĠPa ul
ĠHir zebruch
on n
Ġpro d
Ġma gic
ĠA p
wt d
limin ation
Ġinterpo late
Ġannu lar
@{= >}[
4 20
Z hou
ĠG NS
sc s
)) _\
ra gged
pp f
set R
Ġ* (
oton icity
c un
,\ !
ĠS outh
ĠL am
ĠF low
]{ (
Ġ-- ++(
))\ |_{
Ġintegra tors
Ġsy nd
mathb old
ĠP res
olu te
some times
fib ers
analog ous
p rm
v ola
Ġvisual ization
& [
S ymmetry
d K
ic at
Ġas ymmetry
ĠA DC
Ġprecondition ed
t ta
Ġc ite
ll is
ex e
Ġabbrevi ation
W r
}\ /
ĠT ak
bu ilding
ĠRe la
ĠCon cerning
wor st
Dis tance
\\[ .
invol ving
cpl x
+ -
M r
Ġin accessible
he avy
ot er
ĠD ar
Ġview s
ĠEq n
Ġhelp ed
Ġstron gest
_{*} (\
Ġexpen se
b ignorm
Ġmicro local
K as
d ent
re cent
ĠA NR
}& -
Reg ion
xp onential
sv g
Continu ity
s na
dd dd
Ġachie vability
Ġdepic t
Ġs po
Ġal together
Ġup wards
ac cess
Ġwire tap
ĠQua d
Ġlife time
y c
label enumi
ĠC ode
ts hor
pre l
24 2
Ġphy log
l hs
su ffic
_{\ |\
ĠW ould
Ġintegra nds
sen ing
num obs
ĠSu mma
Tri vial
v Z
}) }_{\
all en
ray s
Ġvar ied
}| <
25 1
side set
bre aking
Dis tribution
tigu ous
ĠKore a
K not
\ }}{
f ron
Ġdiff use
HH H
ĠSub sequently
}} }]
^* >
stru c
}& {\
Ġration ality
Ġaxio matic
Ġdecla re
, _
Ġes cap
spec ies
f j
ta ndard
$\ %
ĠG ro
$; }
ĠI ll
Ġdisplace ments
Ġreservo ir
}$ }};
ol ine
bf U
ĠK ullback
Ġth resholding
Ġw rt
vide d
Ġback haul
ALU ED
' })$.
ma sk
Ġpre order
/\ "
bb K
ors es
Con n
Ġpla tes
}_{+ }\
ashi wara
ĠAppro ach
Ġparac ompact
t kz
u j
z q
Ġbe coming
ĠI A
bf D
mon a
lin na
Ġformal ized
I cal
clu b
Ġstr uggling
bb n
Ġfactor ized
)}} ^{
ans wer
ĠUniversi dad
4 33
'' ).
When ever
Ġ200 8
Ġempha sized
ĠIden tity
Ġdif fraction
S as
x A
olu mb
Ġomit ting
Ġhypered ges
tshor ne
C m
f E
t ou
ma gne
ĠH uang
ĠK err
Ġ&\ ;
}}( (
hand ed
' )-\
b ner
e fficiency
Ġ= [
ĠK ernel
ĠJ ames
.} ~\
$} &
D uring
)} :\
{| |
thick sim
decomp osable
oun ted
append ices
ver man
id ity
play er
35 5
ĠSim on
advan tage
Z g
k an
n Q
au ville
Ġfra gment
Intro duce
M ilnor
ch uk
theta g
Ġl c
ĠE vans
}^* _{\
K olmogorov
sub graph
). ..
Ġdenois ing
ĠH Ã¶lder
ĠP O
$\\ $
ASS O
. }]
{$ {\
K Y
b ir
g cl
re label
}) }+\
vi ve
ci ent
Ġhar m
Ġprecondition ing
I O
Ġpro cessed
Ġ\\ \\
25 3
]^{ <\
]}{ [
ĠT F
ĠI T
di tarily
Le ibniz
Ġcu sto
Ġcondens ation
Ġhisto gram
Ġs mart
}\, |\,
mc M
Ġsequ ent
Ġintuition istic
Axiom C
ur r
ab in
Ġle m
24 9
ĠSte ps
syn chron
T ao
w rap
Ã Ĭ
Ġk lt
ĠMulti ple
osco pic
Ġbordis m
h ari
Ġh x
ag g
ĠDe pending
' )$-
un s
big star
Ġdis agree
Ġequ ator
St udy
Ġfli pping
Ġ ice
nd ef
rac es
Main Theorem
geodesic s
Ġartin ian
or te
ce l
til ing
Ġsubdivision s
home omorphism
reson ant
4 80
M Q
e ins
no tion
Ġpec uli
a N
ĠM ed
ial g
are lli
'$ ).
Ġremain ed
ron skian
Lo ss
Deriv ative
M apping
la k
st ri
remain s
A rr
Ġn m
ĠP SD
)) }\\
.& .&
Ġintr igu
Ġ ),\
C star
Y e
c learly
)_{ [
mc T
mc X
Ġinterpre ting
Ġdete ctors
Ġreplic a
Ġ= \\
Ġex pander
Ġ$\{ |
ordinate s
mf u
Ġemer ges
- >}[
l iv
n ames
ua d
Ġsp ite
Ġar Xiv
\, =\,\
27 4
^{+ }(\
>*{ }**
en tangle
ĠM alliavin
ĠHa w
hyper surface
Ġdra ft
Ġco algebras
@ $\
I b
g P
40 1
Ġfre eness
ogon ally
appear s
ĠKirch hoff
i C
to y
co chain
han tom
G or
ma kes
)} &=\
ĠK K
hom ological
30 2
Ġinterpo lant
Ġcoales cent
Ġdiagramma tic
J oint
X bar
en oid
gin ary
alpha s
im mersion
ag ier
28 3
Ġequiv ariance
Ġconject ural
cru cial
W D
|\ !
ĠM il
)) )=
Ġ: )
ĠJ u
kov ich
Ġexecu ted
Ġlamin ations
ĠYama be
Ġsq rt
s titu
ma d
Ġ{ }&
35 6
Ġhappen ing
ĠStar t
K on
t sum
da s
as si
app r
}[ |
Ġsemi lattice
anchor base
Ġdemand ing
Ġdecoder s
S ylow
Ġto mo
ij n
}| .
aligned at
30 8
Ġincre mental
cr ys
bor n
ĠF A
]: =\
Ġtrivial ity
h q
eq align
19 66
Ġlink age
Ġinterf ere
urst enberg
Et Al
f li
Ġn t
Ġh ot
), -
Th esis
.. <
ud ent
vers als
figura tion
})^{ *}
Cl ifford
(# )
] }\\
m lt
ste l
Ġpermu ted
04 8
Deriv ation
Ġattribu te
\ +
d of
men tarity
Ġsuper con
\/ $
Up on
HI LE
upp i
Ġattach ment
' }}{
: &
> :
ĠT au
et t
us ch
ertain ly
AM E
)}\, ,
Ġworth while
Ġaggre gated
ĠCON J
on se
^* )^{\
Ġwhere by
og ers
Ġreview s
Ġcent rally
ĠBe ing
desi red
R mk
up theta
22 9
}_+ $,
ĠEstima tes
R ot
S r
i dot
ĠA dam
up t
local ity
bb p
step counter
GG G
eep ing
ĠSome times
Ġs lit
la ch
ĠP ra
Ġcomp osable
Ġun ambigu
mm m
small break
reg ard
sen sus
Ġmotiv ations
_{* }$
Ġfla v
Ġantic hain
Ġdisappear s
0 14
w ti
ti tem
clu sive
}^{- }\
)}} [
Ġsuscep tible
\ }}.
pp ers
ne f
Ġ} [
Ġ) _{\
ĠĠĠĠĠĠĠĠĠĠĠĠ ĠĊ
Ġdepar ture
s ent
z an
ĠG abor
.. .$
ĠIs rael
Ġaccommo date
Ġalphabe ts
3 90
X V
Ġ+ +
Ġcomple xities
Ġ_ )
Pas sing
it self
ĠB al
commu tation
sug ges
evan linna
te e
ve k
Ġdis card
]: \
ĠZ e
Ġelectron ic
} ?
)\ ,\,
argu ments
ĠSel mer
^* \|
ru st
Ġqu oted
ĠJ a
Ġfit ted
move to
Ġade lic
Ġan ne
ĠP ad
ĠM osco
Ġcomp art
mail to
Can onical
expansion s
Ġepim orphisms
Ġpati ent
, +}
> $.
Ġs its
int rin
to po
Ġex trinsic
Ex c
Ġaccompl ish
ĠKP Z
B ran
[ #
n odal
ĠS lo
ur g
}}{\ |
dy adic
Ġavoid ance
UN I
d pr
t ension
be ps
Ġf u
ĠT its
et ween
Ġun weighted
linear ization
86 60
spa rov
F alse
M ixed
ĠS cal
un neth
ĠMa ps
Ġtreat s
Ġhighl ights
K el
ome ter
ĠE G
Ġho c
Ġ200 7
Inte restingly
ĠAr guing
isc id
k le
ĠP lot
Pri or
may a
ĠĠĠĠĠĠĠĠĠĠĠĠĠĠĠĠĠĠĠĠĠĠĠĠĠĠĠĠĠĠĠĠ ĠĠĠĠĠĠ
Ġenviron mental
v fi
ma rtingales
Ġe ye
con tribution
ia m
}}( [
| |$
ĠF an
po d
val uate
ZZ Z
Ġbot tle
Ġattemp ted
atom s
de tection
small idx
cr l
Ġbru te
b ted
mp h
Ġas sis
)) |^
}: (
ext d
Ġnovel ty
Mean while
ĠGener ally
S ide
}} ]$
ĠL I
]{ #
Ġtechn ologies
Exp licitly
Ġrepro duces
Ġphiloso phy
V cal
[ .
Ġb x
)\ }.$$
mathbf cal
mm y
Ġbi ology
)*{ }
Ġteach er
H int
Ġv acc
ĠG A
Ġgroup ing
- [\
G x
Y S
ma ts
_{\ !\
}= |
100 1
Equ ality
Alex ander
O X
b un
Ġs moother
sub scr
Ga uge
ex clusion
âĢ Ķ
Ġul timate
vio let
Ġre inforcement
dot size
Ġex c
Ġcompens ate
quo tation
$ }{$
^{* \
}~ .
MU L
ĠLog ic
ĠCompu tational
psmall matrix
A DD
_ }
Ġ\\ %
ĠP M
bb G
Ġ5 12
36 7
ĠMin istry
Ġconflu ent
c nt
p iv
ĠB inomial
div ides
Ġretur ning
Modu li
COMM ENT
{ +}\
ra in
)}\ ]
Re iten
juga te
Z c
{ --
view ed
triv list
Ġattribu tes
b ds
n atur
ĠX Y
wh it
27 7
^{+ }_
Ar guing
}^{*} (\
IEEEauthor refmark
ĠOperator s
P es
Q b
up d
ĠR A
Ġtrans finite
Ġcharacter ise
44 4
Un ary
ĠW ar
Ġnormal s
ĠCompu tation
ti les
be p
ri ques
19 64
]^ (
Top ology
ĠTy pically
var Psi
Ġun sure
); }
af a
Ġpref erences
' ;\
Ġend ofunctor
iden tical
= ~\
S parse
it ous
$, $\
lar k
27 8
uu u
Ha ar
Ġcru de
Dav is
$ })
= }&
E lement
K s
ene tic
Ġretrac ts
M Y
en coder
al gebroid
pro v
ss ines
36 8
Des cription
> +
or sion
la v
ut ter
ĠD NA
dic tion
}_* (\
o om
re cipro
Ġf irm
me z
nti ation
Ġhere after
Ġallow able
34 6
Ġyour self
replace d
ma k
Ġi p
im in
ĠF S
ĠB eta
text section
Ġlo ading
Ġaffect ing
over view
Ġbar riers
traject ory
to v
Ġpo ol
eps fx
Ġinterf ering
Ġcli ent
âĦ ĵ
mp ro
ĠA zu
ĠK uramoto
}-\ {
AB CD
SUB SET
Ġsnapsh ot
r I
v beta
}) }+
bar d
ĠE con
ag gre
Ġhom ologically
Ġparametri zing
Ġperme ability
) ^*$,
M en
] ]$,
k D
p itchfork
Ġre ordering
Ġsu bar
We ierstrass
)} ]$
ĠG D
ĠBer lin
in stant
ĠR C
epsfx size
Ġ );
% %
Y c
\\ (
'' }{
}}$ :
Le ffler
28 9
IN E
cross ings
Bes ov
Ġwel come
Ġb lind
Ġsub representation
ĠE ff
,+ }(
Ġdeploy ed
res tima
ĠG S
Ġinte gro
ĠNon linear
Cur l
Ġpostp oned
sub sub
ĠR BF
Ġdis junction
bs b
compu tations
Ġsteep est
M HD
f rob
h F
w m
mb ing
ĠA bs
con cept
Will iams
foli ation
is in
ĠK y
Ġweak ened
Ġval ency
Ad ditional
Ġhome work
Ġexpand s
* '
B PS
de co
ms cr
Ġeigen state
Comp ared
poly gon
Ġdisturb ances
ssines q
K ur
continu um
{. /
Ġcompens ated
ĠE U
mc C
Imp ro
4 95
{ ]}
de mand
ĠA oI
ven ted
}] (\
99 6
ques tions
near ly
F J
R h
Ġmulti level
Ġdeli ver
Ġsink s
R ichardson
Ġo k
Ġin st
}\ }.$$
}} )-
\, ,\,\
ject ures
37 0
Optim ization
SY M
Summa rizing
te le
dis trib
33 5
neighb ors
ĠPas sing
p se
ĠS ET
con ic
Ġmon it
Ġ~ ,
ĠÃ Ĺ
Ġexplor ing
3 14
\ }(
Ġd F
Ġco equal
ĠN A
19 65
ĠCon way
zz z
Ret urning
< {
| |^{
la pl
ore s
ĠL D
Ġx x
Ġvari ability
Eq s
ĠSch ro
ĠLaplacian s
B p
Ġwhere in
},\ ;\
)( {\
^{+ }_{\
sl ight
approxima tions
stro ke
Ġequidis tribution
nd t
up tau
ĠH am
algebra ically
ĠLo oking
n I
o ct
Ġd ash
Ġm al
Ġh ing
Ġpr int
DeclareMath Operator
< {\
Â ·
ĠT ikhonov
nu th
ose ph
Ġ\, ,\
cri bed
2 98
M ur
w til
ste psize
ey ond
F Z
Z W
h T
non commutative
_+ )$.
Ġshould n
F undamental
M aking
al ytic
^{ #
}\, }
Le fschetz
26 9
Ġenlar ged
l beq
ma genta
au thors
ple y
Ġcorrect ing
super vised
ĠUp on
> _{\
Y et
re versal
ol or
}] $-
:= {\
oli ubov
ĠSchr Ã¶
ala is
Ġencomp ass
p is
re ds
ĠE V
ĠK auffman
Ġadd ressing
spin or
}[][ ][
Ġdama ge
ur cation
In stitut
}| {\
)| (
}^* )$
Ġtouch es
! {(
C st
b Pi
Ġb are
}} ),\
ri ends
ĠM ur
Ġsub carrier
ĠD ual
Ġidentif iable
Ġca using
Ma ximum
Ġperiod ically
requ ires
, }\
f ang
ma de
de com
sc p
t mu
event ually
}} }}{
Ġ3 60
25 9
ĠRe p
Ġmon omorphisms
elect ron
ĠSim ons
worth y
Ġ1 90
ps bezier
ĠLie b
trac k
test ing
Ġsub structure
mc S
ĠL T
suc cess
ĠÂ ¬
! $.
B z
j ima
ial ity
[\ ,\
Ġmo tif
{( (
Ġtra pping
ĠOut put
Ġplat form
S atz
z ers
or ge
Ġco fin
pro gram
99 4
ĠSta tistical
ĠUni queness
k S
p st
ise l
ord inal
ĠSo ciety
bro ken
Ge lfand
Sc ott
B LE
}. }.
clu st
Ġhandle body
}{* }{$\
lea ving
` )
r P
_{ {{\
Ġf s
Ġin formative
Ġde stabil
}/ (\
ĠBound ed
Ġbigra ded
; [
P ow
b aki
Ġin scribed
ĠF C
ĠE specially
sin k
vers a
ĠBe ltrami
T g
d to
v xi
pa st
ĠG inzburg
ger up
sim on
Ġsh uff
Ġmark ets
6 000
W ar
re lay
la tt
ed a
res sibility
ry sohn
work s
Ġpossess ing
b omega
ĠC MC
bf B
Ca mp
Ġcapa bilities
Pri m
FI G
^{ }_{\
rm s
ĠN is
ap or
ĠGal ton
Ġcollect s
H of
I e
X h
\, .\
dis plays
}| )
form er
ĠVer onese
I g
N Z
Ġ1 11
ĠS ier
Ġlay ered
Ġacqu isition
S tieltjes
in ibre
let t
}}^{ {\
Ġdec ides
hist ory
N is
j L
Ġg lance
}, &\
sp ort
ĠP BW
ill ustra
)^ +\
stra t
Ġtemp late
g oto
g lobally
t sp
re duces
}} )_{\
ĠS ou
ĠS OS
ps d
Ġreg ener
)] )
Ġwor lds
ra da
Ġu u
ow s
Ġext rema
ull en
fr c
hyper graph
E lements
Ġc our
Ġ( !
un a
ĠG la
}}\ {
Ġcalcula tes
pair wise
|, |\
ĠRE LAT
Group s
' )}{\
M k
b Phi
Ġ$ ~
Ġdis tant
Ġmis sed
indrom ic
S ci
v B
he im
Ġme re
ee an
stra in
Ġrotation ally
LO G
irs anov
Ġdefer red
Ġthe me
ir nov
un skip
var M
ĠW ood
ger ies
ĠY au
Ġcomplex ified
\}\ }$
ĠUn ited
s hock
Ġin formally
cor ref
Ġimp ri
$). }
otz kin
; $$
{ }_\
}. }\
Ġh en
ĠQ oS
)+ .
Ġ` $\
Ġinfluence d
Ġexclude s
ĠKu ranishi
makeat other
' }}(
7 20
C antor
re covery
de formations
se ed
ha vi
ĠF o
comple mentary
lect ric
ĠStein berg
rever sing
U b
ent er
ĠG i
)( |
no stic
mark both
\|_{ {\
Ġline width
Ġact u
aa gerup
Lo oking
ĠReg ion
Ġfundament ally
0 80
E lse
H urwitz
h lin
r ist
ato ire
Uni versal
Ġcompr ised
Character ization
N eg
x min
ou ten
ĠC os
qu ality
Ġ{ $-
Ġexp ansive
ser ving
ĠInte l
re ducibility
ĠC arath
var Lambda
ĠM EA
id imensional
ĠG PU
}_+ $.
Continu ing
Ġsymple c
A nt
b ga
w hole
Ã ±
he imer
Ġd R
ĠS us
ne eded
Ġra w
el m
Ġpri m
Ġoff ered
AW GN
ORD AN
A bove
n us
le l
un fold
ĠM HD
{- (
Ġobser vers
mc E
Ġ ll
Z eta
ĠL ASSO
ĠC odes
ĠB ir
var triangle
), &\
Ġy z
30 3
Ġste m
ĠOr th
embedding s
Ġfas test
ĠC t
ĠC ov
ran ov
sl ip
Ġfron ts
Ġscre ening
' )}(
Ġth ous
Ġ{ }_{
Ġlo ses
Gr p
decomp ose
Fin ding
Ġtun ed
Ġadjust ing
ban ese
! }(
] =(
Ġ\ -\
Ġun countably
ĠV a
Ġen tail
)}$ :
\{\ ,
tra ining
iter ations
)}) )
33 4
ĠBere zin
r dd
Ġf ans
the ories
@{ =>
bea ult
tand ing
Ġconges tion
5 20
Ġl if
ad ded
Ġop tional
ract or
35 7
Ġthough ts
Q bar
T k
Ġco gnitive
ES S
Ġmim ic
Ġan isotropy
Ġper spectives
Ġwa venumber
Ġpione ering
Q v
R ational
l ig
te orema
Ġe lli
Ġ1 40
Ġimple ments
ĠSp an
Ġnilpot ency
rgod ic
L en
x EH
ĠG evrey
ĠD ynamics
Ġcla uses
)( -\
Ġ* \<^
Ġsumma tions
Chan ge
O ff
ĠL C
Ġimp ed
alg name
ĠBer ger
four th
ĠGrassmann ians
Ġtric ky
eq sp
qua res
scr M
Ġindic ation
Ġres ort
Ġenhance ment
v fill
to pos
ĠR ie
Ġprotot ype
< |\
V N
V lasov
ĠT ree
}) ]$
lan es
Ġdistribu te
Ma j
Ġexcursion s
idemp otent
N k
ga ta
ĠK as
Ġsee king
') ^\
mf k
Star t
E U
f I
me x
ĠT QFT
cal J
Ġse lective
Ġ[ $
mi tivity
60 4
pri vate
Ġpen cils
)}+\ |\
Ġpos ted
( ||
, $\
eq v
lo p
ĠF ixed
La urent
ens on
+ [\
m Y
Ġp mf
Ġp ushed
here d
^* {\
recur rent
ĠTop ological
k owski
Ġs orting
ver sity
Ġg ala
pp r
ĠC ut
Over view
Ġharves ting
z net
Ġh z
ous field
sf e
pt m
2 19
math e
mu p
\[ |
we ed
_- }\
55 5
Ġfill ings
Te ich
ĠPar ticularly
relax ed
observ able
ĠAmer ican
3 80
M ul
U cal
a ps
c ence
| )$,
es ten
om er
ad ding
): \,
Ġam enability
Ġ/ (
Ġmodular ity
Multi ple
Ġhomotop ically
O H
^* ).
^* }$,
ĠN Y
Ġrep orts
Ġta gged
Ġintrigu ing
X A
h on
ĠL U
Ġcompr ising
ĠAcknow ledgments
INTE GR
Ġalco ve
C ong
h uang
con cavity
){$ _
Ġvis iting
Ġpick s
DM D
Ġquar ter
Ġf law
ĠP F
ten ed
}: =(\
ĠUn less
assume d
/ .(
e R
n ment
ĠRe fs
_{+ }(\
Ġcoarse ly
MES ON
or mander
ĠB all
ul in
End If
Tri angle
Sche me
da ted
ore g
)^{ *
use mann
mon ds
ĠWith in
Ġelim inates
Down arrow
Ġintric ate
( +\
u ve
}) }^{\
da de
ĠM SC
bf Z
ty pically
seg ments
ĠSel berg
B ert
G UE
Q L
T set
Ġ+ |\
pa bs
36 4
Ġdemonstra tion
N ash
ig a
)| |_
sto ck
Ġ` (
ile y
Ġiso late
E LL
E volution
m ers
}\ (\
ĠP otts
Ġ] [
Ġdeca de
ĠGa gliardo
f all
Ġs ight
pi i
ĠP ere
Ġcomp rom
Re peating
ext ending
To eplitz
Split ting
Ġscre en
re tt
ma rg
27 9
Ġclassif ies
Ġcapt uring
Redu ced
4 25
q y
re action
la bor
}{ }^{\
_{- (
30 9
ĠMat rices
Ġdeep ly
ĠB ase
Ġme tal
Ġset tle
})\ |_
anish ing
BS s
deriv ations
probabil istic
' |=
We iss
60 8
sg m
{}{ }{
M d
})\ ;
Ġmon ads
Ġcardin alities
Ġfl ight
âī ¤
Ġgeode sically
ĠS ample
ĠL m
ca c
gra ve
Ġaffine ly
ĠJaco bson
Ġconcord ance
3 13
mple mentation
ĠP SL
ĠG B
Ġ\, $\
Ġ6 00
AB S
net t
arent ly
}{ (-
el der
Ġpermu te
number within
rou wer
ĠEX ISTS
mp ing
Ġre define
ĠE S
Ġhydro gen
B ri
Str ing
Ġ"( '
Q I
t ent
Ġtrans lational
}~ ,
Ġjump ing
76 8
ĠGer man
pref ix
A FF
g ner
w ho
} --
}(\ |\
>\ >\
)! $
^{+ ,
Ġgene tic
< >
N ak
y f
| ),
ĠF ields
condition ing
Ġaxio mati
Ġunt wisted
Ġf erro
vec tive
tra j
Ġbi vector
&=& -
Ġmark ings
Ġ )|
S yn
\ })=\
e fficients
ĠH al
ĠDe ep
\' {\
Ġ200 6
Ġarm s
0 16
R ule
ar ded
ou rable
Ġ} ]
mon ad
Dav id
Ġadjo ining
ĠMu kai
n ski
ĠC FL
ĠP at
op y
)) ),
})\ }
ste ll
Ġdissi pa
experim ent
P lus
en rod
Ġp igeon
tex p
Ġlo sing
ĠZ hou
Ġprocess ors
ĠCha in
Gu o
duc tivity
S ti
\ }-
char ges
lexi ble
Ġfol ded
âŁ ¨
j M
beta b
ĠM arch
In it
26 6
imple mentation
=& -\
parame tri
r ng
ĠA A
ĠA G
di an
ĠG rad
Ġmodu lated
Ġassoci ating
Cal abi
za wa
ĠClo sed
T hom
Ġin compatible
ic he
ĠL ow
ss b
og ero
_* ^\
Ġmon th
99 5
28 318
Ġsemi martingale
@<- .
H art
o st
Ġs waps
con forming
Ġcircum vent
Ġparametr ised
* +{\
C hat
Q e
p N
x is
Ġ1 12
id ences
ĠCon s
Ġsur vive
triang ulated
Ġ{} "
B rick
] }+
ps fig
bs ch
oot s
ĠSU SY
K now
id om
)+ |
ĠSo c
Ġdef ective
Qu illen
Ġsna ke
b delta
j in
{ =}\
ĠP V
Ġcorre lators
}' }\
Ġpara graphs
Ġoct on
Ġcusto mary
2 97
ha racter
}_ +}
ich i
ĠProof s
Ġsurpr ise
Ġin it
ad l
Ġpre compact
26 8
Ġprecondition ers
ĠWill more
Ġas cent
rho b
Ġ8 00
\},\ ]
ĠSk orokhod
Ġdiscar ded
Unary InfC
28318 53
C and
E g
40 7
Ġacqu ired
Ġsafe ly
- })
L inf
Ġd b
$$ [\
quad r
ad o
Ġwor ry
eigen space
ĠDia gram
ĠPen rose
D ynkin
sp r
are y
ĠK Ã¤hler
<\ <
Markov ian
Bra uer
B inary
K MS
P or
[ ][
b Omega
s mul
| ^{(
la dder
ĠS mooth
cite year
con cl
26 3
adj acency
GH z
ĉ ĠĠĠĠĠĠ
G ross
v j
qu est
Ġorth ogonally
ĠKo hn
Ġdra g
Ġphra ses
Ġ }}(
U m
p om
ro g
Ġv acu
sf rak
Ġsatisf iable
Ġproper ness
Ġconcept ually
ĠContinu ous
l ens
Ġcon jugating
ĠN ull
Re view
ov o
Ġquadra tically
ĠCho lesky
Scal e
Ġpati ents
bf M
)] {\
mul tima
Ġfra g
rie ze
G old
R ham
se ll
cor ing
lin de
gener ally
ush in
Or ganization
riemann ian
sp lines
ĠC s
ĠH ell
Ġcomp eting
ĠO re
)}} =\
gener ates
Ġsimula ting
H X
h gt
mp en
col lapse
35 8
level s
Ġconduc tance
A dams
Ġco simplicial
log ic
Ġinitial ize
Ġfa ke
Ġincorpor ates
slo ppy
Ġmathematic ian
| :
GL S
Ġpers onal
E rw
N atural
Ġw i
Ġre mote
om mer
Ġx i
&& (
Ġaccount ing
ĠPyth on
g om
th et
co ho
ĠIn finite
Ġreal m
ĠRe public
Mo tivation
)*{ }="
subs titution
*}[ !
& |\
W s
ĠM iller
Ġz on
-- ]
Ġmy ster
}^+ ,
win ding
Ġexpres sible
Ġwave form
sha de
Ġinflu ences
ĠS impl
ĠH C
min ors
sec ted
Pro ceeding
/ \|
b mat
x act
es i
}$ _
ĠN SE
ĠD etails
Ġlo cate
ĉĠ ĉ
vb h
)~ .
Ġexclu sive
Ġsymplect omorphism
n ets
o H
ĠP PP
)}) _
orses ho
co b
ĠG AP
)}$ )
Ġsymmetric al
sample d
ĠDav is
sub sequence
Indu ction
ĠAns atz
= $\
D ot
el lar
Ġsin us
heart suit
5 77
Ġ( ((
Ġd ir
ed it
Ġpro to
lar m
ĠR IP
}= $
ĠMa jor
Ġadvantage ous
Integra tion
$ /
@ {|
H x
\ =
t tau
is ogen
pa ired
mod al
27 3
Ġlift ings
Ġenvelop es
arrange ment
Z ariski
&\ ;
Ġrep ulsive
34 3
,+ }$
Pic ard
Ġou ts
7 00
g V
gen cy
vm Ind
' |^{
ĠD yson
}=\ |
modu lation
)\, .$$
)}) -
LL C
Sol ve
Ġsuff ers
Ġ Delta
d irichlet
r X
Î ¹
Ġb s
ĠB ran
Ġhyper bola
Ġbij ectively
pher ic
ĠExp onential
! ^
Ġin ward
Ġse a
ĠP OV
ide a
knot s
ĠCommun ications
M is
he x
Ġcon centric
}{ =}\
iz u
col imit
)}\ |^
equiv ariance
)_ -
thes ection
Ġenforce d
- $(
d ical
ir red
Ġ$( {
Ġsub carriers
. $\\
ĠR B
}| ^{-
ink ing
Ġdistingu ishable
}... \
ĠIntegra tion
A w
Ġre parametrization
ĠH D
Ġsub path
ĠK ong
Ġintro ductory
Ġintegra tions
ĠGaussian s
47 7
{[ }
congru ent
f id
ĠF ul
}^* ,\
EN DIF
)). \
adjoint ness
Ġinversion s
Ġquas igroup
N ear
W c
Ġ$ _{
ti kh
bb q
Ġref ining
Ġclosed ness
ĠDo main
Ġpul ses
r st
Ġo mega
Ġ& >
con ti
\| ^\
ĠW KB
Ġab sc
mis s
Ġcomm it
D yn
ĠĠ ĉĊ
Ġ2 40
\[ \|
Ġev olutions
ĠTho mpson
Ġstret ching
Period ic
X M
}\ }}\
Ġco ins
ĠM ES
Ġref ines
trans mit
nes sed
contents line
g C
s am
al eq
di p
Ġdis prove
Ġgeneral ises
Ġwa it
Brick Red
l mb
r ond
Ġp hantom
im oto
ĠP an
gra f
non local
li b
Ġsl ip
AC K
irr ors
He at
urn side
@/^ /[
0 23
g at
Ġ1 25
Ġgener icity
Ġside d
trans formed
measure ment
ĠCho ice
W k
X s
n omenclature
Ġe tale
}) |^{
)\, $
Ġorigin ating
ĠSta tes
Ġturbul ent
| }(\
eq b
), ~\
bar r
ĠO T
}- |
94 9
Ġutil izes
Ġexper t
ĠEnt ropy
u line
Ġassu res
ac cep
ey ting
ĠContinu ing
Ġcoar ser
B j
ĠT HE
Ġ$[ [
pre v
Ġch ir
v tx
Ġc t
Ġun usual
Ġext remum
Ġ" /\"
ear son
cer ni
}),\ ]
umen tation
h armon
z ak
or ial
eta b
}_{ +}
sta cle
19 63
Ġdest roy
Ġsyzy gy
Ġtim ing
ilo red
k ol
la ced
ot ti
Ġle gend
the tical
Ġhe ap
centra tion
Mar k
bq n
haus en
Ġf ic
ur ve
Al b
05 6
Ġbran es
Ġheter ogeneity
ĠIma ge
_{ <\
ec on
Ġ\\ &=
Ġwindow s
Cy clic
Ġcle arer
= [-
G PP
h ardy
Ġ$ ^{\
Ġin cl
mo der
Ġf st
ce an
ĠI oT
ck af
HJ B
! },
a B
k or
m int
nd les
ro sio
ĠI r
lat ter
sol n
oro hod
ĠSt udy
m ft
s Set
Ġe g
}) }_
Ġas sets
draw line
graph ical
Co homology
Ġembed dable
DI V
Br un
Jo hn
, <
C ritical
R ou
| |=
Ġs tic
Ġuni tarity
ĠĠĠĠĠĠĠĠĠĠĠĠĠĠĠĠĠĠĠĠĠĠĠĠĠĠĠĠĠĠĠĠ ĠĠĠĠĠĠĠĠ
ĠĠĠĠĠĠĠĠĠĠĠĠĠĠĠĠĠĠĠĠĠĠĠĠĠĠĠĠĠĠĠĠ ĠĠĠĠĠĠĠĠĠ
ĠRedu ction
cerni ble
' }\\
4 10
] "
bf G
Ġra rely
ĠâĨ Ķ
. ,-
D ar
Ġfor all
Ġnon holonomic
})\ }_{
do or
}~ ~\
TR A
âĤ Ģ
Ġatten uation
v U
he ter
he uristic
Ġdis counted
Sel berg
ir u
Ġsome body
Ġexp lic
48 8
parameter ized
ĠIN T
Ġacqu ire
! \,
L ane
P ra
] &=
Ġb ath
ĠA I
Ġapproa ched
Ġ }^{(
] |-
_ ,
}} )_
Ġrespect ing
" \
& >
x bm
ic on
mb z
all is
Ġun conditionally
mo sphere
ĠU ser
igin al
gg o
MA IN
Ġinc en
[...]
