{
  "!": 33,
  "!!": 17900,
  "!!!\"": 31069,
  "!!\"": 15738,
  "!!\".": 25539,
  "!\"": 412,
  "!\",": 5495,
  "!\".": 4375,
  "!'": 5510,
  "!'\"": 9997,
  "!'\".": 26173,
  "!''": 13018,
  "!',": 16906,
  "!'.": 9840,
  "!)": 27252,
  "!,": 23176,
  "!,\"": 11847,
  "!,âĢĿ": 27754,
  "!.": 18513,
  "!.\"": 27752,
  "!?": 18421,
  "!?\"": 15683,
  "!?âĢĿ": 24511,
  "!\\\"": 27755,
  "!`": 26314,
  "!``": 28877,
  "!âĢĻ": 9789,
  "!âĢĻ.": 21397,
  "!âĢĻâĢĿ": 30027,
  "!âĢľ": 27753,
  "!âĢĿ": 1830,
  "!âĢĿ,": 11151,
  "!âĢĿ.": 7320,
  "\"": 34,
  "\"!": 10004,
  "\"'": 23921,
  "\",": 5452,
  "\".": 1602,
  "\"?": 20601,
  "#": 35,
  "$": 36,
  "%": 37,
  "&": 38,
  "'": 39,
  "'!": 14310,
  "'!\"": 10581,
  "'\".": 20297,
  "''": 16747,
  "''.": 23399,
  "',": 8364,
  "',\"": 12424,
  "'-": 26779,
  "'.": 5665,
  "'.\"": 7760,
  "'?": 19599,
  "'?\"": 10113,
  "'?\".": 24851,
  "'d": 3968,
  "'ll": 1964,
  "'m": 922,
  "'re": 1488,
  "'s": 383,
  "'t": 491,
  "'ve": 5325,
  "(": 40,
  ")": 41,
  "),": 28878,
  ").": 21834,
  "*": 42,
  "+": 43,
  ",": 44,
  ",\"": 637,
  ",\".": 29066,
  ",'": 8476,
  ",'\"": 22192,
  ",''": 21969,
  ",âĢĻ": 16284,
  ",âĢľ": 15140,
  ",âĢĿ": 3812,
  "-": 45,
  "--": 7715,
  "---": 22839,
  ".": 46,
  ".\"": 396,
  ".\",": 16572,
  ".\".": 16456,
  ".'": 5734,
  ".'\"": 8177,
  ".''": 12554,
  ".)": 21265,
  ".,": 28279,
  "..": 4782,
  "..\"": 31070,
  "...": 6302,
  "...\"": 6470,
  "...\".": 27573,
  "...'": 31609,
  "....": 18656,
  "....\"": 29286,
  "...âĢĿ": 28059,
  ".`": 25929,
  ".âĢĭ": 30246,
  ".âĢĻ": 10484,
  ".âĢľ": 22466,
  ".âĢĿ": 1828,
  ".âĢĿ.": 26985,
  "/": 47,
  "0": 48,
  "00": 15389,
  "000": 25489,
  "1": 49,
  "10": 16109,
  "100": 30247,
  "11": 12359,
  "12": 21266,
  "1234": 24495,
  "15": 31071,
  "2": 50,
  "20": 25185,
  "3": 51,
  "30": 31072,
  "34": 23632,
  "4": 52,
  "5": 53,
  "50": 21445,
  "55": 23633,
  "6": 54,
  "7": 55,
  "8": 56,
  "9": 57,
  "99": 28879,
  ":": 58,
  ":\"": 11239,
  ";": 59,
  "<": 60,
  "</s>": 31975,
  "<bos>": 31978,
  "<eos>": 31976,
  "<fim_middle>": 31993,
  "<fim_prefix>": 31992,
  "<fim_suffix>": 31994,
  "<mask>": 31991,
  "<pad>": 31979,
  "<s>": 31977,
  "<unk>": 31980,
  "<|assistant|>": 31983,
  "<|code|>": 31990,
  "<|date|>": 31997,
  "<|endofmessage|>": 31986,
  "<|endoftext|>": 31974,
  "<|function_call|>": 31999,
  "<|im_end|>": 31985,
  "<|im_start|>": 31984,
  "<|sep|>": 31987,
  "<|summarize|>": 31988,
  "<|system|>": 31981,
  "<|title|>": 31995,
  "<|tool|>": 31998,
  "<|translate|>": 31989,
  "<|url|>": 31996,
  "<|user|>": 31982,
  "=": 61,
  ">": 62,
  "?": 63,
  "?!": 10856,
  "?!\"": 7614,
  "?!\",": 22922,
  "?!\".": 15305,
  "?!'": 29508,
  "?!âĢĿ": 15141,
  "?\"": 475,
  "?\",": 6607,
  "?\".": 3753,
  "?'": 6800,
  "?'\"": 14964,
  "?''": 14921,
  "?',": 18297,
  "?'.": 12807,
  "?,\"": 11503,
  "?,âĢĿ": 30249,
  "?âĢĻ": 11435,
  "?âĢĻ.": 29363,
  "?âĢľ": 30248,
  "?âĢĿ": 2289,
  "?âĢĿ,": 12798,
  "?âĢĿ.": 9132,
  "@": 64,
  "A": 65,
  "AA": 14604,
  "AAA": 30912,
  "AAAAH": 22001,
  "AAH": 22000,
  "AC": 27253,
  "ACHOO": 23634,
  "ACK": 28881,
  "AD": 23922,
  "AK": 26780,
  "AKE": 28259,
  "AM": 26781,
  "AN": 25186,
  "ANG": 13022,
  "ANGER": 26677,
  "AP": 13426,
  "AR": 12360,
  "AS": 24852,
  "AT": 19600,
  "AW": 20602,
  "AY": 18154,
  "Aaaah": 15390,
  "Aaah": 24219,
  "Aah": 25931,
  "Aaliyah": 26316,
  "Aaron": 20298,
  "Ab": 6723,
  "Abb": 17225,
  "Abbey": 26265,
  "Abbi": 19984,
  "Abbie": 10530,
  "Abby": 8651,
  "Abe": 27255,
  "Abi": 11569,
  "Abigail": 7951,
  "About": 23561,
  "Above": 31074,
  "Abra": 21043,
  "Abracadabra": 9581,
  "Absolutely": 20865,
  "Ac": 17144,
  "Accept": 23376,
  "Accidents": 21252,
  "Ace": 28281,
  "Achoo": 6051,
  "Acorn": 24853,
  "Acorns": 31002,
  "Act": 18905,
  "Acting": 31075,
  "Actually": 21437,
  "Ad": 16659,
  "Ada": 16748,
  "Adam": 8008,
  "Add": 17813,
  "Addie": 28880,
  "Addy": 20436,
  "Adele": 31076,
  "Adri": 30938,
  "Adventure": 22887,
  "Aeroplane": 24512,
  "Af": 28280,
  "Afraid": 30222,
  "After": 1272,
  "Afterward": 20665,
  "Afterwards": 7609,
  "Ag": 21100,
  "Again": 12808,
  "Agatha": 26734,
  "Agent": 22467,
  "Agn": 19113,
  "Agnes": 19595,
  "Agreed": 25905,
  "Ah": 5854,
  "Aha": 14253,
  "Ahh": 9879,
  "Ahhh": 15008,
  "Ahhhh": 23111,
  "Ahmed": 26179,
  "Ahoy": 8702,
  "Aidan": 27256,
  "Aiden": 19601,
  "Aimee": 25540,
  "Air": 29510,
  "Airport": 25933,
  "Al": 3988,
  "Alan": 14959,
  "Alarm": 21942,
  "Alas": 23798,
  "Albert": 17268,
  "Albie": 29245,
  "Ale": 25930,
  "Alec": 29478,
  "Alert": 24076,
  "Alex": 6712,
  "Alexa": 18763,
  "Alexander": 27090,
  "Alexandra": 31666,
  "Alf": 14638,
  "Alfie": 16439,
  "Alfred": 21610,
  "Ali": 12252,
  "Alice": 4775,
  "Alicia": 18287,
  "Alina": 25378,
  "Alison": 16377,
  "All": 4715,
  "Allan": 30744,
  "Allen": 25043,
  "Allie": 16443,
  "Alligator": 21200,
  "Alligators": 30170,
  "Allison": 24698,
  "Ally": 10899,
  "Alma": 28611,
  "Almost": 14154,
  "Along": 10770,
  "Alright": 7544,
  "Although": 10362,
  "Alvin": 28048,
  "Always": 7118,
  "Aly": 17224,
  "Alya": 30943,
  "Alyssa": 25492,
  "Am": 7589,
  "Ama": 31073,
  "Amanda": 11997,
  "Amaya": 23325,
  "Amazed": 27588,
  "Amazing": 17643,
  "Amazingly": 21788,
  "Amber": 12828,
  "Amelia": 11398,
  "Amelie": 24111,
  "Amen": 18155,
  "Ami": 15378,
  "Amie": 24110,
  "Amira": 27587,
  "Amos": 29985,
  "Amy": 1755,
  "An": 6345,
  "Ana": 10607,
  "Anabelle": 27572,
  "Anchor": 24718,
  "Ancient": 20246,
  "And": 2470,
  "Andi": 28578,
  "Andrea": 26124,
  "Andrew": 13538,
  "Andy": 5503,
  "Ang": 11004,
  "Angel": 14247,
  "Angela": 16915,
  "Angelina": 25865,
  "Angie": 17290,
  "Angry": 26607,
  "Angus": 26650,
  "Animal": 14523,
  "Animals": 17058,
  "Anita": 25800,
  "Ann": 4745,
  "Anna": 1336,
  "Annabel": 22172,
  "Annabelle": 12663,
  "Annalise": 29938,
  "Anne": 8762,
  "Annie": 6528,
  "Anny": 24717,
  "Another": 11205,
  "Answer": 21041,
  "Ant": 10189,
  "Anthony": 22408,
  "Anton": 26220,
  "Ants": 18875,
  "Anty": 25093,
  "Any": 8992,
  "Anya": 17124,
  "Anyone": 24432,
  "Anything": 14970,
  "Anytime": 10591,
  "Apolog": 29512,
  "App": 12182,
  "Appear": 26669,
  "Applaud": 23869,
  "Apple": 15426,
  "Apples": 17053,
  "April": 13350,
  "Ar": 10857,
  "Archie": 18142,
  "Are": 3041,
  "Aren": 17745,
  "Arf": 19339,
  "Ari": 26315,
  "Aria": 25932,
  "Ariel": 22674,
  "Arm": 19365,
  "Armchair": 22901,
  "Arnie": 29511,
  "Arnold": 24854,
  "Around": 27254,
  "Arr": 13166,
  "Arriving": 28715,
  "Arrow": 28714,
  "Arrr": 8220,
  "Art": 20412,
  "Arthur": 15776,
  "Ary": 30250,
  "As": 918,
  "Ash": 11426,
  "Ashley": 14811,
  "Ask": 16574,
  "At": 1217,
  "Att": 15408,
  "Attach": 21244,
  "Attention": 19106,
  "Audrey": 16749,
  "Aunt": 7957,
  "Auntie": 12312,
  "Austin": 29513,
  "Av": 16285,
  "Ava": 9430,
  "Available": 19839,
  "Avery": 12675,
  "Avocado": 22654,
  "Aw": 10070,
  "Awesome": 23583,
  "Aww": 14364,
  "Awww": 22647,
  "Ay": 29509,
  "Aye": 16809,
  "Ayla": 28282,
  "B": 66,
  "BANG": 15271,
  "BC": 11166,
  "BEEP": 19991,
  "BOO": 12496,
  "BOOM": 14275,
  "BQ": 24855,
  "Ba": 15492,
  "Baa": 8777,
  "BaaBaa": 29325,
  "Bab": 21835,
  "Babu": 30981,
  "Baby": 7297,
  "Back": 7826,
  "Bad": 6250,
  "Badger": 28648,
  "Bag": 31077,
  "Bailey": 16496,
  "Bake": 22924,
  "Baking": 24856,
  "Balance": 21837,
  "Bald": 23402,
  "Ball": 8319,
  "Balloon": 17122,
  "Balloons": 22893,
  "Balls": 29315,
  "Bally": 16110,
  "Bam": 26319,
  "Banana": 16051,
  "Bananas": 19481,
  "Band": 26320,
  "Bang": 7463,
  "Bar": 17433,
  "Barb": 23379,
  "Barbara": 27714,
  "Barber": 22657,
  "Bark": 16603,
  "Barkley": 29418,
  "Barky": 13700,
  "Barney": 19992,
  "Barry": 13887,
  "Bart": 23923,
  "Baseball": 27260,
  "Basil": 29516,
  "Basketball": 25935,
  "Bat": 25541,
  "Bath": 20148,
  "Bathe": 28284,
  "Bathing": 26323,
  "Bathrobe": 30162,
  "Bathroom": 29444,
  "Bathtub": 29476,
  "Batter": 22927,
  "Batteries": 27228,
  "Battery": 30186,
  "Bawk": 25544,
  "Baxter": 28885,
  "Be": 2164,
  "Bea": 14659,
  "Beach": 29835,
  "Beaky": 15038,
  "Bean": 19790,
  "Beans": 22790,
  "Bear": 7170,
  "Bears": 27581,
  "Beary": 20674,
  "Beatrice": 21011,
  "Beautiful": 24660,
  "Bebe": 21174,
  "Bec": 27258,
  "Because": 5091,
  "Becca": 16864,
  "Beck": 30653,
  "Becky": 11510,
  "Become": 27739,
  "Bed": 28882,
  "Bee": 7674,
  "Beebee": 28104,
  "Beef": 14804,
  "Beep": 6716,
  "Beepy": 26189,
  "Bees": 14833,
  "Beet": 21923,
  "Beetle": 24828,
  "Beetles": 30984,
  "Before": 4856,
  "Behave": 15079,
  "Behind": 7854,
  "Behold": 31514,
  "Being": 9439,
  "Bel": 17814,
  "Believe": 13038,
  "Believing": 28286,
  "Belinda": 18996,
  "Bell": 18591,
  "Bella": 5112,
  "Belle": 14312,
  "Ben": 1131,
  "Benjamin": 18107,
  "Benji": 19409,
  "Bennie": 29777,
  "Benny": 6186,
  "Ber": 27257,
  "Bernie": 17815,
  "Berries": 28883,
  "Berry": 18068,
  "Bert": 11985,
  "Bertha": 27738,
  "Bertie": 24153,
  "Bes": 22675,
  "Beside": 30987,
  "Besides": 26296,
  "Bess": 13673,
  "Bessie": 7469,
  "Bessy": 19471,
  "Best": 15252,
  "Bet": 10870,
  "Beth": 8564,
  "Bethany": 16988,
  "Betsy": 10976,
  "Better": 21101,
  "Betty": 7365,
  "Beware": 11359,
  "Bianca": 30254,
  "Bibi": 17226,
  "Bibo": 25543,
  "Biff": 22926,
  "Big": 6772,
  "Biggie": 13674,
  "Biggy": 16050,
  "Bike": 20603,
  "Bill": 7198,
  "Billie": 16559,
  "Billy": 3687,
  "Bing": 26318,
  "Bingo": 14639,
  "Binky": 7712,
  "Bird": 5526,
  "Birdie": 11583,
  "Birds": 13159,
  "Birdy": 7795,
  "Birthday": 30252,
  "Biscuit": 24859,
  "Bite": 21836,
  "Biting": 25934,
  "Bitter": 18790,
  "Bitty": 28283,
  "Bl": 5200,
  "Black": 16423,
  "Blackie": 24801,
  "Blacky": 30751,
  "Blah": 26324,
  "Blake": 21776,
  "Blast": 15615,
  "Blaze": 30750,
  "Ble": 11226,
  "Blech": 11297,
  "Bless": 9383,
  "Blink": 11417,
  "Blinky": 15986,
  "Blocks": 21036,
  "Bloom": 12355,
  "Blossom": 28063,
  "Blow": 18791,
  "Blu": 26783,
  "Blub": 23545,
  "Blue": 5436,
  "Blueberries": 29948,
  "Blueberry": 21952,
  "Bluey": 9001,
  "Bo": 8619,
  "Boat": 14769,
  "Bob": 1596,
  "Bobbi": 20058,
  "Bobbie": 12876,
  "Bobby": 5429,
  "Bobo": 3392,
  "Boby": 31459,
  "Boing": 20556,
  "Bon": 16006,
  "Bone": 29514,
  "Bones": 23924,
  "Bongo": 26322,
  "Bonjour": 24177,
  "Bonnie": 14036,
  "Bonny": 31850,
  "Boo": 5573,
  "Book": 20147,
  "Books": 15098,
  "Boom": 10201,
  "Boop": 20604,
  "Boot": 28117,
  "Boots": 24428,
  "Bop": 10472,
  "Boring": 31079,
  "Boris": 18592,
  "Borrow": 27259,
  "Boss": 29319,
  "Bossy": 21581,
  "Bot": 25187,
  "Both": 8354,
  "Bottle": 29515,
  "Boun": 10736,
  "Bounce": 9002,
  "Bouncing": 25455,
  "Bouncy": 10956,
  "Bow": 7758,
  "Box": 17049,
  "Boy": 14311,
  "Boys": 7473,
  "Br": 8340,
  "Bra": 11043,
  "Brad": 15726,
  "Bradley": 24468,
  "Brady": 23329,
  "Brain": 26224,
  "Brandy": 21800,
  "Brave": 16732,
  "Bravo": 13547,
  "Bre": 26317,
  "Bread": 26782,
  "Break": 25189,
  "Breathe": 28285,
  "Bree": 11436,
  "Breezy": 21409,
  "Brett": 24220,
  "Bri": 22923,
  "Brian": 12599,
  "Bricks": 30185,
  "Bridge": 30826,
  "Bridget": 24118,
  "Bright": 24857,
  "Brilliant": 24513,
  "Bring": 13188,
  "Bro": 14983,
  "Broccoli": 16172,
  "Brody": 31831,
  "Broken": 28884,
  "Brooke": 23330,
  "Brother": 14155,
  "Brown": 11041,
  "Brownie": 12254,
  "Browny": 27141,
  "Brr": 13919,
  "Brrr": 8431,
  "Brrrrrr": 31815,
  "Bruce": 17283,
  "Bruno": 17648,
  "Brush": 25075,
  "Bry": 23400,
  "Bryan": 27715,
  "Bu": 5578,
  "Bub": 18789,
  "Bubb": 13819,
  "Bubba": 14066,
  "Bubble": 16846,
  "Bubbles": 9278,
  "Bubby": 26321,
  "Bubu": 21259,
  "Buck": 23401,
  "Buckle": 27234,
  "Bucky": 31078,
  "Bud": 23815,
  "Buddy": 4721,
  "Bug": 9068,
  "Buggy": 12986,
  "Bugs": 19687,
  "Build": 30763,
  "Building": 29953,
  "Bulb": 30253,
  "Bull": 21267,
  "Bumble": 22253,
  "Bump": 25188,
  "Bumpy": 17592,
  "Bun": 13088,
  "Bunnies": 24858,
  "Bunny": 6216,
  "Burn": 25542,
  "Burt": 19223,
  "Bury": 18662,
  "Bus": 22925,
  "Bush": 30251,
  "Buster": 15391,
  "But": 771,
  "Butch": 26053,
  "Butter": 10603,
  "Butterflies": 16795,
  "Butterfly": 12632,
  "Button": 19153,
  "Buttons": 22033,
  "Buy": 17191,
  "Buzz": 6567,
  "Buzzy": 7801,
  "By": 7750,
  "Bye": 3867,
  "Bzzz": 22468,
  "BÃ³": 31080,
  "C": 67,
  "CAW": 28288,
  "CE": 31081,
  "CH": 18514,
  "CHOO": 22028,
  "CK": 14396,
  "COME": 29519,
  "CRA": 11708,
  "CRACK": 16550,
  "CRASH": 13207,
  "Cabinet": 31087,
  "Cacky": 30258,
  "Cact": 16750,
  "Cacti": 24803,
  "Cactus": 18894,
  "Cake": 15392,
  "Cal": 24860,
  "Caleb": 19856,
  "Cali": 28888,
  "Call": 16660,
  "Callie": 22888,
  "Cally": 16921,
  "Calm": 16922,
  "Cam": 21838,
  "Cami": 27263,
  "Camila": 28232,
  "Cammy": 16007,
  "Camp": 21447,
  "Can": 1028,
  "Cand": 20437,
  "Candle": 25150,
  "Candy": 12870,
  "Captain": 15584,
  "Car": 7433,
  "Cara": 10564,
  "Care": 10032,
  "Careful": 10955,
  "Carefully": 16431,
  "Cari": 13644,
  "Carl": 7850,
  "Carla": 13667,
  "Carley": 27098,
  "Carlos": 19194,
  "Carly": 14118,
  "Carol": 14526,
  "Caroline": 15991,
  "Carpet": 21839,
  "Carrie": 15177,
  "Carrot": 16270,
  "Carrots": 19721,
  "Carry": 20923,
  "Cars": 16810,
  "Carter": 31085,
  "Casey": 19115,
  "Cassie": 20606,
  "Cassy": 30259,
  "Cat": 5642,
  "Catch": 9790,
  "Catching": 31738,
  "Cate": 22929,
  "Caterpillar": 22676,
  "Catherine": 25190,
  "Cathy": 11285,
  "Catie": 23177,
  "Catrina": 31635,
  "Cats": 14068,
  "Catty": 10457,
  "Cauliflower": 21103,
  "Cautiously": 17670,
  "Caw": 11800,
  "Ce": 17434,
  "Cec": 21446,
  "Cece": 31864,
  "Cecil": 30174,
  "Cecilia": 25516,
  "Cee": 19224,
  "Celebrate": 21253,
  "Celery": 16499,
  "Celeste": 27198,
  "Celia": 18792,
  "Cell": 26784,
  "Celly": 24861,
  "Cereal": 22470,
  "Certain": 21449,
  "Certainly": 21630,
  "Ch": 4467,
  "Chad": 22376,
  "Chair": 21198,
  "Chalk": 26588,
  "Change": 13510,
  "Char": 16218,
  "Charge": 28056,
  "Charles": 18234,
  "Charley": 27184,
  "Charlie": 6601,
  "Charlotte": 11922,
  "Charming": 31590,
  "Chase": 27551,
  "Che": 9474,
  "Cheap": 16729,
  "Check": 15672,
  "Checkmate": 19215,
  "Cheep": 30022,
  "Cheer": 19334,
  "Cheers": 14450,
  "Cheese": 12167,
  "Chel": 24862,
  "Chelsea": 25177,
  "Cher": 16052,
  "Cherries": 30123,
  "Cherry": 18413,
  "Cheryl": 27182,
  "Chess": 16854,
  "Chester": 22626,
  "Chew": 10424,
  "Chewing": 30037,
  "Chewy": 13398,
  "Chick": 15258,
  "Chicken": 21425,
  "Chickens": 30922,
  "Chickie": 28177,
  "Chicky": 9850,
  "Child": 14961,
  "Children": 11281,
  "Chimney": 30722,
  "Chip": 15836,
  "Chippy": 23803,
  "Chirp": 11688,
  "Chirpy": 6268,
  "Chloe": 8325,
  "ChloÃ©": 29925,
  "Chocolate": 13849,
  "Chomp": 24079,
  "Choo": 8350,
  "Choose": 11582,
  "Chop": 25384,
  "Chris": 10300,
  "Christ": 18039,
  "Christine": 30952,
  "Christmas": 27204,
  "Christopher": 25499,
  "Chubby": 25038,
  "Chuck": 18561,
  "Church": 30721,
  "Ciara": 29518,
  "Cici": 15894,
  "Cind": 29517,
  "Cindy": 8774,
  "Circle": 17364,
  "Circles": 30260,
  "Circus": 15532,
  "City": 30256,
  "Cl": 5707,
  "Claire": 8655,
  "Clang": 29272,
  "Clap": 13543,
  "Clar": 22386,
  "Clara": 7265,
  "Clare": 14627,
  "Clarence": 26249,
  "Clarice": 31912,
  "Claris": 31640,
  "Clarissa": 26294,
  "Class": 16847,
  "Claude": 29961,
  "Claudia": 25789,
  "Claw": 27562,
  "Claws": 30767,
  "Clay": 29959,
  "Cle": 11103,
  "Clean": 12060,
  "Cleaning": 19098,
  "Clear": 30049,
  "Clementine": 28889,
  "Cleo": 21801,
  "Clever": 26225,
  "Click": 19320,
  "Cliff": 25400,
  "Climb": 9154,
  "Climbing": 17575,
  "Clive": 24515,
  "Clock": 16545,
  "Cloe": 29273,
  "Close": 9527,
  "Closed": 17192,
  "Cloud": 14803,
  "Clouds": 24784,
  "Cloudy": 28176,
  "Clover": 22180,
  "Clown": 24708,
  "Club": 24093,
  "Cluck": 14389,
  "Clumsy": 29960,
  "Clyde": 25545,
  "Co": 7124,
  "Coach": 30803,
  "Coal": 17196,
  "Cobweb": 24863,
  "Cobwebs": 27721,
  "Coby": 17363,
  "Cock": 30255,
  "Coco": 8215,
  "Cocoa": 17496,
  "Cody": 20299,
  "Coffee": 15206,
  "Coin": 31083,
  "Col": 21448,
  "Cold": 24516,
  "Cole": 26616,
  "Colin": 15629,
  "Coll": 24412,
  "Collect": 30996,
  "Color": 27702,
  "Colors": 29453,
  "Com": 31082,
  "Come": 2355,
  "Comet": 17593,
  "Coming": 19114,
  "Comp": 15893,
  "Compassionate": 24469,
  "Competitive": 31844,
  "Complete": 24793,
  "Computer": 27666,
  "Con": 10434,
  "Confused": 10987,
  "Congrats": 28289,
  "Congratulations": 12444,
  "Connie": 21102,
  "Connor": 19962,
  "Coo": 20605,
  "Cook": 12581,
  "Cookie": 17580,
  "Cookies": 17355,
  "Cooking": 21233,
  "Cool": 11827,
  "Copper": 12373,
  "Cops": 31084,
  "Copy": 25936,
  "Cora": 19482,
  "Corn": 24514,
  "Correct": 24518,
  "Cory": 19225,
  "Couch": 27756,
  "Could": 13490,
  "Count": 16498,
  "Counting": 21619,
  "Courage": 26326,
  "Cover": 19077,
  "Cow": 10677,
  "Cows": 21405,
  "Cowy": 27622,
  "Cozy": 24723,
  "Cr": 14888,
  "Cra": 9415,
  "Crab": 15211,
  "Crabbie": 25827,
  "Crabby": 22848,
  "Crabs": 22201,
  "Crack": 16223,
  "Cracker": 30019,
  "Craig": 25088,
  "Crane": 18993,
  "Crash": 15729,
  "Craw": 20098,
  "Crawl": 23389,
  "Crawling": 28219,
  "Cray": 28887,
  "Crazy": 16728,
  "Cre": 27261,
  "Cream": 22469,
  "Create": 27757,
  "Creature": 31954,
  "Cricket": 19993,
  "Cro": 15531,
  "Croc": 30926,
  "Crocky": 29407,
  "Croco": 22434,
  "Crocodile": 21614,
  "Crocodiles": 27704,
  "Cross": 26785,
  "Crunch": 24785,
  "Crusty": 24171,
  "Crying": 31086,
  "Crystal": 19855,
  "Cub": 27262,
  "Cubby": 28287,
  "Cube": 19854,
  "Cubey": 22906,
  "Cuddles": 20438,
  "Cup": 20922,
  "Cuppy": 30257,
  "Curiosity": 23403,
  "Curious": 9966,
  "Curiously": 22629,
  "Curly": 24517,
  "Curtain": 26325,
  "Cushion": 28890,
  "Cut": 17435,
  "Cute": 28886,
  "Cy": 22928,
  "Cynthia": 25166,
  "D": 68,
  "DANGER": 30262,
  "DO": 27264,
  "Da": 31088,
  "Dad": 2750,
  "Dada": 25021,
  "Daddy": 4815,
  "Daisy": 4341,
  "Dale": 20750,
  "Dan": 7011,
  "Dana": 24222,
  "Dance": 13775,
  "Dancer": 31677,
  "Dancing": 19812,
  "Dandy": 28891,
  "Danger": 8693,
  "Dangerous": 14928,
  "Dani": 17871,
  "Daniel": 11218,
  "Daniella": 28207,
  "Danielle": 23893,
  "Danny": 6498,
  "Daphne": 26787,
  "Dar": 19000,
  "Dara": 11636,
  "Dare": 10164,
  "Dark": 25191,
  "Darling": 21624,
  "Dash": 25546,
  "Daughter": 15533,
  "Dave": 6212,
  "Davey": 10030,
  "David": 7675,
  "Davy": 25937,
  "Dawn": 17816,
  "Day": 14254,
  "Days": 6455,
  "De": 12136,
  "Dead": 15837,
  "Deaf": 16735,
  "Deal": 9170,
  "Dean": 25107,
  "Dear": 7496,
  "Debbie": 17890,
  "Debby": 23350,
  "Dec": 31089,
  "Decorate": 31093,
  "Dee": 11343,
  "Deep": 20607,
  "Deer": 17145,
  "Def": 26327,
  "Definitely": 27732,
  "Dejected": 28739,
  "Del": 11572,
  "Delay": 20571,
  "Delia": 30261,
  "Delicate": 29367,
  "Delicious": 16225,
  "Delighted": 21594,
  "Delilah": 26663,
  "Deliver": 20111,
  "Delivery": 28732,
  "Della": 21451,
  "Den": 23925,
  "Denise": 26303,
  "Dennis": 19001,
  "Denny": 23405,
  "Dependable": 31092,
  "Derek": 19994,
  "Des": 16866,
  "Design": 27675,
  "Desperate": 20732,
  "Despite": 11609,
  "Dessert": 24223,
  "Destroy": 25938,
  "Dex": 31090,
  "Di": 15787,
  "Diamond": 23603,
  "Diamonds": 30191,
  "Diana": 16500,
  "Diane": 18888,
  "Dick": 28290,
  "Dictionary": 25547,
  "Did": 4451,
  "Didi": 21197,
  "Didn": 20533,
  "Different": 21840,
  "Dig": 21450,
  "Dilly": 17227,
  "Din": 12600,
  "Dina": 13726,
  "Dinah": 25475,
  "Ding": 10957,
  "Dinner": 13973,
  "Dino": 9575,
  "Dinosaur": 18782,
  "Dinosaurs": 27693,
  "Dirty": 31091,
  "Dis": 16865,
  "Disappear": 14773,
  "Disappointed": 16752,
  "Discuss": 27674,
  "Disgusting": 26705,
  "Dish": 22930,
  "Dishwasher": 27229,
  "Display": 20731,
  "Distant": 29522,
  "Dive": 19116,
  "Diving": 29520,
  "Dizzy": 11124,
  "Do": 1614,
  "Doc": 25716,
  "Doctor": 9613,
  "Dodo": 13843,
  "Does": 8241,
  "Doesn": 24425,
  "Dog": 6428,
  "Doggo": 27086,
  "Doggy": 6204,
  "Dogs": 14220,
  "Doing": 26529,
  "Doll": 14684,
  "Dolls": 16529,
  "Dolly": 7306,
  "Dolph": 18464,
  "Dolphin": 20743,
  "Dolphins": 26721,
  "Don": 1241,
  "Donald": 17326,
  "Done": 16751,
  "Donna": 20663,
  "Donny": 22568,
  "Door": 21732,
  "Dora": 15585,
  "Doris": 24519,
  "Dorothy": 22472,
  "Dory": 22047,
  "Dot": 12239,
  "Dottie": 29521,
  "Dotty": 15997,
  "Doug": 14889,
  "Dough": 23178,
  "Dove": 17852,
  "Down": 12299,
  "Dr": 8193,
  "Drag": 24864,
  "Dragon": 15434,
  "Dragons": 26305,
  "Drake": 29998,
  "Draw": 16229,
  "Drawing": 24798,
  "Dream": 15493,
  "Dreaming": 26696,
  "Dreams": 18411,
  "Dress": 26786,
  "Drew": 28291,
  "Drink": 11113,
  "Drinking": 27597,
  "Drive": 22931,
  "Driver": 26328,
  "Driving": 28892,
  "Drop": 13396,
  "Dry": 19366,
  "Duck": 10425,
  "Ducks": 19336,
  "Ducky": 5842,
  "Duke": 18793,
  "Dull": 23404,
  "During": 5923,
  "Dust": 24221,
  "Dusty": 22471,
  "Dylan": 15630,
  "E": 69,
  "ED": 25548,
  "EE": 12001,
  "EEP": 12577,
  "EEZ": 30055,
  "EL": 24520,
  "ELCOME": 31929,
  "EN": 28292,
  "ER": 18069,
  "ES": 17228,
  "EXIT": 23407,
  "Each": 9186,
  "Eag": 25193,
  "Eager": 26329,
  "Eagerly": 28843,
  "Ear": 18593,
  "Early": 20592,
  "Earth": 17061,
  "Earthquake": 22233,
  "Earthquakes": 28234,
  "East": 19367,
  "Easy": 17062,
  "Eat": 9176,
  "Eating": 18156,
  "Ed": 13209,
  "Eddie": 12337,
  "Eddy": 22473,
  "Edgar": 26241,
  "Edie": 30263,
  "Edna": 31807,
  "Edward": 16739,
  "Eee": 26788,
  "Eek": 19117,
  "Egg": 19996,
  "Eggs": 25144,
  "Eggy": 27759,
  "Eight": 25192,
  "Eighty": 30265,
  "Eileen": 31095,
  "El": 10296,
  "Elderly": 24224,
  "Ele": 16230,
  "Eleanor": 28190,
  "Elena": 24139,
  "Elephant": 13403,
  "Elephants": 24770,
  "Elevator": 28189,
  "Eleven": 19980,
  "Eli": 21062,
  "Elisa": 25449,
  "Elise": 22204,
  "Eliz": 12439,
  "Eliza": 14163,
  "Elizabeth": 17511,
  "Ella": 5587,
  "Elle": 13137,
  "Ellen": 17000,
  "Elli": 21268,
  "Ellie": 7269,
  "Elliot": 23910,
  "Elly": 8322,
  "Elmer": 29347,
  "Elmo": 27617,
  "Elo": 30264,
  "Els": 10847,
  "Elsa": 12645,
  "Elsie": 14393,
  "Em": 4061,
  "Emb": 24521,
  "Embarrass": 24846,
  "Embarrassed": 30197,
  "Emer": 16867,
  "Emergency": 16920,
  "Emi": 26152,
  "Emilia": 29246,
  "Emily": 5698,
  "Emma": 4732,
  "Emmi": 24388,
  "Emmie": 19183,
  "Emmy": 11844,
  "Empty": 30713,
  "En": 11676,
  "Enc": 20112,
  "Encouraged": 22245,
  "End": 19995,
  "Eng": 28295,
  "Engine": 31965,
  "Enjoy": 10134,
  "Enormous": 23123,
  "Enough": 13455,
  "Enter": 19602,
  "Eric": 11986,
  "Erica": 31786,
  "Erin": 15952,
  "Ernie": 15435,
  "Error": 29523,
  "Escape": 23406,
  "Esm": 31094,
  "Esme": 26330,
  "Especially": 27758,
  "Est": 28293,
  "Esther": 28862,
  "Ethan": 17672,
  "Ethel": 26789,
  "Eure": 28294,
  "Eureka": 28863,
  "Eva": 11778,
  "Evan": 23635,
  "Eve": 17671,
  "Evelyn": 26710,
  "Even": 7664,
  "Eventually": 5628,
  "Ever": 12061,
  "Every": 2945,
  "Everybody": 12610,
  "Everyday": 11374,
  "Everyone": 5038,
  "Everything": 9961,
  "Everywhere": 14663,
  "Evie": 27265,
  "Ew": 6508,
  "Eww": 9692,
  "Ewww": 19693,
  "Ex": 5947,
  "Exactly": 17278,
  "Exam": 26181,
  "Examine": 31017,
  "Excellent": 14876,
  "Excited": 9493,
  "Excitedly": 11586,
  "Excuse": 6590,
  "Exercise": 21570,
  "Exhausted": 29966,
  "Exit": 13480,
  "Expensive": 24405,
  "Explain": 28640,
  "Explore": 31645,
  "Exploring": 20547,
  "Eye": 28893,
  "F": 70,
  "FF": 31096,
  "FO": 21841,
  "FR": 26790,
  "Fa": 16111,
  "Fab": 31099,
  "Factory": 30124,
  "Fair": 19857,
  "Fairy": 16501,
  "Faith": 18891,
  "Fake": 18422,
  "Fall": 22932,
  "Fam": 19368,
  "Family": 25896,
  "Famous": 22902,
  "Fan": 22474,
  "Fancy": 21842,
  "Fang": 31100,
  "Fanny": 20300,
  "Fantastic": 23926,
  "Far": 18906,
  "Farah": 30268,
  "Farewell": 25549,
  "Farm": 22677,
  "Farmer": 12137,
  "Fashion": 24865,
  "Fast": 19118,
  "Faster": 16662,
  "Fat": 25939,
  "Father": 13210,
  "Faucet": 24794,
  "Fay": 23636,
  "Faye": 16112,
  "Fe": 10925,
  "Fear": 17295,
  "Fearful": 31863,
  "Feather": 20267,
  "Feathers": 25900,
  "Fee": 25194,
  "Feed": 18692,
  "Feel": 23345,
  "Feeling": 11902,
  "Fel": 13645,
  "Felicia": 27162,
  "Felicity": 22640,
  "Felix": 15266,
  "Fergus": 31103,
  "Fern": 21636,
  "Festival": 27266,
  "Fetch": 14313,
  "Fi": 24225,
  "Fia": 31098,
  "Fido": 10911,
  "Fierce": 20751,
  "Fifi": 9113,
  "Fifty": 27267,
  "Fight": 25940,
  "Fighting": 14314,
  "Fill": 16661,
  "Filled": 20609,
  "Filly": 27760,
  "Fin": 1793,
  "Fina": 31483,
  "Finally": 2047,
  "Find": 8323,
  "Finders": 26200,
  "Finding": 28111,
  "Fine": 6351,
  "Finish": 18955,
  "Finn": 8111,
  "Finny": 8522,
  "Fiona": 10977,
  "Fire": 8972,
  "Firefighters": 28122,
  "Fireman": 25081,
  "Firemen": 26208,
  "Firework": 23927,
  "Fireworks": 17747,
  "First": 5816,
  "Fish": 9617,
  "Fisher": 26332,
  "Fisherman": 28849,
  "Fishing": 25941,
  "Fishy": 19199,
  "Fit": 19002,
  "Five": 11161,
  "Fix": 17985,
  "Fizz": 31101,
  "Fizzy": 20439,
  "Fl": 8055,
  "Flag": 30820,
  "Flame": 24421,
  "Flap": 19327,
  "Flappy": 17647,
  "Flash": 21391,
  "Fle": 14605,
  "Flea": 18585,
  "Fleas": 27167,
  "Flex": 30267,
  "Flexible": 21239,
  "Flick": 16789,
  "Flicker": 20285,
  "Flip": 31702,
  "Flo": 13913,
  "Flop": 13747,
  "Floppy": 16790,
  "Flopsy": 15347,
  "Flora": 14806,
  "Flossy": 30897,
  "Flour": 23574,
  "Flower": 18236,
  "Flowers": 17746,
  "Floyd": 28675,
  "Fluff": 27106,
  "Fluffy": 4010,
  "Flutter": 21790,
  "Fly": 9465,
  "Flying": 20410,
  "Flynn": 30021,
  "Fo": 6199,
  "Fog": 22254,
  "Fold": 17436,
  "Follow": 6701,
  "Foo": 29524,
  "Food": 15586,
  "Foolish": 20149,
  "Foot": 28081,
  "Football": 31034,
  "For": 6790,
  "Fore": 13573,
  "Foreshadowing": 14706,
  "Forever": 23877,
  "Forget": 29975,
  "Forgive": 20551,
  "Fork": 21452,
  "Forky": 31102,
  "Fortunately": 10277,
  "Forty": 28657,
  "Found": 9785,
  "Fountain": 28894,
  "Four": 10699,
  "Fox": 11053,
  "Foxes": 29357,
  "Foxy": 10667,
  "Fr": 6071,
  "Fragile": 17673,
  "Frame": 30780,
  "Fran": 18042,
  "Frances": 27567,
  "Francis": 26716,
  "Frank": 7355,
  "Frankie": 10262,
  "Franky": 28099,
  "Frannie": 31871,
  "Franny": 21373,
  "Freckles": 24866,
  "Fred": 4906,
  "Freda": 26166,
  "Freddie": 13181,
  "Freddy": 7503,
  "Free": 10505,
  "Freeze": 9003,
  "Fresh": 27762,
  "Freya": 17674,
  "Fridge": 28078,
  "Friend": 10773,
  "Friendly": 25836,
  "Friends": 8724,
  "Friendship": 18879,
  "Frightened": 18515,
  "Frisky": 23820,
  "Fritz": 25403,
  "Fro": 30266,
  "Frog": 8957,
  "Froggy": 9982,
  "Frogs": 19331,
  "From": 1666,
  "Frosty": 13920,
  "Fruit": 22387,
  "Fruits": 28643,
  "Frustrated": 13693,
  "Fu": 12199,
  "Fuel": 16397,
  "Full": 26331,
  "Fun": 11677,
  "Funny": 19735,
  "Fur": 31097,
  "Furniture": 27761,
  "Furry": 20608,
  "Further": 21453,
  "Fuzz": 22255,
  "Fuzzy": 12212,
  "G": 71,
  "GE": 24522,
  "GI": 28296,
  "GO": 22256,
  "Gab": 20150,
  "Gabby": 11663,
  "Gabe": 26729,
  "Gabriel": 29445,
  "Gaby": 19227,
  "Gail": 17365,
  "Gain": 25551,
  "Gar": 25195,
  "Garage": 27725,
  "Garry": 24867,
  "Gary": 13211,
  "Gas": 13321,
  "Gate": 27764,
  "Gather": 21104,
  "Gathering": 31899,
  "Gavin": 23180,
  "Gee": 25197,
  "Gemma": 14537,
  "Gen": 19736,
  "Generous": 24815,
  "Genie": 28799,
  "Genny": 27766,
  "Gentle": 29528,
  "Gently": 17063,
  "Geoffrey": 31108,
  "Geor": 17521,
  "Georg": 23143,
  "George": 6271,
  "Georgia": 25521,
  "Georgie": 20737,
  "Gerald": 22257,
  "Gerry": 13574,
  "Gert": 16560,
  "Gertie": 18508,
  "Gertrude": 28194,
  "Ges": 26792,
  "Gesundheit": 27246,
  "Get": 7437,
  "Getting": 25415,
  "Ghost": 23179,
  "Ghosts": 31919,
  "Gia": 17594,
  "Giant": 19484,
  "Giddy": 20301,
  "Gift": 31106,
  "Gifted": 26793,
  "Giggles": 29527,
  "Gigi": 8243,
  "Gil": 28895,
  "Gilda": 27767,
  "Gill": 18794,
  "Gilly": 15953,
  "Gim": 26791,
  "Gimme": 27245,
  "Gina": 8812,
  "Ginger": 13801,
  "Ginny": 17001,
  "Gio": 28896,
  "Giraffe": 17146,
  "Girl": 15954,
  "Girls": 15053,
  "Give": 3653,
  "Giving": 28897,
  "Gizmo": 22475,
  "Gl": 13458,
  "Glad": 15626,
  "Glor": 18594,
  "Gloria": 18688,
  "Glove": 27768,
  "Glow": 18070,
  "Glue": 22427,
  "Go": 3502,
  "Goal": 19429,
  "Goat": 17336,
  "Goats": 30694,
  "Gobble": 18157,
  "God": 12864,
  "Gogo": 10678,
  "Going": 25373,
  "Gold": 14958,
  "Goldie": 21241,
  "Goldy": 30104,
  "Golf": 18751,
  "Gone": 25196,
  "Goo": 22678,
  "Good": 2010,
  "Goodbye": 5312,
  "Goodness": 23769,
  "Goodnight": 7831,
  "Goose": 19483,
  "Gor": 19997,
  "Gordon": 27769,
  "Gorilla": 23152,
  "Goro": 31107,
  "Gosh": 23796,
  "Got": 8798,
  "Gotcha": 13914,
  "Gr": 8797,
  "Gra": 3664,
  "Grab": 11566,
  "Grace": 6525,
  "Graceful": 16479,
  "Gracie": 12404,
  "Gradually": 21583,
  "Graham": 31573,
  "Gramma": 30832,
  "Gramps": 30833,
  "Gran": 21053,
  "Grand": 11363,
  "Grandad": 18227,
  "Grandchild": 24148,
  "Granddad": 26655,
  "Granddaughter": 24756,
  "Grandfather": 20109,
  "Grandma": 4601,
  "Grandmother": 17419,
  "Grandpa": 6117,
  "Grandson": 26654,
  "Granny": 10590,
  "Grant": 30831,
  "Grape": 25374,
  "Grapes": 25032,
  "Grass": 23408,
  "Grateful": 29326,
  "Gray": 16336,
  "Gre": 27763,
  "Great": 6347,
  "Green": 12361,
  "Greeny": 23125,
  "Greet": 12757,
  "Greeting": 30884,
  "Greetings": 12989,
  "Greg": 13855,
  "Gregg": 31960,
  "Gregory": 28164,
  "Gret": 15436,
  "Greta": 16599,
  "Gretel": 30111,
  "Grey": 29526,
  "Gri": 29525,
  "Grill": 27765,
  "Gross": 31105,
  "Grow": 8643,
  "Growing": 31713,
  "Growly": 31714,
  "Grrr": 18071,
  "Gruff": 31718,
  "Grumpy": 14841,
  "Gu": 18516,
  "Guard": 23897,
  "Guess": 7525,
  "Gum": 19226,
  "Gummy": 31104,
  "Gun": 25550,
  "Guns": 26765,
  "Gus": 11190,
  "Guys": 26270,
  "Gwen": 15306,
  "H": 72,
  "HE": 10395,
  "HELL": 28138,
  "HELLO": 28276,
  "HELP": 31750,
  "HH": 27268,
  "HONK": 28302,
  "Ha": 5445,
  "Hah": 18907,
  "Haha": 20433,
  "Hailey": 27070,
  "Hair": 29530,
  "Hairy": 24227,
  "Hal": 23409,
  "Haley": 20441,
  "Half": 25942,
  "Halfway": 15838,
  "Hallo": 31112,
  "Halloween": 28298,
  "Halt": 28301,
  "Ham": 25198,
  "Hammer": 26763,
  "Han": 24523,
  "Hand": 22679,
  "Hang": 19003,
  "Hanger": 28297,
  "Hank": 13856,
  "Hanna": 17522,
  "Hannah": 8050,
  "Happily": 22258,
  "Happiness": 28299,
  "Happy": 5533,
  "Har": 12033,
  "Hard": 30269,
  "Harley": 22420,
  "Harold": 18313,
  "Harper": 25943,
  "Harriet": 16488,
  "Harry": 6780,
  "Harvey": 21070,
  "Has": 23928,
  "Hat": 18595,
  "Hats": 28899,
  "Hattie": 27691,
  "Have": 5776,
  "Having": 17986,
  "Hay": 20752,
  "Hayley": 26731,
  "Hazel": 20442,
  "He": 1027,
  "Head": 23743,
  "Heal": 18946,
  "Healthy": 22336,
  "Hear": 27959,
  "Hearing": 14720,
  "Heart": 30568,
  "Heather": 17477,
  "Hee": 18736,
  "Heel": 18271,
  "Heidi": 13842,
  "Hel": 11085,
  "Helen": 12806,
  "Helena": 30047,
  "Heli": 18310,
  "Helicopter": 27628,
  "Hello": 1182,
  "Help": 2639,
  "Helper": 26128,
  "Helpful": 29861,
  "Helping": 16842,
  "Hen": 23638,
  "Henny": 11588,
  "Henri": 24842,
  "Henry": 6364,
  "Her": 1578,
  "Herb": 14683,
  "Herbie": 29810,
  "Herbs": 27482,
  "Here": 2893,
  "Hero": 19417,
  "Hey": 2169,
  "Hi": 1094,
  "Hidden": 28300,
  "Hide": 11904,
  "High": 20610,
  "Higher": 15437,
  "Hilda": 18596,
  "Hill": 31109,
  "Hippo": 17773,
  "Hippy": 10489,
  "His": 1674,
  "Hiss": 25553,
  "History": 13271,
  "Hit": 24226,
  "Hiya": 30576,
  "Hm": 23637,
  "Hmm": 8326,
  "Hmmm": 14927,
  "Hmph": 30192,
  "Ho": 12317,
  "Hockey": 21454,
  "Hocus": 23640,
  "Hola": 20151,
  "Hold": 6471,
  "Holding": 25058,
  "Holiday": 28901,
  "Holly": 11332,
  "Home": 17229,
  "Honest": 19369,
  "Honesty": 27211,
  "Honey": 8546,
  "Honk": 14640,
  "Hoo": 14570,
  "Hook": 28898,
  "Hoop": 27770,
  "Hoor": 10373,
  "Hooray": 10380,
  "Hoot": 15587,
  "Hootie": 31840,
  "Hooty": 30928,
  "Hop": 8454,
  "Hope": 9618,
  "Hopp": 24157,
  "Hopper": 16736,
  "Hopping": 28742,
  "Hoppity": 30194,
  "Hoppy": 8150,
  "Hops": 31111,
  "Hor": 17817,
  "Horn": 31110,
  "Horse": 18072,
  "Horses": 30949,
  "Horsie": 17675,
  "Horsy": 19591,
  "Hot": 13756,
  "Hotel": 25861,
  "Hours": 14455,
  "House": 24868,
  "How": 3051,
  "Howdy": 29876,
  "However": 6676,
  "Hug": 15054,
  "Huggy": 26794,
  "Hugh": 27173,
  "Hugo": 21084,
  "Hugs": 28770,
  "Huh": 22476,
  "Hum": 25552,
  "Humans": 30201,
  "Humble": 23639,
  "Humpty": 30270,
  "Hungry": 28900,
  "Hunt": 20440,
  "Hunter": 20915,
  "Hur": 29529,
  "Hurray": 19485,
  "Hurricane": 20152,
  "Hurry": 7692,
  "Hush": 23410,
  "I": 73,
  "ID": 31113,
  "IG": 21637,
  "IK": 28303,
  "IL": 26333,
  "ILY": 28850,
  "IM": 30271,
  "IN": 23181,
  "ING": 17147,
  "IP": 25554,
  "IS": 22259,
  "IT": 19486,
  "Ian": 25199,
  "Ice": 10039,
  "Icy": 17366,
  "Ida": 25200,
  "If": 3040,
  "Iggy": 31114,
  "Ign": 14538,
  "Ignorant": 21080,
  "Ignore": 17293,
  "Im": 9375,
  "Imag": 28695,
  "Imagine": 10414,
  "Imagining": 31041,
  "Immediately": 16913,
  "Imp": 20709,
  "Important": 25824,
  "Impressive": 30972,
  "Improve": 25154,
  "In": 1462,
  "Ina": 30616,
  "Inc": 13153,
  "Inch": 20217,
  "Include": 19348,
  "Increase": 17737,
  "Incredible": 18883,
  "Ind": 16663,
  "Indeed": 17519,
  "Indy": 24524,
  "Infant": 23279,
  "Ink": 22130,
  "Inky": 18740,
  "Insect": 26975,
  "Inside": 3063,
  "Instantly": 19918,
  "Instead": 7803,
  "Int": 15494,
  "Intelligent": 30113,
  "Interesting": 28771,
  "Intrigued": 19588,
  "Introduce": 28772,
  "Irene": 26334,
  "Iris": 22933,
  "Iron": 23641,
  "Is": 4111,
  "Isaac": 22372,
  "Isabel": 24691,
  "Isabella": 17637,
  "Isabelle": 21361,
  "Isla": 18288,
  "Isn": 9595,
  "Issy": 31115,
  "It": 1016,
  "Its": 15604,
  "Ivan": 31116,
  "Ivy": 17818,
  "Izzy": 11779,
  "J": 74,
  "JJ": 29531,
  "Ja": 27269,
  "Jac": 25558,
  "Jack": 1989,
  "Jackie": 10036,
  "Jacklyn": 24353,
  "Jackson": 18468,
  "Jacky": 10292,
  "Jacob": 8886,
  "Jada": 22478,
  "Jade": 16753,
  "Jaden": 27272,
  "Jail": 21105,
  "Jak": 26335,
  "Jake": 5673,
  "Jakob": 31944,
  "Jam": 14890,
  "Jamal": 26690,
  "James": 6431,
  "Jamie": 8075,
  "Jan": 9858,
  "Jana": 25559,
  "Jane": 3358,
  "Janet": 13108,
  "Janey": 12724,
  "Janice": 17801,
  "Janie": 10086,
  "Janine": 30848,
  "Jar": 25556,
  "Jared": 22260,
  "Jasmine": 13976,
  "Jason": 11780,
  "Jasper": 18237,
  "Jax": 12619,
  "Jay": 10978,
  "Jayden": 25839,
  "Jayla": 27271,
  "Jazz": 7590,
  "Jazzy": 29532,
  "Je": 8596,
  "Jealous": 28115,
  "Jean": 13004,
  "Jeannie": 25858,
  "Jeb": 27270,
  "Jed": 20153,
  "Jeep": 22477,
  "Jeff": 9490,
  "Jeffrey": 25089,
  "Jellie": 26337,
  "Jelly": 13351,
  "Jellyfish": 15945,
  "Jem": 18693,
  "Jemima": 22448,
  "Jemma": 15534,
  "Jen": 5431,
  "Jena": 29265,
  "Jenn": 13542,
  "Jenna": 10078,
  "Jennie": 15299,
  "Jennifer": 14933,
  "Jenny": 4899,
  "Jeremiah": 28905,
  "Jeremy": 14315,
  "Jerome": 30273,
  "Jerry": 6702,
  "Jes": 19228,
  "Jess": 8344,
  "Jesse": 20594,
  "Jessica": 9892,
  "Jessie": 8944,
  "Jessy": 20096,
  "Jet": 16604,
  "Jetty": 23182,
  "Jewel": 27115,
  "Jill": 3906,
  "Jillian": 29902,
  "Jilly": 10958,
  "Jim": 3002,
  "Jimbo": 14279,
  "Jimmie": 25750,
  "Jimmy": 3869,
  "Jin": 25555,
  "Jing": 22934,
  "Jo": 1550,
  "JoJo": 14950,
  "Joan": 13154,
  "Joanna": 15759,
  "Joanne": 17805,
  "Jodi": 25713,
  "Jodie": 16965,
  "Jody": 15470,
  "Joe": 4093,
  "Joel": 17328,
  "Joey": 6448,
  "Jog": 19229,
  "Jogging": 22663,
  "John": 1706,
  "Johnie": 25346,
  "Johnnie": 12902,
  "Johnny": 6058,
  "Johny": 11027,
  "Join": 16076,
  "Jojo": 12819,
  "Joke": 15248,
  "Jokes": 30107,
  "Joking": 31456,
  "Jolly": 15363,
  "Jon": 8899,
  "Jonah": 21223,
  "Jonas": 29330,
  "Jonathan": 14770,
  "Jones": 30272,
  "Jonny": 10627,
  "Jor": 25557,
  "Jordan": 23183,
  "Jorge": 26766,
  "Jose": 18194,
  "Joseph": 14085,
  "Josh": 8367,
  "Joshua": 24426,
  "Joshy": 30002,
  "Josie": 13904,
  "Joy": 8656,
  "Joyce": 20097,
  "Ju": 12633,
  "Juan": 17972,
  "Jude": 25201,
  "Judge": 14539,
  "Judy": 12183,
  "Jug": 28902,
  "Juice": 18495,
  "Jul": 7348,
  "Jules": 18881,
  "Julia": 9598,
  "Julian": 23830,
  "Julie": 8558,
  "Juliet": 21212,
  "Jumbo": 28904,
  "Jump": 7053,
  "Jumper": 26615,
  "Jumping": 18299,
  "Jumpy": 15895,
  "June": 10007,
  "Jungle": 26336,
  "Junior": 18073,
  "Junk": 26795,
  "Juno": 28903,
  "Just": 1751,
  "Justin": 18555,
  "Justine": 24037,
  "K": 75,
  "Ka": 28906,
  "Kai": 14606,
  "Kaitlyn": 17367,
  "Kali": 31118,
  "Kanga": 20754,
  "Kangaroo": 19230,
  "Kangaroos": 30963,
  "Kar": 27273,
  "Kara": 13352,
  "Karen": 8879,
  "Kari": 18517,
  "Karl": 19603,
  "Karla": 27274,
  "Kat": 15221,
  "Kate": 7039,
  "Katelyn": 25561,
  "Katherine": 31119,
  "Kathy": 14280,
  "Katie": 7519,
  "Katrina": 24173,
  "Katy": 11344,
  "Kay": 13701,
  "Kaya": 22935,
  "Kayla": 9569,
  "Kaylee": 19831,
  "Ke": 18331,
  "Keep": 7562,
  "Keith": 24186,
  "Kel": 26796,
  "Kell": 28907,
  "Kelly": 11860,
  "Kelsey": 13605,
  "Kelvin": 31022,
  "Ken": 14069,
  "Kendra": 27771,
  "Kenny": 13459,
  "Kenzie": 25477,
  "Kerry": 20154,
  "Ketchup": 29533,
  "Kev": 30146,
  "Kevin": 12445,
  "Key": 31117,
  "Kia": 26797,
  "Kiara": 25560,
  "Kick": 15955,
  "Kicking": 29534,
  "Kid": 23929,
  "Kids": 7782,
  "Kiki": 7630,
  "Kiko": 28304,
  "Kim": 7477,
  "Kimmy": 18976,
  "Kind": 18238,
  "Kindness": 21823,
  "King": 10509,
  "Kip": 13189,
  "Kippy": 23411,
  "Kira": 19858,
  "Kirsty": 22479,
  "Kiss": 16053,
  "Kissing": 29413,
  "Kit": 13675,
  "Kite": 20753,
  "Kitten": 17819,
  "Kitty": 2508,
  "Kn": 12168,
  "Kneel": 17437,
  "Kneeling": 30275,
  "Knight": 26338,
  "Knives": 23351,
  "Knock": 14161,
  "Knowing": 24760,
  "Kody": 30274,
  "Kola": 28908,
  "Kris": 23930,
  "Krista": 29535,
  "Kyla": 21638,
  "Kyle": 15896,
  "Kylie": 19370,
  "L": 76,
  "LA": 14127,
  "LE": 23931,
  "LIT": 30280,
  "LL": 19859,
  "LP": 31120,
  "La": 14281,
  "Lab": 22680,
  "Lacey": 18239,
  "Lacy": 21106,
  "Lad": 14850,
  "Ladies": 15220,
  "Lady": 16502,
  "Ladybug": 23888,
  "Laila": 20155,
  "Lala": 25204,
  "Lam": 29536,
  "Lamp": 17987,
  "Lana": 19604,
  "Lance": 25203,
  "Land": 21843,
  "Language": 28910,
  "Lani": 30279,
  "Lara": 19119,
  "Larry": 10351,
  "Laser": 17438,
  "Last": 14742,
  "Lastly": 19834,
  "Late": 20924,
  "Later": 2200,
  "Lau": 24527,
  "Laug": 25944,
  "Laughing": 31015,
  "Laundry": 31930,
  "Laura": 10691,
  "Lauren": 16923,
  "Laurie": 29468,
  "Law": 17748,
  "Lawyer": 28787,
  "Lay": 23643,
  "Layla": 16605,
  "Lazy": 19371,
  "Le": 4949,
  "Lea": 21366,
  "Lead": 27773,
  "Leaf": 16540,
  "Leafy": 27188,
  "Leah": 13850,
  "Lean": 21770,
  "Leap": 28626,
  "Learn": 21202,
  "Learning": 22176,
  "Leather": 27557,
  "Leave": 7643,
  "Leaves": 22395,
  "Lee": 15684,
  "Left": 15042,
  "Leila": 25044,
  "Lemon": 12954,
  "Lemonade": 14882,
  "Lemons": 17749,
  "Len": 22936,
  "Lena": 7996,
  "Lend": 24526,
  "Lenny": 12122,
  "Leo": 5406,
  "Leon": 23539,
  "Leonard": 30190,
  "Leopard": 20083,
  "Les": 27772,
  "Leslie": 31961,
  "Lesson": 20612,
  "Let": 897,
  "Lets": 16360,
  "Letter": 30277,
  "Levi": 29942,
  "Lewis": 23809,
  "Lexi": 18423,
  "Li": 14100,
  "Lia": 9171,
  "Liam": 14282,
  "Libby": 17514,
  "Library": 25863,
  "License": 28909,
  "Lie": 22481,
  "Life": 12953,
  "Lift": 23184,
  "Light": 15055,
  "Lightning": 16495,
  "Like": 7360,
  "Lil": 24525,
  "Lila": 2191,
  "Lilah": 23061,
  "Lili": 23412,
  "Lill": 25202,
  "Lilli": 22682,
  "Lillian": 31934,
  "Lillie": 20755,
  "Lilly": 6787,
  "Lily": 665,
  "Lime": 26798,
  "Limes": 25562,
  "Lin": 23642,
  "Lina": 12200,
  "Lind": 29537,
  "Linda": 9753,
  "Linny": 27275,
  "Lion": 11739,
  "Lions": 19231,
  "Lisa": 4702,
  "Lissa": 30278,
  "Lissie": 28305,
  "Listen": 6703,
  "Little": 4253,
  "Liv": 29539,
  "Liz": 7962,
  "Liza": 13184,
  "Lizard": 23096,
  "Lizards": 26623,
  "Lizzie": 9933,
  "Lizzy": 8750,
  "Lloyd": 29541,
  "Lo": 16811,
  "Load": 22439,
  "Lock": 21269,
  "Log": 20611,
  "Logan": 24488,
  "Lola": 6282,
  "Lolli": 29540,
  "Lollipop": 27190,
  "Lolly": 21844,
  "Lonely": 26799,
  "Long": 13757,
  "Look": 1109,
  "Looking": 16364,
  "Looks": 12685,
  "Loop": 15685,
  "Lori": 22938,
  "Lost": 11637,
  "Lotion": 25563,
  "Lots": 18694,
  "Lottie": 23932,
  "Lou": 9744,
  "Loud": 29538,
  "Louie": 19578,
  "Louis": 23581,
  "Louisa": 23847,
  "Louise": 12829,
  "Love": 11286,
  "Lovely": 30869,
  "Loyal": 19737,
  "Lu": 14984,
  "Luc": 11573,
  "Luca": 21411,
  "Lucas": 14533,
  "Lucia": 25847,
  "Lucie": 19967,
  "Lucinda": 27148,
  "Luck": 30276,
  "Luckily": 6995,
  "Lucky": 8184,
  "Lucy": 1585,
  "Luisa": 22650,
  "Luka": 26251,
  "Luke": 9204,
  "Lula": 22261,
  "Lulu": 7249,
  "Lumber": 22681,
  "Luna": 6062,
  "Lunch": 16664,
  "Lung": 21270,
  "Luxury": 24869,
  "Ly": 22480,
  "Lydia": 16503,
  "Lying": 22937,
  "Lyla": 21845,
  "Lynn": 24831,
  "M": 77,
  "MOM": 27775,
  "Ma": 14003,
  "Maa": 26342,
  "Mabel": 9467,
  "Mac": 17901,
  "Machine": 19738,
  "Mack": 17368,
  "Mackenzie": 28201,
  "Macy": 17296,
  "Mad": 8056,
  "Maddie": 10112,
  "Maddy": 9964,
  "Made": 26341,
  "Madeline": 21965,
  "Madison": 27107,
  "Mae": 11248,
  "Mag": 21847,
  "Maggie": 6547,
  "Maggy": 28309,
  "Magic": 8031,
  "Magical": 31701,
  "Magnet": 24827,
  "Mai": 19605,
  "Maia": 23131,
  "Mail": 12955,
  "Maisey": 30901,
  "Maisie": 15438,
  "Maisy": 11345,
  "Make": 9531,
  "Makeup": 25090,
  "Making": 15535,
  "Mal": 20613,
  "Mala": 29545,
  "Malcolm": 25151,
  "Malia": 25205,
  "Mallory": 22051,
  "Mam": 26339,
  "Mama": 3307,
  "Mami": 28308,
  "Mamma": 12620,
  "Mammy": 21455,
  "Man": 15686,
  "Mandy": 5465,
  "Mango": 30286,
  "Manny": 14489,
  "Many": 9645,
  "Mar": 6153,
  "Mara": 14708,
  "Marc": 18974,
  "March": 13967,
  "Marching": 28645,
  "Marcia": 28793,
  "Marco": 19567,
  "Marcus": 17406,
  "Marcy": 18866,
  "Margaret": 18389,
  "Marge": 24872,
  "Margie": 23559,
  "Margo": 22388,
  "Margot": 29284,
  "Mari": 19232,
  "Maria": 7302,
  "Marian": 20925,
  "Marianne": 31895,
  "Marie": 11122,
  "Marilyn": 26605,
  "Marina": 27080,
  "Mario": 23821,
  "Marisa": 31653,
  "Mark": 4755,
  "Marky": 22379,
  "Marl": 29543,
  "Marla": 23188,
  "Marlene": 30284,
  "Marley": 15720,
  "Marn": 30281,
  "Marriage": 17041,
  "Married": 27568,
  "Marry": 12879,
  "Mart": 21848,
  "Marta": 23392,
  "Marth": 10071,
  "Martha": 10082,
  "Martin": 13428,
  "Marty": 16315,
  "Marvin": 23822,
  "Mary": 4610,
  "Mason": 16665,
  "Massage": 23645,
  "Mat": 8060,
  "Match": 11652,
  "Matches": 17121,
  "Mate": 27277,
  "Mateo": 28856,
  "Math": 13353,
  "Matilda": 13133,
  "Matt": 9880,
  "Matthew": 14694,
  "Mattie": 21230,
  "Matty": 15773,
  "Maure": 27278,
  "Maureen": 27740,
  "Max": 1292,
  "Maxi": 25704,
  "Maxim": 26514,
  "Maxine": 16834,
  "Maxwell": 29787,
  "May": 6873,
  "Maya": 9549,
  "Maybe": 1753,
  "Maze": 28913,
  "Me": 2887,
  "Meanwhile": 8339,
  "Measure": 19934,
  "Measuring": 24674,
  "Meat": 21023,
  "Medicine": 30287,
  "Meena": 21024,
  "Meera": 29872,
  "Meet": 15713,
  "Meeting": 27177,
  "Meg": 13015,
  "Megan": 12175,
  "Meggie": 25747,
  "Meghan": 26676,
  "Mei": 18848,
  "Mel": 10165,
  "Melanie": 19696,
  "Melina": 30034,
  "Melinda": 21400,
  "Melissa": 14096,
  "Mellie": 31122,
  "Melly": 29542,
  "Melody": 19462,
  "Melon": 28708,
  "Melt": 19004,
  "Melty": 25139,
  "Melvin": 26644,
  "Memories": 31124,
  "Memory": 26343,
  "Mention": 28914,
  "Meow": 5348,
  "Mer": 24870,
  "Meredith": 24874,
  "Merry": 14774,
  "Messy": 28916,
  "Mew": 27025,
  "Mia": 1411,
  "Mic": 14397,
  "Mice": 28307,
  "Michael": 9621,
  "Michelle": 18058,
  "Mick": 13977,
  "Mickey": 20895,
  "Micky": 18518,
  "Microscope": 28171,
  "Mid": 27276,
  "Midnight": 30215,
  "Miffy": 29546,
  "Mighty": 17231,
  "Miguel": 20615,
  "Mika": 18241,
  "Mikayla": 20156,
  "Mike": 6262,
  "Mikey": 9706,
  "Miki": 23186,
  "Miko": 26801,
  "Mila": 11848,
  "Mild": 15100,
  "Miles": 16606,
  "Miley": 25945,
  "Milk": 17230,
  "Mill": 21639,
  "Miller": 31907,
  "Milli": 27279,
  "Millie": 6973,
  "Milly": 7133,
  "Milo": 9234,
  "Mimi": 4959,
  "Min": 12169,
  "Mina": 10008,
  "Mind": 11162,
  "Mindy": 14128,
  "Mine": 7229,
  "Minerals": 30878,
  "Ming": 24871,
  "Minnie": 14162,
  "Mint": 13427,
  "Minty": 20884,
  "Mira": 7830,
  "Miraculously": 24873,
  "Miranda": 22049,
  "Miri": 25946,
  "Mirror": 16924,
  "Miserable": 29547,
  "Misha": 30282,
  "Miss": 6294,
  "Missed": 29285,
  "Missile": 16092,
  "Mission": 28915,
  "Missy": 12236,
  "Mist": 23185,
  "Mister": 11838,
  "Misty": 23187,
  "Mit": 28306,
  "Mitch": 20614,
  "Mitten": 28912,
  "Mittens": 9466,
  "Mitzy": 30285,
  "Mix": 10396,
  "Mixer": 19203,
  "Mixie": 19092,
  "Mixing": 25834,
  "Mixy": 16388,
  "Mm": 28911,
  "Mmm": 5619,
  "Mmmm": 11981,
  "Mmmmm": 19566,
  "Mmmmmm": 24706,
  "Mo": 8885,
  "Modern": 24122,
  "Moe": 16338,
  "Moira": 29328,
  "Mojo": 31719,
  "Mole": 14449,
  "Moles": 24738,
  "Mollie": 17960,
  "Molly": 3211,
  "Mom": 842,
  "Moments": 14906,
  "Momma": 8708,
  "Mommy": 1876,
  "Momo": 5590,
  "Moms": 23022,
  "Mon": 8671,
  "Mona": 12707,
  "Money": 16337,
  "Monica": 16274,
  "Monkey": 12133,
  "Monkeys": 25462,
  "Monster": 18770,
  "Months": 14563,
  "Moo": 7308,
  "MooMoo": 23829,
  "Moon": 11627,
  "Mop": 14743,
  "Moppy": 18158,
  "Mopsy": 29400,
  "Mor": 22048,
  "Moral": 5272,
  "More": 9754,
  "Morgan": 30283,
  "Morris": 27709,
  "Morty": 22263,
  "Moses": 26205,
  "Mosquito": 22050,
  "Mosquitoes": 24201,
  "Most": 19372,
  "Mother": 8877,
  "Motion": 29544,
  "Motor": 21271,
  "Motorcycle": 31902,
  "Mountain": 27774,
  "Mouse": 8309,
  "Mousey": 23099,
  "Mousy": 17148,
  "Move": 10135,
  "Movie": 28686,
  "Moving": 24430,
  "Mow": 25564,
  "Mowgli": 31008,
  "Mr": 4184,
  "Mrs": 6511,
  "Ms": 15099,
  "Mu": 21846,
  "Much": 15897,
  "Mud": 18240,
  "Muffin": 14129,
  "Muffins": 25947,
  "Muffy": 20756,
  "Mug": 26340,
  "Mule": 23644,
  "Mum": 3043,
  "Mumma": 12327,
  "Mummy": 4163,
  "Munch": 31121,
  "Murphy": 26802,
  "Murray": 31123,
  "Mus": 15956,
  "Muscle": 27181,
  "Museum": 24826,
  "Mushroom": 22262,
  "Mushrooms": 27710,
  "Music": 18064,
  "Musical": 31846,
  "Must": 26800,
  "My": 2510,
  "Mya": 17718,
  "Myles": 28020,
  "Myra": 26125,
  "Mysterious": 24053,
  "Mystery": 21181,
  "N": 78,
  "NAP": 13888,
  "ND": 26344,
  "NG": 10796,
  "NO": 13606,
  "NOO": 25566,
  "NOOOO": 30202,
  "Nad": 24228,
  "Nadia": 26755,
  "Nah": 27777,
  "Nails": 29549,
  "Nala": 25206,
  "Nam": 29548,
  "Namaste": 30228,
  "Name": 25565,
  "Nan": 16666,
  "Nana": 10407,
  "Nancy": 11378,
  "Nanny": 21272,
  "Naomi": 20616,
  "Nap": 16755,
  "Naps": 25567,
  "Nat": 17002,
  "Natalie": 20733,
  "Nate": 12972,
  "Nathan": 17750,
  "Nation": 28917,
  "Nature": 17902,
  "Naughty": 17820,
  "Navy": 14671,
  "Ne": 10217,
  "Near": 8308,
  "Nearby": 12512,
  "Neck": 31748,
  "Ned": 15017,
  "Need": 19487,
  "Needles": 30156,
  "Neigh": 14197,
  "Neighbor": 28758,
  "Neither": 19697,
  "Nell": 20157,
  "Nella": 27776,
  "Nellie": 16399,
  "Nelly": 16398,
  "Nemo": 22482,
  "Ner": 31125,
  "Nessa": 27778,
  "Nest": 31126,
  "Network": 26345,
  "Never": 8861,
  "Nevermind": 24737,
  "Nevertheless": 22198,
  "New": 12830,
  "News": 21991,
  "Next": 4644,
  "Nia": 17523,
  "Nibbles": 19606,
  "Nice": 8105,
  "Nick": 9735,
  "Nicky": 15101,
  "Nico": 30290,
  "Nicole": 19488,
  "Nigel": 29550,
  "Night": 16754,
  "Nightmare": 30131,
  "Niki": 30289,
  "Nikki": 23413,
  "Nin": 28310,
  "Nina": 7173,
  "Nine": 20302,
  "Ninety": 31966,
  "No": 936,
  "Noah": 14549,
  "Nobody": 10989,
  "Nod": 25680,
  "Noelle": 25303,
  "Noisy": 29102,
  "Nola": 25302,
  "None": 19233,
  "Noodles": 30291,
  "Noon": 23029,
  "Noooo": 27780,
  "Nope": 16667,
  "Nora": 12223,
  "Normal": 26346,
  "Norman": 27779,
  "Nose": 30549,
  "Nosy": 24323,
  "Not": 5094,
  "Nothing": 9051,
  "Now": 1026,
  "Nowhere": 31400,
  "Number": 13429,
  "Numbers": 30288,
  "Nurse": 12138,
  "Nut": 17595,
  "Nuts": 28786,
  "Nutty": 20588,
  "O": 79,
  "OAR": 12831,
  "OG": 31127,
  "OK": 1987,
  "OM": 19998,
  "OME": 27216,
  "ON": 18332,
  "ONG": 24875,
  "ONK": 23144,
  "OO": 9677,
  "OOF": 19089,
  "OP": 10040,
  "OT": 27280,
  "OU": 16668,
  "OUCH": 27673,
  "OVE": 22940,
  "OW": 18424,
  "Oak": 22683,
  "Oaky": 28311,
  "Oasis": 28312,
  "Oat": 23414,
  "Oats": 20618,
  "Ob": 23189,
  "Observe": 28828,
  "Oct": 23415,
  "Octo": 24210,
  "Octopus": 23416,
  "Of": 2167,
  "Off": 12478,
  "Officer": 19207,
  "Oh": 1528,
  "Ohh": 29162,
  "Ohhh": 25712,
  "Oil": 15957,
  "Oink": 12413,
  "Ok": 5271,
  "Okay": 1515,
  "Ol": 9717,
  "Old": 11628,
  "Olive": 8065,
  "Oliver": 11206,
  "Olives": 22188,
  "Olivia": 13345,
  "Ollie": 5759,
  "Olly": 10510,
  "Omar": 28313,
  "On": 329,
  "Once": 429,
  "One": 382,
  "Onion": 23231,
  "Onions": 22082,
  "Only": 8479,
  "Oof": 26803,
  "Ooh": 9761,
  "Ook": 30292,
  "Ooo": 20757,
  "Oooh": 17003,
  "Ooooh": 25155,
  "Oops": 6344,
  "Op": 15188,
  "Opal": 25123,
  "Open": 7746,
  "Opera": 16442,
  "Operation": 16561,
  "Or": 5689,
  "Orange": 15987,
  "Order": 14626,
  "Organ": 19072,
  "Organize": 26725,
  "Organized": 30150,
  "Organizing": 25895,
  "Original": 18294,
  "Orn": 28919,
  "Oscar": 14985,
  "Ostri": 20619,
  "Ostrich": 23908,
  "Ostriches": 28224,
  "Ot": 13857,
  "Other": 14607,
  "Otter": 24452,
  "Otto": 15734,
  "Ouch": 4261,
  "Our": 6481,
  "Out": 7112,
  "Outside": 8557,
  "Oven": 28918,
  "Over": 10754,
  "Overall": 31763,
  "Ow": 4141,
  "Owen": 19316,
  "Owl": 9064,
  "Owls": 27546,
  "Owner": 29247,
  "Oxy": 22939,
  "Oxygen": 13758,
  "Oy": 20617,
  "Oyster": 27220,
  "Oysters": 24489,
  "P": 80,
  "PLA": 14851,
  "POP": 12107,
  "Pa": 16607,
  "Pablo": 30294,
  "Pack": 17988,
  "Packing": 30951,
  "Pad": 31128,
  "Paddy": 24529,
  "Page": 27781,
  "Paige": 20899,
  "Pain": 31129,
  "Paint": 18242,
  "Painting": 19607,
  "Pal": 27281,
  "Palm": 26805,
  "Paloma": 31955,
  "Pam": 10303,
  "Pamela": 21402,
  "Pammy": 31131,
  "Pan": 22684,
  "Panda": 16812,
  "Pandy": 7852,
  "Papa": 8927,
  "Paper": 21850,
  "Par": 12832,
  "Parade": 30067,
  "Parent": 18908,
  "Park": 12676,
  "Parrot": 16435,
  "Parrots": 30936,
  "Part": 24229,
  "Party": 16490,
  "Pass": 11005,
  "Passport": 31766,
  "Past": 16054,
  "Pasta": 20728,
  "Pastel": 22885,
  "Pat": 7064,
  "Patch": 12956,
  "Patches": 18975,
  "Patience": 16152,
  "Patient": 23417,
  "Patricia": 27580,
  "Patrick": 15619,
  "Patty": 11728,
  "Paul": 6307,
  "Paula": 11807,
  "Paulie": 29287,
  "Paulina": 23317,
  "Pauline": 19809,
  "Pause": 17149,
  "Paw": 22483,
  "Paws": 12990,
  "Pay": 13064,
  "Pe": 6552,
  "Pea": 31662,
  "Peace": 13636,
  "Peaceful": 30893,
  "Peach": 22831,
  "Peaches": 25407,
  "Peanut": 12575,
  "Peanuts": 24158,
  "Pear": 16008,
  "Pearl": 18151,
  "Pearls": 26701,
  "Pebble": 29970,
  "Pebbles": 25060,
  "Pebby": 21378,
  "Peck": 31663,
  "Pedal": 27282,
  "Pedro": 22942,
  "Pee": 24876,
  "Peek": 13607,
  "Peeking": 31932,
  "Peep": 16175,
  "Peggy": 13378,
  "Pen": 11408,
  "Pencil": 25458,
  "Penelope": 13826,
  "Pengu": 17734,
  "Penguin": 22025,
  "Penguins": 22026,
  "Penny": 7681,
  "People": 8742,
  "Pep": 20158,
  "Pepe": 29446,
  "Peppa": 19074,
  "Pepper": 9274,
  "Peppy": 29293,
  "Per": 11379,
  "Percy": 20110,
  "Perfect": 15383,
  "Perform": 26656,
  "Perfume": 25457,
  "Perhaps": 16734,
  "Permit": 28925,
  "Perry": 28920,
  "Person": 27783,
  "Pet": 15687,
  "Petal": 26697,
  "Pete": 6225,
  "Peter": 5537,
  "Petey": 21428,
  "Pew": 20550,
  "Ph": 10511,
  "Phew": 12462,
  "Phil": 11912,
  "Philip": 17133,
  "Phillip": 18776,
  "Phoebe": 18877,
  "Phone": 30860,
  "Pia": 22052,
  "Piano": 25949,
  "Pic": 25207,
  "Pick": 10882,
  "Picking": 29552,
  "Pickle": 28141,
  "Pickles": 21799,
  "Picnic": 31005,
  "Pie": 23190,
  "Pierre": 25208,
  "Pig": 13460,
  "Pige": 19860,
  "Pigeon": 20913,
  "Piggy": 15018,
  "Pigs": 24771,
  "Pill": 20758,
  "Pillow": 22040,
  "Pilot": 25948,
  "Pin": 22264,
  "Pinch": 15839,
  "Pinching": 26698,
  "Pinchy": 20280,
  "Pine": 18695,
  "Ping": 23646,
  "Pingo": 28922,
  "Pink": 15348,
  "Pinky": 8855,
  "Pip": 8269,
  "Piper": 18302,
  "Pipp": 6967,
  "Pippa": 10055,
  "Pippin": 7540,
  "Pippy": 22685,
  "Pir": 19234,
  "Pirate": 24813,
  "Pirates": 23387,
  "Pistol": 30293,
  "Pitch": 27782,
  "Pixie": 23648,
  "Pizza": 12733,
  "Pl": 12002,
  "Plan": 28736,
  "Plane": 27151,
  "Planes": 24154,
  "Plant": 15340,
  "Plants": 28151,
  "Play": 7953,
  "Playground": 25420,
  "Playing": 9530,
  "Ple": 25568,
  "Please": 1935,
  "Pleased": 31935,
  "Po": 12071,
  "Poems": 24155,
  "Poin": 31130,
  "Point": 28923,
  "Poison": 15575,
  "Poke": 16868,
  "Pol": 14037,
  "Police": 19473,
  "Polish": 19712,
  "Polishing": 23878,
  "Polite": 28753,
  "Polly": 6416,
  "Pony": 17439,
  "Poo": 29551,
  "Poof": 21641,
  "Pool": 26804,
  "Poor": 10338,
  "Pop": 10871,
  "Popcorn": 15674,
  "Poppies": 31790,
  "Poppy": 6214,
  "Porky": 28924,
  "Post": 24230,
  "Pot": 16925,
  "Potato": 19219,
  "Potatoes": 25140,
  "Pour": 21640,
  "Pow": 19235,
  "Powder": 26807,
  "Power": 19005,
  "Powerful": 31881,
  "Pr": 11309,
  "Practice": 19861,
  "Pray": 15631,
  "Praying": 22652,
  "Prepare": 23649,
  "Pres": 28921,
  "Press": 16926,
  "Pret": 22941,
  "Pretending": 26299,
  "Pretty": 10441,
  "Prevent": 29553,
  "Pri": 26347,
  "Price": 23647,
  "Prin": 10153,
  "Prince": 14098,
  "Princess": 11320,
  "Print": 16387,
  "Printer": 31746,
  "Printing": 27615,
  "Printy": 28707,
  "Priscilla": 24147,
  "Private": 31018,
  "Prize": 24231,
  "Promise": 10202,
  "Property": 29362,
  "Protect": 24530,
  "Prove": 25209,
  "Provide": 27784,
  "Prune": 22634,
  "Prunes": 21408,
  "Ps": 18519,
  "Psst": 18998,
  "Pu": 21849,
  "Puck": 26348,
  "Pucker": 26770,
  "Puddles": 26806,
  "Puff": 18795,
  "Puffy": 19120,
  "Pull": 14004,
  "Pumpkin": 21456,
  "Pup": 12758,
  "Puppet": 30180,
  "Puppy": 13296,
  "Purple": 17064,
  "Purr": 23191,
  "Push": 10781,
  "Puss": 30179,
  "Put": 7311,
  "Puzz": 24528,
  "Puzzled": 31931,
  "Q": 81,
  "Qu": 4740,
  "Quack": 7182,
  "Quackie": 31680,
  "Quacky": 17731,
  "Queen": 13212,
  "Quick": 7330,
  "Quickly": 13665,
  "Quiet": 19803,
  "Quit": 13190,
  "Quiz": 20535,
  "R": 82,
  "RA": 10926,
  "RE": 20443,
  "REAM": 30165,
  "RO": 30295,
  "ROAR": 14131,
  "RR": 17596,
  "RRRR": 25886,
  "Ra": 13404,
  "Rabbit": 9099,
  "Rabbits": 26636,
  "Race": 12318,
  "Rachel": 8461,
  "Racing": 27786,
  "Rad": 18520,
  "Radio": 29433,
  "Radish": 29432,
  "Radishes": 23898,
  "Rae": 23651,
  "Rag": 29554,
  "Rain": 9075,
  "Raina": 28124,
  "Rainbow": 13161,
  "Rainbows": 17513,
  "Rainy": 31724,
  "Raise": 16860,
  "Raising": 29388,
  "Raj": 23357,
  "Raja": 28161,
  "Ralph": 9871,
  "Ralphie": 25092,
  "Ram": 27785,
  "Randy": 13138,
  "Rani": 18597,
  "Rara": 22484,
  "Rare": 20927,
  "Rat": 25950,
  "Rats": 26349,
  "Ratty": 18796,
  "Raven": 15439,
  "Ravens": 30924,
  "Ravi": 17004,
  "Rawr": 15788,
  "Ray": 8620,
  "Raya": 30829,
  "Razor": 21457,
  "Re": 3870,
  "Reach": 25377,
  "Read": 17904,
  "Reading": 19236,
  "Ready": 4698,
  "Real": 16082,
  "Realising": 26255,
  "Realizing": 18233,
  "Really": 5487,
  "Rebecca": 12517,
  "Rec": 24531,
  "Record": 19006,
  "Recy": 30998,
  "Red": 8089,
  "Reddy": 19740,
  "Ree": 29555,
  "Reg": 21192,
  "Reggie": 21030,
  "Regret": 27700,
  "Regular": 25907,
  "Reindeer": 23299,
  "Rel": 12048,
  "Relax": 16048,
  "Release": 12908,
  "Reliable": 19825,
  "Relieved": 21851,
  "Reluctantly": 15996,
  "Rem": 15739,
  "Remain": 25127,
  "Remember": 5772,
  "Remind": 24791,
  "Remove": 19589,
  "Remy": 5135,
  "Ren": 24877,
  "Renee": 31003,
  "Rep": 16927,
  "Repair": 28196,
  "Repeat": 11861,
  "Replace": 19357,
  "Request": 26150,
  "Res": 16176,
  "Rescue": 31852,
  "Resist": 17143,
  "Rest": 12934,
  "Restore": 15216,
  "Return": 21642,
  "Reveal": 19667,
  "Reverse": 10762,
  "Rex": 5964,
  "Rh": 18243,
  "Rhino": 31872,
  "Rhinoceros": 28210,
  "Rhonda": 31873,
  "Rhythm": 27687,
  "Ria": 13430,
  "Ribbit": 7397,
  "Rice": 19739,
  "Rich": 14398,
  "Richard": 18991,
  "Richie": 30907,
  "Rick": 14130,
  "Rickie": 31819,
  "Ricky": 11596,
  "Rico": 23192,
  "Ride": 25951,
  "Riding": 28314,
  "Right": 10236,
  "Riko": 29556,
  "Riley": 12154,
  "Rina": 20759,
  "Ring": 9561,
  "Ringo": 19741,
  "Riri": 18797,
  "Rise": 17903,
  "Rita": 13322,
  "River": 23650,
  "Riya": 24880,
  "Ro": 5955,
  "Road": 28641,
  "Roar": 6517,
  "Roary": 31646,
  "Rob": 6129,
  "Robbie": 8822,
  "Robby": 9429,
  "Robert": 10554,
  "Roberta": 28712,
  "Robin": 16219,
  "Robo": 14390,
  "Robot": 11995,
  "Robots": 30783,
  "Roby": 26350,
  "Robyn": 27733,
  "Rocco": 24879,
  "Rock": 8004,
  "Rocket": 18392,
  "Rocks": 21049,
  "Rocky": 9992,
  "Rod": 25795,
  "Roger": 11399,
  "Roll": 14668,
  "Rollie": 12779,
  "Rolling": 30777,
  "Rollo": 31647,
  "Rolly": 12991,
  "Rolo": 31133,
  "Roly": 25796,
  "Romeo": 28315,
  "Romy": 30296,
  "Ron": 12973,
  "Ronald": 26675,
  "Ronnie": 23418,
  "Ronny": 18229,
  "Roo": 13515,
  "Roof": 20928,
  "Root": 25402,
  "Rory": 14101,
  "Ros": 7979,
  "Rosa": 12782,
  "Rose": 6940,
  "Roses": 18663,
  "Rosie": 8767,
  "Rosy": 16484,
  "Rot": 17232,
  "Round": 22686,
  "Rover": 10897,
  "Row": 20926,
  "Rowan": 31896,
  "Roxanne": 29967,
  "Roxy": 16090,
  "Roy": 18159,
  "Rrrr": 21107,
  "Rrrrr": 23652,
  "Rrrrrr": 27787,
  "Ru": 6805,
  "Rub": 13608,
  "Rubber": 30085,
  "Ruby": 7332,
  "Rud": 19373,
  "Rude": 23826,
  "Rudi": 30154,
  "Rudolph": 21261,
  "Rudy": 12152,
  "Ruff": 12213,
  "Ruffy": 23933,
  "Rufus": 13182,
  "Rug": 22687,
  "Rumble": 24878,
  "Run": 6283,
  "Running": 28649,
  "Rupert": 21458,
  "Rush": 22485,
  "Rusty": 18425,
  "Ruth": 11249,
  "Ruthie": 25842,
  "Ry": 31132,
  "Ryan": 11250,
  "S": 83,
  "SA": 29557,
  "SE": 28316,
  "SH": 11346,
  "SNAP": 22053,
  "SPLA": 25570,
  "SPLAT": 27729,
  "ST": 14399,
  "STOP": 15303,
  "Sa": 21852,
  "Sab": 28317,
  "Sabrina": 19489,
  "Sack": 20444,
  "Sad": 7359,
  "Sadie": 10639,
  "Sadly": 8301,
  "Sadness": 26620,
  "Saf": 22486,
  "Safari": 26742,
  "Safe": 18521,
  "Sage": 31135,
  "Sail": 17905,
  "Sailing": 25889,
  "Sailor": 31868,
  "Sal": 12425,
  "Salad": 17054,
  "Sale": 19742,
  "Sally": 2492,
  "Salt": 16226,
  "Sam": 1337,
  "Samantha": 10245,
  "Sami": 18835,
  "Sammie": 24636,
  "Sammy": 5525,
  "Samson": 27978,
  "Samuel": 16414,
  "Sand": 21108,
  "Sandra": 13089,
  "Sandy": 6958,
  "Santa": 11251,
  "Sara": 1375,
  "Sarah": 3549,
  "Sari": 19374,
  "Sasha": 13039,
  "Satisfied": 26810,
  "Sauce": 22944,
  "Sausage": 28233,
  "Sausages": 30982,
  "Save": 17005,
  "Say": 10020,
  "Sc": 9539,
  "Scamp": 30024,
  "Scare": 22404,
  "Scared": 19959,
  "Scarlett": 21055,
  "Scary": 22405,
  "Scatter": 20874,
  "School": 18074,
  "Scissors": 17206,
  "Scoot": 25571,
  "Scooter": 26767,
  "Score": 21228,
  "Scott": 18397,
  "Scout": 27129,
  "Scr": 20710,
  "Scream": 29558,
  "Screen": 31733,
  "Screw": 26640,
  "Scruffy": 23159,
  "Se": 13831,
  "Sea": 27652,
  "Seal": 21644,
  "Sean": 17894,
  "Sear": 31136,
  "Seat": 20760,
  "Sebastian": 22688,
  "Sec": 20620,
  "Second": 29447,
  "Secret": 31894,
  "See": 3874,
  "Seed": 28927,
  "Seeing": 10664,
  "Sel": 21459,
  "Selina": 31905,
  "Sell": 17524,
  "Selma": 30175,
  "Send": 15349,
  "Sensing": 30299,
  "Separate": 26809,
  "Ser": 27283,
  "Serena": 29391,
  "Serve": 22945,
  "Set": 23419,
  "Seth": 18160,
  "Settle": 17821,
  "Seven": 19121,
  "Seventy": 31813,
  "Several": 27285,
  "Sh": 4800,
  "Shade": 30745,
  "Shadow": 14028,
  "Shadows": 30902,
  "Shake": 13989,
  "Shall": 14335,
  "Shampoo": 21034,
  "Shane": 25388,
  "Shannon": 31612,
  "Share": 9887,
  "Sharing": 9259,
  "Shark": 15373,
  "Sharks": 21243,
  "Sharon": 19676,
  "Sharp": 20240,
  "Shawn": 22381,
  "She": 1379,
  "Sheep": 18551,
  "Sheila": 21533,
  "Shelby": 26970,
  "Shell": 24985,
  "Shelly": 12508,
  "Sher": 19999,
  "Sherri": 28804,
  "Sherry": 28805,
  "Shh": 6539,
  "Shhh": 18484,
  "Shine": 18657,
  "Shiny": 24086,
  "Ship": 30297,
  "Shirley": 25389,
  "Shiver": 16643,
  "Shocked": 29939,
  "Shoe": 27061,
  "Shona": 31611,
  "Shoo": 9941,
  "Shoot": 14336,
  "Shooting": 28170,
  "Shop": 31610,
  "Shortly": 25390,
  "Should": 8529,
  "Shouldn": 29317,
  "Shout": 25387,
  "Show": 10514,
  "Shrimp": 17339,
  "Shrink": 8029,
  "Shut": 12371,
  "Shy": 22174,
  "Sia": 25952,
  "Sid": 17297,
  "Sidney": 28199,
  "Sierra": 28928,
  "Sighing": 30298,
  "Sign": 19608,
  "Sil": 16177,
  "Silence": 24178,
  "Silly": 6139,
  "Silver": 18892,
  "Sim": 28926,
  "Simba": 18799,
  "Simon": 10297,
  "Simply": 30300,
  "Since": 8393,
  "Sing": 13832,
  "Singing": 25569,
  "Sir": 10408,
  "Sis": 17440,
  "Sisi": 24476,
  "Sissy": 21109,
  "Sister": 15440,
  "Sit": 10640,
  "Sitting": 21643,
  "Six": 13461,
  "Sixty": 30890,
  "Sk": 10416,
  "Skeleton": 24232,
  "Skelly": 13921,
  "Skin": 31137,
  "Skip": 11366,
  "Skipping": 22409,
  "Skull": 27618,
  "Sky": 10129,
  "Skye": 24441,
  "Sl": 11471,
  "Slap": 16798,
  "Slapping": 29365,
  "Sleep": 9852,
  "Sleeping": 29341,
  "Sleepy": 18307,
  "Slide": 17421,
  "Sliding": 31773,
  "Slim": 27147,
  "Slinky": 19966,
  "Slip": 27631,
  "Slow": 7994,
  "Slowly": 9242,
  "Slowpoke": 30818,
  "Sly": 20000,
  "Sm": 9570,
  "Small": 16792,
  "Smart": 27130,
  "Smell": 20876,
  "Smells": 30168,
  "Smelly": 24745,
  "Smile": 14809,
  "Smiley": 25091,
  "Smiling": 20101,
  "Smith": 21396,
  "Smo": 18140,
  "Smoke": 21229,
  "Smokey": 21433,
  "Smooth": 26717,
  "Smudge": 29336,
  "Sn": 6672,
  "Snack": 29973,
  "Snake": 14391,
  "Snakes": 20248,
  "Snap": 9851,
  "Snee": 22183,
  "Sneeze": 25912,
  "Sniff": 30791,
  "Snip": 22390,
  "Snow": 7654,
  "Snowball": 26195,
  "Snowman": 18767,
  "Snowmen": 28103,
  "Snowy": 8727,
  "Snuggles": 25064,
  "So": 1381,
  "Soak": 24344,
  "Soap": 17549,
  "Soar": 18369,
  "Soary": 31439,
  "Soccer": 23274,
  "Sock": 20159,
  "Socks": 26808,
  "Socky": 25511,
  "Sof": 10324,
  "Sofia": 11321,
  "Sofishticated": 25095,
  "Soft": 19646,
  "Softy": 16794,
  "Sol": 22345,
  "Sold": 23755,
  "Soldier": 28241,
  "Solve": 24501,
  "Some": 6389,
  "Somebody": 21210,
  "Someday": 18798,
  "Someone": 8124,
  "Somet": 5700,
  "Something": 9800,
  "Sometime": 31639,
  "Sometimes": 5893,
  "Somewhere": 25801,
  "Son": 11227,
  "Sonia": 21067,
  "Sonny": 25456,
  "Soon": 2335,
  "Sophia": 9883,
  "Sophie": 6581,
  "Sorry": 3082,
  "Sort": 22943,
  "Sorting": 21853,
  "Sounds": 16339,
  "Soup": 12871,
  "Sour": 16231,
  "Sp": 5865,
  "Space": 16848,
  "Spaghetti": 17115,
  "Spark": 11204,
  "Sparkle": 16432,
  "Sparkles": 24146,
  "Sparky": 15478,
  "Spe": 7774,
  "Speak": 26197,
  "Special": 27284,
  "Speed": 13770,
  "Speedy": 8201,
  "Spell": 18973,
  "Spells": 30961,
  "Spencer": 29278,
  "Spicy": 12748,
  "Spid": 13702,
  "Spider": 15217,
  "Spiders": 21077,
  "Spidey": 19189,
  "Spike": 7420,
  "Spin": 12614,
  "Spinning": 21604,
  "Spinny": 19948,
  "Spirit": 17193,
  "Spl": 17989,
  "Splash": 8677,
  "Splashing": 31869,
  "Splish": 28788,
  "Split": 23381,
  "Spoil": 30774,
  "Spoiled": 30775,
  "Spoon": 18295,
  "Spot": 1612,
  "Spotty": 24349,
  "Spr": 26180,
  "Spray": 13721,
  "Spraying": 30895,
  "Spread": 20546,
  "Spring": 10600,
  "Sprinkles": 23817,
  "Squ": 9387,
  "Square": 21584,
  "Squash": 21395,
  "Squawk": 17414,
  "Sque": 8793,
  "Squeak": 14733,
  "Squeaky": 9965,
  "Squee": 27119,
  "Squeeze": 15380,
  "Squeezy": 31953,
  "Squirrel": 10592,
  "Squirrels": 23588,
  "Squish": 28128,
  "Sss": 27788,
  "Sssss": 26353,
  "St": 2282,
  "Stacey": 20067,
  "Stacy": 18025,
  "Staff": 24362,
  "Stan": 12251,
  "Stand": 12609,
  "Standing": 19829,
  "Stanley": 14064,
  "Star": 10537,
  "Starla": 30658,
  "Starry": 18845,
  "Stars": 19055,
  "Start": 16894,
  "Startled": 10223,
  "Statue": 26550,
  "Stay": 6177,
  "Ste": 15365,
  "Steak": 21813,
  "Stealing": 16037,
  "Steam": 26694,
  "Steel": 26695,
  "Stella": 10623,
  "Step": 12721,
  "Steph": 17425,
  "Stephanie": 19725,
  "Stephen": 19210,
  "Steve": 8042,
  "Steven": 13686,
  "Stevie": 24788,
  "Stick": 21015,
  "Still": 9950,
  "Stir": 12305,
  "Stirring": 29839,
  "Stitch": 12068,
  "Stone": 23516,
  "Stop": 2594,
  "Store": 24046,
  "Stories": 27508,
  "Storm": 24665,
  "Storms": 30659,
  "Story": 25739,
  "Stove": 27005,
  "Str": 22150,
  "Strawberries": 27509,
  "Strawberry": 19425,
  "Stretch": 11621,
  "Stretching": 21412,
  "Stri": 13766,
  "Strike": 14368,
  "Strong": 26737,
  "Stu": 18472,
  "Stuart": 22239,
  "Study": 24047,
  "Studying": 20837,
  "Stupid": 12905,
  "Style": 24233,
  "Su": 7361,
  "Succeed": 31139,
  "Success": 20445,
  "Successful": 31138,
  "Such": 26352,
  "Sudd": 31134,
  "Suddenly": 1370,
  "Sue": 1332,
  "Suffer": 31140,
  "Sugar": 16928,
  "Suit": 23193,
  "Sully": 22265,
  "Summer": 15789,
  "Sun": 8575,
  "Sunday": 18909,
  "Sunflower": 21220,
  "Sunflowers": 31711,
  "Sunglasses": 28929,
  "Sunny": 6919,
  "Sunrise": 28114,
  "Sunshine": 15572,
  "Super": 15307,
  "Superhero": 30110,
  "Superman": 31835,
  "Supply": 19078,
  "Support": 27585,
  "Sure": 2141,
  "Surf": 20001,
  "Surfing": 23153,
  "Surpr": 5172,
  "Surprise": 5258,
  "Surprised": 11934,
  "Surprisingly": 15931,
  "Surrender": 9988,
  "Surround": 31141,
  "Sus": 26351,
  "Susan": 9514,
  "Susanna": 31019,
  "Susie": 5832,
  "Susy": 17065,
  "Suzi": 29981,
  "Suzie": 9653,
  "Suzy": 8592,
  "Sw": 9946,
  "Swamp": 26643,
  "Swan": 17962,
  "Swans": 25443,
  "Sweet": 9955,
  "Sweetheart": 15093,
  "Sweetie": 14451,
  "Swim": 13316,
  "Swimming": 21417,
  "Swimmy": 19972,
  "Swing": 16487,
  "Swinging": 21796,
  "Swings": 30849,
  "Swish": 30850,
  "Switch": 29342,
  "Sydney": 21854,
  "Sylvia": 18696,
  "Sylvie": 27789,
  "T": 84,
  "THE": 10927,
  "TV": 22266,
  "Ta": 14540,
  "Tabby": 20160,
  "Table": 25572,
  "Tad": 21460,
  "Taffy": 25210,
  "Tag": 14456,
  "Take": 7022,
  "Taking": 17233,
  "Talent": 22267,
  "Talk": 21461,
  "Tall": 22690,
  "Tam": 22946,
  "Tami": 28319,
  "Tammy": 13462,
  "Tan": 26811,
  "Tandy": 31143,
  "Tania": 30212,
  "Tank": 22055,
  "Tanya": 21110,
  "Tap": 18800,
  "Tape": 27791,
  "Tara": 9576,
  "Taste": 18697,
  "Tasty": 19007,
  "Taxi": 16929,
  "Taylor": 17007,
  "Te": 10575,
  "Tea": 20878,
  "Teach": 17288,
  "Teacher": 13020,
  "Team": 25835,
  "Teamwork": 28847,
  "Tear": 30303,
  "Tears": 20446,
  "Teaspoon": 30862,
  "Ted": 8009,
  "Teddy": 6618,
  "Tee": 31144,
  "Tell": 10737,
  "Ten": 10848,
  "Ter": 17751,
  "Terence": 27620,
  "Teresa": 26812,
  "Terrence": 31866,
  "Terrible": 28204,
  "Terrified": 22444,
  "Terry": 12833,
  "Tess": 15142,
  "Tessa": 12957,
  "Test": 16669,
  "Th": 648,
  "Thank": 840,
  "Thankful": 27434,
  "Thankfully": 15287,
  "Thanks": 5901,
  "Thankyou": 22330,
  "That": 1099,
  "The": 409,
  "Thea": 21138,
  "Theater": 26889,
  "Their": 3195,
  "Then": 1102,
  "Theo": 15453,
  "Theodore": 25640,
  "There": 3103,
  "Therefore": 29879,
  "Theresa": 25027,
  "These": 5125,
  "They": 723,
  "Things": 14672,
  "Think": 16824,
  "Thinking": 22103,
  "Thirty": 25666,
  "This": 1530,
  "Thomas": 8072,
  "Those": 6469,
  "Though": 13305,
  "Three": 9860,
  "Through": 12814,
  "Throughout": 17582,
  "Throw": 12469,
  "Thumb": 26039,
  "Thump": 28459,
  "Thunder": 14437,
  "Thus": 26459,
  "Tia": 13272,
  "Tick": 14431,
  "Tickets": 28761,
  "Tickle": 27657,
  "Tid": 28930,
  "Tide": 30301,
  "Tidy": 19238,
  "Tie": 21273,
  "Tiffany": 21855,
  "Tiger": 15103,
  "Tigers": 27286,
  "Tigger": 22691,
  "Tight": 27790,
  "Tiki": 24533,
  "Tilda": 26355,
  "Tilly": 7943,
  "Tim": 646,
  "Time": 6251,
  "Timmy": 3186,
  "Timothy": 15358,
  "Tina": 6452,
  "Ting": 25953,
  "Tink": 24881,
  "Tinker": 31933,
  "Tino": 25955,
  "Tiny": 6042,
  "Tip": 19237,
  "Tippy": 17234,
  "Tire": 29561,
  "Tired": 26354,
  "Titi": 15840,
  "To": 2267,
  "Toast": 22793,
  "Tob": 24234,
  "Tobi": 25525,
  "Toby": 6488,
  "Tock": 16340,
  "Tod": 24358,
  "Today": 5122,
  "Todd": 11196,
  "Toe": 31516,
  "Together": 2848,
  "Toilet": 28566,
  "Told": 26117,
  "Tom": 734,
  "Toma": 30519,
  "Tomas": 26471,
  "Tomato": 18266,
  "Tomatoes": 23383,
  "Tomi": 27422,
  "Tommy": 2659,
  "Tomorrow": 10701,
  "Tomy": 27930,
  "Toni": 17006,
  "Tonight": 13111,
  "Tony": 7779,
  "Tonya": 24417,
  "Too": 8014,
  "Toot": 11215,
  "Tooth": 28565,
  "Tooty": 31769,
  "Top": 22054,
  "Topsy": 31910,
  "Tornado": 19862,
  "Toto": 10797,
  "Touch": 16009,
  "Tough": 28931,
  "Tour": 29560,
  "Tower": 28318,
  "Town": 30302,
  "Toy": 13090,
  "Toys": 9853,
  "Tr": 5793,
  "Tra": 14775,
  "Tracey": 27170,
  "Tracy": 20121,
  "Trade": 21371,
  "Traffic": 30914,
  "Train": 16869,
  "Travel": 27660,
  "Tre": 12280,
  "Treasure": 17292,
  "Treats": 25852,
  "Tree": 8597,
  "Trees": 17970,
  "Trevor": 19206,
  "Tri": 15102,
  "Triangle": 19105,
  "Tricia": 27287,
  "Trick": 23934,
  "Trina": 24095,
  "Trish": 29274,
  "Trixie": 22881,
  "Trouble": 23556,
  "Troy": 24534,
  "Truck": 13663,
  "Trucks": 30894,
  "Trucky": 23555,
  "Trudy": 24404,
  "True": 6497,
  "Trumpet": 28073,
  "Trunk": 26177,
  "Trust": 8357,
  "Trusty": 27564,
  "Truth": 18864,
  "Try": 7864,
  "Trying": 23095,
  "Tube": 30304,
  "Tuck": 19743,
  "Tucker": 26728,
  "Tuesday": 14283,
  "Tuffy": 25954,
  "Tug": 29559,
  "Tummy": 31142,
  "Tuna": 9364,
  "Turkey": 23653,
  "Turn": 10182,
  "Turning": 21589,
  "Turns": 16157,
  "Turt": 16286,
  "Turtle": 16863,
  "Tutor": 24532,
  "Tw": 6804,
  "Tweet": 6685,
  "Tweetie": 15666,
  "Tweety": 15571,
  "Twelve": 30305,
  "Twenty": 21379,
  "Twig": 30796,
  "Twin": 29300,
  "Twinkle": 9998,
  "Twins": 28658,
  "Twist": 13795,
  "Twisting": 29390,
  "Twisty": 25410,
  "Two": 7749,
  "Ty": 22689,
  "Tyler": 13167,
  "U": 85,
  "UN": 23935,
  "UT": 24235,
  "Ugh": 16010,
  "Ugly": 22692,
  "Uh": 6102,
  "Ultimately": 30308,
  "Um": 13112,
  "Umbrella": 30307,
  "Umm": 23194,
  "Un": 5681,
  "Unbeknownst": 28070,
  "Uncle": 7581,
  "Under": 7063,
  "Underground": 23568,
  "Underneath": 25805,
  "Undeterred": 22487,
  "Unexpectedly": 25399,
  "Unfortunately": 6556,
  "Unfreeze": 17795,
  "Uni": 19805,
  "Unique": 24707,
  "Unite": 18208,
  "Universe": 23553,
  "University": 17113,
  "Unknown": 21370,
  "Unless": 29958,
  "Unlock": 20858,
  "Unpack": 23552,
  "Until": 13676,
  "Unusual": 28635,
  "Up": 11074,
  "Upon": 20107,
  "Upset": 26651,
  "Upstairs": 23347,
  "Us": 30306,
  "Use": 9967,
  "Using": 11781,
  "V": 86,
  "VD": 11890,
  "VE": 19744,
  "Val": 12139,
  "Valerie": 31792,
  "Value": 12951,
  "Van": 18244,
  "Vanilla": 23894,
  "Vanish": 12497,
  "Ve": 18598,
  "Vegetables": 22898,
  "Velvet": 11228,
  "Ver": 24882,
  "Vera": 19490,
  "Veronica": 29470,
  "Very": 7312,
  "Vi": 31145,
  "Vicki": 28932,
  "Vicky": 14891,
  "Vict": 20002,
  "Victor": 25145,
  "Victoria": 24817,
  "Victory": 15104,
  "Vince": 27288,
  "Vine": 26356,
  "Violet": 14316,
  "Visit": 28320,
  "Viv": 24236,
  "Vivi": 16562,
  "Vivian": 28833,
  "Vo": 16504,
  "Voice": 19355,
  "Volcano": 23375,
  "Volcanoes": 31922,
  "Vroom": 7208,
  "W": 87,
  "WAY": 24535,
  "WH": 30309,
  "WOOF": 28322,
  "WOW": 22056,
  "Waffle": 16930,
  "Waffles": 24884,
  "Wagon": 23936,
  "Wait": 4090,
  "Waiting": 27795,
  "Wake": 7968,
  "Walk": 19745,
  "Walking": 21462,
  "Wall": 30311,
  "Wally": 9551,
  "Walt": 28934,
  "Walter": 17150,
  "Wand": 31149,
  "Wanda": 20303,
  "Wanna": 25956,
  "Want": 9395,
  "War": 15143,
  "Wardrobe": 30312,
  "Warm": 26358,
  "Warn": 20621,
  "Warning": 13610,
  "Was": 14164,
  "Wash": 17990,
  "Washing": 27290,
  "Wasn": 18989,
  "Waste": 27291,
  "Watch": 6155,
  "Watching": 31654,
  "Water": 12108,
  "Wave": 20761,
  "Way": 21274,
  "Wayne": 28230,
  "We": 1145,
  "Wealthy": 25320,
  "Wear": 16563,
  "Wednesday": 12072,
  "Wee": 10824,
  "Weee": 16028,
  "Weeks": 19410,
  "Weigh": 21720,
  "Weird": 22123,
  "Welcome": 4923,
  "Well": 3757,
  "Wendy": 11437,
  "Were": 28506,
  "West": 18273,
  "Wet": 19491,
  "Wh": 752,
  "Whale": 16070,
  "Whales": 26050,
  "What": 1070,
  "Whatcha": 26499,
  "Whatever": 16195,
  "Whats": 29123,
  "Whe": 11730,
  "Wheat": 24151,
  "Whee": 6894,
  "Wheee": 12412,
  "Wheeee": 16737,
  "Wheeeee": 25464,
  "Wheel": 31783,
  "When": 1037,
  "Whenever": 8857,
  "Where": 2782,
  "Wherever": 19658,
  "Whew": 22489,
  "Which": 7633,
  "While": 1730,
  "Whilst": 21514,
  "Whip": 27425,
  "Whippy": 26473,
  "Whiskers": 5930,
  "Whisper": 24956,
  "Whist": 21895,
  "Whistle": 11037,
  "Whistler": 29461,
  "Whistling": 25517,
  "White": 17166,
  "Who": 2989,
  "Whoa": 10571,
  "Whoever": 13054,
  "Whoo": 24614,
  "Whoof": 24615,
  "Whoosh": 16954,
  "Whose": 9456,
  "Why": 1307,
  "Wi": 31146,
  "Wide": 31148,
  "Wife": 19864,
  "Wiggly": 9475,
  "Wil": 14892,
  "Wilbur": 21082,
  "Wild": 19239,
  "Wilfred": 31830,
  "Will": 4669,
  "Willa": 28933,
  "William": 12473,
  "Willie": 14116,
  "Willow": 13592,
  "Willy": 13609,
  "Wilma": 19213,
  "Wilson": 30917,
  "Win": 10358,
  "Wind": 13646,
  "Windy": 25211,
  "Wine": 16444,
  "Wing": 31147,
  "Wink": 13007,
  "Winky": 20161,
  "Winnie": 19819,
  "Winning": 23113,
  "Winter": 14737,
  "Wipe": 19008,
  "Wisdom": 10417,
  "Wise": 13323,
  "Wish": 23195,
  "Wishes": 28321,
  "Witch": 24237,
  "With": 4992,
  "Within": 21771,
  "Without": 10704,
  "Wo": 10900,
  "Woah": 15136,
  "Wolf": 15777,
  "Wolfy": 31841,
  "Won": 30310,
  "Wonder": 15009,
  "Wonderful": 17662,
  "Woo": 11086,
  "Wood": 19863,
  "Woody": 23614,
  "Woof": 4993,
  "Woofy": 28628,
  "Woohoo": 18333,
  "Wool": 24883,
  "Woolly": 18224,
  "Wooly": 15483,
  "Wor": 26357,
  "Word": 27289,
  "Words": 27794,
  "Work": 15688,
  "Working": 27793,
  "Worm": 22693,
  "Worms": 19492,
  "Worry": 22488,
  "Would": 5576,
  "Wouldn": 19069,
  "Wow": 1235,
  "Wr": 13677,
  "Wrap": 19865,
  "Wren": 27792,
  "Write": 16598,
  "Writing": 21076,
  "Wrong": 22430,
  "X": 88,
  "XIT": 21856,
  "Y": 89,
  "YAY": 23654,
  "YES": 19375,
  "Yacht": 27292,
  "Yahoo": 30313,
  "Yarn": 22947,
  "Yarr": 29562,
  "Yawn": 16400,
  "Yay": 4586,
  "Ye": 22057,
  "Yea": 24497,
  "Yeah": 6472,
  "Years": 10928,
  "Yee": 18522,
  "Yell": 23937,
  "Yellow": 14673,
  "Yep": 16341,
  "Yes": 735,
  "Yesterday": 9300,
  "Yet": 16870,
  "Yield": 11974,
  "Yike": 27796,
  "Yikes": 28262,
  "Yippee": 15019,
  "Yo": 17369,
  "Yog": 17991,
  "Yoga": 12759,
  "Yogi": 28209,
  "Yogurt": 19593,
  "You": 534,
  "Young": 11670,
  "Your": 4490,
  "Yours": 27552,
  "Youth": 20622,
  "Yoyo": 29563,
  "Yuck": 4598,
  "Yucky": 20929,
  "Yuki": 31151,
  "Yul": 31150,
  "Yum": 5219,
  "Yummy": 5903,
  "Yup": 16608,
  "Z": 90,
  "ZOO": 24886,
  "Zac": 24885,
  "Zach": 23196,
  "Zack": 15056,
  "Zane": 27797,
  "Zap": 14852,
  "Zara": 8048,
  "Ze": 21111,
  "Zeb": 24536,
  "Zebra": 16342,
  "Zebras": 29415,
  "Zed": 29564,
  "Zee": 14005,
  "Zeke": 26735,
  "Zero": 9896,
  "Ziggy": 12049,
  "Zigzag": 9718,
  "Zip": 7093,
  "Zipper": 17597,
  "Zippy": 16178,
  "Zizi": 28935,
  "Zoe": 9093,
  "Zoey": 12518,
  "Zog": 20447,
  "Zoo": 12034,
  "Zoom": 6353,
  "Zoomie": 17728,
  "Zoomy": 7458,
  "Zzz": 30314,
  "[": 91,
  "\\": 92,
  "\\\"": 17992,
  "]": 93,
  "^": 94,
  "_": 95,
  "__": 27293,
  "`": 96,
  "``": 19493,
  "a": 97,
  "aa": 6736,
  "aaah": 14561,
  "aaaw": 30793,
  "aac": 16505,
  "aah": 22268,
  "ab": 620,
  "aba": 29063,
  "abbit": 1074,
  "abby": 7744,
  "abel": 6668,
  "abell": 30501,
  "abella": 10933,
  "abelle": 8049,
  "abet": 14046,
  "abeth": 11025,
  "abies": 5527,
  "abilities": 29064,
  "ability": 18355,
  "abin": 23998,
  "abinet": 26754,
  "abitha": 23717,
  "able": 833,
  "ables": 31360,
  "ablo": 18938,
  "ably": 7498,
  "aboo": 22746,
  "about": 13074,
  "abra": 8817,
  "abracadabra": 19031,
  "abrina": 13174,
  "aburra": 30502,
  "aby": 1382,
  "ac": 1200,
  "acamole": 14755,
  "acation": 22567,
  "accept": 26082,
  "ace": 673,
  "aced": 2512,
  "acey": 10310,
  "ach": 590,
  "acha": 20477,
  "achael": 23996,
  "ache": 3477,
  "ached": 1344,
  "achel": 5598,
  "acher": 10833,
  "aches": 4099,
  "achine": 14751,
  "acht": 14045,
  "achu": 31294,
  "acing": 8836,
  "acious": 22766,
  "acity": 29782,
  "ack": 457,
  "acked": 4674,
  "acky": 13070,
  "acle": 12146,
  "acles": 8999,
  "aco": 23271,
  "acob": 6366,
  "acock": 8848,
  "acon": 13939,
  "act": 5675,
  "acted": 17622,
  "action": 11740,
  "actly": 17275,
  "acty": 16833,
  "acuate": 23749,
  "acy": 8156,
  "ad": 370,
  "ada": 11220,
  "adabra": 8856,
  "adays": 30432,
  "add": 24580,
  "adder": 29653,
  "addle": 22983,
  "addy": 15065,
  "ade": 564,
  "aded": 5351,
  "aden": 16762,
  "ades": 7108,
  "ading": 7487,
  "adise": 16944,
  "adium": 4464,
  "admire": 30433,
  "ado": 2564,
  "ador": 25257,
  "ados": 6617,
  "adow": 2080,
  "adually": 9504,
  "adventure": 25633,
  "ady": 889,
  "ae": 7439,
  "ael": 7104,
  "aela": 29304,
  "aes": 24238,
  "af": 1403,
  "afa": 23275,
  "afe": 10146,
  "aff": 3258,
  "affa": 29887,
  "affe": 4198,
  "affes": 5796,
  "affle": 8943,
  "affles": 16535,
  "affod": 15477,
  "affy": 14383,
  "after": 23655,
  "ag": 541,
  "agan": 28436,
  "age": 941,
  "aged": 3633,
  "ager": 17766,
  "agers": 27906,
  "ages": 3120,
  "agged": 14646,
  "aggie": 5230,
  "aggy": 17317,
  "aghett": 3334,
  "aghetti": 3335,
  "agic": 6690,
  "agine": 9218,
  "aging": 13410,
  "agious": 19145,
  "ago": 31289,
  "agon": 14289,
  "agree": 25275,
  "ags": 16409,
  "ague": 29056,
  "agull": 6444,
  "ah": 5246,
  "aha": 30754,
  "ahh": 16543,
  "ahlia": 21948,
  "ahoo": 27067,
  "ai": 9076,
  "aia": 23420,
  "aic": 25573,
  "aid": 4107,
  "aids": 9799,
  "ail": 921,
  "aila": 14145,
  "ailable": 3997,
  "ailed": 12559,
  "ails": 8167,
  "aily": 10314,
  "ain": 486,
  "ainder": 22948,
  "aine": 25649,
  "aint": 8070,
  "ainted": 28429,
  "ainting": 18442,
  "air": 1140,
  "aira": 22122,
  "airs": 2678,
  "airy": 6950,
  "ais": 6377,
  "aisie": 10224,
  "aisies": 6727,
  "aisley": 26186,
  "aist": 26813,
  "aisy": 1454,
  "ait": 3832,
  "aiting": 18075,
  "aitlin": 26579,
  "aitlyn": 11553,
  "aj": 31152,
  "ak": 881,
  "akazam": 19157,
  "ake": 420,
  "aked": 4390,
  "akeet": 27890,
  "aken": 3090,
  "akened": 27440,
  "aker": 5324,
  "akers": 12452,
  "akes": 5399,
  "aking": 989,
  "ako": 26942,
  "aky": 3738,
  "al": 418,
  "ala": 9455,
  "alade": 22306,
  "alance": 13893,
  "alanche": 21689,
  "alancing": 31266,
  "alarm": 26428,
  "ald": 12281,
  "ale": 1771,
  "aleb": 12303,
  "aled": 19885,
  "alen": 27365,
  "alend": 4146,
  "alendar": 24078,
  "alent": 21311,
  "alert": 30454,
  "ales": 5655,
  "aley": 14022,
  "alf": 8646,
  "alfway": 11547,
  "ali": 13760,
  "alia": 11716,
  "alian": 27366,
  "alie": 14043,
  "alina": 29031,
  "aline": 28420,
  "alise": 22090,
  "alities": 13621,
  "ality": 10884,
  "aliyah": 19973,
  "alk": 2868,
  "alking": 13224,
  "all": 358,
  "alled": 10254,
  "allen": 5586,
  "allenge": 29954,
  "alley": 4509,
  "alli": 26001,
  "allic": 24278,
  "alling": 12790,
  "allo": 29649,
  "allop": 29011,
  "allory": 15638,
  "allow": 5803,
  "allowed": 7346,
  "alloween": 8250,
  "alls": 15451,
  "ally": 678,
  "allyn": 30509,
  "alm": 2110,
  "alo": 27364,
  "alog": 23448,
  "aloo": 28419,
  "alous": 2763,
  "alph": 7295,
  "als": 2895,
  "alsa": 31551,
  "alt": 15745,
  "alter": 12344,
  "alth": 8438,
  "althy": 1856,
  "alty": 29030,
  "always": 19761,
  "aly": 18716,
  "am": 305,
  "ama": 1968,
  "amander": 30644,
  "amazing": 30409,
  "amb": 6653,
  "amber": 4404,
  "ambi": 18296,
  "amble": 21675,
  "ambles": 25996,
  "ambling": 28088,
  "ambly": 29296,
  "amboo": 7671,
  "ame": 446,
  "amed": 2311,
  "amel": 19257,
  "ameleon": 20185,
  "ament": 13407,
  "aments": 22974,
  "amer": 17377,
  "ames": 1459,
  "ami": 10576,
  "amic": 30408,
  "amie": 5878,
  "amil": 9289,
  "aming": 10286,
  "amma": 8986,
  "ammy": 6986,
  "amole": 14747,
  "amond": 3225,
  "amor": 31234,
  "amp": 1597,
  "amped": 20999,
  "ampoo": 4075,
  "amps": 14910,
  "ampy": 23281,
  "ams": 16238,
  "amus": 18001,
  "an": 301,
  "ana": 5965,
  "anana": 11878,
  "ananas": 13650,
  "anas": 13300,
  "ance": 1637,
  "anced": 8958,
  "ances": 22776,
  "anch": 18170,
  "anche": 21674,
  "ancient": 20462,
  "ancing": 13276,
  "ancy": 7592,
  "and": 789,
  "anda": 4079,
  "andall": 24317,
  "andas": 7802,
  "andel": 11150,
  "ander": 13516,
  "andi": 24960,
  "ando": 25674,
  "andra": 9139,
  "andria": 26934,
  "andro": 27941,
  "andy": 1502,
  "ane": 970,
  "anes": 6537,
  "aney": 24622,
  "ang": 1649,
  "anga": 10886,
  "angaroo": 4033,
  "ange": 1139,
  "anged": 2855,
  "anger": 3437,
  "angerine": 22159,
  "anges": 4913,
  "anging": 6584,
  "angle": 7135,
  "angled": 6297,
  "angles": 14051,
  "angling": 22348,
  "ango": 18553,
  "angu": 4354,
  "anguage": 17271,
  "ani": 9634,
  "anie": 8052,
  "animal": 30406,
  "anish": 9227,
  "anjay": 28380,
  "anjo": 28379,
  "ank": 643,
  "anked": 12243,
  "anket": 22102,
  "anking": 19754,
  "anko": 31314,
  "anky": 11183,
  "ann": 10784,
  "anna": 5600,
  "annah": 6063,
  "anne": 20784,
  "annon": 20265,
  "anny": 5240,
  "anor": 17608,
  "ans": 7152,
  "anse": 28378,
  "answered": 25244,
  "ant": 705,
  "anta": 6235,
  "antastic": 8425,
  "anted": 5839,
  "antern": 10183,
  "antha": 7505,
  "anti": 23009,
  "antic": 14616,
  "antly": 5589,
  "ants": 11441,
  "antula": 28468,
  "anut": 2907,
  "anvi": 27332,
  "anwhile": 7708,
  "any": 2691,
  "anya": 14296,
  "aomi": 14370,
  "ap": 653,
  "apa": 4889,
  "ape": 1598,
  "aped": 5250,
  "aper": 1263,
  "apers": 3992,
  "apes": 12815,
  "apest": 15808,
  "aphn": 20197,
  "aphne": 20294,
  "aphone": 27410,
  "api": 20196,
  "aple": 16192,
  "apon": 14614,
  "apons": 26460,
  "app": 1875,
  "appear": 20673,
  "apped": 2892,
  "appen": 27489,
  "apper": 17854,
  "apphire": 27997,
  "appily": 16302,
  "appiness": 12740,
  "apping": 4680,
  "applaud": 12304,
  "apple": 10247,
  "apples": 25347,
  "appy": 3223,
  "aps": 10013,
  "aptain": 8615,
  "apy": 22320,
  "ar": 287,
  "ara": 765,
  "arac": 7188,
  "arah": 19286,
  "arant": 23681,
  "arate": 19019,
  "araway": 6400,
  "arch": 14011,
  "ard": 468,
  "arded": 21691,
  "arden": 903,
  "ardrobe": 18930,
  "ards": 1689,
  "are": 514,
  "ared": 548,
  "aren": 6994,
  "arent": 1611,
  "arently": 25344,
  "arer": 21696,
  "arest": 26908,
  "areth": 23456,
  "arett": 11024,
  "arewell": 23457,
  "arf": 17156,
  "arge": 2417,
  "arged": 29621,
  "ari": 4567,
  "arian": 4074,
  "aries": 10783,
  "arily": 20946,
  "aring": 1309,
  "arios": 31597,
  "aris": 15594,
  "arison": 23962,
  "arity": 27843,
  "arium": 14854,
  "ark": 470,
  "arked": 11915,
  "arky": 6838,
  "arl": 2616,
  "arla": 11790,
  "arlene": 16778,
  "arlet": 13435,
  "arlett": 14487,
  "arlie": 4704,
  "arlotte": 8263,
  "arm": 1915,
  "arma": 21670,
  "armed": 14622,
  "armen": 23287,
  "armer": 7087,
  "arming": 18117,
  "armless": 27492,
  "army": 30389,
  "arn": 591,
  "arned": 17702,
  "arnell": 29059,
  "arney": 13227,
  "arnia": 19399,
  "arning": 9859,
  "arnt": 4895,
  "aron": 10799,
  "aroni": 11472,
  "aroo": 4032,
  "arp": 2071,
  "arpe": 23961,
  "arper": 16471,
  "arpet": 18843,
  "arr": 14040,
  "arrass": 2414,
  "array": 27844,
  "arrel": 18807,
  "arrow": 7494,
  "arry": 4202,
  "arryl": 25036,
  "ars": 2312,
  "arse": 22718,
  "art": 1524,
  "arted": 9968,
  "arten": 15292,
  "arter": 6437,
  "arth": 5836,
  "artin": 9212,
  "artled": 8086,
  "artment": 14294,
  "artments": 25341,
  "artoon": 21344,
  "artoons": 23621,
  "arty": 18806,
  "artz": 17715,
  "ary": 1017,
  "aryn": 31398,
  "as": 635,
  "asc": 12649,
  "ascal": 30065,
  "ascinated": 23595,
  "ase": 792,
  "aseball": 20352,
  "ased": 1839,
  "aser": 3205,
  "asers": 8666,
  "ases": 19287,
  "asey": 12998,
  "ash": 1447,
  "asha": 8384,
  "ashamed": 31450,
  "ashe": 30503,
  "ashed": 6119,
  "asher": 3909,
  "ashes": 7409,
  "ashful": 26097,
  "ashi": 27473,
  "ashing": 7867,
  "ashion": 11254,
  "asil": 21701,
  "asing": 3454,
  "asis": 4278,
  "ask": 1505,
  "aska": 27983,
  "asked": 19769,
  "asket": 1871,
  "asketball": 14023,
  "asma": 29713,
  "asmin": 21148,
  "asmine": 9445,
  "asol": 31311,
  "ason": 4608,
  "asons": 13781,
  "asp": 2721,
  "asper": 11100,
  "asperated": 30048,
  "aspoon": 4268,
  "ass": 1873,
  "assage": 17101,
  "asse": 18265,
  "asses": 3371,
  "assie": 18556,
  "assion": 23768,
  "assionate": 14994,
  "asso": 25726,
  "assy": 18116,
  "ast": 793,
  "aste": 9661,
  "aster": 6267,
  "asters": 29085,
  "astian": 16131,
  "astic": 4396,
  "asting": 14410,
  "astle": 16766,
  "asty": 7576,
  "asure": 1563,
  "asuring": 18824,
  "asy": 9914,
  "at": 296,
  "ata": 13218,
  "atable": 25608,
  "atch": 3230,
  "atched": 27327,
  "ate": 832,
  "ated": 1750,
  "ateful": 10384,
  "ately": 3983,
  "atelyn": 18652,
  "ater": 1358,
  "aterina": 24032,
  "aterpill": 12113,
  "aterpillar": 12753,
  "aterpillars": 21601,
  "aters": 16014,
  "ates": 3001,
  "atest": 10197,
  "atever": 12396,
  "atform": 10272,
  "ath": 1184,
  "atha": 17710,
  "athan": 8513,
  "athe": 12916,
  "athed": 18808,
  "ather": 1410,
  "athered": 25707,
  "atherine": 15077,
  "athet": 16279,
  "athing": 13045,
  "athon": 31420,
  "athy": 6258,
  "atic": 11127,
  "atically": 25992,
  "atie": 5542,
  "atience": 15278,
  "atient": 3495,
  "atin": 28988,
  "ating": 3639,
  "ation": 1552,
  "ations": 4432,
  "atisfied": 24910,
  "ative": 8802,
  "atively": 16096,
  "atives": 20781,
  "ato": 2036,
  "atoo": 27326,
  "atops": 15447,
  "ator": 2116,
  "atory": 21740,
  "atrice": 12883,
  "ats": 3506,
  "att": 12736,
  "attach": 20269,
  "atted": 12285,
  "atter": 3248,
  "attered": 7894,
  "atty": 8316,
  "atue": 12037,
  "atues": 28374,
  "atur": 7301,
  "aturday": 8353,
  "ature": 3887,
  "aty": 7363,
  "au": 680,
  "auce": 12229,
  "aud": 4587,
  "aude": 23473,
  "audia": 16978,
  "aug": 1120,
  "aught": 1122,
  "aughter": 2475,
  "aughters": 16027,
  "aughty": 1941,
  "aul": 4517,
  "auliflower": 13727,
  "ault": 19494,
  "aun": 20930,
  "auna": 31153,
  "aunt": 14378,
  "aunted": 19833,
  "aunting": 17976,
  "aur": 2180,
  "aura": 6944,
  "aurant": 4212,
  "aure": 11056,
  "auren": 11515,
  "ause": 691,
  "aut": 968,
  "autiful": 16891,
  "aution": 31382,
  "autiously": 15157,
  "auty": 24969,
  "av": 1378,
  "ava": 23045,
  "available": 16963,
  "ave": 598,
  "aved": 5657,
  "aven": 7466,
  "avender": 29708,
  "aver": 7925,
  "avers": 16232,
  "aves": 14507,
  "avi": 6346,
  "avia": 31438,
  "avid": 5507,
  "avier": 26093,
  "avin": 17097,
  "aving": 3837,
  "avis": 29795,
  "avy": 1468,
  "aw": 2534,
  "awa": 29206,
  "awai": 18648,
  "awake": 31532,
  "aware": 16777,
  "away": 11597,
  "aways": 27294,
  "awk": 11453,
  "awn": 7367,
  "awna": 31533,
  "awning": 24367,
  "awny": 25745,
  "awr": 15167,
  "aws": 6097,
  "aww": 25012,
  "ax": 492,
  "axe": 27903,
  "axi": 13225,
  "axter": 18096,
  "ay": 279,
  "aya": 12524,
  "aybe": 1117,
  "aye": 9085,
  "ayed": 17755,
  "ayla": 6241,
  "aylor": 10712,
  "ays": 5810,
  "az": 1078,
  "azam": 18191,
  "aze": 3348,
  "azed": 17254,
  "azel": 14177,
  "azing": 12269,
  "azingly": 15197,
  "azor": 4023,
  "azors": 10769,
  "azy": 12860,
  "azz": 3374,
  "azzle": 27537,
  "azzy": 12719,
  "b": 98,
  "ba": 15689,
  "baa": 13553,
  "baby": 14490,
  "back": 15690,
  "bad": 20003,
  "bag": 13431,
  "bage": 7815,
  "bags": 17893,
  "bah": 30315,
  "baked": 21112,
  "balance": 19747,
  "ball": 1956,
  "balloon": 30643,
  "balls": 11898,
  "banana": 21277,
  "band": 6843,
  "bang": 9919,
  "bank": 9373,
  "bar": 23938,
  "bark": 28937,
  "barrass": 17067,
  "barrow": 10409,
  "bath": 20623,
  "bathe": 25213,
  "bathroom": 30166,
  "bb": 907,
  "bbed": 1369,
  "bbers": 7901,
  "bbie": 6521,
  "bbing": 5003,
  "bbit": 14351,
  "bble": 8491,
  "bbled": 7459,
  "bbles": 4360,
  "bbling": 13098,
  "bbly": 31372,
  "bby": 2853,
  "be": 1001,
  "beam": 12400,
  "bear": 13562,
  "beard": 25686,
  "beat": 13563,
  "beats": 31393,
  "bec": 12677,
  "because": 14070,
  "bed": 9791,
  "beds": 21646,
  "bee": 8628,
  "beef": 22116,
  "beep": 7677,
  "bees": 18455,
  "beh": 11442,
  "behave": 25844,
  "behaved": 13482,
  "being": 17771,
  "bekah": 27442,
  "beknown": 18014,
  "beknownst": 18687,
  "bel": 12880,
  "belief": 13348,
  "believe": 11409,
  "bell": 7858,
  "belong": 31803,
  "belt": 11191,
  "beque": 25311,
  "ber": 869,
  "berly": 25677,
  "bern": 26481,
  "berries": 3162,
  "berry": 2869,
  "bers": 5588,
  "bert": 9638,
  "berty": 27437,
  "bes": 23421,
  "best": 31392,
  "bet": 21275,
  "between": 30978,
  "bi": 12582,
  "bic": 28936,
  "bie": 6146,
  "bies": 13297,
  "big": 16756,
  "bike": 16011,
  "bility": 22949,
  "bill": 29565,
  "bin": 26814,
  "bing": 20304,
  "bird": 7413,
  "birthday": 27798,
  "bit": 1069,
  "bite": 19746,
  "bitter": 17908,
  "bl": 6329,
  "black": 23084,
  "blast": 27570,
  "ble": 1072,
  "bled": 2902,
  "bler": 30317,
  "bles": 4707,
  "bless": 24625,
  "bling": 9495,
  "blink": 24716,
  "block": 16478,
  "blocks": 29288,
  "bloom": 27084,
  "blow": 28323,
  "blowing": 31035,
  "blub": 27571,
  "blue": 14560,
  "bly": 6784,
  "bo": 1333,
  "board": 1892,
  "boards": 8710,
  "boat": 6875,
  "boats": 19414,
  "boding": 23497,
  "body": 4062,
  "boing": 17257,
  "bol": 4164,
  "boldened": 30600,
  "bolt": 25762,
  "bomb": 31155,
  "bon": 25574,
  "bone": 23939,
  "bones": 18077,
  "bonjour": 29477,
  "boo": 5493,
  "book": 10648,
  "books": 22269,
  "boom": 11213,
  "boop": 23422,
  "boos": 10659,
  "boots": 31435,
  "bor": 17906,
  "boring": 28938,
  "born": 22694,
  "borrow": 31154,
  "bot": 23197,
  "bounce": 27296,
  "bound": 26815,
  "bove": 16696,
  "bow": 1943,
  "bowl": 14255,
  "box": 2288,
  "boy": 18076,
  "boys": 30316,
  "br": 2029,
  "bra": 17907,
  "brace": 28208,
  "brake": 25732,
  "brarian": 31502,
  "brary": 22144,
  "brave": 25497,
  "bre": 24887,
  "bread": 17066,
  "break": 15272,
  "breaking": 28840,
  "breat": 25212,
  "breathing": 25531,
  "bric": 6661,
  "bridge": 17627,
  "bris": 19925,
  "bro": 27295,
  "broccoli": 27741,
  "broken": 8457,
  "brother": 24657,
  "brown": 21542,
  "brrr": 27495,
  "bruary": 31503,
  "brush": 6610,
  "brushes": 13505,
  "bs": 10912,
  "bu": 8975,
  "bug": 12330,
  "bugs": 26236,
  "building": 24431,
  "bul": 3643,
  "bulance": 3658,
  "bulb": 16564,
  "bump": 21276,
  "bunny": 29566,
  "bur": 10946,
  "buried": 28690,
  "burn": 24537,
  "burnt": 30044,
  "bury": 23842,
  "bush": 21645,
  "but": 6923,
  "bute": 20931,
  "butter": 22490,
  "butterfly": 26743,
  "button": 27094,
  "buzz": 19866,
  "by": 1045,
  "bye": 1350,
  "byes": 8355,
  "c": 99,
  "ca": 7661,
  "cadabra": 20450,
  "cage": 31156,
  "cake": 7880,
  "cakes": 6232,
  "call": 29567,
  "can": 10057,
  "cape": 19241,
  "car": 11388,
  "card": 28325,
  "care": 14571,
  "careful": 22648,
  "carrot": 27146,
  "carry": 24240,
  "cars": 21463,
  "cart": 28939,
  "case": 3825,
  "cast": 4640,
  "castle": 27059,
  "cat": 8968,
  "catch": 14132,
  "catcher": 25430,
  "catching": 21811,
  "cauliflower": 29986,
  "cause": 23940,
  "caw": 16813,
  "cc": 7958,
  "ccer": 5214,
  "ccol": 3364,
  "ccoli": 3367,
  "ce": 336,
  "cean": 3274,
  "ced": 2730,
  "cedes": 31546,
  "ceed": 3716,
  "ceive": 26000,
  "cel": 12874,
  "celebrate": 29001,
  "cell": 10671,
  "cellent": 10881,
  "cels": 22977,
  "celyn": 22297,
  "cember": 23691,
  "cent": 20448,
  "cept": 7621,
  "cer": 4676,
  "cerer": 21679,
  "cers": 21279,
  "cery": 4997,
  "cess": 1621,
  "cessary": 9533,
  "cesses": 17831,
  "cest": 19757,
  "cey": 16680,
  "ch": 392,
  "cha": 11698,
  "chain": 22738,
  "chair": 3608,
  "chairs": 16455,
  "chamber": 21494,
  "chan": 4588,
  "change": 21135,
  "changing": 18176,
  "chanic": 4639,
  "chant": 14405,
  "chanted": 11052,
  "chaun": 18401,
  "che": 10941,
  "cheap": 19702,
  "check": 17208,
  "checked": 29354,
  "checkmate": 23377,
  "ched": 814,
  "cheers": 30043,
  "cheese": 19242,
  "chel": 23423,
  "chell": 24753,
  "chen": 1166,
  "cher": 6746,
  "chers": 12595,
  "ches": 1900,
  "chess": 18222,
  "chest": 12519,
  "chet": 23346,
  "chew": 28940,
  "chie": 5244,
  "chief": 9794,
  "child": 7427,
  "ching": 9513,
  "chini": 18713,
  "chio": 29027,
  "chip": 29026,
  "chirp": 18006,
  "chmitty": 28415,
  "cho": 7187,
  "chocolate": 27582,
  "choo": 5242,
  "chool": 1805,
  "chop": 29671,
  "chor": 3939,
  "chors": 13620,
  "chug": 15911,
  "chugga": 29028,
  "chy": 12526,
  "ci": 25957,
  "cial": 19867,
  "cidence": 19495,
  "cident": 3253,
  "cidents": 9194,
  "cie": 8458,
  "cient": 2785,
  "cies": 11207,
  "cifier": 22951,
  "cil": 2872,
  "cine": 23656,
  "cing": 3912,
  "cious": 5719,
  "cip": 11610,
  "circle": 20449,
  "cis": 25575,
  "cite": 20762,
  "cited": 7303,
  "citement": 24194,
  "ck": 347,
  "cked": 1343,
  "cker": 9894,
  "ckerel": 31158,
  "ckers": 25623,
  "cket": 1765,
  "cking": 15637,
  "ckle": 27870,
  "ckles": 19388,
  "cko": 23973,
  "cks": 1878,
  "cky": 6963,
  "cl": 7007,
  "clack": 21044,
  "clank": 26614,
  "clap": 15089,
  "cle": 1539,
  "clean": 18462,
  "clear": 20503,
  "cled": 17441,
  "cles": 3233,
  "click": 16482,
  "climb": 21575,
  "climbing": 27223,
  "cling": 14674,
  "clip": 19455,
  "clist": 24722,
  "clock": 10231,
  "clop": 31676,
  "close": 22614,
  "cloth": 10079,
  "clothes": 30800,
  "cloud": 14965,
  "cluck": 19076,
  "co": 1260,
  "coa": 3319,
  "coal": 18833,
  "coaster": 18276,
  "coat": 23495,
  "cocoa": 30589,
  "codile": 3165,
  "coffee": 19046,
  "cohol": 25330,
  "coin": 26963,
  "col": 2002,
  "colate": 10634,
  "cold": 20054,
  "coll": 27460,
  "collecting": 28859,
  "colm": 17102,
  "coln": 19300,
  "color": 31498,
  "colored": 9768,
  "colors": 25348,
  "coloured": 13000,
  "com": 2896,
  "come": 4113,
  "comes": 16971,
  "comfort": 19659,
  "comfortable": 3224,
  "comfy": 30675,
  "coming": 11992,
  "comp": 21756,
  "compass": 23785,
  "compassionate": 24843,
  "competitive": 31908,
  "complete": 29456,
  "computer": 30178,
  "con": 9944,
  "cond": 4643,
  "condition": 25777,
  "conf": 22854,
  "confidence": 31917,
  "confident": 25916,
  "conscious": 31157,
  "cont": 21464,
  "control": 27703,
  "controlled": 26736,
  "coo": 21278,
  "cook": 27799,
  "cookie": 28327,
  "cool": 24239,
  "coon": 6474,
  "coot": 15162,
  "cope": 6941,
  "copes": 22950,
  "corn": 3013,
  "could": 26816,
  "count": 28326,
  "cover": 11184,
  "covered": 8313,
  "cow": 28324,
  "cr": 12853,
  "cra": 10549,
  "crack": 12912,
  "cracker": 18579,
  "craft": 22857,
  "crash": 20106,
  "craw": 30318,
  "crazy": 21591,
  "cream": 3177,
  "creams": 9057,
  "cred": 19240,
  "cri": 11438,
  "crow": 7586,
  "crunch": 25857,
  "cst": 11559,
  "ct": 957,
  "cted": 11758,
  "ctic": 19158,
  "ctica": 23487,
  "cting": 17706,
  "ction": 5291,
  "ctions": 6831,
  "ctop": 3711,
  "ctopus": 3732,
  "ctopuses": 13373,
  "ctor": 1604,
  "ctory": 3970,
  "ctric": 8914,
  "ctricity": 22843,
  "ctuary": 26065,
  "cu": 4161,
  "cue": 18698,
  "cuff": 14457,
  "cul": 18078,
  "cular": 29568,
  "cules": 28614,
  "cum": 14776,
  "cup": 12710,
  "cups": 20162,
  "cury": 20849,
  "cus": 5378,
  "cuse": 6544,
  "cused": 7533,
  "cuss": 4519,
  "cut": 3270,
  "cutter": 30689,
  "cy": 1671,
  "cycle": 3450,
  "cycles": 9341,
  "d": 100,
  "da": 7837,
  "dad": 16401,
  "dam": 6081,
  "dance": 20932,
  "dancing": 26818,
  "danger": 13678,
  "dangerous": 14278,
  "dar": 28328,
  "dare": 19122,
  "dark": 21280,
  "date": 23658,
  "daughter": 17993,
  "day": 1115,
  "daya": 30578,
  "dd": 602,
  "dded": 1061,
  "ddie": 7471,
  "dding": 7685,
  "ddy": 5043,
  "de": 1557,
  "dea": 26527,
  "dead": 18463,
  "deaf": 22133,
  "deal": 29807,
  "decorate": 31163,
  "ded": 5509,
  "deep": 25714,
  "del": 4233,
  "delay": 22811,
  "dele": 20826,
  "delicious": 22165,
  "deliver": 24693,
  "dely": 15441,
  "demand": 21857,
  "den": 2215,
  "dened": 15691,
  "der": 1572,
  "dered": 23941,
  "dern": 16202,
  "ders": 10328,
  "des": 9810,
  "deserved": 19461,
  "dest": 3628,
  "destroy": 19181,
  "destruct": 25758,
  "dge": 2373,
  "dger": 31160,
  "dges": 16113,
  "dha": 30319,
  "di": 14813,
  "dictionary": 15958,
  "did": 22058,
  "die": 6173,
  "dies": 6278,
  "dile": 3164,
  "din": 23199,
  "dinary": 26817,
  "ding": 5252,
  "dings": 22952,
  "dington": 30755,
  "dink": 23424,
  "dinosaur": 30187,
  "dirty": 30320,
  "dis": 16012,
  "disappear": 14458,
  "discuss": 28776,
  "disgusting": 21086,
  "dish": 31159,
  "display": 22222,
  "distant": 29569,
  "disturb": 22696,
  "dive": 23657,
  "dizzy": 28330,
  "dle": 2822,
  "dled": 13040,
  "dles": 13113,
  "dling": 20004,
  "dly": 28329,
  "do": 5186,
  "dog": 9770,
  "doh": 17793,
  "dolf": 31621,
  "doll": 21204,
  "dollar": 31901,
  "dolls": 28630,
  "dom": 3544,
  "don": 11709,
  "done": 25958,
  "dong": 16506,
  "doo": 24241,
  "doodle": 28942,
  "door": 19319,
  "dot": 23200,
  "dots": 28941,
  "dotted": 29466,
  "dough": 15144,
  "down": 14400,
  "dozer": 19443,
  "dr": 23198,
  "dragon": 19123,
  "draw": 27800,
  "drawn": 31962,
  "dream": 11678,
  "dress": 25576,
  "dressed": 23201,
  "drew": 31161,
  "drink": 22059,
  "drip": 23202,
  "drive": 31162,
  "driver": 26360,
  "drop": 17298,
  "drops": 25168,
  "dry": 22695,
  "ds": 16609,
  "dsy": 23942,
  "duck": 24888,
  "dust": 26359,
  "dy": 979,
  "e": 101,
  "ead": 1745,
  "eading": 10044,
  "eady": 23425,
  "eah": 6380,
  "eak": 26819,
  "eal": 6632,
  "ealing": 9841,
  "eanor": 30321,
  "ear": 1101,
  "eared": 2067,
  "earned": 21649,
  "ears": 8102,
  "earth": 31407,
  "east": 25215,
  "easy": 26820,
  "eat": 9288,
  "eaten": 17650,
  "eater": 18523,
  "eath": 5343,
  "eating": 17910,
  "eb": 2039,
  "eba": 30648,
  "ebastian": 16141,
  "ebe": 28331,
  "ebecca": 8480,
  "ebook": 3599,
  "ebra": 3589,
  "ec": 469,
  "ecause": 4533,
  "ecca": 7798,
  "eches": 28426,
  "ecor": 16880,
  "ecorate": 23890,
  "ecorating": 22890,
  "ecord": 14044,
  "ect": 1255,
  "ectangle": 29785,
  "ectar": 22569,
  "ected": 4401,
  "ecting": 4941,
  "ecture": 5027,
  "ed": 263,
  "edal": 18083,
  "edded": 28967,
  "edding": 5887,
  "eddy": 1693,
  "edge": 17824,
  "edged": 30358,
  "edic": 9267,
  "edicine": 18773,
  "edience": 12959,
  "edient": 3037,
  "edition": 25978,
  "ednesday": 4921,
  "edor": 27824,
  "edric": 21117,
  "edro": 12142,
  "eds": 7357,
  "edy": 3232,
  "ee": 1615,
  "eease": 23502,
  "eed": 6483,
  "eedee": 29290,
  "eee": 17031,
  "eeease": 22232,
  "eek": 10108,
  "eeka": 24137,
  "eel": 23661,
  "een": 7470,
  "eep": 5373,
  "eer": 4002,
  "eered": 22697,
  "eers": 12896,
  "ees": 23660,
  "eese": 7131,
  "eet": 7175,
  "eeta": 26617,
  "ef": 4264,
  "eful": 26361,
  "eg": 20005,
  "egg": 26362,
  "eight": 13703,
  "ein": 17909,
  "ek": 2543,
  "eka": 25359,
  "eks": 16421,
  "eky": 26556,
  "el": 416,
  "ela": 12261,
  "elace": 11423,
  "elco": 29672,
  "elcome": 4526,
  "ele": 23659,
  "eled": 31264,
  "elephant": 21648,
  "elery": 3528,
  "elevator": 26750,
  "eli": 23242,
  "elia": 7218,
  "elie": 7736,
  "elieve": 8540,
  "elieved": 19326,
  "elieving": 23093,
  "eline": 11390,
  "elines": 16241,
  "eling": 9070,
  "elius": 24928,
  "ell": 536,
  "ella": 1919,
  "elle": 6807,
  "elled": 20334,
  "ellent": 28435,
  "eller": 10800,
  "ellers": 23247,
  "ellie": 9268,
  "ellig": 3349,
  "elligent": 21555,
  "elling": 8936,
  "ello": 1180,
  "ellow": 8571,
  "elly": 2272,
  "elope": 8584,
  "elopes": 31265,
  "elp": 2566,
  "elpiece": 21184,
  "els": 9593,
  "elsey": 10839,
  "elt": 525,
  "elta": 30472,
  "elty": 29692,
  "elvet": 5720,
  "ely": 1498,
  "elyn": 26524,
  "em": 960,
  "ema": 20047,
  "emaker": 26066,
  "eman": 31380,
  "emand": 20655,
  "embarrass": 20656,
  "ember": 1158,
  "emember": 4963,
  "ement": 4672,
  "emergency": 15243,
  "emi": 27954,
  "emma": 8463,
  "emmy": 24018,
  "emo": 12248,
  "emon": 9874,
  "emons": 13363,
  "emories": 25306,
  "emory": 16959,
  "emple": 19639,
  "empty": 23266,
  "ems": 14380,
  "emy": 1953,
  "en": 300,
  "ena": 5763,
  "enas": 25243,
  "ence": 1688,
  "enced": 19878,
  "encer": 18924,
  "ences": 6599,
  "ench": 14346,
  "enched": 15109,
  "enching": 31231,
  "ency": 28377,
  "end": 352,
  "endant": 9426,
  "ended": 9130,
  "ending": 8804,
  "endor": 18346,
  "endra": 23692,
  "ends": 22979,
  "endy": 7019,
  "ene": 15230,
  "ened": 582,
  "eness": 12481,
  "engo": 30405,
  "ening": 8121,
  "enix": 20461,
  "enjoy": 31230,
  "enn": 10253,
  "enna": 10641,
  "enne": 24268,
  "ennel": 17128,
  "enneth": 23850,
  "ennis": 12598,
  "enny": 3140,
  "eno": 26870,
  "enry": 4716,
  "ens": 2143,
  "ense": 3973,
  "enses": 10739,
  "ensing": 24357,
  "ensive": 2597,
  "ent": 376,
  "enta": 29657,
  "ented": 16064,
  "enter": 14173,
  "ential": 10902,
  "entially": 29019,
  "entina": 27355,
  "entine": 17379,
  "ention": 3690,
  "entions": 13618,
  "entle": 22085,
  "ently": 7611,
  "entr": 9427,
  "ents": 5341,
  "enty": 6135,
  "enus": 18809,
  "eny": 31229,
  "enzie": 19879,
  "eoff": 20305,
  "eoffrey": 22907,
  "eor": 4442,
  "eorge": 4500,
  "ep": 621,
  "eparate": 23999,
  "epeat": 10233,
  "epend": 2148,
  "ependable": 14328,
  "ependent": 19053,
  "ept": 6743,
  "eptember": 30794,
  "equipment": 23944,
  "er": 281,
  "era": 2477,
  "erable": 3111,
  "eral": 15311,
  "erald": 13907,
  "erals": 17374,
  "erang": 23960,
  "eras": 11959,
  "eration": 4965,
  "eratops": 25987,
  "erc": 4718,
  "erchief": 29619,
  "erci": 31607,
  "ercise": 13002,
  "ercival": 26594,
  "ere": 1845,
  "ereal": 13943,
  "ered": 1316,
  "eredith": 18548,
  "erek": 13845,
  "erella": 24351,
  "eremiah": 22784,
  "eremy": 9921,
  "eresa": 14953,
  "erest": 2234,
  "erested": 28563,
  "eresting": 18557,
  "erg": 9622,
  "ergarten": 27614,
  "ergency": 13890,
  "ergus": 19200,
  "ergy": 24906,
  "eria": 24263,
  "erick": 21482,
  "erie": 12960,
  "eries": 28368,
  "erily": 28982,
  "ering": 8904,
  "erk": 8432,
  "erly": 2368,
  "erm": 7705,
  "ermit": 20870,
  "ern": 5915,
  "ernie": 10999,
  "ero": 4570,
  "erome": 20944,
  "eropl": 3261,
  "eroplane": 20524,
  "eroplanes": 27033,
  "eros": 16937,
  "erosity": 28369,
  "erous": 14373,
  "erp": 2935,
  "erpiece": 8663,
  "erries": 2702,
  "erry": 1960,
  "ers": 720,
  "ership": 30516,
  "erson": 19404,
  "ert": 2204,
  "ertain": 7189,
  "erties": 29193,
  "ertime": 13736,
  "erts": 8887,
  "erty": 22968,
  "erve": 19254,
  "erved": 17605,
  "ery": 2231,
  "es": 379,
  "esame": 20472,
  "esaver": 27359,
  "escape": 19270,
  "esday": 3879,
  "esha": 28413,
  "esome": 6280,
  "espec": 29665,
  "especially": 30235,
  "espite": 7631,
  "ess": 778,
  "essa": 11210,
  "essert": 18269,
  "esses": 9235,
  "essie": 3449,
  "ession": 11354,
  "esson": 18359,
  "essor": 14291,
  "essy": 17024,
  "est": 2201,
  "ester": 5218,
  "esterday": 5220,
  "estival": 17943,
  "estly": 28013,
  "estroy": 17944,
  "estruck": 19653,
  "esy": 10724,
  "et": 306,
  "eta": 25614,
  "etah": 8729,
  "etal": 19020,
  "etch": 5149,
  "etched": 22296,
  "etchup": 8780,
  "ete": 3547,
  "eteen": 17560,
  "eter": 2045,
  "eteria": 14871,
  "eterinarian": 4463,
  "etermined": 22583,
  "eterred": 16701,
  "eth": 2313,
  "ethe": 19510,
  "etheless": 19853,
  "etime": 12214,
  "etition": 24911,
  "etitive": 20320,
  "etra": 25615,
  "ets": 9396,
  "ett": 11117,
  "etta": 20879,
  "ette": 19131,
  "etter": 773,
  "etti": 11955,
  "ettle": 8788,
  "etty": 6891,
  "eturn": 18615,
  "etwork": 13354,
  "ety": 5479,
  "eur": 25577,
  "ev": 21647,
  "eve": 5382,
  "even": 10322,
  "ever": 2279,
  "everal": 22586,
  "everse": 9821,
  "every": 22060,
  "everything": 27225,
  "eves": 11759,
  "evin": 7955,
  "ew": 25214,
  "eww": 23943,
  "ex": 838,
  "exam": 17843,
  "examine": 27684,
  "excite": 31363,
  "excuse": 26059,
  "exercise": 26936,
  "exi": 11787,
  "exit": 11061,
  "expected": 912,
  "expectedly": 21518,
  "expensive": 17618,
  "ext": 3271,
  "exture": 29738,
  "ey": 1849,
  "eyed": 11305,
  "eyond": 27994,
  "eze": 13245,
  "f": 102,
  "fa": 4170,
  "face": 18699,
  "faced": 15898,
  "faction": 9457,
  "fair": 25218,
  "fairy": 27802,
  "fake": 17994,
  "fall": 7472,
  "fallen": 27801,
  "fam": 28332,
  "famous": 30223,
  "fant": 11208,
  "fas": 16402,
  "fashion": 13922,
  "fashioned": 18057,
  "fast": 4260,
  "father": 7974,
  "fe": 708,
  "fear": 30514,
  "feated": 31336,
  "fect": 12240,
  "fed": 19609,
  "feed": 29076,
  "felt": 26821,
  "fere": 1280,
  "ference": 15409,
  "ferent": 12507,
  "fetch": 22270,
  "ff": 834,
  "ffe": 3891,
  "ffee": 3895,
  "ffees": 29242,
  "fff": 26935,
  "ffic": 4909,
  "ffin": 29737,
  "ffled": 19289,
  "fic": 2859,
  "ficial": 19795,
  "fied": 5716,
  "field": 11664,
  "fierce": 31165,
  "fight": 15273,
  "fighter": 30108,
  "fighters": 18785,
  "fighting": 28333,
  "file": 27297,
  "fill": 25217,
  "filled": 11536,
  "fin": 26363,
  "find": 17525,
  "finder": 29423,
  "finding": 28203,
  "fine": 22698,
  "finish": 28851,
  "finished": 31167,
  "fire": 8026,
  "firework": 28944,
  "first": 23945,
  "fish": 1868,
  "fisher": 31166,
  "fit": 6579,
  "five": 8277,
  "fived": 9825,
  "fives": 17676,
  "fiving": 25578,
  "fix": 18700,
  "fixed": 22240,
  "fl": 6696,
  "flakes": 31665,
  "flav": 25065,
  "flavored": 28249,
  "fle": 20306,
  "flexible": 28221,
  "flies": 11177,
  "flight": 30323,
  "flops": 25409,
  "flour": 29297,
  "flow": 11333,
  "flower": 12003,
  "flowers": 9047,
  "fly": 7423,
  "flying": 22185,
  "fo": 18426,
  "fold": 19496,
  "folk": 17068,
  "follow": 19361,
  "food": 29570,
  "foolish": 30324,
  "foot": 19243,
  "for": 14459,
  "force": 31823,
  "fore": 1054,
  "forest": 19781,
  "forgive": 20119,
  "fork": 19009,
  "form": 7740,
  "fort": 1799,
  "fortable": 2121,
  "fortunately": 5327,
  "fortune": 26108,
  "found": 8057,
  "four": 13041,
  "fr": 14641,
  "fragile": 15632,
  "fred": 31164,
  "free": 9411,
  "freeze": 7665,
  "friend": 11075,
  "friendly": 28722,
  "friends": 18801,
  "friendship": 30865,
  "frog": 18317,
  "from": 22491,
  "fruit": 20275,
  "fry": 30322,
  "ft": 791,
  "fted": 3003,
  "ften": 20980,
  "fter": 687,
  "ftime": 23019,
  "fty": 15393,
  "fu": 25216,
  "fuel": 17299,
  "ful": 516,
  "fulfilled": 29689,
  "full": 21465,
  "fully": 1660,
  "fuly": 28943,
  "fume": 15959,
  "fun": 16610,
  "funny": 29571,
  "fus": 8511,
  "fused": 1978,
  "fy": 15588,
  "fying": 13065,
  "g": 103,
  "ga": 14675,
  "gable": 28334,
  "gae": 19868,
  "gage": 27803,
  "gain": 11272,
  "gan": 1066,
  "gano": 29770,
  "gaphone": 29572,
  "gar": 9197,
  "gare": 10729,
  "garet": 10735,
  "garten": 16055,
  "gas": 16343,
  "ge": 781,
  "geant": 29084,
  "ged": 768,
  "gedy": 13867,
  "gen": 4094,
  "gency": 12029,
  "gent": 14343,
  "gently": 19748,
  "geon": 19536,
  "ger": 1030,
  "gers": 6386,
  "gery": 15036,
  "ges": 4781,
  "gest": 2497,
  "get": 443,
  "getable": 2711,
  "getables": 17332,
  "gether": 452,
  "getic": 9359,
  "gets": 11717,
  "gg": 1822,
  "gged": 15790,
  "ggie": 10185,
  "gging": 10834,
  "ggles": 9865,
  "ggy": 7448,
  "gh": 15057,
  "giddy": 27805,
  "gie": 5060,
  "gien": 25220,
  "gies": 15394,
  "gifted": 27300,
  "giggle": 27806,
  "gin": 23426,
  "ging": 3398,
  "gings": 31168,
  "giraffe": 27299,
  "girl": 20624,
  "give": 12331,
  "giveness": 21281,
  "giver": 27804,
  "giving": 12258,
  "gl": 12834,
  "glass": 20578,
  "gle": 17370,
  "gled": 16507,
  "gli": 27644,
  "gling": 12835,
  "glow": 25219,
  "glue": 30885,
  "glug": 31802,
  "gly": 2062,
  "gn": 10359,
  "gnet": 30326,
  "go": 6209,
  "goal": 22613,
  "gobble": 25221,
  "goers": 20396,
  "going": 15617,
  "gold": 25579,
  "golf": 30784,
  "good": 8660,
  "goodbye": 10492,
  "goodnight": 25425,
  "gosaurus": 19376,
  "got": 19010,
  "gown": 25959,
  "gr": 9736,
  "gra": 10798,
  "grand": 18309,
  "grandfather": 22446,
  "grandma": 13670,
  "grandmother": 28211,
  "grandpa": 16160,
  "grandparents": 28790,
  "grateful": 11189,
  "gre": 11178,
  "great": 19610,
  "gree": 30325,
  "green": 14642,
  "gret": 31169,
  "ground": 2918,
  "group": 16327,
  "grow": 13728,
  "growing": 23597,
  "grown": 20102,
  "grrr": 27298,
  "gry": 827,
  "gs": 12711,
  "gu": 3065,
  "guard": 10061,
  "guarded": 28134,
  "guess": 9448,
  "gum": 17526,
  "gun": 26822,
  "gusting": 16611,
  "gy": 1707,
  "h": 104,
  "ha": 5725,
  "hadow": 10979,
  "hair": 31172,
  "haired": 16981,
  "hairy": 31173,
  "ham": 14401,
  "han": 17008,
  "hand": 10323,
  "handed": 12784,
  "hang": 23946,
  "hanging": 24538,
  "happiness": 27302,
  "happy": 12881,
  "haps": 11611,
  "har": 22953,
  "harsh": 24206,
  "hat": 15589,
  "hate": 15020,
  "hausted": 22824,
  "have": 12836,
  "haw": 12338,
  "hawk": 22700,
  "he": 257,
  "head": 3864,
  "headed": 21359,
  "heal": 21286,
  "healthy": 15022,
  "heart": 4729,
  "hearted": 11550,
  "hed": 480,
  "heddar": 28427,
  "hee": 6206,
  "heel": 21661,
  "heese": 11465,
  "heet": 20008,
  "heets": 25973,
  "heit": 26852,
  "hel": 8278,
  "helle": 12088,
  "hello": 5651,
  "help": 13106,
  "helpful": 31805,
  "hem": 31196,
  "hen": 488,
  "hena": 27902,
  "hend": 30354,
  "her": 367,
  "here": 800,
  "hern": 31255,
  "hero": 4579,
  "hes": 951,
  "hest": 4874,
  "hett": 3333,
  "hew": 7385,
  "hey": 18162,
  "hh": 13554,
  "hhh": 27161,
  "hi": 6982,
  "hia": 18079,
  "hibit": 12238,
  "hic": 3919,
  "hicle": 29903,
  "hidden": 25580,
  "hide": 12583,
  "high": 19497,
  "hile": 9737,
  "hill": 12170,
  "hind": 5686,
  "hing": 509,
  "hings": 9275,
  "hink": 31171,
  "hip": 3390,
  "hire": 20763,
  "his": 21113,
  "hiss": 27807,
  "history": 15841,
  "hive": 31170,
  "hn": 1231,
  "hness": 15325,
  "hnn": 10692,
  "hnnie": 10721,
  "hny": 9224,
  "ho": 6936,
  "hog": 6954,
  "hol": 23947,
  "hold": 17599,
  "hole": 8843,
  "home": 22271,
  "hone": 27301,
  "honest": 28946,
  "honey": 29573,
  "honk": 17442,
  "hony": 14165,
  "hoo": 14541,
  "hood": 5016,
  "hooray": 23827,
  "hoot": 31671,
  "hop": 13273,
  "hope": 28945,
  "hopped": 23566,
  "hopper": 29301,
  "hor": 22699,
  "horse": 10475,
  "hospital": 27808,
  "host": 3228,
  "hot": 13139,
  "house": 4955,
  "how": 9325,
  "ht": 413,
  "htaking": 15066,
  "htime": 27362,
  "htray": 4046,
  "htub": 3773,
  "hug": 22492,
  "huh": 28947,
  "hunt": 29574,
  "hurricane": 25960,
  "hurry": 19869,
  "hurt": 23662,
  "hy": 17598,
  "i": 105,
  "ia": 572,
  "iable": 3131,
  "iage": 25582,
  "iah": 21317,
  "ial": 844,
  "ially": 4811,
  "iam": 7130,
  "ian": 2043,
  "iana": 10480,
  "ianca": 21739,
  "iance": 17995,
  "ianna": 23057,
  "iano": 18644,
  "ians": 23056,
  "iant": 2911,
  "iar": 6485,
  "iara": 11528,
  "ias": 22313,
  "ib": 6052,
  "iba": 24714,
  "ibb": 5909,
  "ibber": 26183,
  "ibbidi": 31644,
  "ibbit": 7122,
  "ibble": 19190,
  "ibbles": 9264,
  "ibbs": 28639,
  "ibby": 19011,
  "iber": 24889,
  "ibi": 8043,
  "ibility": 16588,
  "ible": 1853,
  "ibly": 9386,
  "ibo": 10431,
  "ic": 462,
  "ica": 6145,
  "ical": 10964,
  "ically": 10141,
  "icals": 16123,
  "ican": 17698,
  "icans": 31276,
  "icate": 9501,
  "icated": 10965,
  "ication": 22530,
  "ice": 544,
  "iced": 1413,
  "icense": 13071,
  "icer": 4603,
  "ich": 1784,
  "ichael": 7166,
  "iche": 16406,
  "iches": 4203,
  "ichever": 17666,
  "ichi": 29819,
  "ici": 8450,
  "icia": 10948,
  "icier": 16879,
  "iciest": 10090,
  "icine": 18178,
  "iciness": 20328,
  "icing": 5417,
  "icious": 9253,
  "icity": 14435,
  "ick": 618,
  "icke": 21313,
  "icked": 2570,
  "ickel": 22912,
  "ickered": 20338,
  "ickest": 12302,
  "icki": 20971,
  "icking": 9048,
  "icky": 4670,
  "icles": 29679,
  "ico": 10315,
  "icol": 22531,
  "icole": 14198,
  "icop": 3197,
  "icopter": 3198,
  "icorn": 6133,
  "ics": 10543,
  "ict": 3029,
  "ictable": 17556,
  "iction": 4115,
  "ictionary": 4123,
  "ictory": 11791,
  "icy": 1437,
  "icycle": 18112,
  "id": 292,
  "ida": 18252,
  "idable": 25607,
  "idan": 20779,
  "idance": 11926,
  "iday": 4576,
  "idd": 31218,
  "idden": 14256,
  "iddle": 3016,
  "iddled": 18166,
  "iddling": 31219,
  "iddy": 11939,
  "ide": 425,
  "ided": 5771,
  "iden": 13116,
  "idence": 8945,
  "ident": 2993,
  "ider": 7827,
  "iders": 15698,
  "ides": 5564,
  "idey": 8840,
  "idge": 2001,
  "idges": 19256,
  "idget": 14135,
  "idi": 10157,
  "iding": 7185,
  "idly": 17756,
  "ido": 6475,
  "idoscope": 24907,
  "idote": 30395,
  "ids": 5549,
  "idst": 20459,
  "idy": 8989,
  "ie": 596,
  "iece": 7077,
  "ied": 1269,
  "ief": 3324,
  "iego": 20479,
  "iel": 8035,
  "ield": 1500,
  "ien": 5798,
  "ience": 4350,
  "ienna": 20860,
  "iens": 8290,
  "ient": 1347,
  "ier": 1950,
  "ierce": 10861,
  "ierra": 19923,
  "ierre": 14831,
  "iers": 5322,
  "ies": 992,
  "iest": 4143,
  "iet": 1630,
  "ieties": 26530,
  "iety": 12532,
  "iew": 3883,
  "if": 615,
  "ifact": 17164,
  "ife": 2274,
  "ifer": 9837,
  "iff": 2608,
  "iffany": 16706,
  "ifferent": 12545,
  "iffy": 13965,
  "ifi": 5019,
  "ific": 14827,
  "ifically": 30499,
  "ificant": 21812,
  "ificate": 17460,
  "ificates": 30101,
  "ified": 17385,
  "ifier": 22535,
  "iform": 4342,
  "ift": 10256,
  "ifted": 13229,
  "ifteen": 30500,
  "ifter": 27405,
  "ifting": 19530,
  "ifts": 27916,
  "ifty": 23716,
  "iful": 993,
  "ifully": 9120,
  "ify": 18623,
  "ig": 310,
  "iga": 27338,
  "igade": 19385,
  "igail": 5583,
  "igator": 3546,
  "ige": 11045,
  "iged": 13248,
  "igel": 20465,
  "iger": 2390,
  "igers": 7256,
  "igg": 1911,
  "igger": 8015,
  "iggie": 6861,
  "iggle": 13789,
  "iggles": 9749,
  "iggling": 22581,
  "iggly": 5113,
  "iggy": 5825,
  "igh": 1901,
  "ighed": 2748,
  "igher": 12301,
  "ighing": 7939,
  "ight": 521,
  "ighted": 16947,
  "ightened": 16243,
  "ighting": 7310,
  "ighty": 10074,
  "igi": 4688,
  "iginal": 3026,
  "ign": 1302,
  "igned": 22768,
  "ignificant": 22570,
  "igning": 6981,
  "ignorant": 15291,
  "ignore": 29149,
  "igo": 14207,
  "igold": 24269,
  "igue": 29636,
  "iguel": 13928,
  "igure": 18087,
  "igzag": 4213,
  "ih": 28948,
  "ik": 4259,
  "ika": 11156,
  "ikayla": 17371,
  "ike": 1322,
  "iker": 26586,
  "iki": 4469,
  "ikki": 13084,
  "iko": 11948,
  "iky": 9507,
  "il": 313,
  "ila": 1373,
  "ilah": 15469,
  "ilant": 20949,
  "ilar": 10915,
  "ilary": 20177,
  "ild": 916,
  "ilda": 7593,
  "ilding": 21519,
  "ildren": 10211,
  "ile": 594,
  "iled": 554,
  "ilee": 31295,
  "ileen": 20337,
  "iles": 6971,
  "ilet": 4121,
  "ilets": 15319,
  "iley": 7400,
  "ili": 9229,
  "ilia": 14497,
  "ilight": 22514,
  "iling": 2158,
  "ilings": 18003,
  "ilities": 8673,
  "ility": 7203,
  "ilizer": 16016,
  "ilk": 2032,
  "ill": 445,
  "illa": 3580,
  "illage": 31272,
  "illas": 10051,
  "ille": 18094,
  "illed": 7179,
  "illey": 26893,
  "illi": 19027,
  "illie": 4900,
  "illing": 29038,
  "illip": 14644,
  "illo": 21690,
  "illon": 29676,
  "ills": 16878,
  "illy": 1091,
  "ilm": 27856,
  "ilo": 6276,
  "ilocks": 23229,
  "iloh": 23968,
  "ilot": 3925,
  "ils": 11697,
  "ilsa": 28995,
  "ilst": 11961,
  "ilt": 3011,
  "ilthy": 26407,
  "ilts": 19259,
  "ilty": 3254,
  "ily": 359,
  "ilyn": 23693,
  "im": 289,
  "ima": 13491,
  "imagine": 21124,
  "imal": 766,
  "imate": 12882,
  "imated": 22076,
  "imately": 17607,
  "imb": 902,
  "imba": 11868,
  "imble": 18453,
  "imbo": 10534,
  "ime": 393,
  "imed": 4625,
  "imee": 17455,
  "iment": 8358,
  "iments": 10980,
  "imes": 1204,
  "imet": 15849,
  "imi": 1769,
  "imid": 14855,
  "immer": 6991,
  "immered": 10271,
  "immering": 7539,
  "imney": 4044,
  "imon": 7146,
  "imos": 19621,
  "imosa": 31887,
  "imp": 2680,
  "imple": 20072,
  "imply": 29211,
  "important": 29863,
  "improve": 27523,
  "imsy": 31217,
  "imum": 28983,
  "in": 269,
  "ina": 2605,
  "inal": 3009,
  "inals": 26383,
  "inarian": 4462,
  "inary": 3167,
  "inas": 28972,
  "inated": 15190,
  "inating": 24901,
  "ination": 3995,
  "inc": 12020,
  "ince": 4656,
  "incent": 29373,
  "inch": 8345,
  "inched": 29603,
  "include": 16857,
  "increase": 15137,
  "inct": 10523,
  "ind": 441,
  "inda": 6082,
  "indeer": 15853,
  "independent": 26892,
  "inder": 19026,
  "indr": 6806,
  "indulge": 27373,
  "indy": 5799,
  "ine": 816,
  "inea": 16691,
  "ined": 1922,
  "inema": 11763,
  "iner": 20168,
  "inery": 25598,
  "ines": 3843,
  "inese": 20981,
  "iness": 2984,
  "ing": 298,
  "ingale": 23226,
  "inge": 23225,
  "inger": 8590,
  "ingerly": 16566,
  "inging": 13068,
  "ingle": 30404,
  "ingles": 28990,
  "ingly": 9702,
  "ingo": 7023,
  "ings": 565,
  "ini": 14038,
  "ining": 6183,
  "inion": 19874,
  "inis": 28971,
  "inished": 15445,
  "inita": 29604,
  "initely": 26384,
  "ink": 748,
  "inked": 12501,
  "inking": 4814,
  "inkle": 6387,
  "inky": 3081,
  "inn": 13679,
  "innam": 12110,
  "innamon": 12121,
  "innie": 22285,
  "innies": 23954,
  "inny": 7900,
  "ino": 5340,
  "inoceros": 12873,
  "inous": 22964,
  "ins": 1492,
  "insley": 30619,
  "inspiring": 30620,
  "int": 6548,
  "inted": 8310,
  "intelligent": 31661,
  "interesting": 29292,
  "inting": 11146,
  "inton": 30368,
  "ints": 16933,
  "inu": 28970,
  "iny": 750,
  "io": 3128,
  "iolet": 8787,
  "iolets": 17105,
  "ion": 851,
  "iona": 7488,
  "ionate": 13938,
  "ions": 2319,
  "ior": 11167,
  "ios": 26364,
  "ious": 1197,
  "iously": 13810,
  "ip": 932,
  "ipe": 3144,
  "iped": 12287,
  "ipede": 16391,
  "iper": 22113,
  "ipes": 7698,
  "ipey": 24965,
  "ipient": 28487,
  "iping": 17249,
  "ipl": 20764,
  "ipment": 4867,
  "ipp": 1716,
  "ippa": 27986,
  "ippe": 26979,
  "ipped": 1984,
  "ippee": 14476,
  "ipper": 7322,
  "ippers": 10156,
  "ippery": 26980,
  "ippie": 30632,
  "ipping": 5139,
  "ippity": 25720,
  "ippo": 27987,
  "ippy": 5055,
  "ips": 5083,
  "iqu": 14006,
  "ique": 2797,
  "iques": 18503,
  "ir": 304,
  "ira": 5972,
  "irac": 8505,
  "iracle": 27600,
  "iraculously": 14696,
  "iraffe": 10155,
  "iraffes": 25245,
  "iran": 28991,
  "iranda": 12897,
  "iration": 15397,
  "irby": 27335,
  "ircle": 8749,
  "ircles": 20948,
  "ircus": 14374,
  "ird": 415,
  "ire": 1788,
  "ired": 1089,
  "ires": 14757,
  "irework": 11448,
  "ireworks": 12256,
  "irgin": 25995,
  "irginia": 26308,
  "iri": 8317,
  "irie": 30407,
  "iring": 10158,
  "irit": 3682,
  "irk": 24563,
  "irl": 8674,
  "irley": 13522,
  "irls": 11369,
  "irly": 22973,
  "irm": 6244,
  "iron": 3822,
  "irp": 2037,
  "irport": 22354,
  "irpy": 2286,
  "irr": 2400,
  "irrel": 1087,
  "irring": 5430,
  "irror": 14055,
  "irst": 1075,
  "irsty": 2939,
  "irt": 2055,
  "irteen": 14623,
  "irth": 1981,
  "irthday": 1982,
  "irts": 5669,
  "irty": 10238,
  "irus": 14783,
  "is": 286,
  "isa": 1959,
  "isabeth": 31216,
  "isapp": 9912,
  "isappear": 11662,
  "isappeared": 31741,
  "isappointed": 13060,
  "isation": 27842,
  "isbee": 10206,
  "isbees": 26865,
  "isc": 7710,
  "iscilla": 12947,
  "iscuit": 8154,
  "isdom": 5850,
  "ise": 676,
  "ised": 782,
  "isely": 26864,
  "iserable": 26401,
  "ises": 1811,
  "isey": 19150,
  "isfied": 20458,
  "ish": 631,
  "isha": 13934,
  "ished": 1052,
  "isher": 10914,
  "ishes": 5522,
  "ishing": 5376,
  "ishment": 18939,
  "ishop": 23253,
  "isht": 22075,
  "ishticated": 22247,
  "ishu": 26036,
  "ishy": 14579,
  "isible": 9686,
  "ising": 5227,
  "isingly": 12161,
  "ision": 3606,
  "isions": 7787,
  "isit": 21669,
  "isite": 28370,
  "isiting": 31215,
  "isitive": 14937,
  "isk": 1895,
  "iska": 30642,
  "iskers": 1938,
  "isky": 13013,
  "ism": 16938,
  "ison": 4427,
  "isp": 2650,
  "isper": 16707,
  "ispy": 14519,
  "iss": 1067,
  "issa": 8192,
  "isse": 27325,
  "issed": 29772,
  "isses": 5099,
  "issi": 29771,
  "issie": 19043,
  "ission": 5385,
  "issors": 2625,
  "issy": 10843,
  "ist": 650,
  "ista": 19032,
  "istan": 22537,
  "istant": 21892,
  "isted": 3471,
  "isten": 5540,
  "istence": 28460,
  "istency": 29952,
  "istent": 19148,
  "ister": 1633,
  "istic": 14943,
  "istle": 6309,
  "istol": 3894,
  "istory": 9712,
  "istotle": 31315,
  "ists": 19631,
  "isturb": 18356,
  "isturbed": 24810,
  "isty": 4892,
  "isure": 22294,
  "isy": 1299,
  "it": 273,
  "ita": 7547,
  "itable": 23213,
  "ital": 3458,
  "itam": 10722,
  "itary": 25983,
  "itated": 23679,
  "itch": 1896,
  "itched": 6927,
  "itches": 6791,
  "ite": 715,
  "ited": 657,
  "itely": 6656,
  "iter": 16404,
  "ites": 9771,
  "itey": 31337,
  "ith": 325,
  "itha": 23690,
  "ither": 3362,
  "iti": 7145,
  "ities": 5866,
  "iting": 2415,
  "ition": 7896,
  "itions": 18340,
  "itive": 11877,
  "itney": 22713,
  "ito": 3665,
  "itor": 15847,
  "its": 9030,
  "itt": 371,
  "itted": 7101,
  "itten": 1655,
  "ittens": 4922,
  "itter": 2633,
  "ittered": 15596,
  "ittering": 21753,
  "itters": 13249,
  "ittery": 27879,
  "itties": 17916,
  "itting": 1749,
  "ittle": 388,
  "itty": 972,
  "itual": 21479,
  "itude": 7223,
  "iture": 4409,
  "itus": 28361,
  "ity": 2250,
  "itz": 14039,
  "itzen": 26392,
  "itzi": 21421,
  "itzy": 17914,
  "ium": 4391,
  "ius": 15350,
  "iv": 3199,
  "iva": 15927,
  "ival": 4227,
  "ivated": 11498,
  "ivating": 27030,
  "ive": 671,
  "ived": 5156,
  "ively": 14261,
  "iveness": 18427,
  "iver": 1798,
  "ivers": 13032,
  "iversary": 13401,
  "iverse": 12192,
  "iversity": 7103,
  "ivery": 7076,
  "ives": 6972,
  "ivi": 8132,
  "ivia": 8445,
  "ivid": 14555,
  "iving": 9069,
  "ivious": 29230,
  "ivity": 7069,
  "ivore": 22158,
  "ivy": 17266,
  "iw": 11741,
  "iwi": 20883,
  "iwork": 17069,
  "ix": 1490,
  "ixen": 24347,
  "ixie": 12653,
  "iy": 25581,
  "iya": 15274,
  "iz": 939,
  "izable": 29103,
  "izard": 16957,
  "ization": 14718,
  "ize": 2197,
  "ized": 1439,
  "izer": 14233,
  "izers": 26945,
  "izes": 4839,
  "izi": 15916,
  "izing": 5577,
  "izmo": 13256,
  "izz": 2337,
  "izza": 9774,
  "izzes": 9246,
  "izzi": 28574,
  "izzie": 6734,
  "izzle": 25742,
  "izzy": 2336,
  "j": 106,
  "ja": 13432,
  "jack": 11694,
  "jacket": 23349,
  "jah": 26365,
  "jail": 20626,
  "jali": 31175,
  "jam": 6043,
  "jama": 27303,
  "jamas": 6203,
  "jamin": 11143,
  "jar": 19244,
  "jay": 21650,
  "jazz": 22493,
  "je": 31174,
  "ject": 3629,
  "jected": 13647,
  "jest": 9198,
  "ji": 13168,
  "jo": 7084,
  "join": 27304,
  "joke": 26823,
  "jor": 21466,
  "jorie": 30176,
  "jour": 18910,
  "journal": 30327,
  "joy": 1185,
  "joyed": 5999,
  "ju": 20625,
  "judge": 25961,
  "juice": 25902,
  "jump": 12837,
  "jumping": 25111,
  "just": 10774,
  "justed": 15145,
  "k": 107,
  "ka": 10442,
  "kah": 27305,
  "kart": 20765,
  "kay": 954,
  "kayla": 16828,
  "ke": 343,
  "ked": 333,
  "keep": 3884,
  "keeper": 4005,
  "keepers": 9630,
  "keeping": 15418,
  "kele": 3726,
  "keleton": 3727,
  "kelly": 6370,
  "ken": 1342,
  "kend": 7499,
  "ker": 11695,
  "kerel": 29645,
  "kest": 10631,
  "key": 1478,
  "ki": 10565,
  "kick": 16670,
  "kie": 15395,
  "kin": 2263,
  "kind": 10072,
  "kindness": 30853,
  "king": 606,
  "kins": 5345,
  "kiss": 22494,
  "kit": 24242,
  "kite": 25222,
  "kki": 26824,
  "kn": 2849,
  "kneel": 24372,
  "knife": 30673,
  "know": 14662,
  "knowingly": 14849,
  "known": 2858,
  "ko": 23203,
  "krat": 27306,
  "ks": 12140,
  "kule": 29575,
  "kward": 16757,
  "ky": 6638,
  "kyo": 28086,
  "l": 108,
  "la": 3784,
  "lab": 22701,
  "lace": 2835,
  "lah": 25375,
  "laim": 16538,
  "laimed": 4935,
  "laire": 6149,
  "lam": 30328,
  "lamation": 31047,
  "lan": 22495,
  "land": 2956,
  "language": 25584,
  "lantern": 16403,
  "lap": 30329,
  "lar": 23427,
  "large": 29577,
  "las": 25223,
  "laser": 30330,
  "lasses": 3801,
  "lasting": 24244,
  "later": 29576,
  "laud": 11334,
  "laus": 10420,
  "law": 13611,
  "lay": 6338,
  "laze": 28335,
  "lazy": 31177,
  "lby": 17600,
  "lc": 1577,
  "lcan": 3403,
  "lcano": 3412,
  "ld": 339,
  "lda": 17158,
  "ldened": 30423,
  "lder": 28394,
  "lderly": 18434,
  "ldron": 21878,
  "le": 302,
  "lead": 20016,
  "leader": 23904,
  "leaf": 18085,
  "lean": 29631,
  "leas": 15793,
  "lease": 985,
  "leave": 26871,
  "lebr": 2687,
  "lebrate": 17629,
  "lect": 16183,
  "lected": 20463,
  "lecture": 18893,
  "led": 1162,
  "lee": 6928,
  "leep": 1128,
  "left": 22295,
  "legged": 17073,
  "legs": 27334,
  "leigh": 29632,
  "leine": 27333,
  "lem": 2020,
  "lement": 25729,
  "lementine": 20224,
  "lemon": 26992,
  "len": 6704,
  "lend": 14286,
  "lenda": 18784,
  "lene": 22834,
  "leness": 15934,
  "leo": 31232,
  "leon": 20174,
  "lephant": 6876,
  "lept": 26872,
  "ler": 6144,
  "lers": 9059,
  "lery": 23663,
  "les": 964,
  "less": 1594,
  "lessly": 14150,
  "lest": 9228,
  "leste": 16650,
  "let": 2322,
  "lete": 13874,
  "lets": 6826,
  "lette": 24049,
  "lew": 760,
  "lex": 4578,
  "lexed": 19185,
  "ley": 6047,
  "lf": 856,
  "li": 18701,
  "lia": 20766,
  "license": 14007,
  "lide": 26366,
  "lie": 14814,
  "lied": 8119,
  "lier": 5783,
  "lies": 3694,
  "liest": 14166,
  "life": 12479,
  "lift": 26825,
  "lifting": 28949,
  "light": 2897,
  "lights": 18123,
  "like": 10329,
  "liked": 20430,
  "lim": 21858,
  "limits": 23625,
  "lin": 16931,
  "line": 7936,
  "lined": 31176,
  "lines": 27810,
  "liness": 16179,
  "ling": 2137,
  "lings": 10557,
  "lining": 30332,
  "lion": 17443,
  "lish": 9512,
  "list": 17300,
  "listen": 18599,
  "lit": 20933,
  "little": 22272,
  "live": 2988,
  "lived": 18428,
  "ll": 293,
  "lla": 2022,
  "llas": 8125,
  "lle": 7551,
  "lled": 6619,
  "llen": 6969,
  "ller": 14609,
  "llers": 20780,
  "lley": 23220,
  "lli": 13142,
  "llie": 1966,
  "llies": 18167,
  "lliest": 21918,
  "lling": 7254,
  "llip": 3207,
  "llipop": 3208,
  "llo": 2370,
  "llous": 21671,
  "llow": 1216,
  "llowed": 11871,
  "lls": 8873,
  "lly": 1264,
  "lma": 27809,
  "lo": 8938,
  "load": 20252,
  "loaded": 28688,
  "lock": 11065,
  "loe": 5954,
  "long": 15021,
  "loo": 4006,
  "look": 5008,
  "lookers": 31617,
  "looking": 5089,
  "loop": 25583,
  "lophone": 18334,
  "lor": 9461,
  "lorn": 26367,
  "los": 10028,
  "lost": 12786,
  "lot": 15899,
  "lotion": 29578,
  "lour": 23428,
  "love": 11828,
  "loved": 22954,
  "loving": 18047,
  "low": 4429,
  "lower": 2227,
  "lowers": 5933,
  "loyd": 22061,
  "loÃ©": 18873,
  "lph": 3153,
  "lphi": 29881,
  "lpie": 30333,
  "ls": 5733,
  "lt": 9407,
  "lter": 4271,
  "ltimately": 25087,
  "lu": 4165,
  "luckily": 30331,
  "lucky": 24243,
  "lude": 13688,
  "luded": 18753,
  "luding": 29910,
  "luence": 29909,
  "luffy": 1085,
  "luggage": 27307,
  "lung": 26368,
  "lusive": 30334,
  "luxu": 18289,
  "luxury": 18329,
  "lves": 2689,
  "ly": 459,
  "lyard": 27378,
  "lyde": 16190,
  "lyn": 9682,
  "lynn": 26439,
  "m": 109,
  "ma": 1103,
  "mable": 26369,
  "made": 11653,
  "magic": 12872,
  "mail": 11876,
  "make": 22062,
  "maker": 12584,
  "makers": 22702,
  "making": 13213,
  "mama": 23665,
  "mamma": 29579,
  "man": 1592,
  "manage": 28532,
  "mannered": 29812,
  "manship": 22774,
  "mar": 12087,
  "march": 30876,
  "mare": 4808,
  "mark": 10443,
  "marriage": 19205,
  "marry": 19124,
  "mary": 14284,
  "mas": 6915,
  "massage": 26960,
  "master": 12141,
  "mat": 18600,
  "match": 8535,
  "matched": 25502,
  "mate": 10285,
  "mates": 8090,
  "math": 16671,
  "maybe": 14433,
  "mb": 2574,
  "mber": 22063,
  "mbi": 29858,
  "mble": 4887,
  "mbled": 30666,
  "mbre": 2998,
  "mbrella": 23068,
  "mbur": 12926,
  "me": 1860,
  "meal": 10015,
  "measure": 18642,
  "med": 4415,
  "medi": 5260,
  "mediately": 5263,
  "medicine": 18206,
  "meg": 23767,
  "mel": 8872,
  "melda": 30640,
  "melt": 21651,
  "memory": 29580,
  "men": 4834,
  "mend": 4497,
  "ment": 2408,
  "ments": 7442,
  "menu": 31613,
  "meow": 8679,
  "mer": 2304,
  "mered": 8775,
  "merged": 24048,
  "mers": 9476,
  "mest": 29182,
  "met": 3080,
  "mets": 21757,
  "mi": 13612,
  "miah": 22703,
  "mie": 9745,
  "mies": 8023,
  "mighty": 25962,
  "mild": 26370,
  "milk": 22065,
  "mill": 12809,
  "min": 15842,
  "mind": 12362,
  "minded": 13550,
  "mine": 8456,
  "mined": 22496,
  "mineral": 28774,
  "minerals": 24792,
  "ming": 2439,
  "mint": 21652,
  "mione": 24772,
  "mire": 26827,
  "miring": 28951,
  "miss": 22273,
  "missile": 27226,
  "mit": 14432,
  "mith": 24245,
  "mitty": 28336,
  "mix": 21282,
  "mm": 5130,
  "mma": 18602,
  "mmm": 17341,
  "mmy": 31178,
  "mo": 10154,
  "mock": 17009,
  "modern": 25448,
  "mom": 17677,
  "mommy": 24477,
  "mon": 15960,
  "mond": 17151,
  "money": 31179,
  "monster": 27667,
  "moo": 12004,
  "moon": 18601,
  "more": 846,
  "mosp": 11145,
  "most": 3044,
  "mother": 5791,
  "motion": 28950,
  "mouse": 21859,
  "move": 28337,
  "moving": 18221,
  "mower": 22064,
  "muff": 23664,
  "mum": 26826,
  "munk": 8634,
  "mus": 23204,
  "my": 481,
  "myard": 14376,
  "mystery": 23992,
  "n": 110,
  "na": 4376,
  "nah": 31586,
  "nam": 3660,
  "name": 21114,
  "nap": 26371,
  "nat": 29581,
  "navy": 30335,
  "naw": 29583,
  "nc": 26828,
  "nce": 5167,
  "nd": 261,
  "nda": 18338,
  "ndan": 25977,
  "nded": 9739,
  "nder": 662,
  "nders": 20973,
  "nderson": 19899,
  "ndeterred": 19751,
  "ndma": 1374,
  "ndo": 26856,
  "ndon": 27823,
  "ndpa": 2635,
  "ndry": 19614,
  "nds": 12561,
  "ndy": 10629,
  "ne": 6999,
  "neath": 6305,
  "nec": 18335,
  "neck": 15721,
  "necked": 18420,
  "ned": 2493,
  "nee": 25224,
  "need": 22275,
  "needed": 23169,
  "neel": 15990,
  "neeling": 25413,
  "neigh": 17117,
  "ner": 1613,
  "nered": 29582,
  "ners": 6205,
  "nes": 12810,
  "nesday": 4920,
  "ness": 2670,
  "nesses": 17235,
  "nest": 24539,
  "net": 9681,
  "nett": 29339,
  "network": 22202,
  "never": 24890,
  "new": 12493,
  "next": 22274,
  "ney": 3976,
  "ng": 1165,
  "nger": 3691,
  "ngest": 8644,
  "nging": 17709,
  "ngth": 30584,
  "ni": 21467,
  "nic": 2640,
  "nice": 21283,
  "nician": 20071,
  "nicorn": 19058,
  "nie": 6325,
  "nies": 6892,
  "night": 4380,
  "nightmare": 14836,
  "nine": 13517,
  "ning": 986,
  "nings": 11192,
  "nis": 17444,
  "njoy": 6038,
  "nn": 727,
  "nna": 761,
  "nness": 13470,
  "no": 6849,
  "noon": 4870,
  "nor": 13704,
  "normal": 23205,
  "nose": 23948,
  "nosed": 21860,
  "not": 2174,
  "nothing": 27503,
  "noticed": 23772,
  "novel": 13695,
  "now": 12634,
  "nown": 19498,
  "ns": 13613,
  "nt": 346,
  "nter": 15313,
  "nthia": 18090,
  "ntil": 7608,
  "nting": 30424,
  "ntown": 19264,
  "number": 13298,
  "nut": 13381,
  "nuts": 17057,
  "ny": 610,
  "o": 111,
  "oasis": 28340,
  "ob": 567,
  "obb": 28439,
  "obber": 26453,
  "obble": 14348,
  "obby": 17615,
  "ober": 28440,
  "obile": 3746,
  "obo": 26025,
  "obody": 7193,
  "obweb": 15912,
  "oby": 3704,
  "oc": 2445,
  "ocado": 12569,
  "ocados": 24365,
  "occhio": 29203,
  "occo": 13655,
  "ocer": 4082,
  "oceros": 4101,
  "ock": 1079,
  "ocked": 2404,
  "ocket": 22118,
  "ockey": 15473,
  "ocks": 11747,
  "oco": 22955,
  "ocolate": 10763,
  "ocular": 9140,
  "ocus": 17484,
  "od": 11219,
  "odacty": 28727,
  "ode": 17445,
  "odie": 26829,
  "odies": 15442,
  "odore": 18581,
  "ody": 6404,
  "oe": 4714,
  "oebe": 12220,
  "oenix": 25585,
  "oes": 18429,
  "oey": 7284,
  "of": 9137,
  "off": 8462,
  "og": 754,
  "oga": 7543,
  "oger": 8172,
  "oggan": 30523,
  "oggy": 2101,
  "ogn": 4250,
  "ogo": 5773,
  "ogram": 20485,
  "ograph": 18450,
  "ography": 30957,
  "ogue": 23727,
  "oh": 5828,
  "oidable": 26372,
  "oil": 15536,
  "oiled": 16344,
  "oily": 28338,
  "oin": 3180,
  "oink": 17601,
  "oint": 11885,
  "ointed": 12847,
  "oise": 16180,
  "ok": 11516,
  "okay": 10450,
  "oke": 6752,
  "oken": 15843,
  "oko": 15881,
  "ol": 1861,
  "ola": 4353,
  "oland": 23511,
  "olanda": 26989,
  "old": 3871,
  "olds": 18479,
  "ole": 13923,
  "oli": 20221,
  "oliday": 19051,
  "olin": 3429,
  "oline": 6630,
  "olines": 24067,
  "olins": 31491,
  "olk": 13331,
  "oll": 9354,
  "ollen": 8037,
  "olli": 21394,
  "olls": 21468,
  "olly": 1627,
  "olo": 11358,
  "olog": 4512,
  "ologist": 24080,
  "ology": 22171,
  "olph": 11139,
  "olt": 23052,
  "olves": 19787,
  "olyn": 22066,
  "om": 283,
  "oma": 17533,
  "omach": 26863,
  "oman": 2505,
  "omas": 5813,
  "omb": 8171,
  "ombat": 27596,
  "ome": 422,
  "omed": 4235,
  "omeday": 5321,
  "omen": 15228,
  "omeo": 19521,
  "omer": 26399,
  "omers": 13406,
  "omes": 3409,
  "omet": 539,
  "ometer": 29694,
  "omever": 31267,
  "omez": 28421,
  "omi": 13925,
  "omile": 31214,
  "oming": 5731,
  "omino": 20945,
  "ommend": 4508,
  "omobile": 3756,
  "omp": 7990,
  "omped": 16678,
  "oms": 27841,
  "omy": 24553,
  "on": 290,
  "ona": 17375,
  "onation": 30394,
  "once": 24555,
  "ond": 2854,
  "onda": 21022,
  "ondie": 28592,
  "ondon": 27024,
  "one": 508,
  "oned": 10083,
  "onely": 18922,
  "ones": 2462,
  "onest": 2388,
  "oney": 1395,
  "ong": 522,
  "onge": 29054,
  "ongo": 12920,
  "ongrat": 7548,
  "ongrats": 26019,
  "ongratul": 7549,
  "ongratulations": 10555,
  "ongs": 17836,
  "oni": 7526,
  "onia": 26868,
  "onica": 15446,
  "onies": 7370,
  "onight": 11368,
  "oning": 21125,
  "onk": 10883,
  "onked": 26867,
  "only": 25606,
  "onn": 28984,
  "onna": 7584,
  "onnie": 8239,
  "onor": 30393,
  "ons": 1795,
  "onscious": 18280,
  "onse": 8407,
  "onsense": 19546,
  "onsible": 22781,
  "onsider": 26983,
  "ont": 2376,
  "onte": 27007,
  "ontroll": 21925,
  "ony": 2774,
  "onya": 21187,
  "onzo": 28985,
  "oo": 332,
  "ooby": 20022,
  "ooch": 16515,
  "ood": 461,
  "oodle": 12622,
  "oodles": 17612,
  "oof": 2482,
  "oofy": 17859,
  "ooh": 10485,
  "oohoo": 17965,
  "ook": 585,
  "ooka": 28444,
  "ooke": 11863,
  "ooked": 11273,
  "ookie": 22534,
  "ooks": 8413,
  "ooky": 8518,
  "ool": 948,
  "oolish": 15706,
  "ools": 20654,
  "oom": 1341,
  "oomoo": 18193,
  "oomy": 2444,
  "oon": 977,
  "ooo": 13024,
  "oooo": 24915,
  "oop": 2247,
  "ooped": 14239,
  "oops": 19792,
  "oopy": 18470,
  "oor": 8291,
  "oors": 10628,
  "oos": 11712,
  "oose": 2139,
  "oosh": 8143,
  "oot": 8995,
  "ooth": 28952,
  "oovey": 25999,
  "op": 524,
  "opard": 11274,
  "opards": 21697,
  "ope": 2258,
  "oped": 16883,
  "open": 12623,
  "opened": 26448,
  "opera": 12365,
  "operation": 15801,
  "operty": 24938,
  "opes": 7791,
  "oph": 2206,
  "opher": 16191,
  "ophia": 6706,
  "ophie": 4684,
  "ophone": 3779,
  "ophones": 14054,
  "ophy": 18959,
  "opl": 3257,
  "ople": 872,
  "opot": 19277,
  "opotamus": 19596,
  "opp": 20163,
  "opping": 28339,
  "oppy": 2571,
  "ops": 5119,
  "opt": 28431,
  "opy": 18721,
  "or": 303,
  "ora": 6458,
  "orable": 22971,
  "orah": 18810,
  "oral": 5041,
  "orance": 20319,
  "orange": 24561,
  "orant": 12332,
  "orate": 23227,
  "orated": 24562,
  "oration": 21294,
  "oray": 14782,
  "ord": 1739,
  "ordan": 14655,
  "order": 8182,
  "ordinary": 8790,
  "ordon": 17261,
  "ords": 12820,
  "ore": 440,
  "ored": 5541,
  "orence": 20964,
  "ores": 4974,
  "orey": 19625,
  "organ": 15025,
  "organize": 25122,
  "organized": 18887,
  "orget": 13680,
  "orgettable": 13753,
  "ori": 13220,
  "oria": 12075,
  "orian": 28381,
  "orice": 25613,
  "ories": 5069,
  "original": 19880,
  "oring": 7527,
  "orious": 11007,
  "oris": 11201,
  "ork": 2451,
  "orke": 16760,
  "orked": 31233,
  "orking": 7975,
  "orky": 14553,
  "orm": 1570,
  "ormal": 16416,
  "orman": 20057,
  "ormo": 25715,
  "ormous": 2928,
  "orms": 16301,
  "ormy": 15279,
  "orn": 1201,
  "ornado": 11097,
  "orned": 25327,
  "ornness": 13556,
  "orny": 15448,
  "oro": 17829,
  "orothy": 13803,
  "orough": 18000,
  "orra": 23684,
  "orraine": 23917,
  "orrect": 22972,
  "orrow": 2438,
  "orry": 2811,
  "ors": 2173,
  "orse": 8490,
  "orsie": 9189,
  "ort": 865,
  "ortant": 18540,
  "orted": 5224,
  "orter": 7755,
  "orters": 22078,
  "orth": 9915,
  "orthern": 31367,
  "orting": 14078,
  "ortly": 20205,
  "ortoise": 24322,
  "ortunately": 8722,
  "orty": 13578,
  "ory": 2953,
  "os": 1650,
  "osal": 24991,
  "osaur": 2572,
  "osaurus": 14056,
  "osco": 25718,
  "oscope": 7969,
  "oscopes": 24647,
  "ose": 2295,
  "osed": 5371,
  "oser": 25717,
  "oses": 14008,
  "oset": 29169,
  "osh": 25963,
  "osing": 20219,
  "osity": 5551,
  "osp": 10745,
  "ospital": 23117,
  "osquito": 13366,
  "oss": 9923,
  "ossible": 6856,
  "ossom": 10880,
  "ost": 2083,
  "osure": 31464,
  "ot": 299,
  "ota": 28376,
  "otch": 10237,
  "ote": 2669,
  "oted": 19382,
  "otes": 25612,
  "oth": 651,
  "other": 497,
  "othes": 16118,
  "othole": 26925,
  "othy": 9269,
  "oti": 22511,
  "otic": 16237,
  "otion": 9225,
  "otions": 13927,
  "otive": 24560,
  "otle": 31228,
  "oto": 3246,
  "otor": 14545,
  "ots": 8271,
  "ott": 1472,
  "otta": 19297,
  "otte": 8244,
  "otten": 4836,
  "ottie": 14020,
  "ottle": 17935,
  "otto": 27982,
  "otty": 20783,
  "oty": 18530,
  "ou": 274,
  "ouble": 12124,
  "ouch": 6520,
  "ouched": 9256,
  "ouches": 21480,
  "oud": 626,
  "ouette": 28978,
  "oug": 503,
  "ough": 940,
  "ought": 553,
  "oul": 20632,
  "ould": 384,
  "oun": 1634,
  "ounce": 7416,
  "ounced": 7613,
  "ouncing": 21916,
  "ound": 399,
  "ounds": 15193,
  "ount": 1210,
  "ountain": 2053,
  "ounted": 20053,
  "oup": 1521,
  "our": 742,
  "ourage": 15060,
  "ouraged": 8830,
  "ource": 11080,
  "oured": 10177,
  "ouring": 17543,
  "ourn": 2125,
  "ournal": 16417,
  "ours": 3134,
  "oury": 27321,
  "ous": 674,
  "ousand": 11352,
  "ouse": 546,
  "oused": 27415,
  "ousel": 11476,
  "ousine": 25286,
  "ously": 11240,
  "oust": 27832,
  "ousy": 7847,
  "out": 408,
  "outh": 1507,
  "outhed": 28418,
  "outs": 18177,
  "ove": 2090,
  "oved": 5451,
  "over": 8832,
  "overs": 16871,
  "ow": 317,
  "owder": 14938,
  "owed": 2679,
  "owel": 21873,
  "ower": 1535,
  "owered": 23687,
  "owering": 21730,
  "owers": 15399,
  "owing": 10568,
  "owl": 1076,
  "owled": 14650,
  "owledge": 21240,
  "own": 512,
  "owner": 14074,
  "ows": 13616,
  "owsy": 28997,
  "oxygen": 12017,
  "oy": 1005,
  "oya": 31395,
  "oyal": 10842,
  "oyd": 15245,
  "oyed": 31396,
  "oyo": 15246,
  "oys": 5760,
  "ozo": 27811,
  "p": 112,
  "pa": 2557,
  "pac": 27309,
  "pack": 3178,
  "pad": 19500,
  "paint": 31182,
  "painted": 29589,
  "pair": 12914,
  "pan": 9776,
  "panic": 28703,
  "pants": 29588,
  "pany": 22957,
  "papa": 23429,
  "paper": 16233,
  "par": 3761,
  "parable": 10111,
  "parent": 7478,
  "parents": 24416,
  "park": 21861,
  "part": 20307,
  "party": 26577,
  "pas": 31180,
  "pass": 12700,
  "passport": 19970,
  "past": 28953,
  "pasta": 29496,
  "path": 31181,
  "patience": 30339,
  "patient": 29586,
  "patter": 17911,
  "pause": 18603,
  "paw": 27812,
  "pay": 16932,
  "pe": 1514,
  "peace": 18277,
  "pec": 831,
  "pecial": 18730,
  "pecker": 31455,
  "pect": 2285,
  "pected": 896,
  "pecting": 7393,
  "pects": 15601,
  "ped": 5713,
  "pee": 22132,
  "peek": 24348,
  "peep": 31454,
  "pen": 7013,
  "pensive": 14815,
  "people": 10194,
  "pepper": 29805,
  "per": 3873,
  "perate": 17267,
  "perately": 27042,
  "peration": 14557,
  "perer": 23046,
  "perfect": 27044,
  "perfume": 30708,
  "perien": 27043,
  "perienced": 29488,
  "permit": 26581,
  "pers": 12699,
  "persistent": 25467,
  "person": 16859,
  "pes": 3052,
  "pew": 16469,
  "pey": 29804,
  "ph": 1519,
  "phant": 1914,
  "pher": 14133,
  "phew": 11125,
  "phone": 19919,
  "phones": 12862,
  "phony": 26099,
  "pic": 30337,
  "pick": 20627,
  "picking": 23668,
  "pid": 3010,
  "pie": 12035,
  "piece": 17528,
  "pies": 29585,
  "pig": 30336,
  "pile": 26830,
  "pill": 11801,
  "pillow": 25849,
  "pilot": 12463,
  "pin": 22956,
  "pinch": 23667,
  "ping": 14371,
  "pink": 21469,
  "pipe": 18703,
  "piring": 30338,
  "pit": 8862,
  "pitch": 21862,
  "pitched": 14460,
  "pite": 6495,
  "pizza": 26832,
  "pl": 809,
  "place": 4021,
  "placed": 22329,
  "plain": 19635,
  "plaining": 24482,
  "plane": 22110,
  "plash": 5654,
  "play": 4040,
  "player": 30712,
  "playing": 21763,
  "ple": 15537,
  "please": 5524,
  "pled": 19155,
  "pler": 16690,
  "ples": 22276,
  "pling": 18943,
  "plop": 19636,
  "plore": 29088,
  "ploring": 17469,
  "plow": 21708,
  "ploy": 18101,
  "plugs": 23734,
  "po": 8312,
  "pod": 27112,
  "point": 23949,
  "poison": 9419,
  "poke": 11114,
  "pol": 17527,
  "pole": 13639,
  "poles": 16382,
  "police": 22236,
  "polish": 25494,
  "polog": 19245,
  "pologize": 22241,
  "pom": 17822,
  "poms": 29425,
  "pond": 26831,
  "poof": 19126,
  "pool": 16345,
  "pop": 9023,
  "popcorn": 31723,
  "pops": 29587,
  "popular": 30837,
  "port": 2760,
  "portant": 23782,
  "post": 18702,
  "pot": 568,
  "pour": 21653,
  "pow": 17996,
  "powder": 20164,
  "power": 15351,
  "powered": 22896,
  "powerful": 31837,
  "pp": 328,
  "ppa": 11088,
  "pped": 640,
  "pper": 2177,
  "ppers": 5811,
  "ppet": 23230,
  "ppets": 27862,
  "ppie": 31242,
  "ppier": 27861,
  "ppies": 7657,
  "pping": 2138,
  "ppings": 22516,
  "ppity": 29641,
  "pply": 13069,
  "ppo": 16940,
  "pport": 16450,
  "ppost": 28387,
  "ppy": 1352,
  "pr": 8682,
  "pray": 23666,
  "pre": 15961,
  "prep": 31847,
  "press": 22277,
  "pret": 29584,
  "pretend": 30229,
  "pretty": 21863,
  "prevent": 22009,
  "price": 19013,
  "pril": 8994,
  "prin": 7315,
  "print": 10828,
  "prints": 7873,
  "prize": 24891,
  "proof": 20557,
  "pt": 1009,
  "pted": 5095,
  "pter": 16508,
  "ption": 12548,
  "pty": 19012,
  "pu": 27308,
  "pull": 21654,
  "punish": 24541,
  "puppets": 31956,
  "purple": 28341,
  "purr": 28954,
  "pus": 24540,
  "push": 19125,
  "put": 19499,
  "py": 25225,
  "q": 113,
  "qu": 681,
  "qua": 28463,
  "quack": 14470,
  "quake": 4851,
  "que": 1251,
  "quel": 23721,
  "queline": 21509,
  "ques": 26042,
  "quest": 4724,
  "quet": 8382,
  "qui": 31327,
  "quiet": 23474,
  "quin": 31328,
  "quipment": 22324,
  "quired": 22323,
  "quit": 16688,
  "quito": 3685,
  "quitos": 18235,
  "quiz": 16764,
  "quoise": 20806,
  "r": 114,
  "ra": 449,
  "raa": 31273,
  "rable": 25643,
  "rac": 7535,
  "racadabra": 9013,
  "race": 21886,
  "ract": 1945,
  "racted": 9287,
  "ractice": 14758,
  "ractive": 31497,
  "racy": 24293,
  "rador": 26836,
  "rag": 2623,
  "rage": 3636,
  "raged": 5147,
  "ragile": 2755,
  "ragon": 9148,
  "rah": 23984,
  "raid": 2483,
  "rail": 20474,
  "rain": 11745,
  "rainbow": 28734,
  "rained": 22994,
  "raise": 23702,
  "rait": 23985,
  "ralled": 18912,
  "ram": 11665,
  "ran": 25586,
  "rance": 6724,
  "rann": 22279,
  "rannosaurus": 22464,
  "rant": 12319,
  "rap": 9697,
  "raper": 26436,
  "raph": 14014,
  "rare": 24592,
  "ras": 23701,
  "raser": 13327,
  "rass": 2412,
  "rat": 7445,
  "rated": 17236,
  "ration": 30340,
  "rative": 21046,
  "rats": 25964,
  "raught": 24294,
  "raw": 10089,
  "rawberries": 21978,
  "rawberry": 15181,
  "ray": 2783,
  "rays": 10597,
  "rd": 17070,
  "re": 272,
  "rea": 15846,
  "reach": 20772,
  "read": 2092,
  "ready": 4011,
  "reak": 12201,
  "reakable": 21986,
  "real": 24258,
  "really": 30375,
  "ream": 857,
  "reary": 23955,
  "rease": 11087,
  "reat": 4844,
  "reate": 21868,
  "reated": 20773,
  "reathe": 22175,
  "reative": 21201,
  "rec": 4996,
  "reci": 5064,
  "reck": 11529,
  "reckle": 28731,
  "reckles": 14274,
  "recogn": 23810,
  "recognize": 31923,
  "recom": 24904,
  "recommend": 25179,
  "record": 12405,
  "rect": 7707,
  "rected": 25045,
  "red": 1396,
  "redible": 15919,
  "redictable": 17712,
  "redient": 4879,
  "ree": 1018,
  "reece": 29119,
  "reech": 29763,
  "reed": 1227,
  "reek": 4168,
  "reen": 2981,
  "reet": 10929,
  "reeze": 4842,
  "reg": 9444,
  "regret": 19957,
  "regular": 22849,
  "rehend": 30377,
  "rel": 1008,
  "reland": 23268,
  "relax": 24623,
  "release": 14894,
  "reliable": 20657,
  "rell": 29611,
  "rella": 29613,
  "relling": 31207,
  "relly": 27831,
  "rely": 18164,
  "rem": 10444,
  "remain": 21063,
  "remember": 23115,
  "remind": 31754,
  "remove": 23853,
  "ren": 1653,
  "rena": 19921,
  "rence": 14951,
  "rench": 8560,
  "render": 4369,
  "rendo": 30376,
  "rene": 16773,
  "rent": 9777,
  "rents": 28704,
  "reo": 20314,
  "rep": 16816,
  "repair": 25602,
  "repare": 20730,
  "repe": 9421,
  "repeat": 9425,
  "replace": 20315,
  "reply": 31859,
  "request": 17306,
  "rer": 12340,
  "rers": 26860,
  "res": 4320,
  "resc": 29612,
  "rescue": 30232,
  "resh": 18432,
  "resist": 25383,
  "ress": 1011,
  "ressed": 11276,
  "resses": 4931,
  "ressive": 16465,
  "rest": 8107,
  "rested": 18137,
  "restore": 16094,
  "ret": 619,
  "retch": 6912,
  "retched": 13495,
  "rete": 25662,
  "reted": 21867,
  "retruck": 16623,
  "rets": 17767,
  "rett": 14752,
  "retty": 8063,
  "return": 29711,
  "reveal": 19875,
  "revent": 24903,
  "reverse": 8406,
  "rew": 1172,
  "reward": 31416,
  "rework": 3483,
  "rex": 12062,
  "rey": 7709,
  "reya": 10439,
  "reyu": 30815,
  "ri": 319,
  "ria": 20467,
  "riage": 4961,
  "riages": 27339,
  "rial": 21487,
  "rian": 8396,
  "ribbit": 14498,
  "rible": 21129,
  "ric": 3829,
  "ricane": 4574,
  "ricanes": 13948,
  "rice": 10130,
  "riceratops": 26148,
  "rich": 20018,
  "ricia": 15660,
  "rick": 8953,
  "ricket": 13492,
  "rics": 29899,
  "rid": 16346,
  "ride": 24542,
  "ridge": 11560,
  "riding": 28955,
  "rie": 8274,
  "ried": 563,
  "rieda": 26452,
  "riel": 17016,
  "riella": 26408,
  "riend": 356,
  "riendly": 21682,
  "riends": 5775,
  "rients": 21874,
  "rier": 7786,
  "ries": 1551,
  "riest": 25998,
  "riet": 12022,
  "riff": 16820,
  "rified": 18089,
  "rig": 6952,
  "riger": 4367,
  "rigerator": 4368,
  "right": 5120,
  "rightened": 17791,
  "rigued": 7038,
  "rik": 24913,
  "rika": 22515,
  "ril": 25587,
  "rill": 2207,
  "rilled": 29194,
  "rilliant": 2963,
  "rilly": 13863,
  "rily": 8162,
  "rim": 31183,
  "rimp": 11654,
  "rin": 5339,
  "rina": 11115,
  "ring": 5353,
  "rings": 10347,
  "rink": 6680,
  "rinkles": 14222,
  "rinky": 22278,
  "rious": 6943,
  "rip": 13892,
  "ripe": 23440,
  "ris": 8361,
  "rise": 4599,
  "rison": 23206,
  "rist": 15146,
  "rista": 21612,
  "rit": 11957,
  "rition": 26835,
  "rito": 21655,
  "rive": 15546,
  "river": 7026,
  "rivers": 20019,
  "riving": 16186,
  "rize": 19512,
  "rm": 868,
  "rmomet": 4318,
  "rmometer": 4331,
  "rmometers": 17638,
  "rn": 3161,
  "rnest": 24677,
  "rnie": 9381,
  "rnold": 15814,
  "ro": 783,
  "roach": 28481,
  "road": 17091,
  "roar": 14142,
  "rob": 2710,
  "robe": 2744,
  "robes": 10279,
  "roblem": 26562,
  "rock": 16071,
  "rocket": 23479,
  "rocut": 26933,
  "rod": 4474,
  "rodo": 29926,
  "roduce": 24392,
  "roducing": 30723,
  "rof": 23018,
  "rofessor": 24207,
  "roken": 8324,
  "rol": 15508,
  "roll": 13762,
  "rolled": 15361,
  "rolling": 21707,
  "rom": 820,
  "romat": 27944,
  "romise": 7588,
  "romises": 25675,
  "ron": 4019,
  "rons": 8163,
  "ront": 16509,
  "rony": 22704,
  "room": 1522,
  "root": 31356,
  "rop": 13246,
  "rope": 11561,
  "rophone": 3856,
  "rophones": 14344,
  "ropri": 16166,
  "ror": 8969,
  "rosc": 3913,
  "roscope": 3923,
  "rose": 16130,
  "ross": 1662,
  "rossed": 19922,
  "rosty": 6801,
  "rot": 1651,
  "rotect": 17099,
  "rotected": 31465,
  "rough": 8982,
  "round": 530,
  "rounds": 29693,
  "rous": 12621,
  "rove": 16358,
  "rover": 26056,
  "rovide": 24011,
  "row": 1601,
  "rows": 14086,
  "roy": 12231,
  "rr": 5334,
  "rror": 27069,
  "rrr": 6631,
  "rrrr": 15002,
  "rrrrr": 20851,
  "rs": 5802,
  "rsa": 27565,
  "rtle": 31184,
  "ru": 27813,
  "rub": 26373,
  "ruck": 13614,
  "ruct": 24892,
  "rude": 15740,
  "rudgingly": 26374,
  "ruff": 29590,
  "rug": 18911,
  "ruly": 26834,
  "rum": 9802,
  "run": 12363,
  "running": 30880,
  "rup": 7944,
  "rupt": 12184,
  "rupted": 11123,
  "rus": 18245,
  "rush": 26833,
  "ry": 439,
  "ryer": 17019,
  "rying": 22993,
  "ryn": 24591,
  "rystal": 10577,
  "s": 115,
  "sa": 9599,
  "sack": 20767,
  "sad": 28956,
  "safe": 20564,
  "said": 25965,
  "sail": 26375,
  "sal": 24246,
  "salt": 19612,
  "sand": 24248,
  "saur": 28343,
  "saurus": 31967,
  "save": 24247,
  "saw": 9376,
  "saws": 24544,
  "say": 20308,
  "sby": 26839,
  "sc": 1952,
  "scape": 2649,
  "scar": 9405,
  "scare": 18842,
  "scary": 21009,
  "scatter": 24997,
  "scent": 24655,
  "school": 23950,
  "scissors": 29185,
  "score": 17941,
  "scotch": 10333,
  "screen": 8622,
  "scri": 19170,
  "se": 372,
  "sea": 15151,
  "search": 26005,
  "seat": 16876,
  "sect": 17159,
  "section": 27880,
  "sed": 5110,
  "see": 14500,
  "seed": 13093,
  "seeing": 26687,
  "seek": 6137,
  "seem": 29013,
  "seen": 21684,
  "sel": 14715,
  "self": 1081,
  "selfish": 18947,
  "sell": 21131,
  "selor": 27349,
  "sels": 22984,
  "selves": 2923,
  "send": 21656,
  "sened": 29591,
  "separ": 21490,
  "separate": 21632,
  "seph": 9827,
  "sequ": 6645,
  "ser": 2727,
  "sers": 9138,
  "serve": 16968,
  "sery": 11742,
  "ses": 1775,
  "sess": 24581,
  "set": 1877,
  "settle": 27998,
  "seum": 3979,
  "seven": 13523,
  "sey": 9315,
  "seye": 23443,
  "sh": 1372,
  "sha": 21912,
  "shade": 21340,
  "shadow": 8383,
  "shadowing": 13204,
  "shake": 13870,
  "shakes": 23044,
  "shall": 27469,
  "shampoo": 26092,
  "shape": 29793,
  "shaped": 8531,
  "share": 18461,
  "sharing": 24641,
  "sharp": 25706,
  "she": 10063,
  "shelter": 28706,
  "shh": 21913,
  "shhh": 22771,
  "shi": 24640,
  "shield": 21723,
  "shift": 19296,
  "shifter": 29151,
  "shine": 2903,
  "shiny": 31437,
  "ship": 5415,
  "ships": 11897,
  "shirt": 10611,
  "shirts": 17393,
  "shm": 7778,
  "shmallow": 7781,
  "shold": 29794,
  "shoo": 30601,
  "shoot": 12250,
  "shooting": 22636,
  "shop": 10258,
  "shore": 31436,
  "shot": 23754,
  "should": 29792,
  "shrink": 10067,
  "shrug": 24984,
  "shut": 18837,
  "side": 517,
  "sided": 19611,
  "sides": 17678,
  "sie": 9237,
  "sigh": 27814,
  "sight": 26837,
  "sign": 19501,
  "sil": 25588,
  "silence": 28846,
  "silly": 24543,
  "sing": 5484,
  "sister": 19127,
  "sit": 5306,
  "sitter": 10748,
  "sity": 4501,
  "sive": 21657,
  "sively": 28345,
  "six": 13324,
  "size": 31186,
  "sized": 13705,
  "sk": 14227,
  "skating": 21999,
  "skin": 27815,
  "skinned": 31032,
  "skip": 23880,
  "sky": 28344,
  "sl": 12498,
  "slap": 14740,
  "sleep": 24893,
  "slept": 30341,
  "sley": 17752,
  "slide": 18781,
  "slip": 26238,
  "slow": 25966,
  "sm": 6441,
  "small": 23823,
  "smart": 24407,
  "sme": 19749,
  "smelling": 9676,
  "smelly": 26187,
  "smile": 25057,
  "smiling": 31659,
  "smooth": 29289,
  "sn": 8715,
  "snake": 22197,
  "snap": 9147,
  "snip": 20251,
  "snow": 27602,
  "so": 1056,
  "soak": 27444,
  "soap": 25312,
  "soft": 30570,
  "sol": 8216,
  "solut": 9809,
  "solutely": 9954,
  "solve": 16323,
  "solved": 11737,
  "solving": 21052,
  "some": 21115,
  "someone": 27699,
  "somet": 14204,
  "something": 22217,
  "sometimes": 15431,
  "son": 6491,
  "song": 31185,
  "sorry": 9587,
  "sort": 28342,
  "sound": 28957,
  "soup": 29592,
  "sour": 20451,
  "sp": 2443,
  "space": 21180,
  "spaghetti": 28577,
  "spark": 30664,
  "spass": 12272,
  "spe": 15147,
  "spear": 21926,
  "spec": 4826,
  "special": 17790,
  "specially": 4837,
  "speed": 20278,
  "spell": 13631,
  "spicy": 14442,
  "spin": 16419,
  "spired": 31528,
  "spl": 16445,
  "splash": 13518,
  "splat": 25880,
  "split": 19841,
  "spoil": 22152,
  "spoiled": 21747,
  "sponsible": 22795,
  "spoon": 22360,
  "sport": 31527,
  "spot": 26838,
  "spray": 17781,
  "spraying": 27201,
  "spread": 19655,
  "spring": 17946,
  "squ": 18604,
  "square": 30959,
  "squawk": 23145,
  "sque": 17152,
  "squeak": 23606,
  "squeeze": 19724,
  "ss": 559,
  "ssa": 16023,
  "ssage": 26916,
  "sse": 9004,
  "sses": 6050,
  "ssible": 5211,
  "sss": 30481,
  "ssss": 18934,
  "ssst": 27908,
  "ssum": 26915,
  "ssy": 9166,
  "st": 350,
  "stack": 11350,
  "staff": 18255,
  "stage": 15111,
  "stairs": 4118,
  "stal": 10486,
  "stalk": 8419,
  "stance": 15498,
  "stand": 9408,
  "stander": 29647,
  "standing": 21975,
  "stantly": 10148,
  "star": 17450,
  "start": 16567,
  "stay": 17017,
  "stead": 1758,
  "steak": 31250,
  "steal": 26412,
  "stem": 15450,
  "step": 6845,
  "steps": 7599,
  "ster": 1249,
  "sterious": 17479,
  "sters": 5245,
  "stery": 14238,
  "stic": 3752,
  "stick": 7177,
  "sticks": 13087,
  "stified": 27344,
  "stinct": 25625,
  "stir": 27871,
  "stitch": 27872,
  "stomp": 30425,
  "ston": 18436,
  "stone": 15233,
  "stones": 22519,
  "stood": 20180,
  "stool": 24275,
  "stop": 9826,
  "store": 17240,
  "storm": 9073,
  "str": 9483,
  "strawberry": 29008,
  "stream": 15314,
  "stress": 31249,
  "stretch": 22520,
  "stretched": 13617,
  "stri": 4283,
  "strid": 21976,
  "strike": 16084,
  "string": 24276,
  "strip": 31583,
  "stro": 26411,
  "stroke": 27734,
  "strong": 24744,
  "struck": 21587,
  "struction": 25439,
  "study": 28395,
  "stumble": 26879,
  "stupid": 11046,
  "sty": 6660,
  "style": 18664,
  "su": 15443,
  "succeed": 22958,
  "successful": 26840,
  "suffer": 26841,
  "sugar": 20934,
  "sun": 14009,
  "sunrise": 25476,
  "sunset": 28166,
  "sunshine": 30092,
  "supply": 16600,
  "support": 29404,
  "sure": 13433,
  "surf": 25589,
  "surpr": 17446,
  "surprise": 17811,
  "surrender": 10566,
  "sw": 1920,
  "swald": 28001,
  "sweet": 20222,
  "swer": 17483,
  "swered": 22787,
  "swim": 26538,
  "swing": 23288,
  "swish": 26990,
  "sy": 1932,
  "t": 116,
  "ta": 15900,
  "table": 13091,
  "tac": 13247,
  "tag": 21470,
  "tail": 27816,
  "tailed": 25226,
  "tails": 16056,
  "tain": 4956,
  "take": 18161,
  "taker": 15444,
  "taking": 28346,
  "tale": 16872,
  "talk": 11168,
  "talkie": 11875,
  "talkies": 19823,
  "tall": 30342,
  "tap": 16672,
  "taste": 27817,
  "tasting": 16114,
  "tasty": 26843,
  "taxi": 28348,
  "te": 4245,
  "teacher": 28052,
  "tear": 22498,
  "tease": 28051,
  "ted": 463,
  "teen": 10845,
  "tell": 20628,
  "teller": 25967,
  "telling": 25591,
  "ten": 3504,
  "tenance": 25756,
  "ter": 436,
  "tered": 22740,
  "teria": 22990,
  "tering": 26431,
  "term": 27370,
  "tern": 3541,
  "terrible": 25264,
  "ters": 7150,
  "tery": 17762,
  "test": 13214,
  "th": 996,
  "tha": 7506,
  "than": 11619,
  "thank": 4498,
  "thanks": 30732,
  "that": 9303,
  "the": 7211,
  "thed": 22497,
  "thel": 17797,
  "theless": 15722,
  "themed": 27096,
  "then": 18080,
  "ther": 5426,
  "there": 12854,
  "these": 17119,
  "thew": 14692,
  "they": 14923,
  "thily": 30565,
  "thing": 1147,
  "thinking": 28497,
  "this": 9471,
  "thog": 31391,
  "those": 28496,
  "though": 6526,
  "thouse": 26496,
  "threat": 26497,
  "three": 12249,
  "through": 18190,
  "throw": 17545,
  "throwing": 26709,
  "ths": 9379,
  "thud": 16770,
  "thump": 16251,
  "thur": 10559,
  "thy": 1617,
  "ti": 25590,
  "tick": 12283,
  "tide": 30343,
  "tidy": 27311,
  "tie": 12282,
  "tight": 30345,
  "til": 29593,
  "time": 3862,
  "times": 22705,
  "ting": 1152,
  "tings": 31187,
  "tiny": 30346,
  "tired": 31188,
  "tle": 6635,
  "tled": 10700,
  "tles": 13169,
  "tling": 11731,
  "to": 2273,
  "toast": 30656,
  "tock": 8005,
  "tocked": 29838,
  "tocking": 29993,
  "today": 20836,
  "toe": 17778,
  "toed": 14266,
  "toes": 12843,
  "together": 16143,
  "toilet": 25005,
  "tom": 24894,
  "ton": 1556,
  "too": 26376,
  "toot": 13846,
  "toothed": 20721,
  "top": 13140,
  "tor": 21658,
  "touch": 19613,
  "tough": 27310,
  "town": 30344,
  "toy": 19750,
  "toys": 21659,
  "tr": 15692,
  "tra": 19502,
  "tract": 14709,
  "tracted": 29594,
  "tractive": 25481,
  "trade": 27664,
  "traffic": 26727,
  "train": 24896,
  "trap": 24895,
  "tre": 14491,
  "treasure": 19975,
  "treat": 22959,
  "treating": 17358,
  "tree": 16814,
  "trick": 28347,
  "trouble": 30120,
  "truck": 23207,
  "trumpet": 28182,
  "trust": 24176,
  "truth": 24467,
  "try": 20006,
  "ts": 1667,
  "tt": 3287,
  "tta": 21554,
  "tuce": 6543,
  "tug": 26842,
  "ture": 961,
  "tures": 24327,
  "turn": 15105,
  "turned": 21242,
  "tw": 22067,
  "tweet": 13463,
  "twist": 25910,
  "two": 11612,
  "ty": 574,
  "tyard": 16245,
  "tying": 30482,
  "tyle": 13359,
  "u": 117,
  "ua": 15308,
  "uable": 23669,
  "ual": 2675,
  "ually": 2396,
  "uar": 22499,
  "uary": 19871,
  "uate": 23208,
  "ub": 2060,
  "uba": 26995,
  "ubb": 19870,
  "ubbs": 27214,
  "ubby": 3379,
  "ube": 3327,
  "uben": 27499,
  "ubert": 21864,
  "ubrey": 28009,
  "ubs": 15607,
  "ubway": 18745,
  "uby": 31189,
  "uc": 589,
  "ucceed": 18620,
  "uccess": 11642,
  "uccessful": 15882,
  "ucchini": 18724,
  "uce": 2500,
  "uced": 26028,
  "ucet": 3996,
  "uch": 1118,
  "ucial": 30484,
  "ucing": 28445,
  "uck": 628,
  "ucked": 5115,
  "uckily": 6130,
  "uckle": 31310,
  "uckoo": 21505,
  "ucky": 1542,
  "uct": 4975,
  "uctantly": 6273,
  "ucted": 14468,
  "ucting": 23000,
  "uction": 10101,
  "uctive": 20084,
  "ucture": 4438,
  "ucy": 645,
  "ud": 5805,
  "udd": 724,
  "udden": 877,
  "uddenly": 891,
  "uddle": 15459,
  "uddles": 6163,
  "uddy": 1525,
  "ude": 7043,
  "udel": 28958,
  "udence": 24710,
  "uders": 16645,
  "udge": 9819,
  "udged": 8589,
  "udges": 14424,
  "udgie": 30771,
  "udging": 16089,
  "udgingly": 19217,
  "udgy": 25791,
  "udrey": 10846,
  "udson": 31641,
  "udy": 9215,
  "udying": 14427,
  "ue": 433,
  "ued": 1622,
  "ueen": 6879,
  "uel": 7891,
  "uelly": 30458,
  "ues": 5705,
  "uesday": 5073,
  "uess": 7199,
  "uest": 6207,
  "uey": 30457,
  "uff": 952,
  "uffer": 21714,
  "uffin": 7941,
  "uffing": 17250,
  "uffins": 20986,
  "uffle": 29111,
  "uffles": 30558,
  "uffy": 1031,
  "ug": 424,
  "ugar": 9165,
  "ugg": 2300,
  "ugga": 25007,
  "uggage": 4413,
  "ugged": 3984,
  "ugging": 8410,
  "uggish": 25741,
  "uggle": 23517,
  "uggles": 6574,
  "uggling": 28016,
  "uggy": 12262,
  "ught": 23697,
  "ugly": 29673,
  "ugs": 17314,
  "ugust": 24291,
  "uh": 12109,
  "uing": 7191,
  "uis": 20935,
  "uise": 10693,
  "uit": 1125,
  "uitar": 22563,
  "uition": 22120,
  "uits": 18634,
  "uity": 19782,
  "uke": 5986,
  "uki": 20936,
  "uko": 28959,
  "ul": 494,
  "ula": 9633,
  "ulance": 19276,
  "ular": 2199,
  "ulated": 31278,
  "ulator": 26899,
  "ulb": 3510,
  "ule": 14205,
  "uler": 29050,
  "ulet": 19872,
  "ulf": 9536,
  "ulge": 24298,
  "uli": 24935,
  "uliar": 11181,
  "ulif": 3428,
  "uliflower": 13391,
  "ulip": 24594,
  "ull": 744,
  "ulley": 28471,
  "ullia": 31343,
  "ully": 1642,
  "ulner": 24595,
  "ulous": 17243,
  "ulously": 13252,
  "ulp": 7983,
  "ult": 2466,
  "ulted": 18533,
  "ulting": 30466,
  "ults": 6519,
  "ulture": 11474,
  "ulty": 13072,
  "ulu": 3469,
  "ulum": 26443,
  "uly": 6333,
  "um": 490,
  "uman": 29049,
  "umb": 2030,
  "umber": 2122,
  "umbers": 3415,
  "umble": 5268,
  "umbled": 3706,
  "umbles": 11832,
  "umbling": 7291,
  "umbly": 13813,
  "umbo": 14645,
  "umby": 26897,
  "ume": 2682,
  "umed": 10478,
  "umes": 5359,
  "umi": 20793,
  "uming": 23245,
  "umm": 6033,
  "ummer": 4304,
  "ummies": 7241,
  "ummy": 942,
  "umn": 11035,
  "ump": 647,
  "umped": 15600,
  "umpet": 3291,
  "umph": 11576,
  "umphrey": 30873,
  "umpkin": 12486,
  "umpt": 18825,
  "umpty": 23468,
  "umpy": 2066,
  "ums": 18618,
  "umsy": 15155,
  "un": 354,
  "una": 1846,
  "unate": 12464,
  "unately": 5138,
  "uncan": 22521,
  "unch": 1809,
  "unched": 7862,
  "uncher": 24277,
  "unches": 17018,
  "unction": 26413,
  "und": 3007,
  "unday": 4962,
  "under": 7892,
  "understand": 29310,
  "undheit": 27027,
  "undred": 7638,
  "undreds": 19193,
  "une": 5352,
  "unes": 8565,
  "unfreeze": 20468,
  "ung": 2146,
  "unglasses": 21921,
  "ungle": 2986,
  "ungry": 18175,
  "ungy": 24574,
  "unia": 19137,
  "unice": 29648,
  "unior": 11537,
  "unish": 21680,
  "unite": 22084,
  "unities": 12715,
  "unity": 8108,
  "universe": 25626,
  "university": 13580,
  "unk": 2426,
  "unken": 20788,
  "unknown": 19794,
  "unko": 29202,
  "unky": 16304,
  "unlock": 29009,
  "unn": 2856,
  "unnar": 31548,
  "unnel": 3176,
  "unnies": 5729,
  "unny": 1004,
  "uno": 9695,
  "unt": 2114,
  "until": 26997,
  "unty": 25351,
  "uny": 27873,
  "unzel": 21681,
  "up": 2178,
  "uper": 8481,
  "upert": 12454,
  "upid": 9056,
  "upiter": 19552,
  "uppy": 7028,
  "ups": 5170,
  "upt": 9442,
  "upted": 12025,
  "ur": 454,
  "ura": 24897,
  "urance": 19028,
  "urb": 3603,
  "urch": 3858,
  "urches": 27375,
  "ure": 611,
  "ured": 4106,
  "ureen": 18180,
  "ures": 31306,
  "urf": 12919,
  "uri": 12005,
  "uries": 20165,
  "uring": 3731,
  "uriosity": 12135,
  "urious": 7883,
  "urity": 9708,
  "urkey": 3378,
  "url": 23244,
  "urled": 18718,
  "urly": 13865,
  "urn": 795,
  "urniture": 4410,
  "urope": 27897,
  "urora": 23989,
  "urous": 25645,
  "urp": 695,
  "urphy": 19281,
  "urple": 9577,
  "urpr": 741,
  "urpy": 29074,
  "urr": 11880,
  "urra": 30463,
  "urray": 15454,
  "urrender": 8188,
  "urricane": 9828,
  "urround": 26894,
  "urry": 5855,
  "urs": 15551,
  "ursday": 16658,
  "urse": 2425,
  "urt": 784,
  "urtain": 3490,
  "urther": 19035,
  "urtis": 26478,
  "uru": 19763,
  "us": 639,
  "usage": 14047,
  "usages": 24309,
  "usal": 20343,
  "usan": 6200,
  "use": 5958,
  "used": 1794,
  "usely": 19680,
  "uses": 9207,
  "ush": 1836,
  "ushed": 3740,
  "ushes": 9895,
  "ushi": 18282,
  "ushing": 7331,
  "ushion": 23286,
  "ushroom": 12193,
  "ushy": 26988,
  "usia": 3596,
  "usie": 3622,
  "using": 7024,
  "usion": 9759,
  "usions": 18448,
  "usive": 25665,
  "uspecting": 27920,
  "ust": 660,
  "usted": 6657,
  "uster": 8603,
  "ustin": 19402,
  "usting": 15642,
  "ustr": 2723,
  "ustrated": 10750,
  "usty": 7354,
  "usual": 20805,
  "usy": 10672,
  "ut": 320,
  "utation": 24271,
  "utch": 21677,
  "utches": 27340,
  "ute": 2624,
  "uter": 14819,
  "utes": 3759,
  "utey": 29639,
  "uth": 3350,
  "uther": 30419,
  "utist": 24914,
  "uto": 12917,
  "utor": 4247,
  "utt": 21130,
  "utter": 5439,
  "uttered": 10705,
  "uttering": 20087,
  "utters": 25397,
  "utts": 29638,
  "utu": 21875,
  "uxu": 5199,
  "uxury": 15087,
  "uz": 22280,
  "uzu": 23913,
  "uzz": 7300,
  "v": 118,
  "va": 5330,
  "vable": 15901,
  "vably": 26846,
  "val": 8405,
  "vals": 18605,
  "value": 11188,
  "van": 12958,
  "vanilla": 30886,
  "vanish": 15222,
  "vant": 8040,
  "vate": 25968,
  "vation": 15495,
  "vations": 24545,
  "vator": 3613,
  "ve": 351,
  "veal": 4485,
  "ved": 411,
  "vel": 1840,
  "ven": 772,
  "vender": 13047,
  "vene": 24007,
  "vened": 26844,
  "veness": 18010,
  "venge": 12718,
  "venience": 19904,
  "venir": 9416,
  "vent": 1046,
  "vention": 31401,
  "ventually": 2641,
  "venture": 12367,
  "venturous": 25687,
  "venty": 29767,
  "ver": 318,
  "verage": 24570,
  "vere": 14499,
  "vered": 7492,
  "vering": 9913,
  "vern": 21298,
  "vers": 6773,
  "verse": 8359,
  "verty": 24569,
  "very": 349,
  "ves": 1628,
  "vest": 5400,
  "vester": 23974,
  "vet": 4472,
  "vetail": 31591,
  "veterinarian": 22501,
  "vey": 12008,
  "vi": 17153,
  "via": 12678,
  "vice": 4139,
  "victory": 23670,
  "vide": 21471,
  "video": 30979,
  "vie": 11380,
  "vies": 28349,
  "view": 20452,
  "ville": 24249,
  "vin": 6486,
  "vine": 19246,
  "ving": 818,
  "vings": 18246,
  "vious": 11810,
  "vis": 16057,
  "vised": 25227,
  "vision": 4128,
  "visions": 20768,
  "visor": 27670,
  "vite": 26845,
  "vity": 17679,
  "vo": 11020,
  "voc": 29595,
  "voir": 27626,
  "volcano": 31767,
  "von": 22500,
  "vonne": 24204,
  "vor": 12018,
  "vous": 2540,
  "vroom": 6775,
  "vy": 8520,
  "w": 119,
  "wa": 28960,
  "wah": 25229,
  "wait": 19503,
  "wake": 22281,
  "walk": 5428,
  "walking": 28962,
  "wall": 31190,
  "want": 30348,
  "war": 9005,
  "ward": 2366,
  "wards": 4627,
  "ware": 10021,
  "warm": 26847,
  "warming": 25592,
  "warn": 23209,
  "was": 25969,
  "wash": 28961,
  "washer": 3916,
  "washing": 30349,
  "watch": 18336,
  "water": 8716,
  "watering": 27603,
  "wave": 26378,
  "way": 477,
  "ways": 696,
  "we": 2465,
  "weak": 31529,
  "wealthy": 27516,
  "weapon": 25009,
  "wear": 13434,
  "wearing": 30082,
  "web": 3853,
  "wed": 15275,
  "wee": 11666,
  "weed": 6937,
  "weee": 27635,
  "ween": 4829,
  "weet": 3413,
  "weigh": 20839,
  "weight": 23521,
  "weird": 29204,
  "wel": 2351,
  "welcome": 9128,
  "well": 9503,
  "welve": 24669,
  "wen": 10304,
  "wend": 25228,
  "wendolyn": 25532,
  "west": 27818,
  "wh": 5931,
  "whal": 23557,
  "what": 8088,
  "whe": 13215,
  "whee": 18704,
  "wheel": 15139,
  "wheeled": 27663,
  "wheels": 19830,
  "when": 17682,
  "where": 1360,
  "which": 28075,
  "while": 7594,
  "whirr": 29280,
  "whistle": 30776,
  "white": 23315,
  "who": 12555,
  "whoa": 25466,
  "whoo": 24711,
  "whoosh": 13376,
  "why": 9700,
  "wie": 26377,
  "wig": 28350,
  "wild": 21660,
  "wildered": 23622,
  "will": 16446,
  "win": 15496,
  "wind": 20769,
  "wine": 11839,
  "wing": 13299,
  "winged": 25114,
  "wis": 14777,
  "wisdom": 24898,
  "wise": 7966,
  "with": 20309,
  "wk": 7276,
  "wn": 18524,
  "wo": 11093,
  "wolf": 28724,
  "woman": 21116,
  "wonder": 23860,
  "woo": 11104,
  "wood": 17681,
  "woof": 12426,
  "woosh": 31191,
  "wor": 30347,
  "word": 14572,
  "work": 3799,
  "worker": 19562,
  "workers": 24386,
  "working": 9820,
  "world": 31048,
  "worm": 8582,
  "worth": 15189,
  "would": 16510,
  "wow": 12560,
  "wr": 17680,
  "wra": 28351,
  "wrap": 23951,
  "wrapped": 30224,
  "wreck": 17602,
  "ww": 19247,
  "x": 120,
  "xanne": 23952,
  "xed": 28352,
  "xedo": 28864,
  "xible": 2922,
  "xic": 27312,
  "xie": 11193,
  "xious": 26848,
  "xt": 982,
  "xu": 5176,
  "xy": 4240,
  "xygen": 4893,
  "xylophone": 18384,
  "y": 121,
  "ya": 10947,
  "yah": 17302,
  "yal": 2865,
  "yan": 7018,
  "yard": 2340,
  "yards": 18913,
  "yatt": 26849,
  "yay": 15353,
  "yd": 8902,
  "ydia": 10760,
  "ydney": 14339,
  "ye": 3447,
  "year": 4712,
  "years": 7739,
  "yee": 27820,
  "yellow": 20453,
  "yenne": 25593,
  "yer": 12760,
  "yers": 24250,
  "yes": 6911,
  "yesha": 23321,
  "yet": 22282,
  "yield": 10990,
  "ying": 3031,
  "yl": 8507,
  "yla": 11449,
  "ylan": 10831,
  "yle": 9208,
  "yler": 8508,
  "ylie": 14597,
  "ylvia": 13019,
  "ylvie": 21579,
  "ym": 2809,
  "ymbol": 17950,
  "yme": 12427,
  "yna": 31192,
  "yo": 21284,
  "yoga": 25970,
  "yond": 7066,
  "you": 6335,
  "your": 17301,
  "yra": 27819,
  "ys": 15352,
  "yss": 29596,
  "yth": 4792,
  "ythe": 28963,
  "ythm": 4794,
  "yuck": 15590,
  "yum": 13706,
  "yummy": 17237,
  "z": 122,
  "za": 23430,
  "zag": 4193,
  "zagged": 23073,
  "zagging": 26584,
  "zags": 24692,
  "zam": 30350,
  "zan": 23671,
  "zanne": 29597,
  "zap": 27821,
  "ze": 1732,
  "zed": 3284,
  "zee": 24251,
  "zel": 14643,
  "zels": 19504,
  "zen": 5784,
  "zens": 16873,
  "zer": 13729,
  "zero": 12679,
  "zers": 20770,
  "zes": 6222,
  "zi": 17447,
  "zie": 6354,
  "zigzag": 30351,
  "zil": 21285,
  "zing": 5604,
  "zip": 13092,
  "zipped": 31194,
  "ziz": 25594,
  "zo": 17010,
  "zomi": 31195,
  "zoo": 31193,
  "zoom": 7673,
  "zra": 25230,
  "zy": 1209,
  "zz": 1664,
  "zzie": 22575,
  "zzle": 14180,
  "zzled": 25345,
  "zzly": 12290,
  "zzy": 3521,
  "zzz": 14295,
  "{": 123,
  "|": 124,
  "}": 125,
  "~": 126,
  "¡": 161,
  "¢": 162,
  "£": 163,
  "¤": 164,
  "¥": 165,
  "¦": 166,
  "§": 167,
  "¨": 168,
  "©": 169,
  "ª": 170,
  "«": 171,
  "¬": 172,
  "®": 174,
  "¯": 175,
  "°": 176,
  "±": 177,
  "²": 178,
  "³": 179,
  "´": 180,
  "µ": 181,
  "¶": 182,
  "·": 183,
  "¸": 184,
  "¹": 185,
  "º": 186,
  "»": 187,
  "¼": 188,
  "½": 189,
  "¾": 190,
  "¿": 191,
  "À": 192,
  "Á": 193,
  "Â": 194,
  "Â´": 20310,
  "Âł": 18247,
  "ÂłĊ": 24809,
  "Ã": 195,
  "Ã©": 11743,
  "Ã±": 19014,
  "Ã³": 25595,
  "Ä": 196,
  "Å": 197,
  "Æ": 198,
  "Ç": 199,
  "È": 200,
  "É": 201,
  "Ê": 202,
  "Ë": 203,
  "Ì": 204,
  "Í": 205,
  "Î": 206,
  "Ï": 207,
  "Ð": 208,
  "Ñ": 209,
  "Ò": 210,
  "Ó": 211,
  "Ô": 212,
  "Õ": 213,
  "Ö": 214,
  "×": 215,
  "Ø": 216,
  "Ù": 217,
  "Ú": 218,
  "Û": 219,
  "Ü": 220,
  "Ý": 221,
  "Þ": 222,
  "ß": 223,
  "à": 224,
  "á": 225,
  "â": 226,
  "âĢ": 697,
  "âĢ¦": 8993,
  "âĢ¦\"": 22845,
  "âĢ¦.": 30836,
  "âĢ¦âĢĿ": 16384,
  "âĢĬ": 22540,
  "âĢĭ": 23005,
  "âĢĵ": 14904,
  "âĢĶ": 7027,
  "âĢĺ": 12858,
  "âĢĻ": 1315,
  "âĢĻ!": 29790,
  "âĢĻ,": 20499,
  "âĢĻ.": 12158,
  "âĢĻ.âĢĿ": 27465,
  "âĢĻ?âĢĿ": 27977,
  "âĢľ": 1098,
  "âĢĿ": 1095,
  "âĢĿ!": 23269,
  "âĢĿ,": 9095,
  "âĢĿ.": 6069,
  "âĤ¬": 26851,
  "ã": 227,
  "ä": 228,
  "å": 229,
  "æ": 230,
  "ç": 231,
  "è": 232,
  "é": 233,
  "ê": 234,
  "ë": 235,
  "ì": 236,
  "í": 237,
  "î": 238,
  "ï": 239,
  "ð": 240,
  "ñ": 241,
  "ò": 242,
  "ó": 243,
  "ô": 244,
  "õ": 245,
  "ö": 246,
  "÷": 247,
  "ø": 248,
  "ù": 249,
  "ú": 250,
  "û": 251,
  "ü": 252,
  "ý": 253,
  "þ": 254,
  "ÿ": 255,
  "Ā": 0,
  "ā": 1,
  "Ă": 2,
  "ă": 3,
  "Ą": 4,
  "ą": 5,
  "Ć": 6,
  "ć": 7,
  "Ĉ": 8,
  "ĉ": 9,
  "ĉĊ": 31065,
  "Ċ": 10,
  "ċ": 11,
  "Č": 12,
  "č": 13,
  "Ď": 14,
  "ď": 15,
  "Đ": 16,
  "đ": 17,
  "Ē": 18,
  "ē": 19,
  "Ĕ": 20,
  "ĕ": 21,
  "Ė": 22,
  "ė": 23,
  "Ę": 24,
  "ę": 25,
  "Ě": 26,
  "ě": 27,
  "Ĝ": 28,
  "ĝ": 29,
  "Ğ": 30,
  "ğ": 31,
  "Ġ": 32,
  "Ġ!": 23920,
  "Ġ!\"": 21635,
  "Ġ\"": 316,
  "Ġ\"\"": 20017,
  "Ġ\"'": 16239,
  "Ġ\".": 18812,
  "Ġ$": 13754,
  "Ġ&": 20145,
  "Ġ'": 2888,
  "Ġ''": 9823,
  "Ġ(": 12542,
  "Ġ*": 23397,
  "Ġ+": 28876,
  "Ġ,": 16746,
  "Ġ,\"": 26313,
  "Ġ-": 1852,
  "Ġ--": 10109,
  "Ġ.": 13755,
  "Ġ.\"": 28278,
  "Ġ...": 18330,
  "Ġ/": 31066,
  "Ġ0": 22252,
  "Ġ1": 6321,
  "Ġ10": 7702,
  "Ġ100": 13341,
  "Ġ11": 22181,
  "Ġ12": 10922,
  "Ġ123": 16796,
  "Ġ13": 27083,
  "Ġ14": 22827,
  "Ġ15": 13131,
  "Ġ16": 20863,
  "Ġ17": 25404,
  "Ġ18": 19450,
  "Ġ2": 7468,
  "Ġ20": 10868,
  "Ġ200": 25838,
  "Ġ21": 29306,
  "Ġ23": 29307,
  "Ġ25": 16986,
  "Ġ27": 29984,
  "Ġ28": 31688,
  "Ġ3": 2733,
  "Ġ30": 13738,
  "Ġ31": 29215,
  "Ġ32": 29865,
  "Ġ35": 23780,
  "Ġ36": 22154,
  "Ġ37": 29866,
  "Ġ38": 23526,
  "Ġ4": 9082,
  "Ġ40": 19332,
  "Ġ5": 7813,
  "Ġ50": 16722,
  "Ġ555": 24418,
  "Ġ6": 12376,
  "Ġ60": 24764,
  "Ġ7": 12869,
  "Ġ8": 11914,
  "Ġ80": 27637,
  "Ġ9": 10647,
  "Ġ911": 12423,
  "Ġ:": 20146,
  "Ġ<": 27749,
  "Ġ=": 28277,
  "Ġ?": 31067,
  "Ġ?\"": 21444,
  "ĠA": 437,
  "ĠABC": 11171,
  "ĠABCs": 11913,
  "ĠAJ": 24590,
  "ĠAND": 27895,
  "ĠAT": 30460,
  "ĠAWAY": 25265,
  "ĠAaliyah": 23243,
  "ĠAaron": 14137,
  "ĠAb": 5472,
  "ĠAba": 31626,
  "ĠAbb": 12320,
  "ĠAbba": 27641,
  "ĠAbbey": 20718,
  "ĠAbbi": 13886,
  "ĠAbbie": 7341,
  "ĠAbbot": 30061,
  "ĠAbby": 6306,
  "ĠAbe": 19523,
  "ĠAbel": 20853,
  "ĠAbena": 31627,
  "ĠAbi": 7711,
  "ĠAbie": 29267,
  "ĠAbig": 24402,
  "ĠAbigail": 5950,
  "ĠAbigale": 27718,
  "ĠAble": 31270,
  "ĠAbout": 27072,
  "ĠAbove": 17382,
  "ĠAbra": 18661,
  "ĠAbracadabra": 20541,
  "ĠAbraham": 19730,
  "ĠAby": 29034,
  "ĠAc": 8955,
  "ĠAccept": 22402,
  "ĠAccidents": 9357,
  "ĠAce": 19887,
  "ĠAchoo": 8912,
  "ĠAcorn": 14822,
  "ĠAcorns": 18680,
  "ĠAcross": 18490,
  "ĠAct": 31269,
  "ĠActing": 21495,
  "ĠAd": 11382,
  "ĠAda": 12681,
  "ĠAdam": 6758,
  "ĠAdd": 17381,
  "ĠAddie": 18817,
  "ĠAdding": 27893,
  "ĠAddy": 14073,
  "ĠAdel": 29675,
  "ĠAdele": 22741,
  "ĠAdi": 25102,
  "ĠAdorable": 26657,
  "ĠAdri": 24443,
  "ĠAdriana": 30997,
  "ĠAdventure": 13423,
  "ĠAdventures": 20890,
  "ĠAero": 20792,
  "ĠAeroplane": 26891,
  "ĠAeroplanes": 29036,
  "ĠAf": 10477,
  "ĠAfraid": 25450,
  "ĠAfric": 10662,
  "ĠAfrica": 10889,
  "ĠAfrican": 23856,
  "ĠAfter": 1536,
  "ĠAfterward": 14870,
  "ĠAfterwards": 10885,
  "ĠAg": 8785,
  "ĠAgain": 10264,
  "ĠAgatha": 20558,
  "ĠAgent": 16725,
  "ĠAggie": 22991,
  "ĠAgnes": 13750,
  "ĠAh": 15317,
  "ĠAhead": 16122,
  "ĠAhmed": 22651,
  "ĠAidan": 24292,
  "ĠAiden": 14749,
  "ĠAilsa": 31271,
  "ĠAim": 30461,
  "ĠAimee": 19274,
  "ĠAir": 15318,
  "ĠAirport": 29035,
  "ĠAiry": 31836,
  "ĠAisha": 24931,
  "ĠAja": 28422,
  "ĠAk": 23700,
  "ĠAl": 3021,
  "ĠAlan": 10344,
  "ĠAlana": 25751,
  "ĠAlarm": 10311,
  "ĠAlarmy": 30679,
  "ĠAlas": 28598,
  "ĠAlaska": 29227,
  "ĠAlba": 29226,
  "ĠAlbert": 11602,
  "ĠAlby": 29225,
  "ĠAle": 17917,
  "ĠAlec": 20907,
  "ĠAlej": 26714,
  "ĠAlejandro": 29485,
  "ĠAlert": 19797,
  "ĠAless": 30462,
  "ĠAlex": 4964,
  "ĠAlexa": 11464,
  "ĠAlexander": 22208,
  "ĠAlexandra": 22820,
  "ĠAlexis": 26167,
  "ĠAlf": 9889,
  "ĠAlfie": 11775,
  "ĠAlfred": 12867,
  "ĠAlfy": 30029,
  "ĠAli": 7825,
  "ĠAlia": 29224,
  "ĠAlice": 4594,
  "ĠAlicia": 13261,
  "ĠAlina": 16373,
  "ĠAlisa": 28033,
  "ĠAlise": 29875,
  "ĠAlisha": 28034,
  "ĠAlison": 12115,
  "ĠAlissa": 31553,
  "ĠAliya": 24113,
  "ĠAliyah": 29990,
  "ĠAll": 1389,
  "ĠAllan": 21724,
  "ĠAllen": 18019,
  "ĠAlley": 26520,
  "ĠAlli": 22346,
  "ĠAllie": 10455,
  "ĠAlligator": 12191,
  "ĠAlligators": 21414,
  "ĠAllison": 19163,
  "ĠAllow": 27371,
  "ĠAllowed": 13837,
  "ĠAlly": 6384,
  "ĠAlma": 24676,
  "ĠAlmost": 19661,
  "ĠAlone": 29874,
  "ĠAlong": 7514,
  "ĠAlonzo": 30678,
  "ĠAlright": 21551,
  "ĠAlso": 14152,
  "ĠAlthough": 8285,
  "ĠAlvin": 18849,
  "ĠAlways": 5750,
  "ĠAly": 14861,
  "ĠAlyssa": 18885,
  "ĠAm": 5834,
  "ĠAma": 23982,
  "ĠAmal": 28638,
  "ĠAmalia": 29964,
  "ĠAman": 26434,
  "ĠAmanda": 9158,
  "ĠAmar": 29963,
  "ĠAmara": 26604,
  "ĠAmari": 30772,
  "ĠAmaya": 18209,
  "ĠAmazed": 22825,
  "ĠAmazing": 19449,
  "ĠAmazingly": 17114,
  "ĠAmb": 18093,
  "ĠAmber": 9089,
  "ĠAmbi": 27686,
  "ĠAmbulance": 19848,
  "ĠAmeli": 28074,
  "ĠAmelia": 8153,
  "ĠAmelie": 15568,
  "ĠAmen": 11312,
  "ĠAmer": 16946,
  "ĠAmerica": 18509,
  "ĠAmerican": 27677,
  "ĠAmi": 10522,
  "ĠAmie": 14918,
  "ĠAmina": 23314,
  "ĠAmir": 23816,
  "ĠAmira": 19806,
  "ĠAmong": 17796,
  "ĠAmos": 17955,
  "ĠAmy": 824,
  "ĠAn": 5618,
  "ĠAna": 7720,
  "ĠAnabelle": 21780,
  "ĠAnchor": 13635,
  "ĠAncient": 14479,
  "ĠAnd": 717,
  "ĠAnderson": 20963,
  "ĠAndi": 19633,
  "ĠAndre": 29729,
  "ĠAndrea": 16953,
  "ĠAndrew": 9351,
  "ĠAndy": 2914,
  "ĠAneka": 31632,
  "ĠAng": 7375,
  "ĠAngel": 7942,
  "ĠAngela": 12102,
  "ĠAngelica": 22187,
  "ĠAngelina": 17799,
  "ĠAngels": 24419,
  "ĠAngie": 11824,
  "ĠAngry": 21369,
  "ĠAngus": 16647,
  "ĠAni": 31631,
  "ĠAnimal": 8962,
  "ĠAnimals": 9464,
  "ĠAnita": 20088,
  "ĠAnn": 2202,
  "ĠAnna": 890,
  "ĠAnnabel": 13872,
  "ĠAnnabelle": 9765,
  "ĠAnnalise": 25352,
  "ĠAnne": 6512,
  "ĠAnni": 28560,
  "ĠAnnie": 5132,
  "ĠAnnika": 26547,
  "ĠAnny": 18569,
  "ĠAnother": 8398,
  "ĠAnswer": 23550,
  "ĠAnt": 6522,
  "ĠAntar": 22828,
  "ĠAntarctica": 23629,
  "ĠAnthony": 15337,
  "ĠAnto": 25406,
  "ĠAnton": 20092,
  "ĠAntonio": 23906,
  "ĠAntony": 28652,
  "ĠAnts": 15376,
  "ĠAntsy": 22829,
  "ĠAnty": 12119,
  "ĠAnu": 29956,
  "ĠAny": 8706,
  "ĠAnya": 13242,
  "ĠAnybody": 30006,
  "ĠAnyone": 17959,
  "ĠAnything": 11705,
  "ĠAnytime": 14156,
  "ĠApologize": 23983,
  "ĠApp": 8946,
  "ĠApparently": 28689,
  "ĠApplaud": 20406,
  "ĠApplauding": 30164,
  "ĠApple": 10518,
  "ĠAppleby": 29350,
  "ĠApples": 13160,
  "ĠAppreci": 20405,
  "ĠAppreciate": 20914,
  "ĠAppy": 17078,
  "ĠApril": 9778,
  "ĠAr": 8661,
  "ĠAra": 26433,
  "ĠArabic": 29481,
  "ĠArch": 30830,
  "ĠArchie": 13343,
  "ĠArctic": 20872,
  "ĠAre": 4210,
  "ĠArea": 29916,
  "ĠAren": 13048,
  "ĠArf": 22622,
  "ĠAri": 13622,
  "ĠAria": 21419,
  "ĠAriel": 17806,
  "ĠArm": 14259,
  "ĠArmchair": 21423,
  "ĠArmed": 28759,
  "ĠArnie": 20962,
  "ĠArnold": 17079,
  "ĠAround": 15194,
  "ĠArrow": 16649,
  "ĠArrows": 31715,
  "ĠArrr": 18351,
  "ĠArt": 19954,
  "ĠArthur": 11592,
  "ĠArty": 28682,
  "ĠArun": 26202,
  "ĠAry": 26432,
  "ĠArya": 31946,
  "ĠAs": 1335,
  "ĠAsa": 29150,
  "ĠAsh": 6597,
  "ĠAsha": 23498,
  "ĠAshlee": 28653,
  "ĠAshley": 8884,
  "ĠAshtray": 11850,
  "ĠAshy": 21572,
  "ĠAsia": 24983,
  "ĠAsk": 11316,
  "ĠAsked": 12289,
  "ĠAsking": 18368,
  "ĠAslan": 23753,
  "ĠAston": 27372,
  "ĠAstonished": 27745,
  "ĠAstrid": 22992,
  "ĠAt": 1726,
  "ĠAtt": 20060,
  "ĠAttach": 22665,
  "ĠAttractive": 26535,
  "ĠAtty": 26105,
  "ĠAudrey": 11803,
  "ĠAugust": 26014,
  "ĠAunt": 5848,
  "ĠAuntie": 9213,
  "ĠAunty": 21372,
  "ĠAurora": 25642,
  "ĠAustin": 21140,
  "ĠAustr": 17835,
  "ĠAustralia": 18685,
  "ĠAut": 16684,
  "ĠAuto": 15640,
  "ĠAutomobile": 20587,
  "ĠAutumn": 20901,
  "ĠAv": 11830,
  "ĠAva": 6099,
  "ĠAvailable": 21597,
  "ĠAvery": 10963,
  "ĠAvi": 25850,
  "ĠAvocado": 13319,
  "ĠAvocados": 28149,
  "ĠAway": 20027,
  "ĠAx": 21139,
  "ĠAxe": 28815,
  "ĠAxel": 30977,
  "ĠAy": 29033,
  "ĠAya": 22307,
  "ĠAyesha": 26013,
  "ĠAyla": 19273,
  "ĠAziz": 27894,
  "ĠB": 373,
  "ĠBANG": 18928,
  "ĠBBQ": 24924,
  "ĠBEEP": 13779,
  "ĠBIG": 22985,
  "ĠBONG": 29655,
  "ĠBOO": 17537,
  "ĠBOOM": 18325,
  "ĠBa": 9834,
  "ĠBaa": 8725,
  "ĠBaaBaa": 13996,
  "ĠBab": 14897,
  "ĠBaba": 22649,
  "ĠBabba": 30918,
  "ĠBabe": 24461,
  "ĠBabies": 24921,
  "ĠBabs": 24462,
  "ĠBabu": 27172,
  "ĠBaby": 5303,
  "ĠBack": 14320,
  "ĠBacon": 26886,
  "ĠBad": 8109,
  "ĠBaddy": 29311,
  "ĠBadger": 21050,
  "ĠBag": 26884,
  "ĠBagel": 31023,
  "ĠBailey": 12085,
  "ĠBaker": 15281,
  "ĠBaking": 14465,
  "ĠBal": 17536,
  "ĠBalance": 17692,
  "ĠBalancing": 19478,
  "ĠBald": 12558,
  "ĠBaldy": 16278,
  "ĠBall": 6816,
  "ĠBallet": 31669,
  "ĠBallie": 21380,
  "ĠBalloon": 12703,
  "ĠBalloons": 15094,
  "ĠBalls": 21784,
  "ĠBally": 7595,
  "ĠBaloo": 31865,
  "ĠBam": 18616,
  "ĠBambi": 19623,
  "ĠBamboo": 18926,
  "ĠBanana": 14898,
  "ĠBananas": 15401,
  "ĠBand": 15400,
  "ĠBandage": 31838,
  "ĠBandit": 28178,
  "ĠBang": 8080,
  "ĠBank": 28403,
  "ĠBankie": 31969,
  "ĠBao": 24438,
  "ĠBar": 10203,
  "ĠBarb": 13882,
  "ĠBarbara": 17974,
  "ĠBarber": 13267,
  "ĠBarbie": 21401,
  "ĠBark": 10428,
  "ĠBarker": 30859,
  "ĠBarkles": 31753,
  "ĠBarkley": 16730,
  "ĠBarkly": 28710,
  "ĠBarks": 20263,
  "ĠBarky": 7364,
  "ĠBarn": 24920,
  "ĠBarney": 14546,
  "ĠBarny": 26760,
  "ĠBarrel": 21061,
  "ĠBarry": 9295,
  "ĠBart": 17611,
  "ĠBaseball": 26006,
  "ĠBashful": 29656,
  "ĠBasil": 24586,
  "ĠBasket": 27351,
  "ĠBasketball": 14858,
  "ĠBat": 19758,
  "ĠBath": 15909,
  "ĠBathing": 15192,
  "ĠBathrobe": 31845,
  "ĠBaths": 20727,
  "ĠBatman": 26278,
  "ĠBatter": 19266,
  "ĠBatteries": 24814,
  "ĠBattery": 23901,
  "ĠBatty": 23238,
  "ĠBawk": 24922,
  "ĠBaxter": 19390,
  "ĠBe": 2394,
  "ĠBea": 10547,
  "ĠBeach": 26552,
  "ĠBead": 31257,
  "ĠBeak": 12978,
  "ĠBeaky": 7238,
  "ĠBean": 11257,
  "ĠBeanie": 28018,
  "ĠBeans": 18375,
  "ĠBear": 2655,
  "ĠBearBear": 31543,
  "ĠBeara": 28017,
  "ĠBears": 14057,
  "ĠBearsy": 28583,
  "ĠBeary": 13155,
  "ĠBeat": 31526,
  "ĠBeatrice": 13875,
  "ĠBeau": 23777,
  "ĠBeautiful": 19654,
  "ĠBeauty": 27008,
  "ĠBeaver": 16211,
  "ĠBebe": 10468,
  "ĠBebo": 20515,
  "ĠBec": 27881,
  "ĠBecause": 6074,
  "ĠBecca": 12791,
  "ĠBeck": 23776,
  "ĠBecka": 28831,
  "ĠBecky": 8934,
  "ĠBed": 19882,
  "ĠBee": 4831,
  "ĠBeeBee": 22607,
  "ĠBeebee": 15204,
  "ĠBeebo": 23309,
  "ĠBeef": 9343,
  "ĠBeefy": 19690,
  "ĠBeep": 5745,
  "ĠBeepy": 13103,
  "ĠBees": 10791,
  "ĠBeet": 13737,
  "ĠBeetle": 14535,
  "ĠBeetles": 28750,
  "ĠBeezy": 20241,
  "ĠBefore": 5332,
  "ĠBeh": 27513,
  "ĠBehave": 22151,
  "ĠBehaving": 31031,
  "ĠBehind": 6147,
  "ĠBeing": 6055,
  "ĠBel": 12995,
  "ĠBela": 30437,
  "ĠBelieve": 11022,
  "ĠBelieving": 27882,
  "ĠBelinda": 15138,
  "ĠBell": 10088,
  "ĠBella": 2091,
  "ĠBelle": 10192,
  "ĠBelly": 24280,
  "ĠBelong": 27160,
  "ĠBelow": 19971,
  "ĠBelt": 24919,
  "ĠBen": 550,
  "ĠBench": 27391,
  "ĠBendy": 12245,
  "ĠBeneath": 28437,
  "ĠBenita": 26913,
  "ĠBenjamin": 11928,
  "ĠBenji": 16022,
  "ĠBennett": 30479,
  "ĠBennie": 19629,
  "ĠBenny": 2637,
  "ĠBenson": 23248,
  "ĠBer": 14820,
  "ĠBern": 19883,
  "ĠBernard": 22451,
  "ĠBernie": 11783,
  "ĠBerries": 25258,
  "ĠBerry": 8871,
  "ĠBert": 9431,
  "ĠBerta": 24132,
  "ĠBertha": 17895,
  "ĠBertie": 18578,
  "ĠBerty": 20725,
  "ĠBery": 31258,
  "ĠBes": 13439,
  "ĠBeside": 23128,
  "ĠBesides": 14308,
  "ĠBess": 7911,
  "ĠBessie": 4030,
  "ĠBessy": 11072,
  "ĠBest": 15500,
  "ĠBet": 3667,
  "ĠBeth": 6291,
  "ĠBethany": 13377,
  "ĠBetsy": 6637,
  "ĠBetter": 21882,
  "ĠBetty": 3974,
  "ĠBeware": 23778,
  "ĠBeyond": 29018,
  "ĠBi": 29014,
  "ĠBianca": 24283,
  "ĠBiba": 29654,
  "ĠBibi": 8266,
  "ĠBible": 22736,
  "ĠBibo": 10651,
  "ĠBicycle": 24923,
  "ĠBiddy": 24585,
  "ĠBiff": 13223,
  "ĠBig": 4542,
  "ĠBigg": 22298,
  "ĠBigger": 19673,
  "ĠBiggie": 7074,
  "ĠBiggles": 25634,
  "ĠBiggs": 24498,
  "ĠBiggy": 8320,
  "ĠBike": 14287,
  "ĠBikes": 20893,
  "ĠBikey": 22645,
  "ĠBiki": 21492,
  "ĠBiko": 29017,
  "ĠBill": 4553,
  "ĠBillboard": 26160,
  "ĠBillie": 11260,
  "ĠBilly": 1790,
  "ĠBim": 29015,
  "ĠBin": 16683,
  "ĠBing": 20952,
  "ĠBingo": 8534,
  "ĠBini": 22525,
  "ĠBink": 19759,
  "ĠBinks": 29441,
  "ĠBinky": 4581,
  "ĠBinny": 31259,
  "ĠBiny": 30434,
  "ĠBip": 19389,
  "ĠBippy": 23237,
  "ĠBird": 2563,
  "ĠBirdcage": 31538,
  "ĠBirdie": 5911,
  "ĠBirds": 9115,
  "ĠBirdy": 3692,
  "ĠBiri": 24281,
  "ĠBirthday": 6847,
  "ĠBiscuit": 12051,
  "ĠBit": 18710,
  "ĠBite": 18437,
  "ĠBitey": 26720,
  "ĠBiting": 18438,
  "ĠBits": 27353,
  "ĠBitsy": 22661,
  "ĠBitter": 14106,
  "ĠBitty": 14940,
  "ĠBix": 27350,
  "ĠBixby": 31028,
  "ĠBizzy": 21491,
  "ĠBl": 1887,
  "ĠBlack": 9764,
  "ĠBlackbeard": 30026,
  "ĠBlackie": 15212,
  "ĠBlacky": 15092,
  "ĠBlake": 16035,
  "ĠBlanket": 24995,
  "ĠBlast": 28545,
  "ĠBlaze": 15200,
  "ĠBle": 28402,
  "ĠBless": 30435,
  "ĠBlink": 6249,
  "ĠBlinking": 29184,
  "ĠBlinky": 7960,
  "ĠBliss": 31493,
  "ĠBlitzen": 26537,
  "ĠBlo": 30641,
  "ĠBlob": 22785,
  "ĠBlock": 23053,
  "ĠBlocks": 14024,
  "ĠBlondie": 31495,
  "ĠBlood": 13503,
  "ĠBloom": 6913,
  "ĠBloomie": 28095,
  "ĠBlooming": 27093,
  "ĠBloop": 31494,
  "ĠBlop": 29826,
  "ĠBlossom": 15709,
  "ĠBlow": 15471,
  "ĠBlu": 14183,
  "ĠBlue": 2018,
  "ĠBlueberries": 20223,
  "ĠBlueberry": 14832,
  "ĠBluebird": 21920,
  "ĠBluey": 5161,
  "ĠBluie": 25864,
  "ĠBly": 23694,
  "ĠBo": 5414,
  "ĠBoard": 18207,
  "ĠBoat": 9294,
  "ĠBoatie": 25396,
  "ĠBoats": 17562,
  "ĠBoaty": 24704,
  "ĠBob": 706,
  "ĠBobbi": 13981,
  "ĠBobbie": 9565,
  "ĠBobble": 24951,
  "ĠBobby": 2587,
  "ĠBobo": 1362,
  "ĠBobsey": 31335,
  "ĠBodi": 25786,
  "ĠBody": 19445,
  "ĠBogo": 29016,
  "ĠBoing": 22611,
  "ĠBola": 27352,
  "ĠBolt": 30438,
  "ĠBon": 14105,
  "ĠBone": 17691,
  "ĠBones": 7210,
  "ĠBongo": 14347,
  "ĠBonnie": 9468,
  "ĠBonny": 22432,
  "ĠBono": 21810,
  "ĠBonzo": 31818,
  "ĠBoo": 5449,
  "ĠBook": 14896,
  "ĠBooks": 9454,
  "ĠBooky": 24282,
  "ĠBoom": 9126,
  "ĠBoomer": 27124,
  "ĠBoon": 31256,
  "ĠBoop": 19622,
  "ĠBoot": 16149,
  "ĠBoots": 16544,
  "ĠBop": 6215,
  "ĠBoppy": 24583,
  "ĠBoring": 19140,
  "ĠBoris": 13250,
  "ĠBorrow": 24582,
  "ĠBorrowing": 29469,
  "ĠBosco": 27883,
  "ĠBoss": 26170,
  "ĠBossy": 11923,
  "ĠBot": 21685,
  "ĠBoth": 5506,
  "ĠBottle": 20470,
  "ĠBoun": 4484,
  "ĠBounce": 5085,
  "ĠBouncer": 25774,
  "ĠBouncey": 19678,
  "ĠBouncing": 14800,
  "ĠBouncy": 5953,
  "ĠBow": 4477,
  "ĠBowing": 30725,
  "ĠBowl": 18531,
  "ĠBows": 28620,
  "ĠBowser": 20237,
  "ĠBox": 11806,
  "ĠBoxie": 20699,
  "ĠBoxy": 18568,
  "ĠBoy": 11128,
  "ĠBoys": 21132,
  "ĠBr": 2747,
  "ĠBra": 7915,
  "ĠBrad": 10144,
  "ĠBradley": 18220,
  "ĠBrady": 14723,
  "ĠBrain": 10012,
  "ĠBrainy": 18216,
  "ĠBramble": 28587,
  "ĠBrandon": 31699,
  "ĠBrandy": 14630,
  "ĠBrave": 11490,
  "ĠBraveheart": 21410,
  "ĠBravely": 24149,
  "ĠBravo": 20400,
  "ĠBray": 23781,
  "ĠBrayden": 25919,
  "ĠBrazil": 21388,
  "ĠBre": 16189,
  "ĠBread": 17074,
  "ĠBreak": 18927,
  "ĠBreakfast": 27695,
  "ĠBreaking": 22226,
  "ĠBreathe": 26007,
  "ĠBree": 5908,
  "ĠBreeze": 23236,
  "ĠBreezy": 10069,
  "ĠBrenda": 20423,
  "ĠBrendan": 28188,
  "ĠBrent": 28404,
  "ĠBrett": 17453,
  "ĠBri": 16120,
  "ĠBria": 24795,
  "ĠBrian": 9178,
  "ĠBrianna": 28186,
  "ĠBrick": 19267,
  "ĠBricks": 27671,
  "ĠBricky": 31851,
  "ĠBrid": 30671,
  "ĠBridge": 18650,
  "ĠBridget": 18964,
  "ĠBrie": 24584,
  "ĠBrig": 25363,
  "ĠBright": 12741,
  "ĠBrighty": 28586,
  "ĠBrigitt": 29475,
  "ĠBrilliant": 20641,
  "ĠBring": 12384,
  "ĠBritney": 24673,
  "ĠBritt": 25746,
  "ĠBro": 9542,
  "ĠBroc": 20563,
  "ĠBroccoli": 10363,
  "ĠBrock": 28700,
  "ĠBrody": 20875,
  "ĠBroken": 22737,
  "ĠBrooke": 12293,
  "ĠBroom": 18005,
  "ĠBroomy": 21256,
  "ĠBrother": 11153,
  "ĠBrown": 2947,
  "ĠBrownie": 6224,
  "ĠBrowny": 16533,
  "ĠBrrr": 24370,
  "ĠBru": 24369,
  "ĠBruce": 10119,
  "ĠBruno": 10481,
  "ĠBrush": 10249,
  "ĠBrushing": 29869,
  "ĠBrushy": 16047,
  "ĠBry": 16121,
  "ĠBryan": 22224,
  "ĠBrynn": 26256,
  "ĠBu": 2302,
  "ĠBub": 8583,
  "ĠBubb": 7629,
  "ĠBubba": 8315,
  "ĠBubble": 12356,
  "ĠBubbles": 4596,
  "ĠBubbly": 15822,
  "ĠBubby": 16895,
  "ĠBubu": 9322,
  "ĠBuck": 13581,
  "ĠBucket": 24451,
  "ĠBuckle": 15832,
  "ĠBucky": 16018,
  "ĠBud": 14240,
  "ĠBudd": 26885,
  "ĠBuddha": 31951,
  "ĠBuddy": 1590,
  "ĠBuffy": 19022,
  "ĠBug": 5629,
  "ĠBuggly": 31634,
  "ĠBuggy": 6667,
  "ĠBugs": 12538,
  "ĠBugsy": 29270,
  "ĠBuild": 16840,
  "ĠBuilder": 30134,
  "ĠBuilding": 20902,
  "ĠBul": 23444,
  "ĠBulb": 17760,
  "ĠBulbs": 25495,
  "ĠBulby": 25174,
  "ĠBull": 11640,
  "ĠBulls": 29369,
  "ĠBully": 23445,
  "ĠBumble": 13357,
  "ĠBumblebee": 25859,
  "ĠBump": 16570,
  "ĠBumpy": 8257,
  "ĠBun": 9388,
  "ĠBunBun": 17415,
  "ĠBunn": 23695,
  "ĠBunnie": 30193,
  "ĠBunnies": 21306,
  "ĠBunny": 2403,
  "ĠBunty": 27354,
  "ĠBurn": 20181,
  "ĠBurt": 11891,
  "ĠBury": 14241,
  "ĠBurying": 27655,
  "ĠBus": 12812,
  "ĠBusby": 25469,
  "ĠBush": 17452,
  "ĠBushy": 20904,
  "ĠBuster": 9101,
  "ĠBusy": 30436,
  "ĠBut": 538,
  "ĠButch": 21144,
  "ĠButter": 9088,
  "ĠButtercup": 28125,
  "ĠButterflies": 14842,
  "ĠButterfly": 13669,
  "ĠButterscotch": 27123,
  "ĠButton": 10840,
  "ĠButtons": 12969,
  "ĠBuy": 19056,
  "ĠBuzz": 3620,
  "ĠBuzzby": 30698,
  "ĠBuzzer": 29238,
  "ĠBuzzette": 28042,
  "ĠBuzzy": 4544,
  "ĠBy": 6255,
  "ĠBye": 6239,
  "ĠBzzz": 28405,
  "ĠC": 776,
  "ĠCAT": 31354,
  "ĠCAW": 24010,
  "ĠCD": 9757,
  "ĠCDs": 16156,
  "ĠCJ": 31349,
  "ĠCRA": 20042,
  "ĠCRACK": 24484,
  "ĠCRASH": 25510,
  "ĠCabby": 27939,
  "ĠCable": 12470,
  "ĠCacky": 15555,
  "ĠCact": 10917,
  "ĠCacti": 16331,
  "ĠCactus": 12279,
  "ĠCactuses": 27623,
  "ĠCacty": 18451,
  "ĠCafe": 25673,
  "ĠCaitlin": 31355,
  "ĠCake": 10401,
  "ĠCakey": 20568,
  "ĠCal": 12077,
  "ĠCaleb": 13329,
  "ĠCalendar": 25297,
  "ĠCali": 22866,
  "ĠCall": 11814,
  "ĠCallie": 14200,
  "ĠCally": 8913,
  "ĠCalm": 17321,
  "ĠCalvin": 21600,
  "ĠCam": 15115,
  "ĠCamel": 31833,
  "ĠCami": 17090,
  "ĠCamila": 30920,
  "ĠCamilla": 23601,
  "ĠCammy": 9594,
  "ĠCamp": 15461,
  "ĠCan": 1123,
  "ĠCana": 27964,
  "ĠCanada": 15510,
  "ĠCand": 13497,
  "ĠCandace": 30891,
  "ĠCandi": 25860,
  "ĠCandice": 24165,
  "ĠCandle": 19711,
  "ĠCandles": 19587,
  "ĠCandy": 9537,
  "ĠCane": 16523,
  "ĠCanny": 20211,
  "ĠCap": 27937,
  "ĠCappy": 31352,
  "ĠCaptain": 8979,
  "ĠCar": 5991,
  "ĠCara": 6841,
  "ĠCarby": 25798,
  "ĠCard": 16825,
  "ĠCardboard": 27191,
  "ĠCards": 24958,
  "ĠCardy": 22018,
  "ĠCare": 9806,
  "ĠCareful": 17733,
  "ĠCarefully": 11102,
  "ĠCareless": 26217,
  "ĠCari": 8189,
  "ĠCaring": 21706,
  "ĠCarl": 4479,
  "ĠCarla": 9705,
  "ĠCarley": 15336,
  "ĠCarli": 24393,
  "ĠCarlie": 19800,
  "ĠCarlos": 12180,
  "ĠCarlton": 30726,
  "ĠCarly": 10187,
  "ĠCarmen": 27430,
  "ĠCaro": 25797,
  "ĠCarol": 10706,
  "ĠCarolina": 27138,
  "ĠCaroline": 11605,
  "ĠCarpet": 25296,
  "ĠCarrie": 10319,
  "ĠCarro": 26182,
  "ĠCarrot": 10307,
  "ĠCarrots": 15339,
  "ĠCarry": 15240,
  "ĠCars": 9167,
  "ĠCarson": 30014,
  "ĠCart": 27938,
  "ĠCarter": 22612,
  "ĠCartoons": 26477,
  "ĠCarty": 14628,
  "ĠCas": 26931,
  "ĠCase": 31350,
  "ĠCasey": 15705,
  "ĠCasper": 18627,
  "ĠCass": 11590,
  "ĠCassandra": 28148,
  "ĠCassie": 13998,
  "ĠCassy": 17510,
  "ĠCastle": 17322,
  "ĠCat": 2321,
  "ĠCatch": 11579,
  "ĠCatching": 27511,
  "ĠCatcy": 31521,
  "ĠCate": 12638,
  "ĠCaterpillar": 13530,
  "ĠCaterpillars": 23017,
  "ĠCatherine": 19154,
  "ĠCathy": 6768,
  "ĠCatie": 16254,
  "ĠCato": 30529,
  "ĠCatrina": 23519,
  "ĠCats": 9906,
  "ĠCattie": 30663,
  "ĠCatty": 6223,
  "ĠCaty": 15810,
  "ĠCauliflower": 14945,
  "ĠCautiously": 20203,
  "ĠCave": 20202,
  "ĠCaw": 16827,
  "ĠCe": 11383,
  "ĠCec": 18539,
  "ĠCece": 14531,
  "ĠCecil": 24481,
  "ĠCecilia": 23385,
  "ĠCedric": 23016,
  "ĠCee": 13761,
  "ĠCeeCee": 23130,
  "ĠCeiling": 23121,
  "ĠCel": 24957,
  "ĠCelebr": 21803,
  "ĠCelebrate": 26658,
  "ĠCelebrating": 22246,
  "ĠCelery": 12769,
  "ĠCeleste": 17885,
  "ĠCelia": 13960,
  "ĠCelina": 31004,
  "ĠCeline": 22548,
  "ĠCell": 10243,
  "ĠCells": 22631,
  "ĠCelly": 12589,
  "ĠCereal": 14946,
  "ĠCh": 1833,
  "ĠChad": 16139,
  "ĠChai": 29180,
  "ĠChain": 19547,
  "ĠChair": 14656,
  "ĠChairs": 26987,
  "ĠChairy": 15199,
  "ĠChalk": 13367,
  "ĠChalky": 16492,
  "ĠChallenge": 31488,
  "ĠChamber": 27488,
  "ĠChamp": 27487,
  "ĠChange": 18281,
  "ĠChanging": 30638,
  "ĠChant": 23050,
  "ĠChantelle": 25520,
  "ĠChar": 10713,
  "ĠCharl": 24652,
  "ĠCharlene": 26111,
  "ĠCharles": 11755,
  "ĠCharley": 17966,
  "ĠCharli": 30195,
  "ĠCharlie": 5136,
  "ĠCharlotte": 9072,
  "ĠCharly": 29353,
  "ĠCharm": 24651,
  "ĠCharming": 22580,
  "ĠChase": 18744,
  "ĠChatter": 22782,
  "ĠChatty": 17626,
  "ĠChe": 5438,
  "ĠCheap": 16150,
  "ĠCheating": 17866,
  "ĠCheck": 29266,
  "ĠChee": 10819,
  "ĠCheeky": 29951,
  "ĠCheep": 20852,
  "ĠCheer": 22821,
  "ĠCheerful": 24836,
  "ĠCheers": 29949,
  "ĠCheery": 30758,
  "ĠCheese": 10988,
  "ĠCheesy": 28064,
  "ĠChef": 20540,
  "ĠChel": 16425,
  "ĠChela": 30759,
  "ĠChelsea": 16744,
  "ĠCher": 9935,
  "ĠCherie": 30760,
  "ĠCherries": 23112,
  "ĠCherry": 10616,
  "ĠCheryl": 18983,
  "ĠChess": 7725,
  "ĠChest": 25294,
  "ĠChester": 17953,
  "ĠChestnut": 30199,
  "ĠChet": 23546,
  "ĠChew": 6247,
  "ĠChewing": 19808,
  "ĠChewy": 7669,
  "ĠCheyenne": 29950,
  "ĠChick": 8503,
  "ĠChicken": 14634,
  "ĠChickens": 22398,
  "ĠChickie": 12083,
  "ĠChicky": 5519,
  "ĠChico": 21736,
  "ĠChief": 23508,
  "ĠChika": 23051,
  "ĠChild": 20062,
  "ĠChildren": 14795,
  "ĠChilly": 26986,
  "ĠChime": 31487,
  "ĠChimney": 21350,
  "ĠChina": 12904,
  "ĠChinese": 21006,
  "ĠChinu": 29181,
  "ĠChip": 9404,
  "ĠChipmunk": 25826,
  "ĠChipper": 22783,
  "ĠChippy": 11357,
  "ĠChips": 30637,
  "ĠChirp": 7129,
  "ĠChirpie": 26193,
  "ĠChirpy": 2379,
  "ĠChloe": 6433,
  "ĠChloÃ©": 20371,
  "ĠChoco": 23509,
  "ĠChocolate": 12841,
  "ĠChomp": 11340,
  "ĠChomps": 31772,
  "ĠChompy": 19965,
  "ĠChoo": 10654,
  "ĠChoose": 14182,
  "ĠChoosing": 27137,
  "ĠChop": 23765,
  "ĠChoppy": 23766,
  "ĠChr": 5974,
  "ĠChris": 7476,
  "ĠChrissy": 23558,
  "ĠChrist": 6859,
  "ĠChristina": 21785,
  "ĠChristine": 20093,
  "ĠChristmas": 7012,
  "ĠChristopher": 18869,
  "ĠChrystal": 24038,
  "ĠChubbs": 28542,
  "ĠChubby": 17938,
  "ĠChuck": 11339,
  "ĠChuckles": 30052,
  "ĠChucky": 29822,
  "ĠChug": 15295,
  "ĠChurch": 17329,
  "ĠCiara": 25295,
  "ĠCici": 8755,
  "ĠCilla": 27427,
  "ĠCind": 19905,
  "ĠCinderella": 26279,
  "ĠCindi": 25143,
  "ĠCindy": 7277,
  "ĠCippy": 30530,
  "ĠCircle": 9180,
  "ĠCircles": 24316,
  "ĠCircus": 22754,
  "ĠCity": 22326,
  "ĠCl": 4440,
  "ĠClaire": 6671,
  "ĠClancy": 29924,
  "ĠClang": 23534,
  "ĠClap": 13016,
  "ĠClapping": 18128,
  "ĠClappy": 21363,
  "ĠClar": 12865,
  "ĠClara": 5520,
  "ĠClarabelle": 23354,
  "ĠClare": 10920,
  "ĠClarence": 22207,
  "ĠClarice": 20886,
  "ĠClarissa": 15829,
  "ĠClarisse": 27645,
  "ĠClass": 18969,
  "ĠClaude": 30719,
  "ĠClaudia": 18560,
  "ĠClaus": 10488,
  "ĠClaw": 11555,
  "ĠClaws": 13479,
  "ĠClay": 10132,
  "ĠClayby": 31745,
  "ĠCle": 8302,
  "ĠClean": 9488,
  "ĠCleaning": 10812,
  "ĠCleanliness": 30023,
  "ĠCleany": 29314,
  "ĠClear": 19195,
  "ĠClementine": 22549,
  "ĠCleo": 13598,
  "ĠClever": 16428,
  "ĠClick": 19063,
  "ĠCliff": 17039,
  "ĠClifford": 21620,
  "ĠClimb": 9632,
  "ĠClimbing": 11594,
  "ĠClip": 29923,
  "ĠClive": 20351,
  "ĠClock": 14625,
  "ĠCloe": 20692,
  "ĠClose": 9487,
  "ĠClosed": 21364,
  "ĠCloset": 31589,
  "ĠClosing": 31588,
  "ĠCloth": 28054,
  "ĠClothes": 17112,
  "ĠCloud": 8925,
  "ĠClouds": 14878,
  "ĠCloudy": 13266,
  "ĠClover": 14761,
  "ĠClown": 11736,
  "ĠClowns": 23867,
  "ĠClub": 10281,
  "ĠCluck": 15297,
  "ĠClucky": 14115,
  "ĠClumsy": 15929,
  "ĠClyde": 17468,
  "ĠCo": 4385,
  "ĠCoCo": 26587,
  "ĠCoach": 24391,
  "ĠCoal": 9432,
  "ĠCoaly": 19691,
  "ĠCoat": 30716,
  "ĠCobweb": 17248,
  "ĠCobwebs": 19846,
  "ĠCoby": 9813,
  "ĠCoco": 5080,
  "ĠCocoa": 10665,
  "ĠCody": 14334,
  "ĠCoffee": 10527,
  "ĠCoin": 28478,
  "ĠCoins": 23801,
  "ĠCol": 12144,
  "ĠCold": 18626,
  "ĠCole": 14333,
  "ĠColey": 22374,
  "ĠColin": 10479,
  "ĠColl": 18858,
  "ĠCollar": 31879,
  "ĠCollect": 29437,
  "ĠCollecting": 25505,
  "ĠColor": 16489,
  "ĠColorful": 19475,
  "ĠColors": 15342,
  "ĠColt": 30059,
  "ĠCom": 13097,
  "ĠComb": 19634,
  "ĠCome": 2253,
  "ĠComet": 9905,
  "ĠComets": 19580,
  "ĠComfort": 16998,
  "ĠComfy": 26240,
  "ĠComing": 24009,
  "ĠCommy": 20887,
  "ĠComp": 10585,
  "ĠCompassion": 26221,
  "ĠCompassionate": 16159,
  "ĠCompetitive": 25451,
  "ĠComplaining": 25113,
  "ĠComplete": 28713,
  "ĠComputer": 16158,
  "ĠCompy": 15995,
  "ĠCon": 12247,
  "ĠCone": 21155,
  "ĠConfused": 18314,
  "ĠCongratulations": 13897,
  "ĠConnie": 14350,
  "ĠConnor": 15263,
  "ĠConor": 27640,
  "ĠConstruction": 26234,
  "ĠCont": 12899,
  "ĠContent": 30069,
  "ĠContest": 13514,
  "ĠCony": 31351,
  "ĠCoo": 19535,
  "ĠCook": 8556,
  "ĠCookie": 12336,
  "ĠCookies": 10556,
  "ĠCooking": 14271,
  "ĠCool": 16461,
  "ĠCooler": 21618,
  "ĠCooly": 28795,
  "ĠCoop": 15645,
  "ĠCooper": 17361,
  "ĠCop": 12230,
  "ĠCopper": 6815,
  "ĠCor": 21896,
  "ĠCora": 12530,
  "ĠCoral": 21156,
  "ĠCord": 13733,
  "ĠCordy": 27708,
  "ĠCorey": 22327,
  "ĠCorin": 31909,
  "ĠCorn": 14618,
  "ĠCornelius": 25872,
  "ĠCorny": 18185,
  "ĠCory": 14548,
  "ĠCos": 26055,
  "ĠCosmo": 28254,
  "ĠCott": 19774,
  "ĠCotton": 20912,
  "ĠCouch": 30532,
  "ĠCould": 10222,
  "ĠCount": 11762,
  "ĠCounting": 13971,
  "ĠCountry": 31784,
  "ĠCour": 23478,
  "ĠCourage": 23015,
  "ĠCourt": 24506,
  "ĠCourtney": 25529,
  "ĠCover": 24390,
  "ĠCow": 7764,
  "ĠCowboy": 28671,
  "ĠCowie": 23571,
  "ĠCows": 17645,
  "ĠCowy": 14303,
  "ĠCozy": 10998,
  "ĠCr": 7857,
  "ĠCra": 6193,
  "ĠCrab": 7304,
  "ĠCrabbie": 13746,
  "ĠCrabby": 9520,
  "ĠCrabs": 19456,
  "ĠCrack": 16589,
  "ĠCraig": 19681,
  "ĠCrane": 10232,
  "ĠCranes": 31696,
  "ĠCranky": 27591,
  "ĠCrash": 15569,
  "ĠCraw": 13820,
  "ĠCrawl": 15627,
  "ĠCrawling": 25118,
  "ĠCrawly": 25862,
  "ĠCray": 14141,
  "ĠCrayon": 19100,
  "ĠCrayons": 18584,
  "ĠCrazy": 14030,
  "ĠCre": 22547,
  "ĠCream": 10610,
  "ĠCreamy": 31759,
  "ĠCreating": 28236,
  "ĠCreative": 23730,
  "ĠCreature": 28825,
  "ĠCreek": 27428,
  "ĠCri": 27936,
  "ĠCricket": 14905,
  "ĠCrickets": 30102,
  "ĠCried": 30528,
  "ĠCris": 27590,
  "ĠCrispy": 21962,
  "ĠCrissy": 31697,
  "ĠCro": 8085,
  "ĠCroak": 26198,
  "ĠCroaky": 23575,
  "ĠCroc": 17047,
  "ĠCrocky": 14392,
  "ĠCroco": 11835,
  "ĠCrocodile": 10127,
  "ĠCrocodiles": 17963,
  "ĠCross": 13149,
  "ĠCrow": 17467,
  "ĠCrown": 24114,
  "ĠCrows": 26932,
  "ĠCrunch": 20250,
  "ĠCrusty": 9983,
  "ĠCry": 29082,
  "ĠCrying": 27429,
  "ĠCrystal": 11577,
  "ĠCub": 16826,
  "ĠCubby": 24008,
  "ĠCube": 11400,
  "ĠCubey": 13164,
  "ĠCubie": 19981,
  "ĠCubs": 31353,
  "ĠCuckoo": 29731,
  "ĠCudd": 23262,
  "ĠCuddle": 21897,
  "ĠCuddles": 6253,
  "ĠCuddly": 25172,
  "ĠCup": 13362,
  "ĠCupboard": 23876,
  "ĠCupcake": 24769,
  "ĠCupid": 28480,
  "ĠCuppy": 15915,
  "ĠCuriosity": 12590,
  "ĠCurious": 9297,
  "ĠCuriously": 19689,
  "ĠCurly": 14866,
  "ĠCurry": 30531,
  "ĠCurtain": 29083,
  "ĠCurtis": 29732,
  "ĠCushion": 27940,
  "ĠCut": 9438,
  "ĠCute": 28477,
  "ĠCutie": 20099,
  "ĠCutter": 28479,
  "ĠCutting": 18306,
  "ĠCutty": 26212,
  "ĠCy": 17466,
  "ĠCynthia": 20736,
  "ĠCyril": 27199,
  "ĠD": 670,
  "ĠDAD": 31325,
  "ĠDING": 23719,
  "ĠDJ": 23003,
  "ĠDO": 16627,
  "ĠDONG": 18415,
  "ĠDVD": 11894,
  "ĠDVDs": 21599,
  "ĠDa": 26461,
  "ĠDab": 31318,
  "ĠDad": 1296,
  "ĠDada": 19645,
  "ĠDadda": 26964,
  "ĠDaddy": 2360,
  "ĠDadu": 30593,
  "ĠDahlia": 23255,
  "ĠDaisy": 1606,
  "ĠDale": 15195,
  "ĠDalia": 27924,
  "ĠDam": 23718,
  "ĠDan": 3877,
  "ĠDana": 17337,
  "ĠDance": 13626,
  "ĠDancer": 14219,
  "ĠDancing": 10715,
  "ĠDancy": 24075,
  "ĠDandy": 20347,
  "ĠDane": 29069,
  "ĠDanger": 12217,
  "ĠDangerous": 18402,
  "ĠDani": 12594,
  "ĠDaniel": 8961,
  "ĠDaniella": 19208,
  "ĠDanielle": 17736,
  "ĠDanni": 30709,
  "ĠDanny": 5029,
  "ĠDany": 31320,
  "ĠDaphne": 23472,
  "ĠDar": 17319,
  "ĠDara": 6586,
  "ĠDarcy": 28784,
  "ĠDare": 6004,
  "ĠDaring": 29070,
  "ĠDark": 13306,
  "ĠDarla": 30507,
  "ĠDarlene": 27413,
  "ĠDarling": 26267,
  "ĠDarren": 25134,
  "ĠDarryl": 27414,
  "ĠDash": 11520,
  "ĠDasher": 23471,
  "ĠDaughter": 19279,
  "ĠDav": 21319,
  "ĠDave": 4689,
  "ĠDavey": 8148,
  "ĠDavid": 5897,
  "ĠDavie": 29452,
  "ĠDavis": 26288,
  "ĠDavy": 19770,
  "ĠDawn": 14469,
  "ĠDax": 21893,
  "ĠDay": 8966,
  "ĠDays": 12172,
  "ĠDe": 8744,
  "ĠDead": 16687,
  "ĠDeaf": 11112,
  "ĠDeafy": 17507,
  "ĠDeal": 9333,
  "ĠDean": 14969,
  "ĠDear": 24310,
  "ĠDeb": 21508,
  "ĠDebbie": 13453,
  "ĠDebby": 19816,
  "ĠDeborah": 22458,
  "ĠDebra": 26041,
  "ĠDec": 27921,
  "ĠDecember": 23840,
  "ĠDecorating": 25668,
  "ĠDee": 6611,
  "ĠDeena": 29323,
  "ĠDeep": 15643,
  "ĠDeer": 12504,
  "ĠDel": 10694,
  "ĠDelay": 25097,
  "ĠDeli": 22632,
  "ĠDelia": 21702,
  "ĠDelicate": 23589,
  "ĠDelicious": 16549,
  "ĠDelight": 30863,
  "ĠDelighted": 21981,
  "ĠDelilah": 17504,
  "ĠDelivery": 20713,
  "ĠDella": 16025,
  "ĠDelta": 30508,
  "ĠDen": 14232,
  "ĠDeni": 30093,
  "ĠDenise": 16494,
  "ĠDennis": 13896,
  "ĠDenny": 17387,
  "ĠDependable": 14864,
  "ĠDerek": 15407,
  "ĠDes": 14902,
  "ĠDesign": 29401,
  "ĠDesk": 20276,
  "ĠDesperate": 23367,
  "ĠDespite": 8197,
  "ĠDessert": 22105,
  "ĠDestroy": 19900,
  "ĠDestroyer": 28217,
  "ĠDetermined": 24948,
  "ĠDevin": 27923,
  "ĠDex": 19149,
  "ĠDexter": 20434,
  "ĠDi": 10934,
  "ĠDia": 31317,
  "ĠDiamond": 15048,
  "ĠDiamonds": 26252,
  "ĠDiana": 13027,
  "ĠDiane": 15182,
  "ĠDiary": 16597,
  "ĠDic": 23470,
  "ĠDick": 21150,
  "ĠDicky": 19280,
  "ĠDictionary": 11540,
  "ĠDid": 5702,
  "ĠDidi": 10162,
  "ĠDidn": 20394,
  "ĠDiego": 22106,
  "ĠDifferent": 13469,
  "ĠDig": 24001,
  "ĠDigg": 26462,
  "ĠDigger": 26463,
  "ĠDigging": 28853,
  "ĠDiggy": 27922,
  "ĠDilly": 10176,
  "ĠDim": 30506,
  "ĠDin": 9949,
  "ĠDina": 8067,
  "ĠDinah": 18670,
  "ĠDing": 12922,
  "ĠDingo": 31323,
  "ĠDinner": 11776,
  "ĠDino": 5591,
  "ĠDinosaur": 13162,
  "ĠDinosaurs": 17357,
  "ĠDip": 31319,
  "ĠDipper": 22321,
  "ĠDippy": 23004,
  "ĠDirk": 31326,
  "ĠDirt": 22104,
  "ĠDirty": 25285,
  "ĠDis": 15458,
  "ĠDisagree": 27175,
  "ĠDisagreeing": 27249,
  "ĠDisappear": 29716,
  "ĠDisappointed": 15748,
  "ĠDisco": 30112,
  "ĠDiscuss": 29405,
  "ĠDisgusting": 23885,
  "ĠDish": 12039,
  "ĠDishes": 31321,
  "ĠDishwasher": 16390,
  "ĠDishy": 17134,
  "ĠDisplay": 24789,
  "ĠDistant": 31324,
  "ĠDive": 17089,
  "ĠDiver": 24946,
  "ĠDivey": 24182,
  "ĠDiving": 18449,
  "ĠDixie": 29717,
  "ĠDizzy": 6438,
  "ĠDo": 1194,
  "ĠDobby": 24947,
  "ĠDoc": 13012,
  "ĠDoctor": 7289,
  "ĠDoctors": 25067,
  "ĠDodo": 6560,
  "ĠDoe": 23748,
  "ĠDoes": 8835,
  "ĠDoesn": 20404,
  "ĠDog": 5004,
  "ĠDoggie": 18564,
  "ĠDoggo": 12043,
  "ĠDoggy": 2406,
  "ĠDogs": 10093,
  "ĠDoing": 11083,
  "ĠDol": 27971,
  "ĠDoll": 11082,
  "ĠDollie": 25701,
  "ĠDolls": 13654,
  "ĠDolly": 4332,
  "ĠDolph": 13564,
  "ĠDolphin": 16105,
  "ĠDolphins": 18315,
  "ĠDom": 28461,
  "ĠDon": 2601,
  "ĠDona": 31540,
  "ĠDonald": 21751,
  "ĠDong": 27411,
  "ĠDonkey": 22589,
  "ĠDonna": 12943,
  "ĠDonner": 29208,
  "ĠDonnie": 29209,
  "ĠDonny": 13964,
  "ĠDoo": 25284,
  "ĠDooby": 28462,
  "ĠDoodle": 21152,
  "ĠDoor": 25326,
  "ĠDora": 11719,
  "ĠDoris": 20039,
  "ĠDorothy": 14789,
  "ĠDory": 11479,
  "ĠDot": 6334,
  "ĠDottie": 20348,
  "ĠDotty": 8515,
  "ĠDoug": 10890,
  "ĠDough": 11616,
  "ĠDoughy": 14063,
  "ĠDougie": 30864,
  "ĠDouglas": 28716,
  "ĠDove": 13587,
  "ĠDoves": 29140,
  "ĠDown": 12433,
  "ĠDr": 5491,
  "ĠDra": 20975,
  "ĠDraco": 22456,
  "ĠDrag": 16763,
  "ĠDrago": 22438,
  "ĠDragon": 9969,
  "ĠDragons": 19843,
  "ĠDrain": 22322,
  "ĠDrake": 23548,
  "ĠDraw": 14076,
  "ĠDrawing": 15999,
  "ĠDream": 11016,
  "ĠDreaming": 23858,
  "ĠDreams": 13546,
  "ĠDreamy": 22414,
  "ĠDress": 17841,
  "ĠDressing": 30143,
  "ĠDressy": 26713,
  "ĠDrew": 18624,
  "ĠDri": 23469,
  "ĠDrink": 10952,
  "ĠDrinking": 21778,
  "ĠDrip": 21320,
  "ĠDrippy": 30189,
  "ĠDrive": 26464,
  "ĠDriver": 11990,
  "ĠDriving": 20649,
  "ĠDrop": 11500,
  "ĠDrops": 27074,
  "ĠDrum": 21207,
  "ĠDrums": 31628,
  "ĠDry": 17088,
  "ĠDu": 24000,
  "ĠDuck": 6467,
  "ĠDuckie": 15933,
[...]
