#version: 0.2
Ġ t
Ġ a
h e
i n
r e
Ġt he
o n
e r
Ġ s
Ġ w
a t
Ġ o
e n
Ġ c
i t
i s
a n
o r
Ġ b
e d
e s
Ġ f
in g
Ġ p
o u
Ġa n
Ġt o
a l
a r
Ġ m
Ġ in
Ġo f
Ġ h
Ġ d
â Ģ
a s
Ġan d
i c
Ġt h
l e
o m
i on
l l
en t
Ġ n
Ġ l
Ġ re
s t
v e
l y
Ġ e
Ġb e
Ġ g
r o
i d
u t
o t
a c
Ġ T
Ġth at
Ġ I
Ġ on
a y
Ġ is
Ġ S
i m
e t
a m
a d
o w
s e
Ġf or
i g
âĢ Ļ
Ġ A
v er
l d
c t
u r
Ġ C
Ġ u
Ġs t
Ġ y
Ġ it
Ġ he
i r
at ion
it h
Ġw h
Ġ M
c e
t er
Ġw e
o l
i l
Ġw ith
Ġa s
c h
Ġ B
i ll
n d
Ġw as
Ġy ou
Ġ P
er s
k e
Ġ âĢ
Ġc on
Ġd e
Ġ r
he r
i f
at e
Ġa t
a g
Ġh a
Ġ W
Ġs e
Ġ H
Ġp ro
o re
u l
p p
m ent
r i
Ġa re
Ġ 1
Ġ D
Ġc om
es t
u s
is t
Ġ R
an d
a in
o p
ĠT he
Ġ 2
ig h
r om
en d
Ġ (
or t
o d
t e
Ġn e
Ġ F
Ġe x
u m
âĢ Ŀ
u n
re s
Ġn ot
a b
Ġ N
Ġ v
Ġha ve
es s
it y
ou ld
Ġo r
Ġb y
t h
o s
Ġ G
i ve
Ġf rom
Ġa l
an t
' s
Ġs u
o c
ar t
Ġ L
Ġs h
Ġth is
e l
q u
e m
n t
igh t
p e
u st
Ġ le
i es
Ġ E
Ġc h
Ġs a
Ġa b
T he
ou t
al l
i e
ĠâĢ ľ
re d
ac k
0 0
Ġh as
al ly
Ġp l
Ġ J
Ġg o
Ġh is
ar d
om e
i v
e ar
g h
o st
a p
Ġt r
ou r
Ġ O
Ġ j
u d
a k
as t
Ġd o
Ġthe y
Ġb ut
Ġw or
r ou
Ġc an
Ġw ill
Ġsa id
Ġw he
g e
Ġ U
ic h
Ġ k
Ġa ll
o k
Ġ "
Ġwh o
id e
am e
t her
an s
Ġo ut
i al
Ġthe ir
f f
on g
ic e
p l
u re
ag e
Ġm ore
on e
ion s
Ġm e
Ġu p
ac t
i ke
ou s
Ġa d
in e
p t
Ġab out
at ed
b er
Ġwe re
Ġon e
e p
Ġs o
im e
Ġu s
e ct
r a
Ġh ad
o g
a re
Ġ K
i a
u b
Ġw ould
c c
Ġ2 0
Ġwh ich
a ke
Ġc l
Ġ im
u e
x t
in d
Ġa g
ver y
Ġt e
Ġof f
i z
Ġcom p
Ġbe en
Ġu n
Ġin t
s o
Ġ en
a u
p er
Ġcon t
ig n
ĠT h
Ġy ear
ar y
ac e
i p
Ġl ike
e w
v en
Ġin c
Ġm an
o ok
Ġp e
ay s
ĠI n
o se
Ġre s
r y
Ġp er
it e
ab le
Ġs p
as s
or d
i re
Ġo ther
m er
Ġs ome
i le
i b
en ce
op le
Ġ20 1
ĠS t
ation s
Ġo ver
Ġthe re
k s
res s
ic al
Ġd is
ul t
Ġne w
Ġal so
Ġbe c
Ġth an
ow n
Ġa r
an ce
ou nt
ou gh
Ġthe m
r u
p ort
Ġa pp
Ġwhe n
Ġp art
re e
Ġwh at
in t
Ġyou r
a il
on d
f ter
Ġpe ople
Ġs c
or m
as e
Ġ qu
ĠC h
a v
Ġ Y
Ġj ust
Ġan y
Ġit s
Ġt ime
Ġk n
ct ion
o f
ac h
ĠI t
Ġm y
l ic
Ġre c
Ġhe r
Ġ if
Ġg et
re at
. âĢĿ
en s
Ġ 3
Ġint o
Ġt w
ou nd
Ġwor k
i an
ir st
Ġ V
ve l
Ġn o
d u
e re
ing s
Ġ -
or y
Ġo ur
it ion
or s
id ent
ic k
Ġp re
o ve
o b
Ġpl ay
au se
in k
an g
te xt
am p
w n
ad e
at es
h ing
ar k
Ġ ro
Ġp ol
Ġ1 9
ver s
, âĢĿ
ĠH e
Ġa fter
Ġs he
Ġf irst
Ġc ould
Ġc o
Ġh ow
' t
nd er
i ous
Ġh im
i ld
Ġa cc
n e
on s
| >
end of
Ġp o
endof text
< |
a w
Ġon ly
Ġf e
ic t
he d
Ġp r
Ġtw o
Ġcom m
o v
r it
Ġs pe
. .
Ġs er
Ġa ct
is h
w e
âĢ ľ
f orm
Ġb l
Ġde c
Ġbe t
. "
n ing
Ġb ack
c es
Ġm ost
ĠâĢ ĵ
o od
Ġa m
Ġd id
f t
c k
rou gh
o y
Ġag ain
if f
rou nd
at er
Ġu nder
Ġw ant
Ġ 4
is e
d ay
u al
Ġd es
u ll
Ġcon s
se l
Ġbec ause
Ġn ow
Ġyear s
l ud
ub lic
ter n
Ġne ed
ent s
ĠâĢ Ķ
Ġkn ow
Ġin v
Ġe ven
Ġat t
Ġ $
ĠW e
e c
m an
is s
, "
Ġad d
Ġse e
o ld
c ed
ment s
Ġse c
Ġin d
t ing
f ore
Ġe very
u ch
ur n
Ġsu pp
Ġm ake
ĠU n
Ġthe se
Ġ 5
pe ct
Ġe m
Ġwhe re
j ect
oc k
I n
o ll
ation al
Ġd on
ver n
ĠA nd
Ġb u
Ġl ook
os s
T h
Ġw ay
Ġe v
Ġ [
at ing
Ġbe ing
Ġre m
um p
i ly
Ġman y
Ġm ay
Ġr ight
Ġthe n
ro w
le ct
Ġd iff
ĠB ut
ie w
Ġde f
Ġre l
as on
Ġc all
Ġth ink
n g
ĠT r
) .
Ġinc lud
as ed
i ed
it ed
ak ing
Ġre g
ri b
Ġim p
Ġth rough
mer ic
Ġs ay
Ġf l
Ġsh ould
Ġp res
on t
Ġth ose
Ġ very
ur ing
ot her
Ġl ast
Ġs y
at h
t y
Ġm uch
l es
Ġsh ow
it ies
if ic
s s
Ġst ate
Ġb r
at ive
ow er
Ġ2 00
ĠTh is
he n
t le
Ġwe ll
Ġas s
ĠW h
ot h
Ġp h
v ed
Ġdo es
Ġbe l
Ġd own
ar g
al s
Ġc ount
Ġo wn
ar ly
Ġu se
Ġ end
u nd
ic s
Ġl ong
an ge
in ce
Ġbe fore
ĠA meric
t s
w ard
om et
Ġm on
ter s
Ġre port
Ġst art
Ġgo vern
ib le
g r
ĠN ew
u es
Ġ ke
ou n
Ġf in
u p
if e
Ġte am
Ġm ade
b le
ol og
- -
Ġsu ch
re n
c om
Ġs m
en er
Ġgo ing
ers on
re st
) ,
il ity
âĢ Ķ
l p
Ġwor ld
i x
Ġst ud
is m
u ally
Ġgo od
e k
f ul
t ain
Ġa c
Ġsu b
ist s
Ġagain st
Ġe ff
Ġg u
it s
Ġ 6
Ġs ur
I t
Ġpo int
Ġs et
Ġ ent
or k
rou p
ill ion
Ġst ill
Ġg ame
y s
ar s
Ġwh ile
g an
st em
00 0
l i
Ġhe lp
Ġle ad
we en
im es
a x
. <|
v ing
an k
al k
Ġm in
Ġo b
Ġs ays
c y
Ġin te
c ess
W e
Ġpro du
Ġg r
m s
e f
Ġin ter
Ġin st
Ġs im
Ġt ake
Ġcon f
sel f
Ġst r
ar ch
Ġc ol
Ġs ame
Ġbet ween
Ġc r
Ġth ough
Ġdiff ere
u res
a ir
e ver
Ġoff ic
o ol
Ġdis c
Ġ ed
Ġpro v
oll ow
us s
ut ion
Ġs ign
i o
Ġn um
l and
Ġh igh
Ġo p
re ad
l ed
Ġl aw
w ay
h ip
at ch
Ġgovern ment
g g
n er
an y
ĠR e
Ġs omet
c ent
t ed
Ġre f
Ġtr ans
Ġt er
a h
vel op
he s
am es
t en
Ġf ound
Ġin s
e ll
Ġth ree
Ġ1 0
Ġa round
Ġhe re
Ġr un
iv es
at her
Ġm ed
ce pt
a ve
ou se
Ġm em
Ġus ed
Ġre al
ĠY ou
Ġre ally
Ġex p
Ġg roup
o ot
Ġsy stem
ĠA r
c i
Ġsupp ort
Ġm od
v es
et s
c er
Ġc our
Ġp ublic
Ġre t
c on
Ġw om
ĠL e
Ġspe c
Ġc ar
. [
p r
al e
al th
in s
Ġ 7
Ġh and
Ġg reat
ire ct
a z
y ing
en se
ĠC om
Ġf am
Ġf act
Ġc ur
Ġha pp
Ġd ay
Ġex per
ĠTr ump
Ġex t
p h
t on
Ġc ap
ĠThe y
ic es
Ġb oth
Ġf ind
Ġf r
Ġre ad
ĠA l
Ġl it
Ġd et
Ġre p
m in
Ġs l
ut h
ĠI s
Ġd uring
ul ar
o h
ĠA s
Ġmon th
ĠC l
Ġis s
Ġb ig
Ġ 8
is ion
Ġde velop
a red
Ġto ld
Ġs ince
Ġf ollow
in es
Ġp erson
i vers
ag es
ak es
t he
Ġwe ek
ĠS h
Ġc re
m ed
e x
ic ally
Ġc ent
Ġf ew
Ġw ar
ord ing
Ġpol it
ort h
Ġex pl
Ġle g
Ġbel ie
g et
Ġto o
Ġo pp
e red
Ġ 0
re nt
as h
a j
Ġre qu
Ġl ot
Ġcont in
W h
Ġg ener
r ic
i et
Ġres p
Ġan other
Ġ 9
Ġc le
ĠI f
2 0
ent ion
Ġp ut
ch ool
an c
at a
d er
Ġsomet hing
Ġin f
b ers
Ġs oc
Ġdiffere nt
Ġinv est
Ġf il
Ġc or
n ess
iz ed
ĠD e
Ġl oc
ut e
Ġre le
n ed
Ġcomm un
Ġv ot
Ġpl an
Ġl ife
ro ss
Ġth ings
Ġp ower
Ġc he
Ġch ild
Ġhe ad
u c
od y
Ġp oss
Ġf ar
Ġas k
Ġp ass
i ence
Ġc amp
Ġ '
th ing
Ġm et
v iew
Ġar t
Th is
Ġm ight
Ġe ach
Ġch ar
Ġb o
Ġg ot
Ġne ver
ĠF r
ant s
Ġde p
Ġne xt
Ġqu est
in ess
Ġad v
iz e
Ġsec ond
Ġb us
it al
Ġcom e
i er
Ġm ark
ie ld
ĠA n
Ġb est
i ent
ĠTh at
ĠâĢ ĺ
re t
Ġse em
ĠF or
Ġde m
Ġop en
Ġall ow
ĠU S
n ce
Ġper cent
ĠP ro
Ġfe el
Ġp ost
Ġd irect
Ġp ri
r at
u g
Ġ .
p le
Ġh ome
i k
i red
te m
Ġd ist
Ġinc re
gr am
l ing
s on
Ġres ult
Ġm illion
er v
Ġcont ro
Ġc are
os ed
l ess
ch n
Ġcomp le
or n
ĠR ep
Ġh um
Ġh ard
Ġinclud ing
ate ly
con om
Ġim port
Ġpl ace
Ġa v
Ġwith out
Ġpro ble
Ġnum ber
Ġbu ild
Ġto p
one y
Ġin form
Ġ ide
g y
Ġcount ry
ab ly
Ġst and
am a
Ġe l
t t
ri end
r al
a im
is hed
Ġbet ter
Ġf our
Ġg l
Ġt ri
ĠB l
Ġinte rest
B ut
w ays
Ġpart ic
Ġm ov
c o
Ġrec ent
Ġt urn
Ġle t
u ro
Ġse ason
r ation
Ġcall ed
r act
Ġl ess
Ġbe h
Ġlit tle
Ġb ro
Ġc ase
Ġm il
Ġapp ro
l ine
_ _
e ad
Ġan n
Ġser v
Ġatt ack
is ed
ĠI nd
c l
Ġd r
en cy
Ġle ft
Ġre st
1 0
a pp
Ġke ep
ĠThe re
Ġp op
Ġdid n
od e
Ġf ull
aj or
Ġm ove
Ġm ain
Ġe ar
Ġpre v
id er
Ġp ay
Ġeff ect
Ġ Z
in al
re m
Ġf un
Ġus ing
in a
Ġpro gram
Ġwom en
Ġt est
b e
at ure
le g
Ġe conom
t o
Ġfor m
Ġv al
Ġw rit
Ġpol ice
g er
Ġnew s
Ġw in
Ġp os
Ġs chool
olog y
ain s
ar ge
Ġs it
Ġsm all
ĠAmeric an
Ġg iv
read y
id ed
in ed
Ġl ist
Ġpro cess
' re
Ġd ata
u ck
Ġd ri
m it
pl oy
Ġch ange
H e
Ġle vel
Ġh ist
Ġcur rent
Ġe as
Ġp rom
ĠS o
i ans
Ġcomp any
Ġpres ident
ir d
Ġre ce
Ġ- -
r ap
ĠUn ited
us ed
ĠS e
Ġal ready
Ġm at
Ġwh y
Ġu nt
Ġte chn
ivers ity
Ġm oney
ru ct
oh n
Ġb re
Ġl ater
Ġal ways
w it
Ġb ook
re en
a ign
Ġbus iness
ĠH ow
st and
Ġhe alth
ard s
Ġoffic ial
Ġpro ject
Ġth ing
Ġs ol
Ġpro f
Ġex pect
Ġt alk
Ġcl ass
Ġt y
Ġor gan
Ġj ob
as es
r on
Ġm ajor
pt ion
.. .
Ġch ang
Ġcl aim
ĠC an
a ff
Ġre se
ĠO b
le ction
Ġo per
Ġf ree
er tain
Ġst ory
ĠP h
Ġab le
he re
Ġinform ation
Ġv is
Ġdes ign
ĠS he
Ġ =
ĠA d
amp le
Ġm ust
i or
r ist
Ġhapp en
ĠB e
Ġp ur
Ġa way
ur al
Ġ Q
ou th
Ġo ld
Ġ est
Ġs k
Ġp ast
Ġc ity
Ġm en
Ġdoes n
end ing
Ġimport ant
uth or
Ġc ost
Ġ1 8
u red
ur y
iss ion
Ġp at
Ġcamp aign
Ġle ast
ne y
Ġed it
Ġk ill
ac y
Ġg row
ur ity
s c
Ġ1 2
Ġc ame
ain ed
Ġst re
Ġte ll
Ġa ff
Ġv iew
Ġt ax
Ġh op
s ide
Ġd ays
id es
Ġcon st
Ġk ind
Ġv ar
er n
res ident
Ġm aking
o x
Ġen ough
Ġfam ily
Ġrec ord
Ġf riend
ĠM ar
cc ess
Ġe lect
er al
Ġde al
5 0
Ġpol ic
Ġl arge
ĠG o
Ġm ar
âĢ ¦
b y
is ing
Ġunt il
iv ed
ĠS p
r or
le y
ion al
el s
Ġpolit ical
u ed
pp ed
al ity
if ied
o ad
Ġwork ing
au gh
Ġto ok
ri es
are nt
us h
er ing
ain ing
al f
Ġv ide
at or
Ġl ine
ĠRep ublic
I f
Ġde b
A s
Ġbec ome
i ol
Ġact ually
Ġin tern
Ġf ore
ĠJ ohn
Ġme an
Ġ19 9
oc rat
Ġ ve
Ġ es
ĠS c
is ter
Ġa ir
ap s
Ġf und
Ġof ten
Ġw on
Ġfor mer
Ġg ive
y ear
on y
b s
w ork
Ġwor d
ar ing
Ġhum an
Ġe ver
Ġret urn
ĠE uro
w are
S t
ot t
m ost
Ġt imes
ĠP l
ĠM ay
1 9
Ġacc ording
Ġb as
ĠR uss
Ġpro te
Ġn ame
Ġb it
ĠS y
w h
is on
Ġse ver
iz ation
Ġw r
an n
it her
Ġp ar
Ġapp ear
Ġg ames
ĠD em
ĠA ll
Ġor der
id d
Ġle ar
Ġr a
en g
1 1
Ġde v
Ġchild ren
ĠM c
g in
Ġf ac
ut ure
f or
Ġper form
Ġchar ac
Ġ ,
i qu
The re
Ġdo ing
Ġl a
Ġe arly
Ġmark et
Ġs ing
Ġsoc ial
ic le
Ġto day
m ber
an e
Ġplay ers
Ġwhe ther
ĠA t
o int
ot s
ak en
c hed
Ġha ving
at s
id ence
Ġmed ia
Ġse en
Ġn ight
Ġc rit
ĠC on
Ġev ent
Ġquest ion
Ġsever al
ĠP resident
Ġe qu
Ġpro p
-- --
ra ft
Ġme et
Ġp ress
Ġyou ng
Ġo cc
Ġ1 5
Ġw ent
or ies
ĠO r
Ġc ertain
Ġp ot
Ġcontro l
Ġsu re
Ġ ]
Ġmil it
ro p
ver t
ĠY ork
ious ly
Ġf ive
art ment
ĠM r
Ġar g
Ġh our
Ġlike ly
/ /
en e
Ġse x
Ġex ample
un e
Ġmem bers
end ed
b all
Ġinv ol
and s
ĠN o
Ġw ater
Ġs ide
u ff
Ġsh ort
i ally
Ġd one
i ver
Ġal ong
b r
ĠSt ates
ĠC ol
ĠEuro pe
Ġf ight
Ġ vers
Ġen g
le t
A nd
Ġsu ccess
Ġam ong
Ġmonth s
Ġan t
ent ial
Ġ1 1
Ġwith in
ag ue
i um
Ġon ce
re w
Ġcour se
Ġunder stand
Ġcon cer
it ing
en n
Ġact iv
Ġv iol
s h
Ġdes c
our n
im ate
ĠS te
Ġposs ible
Ġf uture
l f
Ġch o
Ġinvest ig
gg est
ort un
st er
ĠOb ama
Ġthough t
Ġproble m
ĠO n
ul ation
ub l
ver age
it ive
Ġme ans
oc i
ur s
Ġav ail
Ġa uthor
on es
e e
Ġy et
ĠC ar
Ġpri v
Ġh old
Ġkn own
iv id
1 2
Ġprodu ct
Ġac ross
ĠW hen
ĠSt ate
Ġsu ggest
n ect
iv ing
E R
al d
Ġgiv en
Ġcommun ity
Ġf ail
in c
Ġask ed
g ress
Ġ &
Ġor ig
Ġn on
ĠT e
Ġloc al
Y ou
ĠB r
n ot
Ġre ason
Ġm akes
o ber
ĠUn iversity
b ack
l er
Ġl ight
Ġreport ed
Ġann oun
Ġbelie ve
âĢ ĵ
Ġ i
ed eral
p or
i ber
Ġ |
or ld
Ġpro b
m y
ĠCh rist
Ġl im
Ġm us
Ġother s
Ġb en
Ġstr ong
b ook
an ces
Ġc a
ĠH ouse
ag ed
Ġ201 6
Ġvide o
ore d
it ions
ens ive
Ġ :
Ġget ting
Ġc ut
iet y
ĠC o
Ġ ident
Ġs ent
ur ther
' ve
Ġcon d
Ġs our
ir on
Ġb at
Ġ3 0
. ,
Ġn ational
Ġ X
am ent
Ġstart ed
Ġiss ue
Ġcl ose
Ġc reat
as hing
Ġl ove
Ġacc ount
Ġn et
am s
Ġl ow
Ġhist ory
Ġavail able
ar m
Ġsa f
ĠDem ocrat
as ter
Ġh ig
Ġ201 5
Ġser ies
Ġcomm it
Ġde ath
Ġem ploy
Ġb ased
Ġfollow ing
F or
ĠM in
Ġind ust
Ġag o
Ġ1 6
Ġpart y
Ġtr ying
Ġ #
sel ves
ab ility
Ġm om
Ġl and
Ġf oc
3 0
u ly
ort s
Ġcom es
Ġadd ed
u se
res ent
Ġide a
ie f
ut es
c her
u ment
get her
Ġto gether
ition al
ĠC ent
Ġal most
Ġcle ar
in ation
il ar
re ed
ere nce
Ġimp ro
ĠWh at
Ġpr act
ĠAmeric a
Ġtr ad
e b
int on
ail s
r ict
Ġacc ess
ru g
ĠO ne
Ġis n
Ġexper ience
th ough
ĠA m
ĠS en
Ġ201 4
Ġh it
min ist
Ġan al
ĠCom m
ĠF l
ust om
Ġh alf
Ġr is
Ġlook ing
Ġs ix
Ġl ive
wit ter
Ġcomple te
g ed
Ġ Â
ivid ual
ĠCan ad
Ġf av
ro du
un ch
r ing
Ġr ul
Ġfil m
' m
Ġany thing
Ġpro t
Ġpres ent
og rap
ĠE x
Ġsay ing
tem pt
Ġm iss
ĠB ro
er man
Ġph ot
ro te
Ġb ad
Ġcour t
Ġf ace
os p
Ġare a
1 5
Ġt aken
Ġm or
Wh at
ci ally
Ġv ict
Ġ er
er t
Ġent ire
Ġstud y
ward s
ot e
n es
a id
tt p
ĠE ng
u ge
A T
Ġtr y
ra w
Ġcomp et
Ġbeh ind
ĠP ol
Ġpro per
Ġmilit ary
a f
Ġne ar
Ġdisc uss
Ġb ill
Ġsec urity
at ors
ĠP r
Ġm ult
Ġa ut
ĠT o
Ġ1 4
Ġth reat
Ġind ividual
ĠS ec
ow s
ĠA f
Ġcons ider
ĠB rit
ap er
Ġto t
s y
Ġqu ick
Ġwant ed
i en
Ġc ult
Ġf all
pl ay
Ġr ather
Ġsing le
ir c
ĠN orth
am ed
ĠW ar
Ġcom b
Ġpolic y
ĠG r
A n
ĠD on
ra el
Ġspec ial
Ġm ess
Ġp ubl
Ġbr ing
ll ing
Ġm ind
Ġbl ack
Ġcomp an
a i
r is
Ġ z
id s
: //
le ment
Ġs um
Ġsome one
Ġplay er
Ġre du
at ic
Ġt aking
p ar
Ġf ood
ĠCl inton
W hen
ĠD ep
p ly
Ġat tempt
e v
d d
Ġpre t
Ġs al
ĠN ational
Ġc oun
O n
Ġ1 3
ĠW orld
Ġel se
. )
Ġ1 7
o ff
Ġsign ific
Ġs w
Ġf oot
Ġrese arch
Ġj o
Ġdec ision
Ġprob ably
ĠC ity
ĠM an
if y
v iron
a ult
Ġsp ace
Ġb ody
c hes
Ġcom ing
Ġnot hing
Ġke y
Ġ /
ol ution
ashing ton
Ġfr ont
ic ult
ĠC al
ĠI m
Ġsim ilar
ac es
Ġc ou
ĠB ar
Ġpoint s
o ver
Ġim m
s w
c ing
Ġserv ice
ir l
Ġe ither
li er
Ġhow ever
Th at
r an
rem e
Ġdesc rib
Ġben ef
m ing
g o
ull y
ĠA ust
Ġfe at
Ġcon nect
Ġw rote
Ġcon v
ĠH ar
el t
Ġen c
Ġ201 3
Ġw a
as ing
Ġf urther
Ġex ist
Ġs us
R E
Ġright s
1 6
pp ing
o on
Ġm ass
Ġh ouse
Ġb an
Ġst op
ĠS u
Ġf ire
Ġd oc
Ġprote ct
Ġme as
Ġcom pl
Ġiss ues
Ġth ird
Ġcompan ies
Ġre pl
ive ly
Ġrel ations
Ġ201 2
Ġch all
ent ly
Ġseem s
Ġd am
Ġt em
Ġst ates
ri ed
Ġf ig
1 4
Ġd ue
I N
Ġt arg
y n
Ġf ield
Ġst ep
ĠW ith
Ġbe gin
Ġc and
Ġl ab
Ġwho le
ĠG e
n ow
Ġcre ate
Ġevery thing
Ġex ec
p ite
Ġe y
iv il
Ġw atch
Ġinf l
Ġlead ers
m b
ĠHow ever
Ġc ustom
Ġs ound
Ġtr a
pe cially
Ġt re
Ġo pt
am er
Ġsu per
Ġrele ased
ĠJ an
ĠIn st
Ġofficial s
ĠIs rael
ĠW ashington
ib ility
Ġfin al
un g
Ġro le
Ġp ick
Ġf ederal
Ġro om
l im
Ġhour s
Ġcharac ter
e al
S o
a ul
u ation
ĠD av
Ġ19 8
Ġ )
Ġadd ress
Ġt reat
Ġbe gan
Ġen er
Ġpos ition
Ġst at
Ġstate ment
Ġst ri
ĠG u
Ġd ou
Ġ201 7
a pe
w w
se c
Ġhim self
an a
Ġprov ide
Ġin it
ad es
Ġbec ame
1 3
ĠS outh
Ġdevelop ment
he ad
Ġne g
Ġout side
Ġse lf
Ġab ove
il t
ĠIn tern
O N
id ay
Ġam ount
ĠA pp
I S
Ġsignific ant
Ġd rug
Ġcontin ue
Ġmat ter
Ġstud ents
ac ed
' ll
Ġ2 5
Ġbre ak
Ġ1 00
Ġcount ries
te e
l ike
viron ment
Ġoff ice
Ġit self
Ġgener al
ang u
ar ter
i od
ĠR es
end er
Ġtr ue
Ġthem selves
ĠA ss
Ġad minist
Ġl arg
Ġa ction
ob al
Ġd i
Ġwas n
Ġev idence
er y
idd le
Ġspec ific
Ġsim ply
re g
p ro
Ġg round
Ġprof ess
Ġgroup s
Ġinter view
Ġrep resent
Ġc op
og n
um b
Ġresp ons
ograp h
o id
ĠP art
Ġwom an
ĠJ ust
Ġag ree
Ġd om
ace book
Ġrele ase
Ġdiff icult
ourn al
Ġb ar
Ġshow s
r ight
l ish
ĠE d
Ġneed s
Ġbuild ing
Ġb all
Ġpret ty
Ġcomm on
Ġvers ion
ĠM ed
Ġrun ning
Ġl at
C h
l ight
Ġr ad
Ġg un
ĠA b
Ġplay ing
Ġd est
Ġneed ed
Ġde ep
Ġsa w
e ks
Ġmus ic
if t
re am
Ġinclud e
Ġevery one
Ġty p
Ġbel ow
1 7
Ġex c
Ġs ense
ĠG erman
as k
il i
rib ut
ĠH is
Ġl ate
Ġplay ed
B C
ĠCh ina
Ġch arg
Ġm ot
Ġg en
l am
A N
b ody
Ġm ag
Ġqu ite
Ġal leg
Ġener gy
Ġa p
H ow
at t
__ __
Ġh om
Ġcand id
Ġb illion
og le
Ġin j
s er
ĠM us
Ġph ys
* *
Ġl ost
ĠA fter
w here
at ur
t ime
Ġfriend s
Ġindust ry
Ġ5 0
Ġe lection
ĠNew s
Ġj ud
Ġh ost
Ġan im
Ġval ue
Ġleg al
ĠO ct
Ġes pecially
Ġinst ead
Ġp le
Ġab s
Ġfor ward
Ġwh ite
ĠWh ite
Ġvot e
Ġtr ack
iv al
or ing
iqu e
Ġrecent ly
ep end
cc ording
ĠW est
Ġdet er
Ġchang es
Ġper iod
Ġlong er
os ing
Ġac cept
Ġwe eks
Ġob ject
Ġsu ff
Ġopp ortun
Ġre d
Ġt it
ĠT witter
Ġeconom ic
ĠSy ri
ag er
Ġs ite
ur ch
ĠW ill
ri pt
ĠM arch
le v
ist ic
med i
s u
y le
Ġp ain
Ġbl ock
Ġp ie
om m
o e
Ġwr ong
ac hed
Ġso on
h od
Ġsh oot
o ke
Ġed uc
Ġserv ices
Ġfoc us
l t
Ġhop e
on se
Ġon line
ĠC ong
ĠC ount
Ġe p
Ġc red
Ġcons um
ĠN ot
Ġresult s
Ġhig her
Ġl ed
b o
ir t
Ã ©
Ġdec l
Ġmom ent
n ers
Ġc irc
c il
Ġris k
Ġhe ld
m e
ove red
ĠDep artment
Ġsh are
1 8
ir m
Ġrel ig
is c
ur d
Ġa ge
Ġpot ential
Ġw alk
anc ial
Ġche ck
Ġwor ks
Ġword s
Ġ2 4
Ġp red
A R
op h
ul arly
ke y
le ge
Ġcont ract
Ġre ve
ĠM y
p ut
ĠRepublic an
Ġp arent
ate g
Ġl o
Ġst ay
c ial
ĠA ug
Ġst ru
ĠThe se
n s
Ġgo al
2 5
le ar
Ġre view
Ġr ate
Ġart icle
The y
il ities
id ing
f ect
Ġwe bs
Ġtot al
Ġup d
Ġfav or
Ġne cess
Ġso ld
.. ..
Ġtechn ology
Ġperson al
Ġw ind
ĠG od
ĠM ich
u ary
b it
h aps
i ents
ĠJ une
Ġan sw
Ġc e
A d
Ġear lier
Ġd en
Ġres pect
Ġl angu
pr il
Ġre v
Ġmin utes
Ġsur pr
it ution
ap an
Ġc ode
as ons
Ġ201 1
ĠS m
ĠN e
Ġany one
Ġpr im
o le
Ġapp lic
Ġ {
ag ing
Ġb ase
Ġexp ress
ang er
Ġpop ular
Ġa ud
end s
Ġde ad
ĠP e
ĠJ uly
Ġw ays
ĠD r
ĠM e
Ġv ol
Ġfun ction
f er
a ut
Ġh y
Ġsc ient
Ġannoun ced
Ġrece ived
re et
ic ro
A S
Ġcre ated
Ġproble ms
Ġexpect ed
h am
ĠP ar
Ġp ack
ip le
Ġeas y
c he
Ġp ort
Ġsh ot
h ood
act ion
Ġincre ase
pl es
ĠM ond
Ġant i
Ġcom ment
em ber
Ġen vironment
i j
ĠE n
Ġquest ions
u el
Ġfor ce
ud e
Ġinvol ved
et er
ĠCong ress
Ġ19 7
v al
Ġcan not
ct or
u le
Ġtarg et
at ives
is l
her n
Ġpriv ate
av ing
Ġst aff
ĠD o
Ġs en
ill s
ĠF acebook
Ġc ivil
Ġcomp ut
Ġimp act
Ġrelations hip
ĠAust ral
Ġexec ut
Ġhe art
ĠR ed
ok es
ll ig
ĠS ep
Ġd iv
Ġresp onse
Ġcl ub
Ġcont ent
Ġspe ak
6 0
Ġm ater
ll ed
Ġex act
A l
Ġc ases
Ġsub ject
Ġbro ad
our t
Ġt al
Ġter ror
P h
re l
it iz
ues day
ot o
Ġcap t
Ġne arly
Ġle ave
Ġmod el
ĠA pril
Ġorig inal
r ay
at ural
b or
i res
Ġintern ational
Ġa verage
Ġins ide
Ġwork ed
Ġf ans
on st
A t
ĠMond ay
c ast
n a
Ġreport s
om b
Ġch ance
Ġn ation
Ġbec om
e ch
Ġro ad
le x
Ġo il
est s
Ġass oci
Ġus ers
Ġe t
Ġde l
T o
g ing
ĠRuss ia
Ġkill ed
Ġco ll
Ġl iving
Ġcap ital
Ġty pe
Ġdirect or
Ġab ility
ĠA ct
Ġc al
du ct
Ġar rest
ĠFr iday
m p
Ġso ft
Ġdec ided
Ġw orth
ĠJ apan
Ġresp ond
Ġg irl
Ġsour ce
Ġbu y
ĠAmeric ans
ip s
ĠWh ile
Ġter ms
Ġpubl ished
rough t
tem ber
Ġim medi
olog ical
Ġm other
Ġest ab
ĠP al
Ġm id
Ġst ore
ĠT uesday
ĠP er
ĠGo ogle
j oy
os ition
Ġ <
Ġl og
Ġinfl u
Ġg ave
Â Ń
it es
Ġ201 0
Ġt akes
Ġwork ers
Ġf em
Ġgl obal
Ġph one
Ġfin ancial
es e
" ,
ove mber
Ġdef in
vert ise
Ġhappen ed
a el
Ġl ack
Ġpr ice
is es
Ġrequ ire
Ġoff er
Ġcol lect
Ġ ur
Ġwe ap
op s
ov ed
Ġt ou
Ġs qu
iz ing
ough t
ĠN ow
cl us
ĠS ome
" .
E S
r ain
Ġcurrent ly
Ġc ell
Ġwho se
ĠS an
ĠCal if
Ġaff ect
ĠW ed
Ġgo es
Ġmeet ing
Ġint rodu
Ġrec ogn
Ġmem ber
Ġe mer
Ġfore ign
Ġ4 0
Ġpl ans
ĠCount y
ĠGe or
Ġl ives
he l
Ġde li
Ġpartic ip
Ġreg ard
Ġev ents
Ġ +
Ġcare er
re ct
f ully
ic ated
Ġsit uation
ĠJan uary
b ased
ĠF eb
ĠB y
ro wn
un t
Ġturn ed
Ġh uge
Ġp age
m on
Ġ â
Ġsim ple
Ġf re
Ġ @
Ġmater ial
Ġteam s
nes day
ĠDav id
ĠIs lam
ĠS und
Ġappro ach
ĠT V
Ġar ri
ĠA g
Ġto ol
ĠH ill
Ġb ank
Ġr ace
Ġmet hod
Ġp ict
ĠAf ric
O ne
um e
Ġc y
Ġte xt
Ġadminist ration
ĠO ff
ru ction
urs day
ĠSep tember
Ġimpro ve
Ġ2 1
ĠN ovember
Ġst e
a ily
Ġn orm
av y
Ġnet work
Ġb oy
Ġcou ple
? âĢĿ
Ġf ather
Ġquick ly
Ġnum bers
ĠOct ober
l in
] [
k y
ĠG l
Ġare as
Ġprodu ction
ĠP aul
Ġtr ade
Ġm is
Ġem ail
ĠAug ust
Ġf elt
ch ie
o or
Ġvict im
Ġperform ance
Ġh on
Ġne igh
et y
Ġr ound
Ġp ers
Ġv ia
Ġhe ard
Ġ ill
Ġm atch
Ġsec ret
Ġeng ine
O R
in o
Ġp ull
Ġl oss
ord er
Ġtra vel
Ġsp ent
ĠC or
Ġd ig
Ġallow ed
ce mber
ĠEurope an
Ġwant s
Ġw ide
Ġbu ilt
ruct ure
e es
Ġeconom y
ĠWed nesday
ist an
Ġinclud ed
Ġkn ew
Ġreve al
Ġh ttp
orn ia
Ġbo ard
Ġco ver
en ed
Ġor d
Ġl ower
ict ion
ĠCanad a
Ġre pe
d own
Ġth ous
b l
Ġpo ll
Ġhand s
4 0
ĠU K
a ur
at ory
Ġleg isl
or ters
ĠE l
Ġ2 2
Ġbeh av
us es
Ġget s
ĠC ourt
ra z
en ces
ĠTh ursday
ap t
Ġfor ces
E N
Ġvis it
Ġs ong
Ġen joy
es tern
ĠI S
ess ion
l oad
ight s
Ġb ud
ou d
ĠA ng
Ġwebs ite
' d
f ace
g est
Ġtri ed
Ġper fect
Ġc ause
Ġatt ention
ĠS ch
ĠBrit ish
im ent
e ed
âĢĿ .
Ġse par
Ġb i
Ġprev ious
ct ions
2 00
Ġv o
A fter
is hing
ib ly
ĠSund ay
Ġf air
Ġim age
ar ily
ond on
Ġvar ious
cher s
g round
age ment
W ith
ĠK ore
Ġr ac
Ġpartic ular
ce ed
for ce
Ġb rought
led ge
y ond
Ġlook s
an ks
Ġre ach
Ġl ink
all ed
Ġto wn
Ġf ear
Ġpop ulation
Ġm ention
ĠDe cember
Ġtr aining
ĠCalif ornia
Ġmor ning
Ġfe ll
se qu
Ġmove ment
Ġpre p
Ġgrow th
ec ause
Ġs ize
en ing
al t
ĠRuss ian
Ġl iber
ide red
ak er
Ġh or
ĠK ing
und red
ĠJ ew
Ġind epend
Ġc ard
Ġlead er
S h
> >
h old
Ġup on
Wh ile
ĠSt reet
Ġ }
Ġrul es
ident s
ĠP ost
Ġ2 3
Ġpro gress
Ġlangu age
Ġcont act
c ies
ar th
ur ning
Ġ ess
Ġw ond
ĠP at
c ome
Ġre b
Ġen s
ĠBl ack
---- ----
f ield
u ments
Ġtalk ing
Ġadd ition
ĠI ran
Ġ ...
c le
Ġf ast
llig ence
ific ation
Ġdem and
ĠT imes
Ġve h
Ġst ar
Ġstru gg
Ġh ot
ĠH er
ĠQ u
sy ch
in ks
i am
Ġc itiz
Ġlat est
ĠS w
ĠT ex
ĠC ont
z e
Ġfeat ures
Ġse arch
ĠR om
Ġsex ual
ĠSen ate
Ġa chie
Ġp aper
im ately
Ġex am
v ent
ĠP ark
ĠMus lim
Ġsee k
ar ies
b ed
Ġu nd
Ġs on
i ant
Ġspe ed
Ġco ach
Ġcons idered
ĠInd ia
Ġinvestig ation
ic les
9 9
s et
Ġ200 8
op e
ys is
ra q
m a
Ġsl ow
Ġpri or
Ġ200 9
Ġcrit ic
Ġs n
g es
om p
e ared
Ġmed ical
ru ary
Ġse ven
il le
im in
Ġhe ar
ĠL ondon
ill ed
Ġincre asing
he t
ap h
Ġdo ll
Ġviol ence
Ġp en
Ġparent s
f l
Ġjob s
Ġs ort
ĠK e
Ġreg ul
atur day
Ġcons erv
Ġsp okes
ĠPart y
Ġj ournal
Ġeff ort
Ġs ens
Ġcon duct
Ġmod ern
Ġimm ig
R e
Ġlevel s
w o
Ġwrit ten
Ġcon c
id ge
Ġser ious
ĠE ast
ic ation
Ġdoc ument
Ġsystem s
Ġsaf e
un k
Ġg as
Ġprev ent
it ch
ĠM ark
Ġd raw
Ġbo x
Ġin n
vertise ment
Ġmess age
as c
p s
A L
Ġattack s
Ġcomplete ly
ĠCent er
Ġm ach
Ġinterest ing
Ġmajor ity
Ġopportun ity
h a
Ġlear n
n ces
Ġsoc iety
in ing
2 2
Ġext reme
ent ially
Ġdou b
osp ital
r ast
Ġcl imate
T r
Ġansw er
Ġn atural
= =
Ġqu arter
ib r
our ces
Ġob v
reed om
ĠI raq
ad d
Ġdes pite
Ġc ross
Ġr ange
Ġdef ense
t r
p ir
Ġrequ ired
Ġbig gest
ro om
Ġcertain ly
Ġex cept
Ġpartic ularly
A C
Ġp aid
S he
Ġ2 8
os es
Ġexper ien
an ced
Ġexact ly
ĠCh ar
Ġsur ve
u k
Ġare n
pp er
uc lear
e ff
an i
Ġm iddle
Ġsomet imes
U S
Ġgu y
in ally
ut ions
av es
ĠDon ald
is ions
) ;
Ġclaim s
Ġh undred
ĠM ore
Ġcon vers
Ġpl at
ab or
Ġhist or
ĠFeb ruary
Ġpract ice
Ġd ro
Ġdam age
Ġocc ur
u f
Ġst uff
O P
et h
Ġext ra
Ġfin ally
Ġmov ie
Ġa w
ĠE m
ines e
ĠN et
Ġoffic ers
Ġcost s
Ġrem ain
Ġ2 7
Ġsc reen
d e
Ġon es
O S
Ġbl ood
Ġshow ed
Ġt able
Ġp an
ĠMc C
ĠS pe
Ġprov ided
Ġcar ry
Ġchang ed
am ing
ly ing
ous ly
i ers
Ġproduct s
ic o
Ġeduc ation
ens ion
et t
Ġlook ed
Ġsc ience
Ġn amed
Ġf it
Ġst ories
Ġe ight
Ġgiv ing
Ġsur v
ĠS aturday
Ġim ag
ob ile
Ġter m
augh t
Ġdet ails
ren ch
Ġreg ion
Ġcontin ued
Ġus er
Ġch ief
Ġlead ing
Ġdescrib ed
I T
Ġqu ality
ĠS oc
Ġsum mer
Ġstart ing
Ġd ied
co in
Ġrem ains
u x
Ġl ay
Ġp ath
ĠC oun
Ġmain tain
Ġit em
Ġpo or
Ġmult iple
h ib
Ġrese ar
Ġincre ased
Ġcom ments
E D
Ġu lt
Ġpr ison
Ġcult ure
ac her
Ġd anger
ĠS and
ak ers
Ġvot ers
ĠT ur
ic ks
o o
Ġf ix
Ġwr ite
Ġspe ech
Ġ2 6
Ġgrow ing
id a
er c
2 4
ĠE ven
Ġrequ est
ĠM or
Ġass ist
Ġwould n
ĠS er
Ġm ill
Ġsp ot
Ġread ing
Ġsub st
ĠD es
Ġpur ch
ĠC he
Ġeffect s
Ġpart s
Ġwrit ing
Ġeff orts
ĠLe ague
im inal
Ġthink ing
Ġpur p
Ġimp lement
Ġdo g
ener al
Ġdem onst
Ġse lect
en ge
al es
Ġal though
Ġstand ard
ĠTex as
ĠDemocrat ic
in ary
Ġm ent
N o
Ġper haps
Ġun f
Ġk ids
Ġthrough out
p re
Ġread y
mit ted
ic ations
I C
b an
Ġbe yond
op er
Ġ *
ress ion
ar i
it ute
Ġus ually
Ġlaw s
ĠRepublic ans
I m
Ġc at
ar r
Ġfoot ball
Ġgu ys
us ing
ab les
Ġto wards
Ġw ife
f ort
n y
Ġal one
Ġreal ity
Ġcons ist
Ġcall s
Ġstud ent
Ġ( @
Ġdirect ly
Ġav oid
ag o
Ġc amer
ĠF irst
8 0
te red
Ġce le
il es
Ġcomple x
ĠC ons
Ġro b
al y
row d
Ġcould n
ar ian
Ġchall eng
F L
ĠInd ian
Ġcor por
Ġpie ce
Ġh ous
Ġcho ice
Ġs le
Ġcon cept
Ġinclud es
w ise
Ġcent er
ĠCh inese
ĠMich ael
ĠJ ames
air s
Ġrem ember
ĠB ill
Ġag ency
Ġop in
? "
f ord
Ġf ile
an ch
m en
ic ient
Ġdeb ate
Ġcl os
Ġsaf ety
Ġg one
Ġimmedi ately
Ġadd itional
om en
Ġep is
ĠM on
Ġse ll
ĠMin ister
ru pt
Ġcoun ter
Ġrec omm
ĠSyri a
Ġoffic er
Ġo ption
Ġpress ure
Ġsc ene
Ġrece ive
ir th
Ġs il
Ġto ward
Ġ il
Ġt ro
Ġ ut
Ġ6 0
Ġa head
Ġrel ative
ur t
Ġt en
Ġlet ter
ĠJ ack
he st
Ġbr ain
ar a
Ġdesign ed
ou l
il ies
Ġproper ty
ĠT H
Ġst age
Ġtw e
Ġbat tle
Ġ ver
Ġplat form
Ġcr is
ol ute
Ġalleg ed
Ġs we
ro y
Ġsoft ware
N ow
im um
Ġd ate
ĠR ich
Ġbud get
Ġthous ands
Ġmov ed
ate ver
ĠSt ar
Ġd ark
Ġhelp ed
ag on
ĠâĢ ¦
Ġtit le
augh ter
Ġdri ve
Ġfig ure
Ġpass ed
Ġappear s
Ġorgan ization
Ġla unch
Ġdis app
Ġmov ing
o es
port s
A M
ad em
ĠDemocrat s
amp ions
Ġn uclear
Ġpre c
Ġhapp y
A ll
it or
it ation
Ġmean ing
Ġcent ury
Ġle ague
Ġcop y
Ġy es
Ġcond itions
Ġmy self
ĠAss oci
r ated
Ġfail ed
ock ed
ĠR ober
Ġsc ore
st on
Ġdiffere nce
ĠV al
Ġcle an
y l
Ġn ature
B I
Ġt our
ac hes
Ġlim ited
Ġs at
Ġmay be
Ġdev ice
Ġcomp ared
Ġbl og
Ġf an
ĠPl ay
Ġsus pect
Ġest im
Ġre asons
ĠApp le
2 3
Ġde g
ĠB o
Ġsp ending
ĠS erv
ĠG reen
Ġn om
ber g
am b
j ust
Ġro ck
m ore
er ve
ci ent
Ġar ch
ĠThe n
Ġenc our
ast ic
Ġcomm and
Ġcont ribut
Ġbegin ning
Ġtou ch
le ase
Ġa im
ch an
Ġref er
ĠI I
Ġnecess ary
ur g
Ġsh own
or ks
Ġanal ysis
Ġey es
Ġb and
Ġsc he
Ġp ark
Ġpower ful
ĠB en
Ġme ant
ent y
Ġlarg est
ĠT or
Ġw all
Ġth row
Ġconf erence
ĠD is
Ġst ra
Ġcandid ate
Ġb al
ĠSu per
z z
ri ef
ĠÂ £
Ġ ign
Ġfor ced
our ce
Ġc ast
Ġpos itive
Ġcharac ters
y an
Ġbook s
iv ity
Ġinc ome
Ġdis e
Ġschool s
O T
ĠD ay
Ġ19 6
Ġpresident ial
s p
b and
Ġa ware
ĠO f
Ġcol lege
ain t
ress ed
ven ue
Ġnot e
Ġcitiz ens
b um
a ud
Ġfre qu
ĠEng lish
Ġb ott
Ġdis p
Ad vertisement
ĠH ere
Ġfollow ed
n ew
Ġevent ually
Ġc rowd
Ġcor rect
Ġtr ust
Ġexecut ive
Ġcomput er
Ġfe ature
Ġfam ilies
Ġrelig ious
Ġaut om
Ġapp eared
Ġover all
ĠS im
Ġm ix
w ood
Ġphys ical
Ġsen ior
er o
ĠF rench
Ġeas ily
Ġstre ng
ur ance
Ġdec ades
Ġh ar
Ġcent ral
uf act
ub e
M y
Ġtreat ment
Ġp sych
Ġconf ir
Ġ2 9
Ġn ice
ĠSm ith
Ġp us
Ġco ol
Ġsm art
Ġsus p
or ney
ĠM art
Ġact ions
Ġg ives
Ġil leg
Ġes c
Ġprom ot
er ry
ĠB el
Ġsign ed
D on
Ġf irm
ĠW ind
Ġyour self
en cies
ĠIntern ational
Ġanal y
Ġdet ail
a res
Ġan g
Ġgr ad
Ġcred it
Ġnot ed
Ġcris is
ir ing
ĠE arth
Ġtr uth
Ġdevelop ed
m ar
A ccording
c ul
ot i
d om
2 7
Ġus es
Ġdo or
Ġmeas ure
Ġallow s
1 00
Ġpred ict
c raft
Ġpolit ics
3 5
Ġcustom ers
Ġd rop
ĠE U
Ġd raft
u ing
B e
Ġpe ace
Ġbe aut
Ġman ager
Ġcr ime
Ġweap ons
Ġ >
Ġun ique
Ġfe ed
Ġsal es
et ro
Ġconf lic
Ġal tern
ĠA ir
Ġbenef its
Ġar m
Ġinte lligence
Ġl ic
Ġl if
Ġide as
I s
in n
bo ard
Ġchar ge
Ġrel ated
ĠCoun cil
ite ly
ĠAr ab
Ġindividual s
Ġre form
ĠChrist ian
Ġknow ledge
Ġproject s
ĠUn ion
ut y
ĠAustral ia
Ġr ule
2 6
Ġr ap
Ġbro ther
ĠGo vern
A D
on ents
Ġcontin ues
Ġseem ed
Ġapp arent
Ġadv ant
in y
Ġgo als
ĠCom p
ri age
id ers
k en
ĠC ap
Ġcr iminal
Ġfavor ite
Ġstud ies
ch ange
Ġfull y
A P
ĠM ex
B y
Ġexp and
Ġst o
N ew
Ġcol or
Ġprogram s
in ated
res h
Ġstra ight
Ġdis play
ĠS chool
Ġprev iously
Ġtr aff
Ġm ist
ic ed
Ġchall enge
I A
Ġem b
Ġr ates
E O
i ance
Ġsa ve
i able
p art
Ġke pt
4 5
n own
Ġatt ract
ĠPol ice
wh ile
Ġsp read
r s
Ġcle arly
ĠGerman y
m ark
Ġ x
ĠAng el
Ġlarg er
Ġf a
Ġsp ir
ĠFl or
ĠIntern et
Ġr are
Ġsuccess ful
b ox
ĠM ac
ound s
Ġhigh ly
Ġsp end
lic k
ĠGeor ge
ĠL a
ĠT om
Ġprim ary
ic it
r ate
Ġind ic
ĠEng land
Ġs end
E T
Ġinc ident
Ġsour ces
Ġre ached
Ġl ines
on ent
Ġal bum
ant ly
al se
or ter
ow ers
Ġvo ice
S ome
Ġpl aces
Ġwe b
Ġres ources
Ġdeter min
ĠD ef
Ġgreat er
Ġfe et
Ġmin or
Ġopt ions
Ġen em
Ġclaim ed
od ay
Ġpre m
h ttp
Ġ200 7
n et
Ġca used
Ġr ise
Ġla un
ĠH igh
sec ut
) :
Ġfight ing
Ġreg ular
O M
Ġactiv ity
ing ly
Ġknow s
Ġshoot ing
ĠG eneral
Ġown ers
Ġf ine
Ġpr ices
Ġstat us
ot a
ĠR ec
ĠU p
w ide
ol ic
or g
Ġresear chers
ĠA nt
Ġem ot
qu e
Ġend ed
us ion
oc ks
ĠR ob
Ġlit er
m iss
e an
lev ision
2 1
v ille
ĠG old
Ġp un
Ġref lect
ĠFr anc
Ġconcer ns
Ġtrad itional
Ġpl ant
Ġorgan iz
ter m
Ġc ities
Ġha ven
iv en
mit tee
b on
ol es
Ġ ;
Ġsupp osed
m ission
Ġinte gr
Ġpolic ies
Ġman ufact
iver se
Ġra ised
Ġcall ing
eng th
Ġpro s
it ness
2 9
Ġnorm al
Ġcharg es
Ġwa it
âĢĿ ,
rib ution
at tle
Ġac qu
Ġhapp ens
P ro
Ġbe at
E C
Ġbas ic
Ġabs olute
Ġgo ld
U n
ĠM ag
. âĢĻ
ĠE very
Ġpat ients
ro ll
Ġh ospital
Ġn ames
ic ago
Ġtr ou
Ġemploy ees
Ġadd ing
Ġlear ned
2 8
Ġv irt
Ġb irth
Ġagree ment
if ying
ĠB ay
il ed
se y
Ġfem ale
ĠH am
Ġj ump
ĠC r
Ġsee ing
Ġfund ing
Ġsh ut
ic a
Ġmost ly
ĠF rom
p en
Ġf reedom
Ġens ure
Ġpr int
Ġmin ister
ing er
Ġstre et
Ġme chan
Ġst ation
Ġcreat ing
Ġsl ight
ve re
Ġcom mer
Ġe th
os h
Ġoff ered
on a
ĠWe ll
Ġl ik
ri ption
Ġauthor ities
" :
ĠBro wn
ĠFlor ida
Ġgr and
ĠSec ret
Ġass ault
Ġbe g
ĠSc ott
Ġle aving
ĠA P
Ġweek end
Ġprop os
Ġsc en
Ġey e
se e
N ot
Ġbehav ior
Ġad op
5 00
Ġe le
ri an
ĠRe g
u ild
Ġr ank
Ġwond er
ĠM o
Ġim pl
Ġact ual
. '
Ġm er
Ġ ir
Ġreveal ed
Ġl ose
Ġneg oti
ist ry
Ġjud ge
Ġwill ing
Ġwe ight
Ġst yle
Ġpost ed
ĠM ost
Ġp ush
ĠP ort
ĠL et
ĠS un
I D
Ġg reen
Ġinst all
Ġapp l
Ġbelie ved
ww w
Ġd ire
Ġinflu ence
Ġapplic ation
ĠSt ud
ign ed
um an
Ġen force
so ft
A r
ear ch
Ġpart ies
Ġmass ive
Ġlaw y
Ġob ser
Ġoper ations
u ana
Ġc ry
Ġval ues
L L
ĠFr ance
p ri
it ude
ad o
Ġwh om
Ġestab l
ĠHill ary
H ere
ĠB re
ac ing
ĠA ccording
Ġv ac
Ġad ult
Ġpict ure
Ġwh atever
ĠM at
ab y
m ine
li ament
Ġdr ink
Ġb rief
ro l
ĠHe alth
Ġf at
Ġqu al
Ġcho ose
ĠA lex
Ġarrest ed
Ġrecord s
Ġbenef it
Ġm ount
Ġindepend ent
est ic
ĠIn te
Ġc ars
âĢ ¢
r ant
____ ____
Ġfeel ing
ĠPe ople
ij uana
k i
ĠB er
Ġm ission
ĠW all
Ġstr ate
Ġent er
Ġstrate gy
Ġim ages
y a
Ġdef end
Ġadv oc
ro id
ĠO h
ĠCom mittee
ĠO ther
ĠKore a
How ever
ĠComm ission
ro g
Ġdist rict
u gg
Ġc ore
ent ed
ĠTr ans
Ġrun s
Ġw ild
Ġtri al
Ġlear ning
Ġ Ð
Ġsol ution
Ġcrit ical
Ġoff ers
Ġask ing
7 0
Ġpat tern
Ġshow ing
Ġun c
Ġdeb t
ĠP ress
Ġopp osition
Ġtem per
Ġw at
Ġprov ides
Ġte acher
t ies
Ġprodu ced
Ġv s
Ġrest rict
ĠL aw
Ġt ick
ak ed
Ġres idents
ĠCh icago
Ġdev ices
Ġ8 0
Ġconfir med
Ġcele br
Ġrespons ible
r ants
ĠPh il
r am
Ġbr and
Ġt end
Ġb orn
Ġc ru
ra v
Ġdet ect
Ġinvest ment
Ġv ill
ĠWh y
3 3
r ad
ĠJust ice
r ont
S A
ĠL ou
Ġdoll ars
Ġd aily
ĠW estern
ic ial
Ġocc as
Ġopen ing
ĠB ush
ĠB ecause
Ġse ction
Ġag reed
Ġinterest ed
ĠJohn son
F C
ĠM ike
ri al
ill ing
Ġdig ital
p oint
Ġmill ions
ĠD el
Ġb order
Ġprodu ce
Ġet c
Ġeffect ive
ĠC up
Ġelect ric
ĠM od
az ing
Ġb ur
Ġexpl ained
Ġunderstand ing
ci ence
Ġgener ally
Ġrepl ace
Ġm ur
Ġneigh bor
E x
Ġwor se
Ġopin ion
ĠA M
Ġhe avy
Ġpart ners
Ġannoun ce
Ġch air
ĠY es
ĠB it
ĠF ound
Ġhe ro
Ġdef e
Ġhig hest
Ġsle ep
S c
ĠAd d
Ġm ale
Ġbecom es
Ġtyp es
Ġass um
ĠP M
Ġadvant age
o ly
Ġk ick
Ġs pl
r ig
ur ies
Ġtr ain
Ġprofess ional
Ġbelie f
IN G
Ġche m
Ġachie ve
Ġr at
st e
oc r
ĠB ig
Ġm ap
icro soft
Ġthe ory
Ġcond ition
Ġbas is
Ġch urch
ic ians
Ġacc used
Ġth us
out hern
ud d
Ġl oad
Ġ Ã
Ġdest roy
m et
Ġmar riage
ĠL iber
ĠSec urity
L e
ĠG et
Ġinit ial
Ġassoci ated
Ġte levision
Ġprot est
The se
v est
ce ll
ag s
ĠM any
ord s
Ġphot o
or ial
Ġhundred s
Ġfr ame
Ġsh ip
Ġstri k
ĠE v
Ġprop osed
B S
ĠM al
ĠG reat
i pe
Ġcontro vers
s pe
ĠM il
Ġlim it
wit ch
ĠComm un
n o
Ġon to
Ġscient ists
ad ing
Ġspec ies
i ation
ĠO ur
Ġhe aring
ĠN FL
Ġjo in
Ġwin ning
ak s
Ġwe alth
Ġcommun ities
Ġmil es
ĠFranc is
Ġd er
ĠInst itute
ber t
Ġob tain
ĠCanad ian
Ġbott om
if ul
Ġmem ory
ĠH all
ĠS am
Ġ ice
ic ip
Ġbecom ing
Ġlegisl ation
le vel
Ġdou ble
Ġopen ed
Ġ200 6
9 0
O U
Ġre ject
we ll
G B
el ine
Ġreturn ed
Ġdoc uments
ĠL ab
com ing
Ġfa ith
Im age
Ġloc ation
w in
Ġneg ative
ĠOff ice
l a
z en
Ġte ach
sc rib
Ġredu ce
w orks
as te
ĠPal est
M r
Ġdise ase
Ġsh ared
ort hern
Ġdrug s
Ġinc red
Ġman agement
Ġser ve
Ġh arm
ĠIslam ic
ar an
ĠWind ows
ĠIn c
Ġlab or
Ġsur round
Ġ9 0
and er
Ġun like
Ġepis ode
ear s
Ġser ved
Ġleaders hip
Ġact ive
ĠD ist
Ġsol id
od es
B A
Ġc ards
Ġst ated
ĠCh urch
Ġco verage
ist ics
Ġcamer a
Ġ3 1
Ġm ax
ortun ately
a e
Ġeas ier
at ically
ĠU k
ir gin
Ġilleg al
o om
or row
Ġnot es
Ġextreme ly
Ġn ine
ĠJ er
Ġcommit tee
Ġaud ience
Ġd ie
k nown
Ġdoub t
Ġvict ory
Ġs un
Ġam b
c ont
Ġco al
Ġconserv ative
ograph y
Ġexpl ain
Ġexist ing
Ġ3 5
Ġdri ver
Ġf alse
gh an
Ġcompet ition
ĠM ad
Ġapp eal
Ġnot ice
ĠSand ers
i pped
ol f
G et
and om
Ġc ateg
Ġvictim s
Ġarg ument
Ġcharg ed
Ġlaun ched
ĠS l
re y
Ġdec ade
res p
Ġcom fort
Ġput ting
Ġdire ction
Ġpurp ose
ĠBrit ain
Ġdep artment
Ġd aughter
Ġsupp orters
Ġm obile
Ġsp oke
wh ich
Ġsuggest ed
Ġwatch ing
Ġdefin itely
ibr ary
Ġf resh
h ouse
ĠY our
Ġintern et
Ġd ed
is her
Ġr an
P l
ĠF ox
Ġins urance
Ġtre nd
Ġrad io
Ġsepar ate
Ġb omb
i os
Ġmach ine
Ġiss ued
ĠCar ol
Ġfl oor
Ġb ed
Ġview s
Ġsit es
Ġtrans fer
Ġdri ving
Ġinst ance
Ġtraff ic
ĠQ ue
ad y
Ġdanger ous
ĠS ince
ill er
Ġres ist
Ġcomp ar
in ct
Ġcommer cial
ĠA tt
ĠRober t
Ġh us
Ġst ructure
Ġsur face
Ġrepe ated
N A
ĠM P
C on
ct ors
Ġback ground
land s
Ġitem s
# #
go ing
ar io
ĠF in
om as
ili ar
ĠL ike
C l
Ġwor st
ac ity
Ġsupport ed
ĠW il
Ġentire ly
Ġtool s
A meric
Ġveh icle
ĠG ame
Ġpl ays
Ġmar ijuana
C C
! âĢĿ
v ention
f erence
Ġn or
Ġactiv ities
ĠCh ris
Ġc ash
e qu
s erv
Ġs an
ĠO ver
Ġsmall er
l ant
4 8
ĠB ank
Ġdisc overed
Ġfind ing
Ġbusiness es
Ġtell ing
it able
Ġcont ain
om an
oy al
Ġas pect
Ġset t
Ġple ase
Ġcl osed
Ġold er
ad a
Ġplan ning
i h
Ġexper iment
Ġ200 5
Ġm icro
act ions
Ġconcer ned
ĠS up
z a
Ġanim als
Ġjust ice
Ġra ise
S P
ĠA re
ĠD irect
ĠS il
i pp
Ġtrans port
ĠJew ish
ter y
b ing
Ġt im
ampions hip
ru it
Ġacc ur
Ġrequ ires
Ġgr ant
Ġcon text
ul f
ĠP ri
Ġcon sequ
Ġc aught
Ġmur der
b ut
Ġlarge ly
d o
ph one
Ġt ask
Ġ7 0
oss ible
and on
g u
Ġaff ord
an cy
ul ated
rib ute
se mb
Ġcandid ates
Ġhold ing
3 2
Ġn orth
ĠL os
Ġh ack
ĠAr t
Ġstreng th
Ġatt end
pect ive
ak istan
Ġdec isions
Ġconcer n
Ġg ay
ann el
3 7
Ġstr ateg
o very
Ġtr uly
ic i
Ġinterest s
he m
Ġc atch
Ġwe l
il ing
ang ing
Ġw itness
Ġconst ruction
Ġse qu
Ġupd ate
os ure
ĠLe g
Ġdeli ver
Ġ200 0
3 6
Ġann ual
as y
Ġl ength
Ġph il
Ġgu ess
ĠAfric a
O ur
Ġc ook
igh ter
g ency
Ġno vel
form ation
ck now
Ġr ough
Ġwa iting
Ġallow ing
ĠJ ud
D A
ic y
r ick
h ow
ĠUk rain
Ġhigh light
Ġcan cer
ĠAfric an
Ġpl aced
iz es
Ġspokes man
Ġfar m
Ġhas n
Ġsc ale
Ġbelie ves
ĠAssoci ation
Ġf uel
Ġha ir
cept ion
Ġtest ing
ĠL ake
ĠK en
a it
ĠM er
ĠJ ones
Ġass ess
Ġrest aur
3 4
ĠG roup
Ġun it
Ġgener ation
Ġn ar
S T
Ġr out
ĠFr ank
N N
se ason
Ġjo ined
âĢ ĺ
ĠF BI
Ġintrodu ced
ĠAf ghan
ont o
um n
Ġbl ue
Ġinit i
Ġenforce ment
l or
Ġst ock
ĠC EO
P A
ĠG OP
Ġpres ence
Ġref uge
Ġestab lish
Ġkeep ing
ĠT re
D es
n ight
Ġmention ed
ĠA c
ĠInst ead
Ġk id
Ġg e
Ġex erc
Ġoper ation
Ġhom es
Ġconvers ation
Ġthere fore
ic on
gy pt
ĠU N
Ġdiscuss ion
e ah
M ore
ĠM iss
az on
Ġe at
5 5
Ġtell s
Ġban ks
ere nces
Ġab use
Ġgirl s
ĠJ im
Ġconc lud
Ġconflic t
Ġgr aph
Ġocc up
Ġfin ished
az ine
Ġman aged
B l
E M
Ġrem oved
Ġrecomm end
ĠP re
ul a
k ins
oll y
Ġdown load
g a
r im
Ġident ified
Ġobv ious
Ġestabl ished
il s
ĠSup reme
Ġprov iding
b our
ĠP C
n el
oc al
ĠM icrosoft
Ġuse ful
Ġfil es
ĠJ eff
Ġmeas ures
ot ed
Ġsto pped
Ġcommit ted
3 8
ĠF ore
app ed
i us
ow l
ocr acy
Ġmod els
e y
ul ate
Ġfour th
Ġnews p
Ġsp orts
Ġa cknow
Ġinj ury
v ant
Ġspir it
ron ic
Ġpart ner
Ġp it
Ġb ul
Ġtrans l
Ġfund s
ig an
Ġoff ensive
ens es
ĠAngel es
Ġear th
is ation
ĠPro f
Ġmiss ing
ĠT y
Ġsk ills
ĠCon st
Ġwe ak
Ġother wise
ĠK h
up s
m ail
Ġex clus
om s
av a
ĠJ ose
wh at
ĠS al
Ġst ick
Ġfig ures
ĠV irgin
Ġown er
Ġs outh
ĠJapan ese
b re
Ġf ant
Ġgu ard
ĠR yan
Ġappro pri
ĠTe am
Ġtri p
Ġqu e
Ġfoc used
Ġpre fer
4 9
Ġwind ow
is f
T C
Ġhus band
ro s
Ġphot os
Ġf le
Ġt ough
Ġtax es
Ġrelative ly
Ġdep end
Ġprote ction
Ġconnect ion
ĠV er
Ġsc ript
Ġp air
ĠSecret ary
out s
Ġcell s
Ġ201 8
Ġsurve y
Ġspe ct
hen s
ĠRich ard
4 7
Ġident ity
ĠP akistan
ĠIn ter
l ig
Ġarri ved
ĠT im
in ter
re es
Ġset ting
Ġex change
Ġcomm ission
ĠS ub
pl ace
Ġ= >
P S
Ġh ate
Ġneighbor hood
Ġstart s
and a
Ġg ender
u ke
Ġtwe et
Ġvot es
Ġhous ing
Ġkill ing
ĠAnd roid
ver se
itution al
od ies
ĠLou is
Ġfeel s
Ph oto
Ġam azing
re al
Ġcor ner
ĠJ oe
Ġsuggest s
Ġtal ks
Wh y
Ġsu st
ĠIsrael i
it z
Ġag gress
uck y
ĠM et
ĠMex ico
a wn
ĠR ock
Ġs ides
ĠN or
3 9
Ġve ter
Ġhappen ing
c ks
Ġa ward
ag n
Ġslight ly
Ġbe er
Ġimmig ration
g ar
Ġhum ans
! !
Ġstep s
anc ing
w ith
pro f
Ġrem ind
ĠG ree
su it
Ġbig ger
Ġsupp ly
an ia
ĠI r
Ġst ruct
dd en
Ġfail ure
r ange
is er
Ġro ll
Ġhelp ing
ĠAl though
Ġdef ensive
Tr ump
ren cy
Ġme re
ag ues
Ġplan ned
ĠPalest in
Ġspe aking
w ing
Ġment al
r d
Ġcol lection
Ġw ish
ĠAr my
Ġplan et
ĠGovern ment
ĠE gypt
hed ul
Ġcar ried
ĠSyri an
Ġorganiz ations
g ers
Ġcl ick
g n
ĠWe b
m akers
Ġd at
u ct
ĠMart in
Ġbal ance
Ġele ments
Ġdec ide
4 6
ĠP et
Ã ¡
Ġdom estic
ĠG ood
Ġturn s
Ġp et
ort ion
Ġthan ks
L ast
ĠThe ir
it t
Ġsecond s
! "
ost on
el ess
Ġg ain
R ead
a ven
Ġmark ets
Ġstri ke
Ġear n
G o
Ġsound s
Ġcirc um
Ġse a
C H
Ġfam iliar
Ġstand ing
ĠRes earch
u ate
it er
Ġstand ards
Ġhealth y
Ġposs ibly
Ġaccount s
ĠAl so
c oh
Ġr ich
Ġprofess or
ĠM ary
Ġsu dden
Ġreg ist
Ġchang ing
Ġdro pped
Ġm ig
ad ium
ĠS ur
Ġar my
ut ers
Ġimp ossible
Ġphil os
Ġpr inc
7 5
im al
er ous
ĠT er
yn am
E L
Ġcre w
m as
ars h
ĠM iddle
oc ol
i ams
Ġr ou
Ġscient ific
ĠCol lege
ĠP eter
it ect
Ġauthor ity
R A
ĠPl an
ĠPr ime
Ġapparent ly
ĠB ern
ĠD ec
ĠTh omas
Ġtest s
Ġoper ating
Ġwor ry
Ġfil ed
ĠFound ation
Ġde ploy
Ġ3 2
Ġmult i
f e
Ġn one
Ġco ld
Ġhe at
ar ks
are n
am m
ĠT ime
ill a
Ġun ion
Ġer ror
ĠServ ice
ĠM ont
Ġbeaut iful
Ġapp re
ĠCarol ina
Ġapp ly
Ġac adem
Ġseek ing
Ġcorpor ate
Ġun ivers
Ġinn ov
ack s
Ġfell ow
ĠJ es
Ġexper ts
Ġult imately
Ġaltern ative
h i
Ġanim al
Ġv ast
rou d
Ġregard ing
ony m
Ġcut s
ĠO ut
ic ide
ĠTH E
Ġvar iety
Ġun its
ob by
Ġincreasing ly
Ġdevelop ers
k in
Ġv ul
rel ated
ĠU s
Ġl osing
Ġposs ibility
rast ructure
Ġs ch
Ġdeg ree
ĠM os
ay er
Ġ4 5
Ġt ack
ĠT wo
Ġl ived
Ġcol le
Ġabsolute ly
Ġclos er
Ġ200 4
.... ....
Ġag encies
st ream
H L
Ġy ards
ĠTor onto
Ġc overed
ĠD en
Ġpay ing
ĠDist rict
ĠF ire
Ġfl ow
Ġintern al
Ġenvironment al
Ġsc hedul
ĠIm ages
st ate
ict ed
Ġrelig ion
Ġequ ip
% )
ore s
l ook
Ġhon est
Ġv ision
Ġwrit er
Ġimag ine
ans ion
Ġsurpr ise
Ġrespons ibility
ap ers
Ġtw ice
Ġrev olution
olog ies
an o
Ġser ver
Ġinst it
ĠL ast
Ġter rit
ĠG ar
ĠUS A
l o
Ġsit ting
ĠL at
Ġfl ight
ĠA ri
ĠCent ral
F rom
ad ed
ĠU nder
] .
Ġfact ors
as hed
rib le
Ġappear ance
Ġp il
Ġdevelop ing
idd en
ad er
Ġpresent ed
Ġm ut
ur ation
âĢĶ âĢĶ
Ġun less
E ven
Ġf ol
Ġexp ensive
ol it
Ġfund ament
Ġte en
c ious
Ġg ar
ĠB ur
Ġsol ar
Ġsold iers
Ġfor ms
ĠAt lant
Ġap art
ĠP ublic
ist ed
Ġad just
ress ive
en ced
Ġat h
os en
Ġset tle
Ġapp oint
Ġelect ions
ov ing
ain e
ste in
r un
Ġsp ort
Ġprep ared
ĠS pr
Ġun iversity
Ġestim ated
Ġsh all
ol a
Ġt ight
Ġr andom
d en
4 4
Ġstre ets
Ġsy mb
Ġo dd
ur rent
C A
Ġr id
ĠP ut
3 1
Ġgu aran
O f
Ġexper t
Ġapplic ations
Ġint ended
Ġbro ken
Ġoccur red
ĠMed ic
v is
Ġdeter mine
ĠB oston
y m
ĠR em
i ot
Ġconv ention
ĠTh ose
ĠFrancis co
ĠC ath
p erson
ĠD an
Ġdom in
Ġfam ous
Ġhelp s
Ġcoun cil
Ġsk in
ter day
at ures
Ġcomb at
in ent
Ġcon clus
Ġatt orney
.âĢĿ <|
le ts
Ġpl enty
Ġtr ail
Ġbring ing
ĠCh ief
J ust
ĠJ on
anc he
Ġar ms
t op
ĠP lease
ĠJ ournal
Ġrem ove
o ch
ĠPar is
Ġb aby
Ġcar bon
Ġcons ult
Ġm aster
ĠG al
Ġcap acity
ro ad
Ġf if
ĠSoc ial
Ġpot entially
ĠC amp
i pping
Ġ199 0
Ġf ired
ly n
Ġst ress
in te
ĠF ederal
Ġhy p
Ġt on
Ġse lling
all s
et ic
ed ia
Ġins p
i as
k a
Ġcritic ism
Ġgovern ments
Ġt ourn
ĠM ur
ure au
Ġpie ces
Ġb ought
Ġpro ve
Ġtro ops
I P
Ġvot ed
Ġoff ering
Ġspecific ally
Ġwere n
Ġs ale
ĠJ o
ĠV e
Ġer a
cl ass
Ġequ al
Ġst ars
L et
Ġcl in
ĠM el
Ġvul ner
ĠVirgin ia
Ġpropos al
Ġorig inally
p m
por ary
Ġf aster
Ġhe av
, '
ĠO pen
Ġse ctor
Ġinf rastructure
ri e
ĠS ol
Ġpr ime
= "
ce an
Ġpercent age
Ġb row
ĠCons erv
ĠD uring
ĠAn y
Ġrap id
Ġj ail
Ġbo ost
ĠR el
Ġcult ural
Ġcl ot
use um
Ġsignificant ly
ĠM ass
Ġchalleng es
ĠIs land
ol ved
end ment
Ġte le
Ġveh icles
Ġfin ish
Ġg rew
Ġdr am
ĠR iver
Ġpoint ed
Ġrem ained
Ġsc r
Ġthan k
Ġsign s
Ġloc ated
ock ing
Ġelect ed
ed er
th at
ĠWill iams
coh ol
Ġse asons
Ġmethod s
ic ate
ot y
ph as
O L
g en
Ġ19 5
Ġcl im
Ġd in
Ġb reat
Ġref used
ĠO nce
Ġexpress ed
ĠBit coin
ĠPh oto
u nder
Ġbro ke
ĠAm azon
Ġconduct ed
h t
ĠF e
Ġh un
Ġun s
Ġequip ment
ĠAustral ian
ĠS aud
Ġrem aining
E very
od d
Ġpro secut
Ġpurch ase
I M
N D
Ġt act
ce l
Ġrul ing
ĠR ub
Ġsec ure
Ġaffect ed
igh ters
Ġgreat est
Ġvot ing
Ġreg ime
u it
stand ing
ĠLe e
Ġsub s
ĠChar l
Ġd ream
al ing
ĠWh o
Ġfac ing
Ġcopy right
n oon
Ð ¾
Ġ3 6
Ġind eed
Ġrecord ed
ans as
ed s
Ġyou th
ri er
Ġarg ued
ash ion
N e
Ġexpl os
g l
Ġpos itions
S ince
Ġchem ical
ly mp
Ġdiffere nces
Ġlead s
U p
Ġre nt
Ġmin imum
D o
h and
ve y
ĠGu ard
Ġsh ape
Ġ5 00
ĠS ant
Ġexperien ced
Ġre act
Ġs witch
or age
F irst
Ġtr ig
y r
Ġre venue
Ġpro ced
Ġredu ced
Ġv ir
Ġth r
Ġinf ect
Ġinvol ve
ĠSte p
Ġsurpr ising
Ġlist en
Ġret ail
Ġtre ated
Ġfl at
Ġweap on
on om
Ġmot iv
ow nt
Ġexc ited
Ġmod e
Ġdisc l
Ġw ood
Ġsupport ing
Ġdist ance
Ġcont rast
Ġpan el
Ġbel ong
Ġwe aring
Ġm arg
Ġsp ring
Ġag ent
Ġobv iously
ĠS ing
ĠS T
Ġtalk ed
Ġc as
Ġdetermin ed
A b
Ġconsider ing
Ġappre ci
u zz
u pp
Ġpl us
Ġb ound
ain ts
Ġgl ass
in i
Ġconsum ers
ĠB oth
Ġwide ly
ĠP ac
Ġ id
os ite
Ġopp osed
re ens
Ġh urt
k et
pt ed
ive red
ĠF ree
w ar
Ġa st
ov es
Ġident ify
Ġref erence
Ġhand le
Ġbas ically
og ue
Ġpros pect
Ġ200 3
ust er
U T
our s
Ġa id
Ġend s
] ,
ab ilities
== ==
Ġenem y
Ġcomb ined
Ġser iously
app ing
Ġpriv acy
Ġher self
Ġb ull
Ġsh ift
ĠS ov
p et
Ġpolit icians
Ġconst ruct
ĠB ook
S te
Ġcomple ted
ĠC ru
c ol
Ġpl ants
Ġp itch
ĠD aily
O W
Ġse at
Ġfact or
Ġt urning
Ġpass ing
ĠT oday
Ġafter noon
Ġspl it
D P
Ġse m
he red
Ġdep art
Ġopportun ities
Ġmin ute
ĠB BC
Ġinstit utions
Ġp ages
om pl
Ġpull ed
Ġrep orters
ĠO lymp
Ġcon cent
Ġcal cul
ĠR ad
L E
al ed
ĠCol or
An other
w ater
Ġg iant
ru ption
ap ter
u ous
Ġst ret
Ġs ac
H is
Ġc raz
Ġexpl o
Ġpro ceed
Ġvide os
Ġliber al
Ġl oved
We ll
Ġm ort
Ġgr ab
Ġopt im
Ġstrugg le
Ġh ol
ĠSte ve
or al
0 1
ok ing
Ġstand s
P D
ess ions
Ġwrit es
ob e
b ur
l ife
Ġun able
Ġvis ual
m m
Ġsu it
Ġhop es
raz il
ĠJack son
ap ed
Ġval id
c are
ĠH aw
Ġmat ters
pl om
ĠR o
ĠTur key
ĠS qu
Ġdis miss
s en
ar p
Ġset s
ĠL in
I ON
m osp
L A
h ab
Ġ200 1
Ġenc oun
ĠB et
Ġadv ance
A pp
-------- --------
Ġad vert
Ġf ra
ens ions
Ġqu ant
g ment
Ġpers pective
Ġe lement
Ġattempt s
ord in
Ġeven ing
Ġacc ident
ĠFor ce
Ġlot s
uc ks
Ġcapt ion
Ġpack age
Ġden ied
P e
ang ed
Ġreport ing
ĠMuslim s
Ġapp s
Ġb odies
6 4
ll er
Ġsh op
I nd
Ġtrou ble
r id
Ġ //
Ġup gr
Ġdef ault
Ġse vere
R es
Ġb urn
ani el
O ver
ĠR oad
ĠPro ject
Ġtechn ical
Ġsubst ant
ĠLab our
resp ond
ut s
Ġemer gency
st s
** **
Ġquarter back
Ġel imin
Ġqu iet
( )
ĠP ower
Ġco oper
â ĸ
Ġar med
Ġtyp ically
Ġfr ust
Ġair craft
Ġrespond ed
Ġdis s
Ġsat isf
Ġm al
id el
Ġp owers
Ġdisapp oint
Ġre action
Ġv an
Ġnum erous
ab led
Ġdel ivered
m ond
un te
Ġhttp s
ĠDirect or
Ġinst ruct
un ction
Ġbroad cast
Ġent ertain
6 5
ĠMed ia
ra wn
Ġcap able
Ġconf ident
, [
Ġt un
es ters
Ġfil ms
Ġtrad ition
Ġadv ice
Ġcre ation
Ġcoll abor
Ġfor get
S S
Ġmar ried
Ġfind ings
ĠSc ot
amp ion
Ġappro ved
ĠSh ow
ribut ed
Ġp roud
Ġshould n
Ġed ge
ĠP enn
ĠN ov
A m
Ġtrans ition
Ġfac es
Ġre new
Ġacc ompl
Ġsuff ered
ion ally
Ġev al
ad ow
ĠOh io
Ġmov ies
Ġf ly
I V
ĠAfghan istan
Ġexperien ces
Ġper man
Ġupd ates
ul ations
ok en
f ree
Ġle aves
il ty
9 5
Ġdri vers
Ġrou te
p ass
y th
Ġdecl ared
Ġon going
T S
l ines
Ġa uth
er ved
ĠY et
S p
Ġc raft
Ġconf idence
Ġcr imes
h ost
ĠWill iam
Ġad mitted
." <|
ĠAnd rew
Ġex cell
tern al
ĠRom ney
R ep
D uring
Ġviol ent
ĠSy stem
Ġord ered
Ġpick ed
is ters
as tern
Ġexpl ains
ĠSp ace
Ġi Ph
Ġwalk ing
Ġz one
Ġf ish
ĠM att
Ġreported ly
ell y
as p
Ġte ch
Ġm and
Ġarch itect
Ġnewsp aper
Ġcan n
Ġreal ize
Ġpublic ly
re land
Ġmor al
P R
Ġdel ay
Ġmess ages
Ġour selves
res ents
Ġdecl ined
ĠMay be
is hes
c alled
ĠN AS
ess or
Ġem p
ĠF ollow
Ġedit or
Ġt ur
u ations
A dd
Ġcircum st
du le
Ġwe ar
Ġtal ent
Ġpict ures
ound ed
O ther
Ġwas te
T V
Ġlawy er
Ġco ff
Ġappropri ate
ner gy
Ġread ers
Ġmiss ed
our ney
4 2
Ġem phas
ĠS cience
w rit
ĠSt an
Ġt ree
Ġstate ments
Ġcent re
Ġem ails
Ġappro x
Ġpr in
Ġ198 0
Ġs ession
ĠW ood
I G
Ġs ad
Ġess entially
Ġg ather
Ġconf irm
Ġfor g
il it
ne ll
Ġcl oud
Ġtrans form
m ates
Ġnecess arily
Y es
ed d
Ġco ast
am in
Ġterror ist
Ġeffect ively
Ġconnect ed
ĠSe e
Ġg ra
ĠH en
Ġd ial
Ġalleg ations
Ġleg it
Ġf illed
c an
Ġphilos oph
us iness
Ġmag azine
Ġarg ue
Ġdec re
Ġpract ices
Ġro w
ĠTe chn
ĠM em
Ġlab el
Ġthough ts
ag an
ul s
Ġfac ed
ev in
Ġsong s
, âĢĻ
ent ure
Ġfact s
ĠChrist mas
Ġca uses
ĠB razil
c os
Ġt rib
T ube
ĠD ou
Ġen h
g ia
r um
T H
Ġevery body
Ġal cohol
Ġcont ains
c ons
t ion
or ry
ar ters
ĠMich igan
Ġs am
x ual
Ġsub sequ
Ġcr ack
ĠH uman
Ġaccept ed
em ploy
O h
ĠSaud i
or se
Ġn ations
ĠG M
Ġperform ed
Ġsecret ary
Ġwar ned
Ġag ents
Ġobject s
Ġwe ather
z er
ag ers
Ġdeb ut
Ġvar i
ĠW al
ĠF ar
ĠJew s
Ġappl ied
Ġlist ed
Ġinj ured
Ġmot or
o oth
Ġcl ient
Ġp ure
Ġr ail
ĠR on
ab in
ch o
Ġab andon
Ġd ynam
ĠI ll
ĠV ict
ac he
ĠR od
Ġgovern or
ĠGr and
Ġne ither
ĠJ ul
ĠL ib
Ġyes terday
Ġst orm
ĠI N
Ġs ke
l ong
Ġro t
Ġb ond
ĠPh ot
M any
i at
ac ter
ĠI D
ĠL ife
Ġexam ples
ang ers
ĠUkrain e
k ay
ĠB ack
Ġfr anch
Ġcont est
Ġgun s
Ġschedul ed
d ate
Ĥ ¬
Americ an
d ef
ĠT O
Ġactiv ists
Al though
ĠRe ad
es ome
Ġbehav i
C an
v in
Ġm ir
0 5
Ġlink ed
Ġdi plom
ĠW he
4 3
ĠSe attle
act ive
Ġconsequ ences
ĠDe velop
Ġannounce ment
Ġpat ient
C ont
Ġnear by
Ġdes ire
Ġinc or
Ġexpl an
ĠT ra
Ġfl o
Ġb oss
ir ty
Ġhe ll
Ġr ain
Ġdat ab
ĠH y
Ġth inks
ĠH ol
ill y
Ġinit ially
D e
at o
st ood
ot ic
end a
ord ers
ĠS ign
Ġmy ster
Ġimpro ved
Ġexerc ise
8 8
ac le
Ġfl ag
ĠB at
Ġl ibrary
Ġbuild ings
Ġy ell
Ġdo ctor
Ġin put
ĠS um
ĠI reland
ĠR E
es h
M A
Ġpl ot
ĠS ports
D S
ic ing
Ġmov es
Ġinj uries
Ġpo ol
Ġsurpr ised
S pe
ĠSov iet
Ġgu ilty
ĠV ol
ĠRe v
Ġdist ribution
Ġbeg ins
ĠA T
4 1
Ġrep resents
F ollow
us al
Ġwith d
Ġb ot
Ġbr ings
Ġart icles
ĠA v
ĠK im
Ġart ist
Ġ3 00
Ġconf ig
n ame
Ġc ere
ĠWe ek
ard en
Ġsub scrib
Ġent ered
g reg
ĠCol umb
ot al
Ġrece iving
ĠM ount
ĠA ff
Ġ ing
Ġnet works
as ure
Ġthreat s
Ġfor t
ĠM a
est ival
Ġmaterial s
Ġrad ical
us se
Ġsc ored
Ġal t
Ġhistor ical
Ġoff ense
Ġres ident
Ġres olution
Ġfem in
Ī Ĵ
Ġres c
Ġtot ally
Ġadd s
Ġsu c
en ger
Ġadv anced
ĠOn ly
z ona
semb ly
Ġsh ots
t witter
it a
Ġr ising
ĠW ik
ĠG en
Ġb are
Ġat mosp
ĠBl ue
Ġre in
Ġstore s
Ġst ood
Ġincre ases
Ġprot ests
ide o
Ġ200 2
Ġexp ansion
Ġrepl aced
Ġboy s
ĠBro ok
et te
ird s
Ġrem ark
ĠAs ia
ar l
ĠC NN
Ġath let
Ġfollow s
Ġsy m
Ġclass es
Ġp ra
hip s
Ġconsist ent
ĠD C
Ġwar m
Ġp hen
het ic
T e
Ġbr ight
iss ions
ĠB ob
Ġ4 8
Ġf ill
p ret
Ġdem ocracy
ok ed
ĠW ork
ĠE ach
I I
al ty
l aw
Ġr ide
Ġdiscuss ed
The n
Ġbut ton
Ġa f
Ġdef ined
Ġcor respond
Ġ3 7
ĠEx p
Ġopp onent
Ġout put
Ġl ie
Ġto m
ocrat ic
f ortunately
du c
ĠSec ond
Ġplay off
ĠIS IS
Don ald
ad or
w hel
ut ch
Ġhead s
Ġpar liament
ĠBar ack
Ġs ought
ĠP rem
Ġ3 3
ath an
Ġimport ance
Ġrough ly
ĠAn other
Ġfair ly
Ġinvest ors
M ost
Ġtemper ature
Ġcolle agues
Ġ \
ou ston
Ġl inks
Ġpro hib
Ġpus hed
ĠC IA
Ġ3 8
Ġtarg ets
Ġent ry
Ġsp ons
ed y
i est
Ġclass ic
ĠH ist
ĠBo ard
ĠIm age
er g
Ġbu g
Ġch ain
Ġplan e
Ġconsum er
w ord
ill ance
Ġs now
Ġn ative
ĠL ord
Ġyoung er
Ġexpress ion
Ġsymb ol
ab b
Ġcreat ive
Ġcustom er
T A
Ġmanufact ure
ri p
ĠS her
Ġbu ying
Ġdeath s
Ġj oint
ĠiPh one
Ġto w
om in
S ee
Ġl augh
Ġalleged ly
ig er
Ġk it
Ġsch ol
Ġn av
Ġbre aking
Ġse es
ĠS ky
ĠW alk
Ġindust rial
Ġb ag
g ent
Ġh at
Ġtourn ament
ĠR ights
Ġbl ow
Ġexist ence
ĠM L
Ġcomb ination
Ġsuc ceed
Ġopp osite
Ġman age
Ġhold s
on na
Ġfav our
Ġsk ill
Ġunlike ly
Ġheav ily
r ations
Ġclose ly
ic ious
Ġregul ations
ĠN BA
it ors
Ġche ap
Ġfac ility
Ġdo ctors
etro it
+ +
pt y
Ġfra ud
Ġsqu are
and al
Ġsa v
Ġfew er
Ġb ike
Ġsqu ad
Ġr ally
Ġl ock
Ġs ick
P ol
Ġad m
Ġmot ion
ic ian
Ġhop ing
olly wood
r ong
Ġr um
ĠT op
Ġbat t
Ġany where
en a
Ġis ol
iqu es
Ġb on
Ġmom ents
omet imes
Ġcraz y
Ġt iny
Ġan cient
Ġcamp us
Ġhouse hold
ĠY ear
Ġfor med
Ġv ice
Ġz ero
Ġis land
ock et
Ġlaw suit
ĠW atch
ĠH el
Ġfun ctions
Ġd ownt
Ġgu ide
P U
Ġrele vant
Ġact s
Ġwar ning
ĠSw ed
Ġadult s
r ich
ĠCl ub
I L
Ġvers ions
Ġvol unte
Ġfeat ured
ĠIt s
Ġsome what
Ġacknow led
Ġab ortion
Ġ4 9
Ġref ere
Ġra pe
Ġg rown
Ġinst ru
O b
ar n
ĠM s
ĠVal ley
Ġl ies
ul ous
Ġass ets
ĠKore an
Ġcy cle
Ġauth ors
om a
Ġst orage
Ġess ential
Ġsubs id
Ġch art
Ġimmedi ate
Ġill ust
Ġprom ise
ĠCl ass
ĠYou Tube
ph y
Ġsh if
Ġev olution
ĠG ra
b orn
Ġhard ware
Ġtr ick
Ġkind s
Ġreturn s
ate ll
ic an
ĠE lect
Ġm ine
Ġpre gn
Ġparticip ants
Ġ197 0
op y
ĠAn n
ol ve
Ġfl ood
Ġear ned
ĠE ric
Ġexcell ent
Ġrestaur ant
Ġdiv ision
O RE
ĠF am
Ġdec line
Ġcur rency
Ġmechan ism
ĠCath olic
Ġfrequ ently
Ġdetail ed
Ġf ashion
u y
ĠYou ng
ĠC ard
Ġpl ed
Ġtrans p
Ġw al
ĠColor ado
Q u
ĠIt al
M an
f riend
it tle
ĠComp any
Ġrelationship s
ce ived
ER S
Ġimmig rants
Ġpost s
Ġs ister
Ġem br
ĠPut in
Ġob serv
om ing
Ġhard er
ter ing
ĠAri zona
Ġext ent
pr int
Ġform at
Ġemot ional
Ġrefer red
EN T
Ġcircumst ances
u able
v a
ke l
Ġalong side
Ġsign ing
Ġdescrib e
Ġopp onents
ĠG ames
ĠB oy
ef ully
Ġmet al
Ġded icated
Ġsuff ering
Ġun iverse
Ġfl u
ĠS ar
F P
Ġsh aring
olog ist
Ġcomfort able
ob b
oc key
ĠE nergy
Ġpus hing
ĠW omen
int end
er ves
l lect
Ġcol umn
Ġeff icient
Ġd u
Ġcommit ment
ĠI P
Ġter min
her s
ĠD ie
Ġact ing
ĠDe v
y ou
c hen
ĠC ub
ĠA C
Ġun us
Ġint ention
Ġstr ing
Ġmarket ing
Ġattempt ed
n ic
Ġp ip
ĠR am
Ġca using
0 9
Ġrep ut
Ġj ourney
Ġk ing
ĠDef ense
ay ers
Ġh ur
az a
Ġnews let
all as
ĠJes us
we ight
r ors
g ame
Ġw ire
Ġman ner
ĠSu pp
5 7
Ġreg ional
Ġsche dule
ĠT it
Ġcontrovers ial
F A
Ġstr ange
cer tain
Ġcarry ing
p an
' ,
Ġw ins
iam i
Ġm outh
0 8
ĠJ r
ren ce
Ġ Î
ĠW ild
Ġrepeated ly
6 6
Ġinsp ired
Ġme at
Ġupd ated
Ġw ave
Des pite
Ġbas ket
es c
Ġg od
Ġ %
Ġcompet itive
lud ing
Ġdeal ing
Ġown ed
Ġret ire
Ġstud io
Ð °
Ġsk y
Ġsent ence
Ġ3 4
Ġs ample
Ġreal ized
ens us
Ġdog s
Ġch annel
Ġstru ck
ĠAr ch
Pe ople
Ġfundament al
an ish
Ġstre am
L ike
Ġprotect ed
Ġart ists
ĠStep hen
m es
ĠH ome
Ġext ended
ĠH ouston
Ġc ert
al a
Ġbat tery
ord an
Ġr ing
Ġexc iting
Ġrequire ments
ĠE conom
E n
Ġus ual
Ġliter ally
Ġfol ks
d is
Ġal ive
ĠE ll
h us
ĠO ld
Ġwat ched
Ġhot el
Ġlat ter
Ġdep th
ĠK n
Ġwalk ed
Ġprec ise
Ġs and
I R
ĠAg ain
Ġg ang
r ison
in em
Ġc art
ĠW ars
n am
ĠL ong
ĠR ight
T wo
ĠM ot
Ġup coming
Ġobser ved
Ġfor th
ograph ic
Ġdeep ly
i pl
Ġappro val
m l
Ġinvol ving
Ġvol ume
ay lor
Ġnot iced
Ġany way
ĠV an
Ġchair man
ing u
ĠA ut
ĠF ord
um ber
ab is
Ġl iqu
iven ess
Ġselect ed
ĠD etroit
Ġfix ed
ici ency
ĠM iller
Ġnar row
ĠF ort
um s
ĠN Y
Ġrem ote
r ating
Ġg ap
ĠD iv
Ġtarget ed
Ġe ating
>> >>
Ġteacher s
g or
az e
Ġsurround ing
ĠWil son
u gh
Ġcon gress
Ġsh o
Ġattack ed
Ġover whel
ĠDav is
Ġbl ame
Ġmain stream
Ġsy n
Ġag enda
ĠE r
Ġcr ash
Ġris ks
Ġd ry
Ġn arr
7 7
Ġproper ly
Ġs ending
Ġpass ion
Ġmat ches
Ġunder stood
Ġex hib
ĠIt aly
Ġtest ed
u ated
ĠM en
Ġimp ressive
ĠChar les
Ġsim pl
ĠJ ava
Ã ³
Ġint ent
Ġas ide
Ġdes k
av or
Ġrequ ests
0 4
red it
ut ral
ĠM ic
ĠCh ild
Ġt ort
Ġw ake
ri ve
Ġknow ing
Ġch ose
w oman
Ġcontro lled
og an
i ro
Ġsust ain
b el
ac c
w est
ĠL u
Ġconf ront
Ġmod er
Ġloc ations
st one
Ġser ving
Ġdefe at
Ã Ń
Ġmed ic
Ġm ob
Ġarg uments
Ġprom ote
à ¤
Ġre ward
ens ity
le te
Ġe gg
ĠPol it
ĠW ay
ĠPalestin ian
Ġprom ised
ĠDis ney
im ents
Ġlic ense
g as
Ġprof it
Ġcommun ication
Ġh all
Ġ7 5
Ġfranch ise
al le
ĠO F
ĠD am
ĠW at
Ġur ban
ang es
Ġapprox imately
Ġrefuge es
Ġad apt
Ġass ume
f oot
ĠC y
Ġexpl ore
Ġmist ake
S ec
ĠSoc iety
st yle
ad el
Ġn orthern
6 8
ult ure
Ġrecogn ize
or ation
P er
Ġall ies
Ġf asc
Ġswe et
Ð µ
Ġjournal ists
Ġmax imum
Ġun known
Ġput s
Ġproper ties
p ost
ĠC amer
Ġslow ly
Ġsurve illance
Ġd iet
M ar
x y
ger y
Ġtop ic
ow ered
ins on
Ġvirt ual
Ġun p
Ġcond em
ĠL ove
Ġdestroy ed
Ġbe ar
Ġsche me
m un
Ġdisc over
w art
Ġequ ival
Ġcon ver
Ġcoff ee
Ġdis ag
Ġde als
N C
ax y
Ġterror ism
Ġphen omen
Ġhar ass
c ers
ĠH ollywood
Ġwel come
b ar
ĠJose ph
Ġtr uck
Ġw age
Ġtyp ical
Ġhon or
ĠP an
ĠTh ank
Ġp al
0 7
M ay
Ġst im
ack ing
ĠC le
Ġpun ish
Ġobtain ed
p es
ĠK evin
Ġse ats
Ġw est
ĠGeor gia
3 00
Ġse lection
ĠNet work
6 7
or a
ig g
b oy
Ġwor ried
az i
Ġob lig
Ġlim its
Ġpro of
Ġprot esters
i xt
ĠD i
Ġf uck
Ġcol on
R el
S e
Ġf old
ĠC ross
Ġcrit ics
Ġhe ight
Ġre tain
Ġterrit ory
Ġwin ter
Ġev il
uild ing
as ks
Ġf ighters
ĠM iami
Ġd ress
Ġwin ner
ĠDes pite
ĠCru z
Ġb id
Ġb unch
Ġsupport s
GB T
ĠT al
or ic
Ġs oul
O C
et her
ap se
l v
g ender
Ġpurp oses
p ool
Ġfac ilities
Ġlik es
Ġexp osed
Ġem issions
oc ation
Ġph ase
Ġord ers
ĠD aniel
ĠAd am
k o
Ġshe l
Ġsome where
Ġreg ions
r as
ĠAs ian
Ġcompar ison
c ow
Ġe ast
Ġstrong ly
l ies
ĠN HL
Ġpoll s
ar ity
an es
Ġh its
Ġgot ten
Ġch ampion
Ġp ed
Ġdec k
ll s
st ers
ce ler
Ġpur s
reg on
Ġbase ball
ĠD ar
ĠD NA
un ning
ĠIn s
Ġsudden ly
Ġch osen
O r
Ġdec ent
if orm
ĠF il
Ġdirect ed
ĠAd minist
Ġfall ing
ĠD own
Ġmere ly
ĠM ax
Ġprof ile
at i
Ġoffic ially
Ġsu icide
z ens
Ġs ight
ĠCar l
ĠC D
Ġtre es
ĠEn ter
ĠScot land
ĠE nd
ch ain
âĢĻ .
rom e
Ġun employ
ver ty
Ġdi agn
Ġvill age
Ġemploy ee
Ġso le
r ary
Ġ icon
V ER
Ġsome how
Ġcho ices
Ġencour age
Ġcateg ory
ra id
An y
t a
Ġinc l
ĠSt and
Ġperson ally
Ġ 00
f ast
Ġelectric ity
ĠIr ish
Ġsome body
J ohn
Ġthem e
nes ota
Ġnom ine
Ġdes per
f ire
Ġem pty
Ġenem ies
Ġpo verty
Ġout come
iz z
Ġdefin ition
b urg
ci ples
it arian
aw a
onym ous
Ġdatab ase
Ġde leg
Ġcomp rom
Ġconst ant
O D
ow ed
ĠD allas
ig ure
ĠAg ency
Ġstrong er
ĠB ell
au g
ĠSe a
Ġtechn ologies
Ġconclud ed
Ġr ub
ĠRe al
Ġs outhern
Ġreg ularly
Ġcommun ications
as er
Ġpay ments
Ġben ch
Ġansw ers
5 9
ĠTh ough
rim ination
l ist
Ġpay ment
Ġp ic
Ġm urd
Ġw id
ĠBr ad
Ġt ies
Ġide al
Ġr ival
Ġfe es
ĠU t
ĠG all
Ġestim ates
Ġamount s
Ġcut ting
Ġconst it
Ġworld wide
Ġreason able
Ġesc ape
Ġan x
ĠO k
c ar
ĠD un
in ations
ĠJer sey
ĠRom an
ĠL ight
ĠN ations
Ġdr ag
c ript
Ġu pper
ig ation
Ġcapt ured
Ġin qu
Ġb le
ĠB est
ĠNAS A
Ġresult ing
Ġf lex
< /
Ġaspect s
Ġr us
re f
Ġsp in
Ġfound er
M P
al o
ĠMo ore
ĠL abor
5 8
a o
Ġhy d
Ġelse where
Ġperfect ly
ĠTur k
ĠW in
Ġany more
er a
ĠAc adem
Ġrul ed
Ġ199 9
Ġthreat ened
Ġbre w
ĠServ ices
ĠA uthor
Ġcontribut ed
c ription
Ġaccur ate
ĠS outhern
m od
os is
Ġinte llect
Ġdist inct
0 2
Ġact or
ind ing
ĠConst itution
pect ed
Ġdri ven
ost er
Ġb oot
Ġprov ince
Ġfif th
i i
ĠVict or
ort ed
ons in
Ġfind s
Ġd rawn
ĠL and
Ġad mit
isc onsin
Pol ice
ĠB rian
ĠH un
Ġgood s
ĠAtt orney
anche ster
ĠB owl
ĠF re
ret t
ear ing
end ers
Ġ3 9
Ġwe ird
ĠW here
Ġaw esome
Ġt ied
Ġmeet ings
ĠCh ampionship
u a
ĠC am
Ġwrit ers
Ġest ate
as ters
Ġdo zen
." [
Ġcour ts
ĠC ivil
es y
Ġtick et
Ġemploy ment
Ġclaim ing
ĠS C
Ġprim arily
Ġsit uations
0 6
Ġconst antly
Ġsol utions
ĠSp ain
Ġincred ibly
Ġext ensive
Ġtrad ing
Ġpain t
Ġincred ible
Ġaggress ive
it ar
ep ing
ĠJ ordan
Ġap artment
ĠF our
Ġmay or
Ġdrink ing
ĠCont in
Ġreject ed
Ġkeep s
Ġrep orter
Ġang ry
Ġhous es
0 3
il arly
Ġnarr ative
Ġmix ed
Ġp od
Ġend ing
Ġter rible
Ġcon tem
Ġvac c
ĠP R
s hip
Ġpark ing
Ġfield s
ir ms
Ġinter pret
Ġdevelop er
ast s
Ġrout ine
Ġra ising
Ġst uck
B ecause
te en
ad s
ĠN ight
Ġlet ters
p o
Ġno body
Ġlo an
ĠB as
Al so
ĠE duc
Ġconclus ion
Ġatmosp here
Ġgener ate
a un
Ġeng age
ĠA li
Ġhe l
the w
ĠSp anish
A A
Ġpro ved
se a
Ġcontin uing
Ġex cess
Ġs atell
F r
ĠC ast
Ġh idden
Ġf lying
Ġdeg rees
ĠItal ian
Ġcapt ure
Ġent hus
Ġcoal ition
s m
Ġsign al
Ġresist ance
Ġstret ch
Ġth read
Ġcompl aint
Ġt aste
ĠP S
is an
ur a
ĠR og
in er
ĠN ick
Ġconsum ption
r ates
ld er
D r
O nce
Ġpriv ile
Ġpen alty
Ġcon ven
ĠD ark
Ġro ster
Ġteach ing
5 1
Ġinn oc
Ġdoll ar
Ġperman ent
Ġbill s
ow a
on ic
Ġorig in
Ġsym pt
u ine
ot ten
Ġassist ant
Ġr ig
Ġautom atically
Ġret urning
Ġex ists
ĠO per
Ġt aught
ick en
ĠH ot
Ġcomp onents
ĠOr gan
ĠIn f
Ġorgan ized
r age
Ġfeed back
Ġinform ed
o il
Ġn ut
Ġval uable
ĠT em
ĠI d
ĠO regon
id ency
Ġmach ines
ag ram
ĠPar liament
Ġmy th
Ġexplan ation
Ġprom inent
Ġman ip
Ġdem ands
Ġch ances
if er
ess ed
ĠMin nesota
b al
Ġcompl icated
H S
N E
Ġtit les
Ġcru cial
l s
Ġreput ation
Ġch at
ever al
c us
ĠV iet
the re
gor ith
Ġtechn iques
Ġcomp ens
Ġst ead
Ġsuff icient
Ġg ro
Ġdownt own
Ġind ex
ific ations
Ġâ ĸ
ian a
Ġmag ic
Ġgrant ed
se x
7 8
Ġinst alled
ĠK ansas
ĠZ eal
ĠHen ry
T oday
n i
Ġpar am
Ġcontrol s
ĠSte ven
ĠKing dom
im p
ĠV iew
Ġ5 5
Ġsan ctions
Ġha bit
ĠPro gram
Ġph r
Ġlaw makers
Ġaim ed
Ġt ank
Ġsuccess fully
Ġoper ate
in ity
Ġen able
ĠKe y
Ġpil ot
Ġcom ic
Ġcl ients
Ġnew ly
ib ilities
ĠB ru
Ġvis ited
ot es
ĠM S
Ġacc omp
Ġpass es
Ġrepresent ed
Ġrac ial
Ġel ite
Ġregist ered
Ġp ace
Ġt all
Ġsh ares
ĠLin ux
Ġmark ed
Ġ6 4
ĠSpe cial
Ġassist ance
ĠO s
Ġover se
ann y
! <|
Ġnegoti ations
ack ed
M L
m ont
Ġne uro
ĠC at
ĠW ater
v y
it als
ĠL ook
Ġext ract
k er
Ġk il
19 9
re hens
ĠB ull
Ġext rem
Ġfun ny
ĠAn th
Ġcount y
Ġrec overy
Ġlawy ers
C om
ĠT urn
re te
ĠMos cow
w an
ur b
Ġwar ming
as hes
âĢĻ ,
Ġcollect ed
Ġd uty
Ġph ones
Ġmon it
Ġequival ent
adel ph
Ġ iron
Ġtrou b
ĠTh anks
Ġexp osure
ĠT aylor
Ġaud io
Ġvulner able
Ġw estern
em en
Ġperson nel
re p
E d
l ock
Ġc up
ĠC oll
ĠG i
ĠM oh
Ġrec ording
ĠB rew
ĠE SP
Ġ4 2
5 6
R S
Ġst ations
Ġprogram ming
Ġeng aged
iz on
r ific
Ġf ake
Ġbus y
of t
ĠL ew
ĠS k
ĠA venue
Ġprop ag
Ġbl ocks
Ġint ense
Ġclub s
Ġ( $
Ġacadem ic
Ġg all
ĠR ay
Ġatt ended
ĠFore ign
4 00
ĠE astern
Ġadv is
Ġc able
atur ally
Ġf ought
ĠL GBT
ĠU FC
Ġr u
idel ines
ĠT ony
ĠT ake
Ġbit coin
adelph ia
ĠC are
isc al
Ġport ion
ĠT est
Ġ1 50
a ed
Ġp in
ĠA D
Ġim per
Ġthe rap
ĠK urd
Ġprior ity
M ean
f rom
Ġcons pir
ĠW isconsin
re ams
ĠSen ator
Ġdep ending
ĠO S
Ġbl ind
ĠSt ill
Ġexpl icit
k ed
qu arters
d a
In st
Ġadop ted
Ġpattern s
or ne
Ġap olog
ic er
ĠN avy
ĠN ation
Ġad s
Ġr ating
Ġveter an
Ġprin ciples
ĠP ay
ĠT w
Ġposs ession
z y
m aking
________ ________
Ġcompet e
l ers
Ġdescrib es
Ġ4 00
Ġscen es
M S
Ġresult ed
O ff
Ġenjoy ed
Ġevery where
ĠPol icy
ĠDevelop ment
Ġshort ly
et ary
Ġrare ly
ĠPac ific
Ġd ict
Ġp ounds
ri a
Ġsu p
Ġprocess es
ĠZeal and
Ġmain ly
Ġregard less
Ġwonder ful
Ġr iver
Ġ6 5
Ġg aming
Ġh o
Ġant icip
c r
Ġsur gery
Ġbelief s
ĠSer ies
8 6
Ġb es
rap h
Ġrec ip
Ġaff ili
ĠM ars
ã Ģ
Ġag ric
Ġadvert ising
Ġun certain
Ġsurv ive
Ġpl astic
Ġstr ict
Ġth in
ĠS at
C E
al i
Ñ Ĥ
Ġsh it
Ġent it
ĠB usiness
Ġc ited
Ġaf raid
Ġstrik es
Ġengine ering
st ar
Ġsol ve
Ġcry pt
Ġg ift
Ġfin ance
Ġla id
Ġgen uine
Ġdisc ipl
Ġin ev
Ġro ot
Ġbr ut
ist ent
Ġdef ence
Ġtrack s
if ies
Ġemer ged
up id
Ġtax p
op her
Ġen orm
pr ise
a ire
Ġper mission
Ġcor ruption
ĠA h
Ġdis aster
Ġunus ual
ĠDe ad
ĠE p
Ġpl ug
Ġcons cious
Ġcoun sel
Ġjournal ist
ar on
Ġins pir
Ġminor ity
ap es
Â ·
Ġbasket ball
ĠM anchester
ĠR ick
ĠIn vest
Ġscen ario
ĠC ome
ĠC all
Ġfound ation
Ġbrow ser
r ative
Ġm ail
ĠBe fore
ab ama
Ġb om
ĠR ef
f ront
y ard
Ġparticip ate
Ġsp r
Ġ19 60
ou red
Ġth ick
Ġvis ible
Ġhad n
Ġdeli very
ag ger
ĠChrist ians
ĠK elly
Ġbeh alf
L C
Ġwork er
ar ry
ĠJ osh
Ġform al
Ġbr idge
Ġd im
Ġlangu ages
Ġrid ic
sc ape
mon th
ĠH T
ĠF ood
ath y
ĠPro te
y e
ĠK ent
Ġfeel ings
http s
rat ors
Ġcreat es
Ġcann abis
g un
Ġlight s
ĠR oss
Ġro les
or ough
Ġdo zens
v iously
5 2
Ġe lev
Ġst able
M e
Ġal gorith
ll a
Ġprinc iple
he nt
ĠF air
ĠAr m
Ġthous and
Ġ âĢĻ
Ã ¼
he rent
ul es
Ġcontract s
ĠN BC
AT O
Ġsh ips
ink ing
ĠN orthern
Ġexcept ion
Ġhead ed
b a
m al
ĠJ ac
ĠPat ri
Ġf irms
Ġto ler
Ġcamer as
ï ¿
Ġob st
Ġsc oring
wh o
Ġloss es
Ġl oud
Ġch ampionship
% .
Ġve get
ind er
5 4
Ġm el
Ġgener ated
Ġmed ium
Ġre ly
Ġg ained
th is
b ec
Ġwithd raw
Ġt ag
intend o
Mean while
b ro
ĠH om
Ġun w
Ġphot ograph
so le
Ġt or
Ġar range
ĠCo ast
ant ic
R ec
Ġexpect ations
at hered
Ġban ned
ĠESP N
ĠE mp
og ether
Ġstruct ures
ĠH it
am ber
ĠC ur
t est
ĠTh us
Ġstrugg ling
Ġimplement ation
Ġst ab
Ġpl ate
Ġmil k
usse ll
Ġ199 8
Ġy ield
Ġdin ner
Ġun com
prof it
er r
as ion
ig en
Ġrel ief
um er
Ġrec ru
P r
p read
ĠPrem ier
Ġsa ved
ix ed
ĠL ive
Ġed ition
m ate
Ġcy ber
t es
Ġcomp onent
Ġun iform
Ġfe e
Ġachie ved
Ġfound ed
Ġac celer
ĠI owa
Ġprocess ing
Ġbr anch
ul ating
ĠF oot
Ġne utral
ĠI T
Ġsh ock
ĠF und
ĠPhil adelphia
Ã ¶
C o
Ġinterview s
ĠN ob
Ġmanufact uring
Ġcont aining
U R
ri ers
ĠF red
ar lier
ĠN ote
E A
ĠCon f
e lect
ides pread
ĠA R
Ġext ension
ï¿ ½
Ġestablish ment
ĠO l
oun ced
ĠD id
ĠM ajor
inte rest
ĠAcadem y
ĠEduc ation
ĠPer haps
Ġneigh b
an ing
Ġpro ven
ĠGl obal
ĠF ed
il ton
ĠRe view
Ġindic ate
ol is
ĠAm endment
Ġcomput ers
ask a
Ġmag n
Ġrecogn ized
Ġhistor ic
Ġ4 1
er m
ĠS af
Ġconv in
C ol
Ġh ole
Ġ4 7
Ġphilosoph y
Ġsp ark
Ġo cean
: <|
Ġas ks
ĠDie go
ĠF C
ose xual
Ġredu ction
ams ung
bur gh
Ġpro port
ĠAdminist ration
Ġdeli ber
l an
u an
Ġdraw ing
l og
Ġlik ed
ĠH ospital
Ġfoot age
f all
Ġhit ting
ĠMark et
c a
ĠH as
Ġframe work
y stem
et ime
Ġf ault
ĠR oyal
Get ty
Ġco ordin
Ġsh arp
ow ing
Ġv en
ĠR ose
Ġent ering
5 3
Ġb orrow
ĠG reg
Ġrecogn ition
Ġwe lf
ĠM id
Ġw ing
ab s
Be fore
ĠConserv ative
rat or
Ġair port
Ġh ired
Ġper pet
Ġfore ver
Ġwelf are
rou s
et ts
Ġback ed
c les
man n
) )
Ġg onna
ay ing
ĠH o
Th ose
Ġprodu cer
Ġdest ruction
Ġl oyal
aw ay
u er
sel s
Ġwall s
ent h
Ġlist ening
Ġrac ist
p ower
Ġtack le
ĠJ ason
Ġro se
ĠAs h
Ġdo ors
em s
ĠMc G
ĠV R
od ing
Ġprofess ion
Ġinc ent
ĠCon ference
ĠB alt
Ġup set
ĠTh ree
6 9
Ġfl aw
ĠArab ia
Ġrestrict ions
Ġtick ets
ĠGree k
sy lv
ĠJud ge
ĠRe uters
us ive
Ġrob ot
Ġ4 4
": "
w orld
ĠSe pt
Ġs in
az z
ĠO ak
U nder
anc ou
ig are
epend ent
U s
Ġb urd
ĠRad io
ĠSt one
ĠAtlant a
Ġret ired
Ġnomine e
a us
Ġwhe el
Ġb ath
Ġcorpor ations
ĠS now
Ġt ail
im a
ĠR et
ĠAl abama
Ġfarm ers
j o
Ġst adium
Ġdisc rimination
P ost
Ġc rop
Ġw ars
ĠMay or
Ġbare ly
i el
ĠP en
Ġpract ical
Ġw idespread
ĠD ata
ĠR os
Ġeth nic
Ġsuggest ing
Ġassoci ation
Ġchalleng ing
ad i
ĠO tt
Ġcampaign s
Ġut il
AT E
Ġh ang
Ġin ject
Ġbeg un
c ific
Ġinv ited
ĠCent re
Ġreview s
Ġmove ments
Ġ199 7
ĠH ard
og en
D av
ĠH ay
ĠC O
ĠB uff
Ġch a
Ġsm ooth
L ook
Ġprodu cing
Ġreach ing
ĠI nt
Ġun ex
8 5
b ell
Ġh ook
ancou ver
Ġel ig
Ġbehavi our
ĠM ir
u ce
ĠH or
Ġconv icted
Ġequ ally
Ġcont ained
level and
ĠMus ic
Ġsam ples
Ġf inger
R ef
Ġh ide
Ġdeep er
eng ers
we et
Ġwar rant
ĠS n
Ġconvin ced
ĠSqu are
ĠTurk ish
Ġto x
sylv ania
Ġch apter
Ġprep are
Ġimprove ments
P resident
is p
Ġm o
Ġex em
Ġdesc ription
Ġfriend ly
Ġrapid ly
Ġnot ion
Ġsubject s
t hen
Ġhard ly
Ġpe ak
St ar
ĠCommun ity
r ical
Ġredu cing
Ġstat istics
8 9
## ##
e z
Ġhyp ot
ach ing
ĠMat thew
ĠC irc
Wh o
el f
Ġrepresent ative
Ġleg end
ĠLat in
P C
B O
ĠM ah
Ġsc andal
enn y
S ub
Ġiniti ative
Ġintellect ual
Ġcare fully
Ġp ump
Ġind icated
Ġroad s
ĠF ield
ol t
Ġf ruit
Ġb ail
ud es
Ġb ra
Ġcoll apse
Ġv ary
app y
Ġrem em
ĠL y
Ġex ceed
ĠM oon
Ġsm oke
Ġan ger
ĠM u
Ġvisit ors
Ð ¸
ant ed
ĠR and
ĠAb out
Ġl uck
ĠL uc
c ling
abin et
ĠF ull
Ġsu gar
Ġcont ribute
Ġtechn ique
ĠB ry
Ġj u
Ġinter face
Ġcontrovers y
im ore
ĠAl bert
um in
ĠK ir
Ġelect ronic
ri ent
Ġrec over
ust ed
Ġowners hip
um es
ob s
7 6
ĠRep ort
ĠAP I
Ġa ver
ĠT enn
Ġtest im
Ġwebs ites
Ġimplement ed
ĠBern ie
Ġreg ulation
ĠBro ther
arr ass
Ġhol iday
rodu ct
ĠCamer on
ĠAust in
ĠN ic
ĠMin istry
Ġprov iders
Ġdisc overy
Ġrespect ively
Ġfeat uring
ĠAnth ony
Ġill ness
Ġt rem
Ġc ro
ĠP oint
Ġtrig ger
Ġst eal
ach us
Ġcompl aints
Ġstrateg ic
omet hing
F F
Ġepis odes
Ġexclus ive
ĠColumb ia
Ġth rown
ĠAll en
ili pp
Ġguaran te
Ġinvolve ment
S L
Ġl ists
ĠAnt on
Ġdep uty
8 00
ĠN ever
Ġrefer ring
less ly
un es
Ġprogress ive
ro lled
ĠU C
Ġnorm ally
Ġw ages
im m
ol en
Ġcomp rehens
Ġfail ing
Ġunc lear
ĠProf essor
c ase
r ac
Ġsp aces
ĠHar ry
Ġsy nt
os it
Ġconnect ions
Ġ4 6
st ract
Ġconst itutional
un ior
% ,
ick ing
Ġinvestig ate
Ġtrans gender
Ġexpand ed
em an
ĠIn formation
ĠV is
ĠIran ian
ĠSpr ing
Ġinter act
ĠSe ason
Ġschol ars
Ġmind s
Ġover t
Ġsympt oms
Ġre n
co ver
Ġany body
achus etts
am i
Ġst upid
20 16
20 14
ĠO K
Ġcollect ive
Ġsuspect ed
Ġdev ast
Ġgen etic
Ġdiscuss ions
ĠF urther
Ġbrother s
ĠA BC
Ġindepend ence
ĠO nt
Ġview ers
Ġtouch down
it i
Ġgr ass
ĠPat rick
ty pe
Ġ199 6
ĠR ussell
Ġv ital
Ġl es
um a
Ġgr id
H A
Ġp apers
ivers ary
00 00
Ġrec all
Ġsens itive
ĠWalk er
Ġest imate
ĠMcC ain
Ġlic ens
Ġ4 3
Ġser ves
he ast
Ġaware ness
ĠU lt
Ġt one
Ġrem arks
Ġre vel
Ġj ury
ĠHist ory
Ġb ureau
Ġoffic es
Ġoverwhel ming
ĠH D
ĠN SA
Ġg athered
Ġlog ic
Ġst ake
ĠS ir
ino is
Ġthe at
ĠPenn sylvania
ri k
Ġsettle ment
ĠR oy
ĠX box
ĠMed ical
Ġneigh bour
Ġhor se
ict ions
c ore
Ġread s
Ġj e
Ġjo ining
l ad
ĠL ind
ĠN intendo
Ġattack ing
P G
Ġst one
ĠC ore
Ġacc us
Ġc ogn
am med
p age
B ack
A ss
Ġdef ine
Ġw ww
' .
Ġm os
Ġl obby
ĠP it
ĠFam ily
Ġr ational
if est
Ġf ulf
" ,"
Ġpro sec
Ġreg ister
ĠG ov
Ġext end
Ġe uro
Ġin ner
Ġcas ual
Ġeas tern
Ġste el
Ġcivil ians
yth on
Ġaff airs
Ġfl ash
ĠNe xt
W ill
Ġc os
Ġdisag ree
ĠD ig
Ġbr ill
Ġ199 4
Ġopin ions
f ound
ition ally
Ġsubstant ial
ĠA ction
inc luding
7 9
u ction
Ġal ien
s he
Ġb ars
ĠC leveland
Ġimprove ment
Ġincor por
Ġrecomm ended
ĠHar ris
Ġmount ain
Ġdynam ic
h o
es ter
Ġdem ocratic
ĠE s
w orth
Ġseem ingly
ned y
olog ists
b n
ĠCh air
ĠK at
ac on
ĠS P
Ġfant asy
Ġtom orrow
Ġunemploy ment
Ġs oph
Ġenorm ous
Ġre ven
ĠQue en
ĠB udd
ĠV ancouver
Ġdep ression
Ġpubl isher
Ġtr ained
ĠS uch
ĠII I
ĠP ack
Ġterror ists
Ġex ternal
Ġvers us
Ġsal ary
ac co
ir y
Ġfore st
Ġground s
re c
Ġsuff er
Ġ201 9
pl ate
Ġmen u
Ġr aw
Ġview ed
Ġsh r
Ġt asks
Ġr het
S C
h our
Ġdep ends
W here
Ġhead ing
o en
ĠGuard ian
pl oad
ec ut
Ġinv ent
Ġfall en
Ġpres um
Ġrank ed
Ġpre f
P lease
Ġpublic ation
Ġr aces
Ġs orry
ĠAnd erson
Ġfact ory
ut ies
ĠN ATO
Ġmon itor
Ġinfl ation
ĠA ND
Ġfr ag
Ġt ip
Ġcap tain
Ġdis pl
ion e
ĠL o
Ġf iscal
ener ation
Ġtweet ed
ĠSt adium
Ġinvol ves
Ġemb arrass
oc ument
Ġinvestig ating
Ġlegit imate
Ġing red
Ġ _
Ġg ear
Ġsusp ended
d ated
ĠA le
ult ural
ov al
Ġ199 5
Ġres ource
Ġattempt ing
Ġar ray
Ġdram atic
Ġro of
ast y
Ġprof its
Ġout s
l ah
Ġhand ful
ph ones
Ġscore s
Ġco vers
Ġhuman ity
ar ms
7 2
ip al
Ġres ign
Ġentertain ment
ĠI ce
Ġleg s
iver pool
Ġult imate
Ġf ab
ĠMass achusetts
ĠC ook
ĠCont rol
ĠSant a
R C
ĠEn vironment
ann a
Ġg al
Ġabs ence
v ard
Ġcop ies
Ġadvoc ates
. -
ĠâĢ Ŀ
ĠBro ad
ang el
ik es
ĠF reedom
R uss
ĠL ittle
h ot
Ġcitiz en
d em
Ġper mit
re ts
M c
Ġdis rupt
ĠN ev
we red
Ġam id
Ġcele b
Ġcon ce
Ġinstru ment
Ġinvestig ators
Ġfear s
Ġsp oken
Ġm oon
ann els
Ġspirit ual
Ġprom pt
Ġvot er
Ġbo at
Ġmiss ile
Ġaddress ed
Ġj ur
Ġr ural
Ġf iction
Ġliqu id
Ġl ands
Ġun ions
Ġtem porary
Ġconsist ently
Ġtransport ation
oty pe
Ġatt itude
ĠAd v
Ġactiv ist
Ġd rew
ĠW W
ick et
Ġhom eless
ord on
Ġsc reens
Ã ¤
Ġpet ition
ĠChe ck
ĠB attle
Ġphot ograp
ĠC re
ĠHow ard
ĠS amsung
ĠInte lligence
Ab out
Ġstay ed
Ġw ine
ĠM ake
ĠM useum
port ed
Ġsil ver
Ġplatform s
ĠGet ty
Rel ated
Ġw rest
ĠN OT
pt ions
Ġconvers ations
" .[
Ġcol ors
B oth
ĠT own
ĠA p
Ġpurch ased
ĠB all
oun ce
Ġnot ing
Ġhand ed
Ġmar ks
Ġign ore
Ġatt ached
ĠMe an
ĠBe ach
ke ep
Ġlow est
Ġsw ing
Ġencour aged
ĠR en
Ġne ck
Ġhand ling
cl aim
Ġmedic ine
ct ic
! )
Ġno ise
Ġrat io
it ting
Ġsum m
Ġpre ced
Ġ5 2
h y
ĠGold en
Ġappreci ate
p ie
Ġsett ings
Ġguaran tee
ed ing
omm od
Ġcont rad
our se
d it
d og
Ġg ains
ĠJ ay
Ġre ar
S en
Ġread er
ĠCon nect
Ġhor ror
Ġh am
Ġinter vention
Ġp orn
Ġast ron
Ġclot hes
ect ion
Ġte a
C he
Ġvirt ually
Ġi OS
Ġm aps
ir a
ou ch
Ġjo ke
Ġjud ges
in ch
Ġbreak s
ĠRev olution
Ġprem ium
Ġd iversity
ĠH ind
Ġpar alle
Â Ĵ
Ġcontribut ions
P art
Ġtri es
sc ale
Ġgu est
Ġcare ful
Ġthrow ing
Ġf oss
ĠS ony
ĠHe ad
Ġbar rel
Ġâ Ĥ¬
ge on
ĠUn fortunately
ĠL yn
Ġdiv ided
Ġimpro ving
7 4
ile y
ol ph
Ġmeas ured
ĠDiv ision
ĠPro v
Ġsubsequ ent
Ġinc idents
ist ing
Ġact ors
Ġleg acy
Ġn aturally
ic ity
pl us
Ġnom ination
Ġl i
Ġabandon ed
ĠP ot
ĠEng ine
out ing
Ġlay er
r imin
Ġro ok
ĠS cient
Ġinnov ation
Ġrespons es
ĠVe gas
ĠSt art
Ġfall s
Ġl ucky
Ġdr ama
Ġr anks
Ġconspir acy
6 00
Ġfund ed
ĠIll inois
ĠP ent
el and
Ġsw im
Ġle ts
Ġaut hent
ĠC BS
" >
Ġacknowled ged
Ġprot ocol
: :
Ġg rav
Ġj oy
Ġl ocked
Ġsc an
ĠT rib
Ġcl osing
P P
pt on
Ġperson ality
ĠPh ilipp
ĠTechn ology
Ġsy mp
Ġspokes person
z ed
ĠCar ter
Ġrefere nd
ĠB ad
Ġassess ment
Ġsho pping
ĠMar vel
he im
Ġco aches
Ġball ot
ĠC ode
ĠKen nedy
Ġfant astic
m aker
Ġd ance
av al
re pre
Ġb acter
Ġappear ances
Ġtr ave
Ġg am
Ġcover ing
rop ri
Ġh int
Ġeff iciency
F acebook
ĠPr ice
Ġgu itar
R I
Ġtrack ing
Ġresc ue
Ġass ert
Ġtrans actions
Ġt ie
Ġprotect ing
Ġspeak s
ĠIraq i
Ġpartners hip
Ġ5 1
Ġl ying
Ġpo ly
fl ix
Ġf ighter
Ġretire ment
iv als
ĠK ong
Ġcom pe
ĠWh ich
C ons
repre ne
x it
Ġbl ast
St ate
ĠL im
lah oma
Ġcom edy
Ġmus ical
Ġc ust
ĠUt ah
N ote
Ġm ad
Ġsur f
Ġconserv atives
ES T
Ġ- >
ĠM ill
er ted
Ġintrodu ction
Ġc oc
ih ad
ĠA I
un icip
Ġst ages
j a
ub ble
in ction
Ġf ro
ut ed
Ġth rew
Ġacqu ired
Ġm arch
Ġtw enty
ĠB ang
iet ies
com es
ij ing
Ġprom ises
Ġmid field
Ġqu ote
Ġaut o
Ġp atch
ian o
Ġtestim ony
Ġacc ommod
Ġmin ing
Ġins isted
Ġliter ature
Ġconc rete
hes is
con f
h igh
d es
on ly
ĠC ry
l ow
p at
Ġtrans it
ĠBe ck
Ġupgr ade
Ġover s
Y our
m o
Ġdef icit
Ġ( âĢľ
ĠC ost
ĠSt at
ĠInd eed
Ġpass engers
ple te
ien ces
ĠD utch
Ġlo ans
ĠD O
Ġcount s
Ġaccompl ish
aw are
Ġbro wn
ĠT our
ĠR a
en cing
ĠBr idge
Ġdemonst rated
Ġin equ
Ġdist ract
ĠA ge
r ance
Ġmat hem
Ġcap abilities
Ġperform ing
usal em
Ġcon sole
S m
Ġdist ributed
ag h
Ġab road
Ġport ray
Ġex it
ĠL as
in f
Ġhead quarters
aed a
Ġblock ed
ĠM arsh
ĠE xt
New s
Ġd iverse
ĠD et
ĠG irl
ĠWith out
Ġprogram me
" )
Ñ ģ
Ġh ockey
est y
Ġk m
d ri
it age
ugh t
ĠA cc
Ġarri ve
Ġord inary
Ġhop ed
ĠCo oper
ĠRober ts
Ġsequ ence
Ġcan ce
Ġreplace ment
Ġm useum
Ġar bit
Ġmonit oring
Ġr if
Ġpres idency
Ġprote in
Ġmist akes
Ġappoint ed
Ġbon us
E G
ĠU se
Ġst olen
od ed
ĠB ron
pp ers
Ġstud ied
6 1
Ġbeaut y
Ġpropos als
ĠT ri
Ġviol ation
Ġd ates
back s
ĠPort land
Ġd ad
nt il
arch y
c ut
Ġt ape
mark et
Y et
ct r
ĠG un
ass ador
Ġrequest ed
ĠAb b
is k
Ġwhen ever
Ġsupp lies
the less
Ġske pt
Ġcongress ional
Ġst y
il a
Ġcommon ly
m ony
T y
Ġd ub
Ġb read
Ġclass ified
Ġrec ruit
Ġlo ose
Ġh ung
Ġbu ff
Ġso il
Ġrel iable
ĠDen ver
Ġrepresent ing
Ġrac ism
Ġpop ulations
is ons
al ia
Ġcent ers
Ġshould er
Ġintrodu ce
Ġyell ow
ĠE ag
Ġsc ope
ĠPl us
Ġconvention al
Ġsh ield
Ġus age
Ġunivers ities
Ġemploy ed
ĠFoot ball
S D
7 1
hel sea
Ġtemper atures
ĠIndian a
ĠB a
A G
ap ing
ound ing
ĠHe ll
ĠDo es
Ġt ab
pl ed
ĠM aster
ail ed
a ver
Ġob s
Ġfrequ ency
ĠSh are
ĠD ave
Ġobject ive
ĠB ureau
ĠA ward
all ing
ack et
ene z
Ġentit led
Ġdro ve
ĠP o
ĠEmp ire
c rib
am ac
ĠB ible
Ġr om
Ġex ch
Ġhealth care
Ġlet ting
ĠM ach
ial s
Ġser vers
Ġass ign
ĠMex ican
ĠS ometimes
Ġmonth ly
Ġequ ality
y o
Ð¾ Ð
Ġpurs ue
Ġc ul
ĠA ud
Ġrepl ied
Ġvis iting
St ill
Ġo kay
Ġmaintain ed
er ts
Ġw ider
Ġd ump
ĠG T
ect ive
ĠH on
ĠGal axy
ab eth
Ġpredict ed
Ġdismiss ed
Ġsatell ite
Ġ ?
Ġign ored
ĠHar vard
Ġdom ain
Ġtact ics
Ġreferend um
ak a
Ġ199 2
Ġspokes woman
Ġphr ase
f und
m ade
el a
Ġsm ell
ĠH old
Ġche cks
Ġwind ows
Ġl unch
Th ough
Ġsett led
ĠGree ce
Ġbrill iant
ag ic
Ġer rors
ht ml
ĠBalt imore
ĠC H
Ġcritic ized
ĠL ink
Ġpl ain
Ġ20 20
R L
ing ton
ĠA L
Ġpo ison
rodu ction
Ġtarget ing
Ġwealth y
6 2
K e
rib utes
Ġarg ues
6 3
b i
Ġland scape
arg o
Sc ript
Ġd ust
ĠL ine
ĠJer usalem
ĠPr ince
ĠMag ic
ĠT ro
Ġsecond ary
Ġcomp are
omp son
ol ves
H er
Ġvir us
B M
er ies
the y
Ġac id
Ġsh adow
Ġappro ached
Ġse ar
Ġi P
ĠSar ah
Ġste pped
tr ans
Ġch annels
Ġr amp
Ġsen ator
ĠLew is
amac are
Ġwar n
ĠS om
Ġass ass
20 11
Ġrepresent atives
ĠSil ver
Ġr ush
d oor
v an
Dav id
Ġgreat ly
rog en
ag a
Ġsubst ance
Ġsoc cer
ĠAm ong
Ġcelebr ate
ult ane
Ġm ole
ĠL ist
Ġdocument ary
part y
C lick
Ġp ig
Ġcont ribution
m at
ĠOr ig
Ġharass ment
Ġe c
br idge
in ating
Ġw aves
Ġth orough
ĠOnt ario
N S
r ace
Ġprodu cers
Ġpolit ically
Ġbank ing
ĠGra ham
9 8
Ġqu oted
ĠAssoci ated
Ġbreat h
p a
Ġse vent
ecut ive
Ġodd s
sen al
Ġcons ent
S ource
in als
ĠL iverpool
Ġoverse as
ĠE qu
Ġscient ist
ĠG ulf
Ġreform s
ic ism
r ite
ĠComm on
Ġcl ar
Ġpropag anda
ĠA st
ĠDe ath
Ġrece iver
Ġphenomen on
Ġfor cing
Ġquestion ed
he ld
Ġsa ving
Ġpopular ity
Ġhelp ful
i ate
Ġprep aring
ĠOlymp ic
re ction
ĠC redit
20 15
Ġarg uing
Ġcirc le
ut en
I F
Ġf ool
Ġart ific
Ġunivers al
Ġexper iments
su pp
Ġrock et
Ġf iring
ĠU r
p ed
Ġsmart phone
Ġa x
c ia
Ġw ra
ol ar
ĠN E
f ol
Ġab ilities
Ġweek ly
Ġprison ers
ar re
ĠJust in
Ġbroad er
or ge
Ġtit led
ĠOk lahoma
S U
ĠâĢ ¢
Ġwat ers
Ġsub mit
Ġhy per
Ġlegisl ative
Ġspect rum
sh ire
Ġland ing
Ġst ored
av ed
Ġchild hood
ĠBe ijing
Ġur ged
ĠAtlant ic
Ġh osp
te l
ĠFr ont
Ġann iversary
S E
Ġprov ision
Ġsurv ival
Ġadv enture
Ġinvestig ations
Ġfocus ing
orm al
m ad
Ġ9 5
Ġmembers hip
Ġpers ons
Ġproced ure
Ġf ur
Ġsm oking
Ġpre par
Ġinnoc ent
Ġre nder
ow e
Ġrat ings
Ġabs or
z ing
eder ation
ĠY an
Ġdifferent ly
Ġ199 3
Ġdemand ing
7 3
ĠB ra
Ġsem i
Ġ19 50
Ġst ability
Ġpers u
Ġunex pected
or ous
Ġag es
Ġdes erve
Ġcal m
Ġdon ations
or gan
ĠC ow
ĠSt r
Ġanx iety
Ġtrem end
th rough
Ġrepe at
Ġsil ence
Ġcere mony
ord inary
Ġact ively
Ġt ens
et ers
Ġmin i
Ġgener ations
e ven
ak h
Ġarchitect ure
Ġsp ots
Ġexec ution
ĠM ORE
Ġcooper ation
Ġcivil ian
Ġbatt les
ĠDes ign
Ġrel ax
A re
as ury
ap olis
Ġafford able
Ġf ate
em ed
a is
ĠP D
Ġcent uries
Ġdri ves
ir ts
Ġsc ar
Ġpr on
Ġdesign s
Ġstre aming
ir lf
Ġs orts
Ġfore cast
Ġal ter
Ġunf air
Ġfl ags
âĢĶâĢĶ âĢĶâĢĶ
T E
h op
Ar t
Ġb ab
old s
irlf riend
Ġsh ame
Ġsure ly
ĠRub y
Ġpip eline
Ġnewslet ter
Ġparticip ation
ol n
Ġdis order
Ġvo ices
ĠY OU
Ġg ent
Ġexecut ives
d iv
ĠY eah
min ute
Ġwe igh
Ġun pre
ĠM ain
ĠC apt
af e
ĠT en
Ġex ha
ĠCor por
room s
Ġform ation
Ġdead ly
Ġass igned
f are
c est
Ġwhere as
ĠB on
Ġden y
st al
Ġthreat ening
Ġencoun ter
ĠP erson
ĠH a
Ġdisp ute
Ġveter ans
ĠSwed en
Ġcomprehens ive
Ġenc ry
ĠViet nam
Ġg ene
ĠF orm
Ġgu idelines
Ġrele ases
Ġprecise ly
Ġde lic
ĠAlex ander
Ġcateg ories
ĠC ro
Ġa er
Ġc ow
enn is
O K
Ġent reprene
Ġrestaur ants
Ġmort g
Ġimportant ly
ĠLiber al
ten ance
ĠGovern or
Ġprosecut ors
Ġke ys
Ġdemonst rate
w as
Ġposs ess
b ow
ĠU ber
Ġsal t
is a
as ant
Ġrec ipe
Ġmin istry
ĠP op
Ġsub mitted
Ġtri als
ĠH ave
d ney
Ġm it
ĠB ud
k ing
ĠP ass
Ġint im
Ġmeaning ful
b ian
Ġb orders
ĠP res
J P
w alk
ĠS et
ĠBel g
ĠLe ader
ĠPro p
ĠJon athan
Ch rist
y er
Ġcl ock
Ġag ed
hold ers
Ġre verse
Ġdifficult y
ĠMean while
ĠAr k
Ġv es
or ious
Ġreve als
ab et
ier ce
Ġstrik ing
il er
ĠH op
Ġanaly st
Ġ9 9
Ġdist ingu
ĠJ am
ocol ate
ish op
d ed
el son
ĠV ik
ĠMar x
ĠT ed
w atch
Ġinvest ments
ĠM it
Ġman aging
bre ak
ber ry
Ġstrugg led
Ġg ate
ĠR un
ĠV ill
Ġassum ed
Ġsav ings
Ġthe ories
Ġimpl ications
O s
we ek
Ġchar ity
o ice
Ġf estival
Ġhighlight s
b ered
ĠC lick
ors hip
e als
Ġf ing
Ġelig ible
Ġt ips
Ġout rage
j ud
es see
ĠKe ep
Ġtwe ets
Ġdisc ount
Ġal arm
M us
O ut
ĠP A
Ġdr one
H z
Ġprom ising
ĠScott ish
ig ious
Ġche st
ĠK ar
ĠBl oom
Ġf et
ĠTe le
Ġconsider ation
vern ment
ĠLe on
ĠNet flix
ent er
ip edia
Ġton ight
ĠW H
Ġinter f
ĠWar ren
Ġan s
Ġper ceived
Ġcompet ing
ĠEd ward
h att
ĠAss ad
Ġjud gment
Ġpoint ing
Ġdef ending
W S
Ġd ating
Ġph arm
Ġn ic
Ġinstruct ions
Ġsuper ior
it ary
Ġh al
iz abeth
ĠB ase
Ġtrans action
Ġdefe ated
Ġ2 50
Ġbl ank
yl um
Ġclot hing
H T
um ble
US T
Ġenh ance
ĠTe ch
Ġmer ch
Ġcapital ism
m ind
Ġe ase
ĠW as
Ġaddress es
W atch
Ġdial ogue
Ġsim ultane
se ct
ĠA k
ĠBer lin
d on
Ġaut onom
Ġst em
Ġ199 1
Ġwant ing
b ury
Ġgr ade
Ġhost ed
l ined
Ġman ifest
ĠV ice
Ġremark able
Ġd ying
ĠMary land
Ġscr ut
Ġstrateg ies
Ġfollow ers
urrent ly
S im
ĠInst agram
Ġbi as
Re uters
8 7
ĠW olf
ou ri
Ġv ig
ĠMr s
ĠH ur
Ġdiscuss ing
Ġstay ing
Ġrac ing
s l
ra ig
ĠRe agan
Ġemer ging
Ġ !
Ġrhet oric
Ġgrad uate
Ġcre am
Ġbut t
V E
om ed
ĠG aza
Ġlog o
et he
Ġregul atory
Ġsh ipping
Ġt ables
st ep
Ġpresent ation
cept ions
ĠL i
ah u
ĠG ary
Ġblock chain
ĠL A
ced ented
ĠAnd re
Ġburd en
P re
Ġn a
Ġtr illion
Ġclin ical
s ub
Ġcontact ed
ĠCharl ie
oen ix
s es
âĸ Ī
Ġtim ing
op en
8 4
Ġsm ile
miss ions
es la
Ġg if
Ġâ ĪĴ
Ġrook ie
Ġe cho
Ġopen ly
Ġphys ically
Ġ5 3
Ġtort ure
Ġins pect
ĠLib ya
om es
ĠAff airs
ĠA z
qu est
ere my
Ġmem ories
ĠOb amacare
Ġstat ist
Ġcons ensus
Ġroom s
i y
Ġindic ates
ĠBru ce
Ġs ed
ĠM ess
Ġaccess ible
Ġaward ed
Ġdise ases
Ġadv iser
Ġw edd
Ġpsych ological
ĠY emen
ĠE ff
ie v
ĠO x
ĠCap ital
Ġg ross
ond er
Ġop ens
==== ====
a fter
Ġt iss
em ic
Ġstud ying
opy right
igen ous
ĠEx pl
Ġn in
Ġb irds
Ġdam aged
Ġeduc ational
it ual
Ġorgan ic
ĠPatri ots
Ġp icks
ore t
Ġinf o
ĠE vent
Ġcust ody
Ġw ounded
ĠL am
Ġcr imin
Ġstop s
Ġb urning
Ġfac ilit
inc oln
P M
e le
Ġnot able
Ġman agers
oc ial
Ġre vers
ch ild
Ñ Ģ
ĠSt ory
Ġmem o
vertise ments
Ġpoll ution
ĠTr ade
Ġb owl
Ġm ac
Ġmem or
scrib e
ĠTh ompson
b in
Ġp uzz
Ġdis h
Ġgraph ics
Ġhop efully
Ġp ocket
ig ate
Ġshe ll
ik i
Ġplayoff s
port ation
er ia
Ġbe ach
Ġ1 20
Ġcr us
ĠTh rough
Ġkil omet
E P
u h
Ġar c
Ġunder lying
ik a
Ġfoss il
Ġr iding
Ġt ired
Ġcomp at
Ġconv ince
R em
V D
Ġbe ings
ĠSe an
con st
E l
it ol
ĠP age
Ġmarg in
Ġpunish ment
Ġinst itution
Ġimp ression
Ġcounter part
Ġl apt
Ġdiv or
Go ogle
p ress
ĠHam ilton
ĠS ab
Ġback ing
ĠPalestin ians
iff s
it udes
om y
gr ade
ĠS ure
St ory
Ġengine ers
ĠInte l
Ġinter action
ac hel
Ġkn ee
enez uel
Ġpass age
um m
ĠAs sembly
is dom
ĠS ix
ĠCl ark
b its
ĠC helsea
act s
Ġsuspect s
ĠH ong
ĠCr ime
j i
Ġenthus i
ĠÂ ©
og y
Ġtrend s
ĠL t
b ase
ĠDel hi
Ġdomin ant
Ġcou p
Ġans wered
se ction
ĠG il
land o
Ġleg ally
ĠBrook lyn
Ġbe ating
Ġinc hes
ĠV ideo
Ġ ).
Ġg est
Ġch icken
Ġco inc
Ġkit chen
Ġspe ll
v ision
Ġcar ries
y es
Ġprinc ipal
ĠT otal
D ef
Ġe ager
Ġpromot ing
Ġin du
ult y
ĠMan agement
Ġfund ra
Ġlab our
alt ies
Ġob sc
Ġst ere
Ġro y
ĠLe ft
ĠMc K
th ood
iz er
C al
ge red
Ġtop ics
Ġtal ented
AL L
Ġover come
ĠR s
ĠSt ore
ĠInd ust
Ġindust ries
A ct
Ġsix th
Ġprefer red
ĠChild ren
Ġb in
Ġst ance
Ġad equ
ere nt
Ġrem oval
Ġhosp itals
ann on
a uthor
Ġl ux
ult s
Ġsign ature
Ġproced ures
ĠPent agon
r if
Ġsurv iv
ar ia
ĠP ict
Ġrequ iring
Ġso vere
Ġ5 4
Ġline up
Ġridic ulous
Ġb ene
Ġl ad
Ġathlet es
Ġfight s
Ġreb els
Ġacknow ledge
D em
ĠC A
od ox
ĠF all
ĠRep resent
Ġgather ing
Ġout lets
Ġmod ule
Ġbot tle
ĠMic hel
C omp
ke e
â ĪĴ
Ġam endment
Ġrec re
ĠB ox
Ġround s
Ġconcept s
ĠS U
in stein
Ġfl ed
Ġ ~
ĠI ron
ative ly
Ġinter pre
Ġesc al
Ġend orse
Ġ5 6
ĠMur ray
br id
ĠKh an
Ġle ct
Ġexpand ing
ĠHe art
ov a
ater al
Ġweak ness
er d
Ġcogn itive
Ġ5 8
Ġb old
o is
U LL
Ġbad ly
ĠUs ing
al ysis
Ġcl ip
Ġset up
ĠG ordon
ĠLe ban
aren cy
ĠML S
at ar
ĠTenn essee
Ġsh oes
ass y
ĠK ick
Ġrequire ment
ĠC reat
Ġt ap
Ġro ots
Ġexpl aining
ĠEx per
h ard
Ġeconom ics
ĠBre xit
ĠWhe ther
Ġut ility
2 50
Ġl oves
Ġcom ics
Ġh ire
ĠHaw ai
Ġtherap y
Ġh ip
p ack
ri ors
Ġpar ad
Ġmiss ions
Ġn erv
P L
ĠF inally
le ft
ĠM orm
ri x
ĠN iger
M s
Ġc iting
ĠR oll
ĠSy dney
ĠPh ill
F inally
Ġcoach ing
Ġinqu iry
Ġassoci ate
AN D
N BC
Ġd ies
Ġbill ions
Ġfood s
Ġp ill
Ġtem por
Ġdeploy ed
Ġaccomp an
7 00
Ġmag net
ĠH oll
Ġstim ul
ĠE th
Ġperiod s
Ġspeak er
Ġt ons
Ġrec on
Ġsearch ing
Ġm ask
Ġinv asion
Ġse ed
Ġper ception
ts burgh
it o
ar ation
ĠCap tain
ĠF riend
Ġfrequ ent
Ġb ow
Ġm ath
ro ph
it ter
Ġpick ing
Ġprom pted
Ġche aper
ot ing
ol i
Ġ5 9
Ġg ig
ĠM etro
Ġv end
ĠP ers
ĠThere fore
Ġcreat ures
Ġro lling
Ġappro aches
ĠA ccess
T ER
ĠD og
âĢ ĭ
Ġarri val
ib an
ang le
Ġopp ose
Ġgen es
ĠNev ada
o z
i ac
w ill
ol ving
ĠCo le
Ġinterview ed
is ition
est yle
Ġass et
ĠAnton io
Ġp unch
Ġde light
Ġocc urs
Ġn ose
Ġevery day
Ġown s
cos ystem
Ġd reams
ĠB oe
Ġunder t
Ġsent enced
Ġdead line
out ed
ĠAl an
. ]
Ġc ens
li est
Ġsign als
Ġdi am
Ġneighb ors
Ġ8 5
Ġdist ur
E arlier
ĠEm ail
Ġbul let
ĠKent ucky
Ġelimin ate
unicip al
h ar
Ġinte llig
a ired
Ġmus cle
Ġbirth day
Ġpart ly
Ġexplos ion
ri or
che ck
ĠB C
ĠEx ecutive
ĠMor gan
Ġpregn ant
Ġconstit u
ĠOak land
Ġunpre cedented
ĠS ource
Ġe lder
Ġsh ocked
Ġhom osexual
Ġre nd
Ġcor rupt
ĠR ather
Ġinst ances
Ġemploy ers
Ġencour aging
Ġexc lud
Ġs its
Ġmain tenance
Ġviol ations
C O
Ġoccas ionally
h an
aw ks
Ġse ized
com mun
sc reen
h ist
Ġ198 9
Ġrel ation
M ark
ĠO p
M ich
Ġse ctions
ĠR ome
row s
Ġinst ant
Ġless ons
Ġpull ing
m ath
ĠS ound
ĠEconom ic
Ġvar iable
en ess
ĠSt ation
Ġmoder ate
Ġcl er
Ġparalle l
B N
Ġun ve
ĠBel ow
Ġmyster y
Ġar r
8 2
Ġins ight
Ġengine er
Ġrecommend ations
ĠL incoln
Ġkn ock
Ġbu ck
Ġinter ior
Ġdram atically
c ap
Ġcoll aps
ĠCome y
Ġtox ic
ll y
el ing
Ġan cest
ĠD ick
Ġt ut
at us
Ġlo op
Ġcompens ation
est ed
ĠRes erve
Ġple ased
S u
ĠZ e
Ġdisappoint ed
Ġm ice
ĠS on
ĠB i
Ġint r
f r
Ġaim s
Ġu pload
ĠHar per
Ġcontem porary
ĠS us
ĠL ibrary
Ġbet a
ĠDr agon
Ġattract ive
ĠW ales
ne cess
Ġgl ad
Ġc ock
Ġpr ide
v ia
Ġhe lic
Ġperform ances
ĠG DP
Ġpost ing
it ure
Ġv it
e lection
20 13
C L
ĠH u
Ġinequ ality
Ġqu it
Ġacc um
Ġbi ological
Ð ½
Ġh anging
os a
Ġanaly sts
ĠBat man
Ġprofession als
ĠP sych
bour ne
ĠSte el
ĠEl izabeth
Ġadvoc ate
ĠA N
Ġab stract
Re g
Ġm ood
op t
........ ........
Ġ( "
Ġcorrect ly
Ġr h
Ġconst itution
Ġconcer ning
Inst ead
Ġv ocal
Ġcol our
Ġfat al
Ġar ts
ĠV ar
ĠS av
ist ant
Ġmod ified
Ġdr unk
P aul
Ġche ese
Ġadop t
Ġfab ric
Ġshe et
** *
Ġbur ied
m ic
ĠEgypt ian
Ġat he
Ġtr aged
Ġsc ream
T P
og a
Ġconfig uration
ĠG iven
g ets
ut ter
Ġdemand ed
lyn n
Ġprospect s
ĠF al
Ġvolunte ers
Ġlif etime
ĠJ ean
Ġgu ards
Ġfunction al
ĠF estival
Ġex port
Ġdisplay ed
V P
Ġd ual
Ġextra ordinary
Ġmanufacture rs
Ġl ift
ĠPri v
ĠMont real
V iew
own ed
Ġsum mit
ixt ure
A F
Ġte eth
ĠPhot os
iz za
row ing
Ġy eah
Ġgu ests
Ġter r
ĠPl ace
Ġmaintain ing
Ġir re
8 3
Ġcred its
Ġhelic op
Ġg irlfriend
ĠAn na
20 12
Ġpri ze
Ġoccas ional
Ġres olve
Ġopp osing
Ġpromot ion
Ġegg s
Ġs wit
ĠCo al
hatt an
Ġbut ter
gr ad
D is
ro ck
ol s
Ġs li
Ġcollabor ation
Ġan onymous
Ġcou ples
Ġtown s
ĠH art
ur l
Ġsp an
Ġpeace ful
Ġimp osed
Ġbrut al
ĠCh annel
Ġpod cast
Ġe cosystem
Ġb ands
ent al
Ġh oles
Ġp m
ĠT ok
ĠV enezuel
le e
ĠA S
ĠF inal
Ġgen re
ĠO cean
Ġisol ated
Ġas ylum
ĠM un
Ġrep air
ĠAuthor ity
re ll
Ġpubl ishing
Ġexist ed
Ġexclus ively
9 6
Ġres erved
Ġrem oving
Ġpur su
Ġfle et
ĠJ enn
Ġut ter
T op
v ation
Ġsub sc
ab e
arg et
ĠProte ction
ĠW rit
Ġjournal ism
ing e
Ġcommand er
ĠS D
ĠF ive
ĠE PA
ok er
Ġsubscrib e
ĠL ear
play er
Ġartific ial
ĠH oly
Ġdef ender
Ġv oc
T ON
ĠE T
Ġcommun icate
at tered
ĠMP s
Ġpack ages
Ġinterpret ation
Ġdon ors
Th anks
ars on
ac les
Ġconf used
Ġingred ients
Ġtremend ous
ĠW right
Ġgu id
Ġphys ics
Ġn urs
Ġintegr ation
Ġguarante ed
Ġ vert
Ġsh irt
Ġc igare
Ġdescrib ing
Ġwond ering
Ġfor um
ear ly
Ġ6 6
) <|
Ġjump ed
Ġconsider able
Ġg ri
Ġor bit
ĠOn line
Ġin herent
ĠS ci
gr aph
Ġgame play
im ize
l ib
ch ing
ĠCon vention
m ir
Ġse gment
oc a
Ġcho osing
Ġaccept able
Ġsil ent
Ġinspir ation
Ġunder ground
ree k
ĠT ax
Ġdesk top
I nt
Ġsold ier
Ġemot ions
Ġland ed
ĠB an
ĠFollow ing
th rop
ĠPh oenix
U N
Ġmir ror
Ġout comes
Ġcont rary
w ed
ĠN orm
Ġmoment um
che ll
Ġrout es
Ġas sembly
ĠE ve
Ġbank rupt
ĠT ower
Ġcomprom ise
Ġst amp
Ġsustain able
w ind
end ar
ĠSt aff
8 1
Ġl ens
ĠE st
ell er
Ġexp enses
b ably
Ġl in
ĠT ai
app ropri
Ġann oy
Ġexecut ed
j s
Ġal ert
act or
Ġcharg ing
Ġexp ense
Ġcourt esy
h as
Ġearn ings
ĠO N
Ġth ro
T R
ĠN on
Ġmin imal
at ics
ĠK it
Ġdisapp ear
ĠTre asury
f ather
sec urity
Ġ5 7
ĠS a
c at
ĠSim on
c ard
Ġb its
Ġdesign er
ĠB urn
ĠInd ones
Ġs ne
Ġb ird
Ġorgan isation
Ġrepresent ation
g al
Ġl ibr
ĠOr lando
Ġdesper ate
ĠK now
Ġmig rants
Ġst ating
igh th
f it
w a
He y
Ġdro pping
ĠB al
ap ore
St ation
Ġsex ually
od ge
IC E
Ġkick ed
Ġstrugg les
Ġsurv ived
Ġintegr ity
Ġrefuge e
le ans
ik h
Ġav o
Ġhero es
A Y
ig ration
ib l
Ġref use
ĠCh ange
Ġconcer t
ĠPit tsburgh
ĠAll iance
ĠAre a
Ġsubsequ ently
ĠR est
Ġteam mates
Ġregist ration
ag en
ĠG ib
Ġs essions
st op
ĠI M
ĠChrist opher
s ome
st rong
Ġref ers
Ġcur ious
Ġpass enger
1 10
ĠB M
ĠCap itol
ĠMan hattan
h ire
W he
st art
ĠM ail
Ġ1 000
Ġless on
Ste p
Ġco in
Ġref erences
ĠD ak
ĠSupp ort
i ens
Ġl obb
ĠC ould
ub b
ĠAr gent
Ġmilit ants
Ġdiplom atic
Ġmon ster
Ġmin isters
Ġload ed
Ġwitness es
ĠDig ital
Ġh arsh
ot te
Ġcharacter istics
ix on
Ġ6 00
li hood
Ġtravel ing
Ã³ n
ĠInd ependent
sc ar
Ġdom inated
g ly
p g
Ġev olved
on ing
Ġconf usion
Ġsurround ed
d y
ir ates
ĠSp ir
st arter
ĠA lp
Ġatt ending
Ġinflu enced
Ġst ro
mer ce
ak i
Ġjust ify
Ġspeak ers
Ġsusp ension
Ġsol o
ĠEvery one
T ime
Ġrec alled
Ġclos est
Ġcon vert
ail able
H P
ump h
Ġembr ace
on z
el le
inc ome
ĠStud ies
? ?
ĠC ase
Ġv oid
Ġj er
Ġprof ound
Ġnow here
Ġide ology
AT CH
ĠBar b
Ġst ack
Q L
el ve
m ers
Ġo rient
to o
Ġneighborhood s
Ġattract ed
m ble
Ġsub ur
ĠPol and
C or
Ġl os
ĠB ow
ĠN i
c re
ĠD ream
ĠOr leans
h uman
e xt
ĠD E
Spe aking
Ġev ident
Ġcamp s
M od
P I
ac re
t ra
Ġm ile
Ġdevelop ments
on ed
c al
ate ful
ĠJ eremy
Ġj unior
Ġfl our
Ġcert ific
ĠP y
For mer
in st
ĠT esla
Ġeng aging
Ġdepend ent
l arge
ĠHit ler
om ic
Ġnerv ous
Â °
Ġ7 2
Ġchalleng ed
ĠW ord
Ġch ip
G A
ĠSh ort
ĠMar ine
Ġdistrict s
im ir
ĠE ver
Ġcreat ure
Ġpro be
Ne xt
tain ment
ows ki
ĠStan ford
Ġbat ter
U L
Ġin her
Ġproport ion
us er
ĠOr der
Ġch ronic
ĠRob inson
c or
im mer
ad ers
ĠC S
ĠK u
oc ated
m ay
Ġelect oral
am ous
Ġall iance
Ġbox es
ĠH aving
ĠTr ust
Ġper m
Ġstreng then
ĠRed s
ĠC ustom
Ġconflic ts
Ġde emed
ĠG ro
ell ow
Ġsusp ic
app er
ĠEd ition
Ġbom bs
he art
Ġdis abled
Ġeng ines
ĠMount ain
Ġbacter ia
Ġdef ended
Ġsen ators
ĠMiss ouri
iz arre
1 50
Ġd a
Ġsh ops
wh ite
Th ank
Is rael
ĠJava Script
Ġwedd ing
g ood
ĠD uke
t arian
ĠH amp
ĠL ater
Ġpat ri
Ġmotiv ated
z one
Ġf el
ou b
ĠH ung
ll or
Ġanal ys
if ier
ĠH al
ĠÃ Ĺ
ast ed
Ġfail s
ĠC C
Ġ6 2
Ġsoph istic
d r
Ġb ases
ĠB ul
Ġhun ting
Ġvari ables
Ġpack ed
orne ys
ect s
ĠGi ants
ter ror
ĠMod i
ĠL og
Ġw et
Ġimm une
Ġcheck ing
F l
âĢ¦ .
Ġcrimin als
ĠC PU
ĠB or
ĠP ope
Ġexam ine
Ġoper ator
r ics
t te
Ġo ught
Ġen act
ĠT el
Ġep ic
Ġexpect s
Ġpromot ed
Ġcour age
Ġblock ing
Ġsurprising ly
Ġconscious ness
Ġm ouse
le ep
Ġcon secut
Ġv ent
Ġ8 00
Ġcha os
ĠB u
Ġball s
Ġto b
Ġelect ron
Ġle aked
Ġimpact s
Ġexam ined
re qu
g ov
ight ing
ades h
Ġuncom fort
ĠA ren
ĠO cc
Ġsub tle
Ġmet ers
be ing
ĠEd it
Ġbomb ing
Ġtransp arency
ĠF ant
s a
ress ing
Ġbo om
ac o
Ġform ula
Ġbl amed
ĠPlay er
ĠS E
ĠM ult
Ġregard ed
ĠOlymp ics
Ġbr ands
Ġr ic
ĠD er
ĠRuss ians
Ġresear cher
Ġbrief ly
he ro
Ġsc ared
Ġkn ife
Ġorgan is
ĠQue ens
ĠB ir
ĠH ans
Ġhost s
ĠMore over
Ġintegr ated
Ġexplicit ly
eral d
ĠChair man
Ġintim id
R ed
Ġrob ust
R ight
th odox
ry ing
G l
Ġw ise
il ation
ra it
Ġent ity
D R
new s
is d
Ġforg otten
ĠC raig
Ġcrit eria
9 3
an im
Ġt ear
ĠNet her
Y eah
ĠCanad ians
Ġcheck ed
Ġtaxp ayers
Ġfing ers
S upp
Ġproduct ive
Ġspec ulation
Ġprivile ge
Ġfle e
ĠV lad
Ġtele phone
ist le
Ġaccur acy
Ġfl avor
Ġcor rel
res hold
Ġch ips
ĠDe b
Sh are
G e
ĠN azi
Ġrec overed
gg ed
Ġdepart ure
Ġback s
c itation
re ck
Ġg arden
book s
ĠG ill
Ob ama
â Ĥ¬
ri ke
ast ing
ĠUn ivers
Ġedit orial
Ġrese mb
ĠGr iff
ĠH and
Ġun necess
Ġrele asing
ĠAnd y
Ġant ib
Ġinev itable
Ġpres ents
Ġeng agement
I LL
Ġme al
ick ed
Ġdes p
Ġw isdom
Ġr iders
Ġ6 3
Ġsimultane ously
ĠH ug
Ġfig ured
Ġrevolution ary
Ġ >>
Ġall y
Ġstead y
ĠMedic aid
Up date
s uch
lim ited
Ġvol unt
Ġprint ed
B ook
Ġpres erve
ĠOff icer
ĠW ould
ĠD rug
ethe less
ĠO il
ĠK ings
Ġent rance
Ġprodu ces
Ġmother s
ĠN S
Ġrank ing
f unction
Ġb arg
Ġh iring
âĢ Ĳ
ĠP ant
Ġinvest ed
ubl ished
9 2
Ġp our
ĠL es
Ġsl ot
Ġaccompan ied
Ġinflu ential
Ġoccas ion
for ward
Ġj ihad
C omm
amp a
Ġpolit ician
Ġtob acco
Ġc abinet
Ġdecre ase
Ġadminist rative
ĠRed dit
ĠContin ue
Ġin aug
Ġdist ribut
Ġst ats
ĠM ap
ĠStand ard
Ġkill er
Ġf ert
Ġalgorith m
m illion
Ġhand led
angu age
oph ob
ĠM other
ĠA aron
Ġra ises
Ġrad iation
Ġburn ed
Ġexpect ing
Ġsignific ance
**** ****
v i
oy d
ĠF A
ĠPer ry
olit ical
w ich
Ġd imin
Ġple asure
A g
K E
ĠR h
Ġimp ressed
Ġtow er
Ġwire less
ĠSte wart
ĠQu est
Ġas semb
Ġfunction ality
ĠB and
Ġv enture
ĠSh ould
ĠSher iff
Ġbab ies
ĠR aj
Ġsing er
ĠComm and
ĠM ove
ĠG h
Ġover l
Ġprov ider
d ep
Ġinvestig ated
ĠK l
ĠV en
Ġacc ord
Ġrest ore
off s
Ġcompl ained
Ġqual ified
ĠTal iban
Ġle an
ĠUn like
Ġvis its
ĠL ad
Ġpo lling
Ġlif estyle
Ġtransfer red
ĠJ un
ĠMedic are
Ġign or
Ġb ump
Ġsim ilarly
20 17
v ol
ĠH an
Ġbo ards
Ġsa ke
Th ree
9 7
ĠUkrain ian
ĠStan ley
P s
ï ¼
Ġfuck ing
Ġconsecut ive
ĠJ erry
Ġbene ath
i ors
Ġre ass
Ġp ension
ĠFore st
r ition
le ading
Ġres erv
Ġlong time
ĠAd ams
Ġang le
bre aking
N et
ment ed
Ġbel t
Ġdisc rimin
bit ious
look ing
P al
Ġproduct ivity
? âĢĻ
as ive
ĠN O
qu es
Ġdo ctr
Ã ±
Ġc inem
em in
ĠQue bec
ĠR ou
Ġnation wide
Ġend ors
Ġcontin u
Ġoper ators
ĠSc he
Ġcy cl
b ound
ĠCor p
Ġsole ly
ĠEnter tainment
Ġcompe lling
ĠS everal
Ġpro st
Ġimp rison
Ġke en
Ġpubl ish
Ġt ent
ĠCh ampions
Ġrepe al
ĠC old
Ġsupposed ly
ĠSing apore
F urther
Ġcomm od
Ġfl av
Ġdest ination
J o
re nd
ist ance
ĠPort ug
ĠVictor ia
r c
ar med
Ġen abled
ĠSt ock
Ġro lled
Ġident ical
Bl ack
ric ane
ĠS port
ĠPlay Station
ĠU b
ol id
ĠLe vel
Ġbre ast
Ġpain ting
Ġm art
G u
ut er
Ġj et
Ġt anks
Ġa wards
in ite
ar o
am ents
Ġabs urd
Ġreflect s
ol as
io x
Ġb other
ĠN elson
ĠE b
rif ice
or ate
ur ches
ĠG O
Ġinter actions
unt u
be at
ĠMur phy
ag ine
Ġinf ant
ĠMiss iss
ĠTh ings
Ġbeat en
Ġtraged y
ite ment
Ġrec k
Ġaccept ing
Ġappl ies
Ġguid ance
ĠNether lands
ĠL ow
Ġcons ists
Ġem bed
ĠN one
cel ona
boy s
p ing
Ġfin ishing
xy gen
ond uct
ĠMad rid
ĠC ON
Ġspeed s
Ġresident ial
D C
n ie
Ġf ut
t it
for ced
ĠSing h
F i
ic ating
Ġsc rew
Ġoccup ied
c ott
Ġt ears
or ig
Ġin box
ĠAb d
( "
C ar
Ġb ol
Ġst atic
ĠG ard
ĠS N
Ġrel uct
ern and
Ġagree ments
Ġearth qu
I E
le ted
tt es
Ġanim ation
Ġexplo it
b ul
Ġsu ck
Ġsleep ing
ĠBl ood
ĠGr ant
ĠS in
Ġprosec ution
Ġl ady
ĠF uture
Ġphotograph s
Ġsee ks
u ating
Ġaccus ations
Ġdes ert
Ġdocument ation
f ile
9 4
ĠD al
Ġ6 8
M B
st ra
Ġkid n
ĠF lynn
). [
Ġdeal t
ĠHT ML
ĠK a
Ġcle ared
ĠJim my
n an
Ġparticip ating
Ġoccas ions
Ġfavour ite
id al
Ġk iss
Ġproject ed
Ġaw ful
Ġ Ï
? <|
th ur
d ict
Ġf ed
ĠP a
Ġlaunch ing
Ġmod est
Ġ198 6
n on
ĠA FP
un ity
Ġhor rible
f ish
Ġb one
Ġch ocolate
Ġel abor
g ate
ĠT odd
Ġback up
Ġconstruct ed
Ġb ags
com p
Ġtrail er
Ġdet ention
Ġhousehold s
Ġbul k
ab out
ĠOtt awa
k es
Ġdest ro
Ġins ist
Ġout standing
9 1
ĠJ ane
l aim
im b
ie re
Per haps
ĠMar io
ĠS H
spe ed
Ġin ex
Ġscrut iny
ĠTh ink
ĠWik i
Ġpr ayer
Ġemphas is
Ġgl obe
ĠMan ning
ĠP ython
ĠO pp
ĠOther s
Ġal ign
ĠO R
Ġman ual
Ġinnov ative
Ġmand ate
ĠMod el
ĠFil m
Ġsupp lement
ĠComm ons
ĠWar ner
id en
viron ments
friend ly
ou p
ĠC B
ĠG A
Ġpled ge
ĠOrgan ization
Ġappear ing
I d
Ġre wards
sel ess
Ġhead lines
Ġinfect ion
E ach
Ġoper ated
Ġer u
Ġthe ft
ĠI ss
ĠBe ing
ĠSte am
Ġuncertain ty
Ġt ale
ĠS ud
Ġexc use
Ġwal ks
ipp i
ĠKurd ish
T O
Ġstri p
Ġcop s
Ġpat ent
Ġcirc uit
t own
Ġreven ues
Ġcook ing
Ġsust ained
Ġ3 60
ke ley
Ġprov isions
Ù İ
Ġun re
Ġgraph ic
Am ong
c ular
ĠC itiz
ĠEvery thing
tr ack
Ġpregn ancy
us on
ĠAr senal
Ġspot ted
Ġam bitious
Ġsent iment
CA A
ĠHamp shire
Ġl ane
Ġrec ession
Ġrob ots
U C
Ã §
Ġb izarre
un a
Ġreal istic
anc hes
D id
b en
ur rency
ĠPh ys
Ġconver ted
ĠN ich
Ġadop tion
Ġprosecut or
Ġint rig
Ġtrad ed
v ious
w all
ĠN ik
Ġlay ers
Ġpost er
Ġreb el
Tr ans
Ġaffect s
Ġintellig ent
Ġto ss
ĠP ear
Ġle ak
Ġfl ights
G ood
ig e
ĠR are
ass ion
ah oo
om er
Ġg ut
Ġass ists
ism s
Ġcur ve
Ġkey board
ĠC os
ĠN ame
Ġn u
Ġadv ent
ĠAb u
Ġr anging
ĠK al
Ġbuild s
M AN
h r
o pp
Ġm ales
ĠT am
Ġposs ibilities
Ġcreat or
Ġuncomfort able
ĠIm m
Ġreview ed
Ġautom atic
Ġcalcul ated
ĠFin ancial
Ġpra ised
iz ations
Ġold est
ers ion
Ġsto pping
Ġn ode
Ġprevent ing
Ġshel ter
} }
ĠE C
Ġh oney
Ġdr um
Ġmyster ious
Follow ing
E m
Ġt ension
Ġliber ty
ĠL arry
Ġconv iction
ĠSum mer
Ġdispl ays
ĠD rive
ust ing
Ġsuggest ion
Ġ198 8
B el
ĠF O
Ġover night
or ical
ĠS oft
ard o
ĠV in
oll ar
ĠL ocal
Ġdocument ed
ĠLouis iana
ul se
Ġth reshold
ĠFl ash
Ġmiss iles
k ward
is ive
ist a
ĠBl ake
D ata
Ġp ose
ug by
by n
Ġconcent ration
ĠRon ald
Ġthe oret
ĠN ature
Ġreg ret
prof ile
Ġad j
Ġjur isd
ĠD isc
ac cept
ĠH uff
th al
Ġicon ic
ĠS EC
sh ore
o vers
ĠF ather
Ġnewslet ters
Ġn ull
il st
ch arg
ra h
Ġcomb ine
ĠSnow den
Ġmet h
Ġsing ing
Ġcult iv
Ġin hab
Ġfemin ist
Ġconven ient
Ġg ym
Ġev ac
b at
Ġw ore
Ġcross ed
ĠWh it
ĠMel bourne
Ġd ressed
ut her
Ġlux ury
Ġare na
ĠDo ctor
Ġoccup ation
cent ury
ĠJ ess
AR T
ĠD ur
us sels
ĠPhilipp ines
D E
ĠD u
ĠUS B
Ġse eds
ĠE mer
ĠF ederation
ĠTr ue
Ġ6 1
ĠAr ts
Ġrestrict ed
Ġcelebr ated
Ġrenew able
Ġpass word
On ly
ĠCoal ition
L ist
ĠR oc
Ġmurd ered
ĠCorpor ation
Ð »
Ġr ivals
Ġb icy
Ġre cept
Ġear ning
Ġpe er
Ġunf ortunately
Ġavail ability
Ġcour ses
Ġremem bered
Ġlibr aries
per t
Ġdeliver ing
ĠColl ins
Ġoff season
ĠM arg
ĠH ann
ĠN ash
Ġpred ec
Ġre ign
op les
Ġen vironments
b urn
Ġtri ps
Ġmechanism s
Ġmortg age
ĠW inter
ous es
inc ial
Ġfire arms
Ġf its
ĠK y
Ġres ort
Ġarm or
Ġexperiment al
ir s
Ġfil ing
Ġdevast ating
Ġcontain er
? )
v ar
es ides
Ġpo et
ĠNot hing
ard ed
Ġad ap
B ar
ĠF le
ĠEag les
qu er
R O
ĠL uke
Ġamong st
Ġemploy er
Ã ¨
Ġg olf
ond s
Ġcor n
ern el
ĠH ond
Ġrel atives
ER E
ĠC as
ĠMc Donald
Ġchemical s
Ġh unt
ĠS ac
Ġsy nd
Ġpain ful
Ġf ishing
Ġab und
Ġbur st
g ence
ph an
Ġwin ners
ĠTok yo
Ġact ed
ot ion
Ġsec ular
ĠHun ter
Ġsepar ated
May be
Ġhe s
Ġadvoc acy
B r
ĠB ol
Ġd irty
ĠI C
ĠC L
n amed
ĠAl aska
Ġthe r
ĠFurther more
Ġequ ipped
- >
ĠBl ock
Ġprepar ation
Ġh ub
ĠS ection
Ġatt orneys
Ġ6 7
g t
ĠW y
ix el
Ġviol ated
Ġdrop s
ĠMal ays
ar ians
Ġwh is
ĠBar celona
Ġcat ast
Ġpar ks
Ġaddress ing
erg uson
âĢĿ )
ĠExp ress
w ords
Ġcar rier
Ġlimit ations
g roup
Ġd uties
ĠRub io
ĠMit chell
Ġ< /
Ġdeleg ates
ag g
Ġpri est
Ġfac ulty
Ġtou g
Ġcom ed
Ġme ets
Ġexpl oration
Ġc ave
Ġb ubble
Ġcol leg
Ġcompl ain
Ġreflect ed
Ġtechn ological
ĠWik ipedia
ĠMorm on
Ġlog ical
Ġdelay ed
Ġh orm
ay a
ĠW i
Ġv iable
Ġst ressed
Ġh iding
ĠOx ford
f irst
l ied
ĠMcC on
for mer
k ind
u ably
Ġincor rect
Ġobserv ations
Ġm isc
ĠC rit
Ġnot ably
ue z
Ġco ord
Ġtr ains
ĠCl imate
ĠMod ern
ĠS essions
Ch ina
Ġpros per
ã ģ
Ġs izes
Ġdisapp eared
ĠAlbert a
Ġtiss ue
Ġens uring
---------------- ----------------
Ġr itual
ĠInd ians
Ġthe ater
Ġcount less
Ġexpl oring
amb ling
Ġact ress
Ġfil ter
Ġpan els
Ġgent le
uck er
ĠT an
Ġadd iction
Ġdesign ated
ari os
Ġgrad ually
Ġper mitted
ru p
ĠCh ron
Ġsur ge
Ġind ication
Ġrel ie
Ġheart s
Ġped est
Ġbe ef
ach ment
Ġimp ose
ĠRec ords
n atural
Ġm unicipal
Ġsubsid ies
o j
ĠM obile
Ġcross ing
AS H
iat ric
A B
Ad vertisements
Ġconvers ion
ĠMag azine
ut o
Ġin eff
ĠR angers
ĠF I
iv an
on ia
ĠD VD
Ġwitness ed
o op
ĠPro duct
Ġsafe ly
Ġenter prise
Ġca ution
Ġtransl ation
ĠCapt ion
Ġp or
Ġan arch
ber y
Ġprevent ed
Ġan ch
Ġann ually
Ġ198 7
ĠF ig
ĠN az
ĠB ah
Un fortunately
j amin
ĠH ad
Ġpart ially
Ġquestion ing
Ġsophistic ated
Ġor ange
Ġcomm ands
ĠiP ad
Ġt orn
Ġco ins
win ning
ĠM uch
Ġcon ced
Ġlapt op
ath on
ĠCl oud
Ġnewsp apers
ĠTy pe
ĠH IV
Ġpol ar
20 10
Ġcru el
Ġsup rem
oc us
arent ly
Ġs ons
Ġhost ing
ag u
ĠHam as
Ġamb assador
Ġquiet ly
Ġagric ulture
t wo
or ia
Ġp ending
Ġins ult
ĠBl u
ĠPark er
ĠMor ris
Ġf ont
Ġsp y
Ġsevent h
ĠP rom
ĠP oll
Ġinter ven
c ount
i ated
Ġas pir
. ),
Ġfr act
Ġmean while
ĠWay ne
en cer
ĠF CC
om ach
Ġview ing
Ġrepl acing
Ġcomplex ity
ĠMarsh all
Ġc ats
em it
Ġf er
Ġd il
Ġelect rical
olit an
Ġshoot er
Ġcitizens hip
k m
ia h
Ġwe aken
Ġprocess or
Le aks
Ġbug s
d s
Rep ublic
Ġt u
al id
Ġder ived
Ġsh ake
Ġdec or
ĠF OR
Ġun l
Ġcap ability
ĠRog er
Ġdiscipl ine
Ġl ung
Ġsocial ist
Ġbond s
Ġb ip
ore r
ĠLaw rence
ĠM as
Ġdet ained
Ġcomment ary
ĠChristian ity
Ġacqu isition
Ġsw ord
ude au
Ġaw kward
Ġsp ray
ĠAir port
ĠVlad imir
ĠD a
Ġdes erves
Ġfocus es
Ġ `
Ġcont ents
Ġfrust ration
ĠTem ple
ĠDe ep
Ġcontro ller
Ġdepart ments
B est
ĠDak ota
S everal
ĠS aints
ail ing
Ġcompet itors
Ġhost ile
put er
Ġan onym
Ġfor b
ren cies
Ġsuggest ions
Ġce ase
Ġpra ise
Ġsty les
ĠT erry
ĠR ound
Ġdr inks
r ons
Ġrad ar
go vernment
Ġinstall ation
ĠK r
ĠAr ctic
Ġw rap
ĠT a
spe cific
Ġt ends
Ġmarg inal
Ġo xygen
Ġp owered
ĠAdd itionally
PD ATE
ch ron
ĠG ene
Ġsl ide
F O
ĠT oy
Ġfle w
pie ce
ĠO w
TH E
x x
Â Ķ
ne g
Ġworld s
abet es
Ġgold en
G E
ĠS S
ĠT able
Ġst arter
Ġlong est
ĠSpe aker
ĠTh ird
Ġdeb ates
Ġ198 4
Ġg reet
ĠP el
are r
Ġbuy ers
ĠCommission er
Ġhack ing
Ġf u
Ġtr ucks
form ance
Ġbu nd
Ġlight ing
ĠB ab
Ġf urn
Ġmechan ics
Ġsac rifice
ĠEnvironment al
ell o
Ġdam n
Ġdiscl osure
Ġaccompl ished
el come
and y
Ġinter rupt
l ink
ĠN CAA
Ġres erve
Ġinst antly
ĠMar c
Ġceleb ration
Ġre actions
Ġd ign
am an
Ġthem es
Ġad vertisement
lect ed
ĠTe xt
ĠTre k
ĠS aint
Ġnight s
ac ies
ĠD J
ĠHis pan
Ġbe ars
Ġassum ption
The ir
Ġch amber
Ġcomp osition
ĠPro t
appropri ate
Ġm m
ĠBe at
Ġgra ve
in itely
Ġm akers
ll ers
ĠE D
ock ets
s ize
ĠB JP
ĠFor ces
ĠPro gress
Ġclim b
Ġl ib
ro t
ĠQ ual
ĠMedic ine
Ġt ill
ater n
/ .
at ter
ur ities
ĠF arm
li ver
Ġcontribut ing
roduct ive
bo ards
Che ck
Ġs od
Ġp ow
Ġfasc inating
K ey
U B
ĠIn n
ier re
ĠSo x
Ġent ities
Ġsumm ary
Ġinvest ing
ĠZ h
ĠWat son
le ments
Ġarrest s
ĠEv ans
b es
Ġc ous
ĠC R
ĠK night
Ġconclus ions
Ġagric ultural
ĠAren a
Ġoper ates
Ġrespect ed
Ġbit ter
Ġhighlight ed
ĠL ions
Ġcomp r
Ġres idence
Ġfr ank
ĠBr ussels
ĠE lection
vers ion
ĠGr ay
Ġsh ocking
Ġcollect ing
Ġha z
Ġadv ised
Ġver ify
aren thood
Ġpre view
Ġpartic les
Ġalt ogether
Ġc rown
Ġt el
Wh ite
Ġdev oted
ĠJac ob
E X
ĠD omin
Ġl yr
ĠL en
ĠD raft
Ġapp lying
ĠRes p
Ġbath room
P at
Ġhe aven
Ġb ones
Ġmotiv ation
ĠMississ ippi
Ġsupp orter
Ġpain ted
bl ock
Ġst unning
Ġform ally
Ġal ike
ĠAgain st
Ġaccept ance
ĠBer keley
ĠSwed ish
ĠS ide
Ġhistor ically
m atic
Ġw ound
any ahu
Ġplan es
Mich ael
u ates
im age
ĠOr ange
Ġeth ics
b et
s ur
Ġpoor ly
Ġappoint ment
Ġven ue
H ave
ĠL aur
Ġdem o
Ġhonest ly
l u
Ġd uration
Ġdirect ors
Ġtreat ing
>>>> >>>>
Ġy ard
olog ically
Ġpen alties
T witter
at ical
uer to
B en
ĠF igure
ĠCor byn
ĠHot el
T ake
Ġu gly
Ġstart up
ĠAl b
ĠDe an
Ġdirect ions
Ġrece ives
M ed
ĠU I
Ġmet aph
Ġmechan ical
Ġdist inction
f i
val id
ĠBr ady
Ġrespond ing
Ġas h
ĠN ative
Ġcondem ned
ĠB enn
ĠPe ace
g ments
ĠD om
Ġpat rol
Ġess ay
Ġinc ons
Ġexpert ise
Ġit er
augh ters
Ġch ap
Ġhar vest
hand ed
um ing
Ġunderstand s
Ġparam eters
ĠLyn ch
am ine
Ġgr ants
DA Y
Ġa uction
ĠKick starter
F S
st orm
ĠS ex
ĠRe id
arm a
Ġover d
Ġbre ach
ĠT ampa
Ġarg uably
sh ot
Ġtravel ed
Ty pe
h alf
Ġto ll
Ġrespect ive
Ġprint ing
ĠB os
Ġequ ity
Ġreveal ing
Ġorient ation
F e
b ie
fl ow
ĠM A
ĠF R
inc inn
ĠD or
Ġsc ary
Ġdraft ed
T IS
ĠW ard
au er
ĠCh all
ro c
ĠCongress ional
Ġattend ance
r in
âĢ ³
. :
Ġp ays
ĠG ab
ĠMc M
Ġrif le
ĠSaf ety
Ġl one
Ġconfirm ation
Ġmag ical
Ġanim ated
it ivity
st an
ow ell
-- -
Ġprev al
per or
Ġ7 6
Ġmig ration
olph ins
Ġunnecess ary
W ar
Ġf ires
Ġdr ones
Ġp ione
H ist
ac ular
ĠF ind
Ġint ensity
Ġcirc les
ĠB art
Ġdesign ers
Ġpress ing
Ġstrong est
Ġvacc ine
Ġc am
Ġc ake
is ode
Ġ197 9
Ġp upp
Ġscr atch
ĠL ady
Ġdiv ide
Ġexperien cing
ĠA wards
ĠP od
p in
Ġjud icial
incinn ati
b ecause
Ġf ru
ab ling
Ġpl acing
Ġsaf er
Ġprotect ions
Ġdist ant
Ġep id
Ġdemonst ration
Ġqual ify
Ġmount ains
ĠF if
Ġrum ors
o ons
Ġb ass
pl ing
ĠCo hen
G iven
Ġe ars
Ġpr icing
Ġg host
ĠB aker
ĠR ice
ĠN ap
ĠCamp aign
m are
ĠT R
Ġexp ed
Ġhapp iness
Ġ198 5
Ġilleg ally
m ap
Ã ¥
Ġne ur
com ed
Ġaud iences
Ġoff set
ict s
u i
st ring
ĠSt orm
r ained
? '
B re
er ving
Ġgr ateful
ĠSm art
Ġcomput ing
ĠP i
Ġbreak fast
le ton
Ġtrans formation
Ġfree ly
Ġemer ge
ĠCommun ist
Ġd ensity
ĠI an
ch i
te ch
UT ERS
v o
Ġto ile
Ġsu itable
d ev
Ġn aked
Ġpro l
ĠAbb ott
Ġf are
ĠA y
ĠM ind
ĠH end
ĠMan ager
writ ten
Ġwal let
ĠAr men
Ġtem plate
Ġovers ight
ĠHawai i
ĠS wit
own ers
Ġfast est
Ġgro cer
s ized
Ġsa uce
Ġinf ring
Ġnon profit
Ġst ir
Ġ19 30
Ġend less
Ġfin an
not e
Ġexch anges
Ġcomp osed
ĠY ang
Ġinter rog
oty pes
C OM
Ġch urches
Ġtable t
B ig
j an
Ġcult ures
ĠPost s
Ġg rip
Ġcapital ist
ĠCh uck
Ġdeploy ment
w estern
Ġvolunte er
ĠMcCon nell
g ary
Ġz omb
h ill
p ot
Ġtext s
Ġconserv ation
Ġw ings
ay ed
Ġj okes
au c
Ġtrans mission
Ġsk et
Ġannoun cing
Ġbal anced
greg ation
Ġcount ies
Ġcondem n
ĠU RL
Ġvir al
Ġcon j
Ã ¢
ĠR ap
ĠF erguson
ĠG re
Ġscen arios
ĠK yle
Ġsec ured
ll i
au cus
Ġce iling
Ġst omach
ĠBloom berg
H ar
d f
Ġre hab
Ġatt ributed
ec onom
Ġ) ;
Ġthrow s
Ġprior ities
ici ary
c ode
ĠHe at
Ġqu otes
Ġdep os
ĠCent ury
keep er
Ġ7 3
Ġcle ver
Ġbound aries
Ġiniti atives
Ġfrust rated
mind ed
ĠMot or
ĠM itt
Ġra id
Sec ond
w hen
Ġf o
Ġm ic
Ġz ones
umb led
at re
Ġg aining
m other
ĠP AC
ra ham
Ġh ier
ĠCamp bell
ĠF ro
Ġsl a
ĠEd itor
ĠLeg isl
ĠBrew ing
b ig
Ġdes ired
D own
Ġfro zen
EM ENT
c rat
Ġt une
th ink
form ed
ĠBuff alo
Ġt ensions
Ġinc omp
Ġoper ational
Ġinst inct
Ġbrow s
or ient
ĠBl og
Ġteen ager
Ġtun nel
Ġtransp arent
] <|
Ġspread ing
im ens
ĠL ock
Ġdec iding
Ġcal endar
ĠTe a
ĠRem ember
Ġrus hing
Ġapp eals
Ġbel oved
Ġeconom ies
Ġdecre ased
val ue
Ġflu id
ors es
Ġhigh way
Ġprob ability
E uro
ĠB L
ĠDou g
d am
ĠB eng
ĠP ur
ĠCh ap
M edia
r idge
it ate
ĠG a
aw s
Ġm ild
st ory
Ġst un
out heast
Ġmand atory
ĠRod rig
qu ality
ĠCh rome
et e
In ter
Ġve gan
AT ION
ĠB uck
ĠIm p
Ġachieve ment
s ign
Ġgr asp
ortun ate
Ġacqu ire
ĠB uilding
Ġinstru ments
L a
ation ally
and ed
ĠSc ar
est one
Ġexp end
Ġparticip ated
Ġsec rets
Ġcr ude
Ġdam aging
Ġoptim istic
med ia
ĠBar ry
Ġhypot hesis
Ġre aches
ug s
Ġrespond ents
Ġtrust ed
Ġquant um
d ata
o ard
Ġp osed
Ġconst rain
ĠTy ler
m id
Î ±
Ġp ist
ĠB und
Ġfr ight
Ġmanufacture r
ĠCirc uit
ĠArk ansas
Ġf ib
Ġsent ences
Th rough
Ġcrowd s
Ġexplos ive
Ġfit ness
Ġrot ation
N ame
Ġprot otype
ĠJeff erson
Ġs ends
ĠBen jamin
gl as
Ġt ar
Ġs her
ver ning
ĠR ow
ĠCh ance
ah l
Ġ7 00
Ġaff air
Ġpan ic
Ġshif ted
ch arge
ĠF a
Ġwor ship
pr ising
Ġsoc ieties
Ġimm ense
Ġgreen house
Ġavo ided
9 00
Ã £
Ġv ague
Ġag ing
G r
ĠF DA
Ġparliament ary
im s
oc ate
Ġdis par
Ġrus hed
n or
z es
Ġmon etary
Ġenjoy ing
Ġhy brid
ĠAM D
it ably
ĠM aine
ĠR y
Ġclick ing
r ane
ĠMer kel
Ġr ice
ĠJ u
Ġtou ched
ĠKir k
Ġdefend ers
ĠT s
Ġcomple tion
idd ing
Ġpress ed
Ġport fol
Ġcrypt oc
og g
are t
ĠFrank lin
Ġremind ed
Ġflex ible
ank ing
bor ne
Ġcrop s
H aving
Ġdon ated
ĠLeban on
ĠP ed
ud ge
Ġpe ers
Ġedit ors
back ed
Ġres erves
Ġpur suit
ut t
Ġser ial
Ġconsequ ence
Ġdistur bing
Ġwel comed
Ġsla very
Ġwa ited
Ġassum ing
ĠR aven
Ġal ph
Ġline back
Ġmeant ime
Ġwh ites
Ġkn ocked
Ġpled ged
d irect
ard ing
Ġdecl are
Ġadvant ages
ĠO scar
Ġ7 4
Ġaltern atives
Ġspace craft
M on
ĠR io
Ġbu zz
AT ED
w he
ed ed
Ġcontro lling
Ġf illing
ĠR ain
Ġide ological
Ġinn ings
M in
ĠI V
Ġsupp ose
ic ut
ĠC rown
ĠP uerto
Ġsh orter
Ġdec ides
p ath
Ġbar riers
Ġl ip
ort ions
ĠE nt
Ġpl aint
ĠUn iverse
ĠAnt i
he alth
ol ine
Ġass ured
ĠIs lands
arth y
Ġtradition ally
Ġtempor arily
M en
ĠP ence
Ġm amm
Ġbl ess
ĠS alt
Ġinv ite
ing ing
ĠTr udeau
Wh ich
sec ond
ĠG PU
ĠJ en
Ġres igned
lim inary
Ġelder ly
ĠL ie
Ġtrig gered
r ust
Ġunder mine
de g
M art
at ile
ĠD ub
Ġunder min
Ġwra pped
ĠT reat
Ġeconom ists
Ġexc itement
b art
Ġpresum ably
Ġre un
Ġdetect ed
VER TIS
or i
Ġtr apped
Ġimmig rant
e u
ig hed
ĠJ ets
Ġworth y
Ġedit ing
Ġgrow s
Ġhat red
Ġpop ul
b rew
Ġ6 9
Ġanticip ated
found er
Ġab ol
Ġsurviv ors
d ing
Ġher itage
ĠN atural
Ġmut ual
Ġking dom
ĠSci ences
il ateral
ĠN at
ĠSw iss
ĠTai wan
Ġref using
Ġn ick
con nect
Ġident ification
ĠWW E
ĠB ash
Ġear liest
Ġdeliber ately
w al
Ġp ink
Ġcomp os
Ġ198 1
Ġdifficult ies
zer land
ĠWiki Leaks
Ġsatisf ied
Ġbatter ies
Ġbar rier
Ġhuman itarian
C NN
at on
ĠCub a
Ġflex ibility
Ġindic ating
d ec
at oes
Ġsp awn
Ġappro ve
Ġstatist ical
Ġimag ination
ĠLuc as
ĠLiber ty
C D
G M
is ers
ĠWe iss
Ġhead line
Ġsens or
ĠPol ish
ã ĥ
Ġl anes
Ġch ains
Ġcont am
Ġtreat ments
ĠPart ners
ĠPhil ip
Ġfold er
W orld
af i
Ġpure ly
Ġun ity
Ġincl usion
ĠG ates
ĠAn im
ĠChrist ie
IS T
Ġt um
Ġsh ar
Ġatt itudes
Ġ7 7
ĠBr andon
Ġm ock
Ġplan ets
ĠSm all
Ġtrans f
Ġins ane
Ġspark ed
v als
ĠC incinnati
Ġdo se
Ġ7 1
Ġisol ation
Ġs illy
ar ound
Ġd iver
ĠK as
Ġbr ains
Ġliber als
Ġcoordin ator
Ġa ired
ĠR ail
su ccess
Ġharm ful
Ġur ge
Ġcast ing
Ġsl ave
Ġtem ple
ĠNor way
Ġpursu ing
Ġ vel
ĠF un
ank a
ĠSp ider
ĠMor ning
Ġver dict
ĠVer izon
] ;
Ã Ĺ
ĠM om
ool s
Ġemp ire
ĠR aid
ĠE arly
ĠU ntil
Ġadv ances
Ġlegisl ature
Ġanaly t
Ġcolle ague
ĠT alk
Ġbr anches
Ġstr ain
Ġdecl aration
Ġobserv ation
âĸĪ âĸĪ
Ġess ence
Ġsm ugg
f s
Ġaccount able
Ġm asc
ag raph
Ġres olved
Ġsqu ee
ac er
un ct
Ġathlet ic
ĠC ut
ĠM and
Ġregul ators
N orth
Ġt ong
on er
Ġtend ency
Ġvill ages
ke es
ĠF isher
ĠK rist
Ġflo ating
ĠCam bridge
ruct ive
Ġhope ful
s ource
st ock
Ġwh istle
ĠP arenthood
Ġha bits
Ġ8 2
ĠRE UTERS
ĠSt re
Ġlif ted
V ideo
Ġl aser
Ġtechn ically
au kee
Ġwork place
Ġdraw s
F ree
Ġc m
Ġm ixture
Ġste ep
Ġimper ial
Ġpre ference
N ever
ĠT ig
Ġconclud e
ĠN a
ne ver
Ġident ifying
Ġdam ages
Ġr all
X X
arent s
Ġund ers
ĠConserv atives
Ġrep ly
accept able
D B
E ng
Ġn ons
Ġdon ation
Ġprov incial
ot ton
Ġeconom ist
ĠRog ers
p ace
Ġgrab bed
n ormal
se ud
Ġpurch ases
Ġstruct ural
Ġsac rific
h aul
Ġfound ing
Ġreal m
Ġin hib
Ġfl ip
Ġfr action
âĢ¦ âĢ¦
Ġabs ent
Ġbroad band
agh d
Ġl un
ip her
Ġcompl iance
Ġtut orial
Ġgen et
Ġapproach ing
ous ing
Ġf est
ut ical
Ġmon sters
Ġbreak down
Ġdivor ce
Ġh oly
ĠSt ars
Ġsepar ation
ĠNet anyahu
Ġeth ical
ĠK erry
Ġremind er
per ial
ĠE X
urn ed
ĠKe ith
u z
ĠA w
ĠW orks
ĠD NC
Ġfun eral
Ġpen et
ĠSpir it
Ġsc rap
ĠSte in
Ġ198 3
B et
Ġa est
Ġw ishes
Ġdet ain
A tt
p owered
Ġlast ed
Ġfin ancing
ĠSh an
Ġcomp ound
Ġthere by
Ġle verage
be it
AD VERTIS
z b
Ġboy friend
T om
f ive
ĠM MA
Ġtr ash
Ġsl ower
Ġencoun tered
Ġres on
Ġperm its
th s
act ory
Ġdem ol
Ġth irty
ĠCh o
ĠR T
ĠN ex
Ġcomp aring
Ġfail ures
Ġdiagn osed
ab il
Ġch ampions
ĠP interest
ne red
Ġdisp os
â Ħ
Ġgo verning
Ġbelie ving
Ġorganis ations
es ity
Ġbott les
ĠA th
Ġed ited
Ġlegend ary
w aukee
Ġto ken
ĠG er
Ġrep ublic
Ġinfect ed
Us ing
G od
i ary
it ative
ad vant
Ġh ij
Ġout right
Ġrec onst
ere r
Ġwond ered
ĠPri ze
Ġarrange ment
Ġhum or
ĠCharl otte
Ġcart oon
iv a
Ġarri ving
ĠAg ree
ĠInte rest
Ġro cks
Cl inton
I O
ĠS ong
Ġexcess ive
Ġd aughters
ĠI RS
ur se
ĠâĢ ĭ
ĠF ried
su its
Ġaw a
ĠSpe ed
Ġin sect
ĠM D
op es
Ġcre ep
Ġdoub led
Ġpassion ate
Ġhe nce
ĠLa ure
Ġcommission er
Ġenh anced
ĠArt icle
Ġbutt ons
S outh
i ology
Ġf ierce
ac ent
Ġst ocks
ĠG arden
ĠBe h
w id
Ġrec ount
Ġdirect ory
enn a
Ġconduct ing
Ġunf ortunate
G O
T ION
Ġb oring
Ġd umb
oll ah
Ġmon op
Ġadequ ate
ĠWar riors
ĠCor ps
Ġv ibr
ĠG B
ear chers
Ġdis g
Ġ: :
Ġtraff icking
Ġsequ el
Ġtour ists
Ġlobb ying
Ġtest ified
ĠPlay ers
Ġassum ptions
ĠCommun ications
Ġlicens ing
iff erent
Ġmet ab
ĠGu y
ĠGu ide
Ġalbum s
ĠPlan ned
Ġw and
ĠC arson
ĠVenezuel a
m aster
ir able
Ġout er
g ian
ur able
ard less
ĠV ery
Ġinvest or
S ON
ĠB ou
Ġle af
Ġ[ *
Ref erences
z o
her ic
Ġle ather
Ġsusp icious
Ġd ys
Ġgr ace
Ġscreen ing
ad ows
Ġjust ified
Ġinv ented
Ġmill enn
Ġminor ities
vis or
Ġwrest ling
A lex
ĠB E
Ġj ew
Ġtransl ated
Ġf ence
ur red
Ġadm its
Ġdestro ying
ĠB B
Ġfe ared
C ap
Ġrel ating
im g
Ġgar b
A ust
g i
ĠG host
ace utical
Ġpe oples
Ġten ure
G ame
Ġd ivers
Ġr ib
ĠTrib une
Ġt at
res a
Ġdis orders
ĠNe il
Mus lim
Ġscream ing
ĠM ov
Ġex ports
Ġgrav ity
ĠS M
ir ate
ll o
Ġsh aped
Ġun h
ĠAm b
Ġorgan izing
Ġlicens ed
ust ers
Ġwork force
ĠZ ion
Ġf t
Ġcomp iled
ĠW iz
ĠBro s
Ġpre st
Ġ7 8
Ġrom antic
Ġvert ical
re r
Ġvar iation
U PDATE
Ġc ub
ĠB ears
Ġpil ots
out ube
Ġpres cription
ĠSwit zerland
ĠA ve
ĠR oom
ĠN ort
Ġsa il
ĠMar ia
Ġfire f
ĠCons ider
Ġroutine ly
ĠY ahoo
Ġtreat y
ili ation
d i
u j
Ġcomp ly
Ġun e
Ġgener ous
Ġtrad itions
ĠWith in
ĠPet ers
Ġsucceed ed
Ġdis pro
Ġafter math
ĠStud ios
Ġhack ers
s chool
Ġspec ified
Ġdisc our
ĠEx change
ĠCow boys
Ġpath s
Ġcontin uous
ĠHoll and
âĦ ¢
in ery
Ġde ce
Ġle agues
Ġtr agic
iss ance
Ġple aded
on i
Ġeduc ated
Ġtaxp ayer
ĠConnect icut
Ġembed ded
A nt
Ġcare ers
icial s
Ġtransform ed
is ible
Ġh ill
ab ul
ĠG erm
ĠMad ison
ĠN ar
Ġmass es
ĠC ass
pl an
Ġcons iders
Ġprec ious
Ġunve iled
ip h
Ġcount ing
Ġ198 2
Ġrecru iting
i ability
Ġdis m
ĠDep uty
d ig
ĠB Y
Ġpart ial
Ġcount ed
ĠMc L
fe ld
J an
uss ion
Ġexcept ions
it bart
Ġult ra
U D
ĠB us
Ġwhe els
Ġen ables
rop olitan
Ġelimin ated
ĠF at
Ġgr ain
ĠSe ah
Ġpsych ology
roll er
ĠOcc up
F our
ĠB h
Ġtra its
Ġn an
Ġimplement ing
crib ed
Ġcap s
ias m
iox ide
S ometimes
i ots
Ġ8 8
umb ling
ĠBrazil ian
ĠAd vent
ĠMil itary
Ġmotor cy
Ġstab il
N T
Ġtw ist
Ġin mates
orig inal
R ich
ĠR u
Ġaccur ately
( '
ĠM ission
Ġwhere ver
l ash
Ġt ang
Ġref lection
az y
A V
Ġd irt
lud e
â Ķ
Ġwor n
Ġmed ian
G eneral
Ġwar fare
Ġnegoti ate
Ġcorrespond ing
ch ar
Ġun st
Ġret reat
Ġstre ak
Ġaccount ing
force ment
M ake
Ġag rees
iz able
ĠO liver
Ġsl aves
Ġexec ute
Ġcompar able
Ġeval uate
or ph
Ġcl uster
Ġdel ays
Ġfem ales
Ġsens ors
Ġincent ives
ĠIndones ia
u um
Ġbe ers
air y
Ġl au
ĠFor mer
Ġpredict ions
ĠProf ile
Ġmagnet ic
N ULL
Ġfar ms
ĠIslam ist
Ġsevere ly
Ġgif ts
ab l
Ġsp are
ĠBelg ium
u ilt
Ġhe d
Ġindepend ently
Ġprohib ited
J ames
Ġam pl
ur i
Ġcry ing
Ġdoctr ine
al og
ĠE li
Ġc ents
Ġsu ed
Ġunc ons
Ġis lands
Russ ia
Ġme als
Ġsk illed
Ġintent ions
Ġfeed ing
ĠHind u
S et
b ull
elt a
m art
Ġlyr ics
Ġor g
claim ed
ĠS or
ĠThe atre
em ail
ĠC z
ĠR ams
Ġo h
ess ional
Ġintrodu cing
tr ue
Ġmidfield er
red ict
Ġche er
Ġur ging
ugg ed
ather ine
Ġjump ing
#### ####
Ġcomment ed
Ġstrik er
Ġtrib al
Ġadapt ation
( );
ĠN C
Ġentreprene urs
Ġcertific ate
f in
Ġfl esh
Ġlack ing
cul es
ĠM O
Ġdec ks
Ġsn aps
Ġmagn itude
N Y
r int
id ays
ĠHar vey
Ġswim ming
Ġfol k
p ic
Ġto y
ĠE dd
Ġsub mar
St art
Ġconv inc
Ġsac red
th a
ĠL oad
St ud
ĠÂ ĵ
O ct
Ġp ile
Ġp ants
ol k
Ġsu its
are st
Ġ19 20
In te
Ġesc aped
W ork
Ġauthor ized
Ġcollaps ed
ĠM oney
ĠD ate
ĠD ri
Ġun rest
ĠV A
Ġinst itutional
Ġden ial
Ġlay out
ĠT ob
ĠK arl
Ġbreat hing
Ġwood en
ĠT un
Ġple a
P ar
es is
ĠAn ne
Ġtri ple
ĠSen ior
Ġdark ness
ĠFant asy
ĠC orn
Ġhe aling
ĠStud io
is en
Ġover look
Ġgl ob
Ġcontact s
Ġsolid arity
ĠGM T
Ġincent ive
Ġcolleg es
F I
S ch
ate ur
ĠJ ake
ĠTe h
lev ant
Ġspons ored
k ill
ä ¸
Ġf iber
orn s
Ġbenef icial
Ġadjust ed
n ames
E E
t ail
ĠPr in
f old
th an
Ġatt ributes
Ġtrad em
ugg ing
ĠMem orial
osp el
ĠC a
ĠIn v
ĠÂ ·
p ublic
Ġcivil ization
Ġlength y
Ã£ o
F igure
if ting
ĠBud get
Whe ther
ĠCol omb
Ġspecial ist
Americ ans
ĠH P
ett a
Ġcoc aine
Ġemot ion
Ġtermin al
Ġwarn ings
m ons
Ġmar ry
ĠBull s
O rig
ĠH unt
ull ivan
Ġsmart phones
ĠPakistan i
N G
p se
H igh
it ated
ĠC reek
ail and
Ġap ology
Ġcred ibility
J ack
h ol
Ġphot ography
c ot
f ox
Ġp izza
ĠM ason
Ġc ort
oc ity
Ġshe er
Ġmatch ing
Ġdetermin ation
owe en
T unes
Ġrep rodu
Ġappeal ing
Q aeda
Ġw reck
pr ing
Ġcounterpart s
Ġc odes
Ġrespons ibilities
ĠBrook s
ĠB uy
ĠRob in
ue ller
Ġfl owers
au x
Ġvac ation
ĠW oman
dri ven
Ġless er
Ġsuspic ion
p op
ĠUn it
Ġclass ical
Ġsoon er
ĠSeah awks
1 20
b est
Ġhe ter
Ġres ume
Ġaffect ing
Ġgod s
angel ical
ĠEb ola
Ġind irect
Ġind ict
Ġsw ift
RE AD
Ġfirm ly
h ome
Ġconsum ed
Ġclean ing
Ġdisappoint ing
h ave
Ġint ake
Ġdetect ion
ĠVer mont
Ġbet ray
Ġfar ming
ĠDou glas
Ġ( )
ple x
Ġdi abetes
Ġavoid ing
ĠVik ings
Ġfor ums
ĠH ope
Ġ1 30
Ġrec y
Ġgener ating
Ġdub bed
ĠH um
ĠD anny
Ġteen age
Ġinter ference
ĠFriend s
d rop
Ġorig ins
Ġwilling ness
Ġcompat ible
m n
Ġan ime
ĠK le
Ġshould ers
Ġeval uation
ĠBl air
Ġcy cling
S ign
p y
te es
ĠO d
Ġte ens
Ġrh yth
ol er
Ġtrans cript
Ġcreat ivity
ĠCount ry
Ġlect ure
Ġ196 8
Ġgar age
Ġr ated
ĠBut ler
ar u
ĠR osen
ĠJ e
ĠColumb us
Ġanalys es
ĠUnivers al
Ġne at
ĠAr thur
ai ro
f our
Ġtri umph
Ġste am
Ġshif ting
ĠBron cos
Ġshe d
Ġbra ve
Ġhun ger
Ġwithdraw al
oc c
we alth
Ġcor ners
Ġconnect ing
ĠP ap
Ġsupport ive
ĠLe af
Ġbankrupt cy
= âĢĿ
P ress
Ġt rop
ĠE ss
Ġins urg
ins ula
Ġfundra ising
C S
Ġsl ip
ĠSer ver
Ġ196 7
Ġbehavi ors
ĠArgent ina
ant o
Ġmet a
Ġvis a
Ġele ph
Ġb ust
Ġf ict
ĠH ide
Ġreg ards
Ġinst ruction
Ġestabl ishing
ĠMichel le
m outh
Euro pe
Ġsp ill
Ġbus es
oub ted
Ġimp ress
Ġcontin ent
aff e
Ġwild life
ĠMil waukee
Ġlabor atory
Ġlike lihood
Ġcar riers
ĠSud an
Ġn odes
ig nt
oc aly
ĠL iving
Ġmusic ians
ĠHigh way
R ober
Ġd ash
ĠL isa
Ġnom inated
Ġcr icket
Ġdesc ript
ĠT D
ĠA B
ĠE mb
Ġunder way
ĠBr un
Ġreb ell
ĠDen mark
Ġproceed ings
r ament
ĠCh ile
Ġproblem atic
Ġnovel s
. âĢľ
Ġam end
Ġretail ers
ADVERTIS EMENT
U M
Ġcreat ors
Ġliber tarian
AC K
Ġ1 10
Ġ19 40
Ġ197 3
Ġvulner ability
re nder
ĠPh D
OS T
Ġh orses
ĠT ell
ĠTh under
Ġblack s
ĠGl enn
Ġhistor ian
Ġdiscl ose
Ġmob il
o a
Ġcomp assion
Ġ18 0
Ġthreat en
Ġsubstant ially
Ġshif ts
as i
ĠT ory
ĠG onz
U I
Ġb ite
ĠN ixon
ĠCom ics
Ġlab els
Ġshoot ings
ov ic
Ġ8 1
ĠCarl os
B ay
R T
ol o
ri el
pe lled
Ġobser ve
Russ ian
Ġhelicop ter
it is
ĠM M
ĠE V
Ġpre liminary
Ġafter wards
ĠSer ge
Ġment ally
Ġtouchdown s
H ill
ĠPh one
ĠEd wards
ĠN av
ĠQ B
Ġmount ed
Ġad mission
Ġres et
Ġ9 8
Ġoff shore
Ġcr ashed
Ġmeasure ments
Ġcorpor ation
Ġd ioxide
Ġwind s
Ġrap ed
Ġrenew ed
Ġswit ched
ĠUb untu
ac ious
ĠCl ar
cont rolled
ios ity
Ġaggress ion
Ġst ays
ĠSuper man
mar ks
p ur
ĠRe ading
g iving
as m
ĠC u
ĠR O
Ġinter cept
Ġexha ust
Ġn uts
ri en
ie val
ord able
Ġ' '
Ġ= =
ĠPr inc
resp ons
Ġconsult ant
ĠS omething
Ġmed al
Ġve to
Ġpract ically
G erman
ĠAl t
writ er
Ġresign ation
ke ys
ĠJohn ny
ĠFin ance
Ġcolon ial
ĠTurn er
t able
ul ative
Ġrec alls
Ġdesper ately
at in
Ġp ub
Ġind igenous
ĠPal in
Ġroy al
Ġstraight forward
ĠRel ations
Ġenthus iasm
ĠH ills
Ġphotograp her
ec hes
rem lin
Ġmar ine
Ġs ink
ul um
Is lam
gu ard
ĠPolit ical
u ced
Ġun anim
ne ath
Ġrev ised
writ ing
ĠF ab
ĠSp encer
ĠÂ ±
Ġspot light
ĠBook s
uls ion
Ġn it
Ġdiff er
he w
ol utions
Ġtr ace
Ġ8 4
Ġgam ers
ĠSus an
Ġportfol io
am ily
Ġr iot
Ġout fit
ian g
Ġpit cher
ĠM erc
pe ople
Ġlim iting
Ġemb assy
point s
i op
Ġm aker
Ġex agger
oot ing
A h
bor ough
ĠGl ass
Ġunf old
Ġthorough ly
Ġaltern ate
2 000
S y
c ry
Ġtw in
Ġdr illing
Ġcred ential
Ġgall ery
ignt y
ĠI l
pe red
ale y
ĠGall ery
Ġaccomp any
Ġbes ides
Ġh alt
Ġy e
Ġ] <|
Ġfilm ing
NE W
Ġb inding
ĠT ar
Ġk ernel
Ġlaugh ing
Ġt ier
ĠS W
iv ic
Ġinf amous
D ec
Ġpe pper
ĠM all
Ġinf er
Ġearthqu ake
ĠBl ues
Ġoblig ation
ion ed
ĠL uck
Ġsubject ed
Ġhear ings
Ġin appropriate
ĠB ond
qu al
ĠIs a
Ġpred omin
Ġ197 5
Ġclin ic
Ġl ake
ĠB ased
Ġse ctors
Ġexcept ional
ĠMet hod
ĠGriff in
L ink
ĠS oul
Ġad vers
Ġdecl ining
ĠBrad ley
Ġsubsc ription
Ġm erc
pp y
ĠD awn
Ġinev itably
Look ing
se lling
Ġorgan ize
ĠMar co
et ing
Ġeffect iveness
Ġsexual ity
Ġfulf ill
ĠW ATCH
ra pe
Ġdis advant
Ġsc ul
ĠSh ar
Ġmis leading
Ġrevel ation
Ġendors ed
W est
Ġair line
Ġsound ed
Ġ7 9
Ġes p
Ġgenuine ly
Ġp a
umb l
Ġe ighth
ĠJ oy
ect or
Ġlaw suits
âĢ¦ âĢĿ
ĠWall ace
Ġwid th
ĠAr n
ĠSystem s
F ig
ĠM aur
ank ed
Ġimag ined
ĠBet ween
Ind eed
ĠUr ban
ĠW R
Ġhero in
Ġmaintain s
ĠWal ter
Ġ10 1
Ġaud it
Ġoccur ring
ãĢ Ĥ
fund ed
st age
row th
osit ory
ĠL ED
amp s
Ġform ing
Pro f
h al
Ġl oving
ĠF itz
Ġint end
As ked
ĠTit le
oubted ly
ĠG reens
Ġtr ap
Ġs isters
st ore
Ġvig il
c end
Ġd ivid
ĠC SS
Ġpl ates
Ġloc ally
sc he
ĠJes se
Ġsear ches
Ġ197 8
ĠPal ace
Ġpurch asing
Ġliter ary
Ġobser vers
Ġyour s
az ed
Ġveget ables
ĠG ate
Ġfu els
f ly
ro se
Ġwh ilst
Ġdelic ious
Ġs ie
os i
ĠG ear
Ġpriv ately
ig ma
Ġexhib ition
e or
ĠShe l
Ġrel ies
Ġpow der
s ki
Ġo x
Ġd ated
ĠTh or
Ġdem on
S uch
Ġl oses
ĠM ust
Ġinter active
Ġdem ographic
ĠPro du
Ġbillion aire
ĠSub scribe
ĠBrother s
Ġhe m
ĠP un
ĠCh arg
Ġclim bing
Ġ[* ]
Ġclass room
Ġloyal ty
ĠNiger ia
ĠS ay
Ġalgorith ms
ĠYan kees
Ġl ap
ĠLiber als
Ä ģ
Ġd rought
Ġsh ore
ro ots
Ġi Tunes
ĠL ane
Ġmed ication
Ġclos ure
ĠT ill
ĠP T
art isan
Ġautonom ous
Ġout break
ĠQ aeda
Ġpar agraph
ĠBet ter
ĠPhot ograph
ĠT ry
Ġpro x
Ġed ges
Ġmod es
Ġelabor ate
Ġsher iff
t or
Ġfil med
Ġprocess ed
ĠPalest ine
Ġtrib e
B rit
D oes
Ġfin es
ĠUS S
Ġ197 2
Ġcelebr ity
Ġcelebr ating
Ġt ribute
ĠL ess
Ġret rie
Ġexpress ing
ĠGold man
ĠLt d
ĠJenn ifer
Ġde leted
ĠTh ailand
ĠAl f
min ation
Ġmid st
s ky
ĠK ind
Ġag greg
Ġkill s
Ġ197 7
Ġsan ct
V al
re ach
ĠD ennis
ĠSil icon
Ġt ub
or us
Ġd read
Ġtoler ance
Ag ain
Ġb urg
Ġsn ap
Ġtim eline
ĠTeh ran
N ET
ĠH ockey
Ġch ase
Ġsk ull
Ġth umb
th irds
ĠMcC arthy
Ġign oring
Every one
se mble
Ġins ists
ĠBr and
Ġfundament ally
cc a
let ter
Ġreason ing
Ġlock er
ĠF ame
Ġarr anged
d ays
f il
put ed
Ġbelong s
Ġtun ed
Ġhung ry
Ġd angers
ĠM ort
ĠR ico
p it
Ġc od
ĠS el
Ġfan cy
ĠSun ni
ð Ł
ah n
i ar
ĠHar rison
Ġaccommod ate
{ "
Ġp airs
Ġattack er
Ġfriends hip
Ġchart s
Ġoblig ations
Ġw ip
ur ring
ane ous
ĠSoft ware
wid th
Ġin ch
ĠY ears
Ġcost ly
Ġsuper hero
bl ack
ĠR AM
Ġblood y
Ġfrust rating
Ġperman ently
Ġvari ations
in os
Ġto ys
Ġm as
Ġun acceptable
ĠBe yond
ĠAss istant
Ġteen agers
ĠW onder
Ġunder w
ĠTit an
Ġstrict ly
Ġvend ors
W H
op ing
ast ically
Ġarri ves
Ġmort ality
h is
ĠA gr
co ins
Ġr age
ĠD M
Ġal tered
Ġad verse
Ġback lash
Ġconsider ably
Ġf art
ĠM C
Ġdeal ers
ĠCal gary
heim er
in formation
Ġc her
ĠG it
Ġle aks
Ġsp ends
Ġsche mes
Ġ196 9
Ġw ounds
Ġg rey
Ġsp ite
Ġstr ings
Ġdemonst rations
Ġspect acular
ĠTer ror
ĠD iam
ĠN A
Ġqu o
Ġtrave lling
ĠR ush
ĠG PS
hold er
ap y
Ġaccount ability
Ġ197 6
ou st
Ġris en
ĠHer o
um ns
Ġformer ly
Ġexam ination
Ġlabel ed
pt s
ĠFor um
lement ary
Ġath lete
Ġsh ipped
Ġconf using
Ġinhab it
at form
Ġp ound
Ġlist ing
ĠBern ard
c s
n esty
à ¥
Ġarch ae
ĠTrans portation
ĠD est
ent ions
ĠM aj
Ġab used
ĠCh amber
ah a
Ġgener ic
ĠJ oh
Ġ9 7
ĠUp date
ĠHall oween
Ġdiagn osis
in ate
ĠR ace
Ġac res
L ife
Ġb ind
erv ation
Ġlin ear
Ġsh y
sp ace
Ġdign ity
Ġgarb age
le m
ĠT C
ĠIn valid
ĠStud y
ING TON
Ġregul ate
Ġrank ings
E arly
ĠH BO
ubl in
uk i
ocument ed
u ity
ĠB aghd
com m
Ġrecommend ation
S emit
at hetic
ĠP ick
th ird
ĠCl ose
Ġredu ces
Ġord in
ĠP ere
Ġcons olid
Ġloc als
Ġdemonst rates
Ġterrit ories
Ġf ame
ĠS elf
op ard
ĠK am
Ġnew est
ĠTr uth
Ġgr ay
Ġtact ical
ĠOper ation
G reen
Ġover haul
Ġdisp ens
Ġli ability
Su per
T or
oc ide
ak u
ser ver
add y
ic ons
Ġint u
Ġnegoti ating
S ep
b ad
ĠR ah
.. ."
Ġmid night
ĠHom eland
Ġl ined
ĠT u
Ġcon cess
Ġun le
Ġdef ic
M et
Ġexp ose
D irect
m i
Ġlove ly
Ġp seud
ĠV i
ik ing
bs ite
Ġskept ical
l ive
ill o
rep resent
Ġh ood
ro lling
id ges
ier ra
ung le
US A
Ġaver aged
ĠGerm ans
g ener
ĠN DP
ind ex
Ġtw elve
ĠV eter
Ġreason ably
IV E
ĠC op
ret ion
Ġrest ored
Ġbrief ing
R et
S H
us hing
Ġpublic ations
clus ion
ĠEm ploy
ĠBill y
Ġre ception
Ġmet res
RE L
Ġc argo
ĠF el
ĠG ay
oth y
Ġins ure
Ġconsum e
tit le
Ġa ide
Ġcon vey
Ġle ap
ĠNe ed
Ġlack s
Ġbed room
Ġmisc onduct
M al
ĠG ener
Ġlast ing
epend ence
Ġles bian
ĠMalays ia
Ġdon ate
Ġkill ings
M obile
Ġman ages
Ġob esity
Ġpar ade
Ġcance lled
[ /
w er
Ġl uc
Ġun ited
Ġden ying
Ġchem istry
ĠS ad
Ġtra uma
Ġswe ep
act ic
Ġrel ate
uff icient
Ġembr aced
Ġpre jud
ell ar
Ġmat ched
Ġprop ri
Ġobject ives
Ġnecess ity
Ġmurd ers
al ph
ĠH ud
Ġfore sts
ĠCz ech
A ug
h ole
ag ging
ĠSh ah
cl osure
Ch ris
ĠP L
ĠH em
Ġmilit ant
Post ed
M at
ĠW ire
Ġ-- >
Ġfrank ly
w ick
Ġor che
Ġste pping
Ġspir its
ĠSur vey
ĠN PR
ĠK och
Ġqu arters
ble m
ĠCo ach
Ġsell s
ĠNex us
ĠM es
pp o
Ġplay back
ĠRes ources
ĠLeg end
Ġdomin ate
l as
le tt
Ġu seless
ĠSo on
work ing
Ġred e
Ġvol umes
Ġconfront ed
ok ia
Ġout door
ĠK ill
c ost
ack er
Ġpart isan
Ġconfident ial
Ġsovere ignty
C opyright
d eb
Ġun limited
ĠCom merce
ĠSam uel
ĠSol ar
Ġd ot
Ġse ct
ai res
Ġpref erences
Ġstimul us
rav is
ĠCub an
ĠF er
ĠÃ ł
ĠRaid ers
id o
M ac
Â £
Ġin ability
ron es
sh irt
Ġlegisl ators
Ġd ive
ig a
Ġstat ue
Ġconsist ency
Ġorganiz ers
sc ript
ĠBarb ara
h ner
v iol
Ġbusiness man
Ã© s
200 9
Ġshut down
ir k
ĠRe ed
Ġs add
Ġdetermin ing
Ġcasual ties
ĠC elt
Ġ0 1
Ġdu o
ĠM IT
ĠN umber
Ġgu ilt
olute ly
Ġevolution ary
ĠC ond
Ġ9 6
ĠVill age
D ay
g s
al so
ĠH orn
Ġfunction ing
Ġtroub led
Ġassass ination
Ġtong ue
A K
n ik
Ġinc on
ĠZ ero
pro of
Ġsurve ys
Ġinc umb
Ġgr at
Ġdoub ts
Ġrevel ations
Ġbureau crat
b one
on ge
ĠA ld
ab a
mun ition
ĠEvent ually
st r
ill ery
Ġart ic
ham mad
Ġext ends
Ġdeter ior
Ġbe aring
ĠB P
Ġinc oming
Ġpresident s
ĠElect ric
ĠSt ra
Ġspe lls
Ġgl ory
Ġsol ved
Ġpret end
aug hed
ĠPhill ips
Ġlineback er
S er
d ale
ĠI v
Ġspe eches
Ġhold ers
H ouse
ic ers
om atic
Ġout lined
Ġviol ating
Ġdiscl osed
W rit
f ix
g el
ch air
iss a
Ġcor rid
ĠBre itbart
ĠM ueller
ft en
Ġfin als
Ġglass es
ĠBenn ett
deg ree
Ġv ib
Ġart work
Ġt ube
ch a
be an
Ġdr ill
uff y
d el
l en
m ain
he tt
âĢĿ âĢĶ
ĠAl ice
Ġmarket place
Ġm ph
Ġsign atures
Ġhon our
ab ad
run ner
ĠBang l
Ġutter ly
ĠL LC
ck er
Ġunder neath
Ġ ),
os ures
Ġart if
ming ham
Ġdefin ing
Ġhor iz
Ġsymbol s
us k
Ġattack ers
Ġname ly
ĠAC L
Ġfacilit ate
M ike
Ġp y
Ġm ature
ex p
Ġexhib it
he lp
Ġgovern ance
ĠP ok
Ġbl own
Ġac ute
ĠA my
light s
Ġprem iere
Ġves sel
rane an
ĠL G
ĠPant hers
Ġh ind
ĠD od
Ġ9 3
k h
ĠM ong
Ġca res
Ġment ions
Ġaccident ally
oca ust
Ġn od
Ġsur pass
ĠPlan et
Ġpublisher s
L Y
V ID
Ġd ancing
ĠM urd
IT Y
Ġint ens
ĠSch olar
Ġsteal ing
ĠMove ment
Ġp ipe
ĠC her
ĠR C
ĠOb viously
Ġcatch ing
Ġa ston
ade qu
ri pp
ock er
ĠPr int
Ġrefere n
l ie
rib ly
Add ed
Ġnav igate
supp orted
Ñ ĥ
Ġ8 3
atic an
Ġfresh man
Ġout let
Ġ8 7
cl osed
br aska
ĠNever theless
Ð º
Ġl aughed
Ġr am
ID S
Ġb out
omet own
Ġinter section
Ġp add
ir i
Ġab ortions
Ġvict ories
Ġprotect ive
ĠRich mond
Ġarrange ments
Ġreb uild
s k
ut ing
ant ing
Ġinv isible
Ġ8 6
Ġaut ism
Ġassault ed
Ġqual ities
esc ope
Ġl ighter
ĠB obby
Ġnew er
Ġfl ows
Ġspec ify
ĠTo o
Ġassoci ations
H C
Ø §
Ġp orts
ĠN ancy
ĠSe ven
Ġp ockets
ĠGl obe
Ġconvinc ing
Ġpr ay
Ġlic enses
ĠN in
Ġcl arity
Ġlist ened
ĠDown load
om i
ĠM VP
ĠF oster
Ġtroub les
se arch
pl ess
ocrat s
head ed
Ġvill ain
Ġsubscrib ing
form ing
ĠLe v
ĠSw ift
Ġswe eping
Ġautom ated
Ġdefend ants
m ile
Ġshort age
Ġinject ion
d isc
Ġen roll
ĠNob ody
Ġexclud ed
S l
Ġde lete
ĠR oth
Ġanaly zed
Ġb inary
Ġre lying
ĠG P
Ġrel ied
ss on
acc ur
ĠH at
Ġp ars
Ġp ale
ĠP as
Ġend e
Ġw are
Ġg ard
ĠW rest
port ion
Ġtransl ate
Ġencry ption
ĠF ast
ĠSt op
uten ant
p rom
s im
Ġp ause
Ġv on
Ġcan cel
Ġqu ery
Ġlegit im
Ġb ikes
Ġexplo itation
Ġmos que
g ro
Ġb atch
al in
Ġbe ll
Ġsuccess or
ĠSim ilarly
ĠDef ence
Ġsport ing
Ġcous in
ed e
Ġcont race
ĠArab ic
ĠML B
Art icle
A uthor
Ġp uck
ĠJ av
App le
Ġfort un
r one
s is
Ġback ers
Ġanonym ity
ic he
Ġen abling
ĠIm perial
ĠCast le
Ġtr icks
Ġren ov
Ġbip artisan
L D
Ġdisc on
Ġm ate
Ġst raw
Ġbreak through
Ġemp ower
Ġpro c
Ġam munition
Ġmem orial
Ġswitch ing
Ġfinan cially
Ġf ond
Ġhe al
Ġrent al
orient ed
Ġse iz
ist ically
Ġab oard
Ġco at
Ġcred ible
Ġ197 4
ĠGirl s
ĠW inn
Ġent ries
Ġter rain
ĠSh aw
Ġdefin itive
an ium
ĠI b
ĠK remlin
ĠRec ord
ĠBrown s
Ġtack les
Ġto oth
ĠC row
ĠW ii
ĠN HS
Ġfin ale
Ġsal aries
ĠGar cia
P ut
Ġl ately
Ġme g
Ġind ef
ĠWork ers
Ġgrocer y
ĠP red
ap or
Ġdisc ourse
Ġachie ving
ĠRepresent atives
Ġassemb led
ent in
ĠC ape
ri ages
Ġprev ention
M I
Ġmist aken
C le
Ġp iv
Ġp up
Ġn ort
ĠJ ar
Ġ9 2
Ġrub ber
ĠBry ant
ĠRodrig uez
ĠC our
ĠE RA
Ġdis k
lic ation
Ġtax i
re amed
ĠE rd
!! !
ĠBry an
az ines
ĠSh ield
dis play
S and
ĠC ou
ĠCol in
C ity
H D
M er
W A
u art
ĠT ib
Ġwas h
Ġsomet ime
ed ge
Ġpre season
Ġca ut
ĠFr an
Ġdiv isions
Ġboot s
Ġpredec essor
ASH INGTON
n ational
ĠS i
ian ces
ĠEl sa
D ep
Ġr ings
ĠD olphins
Ġdis ability
Ġ0 2
ĠConf eder
c urrent
t alk
Ġun ch
Ġelect ro
Ġident ities
Ġ197 1
Ġre ct
Ġju ice
Ġvolunt ary
ĠTig ers
ĠAgree ment
Ġ9 11
Ġdiss ent
ĠAut o
mont on
Ġstro ke
ĠH TC
ĠD ublin
ĠF ac
ĠG as
Ġsocial ism
Ġaffili ate
Ġarbit rary
Ġtheoret ical
ith ub
ter ior
Ġprov in
ott om
Ġphilosoph ical
ĠContin ued
ĠT her
Ġexpect ation
ĠBe er
A ng
j ar
Ġm all
irt ual
Ġfel ony
Ġglob ally
Ġp sy
ĠAnt ar
Ġover time
ĠSh adow
Ġbo oth
Ġtour ism
Ġcool ing
econom ic
in is
Ġinter medi
ĠSh i
Ġcommit ting
Ġprem ier
Ġhel met
R ob
man uel
Ġstre ams
Ġbas eline
Ġcoast al
ĠTO DAY
Ġrender ing
m ill
Ġqu ad
Ġmon ument
ĠAtt ack
Ġsubscrib ers
Ġbarrel s
M em
z i
Ġse am
200 8
cont rol
ĠJo ined
Ġelectron ics
an te
or ity
ĠS F
ag ged
Ġdon or
Ġins ights
ĠPro bably
IM E
Ġmal ware
Ġrecip es
Ġendorse ment
Ġ à¤
Ġf oul
ĠR ing
Ġfact ories
Ġtour ist
Ġtrib es
ĠD R
Ġtem pt
Ġphys ician
ĠSoc cer
Ġbre ed
Ġfire arm
ĠCard inals
Ġcontract ors
W ashington
Ġp etro
ĠN ep
Ġal iens
ĠRe form
Ġref usal
Ġdesc end
ĠPal mer
Ġroll s
h um
ĠB elt
Ġopp ression
Ġ9 4
Ġexerc ises
Ġfort une
Ġmob ility
Ġhyd rogen
ĠB iden
Ġcharacter ized
P ublic
U K
m el
Ġn erve
Ġ3 50
S ur
iction ary
l ocal
Ġre iter
ne apolis
raw l
Ġ14 0
ĠWhe el
ĠM ack
ĠE c
ĠNe ither
Ġbi ology
Ġund oubtedly
Ġsens itivity
lick r
z illa
Ġair pl
Ġportray ed
Ġs lic
ĠC li
Ġup side
ang o
Ġacc using
ĠNew ton
Ġ8 9
Ġbattle field
Ġsear ched
umbl r
Ġst er
ĠJ obs
Ġext ending
Ġpos es
Ġpron ounced
Ġpuzz le
const itutional
Ġnation ally
terror ism
ĠBaghd ad
Ġl iv
ĠA qu
ĠH alf
Ġsur plus
Ġhand y
ĠSe lect
E v
b uild
Ġc ure
Ġblog s
M C
Ġd ense
ul ator
Ġj ack
Ġdistingu ish
Ġjurisd iction
W ind
com mon
Ġfam ously
Ġread ily
ĠAl tern
Ġgrad uated
Ġvac uum
ĠB uild
Ġover r
Ġpat ience
ĠCol on
A c
ĠA LL
Ġsu ited
all ow
eng u
Ġnight mare
Ġscript s
Ġstar ring
Ġa qu
Ġover see
Ġcred ited
Ġsepar ately
Ġapolog ize
ĠV P
Ġbroad c
Ġfit ting
at ers
ar cer
ĠP ast
Ġbo ats
Ġattract ion
Ġa ides
ĠM ans
Ġfl ower
Ġreview ing
ĠReg ional
ĠJess ica
ĠEdd ie
' '
ĠS A
ĠJ uan
Ġsub mission
Ġanaly ze
er ting
at isf
S an
y ang
ĠB ishop
Ġne ural
Ġrun ner
Ġsum mar
Ch ar
ĠWork ing
Ġspons ors
________________ ________________
T ur
in ho
es pecially
ĠL l
Ġintention ally
Ġscul pt
ph p
Ġdep ri
Ġrisk y
ĠIce land
ĠLaur a
l arg
Ġst ark
Ġim pe
Ġret ro
Ġdefend ant
Ġrecon c
ĠChron icle
U ntil
Ġf isher
Ġregul ated
ĠPet erson
Ġworry ing
it utes
ĠM ul
ol an
Ġinf lic
sh ow
Ġachieve ments
a a
so ever
Ġcomple ting
there um
Ġgal axy
Ġtable ts
Ġnot orious
ĠJ ong
Ġprov es
B ased
Ġw it
Ġc yn
ĠR achel
as ures
Ġne o
ĠG and
Ġman eu
IT H
Ġo d
Ġv owed
Ġal beit
ĠE ither
Ġwor ries
Ġstr anger
ell a
Ġcloud s
aus ible
Ġves sels
i ological
Ġc ups
Ġe leg
ĠL uther
alth ough
Ġgen ius
serv ice
ĠEngine ering
Ġg i
Ġmeas uring
Ġc ute
ĠD ise
pro v
ĠMach ine
ĠC hen
Ġun success
ens on
Ġpre y
Ġval ued
Ġcy cles
Ġneutral ity
Ġtoile t
A FP
Ġa ster
ĠH R
ĠIn side
we b
Ġmod ules
ĠOr thodox
irl ines
Ġexpress ions
ĠWell s
Fr ank
ĠRet urn
Ġmole cules
c ill
at ched
Ġelev ated
Ġprovin ces
un ique
Ġunc overed
ĠAgr icult
p ound
Ġm elt
Ġn urse
ĠB uzz
un ks
ok o
Ġbl end
Ġimpl ies
Ġtourn aments
ĠPolit ics
ĠBir mingham
b uilding
s cience
w rite
rit ical
ĠBe ast
umb ai
Un like
ĠBase ball
Ġle thal
ĠV iol
ĠV atican
ful ness
Ġhard est
Ġtre asure
Ġbroad ly
N ational
Ġfac ial
ĠAngel a
âĶ Ģ
ĠR at
op ular
un s
ine z
ĠHe y
ĠWh atever
Ġarch ive
Ġvary ing
r ams
Â ©
ĠL an
Ġyoung est
ĠPr im
Ġdynam ics
Ġpreced ent
A f
Ġha ul
ĠF ile
ĠJ oint
Ġinter im
ĠHispan ic
rament o
Ġcredential s
l ast
Ġinsp ire
ĠInvest ig
S O
om ers
Ġsoc ially
Ph ot
agon ist
G R
Ġg au
ĠSt ring
Ġdef ines
Ġsum mon
Ġinterpre ted
ash i
Ġvar ied
Ġfavor able
ĠDou ble
ĠLad en
e very
ĠH E
ĠÂ °
ĠB R
ĠK ate
Ġspons or
ĠS L
ĠC ell
ĠC BC
Ġrel ent
Ġpred iction
Ġastron aut
Rem ember
Ġadap ted
an ne
ĠS O
ab el
ĠK os
Ġsp at
ĠDe al
ĠS ri
ĠA x
ain ted
Ġhor izon
Pl ay
Ġtact ic
Ġpro ving
Ġover th
anc ies
Ġadminist rators
Ġse min
ĠCh and
Ġprof itable
Ġinflu ences
Ġbrew ery
ĠMu hammad
Ġtheat ers
Ġsubst itute
Ġconsult ing
Can ada
ĠQ atar
Ġcorrel ation
Ġd rown
im ated
Ġpers istent
ĠIndian apolis
Ġl iver
ĠS earch
ore n
ĠF ight
Ġpers ist
ĠSur v
ĠCitiz ens
ur u
ul ates
Ġmake up
Ġcontract or
Ġmemor able
ĠAlp ha
ĠNash ville
Ġth ri
ling ton
Ġnav al
Ġstead ily
B ron
F ixed
Ġl as
Ġcontribut or
ĠPet e
ĠM ember
ide os
Ġres ur
Ġprof iles
ĠDun can
B L
G reat
Ġar ise
ĠZ one
ak y
ov o
Ġsan ction
ĠJul ian
? !
ĠF ly
g reen
Ġor al
vel t
sy stem
AR D
U E
p rodu
Ġout look
Ġwhat soever
Ġimport s
ĠNob el
ĠB ak
Ġad oles
Ġmag azines
Ġdecl aring
Ġgrand father
Ġkick ing
Ġstick ing
Ġquant ity
L aw
ĠD ue
Ġve t
Ġvirt ue
Ġdisappoint ment
ĠW ing
Ġse aled
Ġbr ick
OM E
B ill
T im
am y
te am
ĠG rey
Ġal umin
Ġteam mate
ĠAust ria
Ġmis under
ĠClass ic
Ġbe ans
am ation
Ġpr ayers
Ġsecret ly
Ġbes ide
Ġobst acles
Ġcol umns
Ġevent ual
Ġsatisf action
ĠSp urs
Ġbud gets
Ġdism ant
b b
Ġpl ag
Ġanal og
Ġplug in
Ġtransf ers
ĠG ive
ĠTra vel
Ġ ðŁ
Ġb io
ĠTr aining
rote ct
Ġ196 4
EC T
Ġiniti ated
Ġbul lets
Ġantib iot
am o
Ġpro xy
ĠR ud
res pect
by e
Ġreluct ant
ess age
Ġour s
Ġcost ume
ĠPict ures
T ex
ĠB order
Ġcl ause
ĠMar cus
Ġdeb ris
Ġcigare ttes
Ġ ^
M arch
pt ive
Ġinj ust
Ã© mon
ĠAcc ount
child ren
Ġthro at
im port
ĠK el
Ġun aware
Ġ196 5
Ġrecru ited
Ġflaw ed
Ġcomp ounds
Ġcomm em
ug ar
Ġtext ure
Ġemot ionally
Ġpharm aceutical
Ġhed ge
J apan
Ġa pt
ĠN okia
ĠY e
ĠJ a
ass es
Ġviol ate
Ġaim ing
Ġprem ise
Ġtrick y
Ġan k
ĠM itch
Ġsh apes
Ġref und
ĠK ath
Ġorgan ised
ĠAll ah
ĠEd ge
ĠMot ors
n ut
ĠP in
Ġlay ing
cast le
Ġur gent
ĠStud ent
ĠP oly
ĠL ost
off icial
sp oken
f ar
ĠC T
ul ent
us ions
th ree
Ġun lock
Ġpo le
ĠLight ning
Ġhe ated
Ġcur ric
Ġ9 1
A v
Ġm im
ĠI BM
ĠR ic
pr ises
Ġcommit ments
ateg ory
ĠRo ose
Ġsynd rome
Ġatt ribute
velop ment
Ġmer it
ĠS ierra
ĠM ode
Ġmed itation
pri v
ment ioned
Ġart istic
Ġsk ip
Ġoffer ings
Ġoption al
Ġentertain ing
Ġtradem ark
Ġtr ump
Ġun bel
Ġswe pt
M D
.âĢĻ âĢĿ
Up dated
II I
Ġâĸ Ī
st ick
Ġst icks
ĠW alt
ĠH ait
Ġad min
Ġpresent ing
Ġopt ed
Americ a
Ġfict ional
G old
ĠW ade
Ġmin im
ĠUS D
Ġreject ion
Ġkilomet ers
W ASHINGTON
Ġcont ing
Ġinc arcer
Ġmet ric
ĠIsrael is
ĠJam ie
Ġw ard
uff ed
ĠQu inn
Ġble w
Ġneighbour hood
ibl ical
Ġuncons cious
he astern
er als
app ro
Ġhol idays
Ġretain ed
or able
Ġover head
Ġins ert
Ġc ra
ĠM i
ĠPro test
ĠMoh ammed
Ġo un
ĠP owell
ell ing
ĠAl most
Ġinfect ions
uster ity
Ġremem bers
P erson
Ġh ref
se en
Ġlink ing
Ġtouch ing
Ġdu pl
Ke ep
com pass
ĠAl ong
Ġban ner
ĠNe braska
roph ic
Ġfru its
he nd
ĠM B
Ġsupp lied
uc le
Ġhyd ro
c amp
Ġ( -
Ġapp et
ĠCh ase
Ġload ing
ĠHug hes
ĠC ris
Ġmed i
Ġdiv ine
asc us
ĠFin land
Ġ\ (
Ġn ost
ul u
pt ic
ĠCl ay
bl og
ĠEm peror
Ġfix es
U P
Ġo st
Ġc u
le ased
ah o
Ġred ist
Ġmal icious
Ġextrem ist
d ie
ĠF ish
Ġinv itation
Ġdesign ing
Ġpitch ing
Ġshar ply
k now
est a
ĠF ixed
leg al
Ġelimin ating
Ġdim ensions
Ġrecre ational
P H
Ġcons cience
Ġmod ify
Ġris es
t w
ĠOb ject
ĠW a
ĠE le
Ġnons ense
B uild
Ġin adequ
ur ry
Ġinv alid
Ġtroub ling
ĠA irlines
Ġev olve
ĠAn imal
Ġcontain ers
ĠWeek ly
Ġconfront ation
Ġflaw s
ĠB ody
ul k
fl u
Ġgrand mother
Ġqual ifying
Ġassess ed
Ġconven ience
Ġenact ed
U G
un ge
ick ets
Ġdownload ed
B it
Ġb ored
ĠS ens
Ġbelong ing
g rav
Ġconstrain ts
ã Ĥ
ĠL ic
Ġhas h
Ġint act
Ġchar ter
Ġturn out
ĠAff ordable
Ġg aps
Ġpr isons
In tern
ĠMin neapolis
Ġsurv iving
REL ATED
Ġj acket
Ġcommun ist
L ater
ĠP ath
ĠD ays
ĠEd monton
ilit ary
ĠChance llor
ĠC ox
Ġtrack ed
Ġflood ing
ĠHur ricane
v ial
ĠP il
ced es
Ġn asty
ie ce
ast rous
Ġint imate
Ġinc omes
Ġdisc ont
Ġdeli vers
ĠVal ue
do ing
Ġremind s
ĠS ach
Ġab uses
Ġpress ures
ĠCol lect
IG HT
Ġignor ance
C are
ĠC abinet
V R
f eed
re ated
ĠAr c
Ġsk i
Ġban ning
Ġcat tle
ĠMem bers
ĠReds kins
Ġk icks
ĠIn iti
Ġcrowd ed
ĠT arget
if iable
ant i
ĠSt rong
ob i
Ġbr ush
ĠBroad way
Ġc ab
us cript
oun cing
Ġintern ationally
ĠMS NBC
Ġcl ashes
t ake
ĠB ear
Ġund ere
Ġdispro portion
k g
or um
te lling
Ġsa ves
per ty
ĠHond a
ĠAth let
Â ®
am bers
us hed
Ġ16 0
Ġh ometown
Ġpack aging
Ġrob bery
Be ing
Ġboss es
ĠAle ppo
Ġhaz ard
Ġat e
ĠD rew
qu ire
Ġfree ze
ĠSp ot
Ġmus cles
OR T
Over all
Ġmac ro
ernand ez
D am
c ity
Ġsur render
ĠNorm an
ĠG ot
Ġun cle
Ġcur rencies
ĠBre ak
ĠMont ana
Ġsatell ites
c ulation
ĠB ird
ĠO wn
ĠK er
Ġacc idents
Ġeconom ically
B ER
ĠB annon
Ġcoll ision
ĠEff ect
Ġvit amin
C ong
v as
ew ay
Ġfr ames
Ġproject ions
ĠChe m
Ġimpl icit
Ġrend ered
Ġepid emic
Ġhoriz ont
h ots
Ġrest art
Ġt ire
on ies
if iers
A pril
Ġsub way
Ġmart ial
Ġb ans
ĠA verage
ch ief
igh te
Ġsh ark
Ġfe as
ĠSh op
Ġmass acre
ĠEn em
ĠCle an
ed uc
Ġunder go
gr at
IN E
worth y
zb ollah
v or
Ġc ord
ir med
Ġb ay
Ġf oster
ic ides
et ition
Ġr abb
Ġpl as
Ġj am
Ġen velop
Ġrecord ings
Ġtrad es
ĠIS BN
With out
li ers
Ġpublic ity
Ġrece ivers
Ġnetwork ing
Ġst ones
Ġint ends
Ġjust ification
ĠChief s
ĠPortug al
ĠK az
ĠPresident ial
Ġtravel s
ĠSpr ings
Ġthr illed
om o
ans hip
ĠCh apter
vent ions
Ġprison er
Ġnice ly
Ġirre levant
F eb
l iter
Ġh ilar
ort ing
Ġpract icing
Ġconcent rations
Ġentreprene ur
N AS
Ġb er
Ġh ated
et a
ĠA G
ust ain
Ġcrit ically
Ġw rist
ĠI Q
Ġper ce
Ġshe ets
Ġdomin ance
Ġembarrass ing
Ġham mer
ĠS ullivan
ur as
ĠP ubl
ĠF inn
ĠRe ally
augh s
sp ons
ĠHol ocaust
ĠRoose velt
s ocial
Ġm aj
10 1
C ount
ĠE arlier
ĠCl in
Ġnon etheless
Ġsequ ences
Ġfather s
Con f
Ġcommission ed
Ġsettle ments
Ġmanip ulation
ĠSac ramento
C r
c lick
ç ļ
pl ant
ĠZ immer
Ġcal ories
Ġprec ision
Ġir rit
fr ame
are z
Ġdes ires
ĠPro s
Ġequ ation
Ġdest ructive
Ġfemin ism
Ġnav igation
Ġreven ge
U lt
i per
um bers
Ġam ateur
Ġpur ple
Ġcampaign ing
Ġinfl amm
Ġcrew s
ĠEnter prise
ĠBoe ing
it ial
min ster
ĠAn aly
Ġbeh ave
Ġvar iant
Ġjo ins
Ġg re
am as
Ġha un
the m
Ġcrit ique
Ġm ant
ĠC and
Ġshe ep
ĠPal m
F ox
n ia
ĠAr med
Ġnational ist
ĠQueens land
Â »
ĠC ant
ĠH erald
ĠN ag
Ġcompl aining
c m
v ised
ĠF err
ĠL ang
Ġover ly
Ġgl imp
ĠCol ts
Ġconcent rated
Ġupgr ades
ĠPD F
Ġannoy ing
Ġglimp se
Ġte aches
Ġg ly
Ġdis gr
Ġdist ribute
ĠFl ight
Ġhack ed
ĠPack ers
Ġcance led
Cal if
P oint
f ull
ĠR PG
Ġlegal ization
Sc ott
Ġmulti player
ĠErd ogan
E r
M icrosoft
d ro
Ġg reed
ĠCr iminal
Ġcens orship
Ġexam ining
çļ Ħ
p ay
ĠM ine
Ġmor ality
ĠHer itage
ĠStud ents
Ġinfring e
J eff
N O
V A
ous ands
Ġgas oline
Ob viously
ed In
ĠY u
Ġcent res
ĠTra ff
ĠSat an
K ing
ĠS pect
ch ant
ond e
Ġsince re
Ġlight ning
ĠInc re
Ġneighb oring
u cc
Ġgu ided
ĠCom puter
B uy
p her
ie ve
Ġder iv
Ġtow ers
Ġextrem ists
y our
ĠSand y
Down load
ĠS old
Ġr ides
ĠCo ff
Ġlaun ches
Ġencoun ters
ĠGT X
O pen
ĠM umbai
Ġmathem atical
Ġclar ify
Ġprosper ity
b ot
Ġsc al
Ġtw itter
Ġcur s
Ġfar mer
Ġland l
Ġbase ment
col m
Ġcomprom ised
Ġcontrad ict
Ġhomosexual ity
Ġbe ats
ig m
own er
gg le
Ġche ss
ertain ly
ĠDam ascus
ĠEp isode
L ong
Ġsol ving
ĠC opyright
ĠP ad
Ġwho ever
Ġcorrespond ent
r aged
Ġo ven
ĠFire fox
Ġbicy cle
Ġin k
ĠT ravis
Ġcomple ment
ĠInd ex
Ġprom in
bl ank
ĠFour th
Ġanch or
G S
Ù Ħ
Ġthe or
ĠC ool
ĠD ian
ĠL ot
Ġch im
Ġball ots
iter ranean
Ġd ug
ĠC ab
Ġquestion able
RE E
Ġres id
Ġhot els
ul ously
ĠL em
Ġcat ches
ĠJo el
Ġview er
ĠÂ »
Ġlif ting
m os
ĠS witch
clus ive
Ġmeasure ment
Ġauthent ic
ĠBangl adesh
ĠC urrently
ĠK or
Ġexpl oded
Ġrandom ly
anche z
S il
f a
ĠP ink
int age
|> âĢľ
cul us
ĠDiam ond
M E
pe ction
less ness
ĠIm agine
Hist ory
s qu
Ġh urd
ific ant
RE V
ĠDr ag
Ġan throp
Ġoff enders
Ġdef enses
Ġparam eter
Ġterr ifying
Ġtri o
Ġprop ose
Ġaccount ed
Ġ196 3
Ġsovere ign
L ear
rit ies
Ġlack ed
Ġtu ition
p os
ĠR aw
Ġdis astrous
co very
Ġfav ored
ĠD ynam
us c
Ġconclud es
ĠWood s
Ġnin th
Ġadj acent
Ġse al
Ġple asant
Ġpurs ued
Ġhe y
Ġpro long
ĠD A
Ġind ivid
Ġintegr ate
ĠCub s
ed i
oot s
em et
Ġcolumn ist
Ġtoug her
Ġin accur
Ġr ugby
Ġen v
Ġback wards
ĠPro cess
ĠOver all
rik es
K K
P ac
w ould
en z
ur ious
Ġden ies
Ã¼ r
Ġsp oil
Ġref uses
Ġpict ured
ĠSn ap
m em
ĠB ald
Ġor b
Ġcro re
ĠT ogether
Ġdisc retion
ĠMus k
Ġdeliber ate
ri ans
ĠG round
Ġun constitutional
Ġco pper
Ġshow er
Ġland mark
OS E
Ġcook ies
igg s
Ġbuff er
k ens
Ġd war
im eter
Ġref res
Ġprev ents
ĠBar n
ipe g
ĠJ ared
Ġsc attered
Ġany time
Ġkn ees
Ġpass ive
Ġgen ome
Ġforeign ers
ĠTib et
ag ain
Ġun int
acher s
Ġproceed s
Ġcl ash
Ġpot ent
Ġsle e
Ġfif ty
ĠTra il
ĠChall enge
Ġch ron
ip se
Ġcle aring
Ġunw illing
ĠBrother hood
Ġhead er
Ġsubst ances
Sm ith
ĠTele graph
ĠT ru
ĠD I
Ġcontin ually
Ġpun ished
Ġinstall ing
g om
h ou
l isted
Ġb ats
AS T
Ġ196 6
Ġcalcul ate
os l
Ġactiv ation
Ġamb ul
Ġintrig uing
o ven
iz ers
Ġins pection
ĠBre nd
Ġsatisf y
Ġsup reme
M uch
Ġsc are
Ġincorpor ated
Ġp el
ig ue
we ather
ĠAss ange
Ġstar ters
Ġh ike
ĠC OM
ĠOb serv
ĠAb raham
p df
ĠMat ter
ĠLeg al
p ired
Ġr ivers
ĠAn a
Ġconst itute
Ġmind set
Ġfix ing
inf o
Ġrevers ed
F T
Ġa irst
ĠA round
ĠR af
amp ed
Ġdep ict
Ġhor rific
Ġrow s
ol ics
Ġdis gu
Ġcompar isons
ĠBoy s
m ax
ab bit
ĠN athan
Ġpack s
Ġorg ans
ĠY ug
Ġpass port
Ġstat ute
Ġpit ches
Ġsubur ban
Ġaccord ance
ĠA bs
gh ai
ĠK an
Ġstud ios
Ġent ers
Ġve ctor
for cing
E nd
b ucks
Ġst iff
if ully
em ale
ĠCom ic
Ġrelig ions
Ġaggress ively
_ {
ment ation
Ġsu ite
Ass ad
> ,
Ġe rect
ĠR acing
Ġby tes
Ġman uscript
Ġexpl ored
ĠEv an
Ġsymb olic
ĠGib son
Ġcommod ity
ĠC av
g eneration
it ted
ĠT ree
ĠN ine
gh azi
ĠK ash
ange red
Ġ12 5
ĠMc D
Ġhyp oc
ĠAh med
F ile
es ville
il ia
ĠB aby
Ġcome back
Ġconv ictions
eal ous
ĠForm ula
E vent
j e
Ġbox ing
Ġcryptoc urrency
. ).
ĠH ig
Ġle ase
Ġinc om
Ġtrans mit
Ġgl ance
sh aped
Ġpriv at
ĠOccup y
Ġd awn
Ġind ie
Ġnorm s
Ġboy cott
Ġpit ched
Ġemphas ized
ĠLoad ing
Ġwhe at
ens en
ne x
Ġswe at
Ġflags hip
ĠHung ary
Aust ral
le ague
Ġhe ating
ĠEurope ans
ĠMed iterranean
Ġgest ure
S ports
c all
ĠB ills
Ġcomp act
ĠCan cer
Ġmess aging
ĠAdd ed
Ġsubur bs
ĠNaz is
imens ional
E mail
H ello
r ising
on al
our ge
Ġdr ain
ophob ia
O kay
g reat
p resident
Ġh ipp
Ġwh oles
ĠSt uart
Ġconf erences
Ġschol ar
ĠPot ter
t ax
Ġs ab
ĠCh ip
Ġhel m
he ll
Ġcomp iler
cific ally
H el
Ġmed ieval
Ġreal ised
Ġtal ents
OR K
Ġmanufact ured
ĠLim ited
D et
Ġt ender
Ġcor ps
Ġaff irm
Ġsimpl er
Ġscholars hip
Ġneur ons
Ġch airs
Ġman ually
ere k
Ġadvis ers
Ġancest ors
Ġindict ment
Ġc ache
00 1
Ġreb ounds
Ġmix ing
Ġdecent ral
Ġd airy
ud ed
Ġdef ect
ĠCom cast
Ġprofess ors
ĠOther wise
Ġassign ment
ĠA ven
Ġcon tempt
and ing
op ic
Ġby pass
Ġlit igation
ĠComm ander
sec ution
Ġport rait
Ġdisp utes
ĠÎ ¼
âĢĶâĢĶâĢĶâĢĶ âĢĶâĢĶâĢĶâĢĶ
y on
ĠC P
ĠW ang
ĠF an
Ġcommit tees
Ġdig it
AM E
ĠÐ ½
Pl us
ing le
ident ified
Ġev angelical
omet er
Ġstri pped
ĠMon ster
izz ard
ĠFI FA
u ber
Ð ¼
B R
} ,
Ġm ush
ac cess
Ġbl oc
min ent
play ing
Ġvo iced
G en
Ġst akes
ĠE S
Ġpres erved
Ġreal ise
ĠDem ocracy
ĠClar ke
T able
r us
Ġp estic
ĠD ra
Ġinvestig ative
ĠCommon wealth
l ay
it ations
um my
ĠV oice
Ġcritic ised
ĠMarg aret
Ñ ĭ
Ġfor k
ĠCh an
Ġdist ress
Ġgrad uates
Ġaer ial
p ol
Ġst ole
ol ver
Ġorder ing
T er
u its
Ġcur b
Ġsl ice
emet ery
U se
ĠC art
Ġde ar
ĠK ay
Ġremain der
Ġefficient ly
B E
u v
ĠS ave
Ġro oted
ĠCom b
Ġ0 8
Ġthreat ens
Ġdistinct ive
Rober t
D I
as a
Ġup hold
ĠAny one
ĠSteven s
ĠToy ota
R eal
Hill ary
ĠV ersion
Ġmin ers
Ġfact ions
Ġcop e
ĠLabor atory
Ġcon grat
Ġr ats
ĠD aw
ĠMil an
ĠLat ino
ĠMatthew s
J une
ĠR ust
os ity
ost ic
Ġra ids
Ġneg lig
Ġencour ages
Ġdress ing
F ire
d b
Ġa ug
âĢĿ :
ĠZ ach
lin ing
Ġbackground s
ĠSqu ad
ĠLu is
H ub
Ġ19 45
s pring
Ġrest rain
Ġspecial ized
ES S
Ġfurn iture
um atic
Ġdep icted
Ġactiv ated
Ġload s
ĠPok Ã©mon
ĠC ulture
ĠM icro
ah an
ĠMc N
ĠEv il
Ġcigare tte
ĠR uth
Ġte lev
Ġdis hes
Ġinf inite
Ġimm unity
Ġdrag ged
ĠColomb ia
] )
Ġc age
ĠC airo
Ġnot ified
Ġcompan ion
Ġprior it
Ġpark ed
Ġaffili ated
Ġinvent ory
d esc
Ġch unk
Ġsc roll
Ġsub t
Ġcr ashes
Ġpat ches
Ġp ad
Ġl ips
Ġen vision
Ġinstruct ed
ĠArn old
ĠL ives
Ġbl unt
Ġfl ies
RE S
am mar
Ġsh outing
Ste ve
ĠNY C
Ġencry pted
charg ed
Ġ icons
Ġn aming
k n
ĠM I
ĠG raph
ĠL akers
Ġgot ta
ograp her
undred s
ĠSum mit
Ġmo ist
ĠAdv anced
ĠC amb
Ġgr im
ĠMag n
Ġamb ig
++ ++
Ġdiscon nect
3 50
f alse
p x
ĠR ivers
Ġfin ances
Ġhom icide
ig s
ĠH S
ĠTh ai
ĠUn ity
Ġbehavior al
Ġru in
ĠPict ure
o ir
Ġem pir
Ġcry stal
ĠDan ish
Ġrecruit ment
p ose
ĠC I
ia z
Ġun law
ĠHe zbollah
Ġpar a
Ġpar as
Ġappreci ation
ĠLook ing
b oth
Ġm old
ĠC urrent
Ġmathem atics
R ad
ĠM ull
ĠH im
Ġ( +
Ġle ver
Ġres il
Ġapplic able
ro d
ver ted
ĠH az
Ġ( Â£
ĠBen ghazi
Ġsurvey ed
r ise
Ġg orge
Ġforth coming
ĠFred er
Ġl ied
Ġab rupt
Ġtr im
Ã¡ n
Ġadvis ory
ĠCry stal
b ank
s omething
ĠP H
ĠL ower
Ġtransport ed
Ġflow ing
id ity
ad ian
Sh ort
Ġhabit at
T w
ĠM ons
ĠU ser
Ġ0 3
Ġactiv ism
ĠGr an
Ġapart ments
Ġcrack down
Ġflee ing
gom ery
ball s
IC K
ĠUp on
Ġstrength s
G N
s un
ic ates
est e
Ġal erts
mer cial
ĠMer cedes
F OR
M o
Ġl azy
ĠC it
Ġcou pled
Ġcalcul ations
Ġflo at
ĠCost a
ĠA ub
ce ans
Ġop io
ĠBr ig
Ġbull ying
ĠF ighter
ĠPer formance
Ġcontribut ors
Ġpredict able
Ġbatt ling
Ġconce aled
ĠImm igration
Ġsuprem ac
s ite
Ġsu cc
ĠQu ick
m us
ĠB esides
ab i
av ailable
W omen
v oc
Ġoff ence
ĠCar ib
Ġcook ed
Ġmotorcy cle
am pton
ĠM ob
Ġsu e
Ġk g
Ġacc ent
Ġprob ation
Ġshare holders
Ġrecover ing
Ġg ambling
ere n
Ġpost ers
Ġimport ed
Ġsw ap
Ġcand y
ask et
Ġpull s
Ġpromot ions
Ġpromot ional
ĠPriv acy
Ġcontinu ously
J uly
ob a
Ġneed ing
St ring
ĠAct iv
i Ã³n
Ġm g
Ġm apping
Ġwe ighed
ĠSen ators
Ġhy pe
Ġdim ension
Ġeuro s
e ree
Ġe go
Ġj ets
Ġcar ing
Ġconfir ms
ĠHel p
Ġassert ion
g ue
In vest
ourn als
Ġmulti pl
Ġlad der
Ġhier archy
w age
ĠA K
head s
Ġamb itions
Ġvacc ines
i ably
ĠM ig
ĠP orter
ĠG N
Ġsh outed
ĠK ids
ĠCh ampion
Ġinf ilt
Ġneg lect
ĠMart inez
ĠÐ ²
L ab
at able
Ġbe es
ot er
Ġst agger
ould er
Ġdis puted
ens ed
Ġdist urb
ĠSome one
200 7
Å ¡
ĠV M
Ġver bal
otten ham
ĠStat istics
F R
Ġl ending
ĠS ale
Ġment ality
ĠMon th
Ġfinger print
Ġindivid ually
on est
Ġhas ht
Ġca f
Ġadvent ures
J oe
Ġo k
Ġc abin
Ġst int
Ġdo i
ĠK enn
Ġhand gun
Ġstaff ers
ĠVis it
Ġpoet ry
J im
Ġp iano
Ġwe aker
Ġtra ject
ĠDel aware
Te am
ĠHud son
Ġhe els
Ġjail ed
ĠEll is
B rien
al one
ik o
Ġtheat re
l ength
Ġsp here
Ġhand les
Re view
ĠCoun ter
Ġmarg ins
ĠG ore
Ġcr ap
Ġnegoti ated
Ġforg ot
Ġobsc ure
Ġrall ies
ĠDise ase
Ġsh ook
Ġsh oe
av i
ĠTex ans
Ġindic ator
Ġir ony
Cl ass
Ġunp redict
ĠArm strong
ad itional
ĠW es
uck ed
Every thing
Ġrhyth m
N on
re cy
Ġiss uing
sh aring
AC T
ĠBoe hner
h or
ĠTe levision
Ġdig ging
Ġkilomet res
ĠRaven s
names e
Ġwe ed
AN T
Ġsynt hetic
l ation
y d
Ġr ider
Ġint ensive
Ġwell s
Ġimag ery
ĠFin als
Cons ider
B erry
ab lish
Ġsp am
ĠAlex and
ĠCD C
Any one
Ġa usterity
or ically
ĠD at
Ġadminist rator
Ġwild ly
ĠBur ke
ĠUlt imate
Ġl ingu
and o
Ġcollect ively
Ġgrass roots
F ive
Î ¿
Ġst aring
ys on
Ġunemploy ed
m ember
Ġs id
Ġat op
ĠV ideos
Ġstart ups
ĠBe aut
Ġmusic ian
iment al
ĠInte gr
' )
ro v
lud ed
ĠSim p
ĠJeff rey
ĠPoint s
Ġp ork
ĠC urt
Ġdis ruption
Ġatt ach
Ġappreci ated
Ġexplan ations
p ad
ĠF L
âĢĿ ).
ĠL ion
Ġop ener
Ġplace ment
Ġposition ed
yl an
ĠSom alia
Ġwas ted
ab lo
Ġbr on
ĠGr ace
Ġeat en
Ġintegr al
Ġremote ly
~ ~
Ġp iss
Ġsc i
Ġoverwhelming ly
Ġunh appy
ĠIniti ative
Ġrep roductive
P ort
V M
ĠI R
ĠM E
ĠR ank
ĠN ad
Ġres ent
ys ical
ĠArch itect
ĠM oss
Ġrep ository
Ġsent encing
Ġill usion
" ;
E xt
f an
Ġl enses
ret ty
ĠE thereum
chn ology
Ġapplic ants
Ġhistor ians
Ġelement ary
ĠHol mes
Ġinherent ly
Ġnot ification
Ġdict ators
Christ ian
Ġathe ist
1 30
S ure
Ġl inem
ĠP ract
ĠWh ats
Ġfound ations
Ġpost p
Ġaccording ly
Ġste ering
Ġdat as
Ġflo ors
ĠWinn ipeg
h ad
Ġr anges
Ġsec uring
Ġprop osition
y outube
an ies
ĠS em
ĠC ash
ast es
oll o
Ġwat ches
ĠPri or
ĠRod gers
Ġcul p
ĠIss ue
Ġfortun ate
Ġd ough
ĠI de
pect ives
Ġsm iling
Ġfre el
ĠM aking
Ġpolic ing
ris k
Ġtrave lled
l on
Ġn est
Ġst ap
Ġsl ated
ĠSc ript
add afi
Ġemb ry
Ġguarante es
Ġweakness es
) |
ĠS B
ĠK urt
iz ard
ĠRe yn
Ġcomb inations
Ġprogress ion
Ġporn ography
Ġloc ate
ĠCar roll
Ġmicro sc
ĠHT TP
ĠVin cent
prising ly
q l
at al
ĠS anchez
th reat
Ġro d
Ġelect orate
Ġacadem ics
Ġp und
Ġan om
av ia
ach i
Ġpr one
ĠApp arently
Ġcent ered
Ġeas iest
Ġassoci ates
Ġrecogn ised
ĠW ings
ĠO pt
Ġsmall est
Ġdri ed
Ġtou ches
Ġwood s
Â Ģ
et on
ĠD rop
Ġj unk
Ġpost season
ograph ical
Ġport ions
C AR
Ġl ing
ĠT E
ĠN ut
ĠO z
Ġsc am
Ġacc laim
als h
And rew
Ġcere mon
J on
ig ion
ĠB ren
ant ine
col or
Ġrecip ients
ĠFO X
ĠBash ar
Ġaest hetic
Ġto pped
ent e
ad ata
ĠM asters
ĠD im
ĠLe x
Ġcirc ulation
Ġfemin ists
Ġ __
ĠR ot
ĠG aming
Ġfe ver
Ġdep osit
asc ular
Ġzomb ie
h art
Î ½
Ġd are
ĠM is
Ġcertain ty
Ġfaith ful
Ġprompt ing
======== ========
ĠShan ghai
N one
at ility
Ġch rom
Ġsp ont
Ġdis reg
ov ich
Ġadv ancing
Ġâ Ĩ
Ġund ocumented
Ġprotest ing
Ġalph a
Ġstr angers
ĠFl int
Ġmount ing
Ġven ues
Ġceleb rities
ĠCh ad
spe c
Ġanx ious
ow itz
ĠK i
Ġdes erved
ĠTom my
Ġunp opular
ĠOper ations
Ġinterf ere
m ount
Ġm es
ĠS ter
ĠR B
Ġab usive
Ġblow ing
Ed itor
Ġluc rative
Ġundere st
c ourt
Ä ĥ
Ġfl ames
iber al
Ġrail way
Ġre nown
ĠâĢľ [
ĠLe ave
Ġsound track
reg ular
Ġattend ees
Ġvel ocity
Ġjew el
S cient
s ight
ĠU P
Ġ9 00
Ġhuge ly
que z
F ull
Ġp p
Ġm ud
ĠC M
ĠW ere
Ġch ick
Ġseek ers
Tex as
Ġto kens
ĠT PP
ĠD elta
we gian
Ġphys ic
Ã© t
asc ript
ĠGreat er
Ġconsult ation
P eter
ĠS r
ĠH appy
ĠD w
Ġsh aking
Ġpract ition
Ġ{ \
Ġquarterback s
Ġthread s
I ran
Ġm ol
ĠT S
ĠM atch
Ġmet rics
ĠCo in
Ġphys icians
ĠCath olics
ĠLegisl ature
Ġgenet ically
Ġgi ants
Ġunbel iev
Ġe cl
Ġwh ale
ĠK aren
Ġmy st
ell ed
ator ial
Ġcompet itor
ĠSw an
met ic
ĠCast ro
Ġsket ch
ĠP etro
ong yang
Ġfoot print
Ġliber ties
Ġappeal ed
Ġdelight ed
H ead
Ġp ir
Ġmet er
Ġbench mark
ĠB ed
ĠK um
Ġgen ocide
Ġrecogn ise
Ġmasc ul
en ly
Ġst airs
Ġsh adows
ĠCar r
ny der
ĠBelg ian
ĠAbd ul
Ġw ield
Ġim minent
|> (
Ġble eding
Ġbe ast
Ġsp o
Ġsystem atic
Ġdr agon
Ġcharacter istic
ĠMal colm
Ġtight ly
Ġwar ns
Ġpat ents
Ġprote ins
ĠÂ Ń
Ġsli pped
Ġchap ters
Ġdepos its
Ġclim bed
Ġcooper ate
Ġbureau cr
am ount
Ġel ites
Ġhalf way
Ġshot gun
.' "
ĠHop efully
ĠA UB
ĠW ait
ĠR ut
em ption
Ġbr idges
Ġcol ony
Ġcar n
Ġlad ies
Ġcurric ulum
Ð ´
ĠV a
Ġins ufficient
ĠYou th
Ġtest ify
Ġbi ased
cont ent
ĠSimp son
Ġn ucle
ĠA ur
ĠL O
Ġbl at
sh it
sh ine
Ġeduc ate
Not hing
Ġdispl aced
m und
Ġshow case
Ġmark ing
Ġslow ed
ĠMajor ity
Ġcrus hed
D el
Ġcustom s
Ġadm ire
Ġincorpor ate
s i
Ġs way
Ġd ining
Ġbe e
ain er
Ġpl ausible
Ġad ul
ĠSh in
F M
at ism
âĢĿ ?
play ed
Ph il
om ore
ĠD ale
ĠL ith
ĠO P
Ġnut rition
ĠCry pt
Ġnurs es
U TC
c d
ĠM ann
ĠHe avy
Ġrun ners
Ġdirect ing
Ġprec ip
Ġa fore
Ġas leep
Ġcont ender
ator ies
Ġconsist ing
Un ited
Ġrein force
Ġpersu ade
Ġincons istent
Ġlegitim acy
g ow
ĠT ouch
Ġu b
ĠR ule
Ġfavor ites
S am
ar in
est on
Ġmar riages
Ġlight ly
Ġadjust ments
Ġ **
F eed
ĠW E
Ġinc ap
Ġwrit ings
Ind ia
Ġvari ants
ĠViet namese
ĠSteel ers
Ġt ended
Ġl oot
Ġr iots
Ġal igned
ĠK iev
ĠV ent
For ce
ns ic
Ġimpact ed
Ġ Ñģ
ur ally
ĠF alls
ĠG am
Ġspe ar
Ġver b
ean or
Ġge omet
ĠCat al
ĠCrime a
Ġjer sey
Ġw itch
Ġse gments
ĠX L
Ġappl aud
ĠRepresent ative
Rich ard
b ra
Ġport able
Ġmatch up
on gh
Ġdec isive
ĠSy n
ĠBr ight
Ġansw ering
ĠKen ya
ĠSC P
M M
Ġt ennis
akes pe
Ġair ports
,' '
im edia
et c
ĠG or
ĠL anguage
raw ling
ĠInter ior
Ġpist ol
Ġinhabit ants
ad ays
ĠNo ah
Ġyield s
ĠHend erson
ĠA pr
art s
ĠL ate
Ġserv ants
Ġsens ible
ĠSal v
Ġque en
Ġbon uses
Ġsufficient ly
in v
ĠInd ependence
Ġorig inated
Ġaver aging
Ġblank et
C all
Ġe ternal
Ġpri ests
Ġinvestig ator
200 6
Ġdemonst rators
Ġacadem y
Ġdiplom ats
H and
g irl
on ut
Ġp oured
ĠT rip
Ġex cer
Ġdes cent
Ġsl aughter
ĠCarib bean
B as
ĠS outheast
am iliar
ĠM ath
ĠG R
Ġ19 48
S w
Ġr ip
Ġimp osing
ĠSh o
ĠAd rian
ĠWest minster
rig er
ĠSil va
Ġmetab ol
h aw
Ġshe lf
Ġ10 5
ĠHer oes
ĠÐ ¿
OU R
ĠHuff ington
ĠMov ie
Ġfart her
T otal
Ã º
ĠS eth
ad h
Ġsp ying
ĠAn alysis
Ġlow ered
Ġsen iors
Ġbuy er
Ġautonom y
P ass
ĠS add
ir ation
ew s
Ġtur b
Ġvoc als
Ġcinem a
ĠPrin cess
Ġorche st
ra vel
ph is
Ġmor ph
lev ard
Ġemb ark
Ñ ı
ĠW or
ĠH ob
um ed
Ġdis abilities
Ġconsum ing
c ock
Ġc otton
ĠH ousing
Ġrem inis
ash a
Ġrespect s
Ġcollect ions
p ers
ĠE sp
Ġcomp ile
Ġadd itions
orth y
Ġemer gence
Ġdig est
Ġrepe ating
Ġtro phy
Bl ue
ĠCreat ive
Ġvibr ant
p c
ĠV illa
Ġfe ather
Ġconv entions
Ġexplo ited
ĠLl oyd
V er
Ġa in
le en
ĠD j
Ġmin imize
cl ub
Ġmater n
ĠCons umer
ĠReg ion
T Y
Ġo ath
hed ral
f ax
ĠM ade
ĠD S
Ġup s
ĠW ITH
Ġadd ict
Ġeff ic
Ġmet eor
Ġ12 8
Ġlight weight
ĠUC LA
ĠEs pecially
Ġoff enses
reat ing
igg ins
Ġt ide
ĠT ask
ĠD ad
ĠThe ory
ĠY ale
ogen ic
Ġfert il
akespe are
W as
an cer
el ed
ale z
ĠFl a
ĠMe g
ĠAct ually
ĠId ent
Ġmonop oly
Ġliv est
P age
st airs
Ġg odd
Ġv ag
ĠAs k
Ġrock ets
Ġbreat he
Ġquant ities
Ġcontem pl
ĠCase y
Ġamend ments
d est
p ical
Ġun related
Ġclass ification
ĠBr ain
ĠNe uro
ĠSchool s
Ġrest oration
ĠDar win
Ġank le
Ġp ul
Ġd orm
Ġso y
ĠWe ap
Ġgener ates
Ġfore most
ĠStar bucks
Ġc aucus
Ġcl ips
Ġsp ike
Ġar che
ĠAl z
Ġprotect s
Ġabsor b
Ġdies el
a que
Ġcl ue
Ġapp le
ĠPr ison
ĠIm pro
Ġlic ence
Qu est
P ower
b illion
d ollar
Ġo w
ig o
ĠL oc
Ġman ga
Ġbre eding
ĠGo ing
Ġlo oph
ĠSpr int
Ġinher it
ĠW AR
um per
12 5
ĠPost ed
ĠTit ans
Ġpredomin antly
Ġw ished
Ġ196 2
ĠBer g
Europe an
h at
ĠP ierre
ĠO m
Ġcl ues
Ġgr ades
Ġconnect ivity
Ġextensive ly
ĠBudd hist
ĠMun ich
Ġtrop ical
Ġdefic its
w ait
Ä ĩ
ĠB anks
ĠF u
Ġcont ention
ĠKurd s
M or
m ake
ĠR ules
Ġhapp ily
Ġcomb o
ĠBar nes
Ġresc ued
Ġenthusi astic
Ġdispos al
he y
in burgh
is se
Ġp ond
ĠP HP
el ong
amp ire
Ġdep uties
erv ative
Ġgl ac
Des cription
Ġf reed
ine a
Ġover view
Ġmention ing
Ġinstrument al
ĠIndust ry
ar se
ĠT ak
th ouse
Ġch asing
Ġpat ron
Ġpract iced
sw er
Ġprem ature
Ġadjust ment
Ġmos qu
Ġcatast rophic
p aid
Ġb ubb
ĠF ace
ĠK enny
Ġsupp ress
ope z
Ġconsist ed
ĠMon te
Ġut ilities
ĠScient ology
C urrently
Ġth y
Ġl ion
ĠX i
Ġcaut ious
Ġar rog
ĠAr g
Ġdeb ts
ĠCol lection
M att
f illed
Ġs acks
ĠS QL
ĠH ence
ĠSt alin
Ġclin ics
Ġmanip ulate
Ġspr int
Ġconstitu ents
, ,
Ġat omic
ĠTh rones
Ġsec urities
Ġmis er
Ġlobby ists
commun ications
r ational
Ġgu ides
Ġreal ities
ĠEm ily
Ġoptim ism
it ous
Ġu mb
ĠB eth
ĠW ant
ĠBM W
Ġimprison ment
" ).
Ġim aging
Ġcr ises
Ġgl oves
Ġque ue
Ġsatisf ying
ĠNich olas
Ġincumb ent
B ro
Ġwatch dog
ĠGl as
Ġhon ored
ĠTer min
Ġpaint ings
ĠGene va
b augh
Ġn ail
run ning
Ġdatab ases
Ġillust rated
ĠHop kins
Ġp unk
Ġu m
Ġsl ides
Ġsl ammed
ĠHold er
Ġbarg aining
is co
ĠM ol
Ġv icious
Ġlog s
re lla
is le
et ooth
ĠA CC
ĠL um
ard i
ĠK il
Ġbl ade
Ġbo o
ourn ament
Ġaccess ed
ĠSocial ist
ĠId aho
ĠStr ateg
Ġcoord ination
s an
ĠT iger
Ġmon itors
Ġext inction
oul os
Ġreact or
usse in
E U
Ġqu ot
ĠUn less
ef e
ĠAustral ians
Ġgang s
Ġobs essed
C R
S ources
l ance
ĠH ERE
Ġass erted
ĠNew castle
Ġgener ator
af ort
Ġblog ger
Ġcert ified
Ġrelax ed
ĠGand hi
l it
Ġfor ty
ĠB att
Ġen forced
arm ing
Ġamb ition
ĠLouis ville
ĠWal mart
Ġprohib ition
S QL
Ġb ounce
im ity
Ġv ic
ĠE ight
ason able
Ġdown s
yn asty
aze era
Ġinspir ing
ĠPy ongyang
Ġd ent
Ġy oga
Ġbas ics
ann ers
Ġcontest ed
Ġsymp athetic
v ance
Ġb acon
ĠD ame
Ġdist ances
Ġalleg es
id i
ĠP ic
Ġj azz
ĠY am
ĠInd igenous
AC E
Ġaston ishing
Ġc ad
os aur
ĠO ften
Ġsl ogan
b ast
Ġc ater
ing rich
ass an
Ġsc ales
Ġdep ressed
R yan
Ġt ires
it ime
ut ton
ĠB apt
ich t
Ġen compass
Ġdev il
Ġauthor itarian
Not es
Ġmerch and
occ up
an throp
Ġcon form
Ġillust rate
Ġobst acle
ĠFa ith
Ġo ct
ĠE ye
ok u
av in
ĠShe ll
Ġenjoy s
ĠCont ent
osh i
ĠPre vention
Ġinher ited
Ġoverlook ed
L ove
Ġd ude
im er
ĠM ets
il itation
ĠB omb
Ġne arest
ov an
su per
Ġpositive ly
Ġw ives
Ġapp ar
Ġshow c
Ġhur ts
Ġinaug uration
l iv
Ġc ripp
it ially
st ation
Ġmat rix
Ġorgan isms
Ġprim aries
Ġafore mentioned
ĠS K
Ġsim ulation
Ġaffect ion
Ġsymp athy
ĠTri ple
Ġinterven e
ĠAmb assador
ĠPere z
B o
Ġsh ine
In f
gg ing
Ġsl im
Ġwond ers
a ic
Ġd ip
Ġr ipped
Ġfound ers
Wh atever
Ġfif teen
Ġbelong ed
ĠM ills
oc used
og yn
Ġfin est
Ġlit eral
Ġbail out
author ized
Ġparad ox
Ġupload ed
dep th
ĠS gt
ĠK end
Ġplant ed
ĠMos ul
Ġadvis or
Ġpremium s
Ġecho ed
Oct ober
T est
f inal
ĠA br
ĠL arge
Ġev olving
Ġ0 6
Ġsie ge
er ness
Ġo we
ent ry
ĠT roy
et z
Ġcol ored
Ġsimilar ities
AS E
c ond
ĠJ ama
Ġbat ting
s ay
ĠB ark
Ġoff line
ĠY ellow
Ġfe ud
Ġpsych iatric
Ġassault s
Ġmig rant
Ġdeleg ation
Ġinsect s
Ġs rc
Ġre ef
ot ive
Ġ0 9
Ġcandid acy
Ġautom ation
ĠGet ting
Ġnost al
Ġb aking
ĠMcC l
Ġupgr aded
ĠAgricult ure
Ġinadequ ate
ĠE aster
road s
ĠLear n
Ġliqu or
stan bul
d imensional
Ġimm ers
Ġtreat s
Ġremark ably
ĠPel osi
c oun
ĠG eneration
Ġscar ce
Ġdiam eter
Ġalumin um
ĠI L
ĠP aper
and als
ĠN aval
ĠK ush
ĠWe ather
Ġform ats
ĠEn forcement
Re illy
Ġdetect ive
ĠMont gomery
Ġincl usive
Ġmonit ored
ĠVeter ans
M ad
W ould
Ġcon gest
ĠE P
ob ody
Ġfil ters
Ġtal es
Ġassist ed
ĠBudd h
Ġflav ors
L ocal
Ġp aired
ar c
oc y
Ġoverwhel med
Ġsoul s
ibl ings
Ġinjust ice
Ġhilar ious
) (
] :
p roduct
x on
Ġfor wards
Ġconf isc
ĠZ en
att ack
ĠTrans port
intend ent
Ġfrag ile
T L
ĠA j
Ġno on
Ġred irect
Ġcat alog
Ġutil ize
ĠIM F
g ay
k ers
â Ļ
an as
ĠC ob
ues e
Ġexp ans
ĠUS C
Ġquick er
ĠDep ression
ĠPar ks
Ġsubject ive
ĠAh mad
mid t
Ġtat too
ĠMurd och
1 000
U ser
k it
s ix
it ives
Ġf lick
Ġg ates
il ogy
ĠK ane
Ġno ble
Ġâ Ķ
Ġprem ises
d ist
ĠS ask
Ġapolog ized
Sand ers
Ġgorge ous
h all
ear th
You ng
Ġprob able
Ġâ Ī
ĠFal cons
heart ed
A ir
ĠC ort
Ġinter ventions
Ġkind a
Le g
Ġrif les
ĠD erek
ĠCh i
ĠHe ights
ĠCl int
Ġtri vial
Ġreflect ing
g rown
Ġe Bay
ul in
ĠG az
ĠJ unior
Ġun named
Ġunder water
Ġinv ention
ĠSh akespeare
Ġcomb ining
ĠWiz ards
Ġb ent
ĠP ew
ĠSt rike
Ġfl own
gg y
ĠLib yan
Ġhur ting
Ġprivile ged
Ġb ru
ĠB rett
ĠH orse
ĠO culus
Ġup ward
Ġmed ications
it ational
ro e
ĠS ite
Ġrel iability
Ġslow ing
Ġdys function
b us
b ps
c igare
g eneral
r ays
Ġs oup
ĠR idge
ĠR alph
ud a
Ġrele g
Ġrespond s
Ġ196 1
ĠRand y
Ġ q
ll ah
ke ll
Ġfin ishes
uff le
Ġfig uring
Spe cial
Ġshel ves
ĠCre ate
V is
st rom
ore st
ov ak
Ġmin es
ci ation
Ġcamp uses
ĠFor bes
Ġinform al
Ġpersonal ities
ĠTH IS
Ġteach ings
D isc
Ġo wed
ĠF ix
cl ock
Ġjud ged
Ġhor r
Ġawa iting
b ach
er ie
ĠS au
atch ing
Ġhand ing
ĠCan n
cons cious
ĠCharg ers
Ġt ense
ĠP ul
az ar
Ġperform s
ĠWin ston
Ġth rive
Ġbook ed
ĠMar ie
Ġimpro per
Ġopt imal
Ġmot ive
.' '
Ġshall ow
Cont in
Ġoutrage ous
S ocial
ĠA F
Ġreal izing
Ġcomment ators
eter min
ĠNor wegian
Ġconstit utes
Ġdescript ions
Aug ust
Ġh obby
rop he
Ġdemonst rating
Ġpus hes
Ġrecip ient
Ġnic he
H ome
Ġre dd
ri um
ĠR A
ĠN ord
Ġche f
Ġmet ro
mit t
ĠMet al
Ġhint s
Ġb od
ĠU pper
ĠSt rip
ne ys
Ġpr iced
Ġdark er
Ġdetain ees
D ear
t re
ä º
ig ating
Ġpsych iat
isp here
Ġ ..
Ġs i
Ġn odd
Ġe ld
ĠT i
ĠM end
ke eping
ĠWe bsite
Ġsk ate
% ),
Ġhome owners
els h
olit ics
ig el
ĠJ ays
ĠRe b
Ġproject ion
Ġsun light
ey ed
ĠBa iley
ĠB in
ib les
ec d
Ġincl ined
Ġb rib
ĠK illed
Ġag grav
Ġint oler
In c
uss ions
Ġcor rection
ĠSc reen
Ġnational ism
Ġhost age
Ġhorm one
Ġware house
Ã ł
Ġpl um
ĠK o
ile m
up iter
iet h
Ġsum s
Ġthr ust
Cont act
ĠLeon ard
connect ed
t i
le um
ek ing
He alth
ĠPl ant
Ġobtain ing
Ġsad ly
Ġsam pling
Ġexha usted
Ġconj unction
ĠAlz heimer
p ically
Ñ Į
act iv
oy le
Ġactiv ate
Ġtour s
Ġang les
Ġvast ly
t ic
Ġt il
al iation
ol ith
el ines
Ġun supported
Ġparticip ant
Ġeval uated
W elcome
h u
Ġp aste
op oulos
os ph
Ġpl ots
Ġwork out
oy s
Ġhum ble
Ġ& &
Ġsurf aced
U r
Ġp ine
st ated
ot ine
ĠB our
Ġse as
ĠK on
Ġunder grad
Ġener g
ĠNov a
atern ity
Ġanalyt ics
Ġw oke
ane y
ĠNorth west
het ical
Ġpreval ence
Ġ Ø
" ),
Ġm i
ĠD ow
ĠCh a
Ġco vert
Ġsl ots
Ġbo asts
Ġmilit ia
Ġcomed ian
j u
Ġc oding
is cher
Ġins isting
Ġpartners hips
OC K
Ġobs ession
ophob ic
ĠLeaf s
im en
Ġst agn
pe ace
Ġpros pective
Inte rest
Ġrenown ed
p ict
ir ies
un al
ĠHe brew
Ġlog ging
Ġsand wich
ĠPear l
Ġrebell ion
Ġpropri etary
Ġnot or
Sh ow
ĠKn icks
ĠCur ry
Ġcoinc idence
Ġther mal
v id
Ġin ning
am on
Ġwe ars
ĠL anc
Ġj aw
Ġhold er
def ense
osa urs
S erv
W in
ĠL amb
ect ed
Ġpay roll
Ġgra pp
f light
Î ¹
ep rint
per m
ĠCom plete
ĠMar ines
Res earchers
Ġnick name
S I
g one
Ġadv ise
Ġred es
ĠLeg ends
Ġje opard
step s
Ġt astes
Ġb ang
ĠH off
Ġwho lly
ĠWe instein
Ġsus cept
ï¼ Į
s n
Ġl amb
ĠT win
ĠD ana
ĠN uclear
ĠPr adesh
ĠVal ent
ĠPriv ate
ĠKash mir
ĠF o
are l
Ġman a
Ġpo ised
Ġpr ag
Ġsuccess es
Ġself ish
Ġcat aly
Ġprox imity
ĠThe resa
Ġper ipher
Ġz oom
Ġport al
ĠRichard son
Ġan them
ĠF ocus
Ġcan on
Ġarch ives
Ġassum es
Ġsynt ax
uter te
S ix
or p
ĠM ix
ĠM oto
ĠE A
ĠSt range
ĠRe x
Ġnever theless
Ġstab bed
ĠWH O
Ġabund ance
ĠDod gers
ĠConfeder ate
C ome
G C
R ub
s ic
Ġs atur
Ġc ared
ĠS nyder
am ples
ĠO kay
ber ger
Ġcl iff
ĠSt ories
Ġlot tery
Ġmil estone
Ġunderstand able
Ġrev ision
Ġcru ise
Ġbot hered
Ġju ven
Ġfl uct
Ġstorm s
Ġcompe lled
ĠPers ian
Ġb og
ia o
Ġref riger
Ġtrad ers
Ġprol ifer
k ar
Ġse ize
Ġref eree
Ġdr astically
Ġpay load
sh adow
Ġur anium
Ġcolor ful
in ers
ĠM UST
Ġab st
ĠSh a
ik er
Ġcou ch
me ga
ĠVol ume
Ġstagger ing
m ph
ĠG ang
Ġproceed ed
Ġreward ed
acer b
b ane
p res
Ġun b
ĠIn g
other apy
Ġass ure
ĠAg ent
Ġfeed s
ĠSur face
Ġimprison ed
Ġcoord inated
ĠDub ai
ĠAdvent ure
n els
Ġd uck
Ġro pe
Ġunder cover
Ġcompl iment
Ġvol t
Ġcorrect ed
Ġmax imize
ĠMem phis
j pg
ĠT on
ĠM ater
ĠN am
Ġmer ger
Ġcycl ists
Ġwhistle bl
ĠSach s
I ts
it us
ic able
pl aces
iz oph
Ġun con
Ġtra it
Ġfair ness
do ors
pe x
Ġconf ined
Ġcourt room
RE D
ĠEd inburgh
Ġprosecut ed
Ġreact ed
Ġalt itude
Ġgreet ed
B rown
ĠE sc
John son
ĠKle in
c iously
Ch ild
Ġadvoc ating
ĠPri x
C BS
I ES
Ġc ensus
ou ble
ĠM add
Ġstand point
Ġprocess ors
Ġliber ation
Ġbed s
inent al
ĠHon or
ag net
Ġexp osing
ĠMet ropolitan
Ġexplos ives
Ġatmosp heric
O H
Ġto ggle
ĠT ottenham
Ġall ocated
Ġafter ward
Ġend angered
ĠMin i
Ġtask ed
ĠEr n
respons ible
ĠE cho
alk ing
Ġadmit ting
l anguage
n is
he ed
Ġto pp
oc ative
ax ies
Ġconced ed
ĠA V
ĠJ agu
Ġen rolled
ĠSch umer
Ġconcent rate
l ived
ĠH ussein
ĠF ew
uff s
ĠSat urn
ĠEth iop
Ġs iblings
ri ents
Ġind ul
Ġsub urb
Ġpedest rian
Ġintu itive
Ġo ceans
ĠS id
Th ink
Ġpass words
Sh ould
Ġdisapp ro
Ġimpl ied
Ġextrem ism
ĠAsh ley
ĠCro at
Ġnurs ing
Ġrev is
Ġmaneu ver
Ġst ub
est ine
ie ves
Ġcl oth
Ġun equ
ract ed
Ġstere otypes
ĠTun is
Ġincon ven
Ġc el
ar ious
ĠM our
ĠH app
us p
Ġredu ctions
ĠMor oc
Ġemp athy
ĠPolit ico
Ġp ard
Ġright ly
Ġrece i
Ġobject ions
Ġcommer ce
Ġborrow ing
Ġprotocol s
M iss
Ġc ites
ĠS pl
ĠP and
Ġpl ural
ans on
Ġtime ly
Ġfact ion
Ġbre wing
izoph ren
ĠLe aders
Ġpit chers
Ġreck less
Ġfiref ighters
G L
Ġ" [
ere rs
Ġpres cribed
ĠAb du
b les
k ov
ĠE ug
Ġj ournals
Ġam ended
Ġmain land
Ġadminist ered
Sep tember
ĠG ingrich
ĠJ os
Ġver se
bro ok
Ġcorrid or
ighte ous
Ġg rief
nd ra
Ġrel ates
Ġpur ported
Ġsurf aces
Ġbrows ers
ĠI stanbul
Ġen light
Ġcont ests
ook ie
Ġmin ors
Ġdeal er
Con clusion
ĠDam age
ĠCore y
Ġdistingu ished
Ġd oses
Ġg ren
ĠB ach
ment al
Ġart illery
pro cess
Don nell
Ġinput s
ĠEmer gency
Ġcontam ination
ant a
ĠQu arter
F il
f ood
ĠC able
Ġat roc
ĠK ap
Ġentire ty
AN S
Ġoccup y
achel or
Ġaccompany ing
Ġm asters
ĠR abb
Ġsec recy
ĠPr ide
Ġheav ier
ĠPortug uese
Ġeru pted
Ġub iqu
7 50
M ax
ĠP or
ĠJ in
Ġhar ness
Ġhighlight ing
itz er
ĠIsa ac
ĠM ik
Ġoff ended
ĠLe Bron
Ġprivile ges
Ġmole cular
r ab
im ination
Ġtw ent
ise xual
Jo in
L ine
f amily
Â ¯
Ġc ried
Ġg em
ĠB ever
ĠW el
Ġoff ences
Ġweek ends
gu ided
ĠEconom ics
Ġhorizont al
ĠW u
ant om
Ġback ward
ĠSch ne
200 4
Ġ} ,
Ġpromot es
Ġsyn chron
mod ern
ĠAli en
ĠEag le
Ġbureaucr acy
g mail
Ġan ecd
ĠW ake
Ġex acerb
Ġpast or
Ġdelic ate
Republic an
ocaly pse
Ġp ets
Ġsex y
Ġthought ful
Ã© e
ort al
ine ment
ix els
Ġcomb ines
Ġaccept s
Ġexclus ion
Ġuncom mon
Ġembarrass ed
Ġeleph ant
Ġgau ge
ĠU A
Ġup rising
Ġprest igious
Ġl ining
ĠC inem
red ited
Ġgr ams
the ning
Ġbank ers
ĠTrans it
ĠOrig inal
Ġric hest
ustain able
Ġc ables
ĠE arl
ĠU l
Ġun a
Ġsupp liers
Ġimp ly
Ġmin eral
ĠRe lease
Ġcar b
Ġide als
ract ion
Ġdiet ary
Ġalarm ing
Ġvend or
Ġplaint iffs
Ġunpredict able
C onst
s ens
ĠM ak
qu is
iff e
Ġimpro ves
Ġwel coming
Ġunst able
Ġde er
Ġtr ails
Ġconsider ations
Ġopt ical
Ġball oon
ĠTH AT
Ġrom ance
Ġun just
Th ings
Ġdown ward
Ġwrong doing
ĠCy ber
Ġprompt ly
Ġbless ing
X T
Ġp and
Ġg ases
ĠT M
Ġmor ally
ĠApp eals
C ode
z el
Ġco h
Ġcompet itions
Ġexplos ions
ĠJosh ua
Ġcompr ised
ĠACL U
ut ic
ĠU T
old own
ener gy
Ġhost ility
Ġlo vers
Ġenter prises
ĠProp het
Ġpopul ist
D ev
f air
yn c
Ġsens ation
Ġcraft ed
Ġyell ing
ĠSter ling
P ri
\ )
a uth
m ist
Ġl ament
red dit
xt on
ĠV el
ĠGl en
Ġsens es
Ġmax im
Ġparad igm
Ġexped ition
Pac ific
Q U
ĠC raw
um mer
oint ed
With in
Ġexem pl
Ġsoph omore
" [
ĠHe aven
gg er
Ġ10 80
Ġcur iosity
Ġval ley
Ġvis ibility
200 5
Ġcommand ers
Ġbroadcast ing
f its
Ġt ags
Ġm a
ant on
Ġj ar
Ġter rific
Ġver ified
yl on
Ġded ication
Ġphenomen a
Ġexem ption
Ġexceed ed
ĠGil bert
ch t
ĠP os
ĠU g
St op
conf ig
Ġp ills
ĠA FL
Th us
ĠCent ers
Ġpick up
Ġsuff ers
Ġemphas ize
Ġordin ance
Ġappet ite
ĠFerr ari
W ant
Ġde portation
ĠR BI
Ġout field
Ġdef er
Ġty r
Ġvulner abilities
n ar
n ull
Ġcol ours
Ġsl am
Ġ0 7
eng ine
Ġdefin itions
ownt own
Ġbound ary
Sub scribe
AG E
Ġfool ish
ĠTreat y
Ġunlaw ful
Ġsc iences
ĠTr ain
Ġintern ally
Ġ Ù
b uilt
om on
ĠC ele
ch anging
Ġwas hed
Ġbenef ited
Ġround ed
ĠArab s
Ġretail er
C re
Ġl over
ick er
Ġbar red
Ġcas ino
Ġinfer ior
Ġbr acket
Ġincom plete
Ġhasht ag
p olitical
ĠD ust
Ġout law
Ġsc aling
Ġdom ains
Ġlog ged
ĠCourt esy
ĠJen kins
ĠPartners hip
Ġinfringe ment
M ain
e i
Ġg ently
ĠS weet
Ġst aged
ĠB ot
ĠE ST
Ġper v
Ġnew com
ins ki
iet al
ĠMan afort
Ġselect ing
Pro ject
Ġingred ient
Ġax is
re view
ĠW alsh
ĠH ack
ĠSte phan
Ġcho oses
Ġgoal keeper
Ġste alth
Ġgar lic
ĠBas ically
Ġdesp air
V C
ĠT ories
ĠP irates
ĠTh om
Ġbl u
Ġbl aming
ÃŃ a
Ġdiam ond
Ġbuck et
Ġaggreg ate
P ay
i ott
Ġs ore
Ġn erd
ĠCon cer
Ġspecific s
Ġcy l
inte gr
Ġdiscover ing
Ġrival ry
Off icials
ĠAp ollo
Ġhelicop ters
e us
Ġhe ck
Ġinst ability
Ġstory line
Ġuns afe
Ġunsuccess ful
Ġsystem ic
az or
Ġcapt uring
de ep
Ġcorner back
ĠElect ronic
ĠGab riel
Ġairpl ane
q a
ĠT ier
). <|
Ġsm iled
Ġseason al
Ġvar ies
Ġcompl ications
ĠIndust rial
r ill
Ġhom eland
ĠSer b
ĠWild life
ĠBou levard
Ġg ad
if a
os ion
Ġen rich
Ġend uring
ĠUp dated
Ġgri ev
ĠTill erson
ĠC el
Ġ1 11
ĠL B
ĠE t
pr im
ĠOff icial
Ġmis ogyn
Ġcook ie
Ġspin ning
Ġstun ned
m ajor
ĠS HA
se at
Ch ief
Ġarm ies
ĠKn ights
ĠBas ic
I X
Ġl end
Ġperform ers
Ġprop osing
Ġconnect s
ĠReg ister
Ġstrateg ist
Ob ject
ĠLGBT Q
Ġtoler ate
ĠStart ing
Ġartif acts
ĠC rew
ĠW elsh
ĠH ood
ĠJ eb
ĠK ell
ish ment
Ġdes irable
ĠGu ant
ĠSim ply
aun ting
Ġuniform s
he ster
Ġre per
els en
ĠÂ «
sec ret
Ġtort ured
Ġincomp et
Ġh ills
ĠB rent
ĠP le
ĠR hod
op hers
ult z
Ġsw orn
AR Y
Ġten ants
with out
Ġdebut ed
ĠCole man
Ġbund le
Ġinsure rs
Ġperce ive
o qu
Ġb ore
Ġbe am
os oph
ĠSt ay
Ġcr ush
osp here
Ġnotice able
ĠPen insula
b as
Ġtr aces
Ġun ified
Ġtrans mitted
az er
Ġvol can
Ġdetail ing
ĠLear ning
D O
D an
Ġl aps
Ġnot ifications
Ġper secution
Ġdeb ated
Ġcritic ize
Ġband width
Ġstret ched
dri ving
Ġpreval ent
ĠGlas gow
M el
ent on
st ud
Ġ0 4
oci ated
Ġsn ake
Ġfit ted
ĠVal ve
Ġinterrog ation
B ox
Ġg ru
Ġr ust
us ers
ire ction
Ġpop ulated
Ġposition ing
ĠNot es
Ġreb oot
spe aking
! ).
Ġs ights
ĠM ut
Ġgr ains
Ġret aliation
Ġhum ili
Ġsepar at
Ġstruct ured
âĶĢ âĶĢ
ĠP ub
ĠW end
ĠD ylan
ĠCh oice
Ġprot agonist
Ġmethod ology
O k
s b
Ġc ivic
ĠC atherine
âĢĿ ),
ĠRich ards
Cl oud
ĠSol id
ĠAlf red
Ġconcess ions
B D
ĠB O
Ġk et
Ġter ribly
ĠX P
Ġer ad
Ġintrodu ces
raz y
Get ting
Ġhack er
Ġid iot
Mc C
B ern
Ġbe ard
ĠT at
Ġint ric
Ġcr ust
Ġexp on
Ġhealth ier
Ġment or
Ġappropri ately
Ġpool s
Ġcul min
ĠSask at
ĠH arm
ĠJ upiter
ĠSt age
Ġsubmar ine
S aturday
m ult
Ġa kin
Ġcons oles
Ġfin ed
Ġmar athon
Ġpers pectives
> </
M ORE
k ara
Ġqu eries
Ġacknowled ges
ĠAnn ual
Ġexem pt
Ġignor ant
Ġeleg ant
ÂĢ Â
ĠC ensus
Ġas c
Ġrec ons
Ġtw ins
Ġshe lls
Ġcle arer
Ġcry st
ĠTim othy
Sp ace
ĠTurn bull
ĠKas ich
ĠReyn olds
p aper
Ñ ĩ
ing ham
ĠA er
od ied
Ġex otic
ĠJ ob
ĠIns ider
h ouses
Ġc um
ĠL opez
ind ust
rict ed
Ġdest inations
Ġden ounced
Ġcard i
L ead
V ol
at tering
ĠN ak
Ġkn ocking
Ġpartic le
Ġdetect ives
ĠRock ets
Ġsymp ath
l at
Ġh orn
ĠP engu
Ġsh out
ĠApp ro
Ġreb uilding
ĠChe v
Ġru ins
Ġstatist ically
Ġwip ed
z ip
ĠM t
ĠD iet
ĠHar bor
ĠThanks giving
Ġw ary
at ivity
Ġstate wide
Ġdet r
Ġdirect ive
Al ong
OR D
Be yond
Ġthr one
Ġborrow ed
Ġindu ced
p ark
Ġan at
ĠS ie
ĠS ak
ĠH ost
ĠN early
ĠO ri
ĠK id
|> "
Ġexc av
Ġterrit orial
Ġacceler ate
ĠExper ience
Ġambul ance
Ġs om
Ġcon ceived
ĠN as
Ġpaper work
Ġvan illa
ĠMap le
> <
Ġst al
amer a
ĠAng els
Ġfuel ed
Ġmir rors
ĠIns urance
Ġinterrupt ed
ĠArmen ian
Ġprolong ed
ĠS tern
Ġst unt
if le
ĠD oc
Ġnum er
rist ol
Ġvar ieties
year s
Ġadop ting
Ġvir uses
ĠFil ip
L og
Q ue
Ġout line
rest rial
Ġworks hop
Ġcool er
bal ance
Col or
Ġd well
ro ot
ĠC any
ri ad
os c
Ġsp ouse
Ġrec laim
Ġtake over
Al most
200 3
ic ularly
ĠI CE
Ġinv iting
Ġstory telling
Ġsuper visor
Ġcondition ing
Ġdiplom acy
Ġmerch ants
Ġtraject ory
! âĢĻ
ĠT ab
ĠE instein
Ġout reach
Ġmot ives
Ġnegative ly
Ġreferen ced
F ind
man y
Ġ18 00
Ġnational s
Ġcal culation
rec ord
ĠRoll ing
es ar
Ġsm ok
US E
Ġdisplay ing
Ġunw anted
Ġneighbour s
b usiness
Ġt read
is ure
âĢ ²
om ical
il ib
ĠRep orts
set t
ĠSpe aking
Ġrob otic
Ġphilos opher
Ġinnov ations
C ent
S al
T it
it as
Ġst ems
ĠSu z
Ġmach inery
PD F
F orm
ir us
Ġr ans
ĠH erman
nder ing
Ġprop he
ĠPar ad
Ġens ures
rate gy
ĠVe h
B ob
se xual
ag ne
Ġv ivid
ĠV ince
ĠRe play
ĠAn onymous
Ġtax ation
Ġenjoy able
Ġton nes
Ġmir acle
o ids
Ġro de
Ġupd ating
ĠMoh amed
N ovember
ĠC F
ĠF ortunately
Ġby te
Ġend ured
Ġresist ant
ĠLeg ion
F in
Ġs ack
ĠAt hens
ĠAut om
Ġskept icism
Ġpour ing
Ġthe sis
ou g
Ġn avy
ĠH od
ĠF ine
Ġsh ade
Ġrecogn izing
Ġcolon ies
c ue
an ity
ĠN y
Ġend ure
Ġprogram mes
16 0
Ġhous ed
Add itionally
Ġflood ed
ĠBlu etooth
ion age
ĠSt o
ĠV irtual
com fort
vert ising
br and
Ġgrad uation
Ġshut ting
ĠJul ia
id y
ĠA IDS
Ġsh irts
Ġj ungle
ĠCon n
Ġcore s
ĠL ogan
Ġar row
Ġdec ay
Ġcontro llers
sh irts
Ġsell er
Ġcriticism s
ĠMill enn
ĠGO OD
ĠL av
are a
ount ain
ĠPl aza
ĠBlack Berry
Ġunf amiliar
ĠMerc ury
Wind ows
ĠBrend an
b ial
b ling
it ches
Ġcon qu
ĠD in
iv able
Ġext rad
work ers
Ġsever ity
ĠPC s
Ġphr ases
Ġrecru its
Ġg ospel
ĠR iley
rat ives
Ġaut umn
oles ter
Other s
Ġweigh ing
ĠGonz alez
E lect
â ķ
ist ical
so ver
Ġbl essed
Ġmet adata
Ġoper a
Ġadequ ately
spons ored
Ġt apped
Ġf usion
ĠS ah
ĠW A
ĠW itness
Ġmis dem
sequ ently
Ġprohib it
Ġbarg ain
Ġrecept or
c hens
er ner
Ġd od
Ġd ull
od er
ach t
Ġback yard
sh ould
Ex per
ĠChampionship s
ĠVis ual
ĠDO J
ĠRoberts on
Ġsquee ze
Ġa u
Ġl aughter
ĠS ame
ĠS ales
ĠD h
ĠInd y
ograph ics
Ġobject ion
ett ings
Ġtour ing
ID E
hy d
open h
b led
ĠG ross
Ġman kind
Ġla wn
ĠEm ma
Ġrequest ing
Ġ195 8
ĠNY PD
Ġterr ified
Ġsne ak
ĠCamb od
v ity
Ġint ro
ĠSe bast
m and
Ġw olf
st atus
ĠThe ater
port ing
Th omas
We b
Ġchar itable
AS S
Ġengine ered
ĠDev il
Rec ently
health y
ar ium
Ġg le
ĠC ities
ĠN FC
ĠJ azeera
Ġdiscuss es
ev al
Ġvol atile
Ġpsych ologist
Ġenroll ment
w ear
Ð ²
ĠLe o
ĠPat rol
ĠLind a
ĠH A
ĠO mar
Ġel imination
Ġcoordin ate
Ġprejud ice
Ġf ist
ou x
ĠC raft
il ight
ch at
ĠF M
Ġdis like
Ġtw isted
Ġsm arter
Ġ0 5
ruct ed
Ġsex ist
Ġacqu iring
Ġenthusi asts
ĠSadd am
am el
Ġst ew
Ġwh ales
ĠM int
ab we
Ġfav ors
Ad am
Ġlisten ers
Ġinaug ural
et ed
ĠA A
ĠC ros
ĠH ook
AR K
Ġund is
Ġrestrict ion
ĠIns pect
viol ent
ind uced
Ġsoc io
Ġpredict ing
Ġdepend ence
ĠSub aru
ĠJul ie
ixt y
ĠUlt imately
imb abwe
Republic ans
D aniel
ĠT ap
ĠIS IL
udd enly
Ġje ans
ĠEver ton
t ier
op ath
Ġmin us
ĠSe oul
Ġmar ched
An n
Ġcontract ed
ĠCont act
Ġfreedom s
ĠCharl ott
M ult
Ġb end
ĠT ournament
ĠC ad
Ġha w
ĠD ot
ĠOr acle
ĠHaw ks
Ġpal ace
Ġgal axies
e pt
g em
s ided
Â Ĺ
in ian
Ġd ice
Ġwh it
ang led
Ġpo em
Ġfr acking
ĠAl ban
Ġsol ic
ĠFif th
H op
p i
Å į
Ġa rose
Ġan nex
ors i
ĠAd vis
ĠEv olution
Ge orge
ĠCany on
S un
f un
Ġt a
he res
se ll
Ġsc ra
Ġinst itute
Ġdem ise
Ġviol ates
ĠAct ive
Ġlower ing
Ġconfir ming
ĠEll iott
Cong ress
r ina
Ġfr amed
Ġconcept ion
Ġdetermin es
Ġdefe ating
fund ing
Ġ ì
Ġc ite
ĠSt ream
Ġcommun icating
ĠBe gin
Ġdefe ats
Ġpip es
Ġsimpl icity
ĠPan ama
ĠCirc le
Ġfur ious
ĠRou te
Ġmerchand ise
E s
Ġf ren
Ġl od
ĠB ec
ĠN ike
iv ia
Ġ20 30
ish ops
ren ched
Ġcar pet
Ġrad ically
Ġgun man
ĠMor rison
Ġexclud e
C ourt
N obody
ry s
lic t
Ġcert ification
hol m
d id
en es
ĠC AN
ĠC aval
od a
ĠL P
cy cl
Ġloc ks
bl ue
Ġanticip ate
ĠC oc
ib al
Ġreg ain
ters on
Ġpun ct
Ġannounce ments
Ġlength s
ĠInvest igation
Ġdevast ated
ĠExpl orer
ĠEmb assy
w ere
Ġd ilem
Ġl ump
Ġ19 47
AT A
ON E
200 1
IC O
ĠSU V
oust ic
Ġbron ze
Ġv est
ĠG oth
Ġgr in
Ġdevelop s
Ġaut op
Ġsurpr ises
Ġoccur rence
ĠPun j
p al
ign ment
ish a
ins pired
Ġshort s
duct ed
Ġdeleg ate
Ġabsor bed
12 3
Ġsuper market
Ġrecogn izes
Ġfat igue
Ġbrand ed
R ay
n ings
ur an
ĠB row
Ġcomp ression
Ġback drop
Ġph ases
Ġsl og
Ġsing les
Ġclean er
Ġcast le
ĠTre vor
Ġbom ber
ĠResp ons
ĠWrest ling
ĠObserv atory
Ġv ault
Ġvolunt arily
******** ********
Ġineff ective
Ġreiter ated
Ġb ast
Ġan ten
im ag
ĠH ogan
um i
Ġinf ants
be cca
Ġfrequ encies
Ġunus ually
Ġveget able
H as
ĠW orth
ern ame
ĠBro ck
Ġce ment
Ġcrack ed
Ġbrut ality
Ġinaccur ate
ĠL ed
Ġbl ows
ex cept
let te
Ġ11 5
Ġsch izophren
Ġrig orous
Ġcompens ate
Ġimper ative
Ġgif ted
l ins
re ra
er k
ĠB uc
ill on
ort ium
ĠF uk
Ġtack ling
ĠSky pe
ĠAud io
ĠKum ar
W E
c ro
r ade
it ures
id av
ĠI gn
Ġun real
Ġspecial ists
Ġball istic
Pr int
ĠBurn s
Ġtel escope
Ġburg l
Ġch ill
Ġgr an
Pl an
Ġkidn apped
Ġempir ical
Ġl ur
ess ors
Ġsh aping
act ed
ĠRe ce
Ġprogram mers
Ġmilit ias
Ġaccess ories
AT H
Ġalleg ing
Ġcell phone
Ġmer cy
Fr iday
L ittle
O G
Ġst yl
ĠK ob
aw i
Ġreg imes
Ġext ensions
Ġ17 0
S ar
Ġav iation
Ġrad i
ĠWeb b
ĠAndre a
Ä į
op ia
oss ibly
Ġdial og
Ġhypot hes
ĠSN P
Ġfeas ible
ĠH alo
ĠN RA
all ah
Ġtr aced
Ġrep ay
Ġcapt ures
ĠFre eman
ĠHay es
A ut
ar ak
ĠA RE
int o
Ġinto x
cent er
Ġhead set
Ġbro ker
Ġstar red
Ġcateg or
Ġillust rates
Ġresemb les
Ġsanct uary
Ġbroadc aster
M essage
w ave
Ġa ven
Ġche ating
Ġalleg ation
Ġshoot s
Ġpen al
Ġvac ant
ĠPlan ning
Ġru ined
Ġcommod ities
ĠProgress ive
ĠD uterte
Ġdis se
Ġbet ting
Ġatt ain
Ġgovern ors
Ġpot atoes
ĠNe g
Ġsell ers
ĠRob ot
sm all
M ass
Ã ¸
in qu
Ġst ip
Ġex terior
Ġcell ular
gu ards
keep ers
Ġundert aken
ĠNS W
ĠInn ov
m atch
Ġs ang
Ġd ots
Ġwas hing
ĠH ab
Ġso ap
Ġdis asters
Ġbig ot
Ġclear ance
Ġbeaut ifully
Ġattract ing
fol k
larg est
B T
M ENT
w ife
ĠC V
Ġnot ices
ĠL anka
ob ic
Ġsur g
Ġwar rior
Ġdece ased
Ġantibiot ics
A round
v ideo
Ġp ave
ot ers
Ġme ga
Ġ10 4
ĠAl ways
Ġimm un
Ch inese
cast ing
Ġoverl ap
c ourse
Ġdo omed
Ġup held
Ġ- --
ĠLe h
Ġsl ump
Ġwar mer
Ġgl uc
Ġnegoti ation
ĠSing le
Am azon
ĠMa o
Ġdil ig
ourge ois
ĠT ol
Ġimp air
Ġown ing
ĠRep ly
Ġcirc ular
Ġdepend encies
ĠProv ince
Ġforb idden
abl ished
ĠBren nan
Ġunbeliev able
E ric
We ek
Ġvis ually
Ġhy ster
Ġlog in
load ed
Ġele ven
Add itional
Ġchampionship s
ĠImp act
abul ary
Ġunch anged
G roup
O p
Ġto e
Ġcomp ares
In s
oke mon
Ġlaugh s
ĠU nd
Ġout dated
Ġthere after
ĠAnd ers
Ġret ros
__ _
sh ort
ram id
edd y
Ġswit ches
Ġtoss ed
Â¯ Â¯
C rit
J ones
ĠC ards
ĠJ et
Ġdis respect
Ġar senal
ĠEvery body
Ġadvoc ated
Ġproud ly
Ġembr acing
Ġsustain ability
ela ide
ĠFal con
ĠFR OM
D en
J ul
L ondon
R un
ĠB io
ĠR S
Ġne ut
ick y
Ġ19 44
Ġrespons ive
ĠSpe cifically
ĠSim ple
F inal
p arents
Ġrev ival
Ġneuro log
N or
Ġf og
ĠP ist
ĠW ag
Ġle aking
Ġout spoken
ĠV I
19 90
ĠNational s
Phot os
âĢĿ ;
pl aced
Ġside walk
amm ad
ĠSpace X
d ocument
f ight
re a
Ġk in
ount y
oh an
Ġfore nsic
Ġselect ive
Ġsett lers
Ġpal m
Ġwholes ale
e ur
Ġp ixel
ig ated
Ġtr action
Ġcont ributes
Ġvisit or
Pl ate
Up on
asp berry
Ġinspect or
ĠBapt ist
h it
Ġr ack
ĠL ag
ĠJ ill
ĠO NE
Ġunder going
ific ent
ci pl
Ġcrypt o
Ġlau nd
Ġnort heast
ĠN ice
Ġcap ita
Ġsex ism
Ġmer ge
Ġtransl ates
Ġshel ters
Bel ow
Ġfright ening
Feb ruary
% ).
M ap
Ġch orus
Ġref ined
ien cies
Ġrepl icate
ĠUs ers
Ġextract ed
Ġcreep y
ĠHait i
B esides
C T
Ġin ad
ĠC rist
ĠM aps
Ġback pack
Ġann ot
Ġ24 0
Ġreward ing
Sub ject
Ġdisagree ment
Ġdisappear ance
Ġreconc iliation
ĠAbdu llah
w ald
Ġd os
ĠL iter
ĠE isen
Ġgood ness
Ġwar rants
ĠOr d
Ġjud ging
Ġhun ters
ĠGreg ory
ĠLeban ese
ĠWheel er
U MP
Ġh over
Ġg room
Ġde af
ĠL iqu
Ġspe cially
Ġgr ind
Ġposs essed
More over
Ġ195 9
ĠKn ox
ĠWord Press
Ġb ilateral
ĠM iles
ĠR ugby
ĠN ode
ĠV ic
aw ays
ple asant
Ġunt o
Ġwa ist
Ex pl
Ġpig s
ĠRh ode
ĠGit Hub
display style
Ġrefres hing
ĠWhats App
g rowing
m oil
ĠA WS
Ġjust ices
Ġins ider
ĠSp art
Ġmer its
Ġtun nels
Ġmeth ane
S omething
as is
id able
Ġle aning
ĠK in
Ġimp art
ĠIS Ps
Ġregul ator
Ġsmooth ly
G P
ĠC e
ĠC oy
Ġrep s
Ġchar ities
Ġrese mble
Im agine
Ġobser ving
Ã¡ s
Ġillust ration
R P
c ross
Ġn urt
Ġst ellar
Ġpe cul
Ġfilm maker
14 0
Ex p
Ġcooper ative
ĠB ug
Ġch amp
anc ers
ĠGr ad
lling ton
ĠRom ania
Ġjudge ment
ĠKit chen
Ġpos ing
Ġperfect ion
Ġdepend ency
Ġsubsid iary
Ġdimin ished
Ġreminis cent
Ġl bs
et itive
ĠP ain
os er
Ġk its
Ġey eb
Ġemail ed
Ġ} );
Ġbal ancing
c iss
ab ase
ĠL E
Ġgl uten
Ġmodel ing
ĠBet a
Ġnomine es
Bet ween
ff iti
pl ug
Ġstr ains
Ġpred ators
Ġill icit
Ġnom inations
ĠÐ ¸
Ġbull shit
Ġintention al
Ã¶ r
or o
ĠI van
ĠB og
ĠB irth
ĠR ange
Ġv intage
ans ing
ĠRe act
Ġhand c
Ġpath way
Ġnar ratives
rah im
V ery
ĠB le
ĠF ighting
Ġher b
Ġfree zing
ĠEuro pa
Ġep it
EN D
ĠIS O
Ġspir al
ĠSher man
ucc i
o an
in vest
Ġm arsh
Ġall ocation
ric anes
OU T
ĠHy per
Ġplas ma
a verage
ĠR ift
Ġun cover
Ġper tain
ress es
Ġwar riors
Ġmult ip
Ġsuper b
Ġsn apped
uk a
ĠJud iciary
Ġperpet rators
Ġcoc onut
Ġramp ant
f ed
Ġp as
com plete
Ġsub po
Ġhapp ier
ĠBl izzard
ĠInd ividual
ĠFl oyd
ĠAust rian
Ġdecl ines
Ġprim itive
Ġappoint ments
ĠDar ren
ĠFood s
Ġprosec ute
Ġdistract ed
Ġbol ster
Ġt outed
ĠM az
lud es
ĠAl ger
Ġrest ing
Ġvis as
Ġphotograp hed
ĠCitiz en
Ġoverth row
ur st
ill es
ĠW ave
Ġneed le
ng th
Ġchar m
ĠFr ame
Ġcost umes
ĠRes ults
ĠTest ament
ĠHug o
ĠGard ner
Ġsuprem acy
Ġcontam inated
ĠAven gers
Scient ists
P T
o at
Ġd iving
Ġre jo
ĠB T
ĠF ans
Ġv ou
Ġsc outing
Ġexp ired
Ġmod ifications
Ġbelie vers
Ġmark er
Ġz ip
ĠMe et
Ġrecomm ends
place ment
Ġwithd rew
Ġextract ion
Ġdict ator
Ġpedest rians
ĠPrinc eton
squ are
Ġal le
Ġfact o
Ġdet on
ĠPer l
Ġtravel ers
ĠUs ually
Ġsyn c
ĠCle arly
List en
Ġrecept ors
Ġat oms
Ġj ealous
Ġtheir s
Ġso ber
av ior
Ġanal ogy
ĠGu inea
Ġdom est
ĠEl ite
Ġpen cil
OL D
Ġfut ures
Ġcontrace ption
D ate
f ired
Ġthe rape
ĠE gg
ĠO sw
Ġcur tain
Ġdom ination
ĠChe ney
ĠMon ica
Ġmeaning less
Ġacceler ation
Ġcha otic
Ġdisadvant age
Ġgly ph
C urrent
H i
ic ans
ĠL ux
ĠJ SON
ra ve
10 5
Ġsing ular
Ġident ifies
Ġinflu x
ipp le
Ġacknowled ging
Ġdiscipl inary
Ġacceler ated
ĠScient ists
Ġconstitu ency
Ġg aze
Ġcon du
ick ers
Ġpres erving
ĠEx xon
ĠLet ter
Ġgrant ing
O per
R om
Ġw ires
Ġp ulse
ĠA be
Ġ4 50
ĠCan ucks
ched el
bor o
Ġcritic izing
D i
b ird
f alls
Ġt iles
ĠG C
pl ates
Ġup wards
ĠSh ane
Ġcost ing
Ġanaly zing
ĠVictor ian
ĠC lear
Ġrel iance
Ġdr ums
Ġdig its
verse ly
Ġcontrad iction
ĠBor is
ĠFried man
Ġsect arian
Ġastronaut s
Ġd y
ĠP ale
Ġun authorized
ĠCh in
Ġ[ +
Ġpar an
vention al
Ġrein forced
dog s
Ġdivor ced
m ass
Ï Ĥ
in ational
Ġm asks
Ġr im
od s
ĠF lickr
ĠN ate
Ġsm oked
Ġrep airs
T urn
he e
Ġs idelines
an ed
ĠC ork
Ġr apper
ĠL DS
Ġins erted
Ġcontent ious
Ġtro op
Ġretrie ve
Ġt ally
at ured
Ġp ensions
al ion
li ber
Ġprogram mer
ĠCr us
Le ague
Ġstake holders
ĠDian e
Ġs perm
Ġc ows
ĠD ash
ĠE rik
ra f
gg ie
Ġque er
Ġ195 6
Ġdistract ion
Ġmetaph or
ĠCharlott esville
L ee
on so
Ġd ess
Ġr anged
ob ject
Ġfore front
Ġlo oming
Ġfre ak
elect ed
ĠÏ Ħ
ĠMons anto
Ġg rit
ĠJ edi
li ent
Ġcoun cill
ĠTH C
Ġcorrespond ence
ĠHel en
Ġdepth s
ĠProte ct
ĠOw en
Ġ ï¿½
' :
E ver
Ġth wart
Ġha iled
Ġsh red
Ġ11 2
ĠSu ccess
W ow
ĠT L
ight y
Ġcap ac
Ġoper atives
ĠSc ore
Ġsuper st
Ġ Å
Ġl av
Ġaff idav
Ġid ol
Ġtur moil
ĠPed ro
Ġappar atus
he ard
ed u
Ġoff spring
ond o
ĠCom edy
urch ase
Ġassess ments
Further more
Ġlone ly
whe el
ĠProdu ction
ĠDra ke
F ar
P ath
in yl
ĠD ani
ian i
ident ally
ĠCom ing
Ġcatast rophe
Ġcort ex
Ġ Ã©
Y ear
st re
ĠF ear
Ġv ow
ĠG rowth
Ġacc use
ood y
ĠAm anda
Ġprint s
ĠProf essional
Pr ime
Ġcruel ty
C oun
g on
Ġt ant
Ġb isexual
Ġredu nd
Ġshut tle
Ġkid ney
Pr ice
Ġelig ibility
Ġprost itution
Ġcr ashing
Ġgrab bing
Ġash amed
an ol
Ġp ap
Ġmet als
Ġbo il
Ġdest ined
Ġâ ī
Ġfraud ulent
Ġiron ic
Ġgall ons
ĠTw enty
omed ay
olester ol
C amp
K en
ĠH uck
Ġspec ulate
ev ent
Ġap ost
ĠNot re
mark ed
Pro v
,âĢĻ âĢĿ
B Y
E st
Ġe man
ĠT rent
ĠT weet
ĠB oot
ond a
ĠBr is
af ia
Ġagree ing
ãĢ ģ
Ġshr inking
Top ics
Through out
Ġplaint iff
Ġadoles c
ac s
ĠO t
Ġcl own
ices ter
ĠAn cient
ĠBay ern
Ġharm ony
Yes terday
ĠDev ils
Ġauthent ication
Ġw ipe
Ġre play
Ġsm ashed
Ġgl ow
ĠReg ardless
Te xt
Ġpod ium
ĠKush ner
Ġs ung
be fore
ĠCan on
ĠGr ass
M ex
Ġst air
ĠW on
Ġmy riad
Ġ19 00
Ġmicro phone
Ġhur ricane
Ä ±
ĠS ugar
Ġwe ights
Ġstat istic
Ġaw aken
Ġembarrass ment
C ross
c ulture
y ers
Ġst acked
ĠV ision
ari at
ĠDet ails
C ON
P ublished
Ġo g
ĠS aw
us r
Ġv om
Ġcan s
ĠV o
En large
Ġintermedi ate
ĠCris is
Ġdiscont in
D eb
ad os
ate l
ĠH i
ĠH ugh
ĠN are
act ly
Ġbr ass
ĠAr s
Ġmod ification
Ġcur se
ĠRock y
Ġtele com
ĠKurd istan
Ġho ax
Ġdub ious
Ġrelent less
A BC
re v
ink le
Ġtrig gers
Ġdiscover ies
Ġnut rients
Ġindirect ly
Ġseiz ure
s il
Ġw anna
Ġto mb
im an
Ġer r
Ġresearch ing
Ġang el
ĠJud a
ĠJo in
ĠLink edIn
4 50
m g
Ï Ħ
ĠH ag
Ġj ugg
ĠTh an
Ġcr acks
Ġreal ization
Ġhit ter
Ġcomment ator
Ġaccum ulated
ĠQual ity
Ġende av
Ġnodd ed
Ġp ier
ĠF en
Ġun ite
Ġsc andals
Ġfl ame
Ġret iring
ĠCl are
Ġhard core
ĠGe off
Ġna ive
H uman
l ich
Ġt in
st ill
Ġon ion
ant ry
Ġch uck
Ġmar vel
y ll
or ie
Ġse gregation
ĠR apt
Ġpr inter
Ġple as
ĠAP Is
ĠTer rit
ĠBeng als
Brit ish
ĠEnem ies
Ġ ion
H ard
h ma
p atch
Ã ª
an ut
Ġl ag
Ġl ob
us ra
Ġsh attered
Ġind o
Ġgovern ed
IN T
ĠIntern al
t arians
ĠP irate
ĠZ imbabwe
tr ade
Ġunc ont
ĠUlt ra
ĠAbb as
Ġmerch ant
Ġgest ures
ĠS oph
ĠF ernand
ĠE M
Ġall ied
io let
Ġpret ending
Ġcelebr ations
ÑĤ Ð¾
Ġaccommod ation
Ġinfant ry
W C
g ie
ĠT aking
ind a
ĠV ern
Ġpri zes
ster dam
ĠCoun sel
Ġjump s
Ġhonest y
,âĢĻ âĢĻ
R IS
f ocused
Ġb ark
Ġh ats
Ġcomp uls
Ġun armed
Ġlike wise
Ġenc oding
Ġded uct
Ġlung s
qual ified
Ġlivest ock
Ġumb rella
Ġ 000
h ops
im o
ĠN J
ie u
15 5
Ġhun ter
Ġwithd rawn
ba um
Ġexch anged
ĠLi u
entin el
ĠBald win
t urn
Ġe cc
ĠD ance
Ġbr ig
Ġrep ression
Ġserv ant
Ġhop eless
Ġdiplom at
Ġforecast s
Ġcompat ibility
VID IA
R edd
ve red
ĠB ristol
ĠL TE
Ġle mon
Ġrem ed
ĠAn kara
Ġprop onents
Sec ret
Ġhook ed
Ġblast ed
Ġanarch ist
Semit ism
c led
l ings
t z
ut tle
ok a
Ġres olutions
Ġindic ators
Ġutil ized
Supp ort
Ġairst rikes
Ġre he
Ġg el
ĠD EA
ĠD iaz
Ġcont end
Ġrec urring
Ġpres ervation
over ty
met ry
ĠB uch
ĠP O
Ġcomp ilation
Ġspecial ty
ĠSch midt
ĠSim mons
Ġnarrow ly
Ġinterf aces
ĠZion ist
J ose
K evin
d et
Ġres h
Ġind oor
Ġplag ued
ĠCraw ford
J ew
ed in
ĠH aven
Ġ10 2
ci um
Ġpot ato
Ġlog istics
Ġunique ly
Ġdownload s
Ġuns ure
ĠIll ust
P ict
ay an
Ġsm ash
ĠMan it
ĠPart icip
Ġstret ches
Ġadvert isers
Ġdecor ated
Ġlun ar
Ult imately
Ġh ollow
Ġl ou
ĠF resh
Ġcan cell
Ġun pleasant
ĠAd obe
Ġsle pt
Islam ic
H y
Ġf ox
Ġdifferent ial
Ġleft ist
19 99
Ġcompet ent
Ġur gency
de velop
ĠSim ilar
Ġlif elong
ĠTro phy
V e
Ġy a
Ġcr unch
ĠVi enna
{ \
ĠS ize
ad ic
ĠC ord
ĠâĢ ķ
Ġ19 49
Ġlear ns
ĠPerson al
ĠZh ang
Ġaster oid
D ue
p arent
Ġb ool
Ġp uls
Ġth under
Ġl akh
ĠP rest
Ġtr ilogy
Ġpo orest
Ġrele vance
Ġchance llor
ĠLike wise
ĠMem ory
ĠRE AD
Ġremark ed
Ġfert ility
Val ue
N ick
Ġw inger
ĠR NA
ass is
ĠCom bat
ĠGu ild
ĠMount ains
G I
Ġhe x
ĠB orn
ĠP ars
ĠD owntown
ĠG addafi
ile aks
ĠMed al
Ġsusp end
Ġorganiz er
Ġvalid ity
Ġvolt age
L ocation
Ġm s
Ġh alls
Ġd un
ĠA part
ĠP TS
ĠSh ia
ĠEx cept
Ġtyp ing
Ġmyth s
Dem ocrats
. ;
Ġp ixels
ĠP ra
Ġgo at
Ġcont enders
ass ing
Ġtop s
ĠBr anch
Ġdest abil
ĠTechn ologies
Ġdump ed
Ġmamm als
Ġdisg usting
c am
c orn
p rotect
t imes
as se
Ġre print
Ġca fe
OR Y
ĠLen in
Ġopio id
k owski
Ġs aga
Ġb ourgeois
Ġhe ft
ĠIs is
Ġmark ers
Ġgl orious
ĠCon c
ĠMan uel
Ġcop ied
Ġthank ed
ĠNob le
ĠBudd ha
Ġmad ness
pher d
Ġpund its
F ederal
w ic
Ġt am
ĠC E
qu in
ass ed
ĠSh ot
ĠZ omb
Ġfore see
Ġsal ad
ĠRec ently
Ġir rational
Res p
Ġculp rit
) ?
K im
L ou
c p
ĠT umblr
ĠC ous
ĠL ance
Ġreg ression
Ġimp aired
Ġ10 3
ĠLeg acy
Ne ill
Ġcongress man
ĠMaur ice
Ġconting ent
Bit coin
Ġf aint
ot on
ct ica
ri o
ĠG ir
ĠO val
ĠOb server
Ġstaff er
ĠPer fect
ĠDes ert
Ġframe works
Ġ195 3
De cember
Ġillness es
Ġthri ving
ĠCurt is
W il
c ision
ĠG ET
Ġout raged
Ġpo inter
Ġtot als
Ġcirc ulated
ĠKore ans
Ġspl ash
ĠSol o
Ġmel ting
Ġnin ete
ĠThrough out
Ġfundra iser
Ġsod a
Ġiter ation
Ġunderw ent
S orry
m ove
Ġab normal
Ġsp ider
av an
Ġfire works
Ġexpend itures
ĠAub urn
a unch
Ù Ĩ
Ġst alled
ĠH ernandez
em ade
ĠK oh
Ġturn over
Ġemploy s
Ġbad ge
ĠReg ist
Ġbur ial
Ġost ens
openh agen
L ess
f iction
Ġon set
ĠP E
oc ations
Ġplay ground
Ġ19 39
pro ject
Ġburn s
Ġrig id
Ġec ological
Ġstamp s
Ġexpend iture
P o
b ishop
r itional
le aning
ĠP OL
ĠG L
qu arter
reat ment
Ġinter val
ustom ed
ĠPan el
Ġkidn apping
ĠProt ocol
Ġfest ivals
F rench
I ll
N early
Ġt apes
ĠP ierce
ĠH our
Ġpo orer
Ġdec omp
Ġbu ys
Ġret ention
Ġcommun al
ĠSp icer
Ch icago
Ġstreng thening
Ġiniti ate
ĠAC T
ĠCy cling
Ġabund ant
Ġmiser able
w ire
Ġw olves
it ating
ĠA FC
ĠC opy
Ġst ing
ĠD uty
Ġapp les
the med
Ġplace bo
ĠBl ade
ĠCon way
Ġoil s
Ġhypot hetical
ĠRoy als
Ġ ï
G ET
m ia
ĠM R
ĠP ine
ĠG ul
Ġal lev
ĠHe ath
Ġnight club
Ġdoub les
Ġske let
ĠPR O
ĠInvest ment
Ġtang ible
ĠSalv ador
F ore
M ur
m oon
ĠS ikh
Ġfor ged
Ġex ile
Ġmon arch
Ġob ese
Ġ7 50
Ġsl ate
IT E
Ġbomb ings
ĠDec l
Ġ195 7
Ġintr ins
! '
B P
Ġpro claim
ĠCh arter
ave z
Ġsuccess ion
board ing
Ġfalse ly
ĠIr ving
Ġcos mic
Ġarbit ration
ĠKind le
Ġdecentral ized
d oc
is i
Ġg it
ĠS leep
ĠC ertainly
Ġst igma
ag le
Ġsh am
200 2
AC A
Ġdraft ing
wart z
ĠNort heast
Ġwith hold
our ing
ĠAd mir
ĠDay ton
kins on
Ġforg ive
Ġunders c
S und
ent ric
Ġcor related
Ġpun ched
ĠAny thing
Ġfranch ises
Ġunp aid
Ġindu ce
Ġreconst ruction
Ġst all
Ġv apor
Ġmilit ar
Ġstri ve
18 0
Ġbud dy
Ġsurround ings
Ġheight ened
Ġaccomplish ments
Ġsuscept ible
Ġv andal
Ġco hes
Ġmechan ic
Ġyell ed
Ġhel pless
ĠNep al
NAS A
B at
P rior
b uster
f aced
ĠN G
ĠN an
ĠK iss
Ġche ek
Ġneg lected
Ġbur ger
yr us
ĠBra ves
ĠViol ence
t ar
Ġto dd
im ation
ĠF act
ĠO L
ov ascular
Ġsign aling
Ġair lines
Ġsuper star
Ġanticip ation
Ġobs ess
W estern
Ġl id
Ġpro w
og s
be h
Ġi i
Ġhon ors
ĠDis covery
Ġpredict s
part isan
secut ors
Ġconver ting
Ġaffili ation
Ġtor rent
Ġpersu aded
ĠHung arian
in ters
Ġm um
Ġhe ights
ĠM ead
ĠM oses
ven ant
Ġsound ing
sec ure
Go vern
Jan uary
Ġtub es
M aking
i u
Ù Ĳ
Ġb idding
ac a
ĠH assan
ĠR ac
Ġsh iny
Ġj oked
Ġsc out
Ġrep roduction
Ġposs essions
Ġsuper vision
Ġ195 4
ĠEll en
Ġdisag reed
ĠOper a
ĠQuest ion
Ġweaken ed
ĠNare ndra
H E
c ould
Ġs ir
Ġr uth
ĠL ay
Ġinter ceptions
ott a
25 6
Ġmer ged
Ġprohib its
C ould
j son
ĠS orry
ig ators
ĠF ury
Ġ19 10
Ġpr ince
Ġopp oses
Ġgl oss
Ġmult inational
ĠSch ultz
Ġdownload ing
,' "
ĠBeh ind
Ġenvelop e
P ER
f ires
w s
Ġo live
Ġb iblical
Ġm ansion
st atic
ro b
ĠT X
Ġst umbled
ol ation
ĠE lder
Ġsy rup
stand ard
Ġcompos er
ot le
ĠO UT
ov y
Ġcommun ism
Ġaccess ing
Ġworth while
Ġ< -
ĠFrank en
Ġshr ink
Ġhint ed
D ark
Ġbe lly
ld a
ĠF ell
ess a
Ġcl o
ĠV ote
iss an
Ġcar c
Ġbit coins
ĠCo ver
rain e
ĠBru ins
Ġmortg ages
N umber
V ict
ĠU E
Ġlaw maker
Ġground ed
Ġund en
Ġdraw ings
Ġinstall ment
ĠAdd itional
ĠRel igious
Ġhorm ones
ĠMour inho
C redit
ĠB urg
ke f
Ġspecific ations
ĠEv ents
m or
r ue
ed a
Ġf ade
ul ed
oun ge
br ance
Ġbi ography
Ġtruth s
Un iversity
Ġrestrict ive
Ġhero ic
Ġfant as
Ġren amed
Ġmarch ing
enz ie
f ashion
m ails
Ġg y
ĠS ans
ol ia
Ġch ambers
be y
Ġprop oses
ĠBre aking
ĠKenn eth
Ġstap le
Ġeffic acy
ĠRhod es
G reg
Ġp oker
ar is
ĠC W
ĠB ert
Ġv ine
Ġrest ruct
ĠÂ §
ĠDav ies
Ġaspir ations
ĠBuddh ism
S B
Ġst oring
Ġgovernment al
Ġgrab s
ĠBeng al
J UST
U RE
ĠO ption
Ġpo pped
Ġ10 7
Ġ10 8
ĠWar rior
Ġclean ed
ĠBel fast
Ġcollabor ative
Ġincorrect ly
J es
Ġg ays
ĠS end
ĠG erald
ĠL ac
Ġwor s
Ġsupp ression
ĠâĨ Ĵ
ĠJuda ism
d ue
Ġf rog
ĠS hip
ĠD iff
te chn
Ġmon key
com b
Ġir regular
Ġexplo its
Ġheter osexual
Ġtelev ised
Ġrecons ider
I AL
N OT
Ġc ues
ĠN est
Ġper ceptions
ĠIm port
Ġexc uses
Ġdecre ases
Ġsubsid y
Ġelev ator
Ġbrows ing
Ġubiqu itous
Y C
Ġm ast
ĠT SA
op ened
Ġv inyl
Ġform idable
Ġshoot ers
ĠAv ailable
Ġcounsel ing
Ġrehab ilitation
Ġye ast
t arget
or ian
Ġ3 000
Ġhead phones
Ġmiss es
Ġimag in
ĠYOU R
Ġe ject
Ġde ported
ul atory
ĠN L
Ġte asp
Ġbr akes
ĠAr row
Ġcampaign ed
ĠDem s
IS S
ĠRes olution
Ġinteract ing
Ġcrus hing
Ġric her
Ġcyn ical
B rian
if ted
ĠN om
Ġdis charge
Ġpop e
ĠZ oo
ĠSouth west
Ġemer ges
ĠAg es
Ġprogress ives
Ġpen is
Ġeval uating
Ġmit igate
Ġs omeday
right s
Ġharass ed
Ġovert urned
Ġprepar ations
ĠCustom s
ĠSor os
affe ine
Ġtherape utic
Ġse ated
Ġatt achment
ĠZ ucker
Ġur ine
Ġathe ists
ĠCoff ee
D ist
R ather
l ain
v able
Ġsystem atically
ĠCom ment
Ġest e
ĠMy ster
Ġfair y
ĠJackson ville
auc as
Ġindef initely
Ġm aid
Ġe ch
ĠG olf
per ing
oy a
Ġcontin uation
Ġcountry side
Ġste ak
lant ic
ĠPre view
Ġweigh s
Ġrelie ved
Ġpseud o
agnet ic
J S
d ies
r h
Ġfor fe
ĠR ew
Ġ19 55
ins ky
ĠSy nd
ĠGe Force
ĠEm irates
BS D
Ġdin osaurs
p hew
Ġcl ay
Ġpart ition
Ġsc oop
Ġpol ite
ĠCom put
Ġsent iments
bl ood
Ġtrain er
ĠLab s
Ġrum or
Ġstretch ing
u ador
ĠM T
um bs
ub a
Ġco herent
Ġshort ages
On line
ĠGu ate
Ġrev olt
Ġconcept ual
Ġearn est
ĠFort une
H R
ul ators
Ġro gue
.. .<|
ĠAn s
ĠBar rett
ĠNe o
Ġvill ains
Ġspons orship
Ġrational e
Ġd ictionary
Ġpro claimed
ud s
rent ice
Ġmight y
Ġsqu at
Ġ* /
Ġalign ment
Ġswift ly
en za
Ġn ud
ĠD HS
ĠN D
Ġ: )
Ġener get
ĠMe yer
AM Y
Ġradio active
Ġstim ulation
Ġunanim ously
Ġplum met
A ri
h m
he id
Ġb unk
ĠH os
op ed
ex pl
Ġopp ressed
ĠJohn s
ĠApp lication
ĠConserv ation
Ġscreens hot
import ant
Redd it
b ons
Ġgood bye
AR S
Ġreact ors
Ġbom bers
ĠDog s
F oot
Ġs ins
Ġ( .
ab ee
ĠN ear
ĠE asy
its u
Ġcar ved
uck land
wh y
An swer
cript ions
n umber
Ġo lig
ĠB il
if ax
Ġse af
ess im
iv or
lic ations
Ġdown side
Ġsub missions
ret urn
AN G
Ġblog gers
Ġdepart ed
a ft
Ġover c
Ġbr ace
ĠAd elaide
Ġfilm makers
Ġspeed ing
Ġstuff ed
Ġpil gr
Ġinject ed
Ġunl ocked
Ġzomb ies
ve ment
Ġun identified
ett i
Ġrenew al
Ġnic otine
ĠWy oming
Ġpup ils
Ġfreel ance
ĠInspect or
Ġinad vert
f ont
h ash
he rence
am ic
ĠE N
ra its
Ġdis able
Ġsuccess ive
Ġparent al
ĠPer u
Ġphil anthrop
b ag
Ġb ounds
ve t
ĠM illion
ĠB TC
ĠJ azz
ub s
Ġoff ender
ĠV as
Ġeven ly
ĠBut ter
ern ick
Ġvers atile
Ġant agon
Ġess ays
Ġgrad ual
!! !!
ablish ment
H I
ĠT IME
ĠB om
ĠP am
ĠP retty
ag her
ĠE R
Ġcan vas
Ġcl oses
Ġac ids
Ġmin erals
ĠRe venue
Ġmed d
Ġfr inge
Ġdr astic
Ġcross es
Ġobser ver
Ġrat ios
Ġadvert ised
Ġexagger ated
ĠProtest ant
ĠZimmer man
ĠBris bane
u ously
Ġa rom
ĠS kin
ĠC openhagen
ĠB erry
ĠW id
Ġal umn
land er
Ġgoal t
ĠEn joy
En ter
ĠScient ific
Ġcease fire
g ae
p sy
Ġl b
ĠR ising
ĠG w
Ġsl ap
Ġreject ing
ĠMot ion
Ġcock tail
C ustom
W al
al ong
st y
se lect
ill ions
Ġne phew
Ġchar ming
Ġsol itary
ĠYork er
Ġsuper natural
ĠGod s
ĠTor res
Ġintimid ation
Ġb un
ir teen
In side
Ġpath ways
coh olic
ĠPsych ology
ĠF ri
Ġk ings
so lete
ĠAmeric as
Ġsm iles
ik ed
Ġexist ential
Ġdest iny
Ġtweet ing
Ġpestic ides
Ġjuven ile
L ive
Ġt sun
Ġex h
oc hem
ber ries
Ġam en
Ġmod s
Ġspec ulated
h ig
Ġfor c
ĠH oney
ous se
ĠAm sterdam
Ġrul ers
Ġfall out
amb urg
ĠFranc o
Ġinstruct or
Ġloud ly
Ġproport ions
Ġconce al
count ry
M ond
f inals
s cient
ĠJ ur
Ġrem ake
ĠAss ass
Ġrad ius
ĠWat ers
g io
Ġm esh
st ad
ĠB oss
ĠB ened
ĠN PC
ĠG ur
Ġimp ending
ik ers
10 2
ris y
Ġsw ear
anger ous
Ġunanim ous
educ ated
P O
b ands
ĠP owers
ĠE L
Ġtr aps
og ene
IN K
ĠOs borne
ĠFair fax
Ġsurviv or
ĠEug ene
Ġst d
ĠR SS
ĠF REE
ĠL ud
ry pt
Ġam ple
Ġsur geon
ĠJohn ston
Ġdesc ended
ĠMon roe
ĠJack ie
Ġprem ie
Any way
Sen ate
ĠLuck ily
B LE
S ave
Ġs outheast
Ġw ax
st ant
ĠT ah
Ġcl utch
Ġdef ects
ĠNew man
ĠLe eds
Ġsl ope
Ġgrand children
Ġsett ling
De ath
Ġaccus ation
Ġbe aches
am my
ĠO T
Ġsp ies
com merce
inc re
Ġnorth west
ĠSant orum
OW N
Ġvalid ation
ĠAntar ctica
Ġdepict ing
ĠSchne ider
! ),
re ne
Ġf al
ĠL iz
Ġsk ies
Ġland sc
Ġsw all
Ġremember ing
Ne ither
Ġmyth ology
Î µ
en cia
Ġh ug
ott est
Ġmass ively
Ġresist ed
Ġarchitect s
ĠAur ora
G ov
g age
s or
Ġf ost
ĠW yn
ĠD ell
Ġsupp lements
ex isting
Ġedit ions
Ġver ge
cho ice
cre ate
Ġdilem ma
F un
Ġ2 20
Ġwho pping
Ġph osph
Ġrepl ies
che wan
Ġtransform ing
ĠEp ic
Ġfrag ments
Ġauthent icity
ĠTam il
Ġatroc ities
d oes
in th
Ġp act
Ġtrans plant
Ġkill ers
Ġdoub ling
ĠBay lor
Ġthe ology
Ġwas ting
ĠD LC
ĠF T
Ġsp ine
Ġinter ception
ĠLe vin
ĠFor ward
Ġdesign ation
Ġrespect ful
Ġrev ive
Ġdiv isive
Ġaw ake
spe cial
........ ..
Ġthank ful
ĠPrem ium
ĠMir ror
Ġscan ning
atern al
A ud
Ġc ros
ĠA ce
ĠG em
Ġle v
Ġcl one
ĠLe ad
ĠZ ika
Ġpat rons
Ġund ec
Ġcris p
ĠMah m
Ġtiss ues
L in
Ġl enders
ĠR ise
em er
com pet
Ġdeep est
lin er
Ġign ores
Ġdict ate
Ġcyber security
Ġphotograp hers
ĠSerb ia
l ate
Ġspec s
Ġpolicy makers
Ġmess y
Ch arl
ĠRel igion
Ġsad ness
cr ime
ĠRef uge
Ġspat ial
c ano
ĠM Hz
Ġchar ism
ger ald
ĠMe ga
Ġreb ound
ĠWalk ing
ĠMid west
ĠLam ar
Israel i
Ġsmugg ling
Ġmaj ors
C y
R on
Ã Ĥ
ĠN OW
ĠL I
ĠU FO
ĠK ris
Ġfoc al
Ġadjust ing
Ġinnoc ence
ĠList en
Ġsab ot
I ron
O pp
en ment
or f
et ics
art en
Ġper former
ef ined
ĠCl aire
ĠCor nell
Ġstation ed
Ġinqu iries
Ġcler k
Intern ational
Ġo t
Ġal ley
ĠJ ail
Ġinc arn
ass er
Ġar ises
Ġsc aled
ex per
................ ................
Ġprofound ly
ĠFle et
ĠBuzz Feed
ĠS hen
ig ger
ĠP okemon
ĠD y
ĠTh ing
Ġsc ans
Ġacc ustomed
Ġsur real
ĠPh ase
Ġbit ch
ĠMac Donald
Ġmanip ulated
Ġincap able
n ick
o it
w ild
Ġt enth
Ġe lic
ĠS it
Ġwhere by
Ġequ als
Ġcho pped
Ġconflic ting
ĠLa unch
pat rick
Reg ardless
ĠCelt ics
Ġbod ily
" ]
Ġa ka
ĠB ast
Ġprov ocative
Ġsoc ietal
Ġcirc ulating
ĠBeat les
Ġlau ndering
T en
he avy
ĠA AA
ra red
Ġinv asive
the ir
Ġsil icon
Ġdiss atisf
S ad
c od
l ove
Ġco erc
iss ue
Ġhigh s
IS A
ĠNe igh
Calif ornia
r ine
Ġl iable
ĠC AP
ĠW ash
Ġbeh old
osp ace
Ġspect acle
Ġdismiss al
Ġgra ffiti
ĠAR M
Ġdisrupt ive
ĠJoy ce
Ġdatas et
Ġm int
ĠP v
Ġ( (
te enth
ĠG IF
eff icient
Ġge ographic
Ġgar nered
Ġcraft ing
Ġflood s
ĠGall up
Ġacclaim ed
p resent
s afe
{ {
ur rencies
ĠR ena
Ġsh ining
Ġqu ar
Ġref rain
ĠSh ap
Ġir responsible
ym es
Ġcouncil s
ĠLyn n
ĠHig her
Ġdisreg ard
Ġmisdem eanor
Sund ay
\ "
Ġex pelled
Th ird
ĠOff icials
ĠAng lo
Ġver ification
Ġarm our
bour g
ĠOrig inally
char acter
Ġn g
Ġch olesterol
any e
Ġ10 6
ĠSh awn
ĠMin ority
Ġalleg iance
me aning
acc ount
Ġvoc abulary
ĠBul gar
Author ities
P N
d ain
h awks
s rc
on ce
Ġh ates
Ġv oy
qu et
Ġsupp lier
Ġinter vals
Ġlim itation
Ġguess ing
ĠFe el
Ġevac uated
ĠRap ids
ĠCelt ic
Ġincarcer ation
H am
Ġl ure
ĠH icks
Ġ19 41
Ġref resh
ĠMar athon
Ġassess ing
Ġschedul es
ĠMarx ist
M ont
T ech
t ag
Ġd ock
Ġsh arks
ĠK em
Ġdem ocrat
Ġanim ations
person al
Ġpharm ac
Ġarc ade
Start ing
ĠGOOD MAN
C raft
W ait
p rop
or ously
ĠS V
Ġrem oves
Ġpres crib
ĠGr ade
Ġcoun ters
ĠPer th
ĠConst itutional
ĠGen esis
ĠCard inal
ĠBah rain
Ġc emetery
Ġl akes
ĠD ocument
Ġsal v
ĠFe atures
Ġrent ed
Ġaccident al
Never theless
priv ate
Ġblu eprint
Ġpecul iar
Ġf ills
Ġ19 46
Ġexpl ores
ĠAb original
rel igious
Ġconserv atism
just ed
OT O
Ġbrand ing
ĠJoe y
ĠAndrew s
ĠNAS CAR
Ġlapt ops
Step hen
E p
W ater
t ics
ic idal
ut ory
ĠF X
ĠF emin
Ġnot ions
Ġinc idence
ush i
icult ural
Ġarchitect ural
Ġplug ins
Ġpredec essors
Ġnit rogen
Mem bers
asket ball
i ets
Ġen forcing
Ġper t
ĠCom ments
Ġdem ons
ĠElect oral
ĠIndust ries
Ġaccum ulation
Ġreserv ations
ĠYug osl
ĠOsw ald
Ġd ur
ĠS ettings
Ġplay able
Ġdisc rep
ĠCl iff
Ġprotest ed
Ġcongest ion
y en
Ġo v
Ġun in
ĠRes earchers
Ġinfect ious
Ġveget arian
Ġastron omers
ĠWrit ing
Ġs or
ĠM oy
ang ular
Ġrem edy
Ġrun time
be e
aff er
ĠTe en
Ġdefin ite
Ġpsy chedel
B ur
Ġd amp
ĠB rief
ĠW ald
ĠL akes
Ġpl ague
Ġsim ulations
Ġcamp ing
Ġauthor ization
ĠOff icers
Ġsens ory
B rad
F und
g ithub
Ġf ier
st ru
ĠD NS
Ġac oustic
Ġgl owing
ĠMan ufact
Ġcomment ing
Ġvill agers
Ġge ek
Ġroll er
Can adian
Ġundermin ing
threat ening
Ġchick ens
olith ic
vid ia
s end
ac iÃ³n
ĠI PA
ĠS aid
ĠA zer
Ġ2 30
11 2
Ġprep ares
Ġexcept ionally
ĠMoh ammad
Ġmail ing
Sim ilarly
ĠHann ah
ĠSebast ian
Ġsurg ical
r aining
Ġch illing
Ġem pt
Ġmon keys
let ion
ĠPod esta
G ar
L ight
Ġo mn
Ġb aked
ĠD uck
per cent
ish i
Ġinv aded
Ġem ission
ĠCong o
ĠMe chan
Ġwild erness
Le ft
ĠRock et
Ġneighbour ing
Ġstub born
Ġw aking
Ġb ree
Ġp anc
Ġm ans
ot he
ĠR unning
ott i
ĠMay weather
gress ive
ĠMy ers
ĠPat terson
erc ise
ĠStand ing
Ġstimul i
Ġgodd ess
) [
c irc
l ia
y et
at ri
ĠD ex
em a
ep ernick
Ġworld view
Ġgr ammar
Ġconcer ts
ĠSm ash
ih il
Ġrain fall
Ġfort unes
Ġpoison ing
Ġdistur bed
cap ital
Ġcontinu ity
. *
R ock
c ule
Ġd itch
Ġl ocking
ĠM K
ĠB ag
ĠD ifferent
ĠR andom
ĠG ospel
act ivity
ĠCh avez
Ġbu cks
hen ko
Ġpack et
ĠComp anies
Ġsimpl est
J osh
e en
re z
Ġs ized
ĠH outh
ĠRe becca
Ġdev ote
Ġmicro bi
ĠJo an
Ġincons ist
Ġundergrad uate
Ġc ove
ĠC ain
ĠL il
Ġper il
Ġpo pping
ik ipedia
ring ton
Ġexecut ing
Ġrac ially
ĠBrew ery
Ġrans om
ĠPunj ab
O ld
Ġm udd
Ġr av
Ġr app
ĠG y
ĠG ut
Ġind icted
ĠFl ag
ĠCal vin
Ġrob bed
ĠSuper ior
Ġunivers ally
ĠGar rett
Ġgig antic
ĠB enson
ore m
ĠF eed
Ġsu ing
Ġlaw ful
Ġsoc ks
Tr ue
ĠChar acter
ĠSant os
Ġcertific ates
ĠArmen ia
Ġsubmar ines
Prof essor
Ġjewel ry
Ġp ads
ĠT ank
ĠC ec
ĠM ist
un ion
Ġfam ed
Ġexpl ode
Ġrest oring
Ġcann on
Ġcrack ing
Donald Trump
bel ief
Mus ic
Ġjurisd ictions
Ġaggrav ated
Ġaffidav it
ĠR ol
Ġwork load
ĠAr ms
ĠLe icester
Ġmar itime
ĠCol bert
Ġ11 4
Ġ25 6
de ath
Ġcomfort ably
ĠRevolution ary
Ġdiscrimin ate
J ason
Ġb aff
ĠK abul
ace y
ĠSte ele
ON D
ij i
Ġmillenn ials
Ġgluc ose
Ġn as
Ġwh ip
Ġat om
art z
Ġnow adays
âĢ¦ "
17 0
ĠInter view
Ġconstruct ive
Ġdescend ants
D ig
c ats
d ependent
it an
ĠK ur
Ġcl usters
Ġreg istry
ĠWh ole
ph oto
11 5
IN D
ĠPer iod
ĠCor rect
ĠPay Pal
ĠRest aur
ĠColon el
C arl
h n
st ro
Ġcon quer
ĠN iet
Ġsh ale
ric ks
ĠLind sey
Ġcub ic
Ġproc ure
C ase
o i
r ice
en abled
Ġm und
ĠT as
th ose
ĠSt yle
Ġ19 17
Ġexp ire
Eng lish
Ġpir acy
m aid
ĠA id
ks w
Ġdi ets
ĠMy an
Ġlif es
Ġing en
ĠKat ie
Ġhal ted
ĠHann ity
Ġreprodu ce
Ġdisproportion ately
h on
Ä Ł
Ġsu cks
Ġad missions
ib a
ĠSh ore
Ġcoll ar
Ġgate way
Pre vious
N P
l aughs
it ant
ĠS uff
et r
ĠA uckland
ign ant
Ġsc outs
orm an
oss ier
Ġext inct
10 4
Ġur ges
ĠRec ent
Pl ayer
Semit ic
Ġgard ens
Cle arly
F ort
W ed
Ġl ar
ch in
ĠH ank
ĠE z
ff ield
are th
com mittee
cl ose
10 3
Ġair ing
12 8
Ġgun fire
ĠDet ective
ĠIndones ian
Ġtoug hest
######## ########
Ġblat ant
pict ured
Ġschizophren ia
A H
t v
Ġt apping
re b
Ġr ude
Ġcan cers
ĠIn come
ĠV ir
ov able
Ġsub set
Ġ18 5
ĠX ia
ĠCongress man
ĠDo om
ĠAdd ress
ĠChand ler
Ġs lick
al ine
us ually
ĠR an
Ġbl oom
Ġmem e
Ġsal vation
Ġ) )
ĠAny way
Ġaver ages
ĠRoc kef
Ġabrupt ly
l ide
Ġo z
Ġf uzz
ot ism
ĠT witch
ast ics
Ġun official
Ġapp end
Ġbl onde
li able
17 5
avor ite
ĠCB D
ĠCu omo
v on
Ġt ones
ed ience
Ġn ap
ver ts
ĠP BS
Ġal erted
Ġnew born
ĠHe in
omet ric
Ġkind ness
reg ulated
ĠNE W
r anking
Ù Ĵ
in ness
if ts
Ġpl ac
ru gged
ne eded
man agement
ody nam
Ġz oo
ĠNor a
Ġfulf illed
Bre aking
D D
E arth
en berg
Ġin mate
ĠT W
ĠB ass
ĠR us
ub arak
gr and
ĠSh arks
Ġclos et
Ġcommercial s
Ġsouth west
Ġoptim ization
Ġmagn ificent
D ri
Ġs ands
ar us
Ġd wind
Ġl en
ĠJ ak
Ġx en
Ġconfig ure
Ġdrag ging
Ġgrav itational
ĠResp onse
ĠLaure n
Ġmoist ure
ĠMyan mar
( $
ĠI F
Ġad vertisements
Ġ19 42
Ġdr ills
Ġjud iciary
Ġste er
ĠCons ult
Ġdisp ers
Ġ195 1
bur se
Ġfemin ine
Ġhall uc
ĠJac obs
ĠNi elsen
ĠUSS R
Ġdictators hip
ĠC ert
art icle
ĠE manuel
Ġch unks
red its
ĠSt rategy
Ġrem n
Ġ10 9
Ġdevelopment al
ĠDis play
Ġcommer cially
ĠGood man
Ġinstinct s
Ġprolifer ation
G H
I tem
Ġp ent
Ġbe verage
ĠS ally
ĠB oulder
Ġins ulin
Ġmed als
ĠÂ Ĺ
Ġ) :
Ġappl ause
real DonaldTrump
ĠRel ated
Ġbrew eries
Ġlect ures
Ġevac uation
Ġmatern al
Ġp ac
ĠJ ump
Ġout we
20 6
ĠPl atform
Ġ15 00
ĠBur ton
LA Y
Ġimper fect
Ġouts iders
Ġtempor al
Ġcondemn ation
ĠWATCH ED
Ġoverr ide
Ġt abs
ew orthy
Ġper imeter
Ġpet ty
Ġconfig ured
ĠArch ive
Ġpione er
Ġesp ionage
Ġpiv otal
Ġs ou
ic hel
Ġon ions
ĠP oor
ĠD ear
ĠL un
ast ro
Ġconf essed
Ġmis ery
ĠUnder ground
ĠHans en
H en
c ritical
Ġh amm
oc ese
Ġwor m
Ġstart ling
Ġsur rog
ĠCom plex
10 6
âĢ¦ ]
Ġinj unction
Ġtele communications
ĠMic key
Ġinterpret ations
Ġfulf illing
ĠOrig in
ĠJoh ann
Ġgrat itude
ĠEc uador
Ġbigot ry
l ists
Ġf ried
ic ular
ĠM TV
20 19
Go vernment
Ġmedic ines
Fr ance
Com ments
Ġscreens hots
ĠVen us
Ġtheoret ically
Ġoun ce
ĠLic ense
ĠCous ins
\ -
f ounded
h l
Ġp essim
ows hip
Ġdi agram
Con nor
Ġproceed ing
ĠChap man
Ġle isure
Ġpl ight
Ġpe aks
ord ered
Ġdisp atched
ĠGold berg
Go ing
ĠAv iv
rac use
German y
Ġcardi ovascular
S ky
W AR
w on
ĠT yson
Ġhe mp
Ġind ications
oot er
Ġsal mon
Ġske leton
ĠFred die
Ġecosystem s
ĠCON T
Ġprest ige
. (
R B
Ġf oes
ĠT ool
ĠP ep
ĠW itch
ĠD ew
ĠG ri
ich i
Ġdis comfort
ail ure
ĠV oy
AN N
Ġfast ing
Ġorganiz ational
Ġ195 2
Ġfasc ist
ĠRay mond
ĠFront ier
ĠMult i
Ġjihad ist
ĠMoroc co
ilib rium
P ark
ĠR um
ĠJ ung
ĠV C
Ġfr iction
Ġresp ir
Ġvari ability
Co in
ĠHell o
utter stock
B ad
J udge
Ã ¯
Ġd as
ĠB un
ĠO re
.âĢĿ )
Ġfin anced
Ġhome work
ĠSc out
Des ign
Ġphilos ophers
Ġprin cess
ĠFar age
Ġbureaucrat ic
ĠPubl ishing
Austral ia
coun ter
D F
P E
S n
p roduction
t ri
v d
id ad
ĠS ax
ĠW it
ĠW enger
ĠF it
Ġent r
Ġsl iding
Ġexc luding
ĠNot ice
Ġregul ating
Ġge ography
rend ered
Ġhypoc risy
Short ly
ĠRena issance
C BC
x imately
ĠP ip
est ablished
ĠE ston
ĠK ub
Ġend urance
ruct ions
AN K
ĠSyri ans
ĠArt icles
def ault
Ġcondem ning
Orig inally
ĠAthlet ic
W R
æ ĺ
Ġc ant
ĠT ut
Ġst ared
ri ented
ĠG S
ra ud
au f
ĠSt am
ult an
Ġev id
ĠTr ack
for ces
Ġpack ing
Ġund o
hib ition
Ġdecre asing
ĠAz ure
Ġritual s
represent ed
ĠRut gers
c reat
f ig
it em
ĠP resent
Ġch lor
Ġinc ub
ĠHe ather
rap er
ĠWill ie
Ġeth ic
Ġprinc ip
Se ason
ĠMcG u
Ġs acked
Ġf aded
ow ler
se ys
ĠM ell
all ic
Ġpe as
Ġobject ed
Ġexcell ence
ĠStand ards
ext reme
Ġlaund ry
ĺ ħ
ig rant
ĠC ed
Ġhe ap
od ore
Ġpart nered
Ġfl ipped
ĠRom ans
Ġsn ipp
aked own
isher s
ĠRel ic
Ġutil izing
Mart in
Mond ay
Ġyear ly
Ġmem br
Ġrul er
Ġrock y
Ġdeploy ing
Ġprol ific
Ġdiscour age
Ġnotor iously
Ġc it
Ġd urable
ĠT ag
ĠC oul
ĠP u
ĠW ILL
od us
Ġpar ole
Ġcoll usion
Ġpuzz les
Ġceremon ies
ĠSaskat chewan
ut ation
od ic
ang ling
Ġimp uls
Ġass im
ĠAr ist
Ġweek day
Ġclass ics
ĠCon nor
Ġgen res
medi ately
ĠGod d
Ġpair ing
Ġsurpass ed
Ġimpe achment
ĠDrag ons
Ġspont aneous
A cc
Ġun aff
ĠCh anges
ov sky
ush ima
aid a
Ġboard ing
Ġhands ome
ĠBrad ford
Ġunfair ly
Ġresent ment
e g
j ah
Ġs q
ig ar
Ġpro se
oc ating
ĠE ld
ors che
Ġpol ished
Ġinv oked
raft ed
Ġcompet ed
Ġpen insula
Ġmotiv ations
Ġdial ect
Ġbacter ial
oj ure
Ġdwar f
ĠUg anda
in put
ĠP ixel
ĠW rite
pp s
Ġstr ongh
ĠCom mercial
ĠSh annon
Ġra ided
Ġprop het
Ġlim bs
OS S
Ġtend encies
Con nect
Ġmut ation
ĠBur ger
ĠSov iets
ĠArch ives
Ġdiscrimin atory
Ġcoh ort
C ard
r anked
ĠBl ocked
Ġlat ency
Ar ch
ĠMarket ing
Direct or
E ast
F lor
J ournal
W all
Ġun ins
ĠSt rat
Ġam azed
Ġgl ue
ĠSe vent
ĠMo zilla
Every body
Ġid le
ĠEconom y
Ġunre asonable
Ġcommem or
Ġdisgr ace
ĠStrateg ic
cigare ttes
I r
f act
p ensive
s kin
z ero
Ġt ipped
Ġb apt
ĠT ucker
ĠH av
ĠO g
Ġins iders
Ġsl ash
Ġemploy ing
Ġ} ;
gl ass
ĠWag ner
ksw agen
C oll
d uty
im on
ĠG E
og rams
Ġsp ur
man ned
Ġhom emade
ĠSpe ech
Ġimpl ication
ĠNic olas
Ġrevers al
ĠFitz gerald
Ġpractition ers
m ary
ol iberal
ĠL oren
em pt
ome z
tle ment
Ġtest ament
Ġmat urity
arr ison
ĠHam mond
ĠChurch ill
Ġexperiment ing
Ġexplo iting
ĠVict ory
Ġvib e
Ġadmin ister
Ġrestrain t
. /
L ate
V I
p ared
Ġf eder
id ate
ĠC aucas
ĠO C
ĠO dd
reat h
get own
St and
Ġpar cel
ĠQu ant
Ġsle w
Ġge op
Ġbull pen
Ġethnic ity
ĠExt ra
Ġmemo ir
ĠSpot ify
Ġperv asive
L uc
P an
Ġa we
ĠA CA
ĠV it
ĠPh arm
Ġant it
att led
Ġnar ciss
ĠOs ama
Ġinsult ing
M ary
Ġall erg
Ġlast s
Ġpass ages
Ġtri angle
Ġpast a
ĠBill board
ĠSol utions
Ġtom ato
Ġoversee ing
B on
Â ½
Ġs igh
ĠS I
Ġr abbit
ĠD re
pl er
ĠPro perty
ett es
Ġconsult ed
Sen ator
Ġunexpected ly
Ġ>> >
link ed
Ġpupp y
ĠMig uel
o in
p ent
Ġc ough
ĠD ion
ĠV ers
ĠSc ots
ĠHar old
ĠÐ ¾
Ġrestrict ing
Ġdomin ating
Ġyouth s
Ġmand ated
Ġmunicipal ities
f acebook
Ġas semble
ĠIs n
ĠRep orter
ĠSy racuse
ran ch
Ġgrand parents
Ġclar ified
S ean
ld om
Ġch ased
Ġlear nt
Ġaut obi
Sec urity
aun ted
Will iams
Ġbubb les
H appy
e on
p ub
Ġth ieves
ĠB ent
Ġqu ir
Ġlong standing
ĠRe y
ĠAs ked
tt a
ĠX X
Ġfront s
Le vel
Ġoptim ized
Ġrot ating
ĠSaf e
Ġcler gy
Ġsummon ed
C ore
al most
ut able
ĠW ong
ĠD raw
so ld
Ġhand ler
Ġperson a
sc ill
ĠMin utes
ĠEd gar
Ġgoal ie
lin ux
ari us
Pro t
idel ity
ĠMah ar
ĠShort ly
ĠWire less
C ru
as io
ĠW S
iv ities
Ġday light
ier i
St re
Ġcompan ions
ON G
Ġdefense man
ĠElect ions
ĠRC MP
ĠJav ascript
ĠFly ers
ĠOri oles
ĠManit oba
is ch
Ġb ully
Ġl ent
ĠC ory
ĠF i
ĠK re
Ġpr aying
oss ip
ĠRe ich
20 18
Ġtem po
umb les
Ġjud gments
Ġcollect or
ĠLie utenant
ĠInterest ingly
ĠIb rahim
Serv ice
fashion ed
T ell
i ya
Ġa isle
Ġb ots
ĠJ S
ĠMar ijuana
rug u
Ġlive lihood
ĠSch war
ha us
Ġcommand ed
ĠGree ks
ĠSaud is
Oh io
ĠHist orical
Ġjihad ists
Ġtsun ami
] ]
Ġm ocked
ic ially
Ġl ord
Ġde gr
ĠD as
ĠR id
ĠE lementary
Ġout going
Ġgener als
Ġel bow
Ġcentral ized
ĠLiber tarian
Ġvisual s
ĠTechn ical
ĠEth ics
ĠSav age
Ġenerget ic
r ar
t im
am bo
ig i
ĠC ody
ms on
Ġvers es
Ġtra umatic
To o
ĠIsland ers
Ġsem if
Gl obal
Ġinex pensive
Ġgenet ics
ovak ia
R a
en c
Ġst ain
ĠB end
if ty
Ġob solete
Ġpost ure
Ġtur f
Ġfold ed
ĠField s
ĠW rong
ĠH utch
ĠJ ab
Ġcar te
Ġprev ailing
Ġscore r
ĠReg ular
Ġsynt hes
an an
ĠM ate
ĠP ool
Ġr ighteous
ĠD B
Ġnot ify
Ġun healthy
ĠRe in
ĠRe pe
Ġparent ing
Ġmos ques
ĠSex ual
c f
s ince
w iki
Ġc ush
Ġh ottest
ĠS inger
ir rel
Ġcan al
not es
Ġ13 5
Ġsimilar ity
Ġplant ing
Sc roll
Ġâĸ Ħ
Ġsin ister
Ġswing ing
Ġpromin ence
S earch
Ġe ve
ĠS ense
ĠA the
ur istic
Ġins ults
Ġrest s
Ġstat utory
ser ies
Ġprogress ed
ĠTre nd
Ġbroadcast s
Ġsand wic
Ġexhib ited
ĠKu wait
ĠFreder ick
T em
he a
Ġd ynasty
Ġbe an
ĠB A
Ġtr unk
Ġfil ib
Ġbre asts
Ġill umin
pir acy
Qu ery
Ġpreced ing
B usiness
f ill
m is
ĠC aucus
Ġun available
Ġdisc arded
Ġground water
ĠPe pper
Ġcat cher
Ġbra ke
ĠOpp ortun
Ġther m
Mat thew
Ġunint ended
D ead
M a
M rs
R est
m ala
en ame
Ġen su
ĠMal i
Ġrent s
ĠBook er
Ġretain ing
Ġgall on
ĠHas kell
Ġjur ors
Ġshield s
Ġpossess es
Ġsacrific es
S oon
b order
i ating
ic us
ĠI A
ĠI o
ir ling
ap i
ord e
ĠY ORK
Ġopen ness
Ġgl am
ron ics
Ġoper ative
uff er
att a
che m
Ġmis guided
ĠSub ject
Ġvan ished
Ġtermin ated
unning ham
ĠWhere as
onge vity
ä »
Ġf ixture
ĠC ultural
ment ia
ĠD ucks
ĠR i
iv ism
ĠUn ic
Ġdr ift
11 4
ĠGreen e
Ġcelebr ates
ĠRiver a
ĠKir by
E nt
b ai
j ury
Ġp ains
am oto
Ġhe ars
ĠG ent
ĠCh icken
ne um
Ġheavy weight
Ġearthqu akes
neg oti
ĠCambod ia
" ?
- $
F ix
h un
l ass
Ġl ig
Ġre im
ĠI X
ĠA ber
Ġwith stand
ĠR F
Ġab using
Ġen listed
Ġsp un
Th ursday
ump s
Ġbo ast
Ġel usive
ator ium
Ġmot ors
Ġsplit ting
ĠCamer a
Ġyield ed
ĠWrit er
Ġdistribut ing
Event ually
H O
c uts
k ick
at hing
ing es
ĠM ental
ĠF usion
un ged
Ġtr act
Ġant iqu
Ġhold ings
Ġfear ful
ĠIran ians
ĠMel issa
Ġrum ored
Ġdiscount s
Ġinspect ors
ĠHuck abee
Ġostens ibly
e ight
en h
Ġe greg
ĠW ine
Ġun sett
Ġche ering
Ġlab s
ask ing
Ġtro lls
Res earch
Ġmanifest o
Ġfont s
ĠDri ver
Ġrecy cling
Ġimpress ions
ĠBrig ade
Ġad am
ĠUn common
Ġconf ession
ĠSh ir
Ġvis ions
Ġ11 3
asc al
Ġassist ing
Ġfat ty
Ġplanet ary
Ġcultiv ation
ĠPod cast
Ġalph abet
Ġecl ipse
osoph y
L im
T ri
m anship
á ½
ut f
ĠP av
ĠL ar
ĠL ords
Ġpe ek
ĠRe ader
Ġret ali
az ingly
ĠFr aser
Ġsit uated
ĠAll ied
Ġsuper f
Ġce ased
ĠMon itor
Ġproced ural
Ġpump ing
Tor onto
Ġhaun ted
M il
o zy
v s
in ion
Ġs inking
is ite
ĠW AS
aw k
Ġbl ur
ĠUn block
com pl
orn ings
ĠJan et
ĠDes k
Ġboost ing
Ġtheat rical
CL OSE
ubb ard
t aking
al ities
Ġ" /
ĠPatri ot
ĠMult iple
Ġhes itate
Ġundermin ed
K at
f ighting
r ath
Ġde port
In cre
Ġter med
aj a
Ġfil ings
ĠAm nesty
Ġvirt ues
ket ch
ĠCre ation
ĠAud i
ĠNon etheless
Ġredd it
re ally
ĠP P
ĠF argo
iv o
Ġout doors
ew itness
ĠV ander
Ġthink ers
IS IS
Ġcollect s
Ġfirm ware
OU ND
Ġsky rock
she et
ĠOpp osition
E ff
M ajor
N I
T imes
f orth
Ġt earing
Ġs unk
es que
ĠD ol
ĠF actory
ĠE arn
Ġad here
ĠSt ark
Ġmult itude
ĠPlay ing
gl obal
Ġeleph ants
Ġderiv atives
Ġsid eline
ĠBever ly
Jew ish
C ost
T M
c amera
Ġt ighter
Ġw icked
ist ence
Ġres urg
Ġgl ut
ĠGu jar
EN TS
Ġtim er
ĠBeck ham
Act ually
i ago
Ġa ided
Ġo riented
Ġc affeine
Ġd reamed
ĠB ath
ĠR oh
Ġor thodox
Ġk idding
Ġall iances
Ġdisc ern
reg ulation
ĠAb ove
Ġtherap ist
Ġs ulf
Ġp enny
ut z
ot ally
ĠT ac
Ġmon st
cent ric
ĠWorld s
ĠSouth ampton
ĠRom a
Ġtermin ation
Ġoblig ed
ĠScar borough
pos itive
Ġslog ans
R oy
R ev
ĠM ale
ĠH Q
ĠE VER
per fect
Ġteam ed
Ġleg ends
ĠAt las
Ġir res
Ġast hma
De velop
oster one
Ġburd ens
Ġdisrupt ed
Ġscrut in
Ã± o
wal ks
F re
at ible
Ġb ounty
ĠC OU
nt on
Ġag on
ĠV IP
Ġfront ier
Ġstri ps
Ġens ured
Ġtrail ing
ĠCre ated
ĠProduct ions
Ġmetab olic
ĠRockef eller
w right
Ġcon ve
Ġ2 10
ĠNew ark
app a
ĠChrist ine
ĠX in
13 5
Ġsubst it
Ġresist ing
ht m
ĠHor izon
Ġassign ments
ĠBened ict
c ause
n as
Ġan ts
ĠP izza
Ġ1 19
ĠN igel
Ġam nesty
ĠShe ffield
Ġworks hops
Ġgrad uating
ĠRob bie
Ġtransfer ring
Ġensu ing
l n
v ine
w omen
Ġm our
ĠN VIDIA
ĠG iant
ĠUn cle
19 80
Ġgun shot
Ġdecl ares
ĠSch wartz
orks hire
Ġmut ually
yr r
Ġpunch ing
Ġtum or
cot ics
Ġvigil ant
ĠCrow ley
ĠPTS D
ĠBulgar ia
f ell
ĠT ay
og ram
ĠSt ur
ĠTr inity
Ġcar tel
ĠCEO s
Ġstress ful
Ġlie utenant
Ġstrengthen ed
Ġanarch ists
bet ween
ĠPeters burg
m ong
p sych
â Ĺ
se ver
ig ator
ĠN I
ĠG ust
ack ers
ĠHe b
Ġconf inement
uc ing
Ġban ana
vent us
Ġver te
Ġfat ally
ixt ures
ĠKa epernick
g ard
ĠM Y
Ġrec ap
read ing
Ġvers a
Ġspecific ation
miss ible
ĠMad uro
ĠInt o
Ġpresum ed
Ġpref ers
ĠEqu ality
Ġcow ard
Ġsail ors
Ġinsurg ents
ĠCha os
ĠDani els
T uesday
Ġd ental
Ġinv ites
Ġpass er
11 1
Ġsat ir
Ġcart oons
ĠAp ache
Ġsnaps hot
Ġunle ashed
re lease
Ġp ony
and ro
ĠN issan
th y
Ġbl ues
Ġimp over
Ġdep icts
ĠAfric ans
ĠTom orrow
Ġnut ritional
ĠQuest ions
ĠAlb any
Ġfright ened
Tur key
Ġgeomet ry
ĠAdvis ory
Ġrespir atory
) âĢĶ
F riend
M oney
r Ã©
Ġf erv
um en
Ġch anting
ĠCh ang
ĠWe iner
Ġstand alone
Ġpresent ations
Ġrig ged
199 8
ĠPop ular
ĠAN Y
S W
s f
ill as
ĠD uc
ĠWe ight
Ġens l
het ics
ĠAssoci ate
ĠBen ef
ĠWhe never
umm ary
Ġmask ed
Er ror
Ġphysic ist
Ġinherit ance
Cre ate
G ive
T aking
] ,"
Ġc apped
le ys
ĠS ark
ĠS ara
ĠH B
ĠR ating
ĠG amer
Ġbl ink
ble ms
Ġstr ap
Ġdeb ating
Ġz oning
Ġautom obile
Ġcum ulative
ĠS ke
ĠS ue
Ġbl itz
RE SS
Ġpip elines
ALL Y
ĠAntar ctic
B er
S ystem
c ool
l ated
l oss
Ù ı
Ġs cept
al ian
Ġl ays
Ġcon greg
ĠD L
ĠR ade
Ġout ward
Ġsp rawling
Ġconf ess
sy n
Ġsecret ive
Ġsn iff
Ġattract ions
ĠLu cy
ĠPhys ics
3 60
O B
P rop
m obile
r ase
Ġp ant
ag ent
el ig
Ġover weight
Ġcor al
Ġca us
Ġmut ations
Ġthr ill
ĠHun ting
Ġenvision ed
ĠLeaders hip
ĠRabb i
in ition
Ġe up
ĠM aid
ĠM alt
Ġcon gregation
ĠL CD
Ġres umed
ĠWe llington
Ġins ign
ĠDon ovan
IS H
inn amon
ĠConst ruction
mod el
Ġl ith
id ation
ĠA gg
ĠM AN
Ġreal izes
Ġpolit ic
Ġmet ropolitan
10 7
ĠSc and
ĠMart y
Ġovert urn
Ġguitar ist
ĠAst ros
Ġintercept ed
ĠValent ine
d ates
Ġw ishing
at ra
oc amp
Ġcomp ute
Ġdem ographics
rat t
Ġguard ian
ĠKey stone
ĠSpring field
ĠCrit ics
ĠChem ical
Sar ah
p osition
v ie
Ġt ying
Ġn ails
ĠM aced
ment ing
ĠN R
ĠG ren
qu ar
ĠK anye
Ġmon uments
ĠRe ality
ĠCom pl
Ġmus cular
ĠBar on
Ġcommand ing
Ġthr iller
Ġexceed s
ĠDur ant
f urt
ĠW olves
Ġse ating
ĠE state
ud er
ĠDe V
Ġdeb unk
iol a
Ġdev ised
sh are
Ġmot ions
ĠPaul o
ĠOtt oman
[...]
