{
  "!": 33,
  "!!": 4984,
  "!!!": 15039,
  "!!!!": 22071,
  "!\"": 5049,
  "!'": 21523,
  "!)": 8663,
  "!),": 22248,
  "!).": 19439,
  "!,": 26866,
  "!<|": 7456,
  "!âĢĻ": 19640,
  "!âĢĿ": 4588,
  "\"": 34,
  "\")": 8948,
  "\"),": 18593,
  "\").": 17988,
  "\");": 25048,
  "\",": 2762,
  "\",\"": 8394,
  "\".": 2785,
  "\".[": 8638,
  "\":": 4054,
  "\":\"": 8019,
  "\":[": 31806,
  "\":{\"": 27974,
  "\";": 17220,
  "\">": 8771,
  "\"?": 23888,
  "\"[": 19154,
  "\"]": 22431,
  "\"âĢĶ": 31783,
  "#": 35,
  "##": 4568,
  "####": 8140,
  "########": 13491,
  "################": 22961,
  "$": 36,
  "$$": 28045,
  "%": 37,
  "%)": 5204,
  "%),": 18499,
  "%).": 20424,
  "%,": 8280,
  "%.": 7788,
  "&": 38,
  "'": 39,
  "''": 15288,
  "')": 17172,
  "');": 30216,
  "',": 6619,
  "'.": 8386,
  "':": 20841,
  "';": 29578,
  "'d": 2968,
  "'ll": 2269,
  "'m": 1959,
  "'re": 1388,
  "'s": 425,
  "'t": 691,
  "'ve": 1849,
  "(": 40,
  "(\"": 11256,
  "($": 23062,
  "('": 13393,
  "()": 5774,
  "().": 28523,
  "();": 13496,
  "([": 30268,
  "({": 30751,
  ")": 41,
  ")\"": 27812,
  ")(": 18287,
  "))": 7976,
  ")))": 29626,
  "));": 27604,
  "),": 918,
  "),[": 31635,
  "),âĢĿ": 30510,
  ")-": 25585,
  ").": 827,
  ").<|": 19310,
  ").[": 11294,
  ").âĢĿ": 27103,
  "):": 3927,
  ");": 3253,
  ")<|": 10450,
  ")?": 21362,
  ")[": 22733,
  ")|": 17282,
  ")âĢĶ": 24260,
  "*": 42,
  "**": 2387,
  "***": 10293,
  "****": 5770,
  "********": 11048,
  "****************": 20098,
  "*,": 31301,
  "*.": 30020,
  "+": 43,
  "++": 6387,
  "++++": 16857,
  "+,": 28868,
  "+.": 30395,
  ",": 44,
  ",\"": 770,
  ",'": 5401,
  ",'\"": 21675,
  ",''": 17654,
  ",,": 17970,
  ",<": 24890,
  ",[": 5807,
  ",âĢĻ": 5992,
  ",âĢĻâĢĻ": 21122,
  ",âĢĻâĢĿ": 20930,
  ",âĢĿ": 683,
  "-": 45,
  "-$": 23889,
  "-,": 28792,
  "--": 909,
  "---": 12293,
  "----": 1676,
  "--------": 3064,
  "------------": 25948,
  "----------------": 5723,
  "--------------------------------": 11781,
  "----------------------------------------------------------------": 27461,
  "->": 11701,
  ".": 46,
  ".\"": 725,
  ".\"<|": 5870,
  ".\"[": 7219,
  ".$": 31992,
  ".'": 4082,
  ".'\"": 17519,
  ".''": 18448,
  ".'âĢĿ": 30119,
  ".(": 23212,
  ".)": 2078,
  ".),": 11896,
  ".).": 16569,
  ".)<|": 26494,
  ".*": 22752,
  ".,": 1855,
  ".-": 8564,
  "..": 715,
  "...": 1448,
  "...\"": 14464,
  "....": 2536,
  "......": 27903,
  "........": 5184,
  "..........": 22312,
  "................": 10272,
  "................................": 22399,
  "...<|": 21949,
  "...]": 26345,
  "./": 23520,
  ".:": 12280,
  ".;": 21309,
  ".<|": 961,
  ".[": 1067,
  ".]": 10118,
  ".ÂĶ": 26459,
  ".âĢĶ": 28633,
  ".âĢĻ": 4004,
  ".âĢĻâĢĻ": 24609,
  ".âĢĻâĢĿ": 15730,
  ".âĢľ": 13821,
  ".âĢĿ": 643,
  ".âĢĿ)": 23251,
  ".âĢĿ<|": 5326,
  ".âĢĿ[": 26605,
  "/": 47,
  "/#": 30511,
  "/-": 24428,
  "/.": 12085,
  "//": 1702,
  "/?": 30869,
  "0": 48,
  "00": 452,
  "000": 954,
  "0000": 8330,
  "00000": 28114,
  "00000000": 24702,
  "001": 16651,
  "004": 31632,
  "01": 5684,
  "02": 7176,
  "03": 7252,
  "04": 6784,
  "05": 6096,
  "06": 7229,
  "07": 6908,
  "08": 6623,
  "09": 6592,
  "1": 49,
  "10": 1337,
  "100": 3763,
  "1000": 18321,
  "101": 16104,
  "102": 22188,
  "103": 22954,
  "104": 22937,
  "105": 20719,
  "106": 23152,
  "107": 24374,
  "108": 25604,
  "109": 24606,
  "11": 1632,
  "110": 10596,
  "111": 24236,
  "112": 22687,
  "113": 25780,
  "114": 23870,
  "115": 22876,
  "116": 27952,
  "117": 24946,
  "118": 27337,
  "119": 25688,
  "12": 1782,
  "120": 13667,
  "121": 27933,
  "122": 27697,
  "123": 20075,
  "124": 28298,
  "125": 17879,
  "126": 27953,
  "127": 26837,
  "128": 22956,
  "129": 26956,
  "13": 2248,
  "130": 17236,
  "131": 29162,
  "132": 30032,
  "133": 28986,
  "134": 29974,
  "135": 24144,
  "136": 30530,
  "137": 30338,
  "138": 31699,
  "139": 28532,
  "14": 2172,
  "140": 20522,
  "142": 31972,
  "143": 31666,
  "144": 29653,
  "145": 27450,
  "148": 31735,
  "149": 31280,
  "15": 1977,
  "150": 10782,
  "151": 29756,
  "152": 31971,
  "154": 31572,
  "155": 21141,
  "16": 2144,
  "160": 19731,
  "165": 29973,
  "168": 24669,
  "17": 2353,
  "170": 22863,
  "175": 23003,
  "18": 2487,
  "180": 21569,
  "182": 31942,
  "19": 1607,
  "190": 28753,
  "192": 26692,
  "1970": 30060,
  "1980": 24171,
  "1989": 30310,
  "199": 7470,
  "1990": 20374,
  "1991": 29861,
  "1992": 27940,
  "1993": 28390,
  "1994": 26861,
  "1995": 25748,
  "1996": 27006,
  "1997": 26658,
  "1998": 24272,
  "1999": 21241,
  "2": 50,
  "20": 1161,
  "200": 2984,
  "2000": 13997,
  "2001": 20054,
  "2002": 21544,
  "2003": 19630,
  "2004": 19022,
  "2005": 19161,
  "2006": 17685,
  "2007": 17050,
  "2008": 15142,
  "2009": 14647,
  "201": 30227,
  "2010": 11868,
  "2011": 9184,
  "2012": 10345,
  "2013": 10249,
  "2014": 8303,
  "2015": 9259,
  "2016": 8302,
  "2017": 11101,
  "2018": 23671,
  "2019": 23168,
  "202": 30276,
  "206": 23113,
  "21": 3958,
  "210": 28022,
  "22": 3198,
  "220": 25458,
  "225": 30720,
  "23": 3598,
  "230": 25994,
  "24": 3363,
  "240": 26846,
  "25": 2521,
  "250": 10010,
  "255": 24526,
  "256": 21660,
  "26": 3810,
  "260": 28308,
  "27": 3758,
  "270": 29215,
  "28": 4015,
  "280": 30127,
  "29": 3987,
  "3": 51,
  "30": 1896,
  "300": 6920,
  "31": 5294,
  "32": 4666,
  "320": 26107,
  "33": 4235,
  "330": 29606,
  "34": 4743,
  "35": 3767,
  "350": 16859,
  "36": 4698,
  "360": 24336,
  "37": 4679,
  "370": 29939,
  "38": 4837,
  "380": 29485,
  "39": 4973,
  "4": 52,
  "40": 2938,
  "400": 7538,
  "41": 6164,
  "42": 5935,
  "420": 30484,
  "43": 6100,
  "44": 5286,
  "45": 3859,
  "450": 21036,
  "46": 5036,
  "47": 4922,
  "48": 4601,
  "49": 4897,
  "5": 53,
  "50": 1533,
  "500": 4072,
  "51": 7331,
  "52": 7751,
  "53": 7955,
  "54": 7791,
  "55": 4794,
  "550": 29509,
  "56": 7515,
  "57": 6609,
  "58": 7152,
  "59": 7100,
  "6": 54,
  "60": 2655,
  "600": 8762,
  "61": 8981,
  "62": 9144,
  "63": 9148,
  "64": 5747,
  "65": 5802,
  "650": 25335,
  "66": 6629,
  "67": 6923,
  "68": 6851,
  "69": 8007,
  "7": 55,
  "70": 4198,
  "700": 10046,
  "71": 9041,
  "72": 8543,
  "73": 9334,
  "74": 8729,
  "75": 5089,
  "750": 18988,
  "76": 8207,
  "77": 6763,
  "78": 7404,
  "79": 8421,
  "8": 56,
  "80": 3440,
  "800": 8253,
  "81": 10502,
  "82": 10195,
  "83": 10340,
  "84": 9694,
  "85": 8091,
  "850": 30918,
  "86": 7630,
  "87": 9645,
  "88": 6134,
  "89": 8139,
  "9": 57,
  "90": 4397,
  "900": 12646,
  "91": 11341,
  "92": 11011,
  "93": 10920,
  "94": 11287,
  "95": 5851,
  "96": 10394,
  "97": 11107,
  "98": 9221,
  "99": 3116,
  "999": 25129,
  ":": 58,
  ":\"": 29845,
  ":/": 30292,
  "://": 2053,
  "::": 8774,
  ":<|": 7920,
  ":[": 25512,
  ":\\": 27305,
  ";": 59,
  ";[": 28793,
  "<": 60,
  "</": 7142,
  "<|": 703,
  "<|endoftext|>": 31998,
  "<|pad|>": 31999,
  "=": 61,
  "=\"": 5408,
  "='": 29144,
  "==": 3208,
  "====": 5613,
  "========": 9737,
  "================": 17367,
  "=âĢĿ": 13759,
  ">": 62,
  ">,": 16535,
  "><": 19592,
  "></": 19499,
  ">>": 3041,
  ">>>>": 6742,
  ">>>>>": 29347,
  ">>>>>>>>": 12190,
  "?": 63,
  "?!": 15558,
  "?\"": 3471,
  "?'": 12370,
  "?)": 11646,
  "?),": 29795,
  "?).": 27349,
  "?<|": 11309,
  "??": 10667,
  "???": 31477,
  "?]": 25614,
  "?âĢĻ": 11135,
  "?âĢĿ": 2868,
  "@": 64,
  "A": 65,
  "AA": 7292,
  "AB": 11818,
  "ABC": 21018,
  "AC": 3228,
  "ACA": 21545,
  "ACE": 18096,
  "ACH": 25607,
  "ACK": 13828,
  "ACP": 26723,
  "ACT": 17122,
  "AD": 3814,
  "ADA": 27066,
  "ADVERTIS": 13061,
  "ADVERTISEMENT": 13824,
  "AF": 10329,
  "AFP": 15384,
  "AFTA": 24914,
  "AG": 9046,
  "AGE": 19209,
  "AH": 22965,
  "AI": 26127,
  "AK": 14673,
  "AL": 3185,
  "ALEX": 30005,
  "ALK": 30930,
  "ALL": 9904,
  "ALLY": 24313,
  "AM": 3554,
  "AMA": 24733,
  "AME": 16680,
  "AMP": 28253,
  "AMY": 21972,
  "AN": 2369,
  "ANC": 27430,
  "AND": 10037,
  "ANG": 22020,
  "ANK": 23292,
  "ANN": 23224,
  "ANS": 18976,
  "ANT": 17131,
  "AP": 3832,
  "API": 31191,
  "APP": 27121,
  "AR": 2501,
  "ARA": 31349,
  "ARC": 28880,
  "ARD": 15564,
  "ARK": 19910,
  "ARL": 27381,
  "ARP": 28599,
  "ARS": 21993,
  "ART": 11584,
  "ARY": 19383,
  "AS": 2593,
  "ASE": 18212,
  "ASH": 11816,
  "ASHINGTON": 15062,
  "ASS": 19857,
  "AST": 16457,
  "AT": 1994,
  "ATA": 20052,
  "ATCH": 10674,
  "ATE": 8068,
  "ATED": 12724,
  "ATH": 20166,
  "ATION": 12573,
  "ATO": 7768,
  "ATS": 28491,
  "ATT": 25058,
  "AU": 29290,
  "AV": 13400,
  "AY": 10572,
  "AZ": 31751,
  "Aaron": 26578,
  "Ab": 5573,
  "About": 8624,
  "Above": 31250,
  "Abs": 24617,
  "Ac": 15260,
  "Acc": 23398,
  "Access": 25807,
  "According": 3754,
  "Across": 31910,
  "Act": 9910,
  "Action": 27049,
  "Activity": 25909,
  "Actually": 24074,
  "Ad": 2549,
  "Adam": 19903,
  "Add": 5918,
  "Added": 14821,
  "Adding": 29110,
  "Additional": 20313,
  "Additionally": 19733,
  "Adv": 27884,
  "Advertisement": 3683,
  "Advertisements": 11819,
  "Advertising": 26902,
  "Af": 15449,
  "Afric": 25650,
  "After": 2986,
  "Ag": 11057,
  "Again": 14246,
  "Age": 25896,
  "Ah": 13991,
  "Air": 18345,
  "Al": 2659,
  "Alan": 30466,
  "Alex": 13217,
  "Alexander": 31392,
  "Ali": 28106,
  "All": 3561,
  "Almost": 19629,
  "Along": 19566,
  "Also": 7281,
  "Altern": 27084,
  "Although": 6089,
  "Am": 5829,
  "Amazon": 20291,
  "Americ": 4582,
  "America": 15741,
  "American": 6085,
  "Americans": 13606,
  "Among": 11414,
  "An": 2038,
  "Analy": 29340,
  "Analysis": 29108,
  "And": 1729,
  "Andre": 26719,
  "Andrew": 17334,
  "Android": 28209,
  "Andy": 30494,
  "Ang": 15106,
  "Ann": 19936,
  "Anna": 25946,
  "Another": 5661,
  "Answer": 22007,
  "Ant": 13322,
  "Anth": 25288,
  "Anthony": 26577,
  "Anti": 25871,
  "Any": 7049,
  "Anyone": 17146,
  "Anyway": 22217,
  "Ap": 29871,
  "Apart": 31821,
  "App": 5722,
  "Apparently": 24794,
  "Apple": 14952,
  "April": 16017,
  "Ar": 4113,
  "Arab": 26310,
  "Arch": 23451,
  "Are": 9372,
  "Ari": 21977,
  "Around": 20270,
  "Ars": 28560,
  "Art": 9396,
  "Arthur": 26568,
  "Article": 14948,
  "As": 1569,
  "Ash": 29469,
  "Aside": 26108,
  "Ask": 29062,
  "Asked": 14118,
  "Ass": 8383,
  "Assad": 16534,
  "Associated": 26084,
  "Ast": 30837,
  "At": 2687,
  "Att": 13052,
  "Aud": 22318,
  "Aug": 14565,
  "August": 18460,
  "Aust": 13231,
  "Austral": 16591,
  "Australia": 23261,
  "Australian": 29666,
  "Aut": 20199,
  "Author": 14949,
  "Authorities": 22519,
  "Av": 15703,
  "Aw": 27174,
  "Az": 31114,
  "B": 66,
  "BA": 4447,
  "BB": 25897,
  "BBC": 28143,
  "BC": 2363,
  "BD": 19464,
  "BE": 16741,
  "BER": 15997,
  "BI": 3583,
  "BIT": 30217,
  "BL": 15550,
  "BLE": 22220,
  "BM": 9165,
  "BN": 10190,
  "BO": 8152,
  "BP": 21524,
  "BR": 16693,
  "BS": 4353,
  "BSD": 21920,
  "BT": 20259,
  "BU": 26067,
  "BUG": 31852,
  "BY": 20931,
  "Back": 8382,
  "Background": 25583,
  "Bad": 23245,
  "Ban": 31362,
  "Bank": 25477,
  "Bar": 11653,
  "Bas": 17698,
  "Base": 27541,
  "Based": 15343,
  "Basically": 27741,
  "Bat": 21582,
  "Battle": 30074,
  "Bay": 13862,
  "Be": 3773,
  "Because": 7272,
  "Beck": 30741,
  "Before": 7963,
  "Begin": 29476,
  "Beh": 27480,
  "Being": 15967,
  "Bel": 11516,
  "Below": 20421,
  "Ben": 12197,
  "Ber": 24315,
  "Bern": 19476,
  "Bernie": 26338,
  "Berry": 17141,
  "Besides": 20434,
  "Best": 11960,
  "Bet": 13048,
  "Better": 29694,
  "Between": 20555,
  "Beyond": 19568,
  "Bi": 29733,
  "Big": 12427,
  "Bill": 15588,
  "Bit": 15872,
  "Bitcoin": 21377,
  "Bl": 4808,
  "Black": 11182,
  "Block": 25154,
  "Blood": 30766,
  "Bloom": 29958,
  "Blue": 17768,
  "Bo": 18167,
  "Bob": 19690,
  "Bon": 23563,
  "Book": 10991,
  "Boot": 26668,
  "Born": 25049,
  "Boston": 28469,
  "Both": 8640,
  "Box": 19429,
  "Boy": 26926,
  "Br": 11691,
  "Brad": 22662,
  "Brazil": 30974,
  "Bre": 12371,
  "Breaking": 23032,
  "Brexit": 31552,
  "Brian": 21856,
  "Brien": 17087,
  "Bring": 31960,
  "Brit": 14213,
  "Britain": 27634,
  "British": 21077,
  "Bro": 17996,
  "Broad": 28734,
  "Bron": 15540,
  "Brown": 18810,
  "Bs": 31587,
  "Build": 15848,
  "Building": 26549,
  "Bur": 22651,
  "Bush": 28700,
  "Business": 23806,
  "But": 1304,
  "Buy": 16232,
  "By": 3834,
  "C": 67,
  "CA": 5291,
  "CAA": 11425,
  "CAR": 17326,
  "CBC": 23284,
  "CBS": 18818,
  "CC": 4587,
  "CD": 12847,
  "CE": 7645,
  "CH": 5062,
  "CI": 31521,
  "CL": 10250,
  "CLOSE": 24002,
  "CNN": 12834,
  "CO": 10162,
  "COL": 31823,
  "COM": 12424,
  "COMMENT": 31846,
  "COMPLET": 28629,
  "COMPLETED": 30482,
  "CON": 20989,
  "CP": 31822,
  "CR": 18048,
  "CS": 13766,
  "CT": 20435,
  "CV": 29145,
  "Cal": 9900,
  "Calif": 16188,
  "California": 22455,
  "Call": 17681,
  "Cam": 25513,
  "Camp": 20921,
  "Can": 6093,
  "Canada": 15515,
  "Canadian": 22675,
  "Cap": 13227,
  "Captain": 25702,
  "Car": 11257,
  "Card": 23447,
  "Care": 15922,
  "Carl": 22883,
  "Cas": 29917,
  "Case": 22893,
  "Cast": 26372,
  "Cat": 27945,
  "Cent": 19672,
  "Center": 27152,
  "Central": 29228,
  "Certainly": 29430,
  "Ch": 2335,
  "Change": 26261,
  "Chapter": 28783,
  "Char": 15301,
  "Charl": 22347,
  "Charles": 24916,
  "Charlie": 30596,
  "Che": 8696,
  "Check": 12093,
  "Chicago": 21471,
  "Chief": 19342,
  "Child": 18815,
  "Children": 26789,
  "China": 11773,
  "Chinese": 20278,
  "Cho": 30738,
  "Chris": 14570,
  "Christ": 9496,
  "Christian": 17234,
  "Christopher": 30969,
  "City": 15047,
  "Civil": 29146,
  "Cl": 4575,
  "Cla": 31713,
  "Class": 17110,
  "Cle": 15023,
  "Clearly": 22943,
  "Click": 9203,
  "Climate": 26349,
  "Clinton": 13121,
  "Close": 28602,
  "Cloud": 19460,
  "Co": 7869,
  "Code": 19109,
  "Coin": 23242,
  "Col": 7914,
  "Cola": 26927,
  "Coll": 23489,
  "Color": 19620,
  "Com": 7479,
  "Comb": 25826,
  "Come": 18712,
  "Coming": 26273,
  "Comm": 11020,
  "Comments": 23172,
  "Common": 28461,
  "Commun": 27460,
  "Comp": 9952,
  "Con": 4563,
  "Conclusion": 18954,
  "Conf": 16111,
  "Cong": 16002,
  "Congress": 19987,
  "Conn": 31950,
  "Connect": 23440,
  "Connell": 30444,
  "Connor": 23185,
  "Cons": 8836,
  "Conservative": 30680,
  "Consider": 17140,
  "Const": 19081,
  "Cont": 6107,
  "Contact": 18534,
  "Content": 25013,
  "Contin": 18450,
  "Continue": 27025,
  "Controller": 26386,
  "Cook": 31168,
  "Copyright": 14613,
  "Cor": 10687,
  "Core": 23627,
  "Cost": 24062,
  "Could": 21663,
  "Coun": 20896,
  "Count": 16105,
  "Court": 20021,
  "Courtesy": 28173,
  "Cover": 31712,
  "Cr": 16116,
  "Craft": 22559,
  "Cre": 19226,
  "Creat": 30043,
  "Create": 24290,
  "Credit": 21729,
  "Crit": 20337,
  "Critics": 25978,
  "Cross": 20982,
  "Cru": 23646,
  "Cs": 28396,
  "Cur": 30686,
  "Current": 20713,
  "Currently": 17951,
  "Custom": 22118,
  "Cy": 22365,
  "D": 68,
  "DA": 4716,
  "DAY": 12239,
  "DB": 12990,
  "DC": 11241,
  "DD": 23033,
  "DE": 11588,
  "DF": 23263,
  "DI": 16750,
  "DL": 27584,
  "DNA": 25667,
  "DO": 19408,
  "DP": 5642,
  "DR": 10914,
  "DS": 6150,
  "Da": 30319,
  "Daily": 27417,
  "Dam": 15981,
  "Damage": 24997,
  "Dan": 19409,
  "Daniel": 19925,
  "Dar": 29030,
  "Dark": 21703,
  "Data": 11535,
  "Date": 20699,
  "Dav": 8080,
  "Dave": 26460,
  "David": 9190,
  "Davis": 28120,
  "Day": 14665,
  "De": 6124,
  "Dead": 23820,
  "Dear": 18484,
  "Death": 22233,
  "Deb": 21001,
  "Dec": 14024,
  "December": 21390,
  "Deep": 29885,
  "Def": 9884,
  "Defense": 26501,
  "Del": 17553,
  "Dem": 9942,
  "Democratic": 25314,
  "Democrats": 21308,
  "Den": 20351,
  "Dep": 15067,
  "Der": 30044,
  "Des": 4773,
  "Description": 17923,
  "Design": 23255,
  "Despite": 6634,
  "Det": 16637,
  "Details": 30148,
  "Dev": 19126,
  "Develop": 24115,
  "Di": 20746,
  "Did": 11436,
  "Dig": 22867,
  "Digital": 30449,
  "Direct": 14474,
  "Director": 23453,
  "Dis": 10357,
  "Disc": 18422,
  "Disney": 31104,
  "Dist": 21884,
  "Do": 5523,
  "Does": 14214,
  "Dom": 28144,
  "Don": 3735,
  "Donald": 6286,
  "DonaldTrump": 22830,
  "Donnell": 18964,
  "Down": 12514,
  "Download": 16240,
  "Dr": 7323,
  "Dri": 23048,
  "Drive": 30218,
  "Due": 21262,
  "Dun": 29986,
  "During": 5876,
  "E": 69,
  "EA": 7879,
  "EC": 3998,
  "ECD": 25191,
  "ECT": 15622,
  "ED": 3344,
  "EE": 13583,
  "EG": 8974,
  "EL": 5094,
  "EM": 4809,
  "EMA": 24683,
  "EMENT": 12516,
  "EN": 2955,
  "ENCE": 27596,
  "END": 20585,
  "ENS": 25153,
  "ENT": 6539,
  "ENTS": 24071,
  "EO": 3853,
  "EP": 9799,
  "ER": 1790,
  "ERE": 11668,
  "ERN": 28801,
  "ERS": 6523,
  "ERT": 27554,
  "ERY": 24947,
  "ES": 2786,
  "ESCO": 31062,
  "ESPN": 28785,
  "ESS": 16791,
  "EST": 8851,
  "ET": 3893,
  "ETA": 24656,
  "EU": 18041,
  "EV": 28608,
  "EX": 12143,
  "Each": 11385,
  "Earlier": 10126,
  "Early": 14418,
  "Earth": 23034,
  "East": 23454,
  "Econom": 24502,
  "Ed": 7505,
  "Edit": 28962,
  "Editor": 17401,
  "Educ": 29258,
  "Eff": 24041,
  "Egypt": 29534,
  "Eight": 25689,
  "Either": 28701,
  "El": 9814,
  "Ele": 29872,
  "Elect": 19789,
  "Ell": 29408,
  "Em": 11505,
  "Email": 16607,
  "Employ": 30504,
  "En": 6676,
  "End": 16523,
  "Eng": 12991,
  "Engine": 30174,
  "English": 22903,
  "Enjoy": 30649,
  "Enlarge": 20997,
  "Ent": 23875,
  "Enter": 22106,
  "Environment": 29784,
  "Ep": 22598,
  "Equ": 29197,
  "Er": 16196,
  "Eric": 20306,
  "Error": 24287,
  "Es": 20007,
  "Ess": 29579,
  "Est": 20932,
  "Euro": 12550,
  "Europe": 13784,
  "European": 17886,
  "Ev": 15239,
  "Even": 5248,
  "Event": 16565,
  "Eventually": 23913,
  "Ever": 20842,
  "Every": 5474,
  "Everybody": 23464,
  "Everyone": 14259,
  "Everything": 17116,
  "Ex": 4277,
  "Example": 26121,
  "Except": 29977,
  "Exception": 31641,
  "Exit": 31704,
  "Exp": 20523,
  "Exper": 19816,
  "Experts": 30019,
  "Expl": 20481,
  "Ext": 17221,
  "F": 70,
  "FA": 6614,
  "FB": 27605,
  "FC": 4253,
  "FE": 25112,
  "FF": 8240,
  "FI": 13569,
  "FK": 27637,
  "FL": 3452,
  "FM": 17565,
  "FO": 11996,
  "FOR": 16944,
  "FORM": 27236,
  "FP": 6557,
  "FR": 17056,
  "FS": 12242,
  "FT": 16493,
  "FW": 29231,
  "FX": 28418,
  "Facebook": 8813,
  "Fact": 27638,
  "Fair": 28198,
  "Family": 26274,
  "Fans": 29259,
  "Far": 20874,
  "Fast": 25178,
  "Fe": 12262,
  "Feb": 16072,
  "February": 20423,
  "Federal": 21348,
  "Feed": 17606,
  "Few": 25373,
  "Fi": 11247,
  "Field": 31714,
  "Fig": 14091,
  "Figure": 13600,
  "Fil": 18970,
  "File": 16557,
  "Files": 28309,
  "Fin": 19712,
  "Final": 20363,
  "Finally": 10033,
  "Find": 19647,
  "Finding": 30045,
  "Fire": 16777,
  "First": 5534,
  "Five": 17158,
  "Fix": 23890,
  "Fixed": 15541,
  "Fl": 10826,
  "Flor": 23455,
  "Florida": 25825,
  "Follow": 6166,
  "Following": 11504,
  "Food": 26046,
  "Foot": 21997,
  "For": 1883,
  "Force": 17620,
  "Ford": 25280,
  "Fore": 21508,
  "Foreign": 29324,
  "Form": 19680,
  "Former": 10714,
  "Fort": 22944,
  "Fortunately": 26414,
  "Four": 13368,
  "Fox": 16158,
  "Fr": 7298,
  "France": 23171,
  "Frank": 15394,
  "Fre": 24122,
  "Fred": 25445,
  "Free": 12970,
  "French": 21459,
  "Friday": 20170,
  "Friend": 24261,
  "From": 5231,
  "Front": 31419,
  "Fs": 30293,
  "Full": 17423,
  "Fun": 22279,
  "Fund": 22663,
  "Further": 11167,
  "Furthermore": 20869,
  "Future": 29352,
  "G": 71,
  "GA": 10728,
  "GB": 4401,
  "GBT": 6958,
  "GC": 18713,
  "GE": 12008,
  "GET": 21494,
  "GH": 23093,
  "GHz": 25514,
  "GI": 21286,
  "GL": 18923,
  "GM": 12848,
  "GN": 16937,
  "GO": 13158,
  "GOP": 29699,
  "GP": 20506,
  "GR": 15465,
  "GS": 16289,
  "GT": 26767,
  "Gal": 29734,
  "Gall": 27872,
  "Game": 13237,
  "Games": 29260,
  "Gar": 22702,
  "Gary": 28107,
  "Gate": 26525,
  "Ge": 10944,
  "Gen": 16701,
  "Gener": 24829,
  "General": 13406,
  "Georg": 31444,
  "George": 19972,
  "German": 13926,
  "Germany": 23197,
  "Get": 4494,
  "Getting": 19472,
  "Getty": 7948,
  "Gi": 29409,
  "Girl": 31363,
  "Give": 24291,
  "Given": 12345,
  "Gl": 10909,
  "Global": 23727,
  "Go": 5058,
  "God": 13102,
  "Going": 23194,
  "Gold": 15743,
  "Good": 11459,
  "Google": 9824,
  "Got": 31015,
  "Gov": 22266,
  "Govern": 21630,
  "Government": 23169,
  "Gr": 12650,
  "Grand": 26271,
  "Grant": 29431,
  "Graph": 25827,
  "Great": 15551,
  "Green": 14448,
  "Greg": 21763,
  "Group": 20318,
  "Gs": 31451,
  "Gu": 11192,
  "Guard": 27234,
  "Gun": 29458,
  "H": 72,
  "HA": 8327,
  "HC": 14864,
  "HD": 15048,
  "HE": 21653,
  "HI": 22073,
  "HL": 5187,
  "HO": 23914,
  "HP": 10660,
  "HR": 21946,
  "HS": 7379,
  "HT": 9606,
  "Ha": 27786,
  "Hack": 29767,
  "Had": 25652,
  "Half": 30294,
  "Hall": 26847,
  "Ham": 22537,
  "Hand": 17689,
  "Happy": 23609,
  "Har": 12470,
  "Hard": 21080,
  "Harry": 26889,
  "Has": 20111,
  "Have": 12182,
  "Having": 12688,
  "Haw": 30451,
  "Hay": 29232,
  "He": 1395,
  "Head": 17478,
  "Health": 18540,
  "Hel": 16630,
  "Hello": 16608,
  "Help": 28520,
  "Hen": 23144,
  "Henry": 28664,
  "Her": 9163,
  "Here": 4131,
  "Hey": 10555,
  "Hi": 20714,
  "High": 13623,
  "Hill": 13878,
  "Hillary": 16757,
  "His": 5669,
  "Hist": 12304,
  "History": 16333,
  "Hit": 29486,
  "Ho": 29048,
  "Hol": 28124,
  "Hold": 25374,
  "Home": 18467,
  "Hon": 31073,
  "Hop": 19964,
  "Hopefully": 25651,
  "Host": 31203,
  "Hot": 26928,
  "House": 14714,
  "Houston": 31486,
  "How": 2376,
  "However": 4181,
  "Hub": 16786,
  "Human": 21060,
  "Hun": 29198,
  "Hundreds": 28330,
  "Hy": 21237,
  "Hz": 9562,
  "I": 73,
  "IA": 3850,
  "IAL": 21811,
  "IAN": 27585,
  "IC": 3407,
  "ICE": 10562,
  "ICH": 29723,
  "ICK": 16934,
  "ICO": 20055,
  "ICS": 25679,
  "ID": 4099,
  "IDE": 19832,
  "IDS": 14836,
  "IE": 11266,
  "IES": 18819,
  "IF": 9263,
  "IG": 5949,
  "IGH": 27976,
  "IGHT": 15920,
  "IGN": 24611,
  "II": 6264,
  "III": 15732,
  "IL": 6441,
  "ILL": 10971,
  "IM": 5478,
  "IME": 15153,
  "IN": 2174,
  "INA": 25152,
  "INAL": 28437,
  "IND": 22877,
  "INE": 16033,
  "ING": 4308,
  "INGS": 30141,
  "INGTON": 14415,
  "INK": 22200,
  "INN": 26936,
  "INS": 28277,
  "INT": 21091,
  "IO": 13122,
  "ION": 5714,
  "IP": 5378,
  "IR": 6693,
  "IS": 2262,
  "ISA": 22453,
  "ISH": 24363,
  "ISIS": 24034,
  "ISS": 21850,
  "IST": 12870,
  "IT": 3324,
  "ITE": 21518,
  "ITH": 15351,
  "ITY": 14803,
  "IV": 5841,
  "IVE": 14499,
  "IX": 19346,
  "IZ": 27201,
  "Ian": 29820,
  "Ice": 29510,
  "Id": 11380,
  "If": 1567,
  "Il": 27982,
  "Ill": 21460,
  "Im": 3418,
  "Image": 4408,
  "Images": 27320,
  "Imagine": 20512,
  "Imp": 31420,
  "Import": 28934,
  "Impro": 27188,
  "In": 793,
  "Inc": 18518,
  "Incre": 24015,
  "Ind": 5750,
  "Indeed": 14096,
  "Index": 29109,
  "India": 17610,
  "Indian": 25582,
  "Inf": 18169,
  "Info": 31200,
  "Information": 27947,
  "Initially": 31128,
  "Input": 28116,
  "Ins": 20322,
  "Inside": 22134,
  "Inst": 7578,
  "Instead": 10278,
  "Int": 10475,
  "Inte": 13532,
  "Inter": 12571,
  "Interest": 18615,
  "Interestingly": 26644,
  "Intern": 15887,
  "International": 22390,
  "Internet": 29634,
  "Interview": 30120,
  "Introduction": 26455,
  "Invest": 17019,
  "Investigators": 26944,
  "Ir": 23472,
  "Iran": 17449,
  "Iraq": 26340,
  "Iron": 22377,
  "Is": 3793,
  "Islam": 13954,
  "Islamic": 21236,
  "Israel": 10787,
  "Israeli": 22362,
  "Iss": 30975,
  "It": 940,
  "Item": 23094,
  "Its": 18792,
  "J": 74,
  "JC": 26947,
  "JP": 9489,
  "JS": 21910,
  "JUST": 21779,
  "Jac": 26805,
  "Jack": 13629,
  "Jackson": 25491,
  "Jam": 27528,
  "James": 13451,
  "Jan": 13351,
  "January": 21631,
  "Japan": 15663,
  "Japanese": 24590,
  "Jason": 22848,
  "Jay": 26823,
  "Jeff": 16210,
  "Jeremy": 31752,
  "Jes": 21790,
  "Jess": 31853,
  "Jesus": 27371,
  "Jew": 21208,
  "Jewish": 24061,
  "Jim": 17077,
  "Jo": 11171,
  "Joe": 17067,
  "John": 7059,
  "Johnson": 18812,
  "Join": 19005,
  "Jon": 17336,
  "Jonathan": 27389,
  "Jones": 20338,
  "Jordan": 30624,
  "Jose": 21201,
  "Joseph": 26945,
  "Josh": 22769,
  "Journal": 23456,
  "Jud": 25144,
  "Judge": 23246,
  "Jul": 20352,
  "July": 16998,
  "June": 16769,
  "Just": 5332,
  "Justice": 24684,
  "Justin": 26036,
  "K": 75,
  "KA": 29846,
  "KE": 11058,
  "KEY": 31478,
  "KK": 16385,
  "KO": 29966,
  "Kat": 24011,
  "Ke": 9145,
  "Keep": 15787,
  "Kelly": 29432,
  "Ken": 20922,
  "Kevin": 21202,
  "Key": 12097,
  "Kim": 21363,
  "King": 16221,
  "Kit": 25208,
  "Kn": 29261,
  "Know": 24722,
  "Ky": 30128,
  "L": 76,
  "LA": 5716,
  "LAND": 30838,
  "LAY": 23117,
  "LC": 7722,
  "LD": 14965,
  "LE": 5658,
  "LGBT": 27350,
  "LINE": 31650,
  "LL": 4123,
  "LO": 28845,
  "LY": 14799,
  "La": 12583,
  "Lab": 17040,
  "Labour": 26413,
  "Land": 26354,
  "Large": 29410,
  "Last": 5045,
  "Lastly": 31767,
  "Lat": 30344,
  "Late": 23521,
  "Later": 15893,
  "Laughs": 27918,
  "Law": 15579,
  "Le": 4333,
  "Lead": 19537,
  "League": 20805,
  "Leaks": 11919,
  "Lear": 16349,
  "Learn": 25955,
  "Lee": 20819,
  "Left": 22714,
  "Leg": 18349,
  "Len": 28419,
  "Les": 28420,
  "Less": 21432,
  "Let": 5390,
  "Lev": 29199,
  "Level": 23621,
  "Lew": 28943,
  "Liber": 27656,
  "Life": 14403,
  "Light": 22703,
  "Like": 6660,
  "Lim": 23964,
  "Lin": 22331,
  "Line": 19006,
  "Link": 14048,
  "LinkedIn": 30937,
  "Linux": 29744,
  "List": 11603,
  "Listen": 20684,
  "Little": 20171,
  "Live": 22149,
  "Lo": 31715,
  "Load": 25668,
  "Local": 18278,
  "Location": 21298,
  "Log": 19613,
  "London": 20353,
  "Long": 16271,
  "Look": 8086,
  "Looking": 14058,
  "Lord": 27050,
  "Los": 26296,
  "Lou": 21364,
  "Louis": 27436,
  "Love": 18136,
  "Low": 25197,
  "Lu": 25598,
  "Luc": 23542,
  "Luck": 28971,
  "Lyn": 29000,
  "M": 77,
  "MA": 6147,
  "MAN": 11478,
  "MB": 11290,
  "MC": 15243,
  "MCA": 28217,
  "MD": 15729,
  "ME": 16329,
  "MENT": 20260,
  "MHz": 30485,
  "MI": 15021,
  "ML": 7459,
  "MM": 17650,
  "MO": 25179,
  "MORE": 19500,
  "MP": 7148,
  "MR": 25031,
  "MRI": 31364,
  "MS": 7601,
  "MT": 24797,
  "Ma": 23821,
  "Mac": 14630,
  "Mad": 18268,
  "Made": 27606,
  "Mag": 28023,
  "Magic": 31074,
  "Main": 19245,
  "Major": 24042,
  "Make": 13416,
  "Making": 21633,
  "Mal": 14528,
  "Malley": 29890,
  "Man": 6517,
  "Manager": 29813,
  "Manchester": 31260,
  "Mania": 31753,
  "Many": 6069,
  "Map": 20425,
  "Mar": 6870,
  "March": 15643,
  "Marcus": 28904,
  "Mark": 10172,
  "Market": 30011,
  "Mart": 12775,
  "Martin": 23359,
  "Mary": 23553,
  "Mass": 20235,
  "Master": 26088,
  "Mat": 14575,
  "Matt": 17960,
  "Matthew": 23818,
  "Max": 18989,
  "May": 6909,
  "Maybe": 11688,
  "Mayor": 28556,
  "Mc": 8577,
  "McC": 19475,
  "Me": 7754,
  "Mean": 7564,
  "Meanwhile": 7802,
  "Med": 12208,
  "Media": 12557,
  "Meet": 26781,
  "Mel": 19420,
  "Mem": 15139,
  "Members": 22613,
  "Men": 12755,
  "Mer": 15049,
  "Merit": 29224,
  "Message": 20213,
  "Met": 14472,
  "Method": 25073,
  "Mex": 20969,
  "Mexico": 28888,
  "Mich": 10174,
  "Michael": 12172,
  "Michel": 30779,
  "Microsoft": 16197,
  "Mid": 26461,
  "Middle": 31259,
  "Mike": 14769,
  "Mil": 23986,
  "Mill": 31041,
  "Miller": 30269,
  "Min": 12732,
  "Mind": 30345,
  "Mir": 31204,
  "Miss": 18909,
  "Mo": 16945,
  "Mobile": 14536,
  "Mod": 10700,
  "Model": 26844,
  "Modern": 26006,
  "Moh": 31395,
  "Mom": 29487,
  "Mon": 12721,
  "Mond": 22171,
  "Monday": 23360,
  "Money": 24262,
  "Mont": 22546,
  "Moon": 29873,
  "Moore": 29548,
  "Mor": 17904,
  "More": 4790,
  "Moreover": 20468,
  "Mos": 27657,
  "Most": 6302,
  "Mot": 30428,
  "Mother": 30295,
  "Move": 29918,
  "Moving": 29607,
  "Mr": 4421,
  "Mrs": 23822,
  "Ms": 10028,
  "Much": 16470,
  "Mult": 19941,
  "Mur": 21509,
  "Mus": 9558,
  "Music": 22832,
  "Muslim": 13245,
  "Muslims": 27867,
  "My": 3714,
  "N": 78,
  "NA": 4561,
  "NAS": 16079,
  "NASA": 21581,
  "NBA": 27709,
  "NBC": 10038,
  "NC": 6891,
  "ND": 5479,
  "NE": 7380,
  "NET": 14251,
  "NEW": 14015,
  "NF": 25690,
  "NFL": 28760,
  "NG": 13621,
  "NI": 24043,
  "NL": 25828,
  "NN": 4751,
  "NO": 16211,
  "NOT": 21812,
  "NP": 22926,
  "NPR": 29262,
  "NR": 24596,
  "NS": 9215,
  "NT": 13386,
  "NULL": 13439,
  "NY": 13508,
  "Na": 28108,
  "Name": 12622,
  "Nar": 30178,
  "National": 15430,
  "Naz": 30296,
  "Nazi": 25725,
  "Ne": 5511,
  "Nearly": 21461,
  "Need": 25318,
  "Neil": 24498,
  "Neill": 21373,
  "Neither": 22256,
  "Net": 11127,
  "Never": 12976,
  "Nevertheless": 22580,
  "New": 3837,
  "News": 8942,
  "Newsletter": 24972,
  "Next": 10736,
  "Nic": 28735,
  "Nick": 21279,
  "Night": 28586,
  "Nine": 31683,
  "Nintendo": 31913,
  "No": 3398,
  "Nobody": 20022,
  "Node": 28066,
  "Non": 17118,
  "None": 17369,
  "Nor": 20367,
  "North": 12943,
  "Not": 4069,
  "Note": 8847,
  "Notes": 18117,
  "Nothing": 17545,
  "Notice": 31905,
  "Nov": 24977,
  "November": 19705,
  "Now": 3529,
  "Number": 21717,
  "Nusra": 28869,
  "O": 79,
  "OB": 24337,
  "OC": 6962,
  "OCK": 18607,
  "OD": 7080,
  "ODE": 31740,
  "OG": 20172,
  "OH": 18834,
  "OK": 9455,
  "OL": 5451,
  "OLD": 20696,
  "OM": 3930,
  "OME": 15587,
  "ON": 2258,
  "OND": 22853,
  "ONE": 20053,
  "ONG": 23654,
  "OO": 26669,
  "OP": 3268,
  "OPA": 29310,
  "OPS": 28440,
  "OR": 2900,
  "ORD": 19567,
  "ORE": 6499,
  "ORK": 16634,
  "ORN": 27625,
  "ORT": 15977,
  "ORY": 21329,
  "OS": 3284,
  "OSE": 16410,
  "OSS": 23438,
  "OST": 13835,
  "OT": 3663,
  "OTA": 31406,
  "OTH": 25579,
  "OTO": 22591,
  "OTOS": 27211,
  "OTUS": 30311,
  "OU": 4398,
  "OUND": 24037,
  "OUR": 17718,
  "OUT": 20595,
  "OW": 5634,
  "OWN": 22243,
  "Ob": 6454,
  "Obama": 10955,
  "Object": 19353,
  "Obs": 31784,
  "Obviously": 16215,
  "Occ": 29488,
  "Oct": 13525,
  "October": 18197,
  "Of": 5296,
  "Off": 7603,
  "Office": 29251,
  "Officers": 26163,
  "Official": 30313,
  "Officials": 19291,
  "Oh": 6021,
  "Ohio": 23694,
  "Ok": 19454,
  "Okay": 16614,
  "Old": 22792,
  "On": 2074,
  "Once": 7324,
  "One": 2849,
  "Online": 21940,
  "Only": 11601,
  "Op": 20319,
  "Open": 16247,
  "Oper": 20736,
  "Operation": 30653,
  "Opp": 22378,
  "Or": 7010,
  "Organ": 24477,
  "Orig": 13616,
  "Original": 24614,
  "Originally": 23297,
  "Os": 9538,
  "Other": 5925,
  "Others": 19786,
  "Our": 4705,
  "Out": 9559,
  "Outside": 25396,
  "Over": 5760,
  "Overall": 15978,
  "Own": 29919,
  "P": 80,
  "PA": 4766,
  "PC": 8151,
  "PD": 5687,
  "PDATE": 11992,
  "PDF": 19679,
  "PE": 23264,
  "PER": 21678,
  "PG": 8375,
  "PH": 15839,
  "PI": 10701,
  "PL": 10022,
  "PLET": 25438,
  "PM": 9764,
  "PN": 22520,
  "PO": 22194,
  "PORT": 28310,
  "PP": 8781,
  "PR": 5902,
  "PRO": 31674,
  "PS": 4937,
  "PT": 20654,
  "PU": 6433,
  "Pa": 31854,
  "Pac": 16386,
  "Pacific": 19146,
  "Pack": 26706,
  "Pad": 30320,
  "Page": 17822,
  "Pakistan": 25303,
  "Pal": 11133,
  "Palest": 24532,
  "Palestinian": 26619,
  "Pan": 23543,
  "Par": 13551,
  "Park": 23235,
  "Part": 8713,
  "Pass": 17732,
  "Pat": 12151,
  "Path": 20875,
  "Patrick": 27148,
  "Paul": 10288,
  "Pay": 19281,
  "Pe": 5741,
  "Pen": 30179,
  "People": 6656,
  "Per": 6855,
  "Perhaps": 11346,
  "Person": 15781,
  "Personal": 27507,
  "Pet": 28666,
  "Peter": 17440,
  "Ph": 2666,
  "Phil": 17569,
  "Phone": 27674,
  "Phot": 15463,
  "Photo": 4954,
  "Photos": 20376,
  "Pict": 21219,
  "Picture": 27682,
  "Pierre": 28736,
  "Pinterest": 29001,
  "Pl": 4527,
  "Plan": 20155,
  "Plate": 20399,
  "Play": 15500,
  "Player": 22940,
  "Players": 25967,
  "Playing": 30205,
  "Please": 8493,
  "Plus": 16682,
  "Po": 21445,
  "Point": 16189,
  "Pol": 6399,
  "Police": 7195,
  "Polit": 31302,
  "Political": 26670,
  "Pop": 27051,
  "Port": 17207,
  "Position": 29233,
  "Post": 8049,
  "Posted": 14574,
  "Pot": 27260,
  "Power": 17865,
  "Pr": 7842,
  "Pre": 9682,
  "Prem": 29894,
  "Pres": 27566,
  "President": 8122,
  "Press": 13760,
  "Previous": 22925,
  "Previously": 31550,
  "Pri": 19133,
  "Price": 20903,
  "Prime": 20894,
  "Print": 20149,
  "Prior": 21583,
  "Priv": 24593,
  "Pro": 3996,
  "Probably": 31703,
  "Process": 31904,
  "Product": 31557,
  "Prof": 14113,
  "Professor": 22818,
  "Project": 19258,
  "Prom": 28421,
  "Prop": 24338,
  "Pros": 28958,
  "Prosecutors": 28903,
  "Prot": 23641,
  "Prov": 20929,
  "Ps": 11110,
  "Public": 15190,
  "Published": 20990,
  "Put": 15005,
  "Putin": 28996,
  "Q": 81,
  "QL": 10677,
  "QU": 19147,
  "Qaeda": 13645,
  "Qaida": 29002,
  "Qu": 6515,
  "Que": 19614,
  "Query": 23804,
  "Quest": 17864,
  "Question": 26433,
  "Quick": 24686,
  "R": 82,
  "RA": 5107,
  "RB": 23213,
  "RC": 8556,
  "RE": 2142,
  "READ": 13678,
  "RED": 18804,
  "REE": 16301,
  "REL": 14513,
  "RELATED": 15890,
  "RES": 16834,
  "RESS": 24311,
  "REV": 16337,
  "RI": 8816,
  "RIS": 21123,
  "RL": 9137,
  "RM": 30396,
  "RO": 11657,
  "RP": 20516,
  "RS": 7516,
  "RT": 13863,
  "RY": 30244,
  "Ra": 23731,
  "Rad": 16890,
  "Radio": 27834,
  "Ram": 28046,
  "Rather": 21885,
  "Ray": 20080,
  "Re": 3161,
  "Read": 5053,
  "Readers": 31226,
  "Ready": 30932,
  "Real": 16756,
  "Really": 26120,
  "Reb": 28331,
  "Rec": 7812,
  "Recent": 24460,
  "Recently": 19860,
  "Record": 26233,
  "Red": 10904,
  "Redd": 21160,
  "Reddit": 21990,
  "Ref": 8107,
  "References": 13202,
  "Reg": 10269,
  "Regardless": 22428,
  "Reilly": 18262,
  "Rel": 6937,
  "Related": 8633,
  "Rem": 9809,
  "Remember": 15488,
  "Ren": 29263,
  "Rep": 5875,
  "Report": 25256,
  "Reports": 30261,
  "Republic": 11922,
  "Republican": 19036,
  "Republicans": 19924,
  "Res": 5757,
  "Research": 23942,
  "Researchers": 18653,
  "Residents": 31951,
  "Resp": 21360,
  "Rest": 23823,
  "Results": 28789,
  "Ret": 14504,
  "Return": 26019,
  "Reuters": 9644,
  "Rev": 24105,
  "Review": 17094,
  "Reviewer": 26370,
  "Rich": 13390,
  "Richard": 17639,
  "Rick": 29353,
  "Right": 10906,
  "Ro": 24482,
  "Rob": 15126,
  "Rober": 13803,
  "Robert": 16749,
  "Rock": 22753,
  "Rod": 24518,
  "Rog": 26483,
  "Rom": 20737,
  "Roman": 27854,
  "Romney": 27809,
  "Ron": 22366,
  "Ros": 30919,
  "Rose": 29031,
  "Rou": 28005,
  "Round": 26987,
  "Roy": 24104,
  "Rs": 28290,
  "Rub": 18714,
  "Ruby": 26482,
  "Run": 20354,
  "Running": 27542,
  "Russ": 8570,
  "Russia": 13462,
  "Russian": 13868,
  "Ryan": 18108,
  "S": 83,
  "SA": 4239,
  "SAN": 26355,
  "SB": 21774,
  "SC": 8479,
  "SD": 9040,
  "SE": 9308,
  "SH": 14505,
  "SHA": 31930,
  "SI": 18655,
  "SL": 8249,
  "SM": 31303,
  "SO": 15460,
  "SON": 13198,
  "SP": 4629,
  "SQL": 18069,
  "SS": 5816,
  "ST": 4748,
  "SU": 9289,
  "SW": 24275,
  "Sad": 22447,
  "Sadly": 28910,
  "Sah": 29115,
  "Sal": 19673,
  "Sam": 17599,
  "Samsung": 29747,
  "San": 15295,
  "Sand": 15044,
  "Sanders": 18336,
  "Sar": 20179,
  "Sarah": 24394,
  "Sat": 24429,
  "Saturday": 19492,
  "Saudi": 29095,
  "Save": 22221,
  "Say": 29049,
  "Sc": 4292,
  "Sch": 13570,
  "School": 26620,
  "Science": 25855,
  "Scient": 17417,
  "Scientists": 20653,
  "Scott": 16193,
  "Script": 9152,
  "Scroll": 23773,
  "Se": 6938,
  "Sean": 23600,
  "Search": 23778,
  "Season": 23332,
  "Seattle": 29814,
  "Sec": 6846,
  "Second": 12494,
  "Secret": 21168,
  "Secretary": 31585,
  "Section": 29511,
  "Security": 23605,
  "See": 6347,
  "Select": 31196,
  "Self": 28083,
  "Semit": 14427,
  "Semitic": 22941,
  "Semitism": 21172,
  "Sen": 8685,
  "Senate": 22218,
  "Senator": 23573,
  "Send": 31522,
  "Senior": 27941,
  "Sep": 14461,
  "September": 18935,
  "Ser": 14709,
  "Serv": 18641,
  "Server": 31006,
  "Service": 23679,
  "Set": 13468,
  "Seven": 27500,
  "Several": 11962,
  "Sex": 25032,
  "Sh": 3040,
  "Sham": 29895,
  "Share": 10943,
  "She": 3230,
  "Shell": 27772,
  "Sher": 26436,
  "Short": 16921,
  "Shortly": 23282,
  "Should": 18875,
  "Show": 18627,
  "Side": 28737,
  "Sign": 13718,
  "Sil": 16322,
  "Silver": 29766,
  "Sim": 9641,
  "Similar": 28062,
  "Similarly": 22692,
  "Simon": 31001,
  "Since": 5515,
  "Sing": 28667,
  "Single": 31993,
  "Sir": 25653,
  "Site": 30046,
  "Six": 18699,
  "Size": 26707,
  "Sk": 26393,
  "Sky": 23199,
  "Sl": 14901,
  "Sm": 8929,
  "Small": 24971,
  "Smart": 31473,
  "Smith": 16446,
  "Sn": 23265,
  "Snow": 28145,
  "So": 2222,
  "Social": 18452,
  "Soft": 27508,
  "Some": 3905,
  "Someone": 25435,
  "Something": 20497,
  "Sometimes": 13377,
  "Sony": 27813,
  "Soon": 23837,
  "Sorry": 21411,
  "Sound": 26683,
  "Source": 9231,
  "Sources": 18049,
  "South": 13145,
  "Sov": 31169,
  "Soviet": 31586,
  "Sp": 5863,
  "Space": 19517,
  "Spe": 6156,
  "Speaking": 10697,
  "Special": 18407,
  "Speed": 31320,
  "Sports": 16597,
  "Spot": 30497,
  "Squ": 27586,
  "St": 1601,
  "Staff": 28514,
  "Stan": 27479,
  "Stand": 23531,
  "Star": 8134,
  "Stars": 29365,
  "Start": 13518,
  "Starting": 22557,
  "Stat": 30091,
  "State": 8840,
  "Station": 10559,
  "Status": 27798,
  "Stay": 25519,
  "Ste": 5627,
  "Step": 10606,
  "Stephen": 22597,
  "Steve": 16837,
  "Steven": 26656,
  "Still": 9092,
  "Stock": 26741,
  "Stone": 31313,
  "Stop": 19180,
  "Story": 9835,
  "Str": 26060,
  "Stre": 23652,
  "Stream": 25307,
  "Street": 31403,
  "String": 17001,
  "Stud": 13523,
  "Students": 27149,
  "Su": 10219,
  "Sub": 8156,
  "Subject": 20443,
  "Subscribe": 19208,
  "Such": 14163,
  "Summary": 26988,
  "Sun": 19974,
  "Sund": 21556,
  "Sunday": 22497,
  "Super": 14452,
  "Supp": 10929,
  "Supplementary": 29762,
  "Support": 21181,
  "Sur": 15195,
  "Sure": 17237,
  "Sus": 27529,
  "Sw": 17704,
  "Sy": 13998,
  "System": 24316,
  "T": 84,
  "TA": 6337,
  "TB": 27787,
  "TC": 4900,
  "TE": 9394,
  "TER": 10085,
  "TH": 6005,
  "THE": 12001,
  "TI": 24430,
  "TION": 13159,
  "TIS": 12271,
  "TL": 18298,
  "TM": 24063,
  "TO": 11399,
  "TON": 10422,
  "TOR": 29670,
  "TP": 10300,
  "TR": 10523,
  "TRUMP": 30771,
  "TS": 5858,
  "TV": 5927,
  "TY": 17786,
  "Table": 16708,
  "Take": 12201,
  "Taking": 24292,
  "Tal": 30569,
  "Talk": 26671,
  "Tax": 27919,
  "Taylor": 28761,
  "Te": 6253,
  "Team": 17082,
  "Tech": 22547,
  "Techn": 25042,
  "Ted": 31716,
  "Tele": 26780,
  "Tell": 23681,
  "Tem": 23794,
  "Ten": 22439,
  "Ter": 16730,
  "Test": 18198,
  "Tex": 15636,
  "Texas": 17430,
  "Text": 20962,
  "Th": 802,
  "Thank": 10786,
  "Thanks": 10430,
  "That": 2120,
  "The": 445,
  "Their": 12061,
  "Then": 6269,
  "There": 1644,
  "Therefore": 26858,
  "These": 4339,
  "They": 2526,
  "Things": 19097,
  "Think": 18873,
  "Third": 22500,
  "Thirty": 31400,
  "This": 1206,
  "Thomas": 19854,
  "Those": 7980,
  "Though": 9124,
  "Thousands": 27427,
  "Thread": 30609,
  "Three": 11106,
  "Through": 12617,
  "Throughout": 20944,
  "Thursday": 23902,
  "Thus": 19184,
  "Tim": 15589,
  "Time": 10655,
  "Times": 24044,
  "Tit": 19674,
  "Title": 25757,
  "To": 2705,
  "Today": 7409,
  "Tom": 13064,
  "Tony": 25705,
  "Too": 23724,
  "Top": 10401,
  "Topics": 20943,
  "Tor": 14453,
  "Toronto": 23984,
  "Torrent": 30071,
  "Total": 17722,
  "Tr": 3205,
  "Tra": 27306,
  "Track": 31064,
  "Trans": 11452,
  "Travel": 31205,
  "Tre": 26749,
  "Tri": 23965,
  "True": 22812,
  "Trump": 5005,
  "Try": 28084,
  "Tube": 6000,
  "Tuesday": 24232,
  "Tunes": 13642,
  "Tur": 15305,
  "Turkey": 24256,
  "Turn": 20787,
  "Tw": 16923,
  "Twenty": 27564,
  "Twitter": 12194,
  "Two": 6703,
  "Ty": 9011,
  "Type": 12253,
  "U": 85,
  "UB": 12098,
  "UC": 11430,
  "UCK": 26369,
  "UD": 13356,
  "UE": 15565,
  "UFC": 29147,
  "UG": 15868,
  "UI": 13853,
  "UK": 15191,
  "UL": 10741,
  "ULL": 9984,
  "UM": 13825,
  "UMP": 20460,
  "UN": 10483,
  "UP": 15818,
  "UPDATE": 13271,
  "UR": 7874,
  "URE": 21780,
  "URN": 30912,
  "US": 3246,
  "USA": 14490,
  "USD": 28411,
  "USE": 19656,
  "USH": 28251,
  "UST": 9608,
  "UT": 5607,
  "UTC": 17577,
  "UTERS": 12387,
  "Uk": 25225,
  "Ult": 16133,
  "Ultimately": 21228,
  "Un": 4002,
  "Under": 8025,
  "Unfortunately": 11847,
  "United": 17589,
  "University": 21743,
  "Unless": 25507,
  "Unlike": 15421,
  "Until": 15323,
  "Up": 5520,
  "Update": 10986,
  "Updated": 15731,
  "Upon": 20400,
  "Ur": 18575,
  "Url": 25927,
  "Us": 8029,
  "Use": 16735,
  "User": 18322,
  "Users": 29173,
  "Using": 13101,
  "Ut": 24676,
  "V": 86,
  "VA": 16212,
  "VC": 19271,
  "VD": 9810,
  "VE": 9663,
  "VEL": 29291,
  "VER": 7043,
  "VERTIS": 12787,
  "VI": 23522,
  "VID": 14800,
  "VIDIA": 21159,
  "VM": 17208,
  "VO": 31523,
  "VP": 10318,
  "VR": 15924,
  "Val": 14238,
  "Value": 21278,
  "Van": 25353,
  "Ve": 21248,
  "Ver": 17777,
  "Version": 29700,
  "Very": 20578,
  "Via": 25459,
  "Vict": 21718,
  "Video": 12964,
  "View": 10325,
  "Virgin": 30625,
  "Vis": 18410,
  "Vol": 19538,
  "Vs": 30780,
  "W": 87,
  "WA": 15050,
  "WAR": 23200,
  "WASHINGTON": 15749,
  "WATCH": 27238,
  "WC": 21112,
  "WE": 20140,
  "WH": 14322,
  "WR": 23299,
  "WS": 9590,
  "Wait": 22560,
  "Wal": 22119,
  "Wall": 23457,
  "Want": 19192,
  "War": 12300,
  "Ware": 30870,
  "Was": 17812,
  "Washington": 15171,
  "Wat": 28634,
  "Watch": 9617,
  "Water": 22599,
  "Way": 26989,
  "We": 971,
  "Web": 19855,
  "Wed": 22945,
  "Wednesday": 24551,
  "Week": 20307,
  "Welcome": 18564,
  "Well": 5676,
  "West": 14074,
  "Western": 21606,
  "Wh": 1152,
  "What": 1980,
  "Whatever": 18177,
  "Whe": 10601,
  "When": 2064,
  "Whenever": 29934,
  "Where": 8482,
  "Whether": 13603,
  "Which": 12763,
  "While": 3044,
  "White": 12140,
  "Who": 8146,
  "Why": 4961,
  "Wil": 21394,
  "Wild": 26109,
  "Will": 8409,
  "William": 24735,
  "Williams": 23607,
  "Wilson": 29794,
  "Win": 18642,
  "Wind": 15249,
  "Windows": 19767,
  "Wire": 30871,
  "With": 2998,
  "Within": 19151,
  "Without": 16050,
  "Wolf": 31487,
  "Women": 16972,
  "Wood": 26503,
  "Work": 13534,
  "Working": 25823,
  "Works": 24519,
  "World": 12862,
  "Would": 18269,
  "Wow": 20848,
  "Writ": 14720,
  "Write": 24830,
  "Writing": 28142,
  "Written": 27654,
  "X": 88,
  "XT": 19103,
  "XX": 12984,
  "Y": 89,
  "YC": 21823,
  "YS": 25995,
  "Yeah": 10924,
  "Year": 20884,
  "Yes": 5961,
  "Yesterday": 20954,
  "Yet": 8995,
  "You": 1803,
  "YouTube": 29064,
  "Young": 18340,
  "Your": 8898,
  "Z": 90,
  "ZA": 30920,
  "Zero": 30047,
  "[": 91,
  "[(": 30452,
  "[/": 14541,
  "\\": 92,
  "\\\"": 22498,
  "\\)": 19134,
  "\\-": 23179,
  "\\\\": 28609,
  "]": 93,
  "])": 16811,
  "],": 5611,
  "],\"": 24293,
  "],âĢĿ": 30397,
  "].": 5234,
  "]:": 18288,
  "];": 12911,
  "]<|": 12532,
  "][": 2874,
  "]]": 23698,
  "^": 94,
  "^{": 25957,
  "_": 95,
  "__": 1325,
  "___": 20330,
  "____": 2378,
  "________": 4161,
  "________________": 7595,
  "________________________________": 15304,
  "_{": 16531,
  "`": 96,
  "a": 97,
  "aa": 15334,
  "ab": 409,
  "aba": 14687,
  "abad": 14750,
  "abama": 7705,
  "abase": 20549,
  "abb": 6334,
  "abbage": 30934,
  "abbit": 16506,
  "abe": 10404,
  "abee": 22000,
  "abel": 15492,
  "abet": 9508,
  "abetes": 12006,
  "abeth": 9102,
  "abi": 16970,
  "abil": 13082,
  "abilities": 5612,
  "ability": 1892,
  "abin": 6048,
  "abinet": 8187,
  "abis": 6724,
  "abit": 30757,
  "abl": 13444,
  "able": 575,
  "abled": 5792,
  "ables": 3424,
  "abling": 12330,
  "ablish": 17142,
  "ablished": 20303,
  "ablishment": 22072,
  "ablo": 17194,
  "ably": 1289,
  "abor": 3259,
  "abortion": 24836,
  "about": 11335,
  "abouts": 25812,
  "above": 28797,
  "abs": 7962,
  "abul": 13328,
  "abulary": 20316,
  "abwe": 19901,
  "aby": 4140,
  "ac": 313,
  "aca": 21637,
  "acc": 6800,
  "accept": 11548,
  "acceptable": 12989,
  "access": 16696,
  "accessible": 31008,
  "acco": 8465,
  "account": 22516,
  "accur": 14910,
  "ace": 559,
  "acebook": 2317,
  "aced": 2268,
  "acent": 13148,
  "acer": 12937,
  "acerb": 18761,
  "aces": 2107,
  "aceutical": 13234,
  "acey": 22851,
  "ach": 634,
  "acha": 28924,
  "ache": 6054,
  "ached": 2452,
  "achel": 9839,
  "achelor": 18978,
  "acher": 3348,
  "achers": 16431,
  "aches": 3585,
  "achi": 17306,
  "achine": 27160,
  "aching": 8143,
  "achment": 11807,
  "acht": 19813,
  "achus": 8236,
  "achusetts": 8299,
  "acial": 26710,
  "acies": 12056,
  "acing": 4133,
  "acious": 13897,
  "acity": 4577,
  "aciÃ³n": 22682,
  "ack": 451,
  "acked": 7458,
  "acker": 14609,
  "ackers": 24205,
  "acket": 9064,
  "ackets": 27472,
  "acking": 6911,
  "acks": 5144,
  "acle": 6135,
  "acles": 10432,
  "aco": 10876,
  "acon": 8444,
  "acre": 10702,
  "acs": 20947,
  "act": 508,
  "acted": 20161,
  "acter": 6071,
  "acters": 28822,
  "actic": 14550,
  "acting": 25711,
  "action": 2606,
  "actions": 4622,
  "activ": 18550,
  "active": 6102,
  "actively": 28382,
  "activity": 22762,
  "actly": 21007,
  "actor": 10515,
  "actory": 13073,
  "acts": 9850,
  "acular": 12305,
  "acy": 1501,
  "ad": 324,
  "ada": 4616,
  "adal": 30185,
  "adan": 24985,
  "adata": 17347,
  "aday": 31455,
  "adays": 17663,
  "add": 3215,
  "addafi": 17278,
  "adden": 30993,
  "addock": 31923,
  "address": 28439,
  "addy": 14457,
  "ade": 675,
  "aded": 5232,
  "adel": 6849,
  "adelph": 7493,
  "adelphia": 7551,
  "adem": 3555,
  "adena": 31656,
  "adequ": 14814,
  "ader": 5242,
  "aders": 10750,
  "ades": 2246,
  "adesh": 10862,
  "adh": 17725,
  "adi": 8064,
  "adia": 27662,
  "adian": 16920,
  "adic": 21254,
  "adin": 26052,
  "ading": 4366,
  "aditional": 17113,
  "adium": 5082,
  "adjusted": 30079,
  "ado": 4127,
  "ador": 6287,
  "ados": 21002,
  "adow": 5837,
  "adows": 13210,
  "ads": 7274,
  "advant": 13105,
  "ady": 4547,
  "ae": 4457,
  "aed": 7557,
  "aeda": 8938,
  "ael": 2767,
  "af": 2002,
  "afa": 24992,
  "afe": 9419,
  "afer": 31466,
  "afety": 26774,
  "aff": 1452,
  "affe": 13790,
  "affeine": 21876,
  "affer": 22647,
  "affle": 31312,
  "afi": 12863,
  "afia": 20939,
  "afort": 18055,
  "aft": 22023,
  "after": 9738,
  "ag": 370,
  "aga": 9193,
  "again": 16429,
  "against": 28082,
  "agan": 5987,
  "age": 502,
  "aged": 1835,
  "agement": 2997,
  "agen": 10585,
  "agent": 24342,
  "ager": 2435,
  "agers": 6033,
  "ages": 1123,
  "agg": 11732,
  "agged": 15149,
  "agger": 7718,
  "agging": 14567,
  "agh": 8931,
  "aghd": 13014,
  "agher": 22078,
  "aghetti": 29640,
  "agi": 25229,
  "agic": 9128,
  "agically": 30978,
  "agine": 11215,
  "aging": 2570,
  "agle": 21542,
  "agn": 4978,
  "agne": 19692,
  "agnet": 18829,
  "agnetic": 21909,
  "ago": 3437,
  "agog": 27713,
  "agogue": 24835,
  "agon": 3540,
  "agonal": 27905,
  "agonist": 15464,
  "agram": 7366,
  "agraph": 12934,
  "ags": 4342,
  "agu": 11875,
  "ague": 1737,
  "agues": 5008,
  "ah": 1024,
  "aha": 14393,
  "ahan": 16800,
  "ahar": 31794,
  "ahl": 12633,
  "ahn": 14285,
  "aho": 15822,
  "ahon": 26606,
  "ahoo": 11463,
  "ahu": 9675,
  "ai": 2049,
  "aic": 18173,
  "aid": 1990,
  "aida": 23403,
  "aign": 1427,
  "ail": 616,
  "ailability": 31723,
  "ailable": 10659,
  "ailand": 13626,
  "ailed": 9054,
  "ailing": 11964,
  "ails": 1925,
  "ailure": 23222,
  "aily": 2862,
  "aim": 1296,
  "ain": 390,
  "aine": 5273,
  "ained": 1507,
  "ainer": 17561,
  "aining": 1561,
  "ains": 1377,
  "aint": 3672,
  "ainted": 15498,
  "aints": 5580,
  "air": 991,
  "aird": 27621,
  "aire": 7676,
  "aired": 10134,
  "aires": 14621,
  "airo": 13741,
  "airs": 3466,
  "airy": 13433,
  "ais": 9378,
  "ait": 4738,
  "aj": 1148,
  "aja": 24017,
  "aji": 25676,
  "ajo": 26538,
  "ajor": 1345,
  "ak": 471,
  "aka": 9112,
  "akable": 28314,
  "ake": 535,
  "aked": 4215,
  "akedown": 23355,
  "aken": 1660,
  "akens": 28030,
  "aker": 3032,
  "akers": 3351,
  "akes": 1124,
  "akespe": 17652,
  "akespeare": 17811,
  "akh": 9362,
  "aki": 10649,
  "akin": 30730,
  "aking": 832,
  "akis": 24817,
  "akistan": 4674,
  "ako": 25164,
  "aks": 4374,
  "aku": 14455,
  "aky": 15554,
  "al": 283,
  "ala": 6669,
  "alach": 28548,
  "alan": 29798,
  "ald": 1791,
  "ale": 1069,
  "aleb": 29999,
  "aled": 5659,
  "aleigh": 26999,
  "ales": 3391,
  "aley": 14007,
  "alez": 17815,
  "alf": 1562,
  "ali": 7646,
  "alia": 9026,
  "alian": 24322,
  "aliation": 18558,
  "alid": 11924,
  "alie": 26374,
  "alin": 14937,
  "aline": 22982,
  "aling": 5496,
  "alion": 20801,
  "alis": 28147,
  "alities": 24005,
  "ality": 1551,
  "alk": 964,
  "alker": 24711,
  "alking": 18845,
  "alky": 31729,
  "all": 447,
  "alla": 26329,
  "allah": 20193,
  "allas": 6601,
  "alle": 6832,
  "alled": 3011,
  "alleng": 28508,
  "allic": 23339,
  "alling": 9063,
  "allow": 15263,
  "alls": 5363,
  "ally": 454,
  "almost": 23628,
  "alo": 7149,
  "alog": 13456,
  "alogue": 28639,
  "alone": 17088,
  "along": 22120,
  "alph": 14561,
  "als": 875,
  "alse": 3901,
  "alsh": 17333,
  "also": 14667,
  "alt": 3028,
  "alth": 1070,
  "although": 15366,
  "alties": 9892,
  "alty": 6265,
  "aly": 3447,
  "alys": 26222,
  "alysis": 9987,
  "am": 323,
  "ama": 1291,
  "amac": 9071,
  "amacare": 9180,
  "aman": 12048,
  "amas": 16150,
  "amation": 15599,
  "amb": 3606,
  "amber": 7821,
  "ambers": 15961,
  "ambig": 24793,
  "ambled": 28058,
  "ambling": 11787,
  "ambo": 23718,
  "amboo": 30426,
  "amburg": 22164,
  "amd": 31593,
  "ame": 491,
  "amed": 2033,
  "amel": 19897,
  "ament": 1858,
  "amental": 24964,
  "aments": 11199,
  "amer": 2203,
  "amera": 19594,
  "ames": 1027,
  "ami": 8300,
  "amic": 22047,
  "amiliar": 17700,
  "amily": 13977,
  "amin": 5964,
  "amina": 28640,
  "amination": 29180,
  "amine": 12237,
  "aminer": 25869,
  "aming": 3294,
  "amins": 25935,
  "amm": 5128,
  "ammad": 20380,
  "ammar": 16835,
  "ammed": 8380,
  "ammy": 22236,
  "amo": 15626,
  "amon": 18634,
  "amoto": 23879,
  "amount": 17515,
  "amous": 10756,
  "amp": 673,
  "ampa": 11021,
  "amped": 16497,
  "amph": 26115,
  "ampion": 5820,
  "ampions": 3557,
  "ampionship": 4639,
  "ampire": 17919,
  "ample": 1469,
  "amples": 18719,
  "amps": 14111,
  "ampton": 16978,
  "ams": 1867,
  "amsung": 7926,
  "amus": 30023,
  "amy": 15590,
  "an": 272,
  "ana": 2243,
  "analysis": 25376,
  "anamo": 24891,
  "anan": 23749,
  "anas": 18308,
  "anc": 1165,
  "ance": 603,
  "anced": 3234,
  "ancer": 17813,
  "ancers": 20527,
  "ances": 1832,
  "anch": 3474,
  "anche": 5334,
  "anches": 11435,
  "anchester": 7200,
  "anchez": 16321,
  "ancial": 2495,
  "ancies": 15504,
  "ancing": 4986,
  "anco": 25901,
  "ancou": 8026,
  "ancouver": 8094,
  "ancy": 4660,
  "and": 389,
  "anda": 4941,
  "andal": 6391,
  "andals": 18256,
  "anded": 12585,
  "andem": 25938,
  "ander": 4437,
  "andi": 30579,
  "anding": 16664,
  "ando": 17155,
  "andom": 4495,
  "andon": 4657,
  "andra": 27470,
  "andro": 24244,
  "ands": 1711,
  "andum": 25881,
  "andy": 12038,
  "ane": 1654,
  "aned": 20790,
  "aneers": 29063,
  "aneous": 14297,
  "aneously": 26979,
  "anes": 6992,
  "aney": 18588,
  "ang": 671,
  "anga": 30792,
  "ange": 884,
  "anged": 5742,
  "angel": 8567,
  "angelical": 13673,
  "anger": 2573,
  "angered": 16552,
  "angerous": 22191,
  "angers": 6075,
  "anges": 6837,
  "anging": 4689,
  "angle": 10090,
  "angled": 19958,
  "angles": 29079,
  "angling": 23383,
  "ango": 15216,
  "angu": 2280,
  "anguage": 11039,
  "anguard": 27970,
  "angular": 22643,
  "ani": 3243,
  "ania": 4994,
  "anic": 26323,
  "anie": 29381,
  "aniel": 5759,
  "anies": 17253,
  "anim": 10921,
  "aning": 7896,
  "anish": 6658,
  "anity": 19727,
  "anium": 14992,
  "ank": 963,
  "anka": 12906,
  "anke": 25694,
  "anked": 14093,
  "ankind": 28708,
  "anking": 12685,
  "anks": 3008,
  "ann": 1620,
  "anna": 8558,
  "annah": 25865,
  "anne": 15490,
  "annel": 4678,
  "annels": 8589,
  "anners": 18083,
  "anni": 24857,
  "annie": 31733,
  "annon": 9920,
  "anny": 7455,
  "ano": 5218,
  "anoia": 28881,
  "anol": 20909,
  "another": 26439,
  "anqu": 26465,
  "ans": 493,
  "ansas": 5505,
  "ansen": 30273,
  "anship": 16066,
  "ansing": 20572,
  "ansion": 5211,
  "anson": 18914,
  "ant": 424,
  "anta": 18968,
  "ante": 15146,
  "anted": 8181,
  "anthrop": 18120,
  "anti": 15938,
  "antic": 7811,
  "antically": 30222,
  "antics": 28848,
  "antin": 28746,
  "antine": 17339,
  "anting": 14850,
  "antino": 30580,
  "antly": 3900,
  "anto": 13772,
  "antom": 19019,
  "anton": 19167,
  "antry": 21065,
  "ants": 1214,
  "anut": 21084,
  "any": 1016,
  "anyahu": 12170,
  "anye": 22510,
  "anz": 30892,
  "anza": 30893,
  "ao": 7153,
  "ap": 465,
  "apa": 30381,
  "apan": 2559,
  "ape": 2239,
  "aped": 5700,
  "aper": 2020,
  "apers": 5214,
  "apes": 7691,
  "apest": 30788,
  "aph": 3141,
  "api": 23844,
  "aping": 9047,
  "apolis": 9374,
  "apor": 15012,
  "apore": 10558,
  "app": 1338,
  "appa": 24141,
  "apped": 4839,
  "apper": 10770,
  "apping": 5617,
  "appings": 29883,
  "apple": 25085,
  "appointed": 26753,
  "appro": 15764,
  "appropri": 10510,
  "appropriate": 12065,
  "approved": 26170,
  "appy": 8171,
  "aps": 1584,
  "apse": 6964,
  "apt": 2953,
  "apter": 5665,
  "apture": 26288,
  "apy": 14362,
  "aq": 31452,
  "aque": 17858,
  "ar": 284,
  "ara": 3512,
  "arag": 27873,
  "arak": 20200,
  "aran": 4431,
  "arat": 29875,
  "aration": 10062,
  "arc": 18280,
  "arcer": 15277,
  "arch": 983,
  "arching": 30700,
  "archive": 25984,
  "archs": 29362,
  "archy": 8991,
  "ard": 459,
  "arded": 11651,
  "arden": 6180,
  "ardi": 18024,
  "arding": 12714,
  "ardless": 13195,
  "ardo": 11521,
  "ards": 1432,
  "ardy": 29878,
  "are": 527,
  "area": 19761,
  "ared": 1116,
  "arel": 18679,
  "aren": 5127,
  "arency": 9992,
  "arent": 1558,
  "arenthood": 12134,
  "arently": 11872,
  "arents": 12985,
  "arer": 12019,
  "ares": 3743,
  "arest": 13530,
  "aret": 12681,
  "areth": 22951,
  "arez": 16125,
  "arf": 31935,
  "arg": 874,
  "arge": 1378,
  "arget": 10405,
  "argo": 9151,
  "ari": 3413,
  "aria": 9929,
  "arian": 3450,
  "arians": 11714,
  "ariat": 20987,
  "aries": 3105,
  "arily": 2992,
  "arin": 17600,
  "aring": 1595,
  "ario": 4570,
  "arios": 11796,
  "arious": 18894,
  "aris": 21765,
  "arity": 6991,
  "arium": 19862,
  "arius": 23640,
  "ark": 678,
  "arks": 5126,
  "arl": 6240,
  "arlier": 7877,
  "arly": 878,
  "arm": 1871,
  "arma": 12246,
  "armac": 31218,
  "armed": 11177,
  "arming": 18064,
  "arms": 8542,
  "arn": 6455,
  "aro": 11198,
  "aron": 7688,
  "around": 12888,
  "arp": 5711,
  "arr": 3420,
  "arrass": 8218,
  "array": 25515,
  "arre": 9283,
  "arrison": 23511,
  "arro": 31119,
  "arrow": 27587,
  "arry": 7724,
  "ars": 950,
  "arse": 17930,
  "arsh": 5097,
  "arson": 10431,
  "art": 428,
  "arta": 29946,
  "arted": 26511,
  "arten": 22382,
  "arter": 2281,
  "arters": 6012,
  "arth": 3055,
  "arthed": 30329,
  "arthy": 12752,
  "article": 23080,
  "articles": 28673,
  "artime": 29496,
  "artisan": 14195,
  "artment": 1697,
  "artney": 26512,
  "arts": 17668,
  "arty": 27186,
  "artz": 22860,
  "aru": 13733,
  "arus": 23050,
  "ary": 558,
  "as": 291,
  "asa": 16751,
  "asant": 9472,
  "asc": 3183,
  "ascal": 23955,
  "ascar": 29343,
  "ascist": 29309,
  "ascript": 17437,
  "ascular": 17358,
  "ascus": 15808,
  "ase": 622,
  "ased": 829,
  "aser": 7096,
  "asers": 29799,
  "ases": 1444,
  "ash": 1147,
  "asha": 17756,
  "ashed": 5236,
  "ashes": 7486,
  "ashi": 15471,
  "ashing": 1863,
  "ashington": 2101,
  "ashion": 5510,
  "ashtra": 28225,
  "asi": 13850,
  "asing": 2138,
  "asio": 23647,
  "asion": 7837,
  "asionally": 31996,
  "asis": 20498,
  "asive": 11136,
  "ask": 2357,
  "aska": 7906,
  "asket": 16992,
  "asketball": 22614,
  "asking": 23940,
  "asks": 6948,
  "asley": 28180,
  "asm": 13908,
  "asmine": 26049,
  "ason": 822,
  "asonable": 18074,
  "asonic": 29617,
  "asons": 2561,
  "asp": 5892,
  "aspberry": 20401,
  "asper": 24552,
  "ass": 577,
  "assad": 27797,
  "assador": 8998,
  "assadors": 30215,
  "assan": 18105,
  "asse": 21326,
  "assed": 21353,
  "asser": 22395,
  "asses": 15668,
  "assets": 26812,
  "assic": 26874,
  "assing": 21314,
  "assion": 11462,
  "assis": 21282,
  "assium": 25081,
  "assuming": 29714,
  "assy": 9997,
  "ast": 472,
  "aste": 4419,
  "asted": 10806,
  "aster": 1874,
  "astern": 5882,
  "asters": 7217,
  "astes": 17256,
  "astic": 3615,
  "astical": 29851,
  "astically": 14324,
  "astics": 22998,
  "asting": 10958,
  "astings": 26257,
  "aston": 31890,
  "astro": 23139,
  "astrous": 15908,
  "asts": 7268,
  "asty": 8533,
  "asure": 6191,
  "asures": 15347,
  "asury": 9373,
  "asy": 4700,
  "at": 266,
  "ata": 1166,
  "atable": 17041,
  "atal": 17297,
  "atar": 9994,
  "atch": 1012,
  "atched": 15398,
  "atches": 26008,
  "atching": 18432,
  "ate": 368,
  "ated": 515,
  "ateful": 10708,
  "ateg": 2512,
  "ategories": 31188,
  "ategory": 15709,
  "atel": 21003,
  "atell": 6483,
  "atellite": 27958,
  "ately": 1274,
  "ater": 741,
  "ateral": 9977,
  "atered": 28357,
  "aterial": 27426,
  "atern": 12084,
  "aternal": 22317,
  "aternity": 18585,
  "aters": 15276,
  "ates": 676,
  "ateur": 13571,
  "atever": 3536,
  "atform": 14379,
  "ath": 849,
  "athan": 6296,
  "athe": 28086,
  "athed": 28424,
  "ather": 1038,
  "athered": 7814,
  "atherine": 13489,
  "athering": 24694,
  "athetic": 14428,
  "athing": 23917,
  "athom": 28647,
  "athon": 11862,
  "athy": 7735,
  "ati": 7021,
  "atible": 24123,
  "atic": 2059,
  "atical": 12195,
  "atically": 4459,
  "atican": 14826,
  "atics": 10526,
  "atile": 12776,
  "atility": 17370,
  "atin": 13939,
  "ating": 806,
  "atinum": 28695,
  "ation": 342,
  "ational": 795,
  "ationally": 12584,
  "ations": 589,
  "atisf": 15294,
  "atism": 17566,
  "ative": 859,
  "atively": 9965,
  "atives": 2629,
  "ativity": 19562,
  "atlantic": 30430,
  "ato": 6125,
  "atoes": 12840,
  "aton": 12835,
  "ator": 1564,
  "atorial": 17466,
  "atories": 17587,
  "atorium": 23906,
  "ators": 2007,
  "atory": 2941,
  "atra": 24384,
  "atre": 12500,
  "atri": 22737,
  "atron": 31826,
  "ats": 1663,
  "atsu": 25799,
  "att": 2377,
  "atta": 23852,
  "attack": 18294,
  "attacks": 30612,
  "attano": 28681,
  "attanooga": 28844,
  "atter": 12086,
  "attered": 10425,
  "attering": 19539,
  "atti": 27673,
  "attle": 3993,
  "attled": 23549,
  "atts": 26201,
  "atum": 30454,
  "atur": 2391,
  "atural": 2678,
  "aturally": 7542,
  "aturday": 3151,
  "ature": 1363,
  "atured": 20799,
  "atures": 5321,
  "aturing": 29077,
  "atus": 10213,
  "atz": 26200,
  "au": 552,
  "auc": 12447,
  "aucas": 21894,
  "aucus": 12466,
  "aucuses": 27388,
  "aud": 3678,
  "audi": 27252,
  "auer": 12273,
  "auf": 23307,
  "aug": 7087,
  "augh": 1555,
  "aughed": 14706,
  "aughs": 16098,
  "aught": 3315,
  "aughter": 3543,
  "aughters": 12229,
  "aukee": 12967,
  "aul": 2223,
  "ault": 2092,
  "aun": 7286,
  "aunch": 21419,
  "aunted": 23606,
  "aunting": 19367,
  "aur": 2940,
  "aura": 30851,
  "aus": 8036,
  "ause": 669,
  "ausible": 15360,
  "aut": 2586,
  "auth": 19135,
  "author": 9921,
  "authorized": 18186,
  "aution": 28635,
  "autions": 31281,
  "aux": 13656,
  "av": 625,
  "ava": 4877,
  "available": 16971,
  "aval": 8803,
  "avan": 21415,
  "avascript": 30330,
  "ave": 1041,
  "aved": 9299,
  "aven": 5054,
  "aver": 9055,
  "average": 20598,
  "avers": 29354,
  "aves": 3250,
  "avez": 21527,
  "avi": 17106,
  "avia": 17305,
  "avian": 28317,
  "avier": 24622,
  "avin": 18128,
  "aving": 2633,
  "avior": 20690,
  "avoid": 25883,
  "avor": 6782,
  "avorite": 23004,
  "avour": 29616,
  "avy": 2864,
  "aw": 704,
  "awa": 7074,
  "aware": 8913,
  "away": 7984,
  "aways": 20477,
  "awei": 27844,
  "awi": 20175,
  "awk": 23993,
  "awks": 10165,
  "awn": 4969,
  "aws": 12561,
  "ax": 960,
  "axies": 18852,
  "axis": 29833,
  "axy": 6892,
  "ay": 318,
  "aya": 11750,
  "ayan": 21220,
  "ayed": 12445,
  "ayer": 5175,
  "ayers": 6597,
  "ayette": 24847,
  "aying": 7978,
  "aylor": 6715,
  "ays": 568,
  "ayson": 27617,
  "az": 1076,
  "aza": 6599,
  "azar": 18439,
  "aze": 6745,
  "azed": 14140,
  "azeera": 18077,
  "azer": 19404,
  "azers": 27246,
  "azi": 6928,
  "azine": 4806,
  "azines": 15041,
  "azing": 4268,
  "azingly": 23975,
  "azon": 4792,
  "azor": 19301,
  "azy": 13399,
  "azz": 8023,
  "b": 98,
  "ba": 7774,
  "bable": 26594,
  "bably": 10507,
  "bach": 18429,
  "back": 1810,
  "backed": 12695,
  "backs": 8987,
  "bad": 14462,
  "bag": 22055,
  "bai": 23876,
  "bal": 7377,
  "balance": 19619,
  "balanced": 25473,
  "ball": 1709,
  "balls": 16933,
  "ban": 3408,
  "band": 3668,
  "bands": 22195,
  "bane": 18762,
  "bank": 16913,
  "bar": 6899,
  "bart": 12783,
  "bas": 19400,
  "base": 9860,
  "based": 2819,
  "bast": 18102,
  "bat": 11571,
  "baugh": 18003,
  "baum": 21144,
  "bay": 31075,
  "bb": 15610,
  "bc": 24723,
  "be": 1362,
  "bean": 14737,
  "bearing": 27175,
  "beat": 11213,
  "bec": 7798,
  "because": 12328,
  "becca": 20107,
  "beck": 25815,
  "bed": 3106,
  "bedroom": 25986,
  "bee": 22646,
  "before": 20966,
  "begin": 31344,
  "beh": 21610,
  "being": 10868,
  "beit": 13060,
  "bel": 6799,
  "belief": 22831,
  "bell": 8092,
  "ben": 11437,
  "bench": 27831,
  "ber": 516,
  "bered": 9544,
  "berg": 3605,
  "berger": 18721,
  "berman": 25998,
  "bern": 27093,
  "bernatorial": 30394,
  "berra": 25054,
  "berries": 22153,
  "berry": 9529,
  "bers": 1170,
  "bert": 4381,
  "berto": 27795,
  "bery": 11839,
  "bes": 12110,
  "best": 13668,
  "bet": 12177,
  "better": 25852,
  "between": 24196,
  "bey": 21756,
  "bi": 9149,
  "bial": 19769,
  "bian": 9486,
  "bians": 24574,
  "bid": 25706,
  "bie": 12263,
  "big": 12512,
  "bike": 28354,
  "bil": 29003,
  "billion": 17866,
  "bilt": 28912,
  "bin": 9782,
  "binding": 29234,
  "bing": 4637,
  "bird": 20747,
  "birds": 30021,
  "birth": 25241,
  "bishop": 21446,
  "bit": 2543,
  "bitious": 11131,
  "bits": 9848,
  "bl": 2935,
  "black": 14304,
  "blank": 16286,
  "ble": 907,
  "bled": 19835,
  "blem": 14587,
  "blems": 24302,
  "bles": 18928,
  "blind": 31539,
  "bling": 19770,
  "block": 12158,
  "blog": 15815,
  "blood": 21929,
  "blown": 25817,
  "blue": 20035,
  "bn": 8441,
  "bnb": 25348,
  "bo": 2473,
  "board": 3795,
  "boarding": 21529,
  "boards": 12092,
  "boat": 25087,
  "body": 2370,
  "bol": 29821,
  "bomb": 30321,
  "bon": 3973,
  "bone": 14684,
  "bons": 21991,
  "book": 1831,
  "books": 10953,
  "boot": 26824,
  "bor": 2679,
  "border": 23838,
  "borg": 24546,
  "born": 6478,
  "borne": 12686,
  "boro": 20744,
  "borough": 13992,
  "bot": 16252,
  "both": 16886,
  "bottom": 27176,
  "bound": 11151,
  "bour": 4825,
  "bourg": 22505,
  "bourne": 10263,
  "bow": 9468,
  "bows": 29200,
  "box": 3878,
  "boy": 6926,
  "boys": 11232,
  "bps": 18389,
  "br": 1721,
  "bra": 17640,
  "brain": 29778,
  "bral": 25198,
  "brance": 21740,
  "brand": 19741,
  "branded": 28488,
  "braska": 14831,
  "bre": 4887,
  "bread": 29264,
  "break": 9528,
  "breaker": 29024,
  "breaking": 11126,
  "breaks": 27342,
  "brew": 12799,
  "brid": 9971,
  "bridge": 9210,
  "bright": 29682,
  "bringing": 29021,
  "bro": 7803,
  "broken": 24548,
  "brook": 18939,
  "brow": 24739,
  "bs": 1592,
  "bsite": 14480,
  "bsp": 29158,
  "bt": 31115,
  "bucks": 16524,
  "budget": 29459,
  "build": 15240,
  "building": 15415,
  "built": 19217,
  "bul": 11271,
  "bull": 13469,
  "bum": 3677,
  "bur": 5691,
  "burg": 7071,
  "burgh": 7927,
  "burn": 11629,
  "burse": 23072,
  "bury": 9628,
  "bus": 18388,
  "business": 19660,
  "buster": 21584,
  "busters": 27129,
  "but": 4650,
  "button": 27146,
  "buy": 25304,
  "by": 1539,
  "bye": 15630,
  "byn": 11538,
  "byss": 30907,
  "c": 99,
  "ca": 7941,
  "cade": 31785,
  "cake": 31304,
  "cal": 10707,
  "call": 16598,
  "called": 5910,
  "cam": 21322,
  "camera": 24064,
  "camp": 15799,
  "can": 5975,
  "cano": 22353,
  "cap": 10204,
  "capital": 22750,
  "caps": 25017,
  "car": 7124,
  "carbon": 25222,
  "card": 10536,
  "cards": 31016,
  "care": 5702,
  "cars": 28610,
  "cart": 30542,
  "cas": 31684,
  "case": 8269,
  "cast": 2689,
  "caster": 31622,
  "casting": 20279,
  "castle": 15685,
  "cat": 10534,
  "category": 25586,
  "cation": 25446,
  "cats": 22868,
  "cause": 24151,
  "cc": 532,
  "cca": 14264,
  "ccess": 1529,
  "ccording": 2418,
  "cd": 17578,
  "ce": 346,
  "cean": 5409,
  "ceans": 16953,
  "ced": 774,
  "cedented": 9679,
  "cedes": 15905,
  "ceed": 3002,
  "ceived": 6522,
  "cel": 5481,
  "celer": 7000,
  "cell": 4341,
  "celona": 11231,
  "cember": 2910,
  "cence": 31305,
  "cend": 14126,
  "cent": 1019,
  "center": 20204,
  "centric": 24095,
  "century": 11582,
  "cept": 1040,
  "ception": 4734,
  "ceptions": 9673,
  "ceptive": 24490,
  "cer": 1058,
  "cers": 6896,
  "certain": 6616,
  "ces": 728,
  "cess": 970,
  "cest": 9428,
  "cester": 28482,
  "cf": 23761,
  "ch": 353,
  "cha": 14736,
  "chain": 7032,
  "chair": 14723,
  "chan": 3622,
  "change": 3830,
  "changing": 19220,
  "chant": 16223,
  "char": 13410,
  "character": 22507,
  "chard": 28221,
  "charg": 11559,
  "charge": 12638,
  "charged": 16840,
  "charging": 30423,
  "chat": 19886,
  "che": 2602,
  "check": 10140,
  "checked": 26194,
  "ched": 1661,
  "chedel": 20743,
  "chel": 28075,
  "chell": 10490,
  "chem": 23853,
  "chemical": 29405,
  "chen": 6580,
  "chens": 19808,
  "cher": 1906,
  "chers": 2995,
  "ches": 2095,
  "chet": 24682,
  "chewan": 22284,
  "chi": 12385,
  "chie": 2885,
  "chief": 16022,
  "child": 9770,
  "children": 15648,
  "chin": 22947,
  "ching": 10462,
  "chn": 1267,
  "chnology": 17226,
  "cho": 6049,
  "choice": 22276,
  "chool": 1164,
  "chron": 11993,
  "cht": 19177,
  "church": 27422,
  "chy": 30378,
  "ci": 1053,
  "cia": 9275,
  "cial": 2515,
  "cially": 1981,
  "ciation": 18415,
  "cience": 4272,
  "cient": 3611,
  "cier": 27820,
  "cies": 3054,
  "cific": 8072,
  "cifically": 16629,
  "cigare": 18390,
  "cigarettes": 23471,
  "cil": 2480,
  "cill": 15397,
  "cing": 2114,
  "cious": 5254,
  "ciously": 18814,
  "cip": 24936,
  "cipl": 20411,
  "ciples": 7072,
  "ciplinary": 29636,
  "circ": 22734,
  "cision": 21395,
  "ciss": 20548,
  "citation": 10950,
  "city": 15982,
  "cium": 21212,
  "civil": 31994,
  "ck": 735,
  "cker": 14755,
  "cknow": 4711,
  "cks": 4976,
  "cl": 1332,
  "clad": 31897,
  "claim": 8660,
  "claimed": 13474,
  "clair": 25746,
  "clamation": 24731,
  "class": 5387,
  "cle": 3071,
  "clean": 28933,
  "clear": 27052,
  "cled": 21173,
  "cles": 7974,
  "click": 16117,
  "client": 29874,
  "cliffe": 29391,
  "cling": 8186,
  "clipse": 30957,
  "clock": 18425,
  "close": 22953,
  "closed": 14830,
  "closure": 14569,
  "cloud": 29335,
  "club": 17782,
  "clus": 2783,
  "clusion": 14508,
  "clusive": 16313,
  "cm": 16168,
  "co": 1308,
  "coal": 29521,
  "cock": 17752,
  "cod": 22448,
  "code": 12479,
  "coh": 5073,
  "cohol": 5445,
  "coholic": 22136,
  "coin": 3330,
  "coins": 14329,
  "col": 5630,
  "coll": 26825,
  "collar": 28311,
  "colm": 16259,
  "color": 17340,
  "colored": 25919,
  "column": 30259,
  "com": 912,
  "comb": 21805,
  "come": 3060,
  "comed": 12362,
  "comes": 8872,
  "comfort": 19739,
  "coming": 4406,
  "comings": 25774,
  "comm": 14425,
  "comments": 31866,
  "commerce": 22239,
  "committee": 22952,
  "common": 15250,
  "commun": 10167,
  "communication": 30069,
  "communications": 17976,
  "community": 30827,
  "comp": 11330,
  "compass": 15788,
  "compet": 22335,
  "compl": 23996,
  "complete": 20614,
  "computer": 28322,
  "con": 1062,
  "cond": 18213,
  "condition": 29288,
  "conf": 8887,
  "conference": 31731,
  "config": 19181,
  "coni": 29852,
  "connect": 12817,
  "connected": 18536,
  "conom": 1275,
  "cons": 6009,
  "conscious": 18435,
  "const": 9813,
  "constitutional": 15229,
  "consuming": 29478,
  "cont": 4477,
  "content": 17536,
  "contin": 25542,
  "continental": 29594,
  "contract": 26141,
  "control": 15143,
  "controlled": 13899,
  "cool": 24317,
  "coon": 29755,
  "cop": 30346,
  "cor": 10748,
  "core": 8367,
  "corn": 21323,
  "correct": 29692,
  "cos": 5998,
  "cost": 14608,
  "cosystem": 10110,
  "cot": 13632,
  "cotics": 24180,
  "cott": 11251,
  "could": 21654,
  "coun": 18249,
  "count": 11893,
  "counter": 23262,
  "country": 22170,
  "course": 20281,
  "court": 17404,
  "cover": 8297,
  "covered": 29796,
  "covery": 16356,
  "cow": 6985,
  "cp": 21365,
  "cr": 7626,
  "craft": 3765,
  "crat": 12517,
  "cre": 10691,
  "creat": 23321,
  "create": 22277,
  "created": 26885,
  "crib": 9070,
  "cribed": 13373,
  "crime": 22350,
  "cript": 7132,
  "cription": 7169,
  "criptions": 22008,
  "critical": 23145,
  "cro": 20141,
  "cross": 20517,
  "cry": 13999,
  "cs": 14383,
  "ct": 333,
  "ctic": 8662,
  "ctica": 21380,
  "ction": 632,
  "ctions": 2983,
  "ctor": 2626,
  "ctors": 4564,
  "ctr": 8996,
  "ctrine": 31140,
  "ctuary": 28916,
  "cu": 29701,
  "cue": 19726,
  "cul": 3755,
  "cular": 11415,
  "culation": 15991,
  "cule": 22754,
  "cules": 13503,
  "cultural": 27983,
  "culture": 20983,
  "culus": 16327,
  "cup": 26929,
  "cur": 29076,
  "currency": 26708,
  "current": 15073,
  "currentState": 27484,
  "cus": 7387,
  "custom": 29292,
  "cut": 8992,
  "cuts": 23915,
  "cutting": 26104,
  "cy": 968,
  "cycl": 20033,
  "cycle": 30463,
  "cyclop": 27465,
  "cyclopedia": 28942,
  "cz": 28332,
  "cÃ©": 25758,
  "d": 100,
  "da": 7577,
  "daily": 26867,
  "dain": 22521,
  "dale": 14710,
  "dam": 12553,
  "dan": 26068,
  "dar": 26275,
  "dark": 24597,
  "dat": 28218,
  "data": 12602,
  "date": 6083,
  "dated": 8523,
  "dates": 24382,
  "daughter": 27509,
  "day": 746,
  "days": 14270,
  "db": 16778,
  "dc": 31651,
  "dd": 2069,
  "dden": 4997,
  "dding": 29130,
  "de": 3282,
  "dead": 25242,
  "deal": 24536,
  "death": 22844,
  "deb": 14614,
  "dec": 12839,
  "ded": 9519,
  "deep": 19303,
  "def": 6086,
  "default": 23295,
  "defense": 18639,
  "define": 26818,
  "defined": 24701,
  "deg": 12774,
  "degree": 14732,
  "del": 14740,
  "dem": 8574,
  "demand": 24645,
  "democratic": 30858,
  "den": 5285,
  "dep": 11079,
  "dependent": 22869,
  "depth": 18189,
  "der": 1167,
  "des": 8889,
  "desc": 16820,
  "describ": 26432,
  "described": 29351,
  "description": 31680,
  "design": 27213,
  "designed": 27827,
  "dest": 17833,
  "det": 21203,
  "deter": 26047,
  "determination": 30718,
  "dev": 12391,
  "develop": 21244,
  "developed": 29484,
  "development": 29812,
  "df": 12471,
  "di": 13289,
  "dict": 11311,
  "did": 20027,
  "die": 15826,
  "dies": 21911,
  "dig": 13345,
  "digit": 24828,
  "dimensional": 18244,
  "ding": 12805,
  "dir": 24483,
  "direct": 12713,
  "directed": 27525,
  "director": 28285,
  "dis": 6680,
  "disc": 14897,
  "display": 15043,
  "displaystyle": 20485,
  "dist": 18333,
  "distance": 26297,
  "dit": 8680,
  "div": 9412,
  "division": 28603,
  "dl": 27216,
  "dll": 31334,
  "dney": 9479,
  "do": 4652,
  "doc": 21536,
  "document": 20382,
  "does": 22291,
  "dog": 8681,
  "dogs": 20775,
  "doing": 15914,
  "dollar": 17867,
  "dom": 3757,
  "dominated": 26263,
  "don": 9623,
  "done": 28870,
  "door": 9188,
  "doors": 18800,
  "dot": 28544,
  "double": 27836,
  "down": 2933,
  "download": 25561,
  "downs": 30202,
  "dr": 10811,
  "dragon": 27942,
  "draw": 24463,
  "dream": 30655,
  "dri": 8953,
  "drive": 25113,
  "driven": 13659,
  "driving": 19417,
  "dro": 16198,
  "drop": 13707,
  "dropping": 30393,
  "drug": 26806,
  "ds": 11921,
  "du": 655,
  "duc": 6282,
  "duct": 2717,
  "ducted": 20072,
  "duction": 25713,
  "due": 21799,
  "dule": 5920,
  "duty": 23490,
  "dy": 10640,
  "e": 101,
  "ea": 25209,
  "ead": 1326,
  "eah": 4789,
  "eal": 2221,
  "ealous": 16563,
  "eals": 9547,
  "ean": 3956,
  "eanor": 17629,
  "ear": 462,
  "earance": 30949,
  "earch": 4114,
  "earchers": 13169,
  "eared": 3130,
  "earing": 7204,
  "early": 10448,
  "ears": 4440,
  "earth": 18339,
  "eas": 26647,
  "east": 24740,
  "eat": 28762,
  "eating": 26462,
  "eb": 1923,
  "ebus": 26013,
  "ec": 767,
  "eca": 31056,
  "ecause": 3025,
  "ecd": 18512,
  "ech": 2696,
  "eches": 13949,
  "econom": 12474,
  "economic": 15119,
  "ect": 523,
  "ected": 18644,
  "ection": 8694,
  "ective": 9099,
  "ector": 14084,
  "ects": 10818,
  "ecut": 8487,
  "ecutive": 9227,
  "ed": 275,
  "edIn": 16216,
  "eda": 21736,
  "edd": 5962,
  "eddy": 20333,
  "ede": 14944,
  "eded": 12726,
  "eder": 5442,
  "ederal": 1818,
  "ederation": 9329,
  "edes": 28178,
  "edge": 15055,
  "edi": 16373,
  "edia": 5365,
  "edience": 23009,
  "edin": 21209,
  "eding": 8676,
  "edition": 29052,
  "edo": 27028,
  "eds": 5506,
  "edu": 20863,
  "educ": 16030,
  "educated": 22193,
  "edy": 6315,
  "ee": 1775,
  "eed": 2978,
  "eeks": 26742,
  "een": 22770,
  "eer": 27261,
  "ees": 2916,
  "ef": 975,
  "efe": 18044,
  "efeated": 28820,
  "eff": 3242,
  "effect": 27365,
  "effective": 26229,
  "efficient": 22474,
  "efined": 22384,
  "efully": 6550,
  "eg": 23409,
  "ei": 19246,
  "eight": 23933,
  "either": 31261,
  "ek": 928,
  "eka": 31895,
  "eking": 18539,
  "eks": 2345,
  "el": 432,
  "ela": 9118,
  "elaide": 20348,
  "eland": 8766,
  "elcome": 12037,
  "ele": 9765,
  "elect": 7881,
  "elected": 20827,
  "election": 10248,
  "electric": 25474,
  "eled": 17814,
  "eless": 5051,
  "elf": 8147,
  "elfare": 25068,
  "elia": 28895,
  "elig": 24343,
  "eligible": 27102,
  "elin": 27423,
  "eline": 4402,
  "elines": 18560,
  "eling": 10209,
  "ell": 1031,
  "ella": 15358,
  "ellar": 14555,
  "ellation": 27666,
  "elle": 10664,
  "elled": 17465,
  "ellen": 29618,
  "eller": 10505,
  "elli": 30440,
  "elling": 15776,
  "ello": 12033,
  "ellow": 10768,
  "elly": 5891,
  "elman": 29329,
  "elo": 24784,
  "elong": 17918,
  "els": 1547,
  "elsen": 19371,
  "elsh": 18501,
  "elsius": 29954,
  "elson": 9520,
  "elt": 2134,
  "elta": 13470,
  "elve": 10678,
  "em": 434,
  "ema": 22739,
  "emade": 21423,
  "email": 13477,
  "emaker": 30552,
  "emale": 16527,
  "eman": 8285,
  "emb": 27490,
  "embed": 26793,
  "ember": 2612,
  "emed": 9377,
  "emen": 7502,
  "emer": 22334,
  "emet": 16375,
  "emetery": 16734,
  "emic": 9740,
  "emin": 11142,
  "emit": 11908,
  "emon": 25080,
  "emphas": 28029,
  "employ": 6020,
  "employment": 28836,
  "empt": 23506,
  "emption": 17524,
  "ems": 7997,
  "en": 268,
  "ena": 6410,
  "enable": 27921,
  "enabled": 22896,
  "ename": 23825,
  "enary": 25114,
  "enas": 29749,
  "enberg": 23035,
  "enc": 23732,
  "ence": 585,
  "enced": 5266,
  "encer": 11900,
  "ences": 2951,
  "ench": 26322,
  "encia": 22259,
  "encies": 3739,
  "encing": 8917,
  "ency": 1334,
  "end": 396,
  "enda": 6128,
  "endant": 29585,
  "endar": 10500,
  "endas": 29584,
  "ende": 30636,
  "ended": 1708,
  "ender": 2284,
  "endered": 25495,
  "enders": 7205,
  "endez": 30697,
  "ending": 1487,
  "endment": 5427,
  "endo": 30979,
  "endof": 700,
  "endoftext": 702,
  "endor": 29385,
  "ends": 2576,
  "ene": 1703,
  "ened": 2927,
  "ener": 914,
  "eneral": 3387,
  "eneration": 8511,
  "energy": 19120,
  "enery": 27094,
  "enes": 20028,
  "eness": 10185,
  "enez": 9065,
  "enezuel": 9841,
  "enf": 24800,
  "enfranch": 30108,
  "eng": 1631,
  "enge": 3390,
  "engeance": 26407,
  "enger": 6211,
  "engers": 8110,
  "engine": 19204,
  "ength": 3984,
  "engu": 15264,
  "enh": 23934,
  "enheim": 30515,
  "ening": 3027,
  "enko": 26069,
  "enly": 17487,
  "enment": 22379,
  "enn": 1745,
  "enna": 13155,
  "ennial": 25057,
  "ennis": 9454,
  "enny": 8155,
  "eno": 27856,
  "enos": 28399,
  "ens": 644,
  "ense": 1078,
  "ensed": 17047,
  "ensen": 16586,
  "enses": 4861,
  "ensible": 28981,
  "ensing": 30759,
  "ension": 3301,
  "ensions": 5726,
  "ensitive": 28646,
  "ensity": 6816,
  "ensive": 1840,
  "enson": 15378,
  "ensor": 24636,
  "ensual": 27860,
  "ensus": 6651,
  "ent": 299,
  "ental": 10375,
  "ente": 17346,
  "ented": 4187,
  "enter": 9575,
  "enth": 7988,
  "enthal": 30473,
  "ential": 1734,
  "entially": 3200,
  "entin": 15017,
  "entinel": 21147,
  "enting": 30298,
  "ention": 1162,
  "entions": 14389,
  "ently": 2165,
  "enton": 19421,
  "entric": 21557,
  "entry": 18207,
  "ents": 759,
  "enture": 5993,
  "enty": 3637,
  "eny": 31623,
  "enz": 16388,
  "enza": 21965,
  "enzie": 21749,
  "eon": 23610,
  "eor": 14154,
  "ep": 519,
  "epend": 2417,
  "ependence": 14531,
  "ependent": 8028,
  "epernick": 22740,
  "eping": 7240,
  "eprint": 18649,
  "eps": 27445,
  "ept": 19951,
  "equ": 4595,
  "er": 263,
  "era": 7160,
  "eral": 1531,
  "erala": 26754,
  "erald": 10901,
  "erals": 15763,
  "erate": 25931,
  "erc": 3362,
  "ercise": 22729,
  "erd": 9979,
  "ere": 656,
  "ered": 1144,
  "eree": 17011,
  "erek": 16646,
  "erem": 31432,
  "eremy": 9712,
  "eren": 16987,
  "erence": 1917,
  "erences": 4797,
  "erent": 9917,
  "erential": 29317,
  "erer": 13109,
  "erers": 18925,
  "erg": 6321,
  "ergarten": 29316,
  "erguson": 11720,
  "ergy": 31044,
  "eri": 30486,
  "eria": 9793,
  "erie": 18430,
  "eries": 9166,
  "ering": 1560,
  "erion": 31489,
  "erk": 20131,
  "erm": 7911,
  "erman": 1969,
  "ermott": 31812,
  "ern": 1520,
  "ername": 20113,
  "ernand": 11263,
  "ernandez": 15980,
  "ernaut": 31500,
  "ernel": 11665,
  "erner": 19809,
  "erness": 18205,
  "ernick": 22066,
  "ero": 3704,
  "eroids": 30006,
  "eros": 28220,
  "erous": 5091,
  "err": 7836,
  "errard": 31741,
  "error": 29050,
  "erry": 3732,
  "ers": 360,
  "ersion": 11494,
  "erson": 916,
  "ert": 1984,
  "ertain": 1458,
  "ertainly": 16268,
  "erted": 8854,
  "erting": 15293,
  "erts": 9095,
  "erv": 1262,
  "ervation": 14405,
  "ervative": 17921,
  "ervatives": 30880,
  "erve": 3610,
  "erved": 5861,
  "erves": 6567,
  "erving": 12372,
  "ery": 2295,
  "es": 276,
  "esar": 19654,
  "esc": 6636,
  "esco": 29490,
  "escope": 14856,
  "ese": 2761,
  "esh": 6146,
  "esides": 11648,
  "esis": 13552,
  "esity": 13091,
  "esla": 9697,
  "esome": 6091,
  "eson": 30724,
  "especially": 15307,
  "esque": 24048,
  "ess": 413,
  "essa": 21707,
  "essage": 15632,
  "esse": 28794,
  "essed": 7375,
  "essee": 9553,
  "essential": 26973,
  "essim": 22014,
  "ession": 2961,
  "essional": 13481,
  "essions": 5688,
  "essler": 25036,
  "essment": 24940,
  "essor": 5912,
  "essors": 20159,
  "est": 385,
  "esta": 15833,
  "established": 23287,
  "este": 16940,
  "ested": 10216,
  "esteem": 27198,
  "ester": 8434,
  "estern": 2959,
  "esters": 5809,
  "estial": 28092,
  "estic": 4156,
  "estinal": 27092,
  "estine": 18885,
  "esting": 28641,
  "estival": 6195,
  "esto": 27688,
  "eston": 17601,
  "estone": 12587,
  "estones": 29013,
  "ests": 2700,
  "esty": 8951,
  "estyle": 10101,
  "esville": 16558,
  "esy": 7222,
  "et": 322,
  "eta": 16082,
  "etary": 7609,
  "etc": 17656,
  "ete": 12570,
  "eted": 19906,
  "eter": 2621,
  "etermin": 18456,
  "etermined": 24591,
  "eters": 9358,
  "eth": 3269,
  "ethe": 9667,
  "etheless": 10996,
  "ether": 6963,
  "ethical": 27773,
  "etic": 5364,
  "etics": 22381,
  "eties": 25934,
  "etime": 7945,
  "eting": 14062,
  "etition": 16042,
  "etitive": 20540,
  "eto": 31592,
  "eton": 17320,
  "etooth": 18021,
  "etr": 22930,
  "etro": 3783,
  "etroit": 6386,
  "ets": 1057,
  "etsk": 25744,
  "ett": 3302,
  "etta": 13608,
  "ette": 6236,
  "ettes": 23571,
  "etti": 22036,
  "ettings": 19830,
  "etts": 7972,
  "etus": 27030,
  "ety": 2891,
  "etz": 18209,
  "eu": 12791,
  "eur": 20393,
  "eus": 19294,
  "ev": 2068,
  "eval": 19868,
  "even": 9361,
  "event": 20925,
  "ever": 992,
  "everal": 7386,
  "every": 15476,
  "evil": 24697,
  "evin": 5990,
  "ew": 562,
  "eway": 16004,
  "ewitness": 24031,
  "eworthy": 23125,
  "ews": 17735,
  "ex": 1130,
  "example": 25717,
  "exc": 27400,
  "except": 20121,
  "exe": 25166,
  "existent": 27494,
  "existing": 22273,
  "exp": 14772,
  "exper": 22398,
  "expl": 21983,
  "ext": 10695,
  "extreme": 23344,
  "extremely": 31555,
  "ey": 4844,
  "eye": 26919,
  "eyed": 18508,
  "ez": 8141,
  "f": 102,
  "fa": 16323,
  "face": 2969,
  "facebook": 23592,
  "faced": 21585,
  "faces": 30398,
  "facing": 26218,
  "fact": 23473,
  "fair": 19127,
  "fake": 26621,
  "fall": 7938,
  "falls": 20748,
  "false": 16860,
  "family": 19007,
  "fan": 17222,
  "far": 15692,
  "fare": 9427,
  "farm": 27683,
  "fashion": 21750,
  "fashioned": 23680,
  "fast": 7055,
  "fat": 24464,
  "father": 10530,
  "fax": 17789,
  "fb": 25996,
  "fc": 29032,
  "fd": 28470,
  "fe": 5122,
  "fect": 2529,
  "fed": 20612,
  "feed": 15925,
  "feeding": 28001,
  "feld": 13350,
  "fell": 24185,
  "felt": 27727,
  "female": 28972,
  "femin": 28176,
  "fer": 2585,
  "ference": 4590,
  "fest": 25829,
  "fet": 29702,
  "few": 27855,
  "ff": 497,
  "ffield": 22950,
  "ffiti": 20556,
  "fi": 12213,
  "fiction": 21433,
  "field": 3065,
  "fields": 29249,
  "fif": 29116,
  "fig": 23322,
  "fight": 20383,
  "fighting": 24012,
  "figure": 24707,
  "fil": 14271,
  "file": 11286,
  "files": 29293,
  "fill": 23807,
  "filled": 17961,
  "film": 27506,
  "fin": 13500,
  "final": 18199,
  "finals": 22172,
  "find": 25636,
  "finder": 30872,
  "fing": 30943,
  "fir": 30371,
  "fire": 7064,
  "fired": 20700,
  "fires": 21679,
  "first": 11756,
  "fish": 11321,
  "fit": 10553,
  "fits": 19164,
  "fitting": 29294,
  "five": 13065,
  "fix": 14721,
  "fl": 3146,
  "flation": 27295,
  "flies": 28601,
  "flight": 18647,
  "flix": 8829,
  "float": 28682,
  "floor": 25562,
  "flow": 12264,
  "flower": 27296,
  "flu": 15862,
  "fly": 14144,
  "focused": 21124,
  "fol": 9279,
  "fold": 13586,
  "folk": 20257,
  "follow": 28333,
  "font": 22044,
  "foo": 29987,
  "food": 18971,
  "foot": 6842,
  "for": 1639,
  "force": 3003,
  "forced": 11245,
  "forcement": 13415,
  "forces": 23312,
  "forcing": 16522,
  "ford": 3472,
  "fore": 779,
  "fork": 31017,
  "form": 721,
  "formance": 12025,
  "format": 27035,
  "formation": 4710,
  "formed": 12520,
  "former": 11759,
  "forming": 14888,
  "forms": 28926,
  "fort": 3427,
  "forth": 24045,
  "fortunately": 6281,
  "forum": 31378,
  "forward": 11018,
  "found": 8416,
  "founded": 23180,
  "founder": 12802,
  "four": 13742,
  "fox": 13633,
  "fr": 10226,
  "frac": 26684,
  "frame": 16124,
  "fre": 27177,
  "free": 5848,
  "fried": 31453,
  "friend": 6518,
  "friendly": 11373,
  "from": 7565,
  "front": 7708,
  "fs": 12931,
  "ft": 734,
  "ften": 14728,
  "fter": 618,
  "ftime": 27292,
  "fu": 31262,
  "fuel": 27510,
  "ful": 929,
  "full": 16190,
  "fully": 2815,
  "fulness": 15426,
  "fun": 19975,
  "function": 11004,
  "fund": 9116,
  "funded": 14106,
  "funding": 19993,
  "furt": 24414,
  "fy": 25159,
  "g": 103,
  "ga": 4817,
  "gaard": 29219,
  "gae": 22109,
  "gage": 22267,
  "gal": 10545,
  "galitarian": 31003,
  "gall": 28219,
  "gam": 24937,
  "game": 6605,
  "games": 27892,
  "gan": 952,
  "gang": 27437,
  "gar": 4982,
  "gard": 24215,
  "gars": 25050,
  "gary": 12438,
  "gas": 6826,
  "gate": 11325,
  "gay": 18305,
  "ge": 482,
  "gebra": 30639,
  "ged": 1949,
  "gel": 14722,
  "gem": 19952,
  "gen": 5452,
  "gence": 11679,
  "gency": 4708,
  "gender": 6966,
  "gener": 14493,
  "general": 18391,
  "generated": 30240,
  "generation": 16546,
  "gent": 6360,
  "gently": 29148,
  "geon": 8724,
  "geoning": 26662,
  "geons": 29270,
  "ger": 1371,
  "gerald": 22356,
  "gered": 9901,
  "geries": 25188,
  "gers": 5025,
  "gery": 6872,
  "ges": 3128,
  "gest": 2970,
  "get": 1141,
  "gether": 1908,
  "getown": 23530,
  "gets": 10304,
  "gex": 31273,
  "gg": 1014,
  "gged": 10947,
  "gger": 19156,
  "ggest": 1758,
  "ggie": 20813,
  "gging": 18170,
  "ggle": 16266,
  "ggles": 31601,
  "ggy": 18372,
  "gh": 463,
  "ghai": 16517,
  "ghan": 4486,
  "ghazi": 16550,
  "gi": 13232,
  "gia": 6003,
  "gian": 13193,
  "gic": 26672,
  "gie": 21113,
  "giene": 27462,
  "gin": 1636,
  "ging": 2706,
  "gins": 31884,
  "gio": 22179,
  "girl": 17690,
  "git": 24978,
  "github": 22664,
  "give": 30512,
  "giving": 13907,
  "gl": 5513,
  "glas": 12627,
  "glass": 23486,
  "global": 24056,
  "glomer": 27938,
  "gly": 10634,
  "gmail": 19030,
  "gment": 5728,
  "gments": 12222,
  "gn": 5027,
  "go": 2126,
  "goal": 27082,
  "god": 31263,
  "goers": 24607,
  "going": 4569,
  "gold": 25669,
  "gom": 16453,
  "gomery": 16932,
  "gon": 20897,
  "gone": 18656,
  "good": 10790,
  "google": 24511,
  "gor": 6744,
  "gorith": 7390,
  "got": 29325,
  "gotten": 28763,
  "gov": 10860,
  "government": 11980,
  "governmental": 27960,
  "gow": 17594,
  "gr": 897,
  "grab": 29677,
  "grad": 10356,
  "gradation": 25237,
  "grade": 9833,
  "gram": 1257,
  "grand": 23041,
  "graph": 10458,
  "grass": 27770,
  "grat": 16032,
  "grav": 15876,
  "gre": 28738,
  "great": 16615,
  "green": 15560,
  "greg": 6183,
  "gregated": 26411,
  "gregation": 12452,
  "gren": 30570,
  "gress": 1797,
  "gression": 27670,
  "gressive": 22726,
  "grid": 29467,
  "gro": 14935,
  "gross": 31652,
  "ground": 2996,
  "group": 11726,
  "groups": 29547,
  "growing": 20488,
  "grown": 18357,
  "growth": 26150,
  "gs": 14666,
  "gt": 11708,
  "gu": 4658,
  "guard": 13955,
  "guards": 20241,
  "gue": 17018,
  "guided": 19015,
  "gun": 7744,
  "guyen": 29218,
  "gy": 1287,
  "gypt": 4786,
  "h": 104,
  "ha": 3193,
  "hab": 5717,
  "habi": 27975,
  "had": 17248,
  "haired": 29277,
  "hak": 31588,
  "hal": 14114,
  "half": 12254,
  "hall": 18338,
  "ham": 2597,
  "hammad": 14693,
  "hammer": 29834,
  "han": 10164,
  "hand": 5524,
  "handed": 12232,
  "hander": 30626,
  "hani": 30687,
  "happy": 31524,
  "haps": 2544,
  "har": 10132,
  "hard": 10005,
  "hardt": 25138,
  "harm": 28587,
  "hart": 17360,
  "has": 10519,
  "hash": 22045,
  "hat": 17887,
  "hate": 29549,
  "hatt": 9585,
  "hattan": 10354,
  "haul": 13005,
  "haus": 23690,
  "have": 13684,
  "haw": 17713,
  "hawks": 22522,
  "he": 258,
  "hea": 23795,
  "head": 2251,
  "headed": 14885,
  "heading": 29683,
  "heads": 17026,
  "health": 12748,
  "healthy": 19861,
  "heard": 20862,
  "heart": 10773,
  "hearted": 18344,
  "heast": 8339,
  "heastern": 15762,
  "heavy": 22440,
  "hed": 708,
  "hedral": 17788,
  "hedul": 5021,
  "hee": 20788,
  "heed": 18849,
  "heid": 21979,
  "height": 29005,
  "heim": 8795,
  "heimer": 14340,
  "heit": 28545,
  "hel": 2807,
  "held": 9250,
  "hell": 16627,
  "help": 14774,
  "helps": 29633,
  "helsea": 9042,
  "hem": 4685,
  "hement": 28821,
  "hen": 863,
  "hend": 15794,
  "hene": 27372,
  "henko": 22765,
  "hens": 4920,
  "hensive": 28686,
  "hent": 7758,
  "her": 366,
  "here": 1462,
  "hered": 5644,
  "herence": 22046,
  "herent": 7764,
  "heres": 19977,
  "heric": 13204,
  "hern": 2631,
  "hero": 10890,
  "hers": 6575,
  "herty": 25571,
  "hes": 1026,
  "hesis": 8886,
  "hest": 3510,
  "hester": 19369,
  "het": 3140,
  "hetamine": 29449,
  "hetic": 6252,
  "hetical": 18590,
  "hetically": 27651,
  "hetics": 24281,
  "hett": 14743,
  "hetti": 27784,
  "hew": 13970,
  "hey": 17913,
  "hh": 24537,
  "hi": 5150,
  "hib": 3340,
  "hibition": 23315,
  "hift": 24831,
  "hig": 22157,
  "high": 8888,
  "highest": 28353,
  "hill": 12440,
  "hin": 26807,
  "hing": 677,
  "hip": 1011,
  "hips": 6247,
  "hire": 10600,
  "his": 14327,
  "hist": 10169,
  "historic": 26195,
  "history": 29571,
  "hit": 20404,
  "hl": 23181,
  "hm": 21978,
  "hma": 21081,
  "hn": 22884,
  "hner": 14643,
  "ho": 8433,
  "hod": 2454,
  "hof": 31170,
  "hol": 13630,
  "hold": 3042,
  "holder": 14361,
  "holders": 9500,
  "hole": 14566,
  "holes": 25691,
  "holm": 20026,
  "hom": 31335,
  "home": 13680,
  "hon": 22917,
  "hood": 2605,
  "hop": 9395,
  "hops": 21137,
  "hor": 17124,
  "horn": 31018,
  "horse": 28973,
  "host": 5867,
  "hot": 8572,
  "hots": 16012,
  "hou": 16454,
  "hour": 8480,
  "house": 4521,
  "houses": 19529,
  "hov": 31488,
  "how": 4719,
  "hp": 29378,
  "hr": 11479,
  "ht": 5466,
  "htaking": 28992,
  "htm": 24147,
  "html": 9130,
  "http": 3919,
  "https": 7740,
  "hu": 18565,
  "hua": 29326,
  "hum": 15180,
  "human": 10694,
  "hun": 23891,
  "hurst": 29265,
  "hus": 6683,
  "hy": 8670,
  "hyd": 19833,
  "i": 105,
  "ia": 529,
  "iability": 13342,
  "iable": 3856,
  "iably": 17029,
  "iac": 10095,
  "iago": 24075,
  "iah": 11916,
  "iak": 27788,
  "ial": 495,
  "ially": 1717,
  "ials": 9078,
  "iam": 3085,
  "iami": 6621,
  "iams": 5100,
  "ian": 650,
  "iana": 7400,
  "iance": 3854,
  "iances": 15065,
  "iang": 13980,
  "iani": 20878,
  "iann": 26875,
  "iano": 8879,
  "ians": 1402,
  "iant": 3109,
  "iao": 18736,
  "iar": 14286,
  "iary": 13103,
  "ias": 5367,
  "iasm": 13375,
  "iat": 6070,
  "iate": 9254,
  "iated": 11894,
  "iates": 30598,
  "iating": 23839,
  "iation": 4368,
  "iatric": 11817,
  "iatus": 25784,
  "iaz": 16879,
  "ib": 584,
  "iba": 22921,
  "ibal": 20038,
  "iban": 10089,
  "iband": 25838,
  "ibe": 24693,
  "iber": 1820,
  "iberal": 17407,
  "ibi": 28403,
  "ibilities": 7434,
  "ibility": 2211,
  "ibl": 10574,
  "ible": 896,
  "ibles": 18511,
  "ibli": 26363,
  "iblical": 15760,
  "ibling": 30160,
  "iblings": 18284,
  "ibly": 2988,
  "ibo": 25516,
  "ibr": 3210,
  "ibrary": 4519,
  "ibre": 29444,
  "ibur": 31721,
  "ic": 293,
  "ica": 4030,
  "icable": 18794,
  "icago": 4010,
  "ical": 594,
  "ically": 1131,
  "ican": 6484,
  "icans": 20715,
  "icate": 5448,
  "icated": 2816,
  "icates": 16939,
  "icating": 11248,
  "ication": 3169,
  "ications": 3406,
  "icator": 31077,
  "ice": 499,
  "iced": 3848,
  "icer": 7583,
  "icers": 14715,
  "ices": 1092,
  "icester": 20950,
  "ich": 484,
  "iche": 14958,
  "ichel": 23134,
  "ichever": 25074,
  "ichi": 23220,
  "ichick": 29387,
  "icht": 18113,
  "ici": 4683,
  "icial": 4244,
  "icially": 23700,
  "icials": 13324,
  "ician": 6402,
  "icians": 4321,
  "iciaries": 25064,
  "iciary": 12478,
  "icidal": 22601,
  "icide": 5158,
  "icides": 16041,
  "iciency": 6730,
  "icient": 3476,
  "icing": 6151,
  "icious": 6379,
  "icip": 4390,
  "icism": 9239,
  "icit": 3888,
  "icity": 8741,
  "ick": 664,
  "icked": 10973,
  "icken": 7349,
  "icker": 19228,
  "ickers": 20731,
  "icket": 8611,
  "ickets": 15870,
  "ickey": 28025,
  "icking": 8281,
  "icks": 3354,
  "icky": 20358,
  "icle": 1651,
  "icles": 3115,
  "ico": 3299,
  "icon": 4785,
  "icons": 14458,
  "icro": 2592,
  "icrosoft": 4316,
  "ics": 882,
  "ict": 707,
  "icted": 5201,
  "icter": 28356,
  "iction": 2930,
  "ictionary": 15196,
  "ictions": 8366,
  "icts": 12365,
  "icular": 23166,
  "icularly": 19631,
  "icult": 2103,
  "icultural": 22608,
  "icus": 23840,
  "icut": 12735,
  "icy": 4717,
  "icz": 26050,
  "id": 310,
  "ida": 3361,
  "idable": 20499,
  "idad": 23269,
  "idal": 11304,
  "idan": 27547,
  "idant": 29054,
  "idas": 26237,
  "idate": 23525,
  "idation": 24368,
  "idav": 20144,
  "iday": 2259,
  "idays": 13510,
  "idd": 1628,
  "idden": 5241,
  "idding": 12676,
  "iddle": 2296,
  "iddy": 31606,
  "ide": 490,
  "ided": 1384,
  "idel": 5786,
  "idelines": 7547,
  "idelity": 23642,
  "idem": 31655,
  "iden": 11371,
  "idence": 1664,
  "idency": 7364,
  "ident": 663,
  "idental": 31793,
  "identally": 20879,
  "identified": 16684,
  "idents": 3048,
  "ideo": 6230,
  "ideos": 15546,
  "idepress": 26304,
  "ider": 1350,
  "idered": 3031,
  "iders": 3824,
  "ides": 1516,
  "idespread": 7882,
  "idge": 3166,
  "idges": 14487,
  "idi": 18091,
  "idian": 25552,
  "iding": 2528,
  "idious": 29673,
  "idis": 25600,
  "idity": 16919,
  "ido": 14629,
  "ids": 2052,
  "idy": 19745,
  "ie": 448,
  "iece": 15907,
  "ied": 830,
  "ief": 1904,
  "iel": 8054,
  "ield": 1227,
  "ielding": 29591,
  "iem": 29580,
  "ien": 2025,
  "ience": 1199,
  "ienced": 24760,
  "iences": 8907,
  "iencies": 20428,
  "iens": 10611,
  "ient": 1230,
  "ients": 2545,
  "ier": 1225,
  "ierce": 9509,
  "iere": 11345,
  "ieri": 23651,
  "ierra": 14488,
  "ierre": 12100,
  "iers": 3297,
  "iership": 30962,
  "ies": 440,
  "iesel": 29358,
  "iest": 6316,
  "iet": 1155,
  "ietal": 19255,
  "ieth": 18531,
  "ieties": 8871,
  "iets": 22615,
  "iety": 1844,
  "ieu": 21140,
  "iev": 9731,
  "ieval": 13915,
  "ieve": 16234,
  "ievers": 26995,
  "ieves": 18886,
  "ieving": 30224,
  "iew": 819,
  "if": 367,
  "ifa": 19322,
  "ifax": 22012,
  "ife": 904,
  "ifer": 7374,
  "ifest": 8392,
  "iff": 739,
  "iffe": 19085,
  "ifference": 26751,
  "ifferent": 13181,
  "iffs": 9830,
  "ifi": 25913,
  "ifiable": 15937,
  "ific": 855,
  "ificant": 16336,
  "ification": 3074,
  "ifications": 7398,
  "ificent": 20410,
  "ificial": 30190,
  "ified": 1552,
  "ifier": 10803,
  "ifiers": 16016,
  "ifies": 7669,
  "ifle": 19604,
  "iform": 7012,
  "ift": 2347,
  "ifted": 21857,
  "ifting": 13601,
  "ifts": 23023,
  "ifty": 23735,
  "iful": 4385,
  "ifully": 16526,
  "ify": 2090,
  "ifying": 4019,
  "ig": 328,
  "iga": 14637,
  "igan": 4859,
  "igans": 30726,
  "igar": 23412,
  "igare": 8027,
  "igate": 9788,
  "igated": 20395,
  "igating": 18487,
  "igation": 7134,
  "igator": 24202,
  "igators": 21666,
  "ige": 11460,
  "igel": 18503,
  "igen": 7838,
  "igenous": 9743,
  "iger": 6350,
  "igg": 6925,
  "igger": 22404,
  "iggins": 17803,
  "iggle": 25972,
  "iggs": 16412,
  "igh": 394,
  "ighed": 12792,
  "ight": 436,
  "ighte": 16023,
  "ighteen": 26397,
  "ighteous": 18941,
  "ighter": 4707,
  "ighters": 5486,
  "ighth": 10552,
  "ighting": 10861,
  "ights": 2963,
  "ighty": 20850,
  "igi": 23719,
  "igion": 17337,
  "igious": 9565,
  "igm": 16264,
  "igma": 14152,
  "igmat": 31916,
  "ign": 555,
  "ignant": 22932,
  "igned": 4109,
  "ignment": 20068,
  "ignt": 13798,
  "ignty": 14004,
  "igo": 17869,
  "igrant": 23347,
  "igration": 10573,
  "igs": 16865,
  "igue": 16474,
  "igure": 7083,
  "ih": 4618,
  "ihad": 8857,
  "ihadi": 31099,
  "ihar": 27752,
  "ihil": 22745,
  "ii": 7186,
  "iii": 28689,
  "ij": 2614,
  "iji": 22854,
  "ijing": 8873,
  "ijuana": 4164,
  "ik": 1252,
  "ika": 9803,
  "ike": 509,
  "iked": 22143,
  "iker": 18752,
  "ikers": 22187,
  "ikes": 8568,
  "ikh": 10569,
  "ikhail": 30104,
  "iki": 9790,
  "iking": 14479,
  "ikini": 29952,
  "ikipedia": 22785,
  "iko": 17089,
  "il": 350,
  "ila": 9008,
  "ilar": 1915,
  "ilarly": 7253,
  "ilated": 29582,
  "ilater": 30632,
  "ilateral": 12811,
  "ilaterally": 31520,
  "ilation": 10911,
  "ild": 695,
  "ilda": 26343,
  "ile": 583,
  "ileaks": 21292,
  "iled": 4021,
  "ilem": 18529,
  "iler": 9511,
  "iles": 3443,
  "iley": 8730,
  "ili": 2358,
  "ilia": 16559,
  "iliar": 4573,
  "iliary": 31700,
  "iliated": 27083,
  "iliation": 13288,
  "ilib": 19665,
  "ilibrium": 23234,
  "ilies": 3515,
  "ilight": 19885,
  "iling": 4688,
  "ilingual": 31065,
  "ilion": 26831,
  "ilipp": 8246,
  "ilit": 5955,
  "ilitary": 15897,
  "ilitating": 30648,
  "ilitation": 18140,
  "ilities": 2527,
  "ility": 919,
  "ill": 355,
  "illa": 5130,
  "illance": 6327,
  "illas": 24277,
  "ille": 3134,
  "illed": 3138,
  "iller": 4550,
  "illery": 14691,
  "illes": 20639,
  "illing": 4256,
  "illion": 946,
  "illions": 22123,
  "illo": 14483,
  "illon": 20133,
  "ills": 2637,
  "illusion": 28090,
  "illy": 6122,
  "ilo": 26255,
  "ilogy": 18328,
  "ilot": 24553,
  "ils": 4822,
  "ilst": 11558,
  "ilt": 2256,
  "ilton": 7900,
  "ilty": 5850,
  "ily": 810,
  "ilyn": 31343,
  "im": 321,
  "ima": 8042,
  "imag": 20103,
  "image": 12174,
  "images": 27963,
  "imagin": 30480,
  "imal": 5090,
  "iman": 21029,
  "imate": 1751,
  "imated": 15519,
  "imately": 3099,
  "imates": 27923,
  "imation": 21597,
  "imb": 11344,
  "imbabwe": 19923,
  "ime": 521,
  "imedia": 17655,
  "imen": 18611,
  "imens": 12534,
  "imensional": 16606,
  "iment": 2977,
  "imental": 17170,
  "iments": 6824,
  "imer": 18138,
  "imes": 959,
  "imet": 27354,
  "imeter": 16416,
  "imeters": 30458,
  "img": 13229,
  "imi": 25336,
  "imin": 3135,
  "iminal": 3382,
  "imination": 19002,
  "imir": 10732,
  "imity": 18071,
  "imize": 10460,
  "imm": 8263,
  "immer": 10749,
  "immers": 31512,
  "imming": 26093,
  "imo": 21138,
  "imon": 23491,
  "imore": 8196,
  "imp": 7415,
  "import": 15650,
  "important": 21989,
  "imposed": 30171,
  "impro": 27893,
  "imps": 25337,
  "ims": 12653,
  "imson": 26441,
  "imum": 3530,
  "in": 259,
  "ina": 1358,
  "inal": 1354,
  "inally": 3248,
  "inals": 9232,
  "inary": 3396,
  "inas": 24869,
  "inate": 14400,
  "inated": 3840,
  "inating": 9211,
  "ination": 1914,
  "inational": 20779,
  "inations": 7126,
  "inburgh": 17914,
  "inc": 1795,
  "ince": 885,
  "inch": 8704,
  "incial": 11635,
  "incinn": 12267,
  "incinnati": 12327,
  "include": 26720,
  "including": 8420,
  "incoln": 9763,
  "income": 10665,
  "incre": 22240,
  "inct": 4553,
  "inction": 8863,
  "inctions": 29513,
  "ind": 540,
  "inda": 21115,
  "indal": 30900,
  "inder": 7790,
  "inders": 27733,
  "index": 14495,
  "inding": 7178,
  "induced": 19915,
  "indust": 19532,
  "industrial": 25045,
  "ine": 512,
  "inea": 17925,
  "ined": 1385,
  "inem": 6697,
  "inement": 19043,
  "inence": 28334,
  "inent": 5323,
  "inental": 18827,
  "iner": 7318,
  "iners": 18748,
  "inery": 13311,
  "ines": 1120,
  "inese": 3275,
  "iness": 1218,
  "inez": 15437,
  "inf": 8936,
  "infect": 29735,
  "inflamm": 31252,
  "info": 16491,
  "information": 14341,
  "informed": 28069,
  "ing": 278,
  "inge": 10409,
  "inged": 31934,
  "ingen": 30182,
  "inger": 4038,
  "inges": 23918,
  "ingham": 19523,
  "inging": 12761,
  "ingle": 16683,
  "ingly": 3932,
  "ingo": 30455,
  "ingrich": 18104,
  "ings": 657,
  "ington": 9138,
  "ingu": 6720,
  "inho": 15306,
  "ini": 5582,
  "inian": 19955,
  "ining": 3197,
  "inion": 23989,
  "inis": 15120,
  "inished": 29355,
  "init": 25873,
  "inite": 11197,
  "initely": 12069,
  "inition": 24353,
  "inity": 7427,
  "ink": 670,
  "inker": 27716,
  "inking": 7770,
  "inkle": 21020,
  "inks": 3084,
  "inn": 3794,
  "innamon": 24364,
  "inness": 23022,
  "ino": 2901,
  "inois": 8356,
  "inos": 14310,
  "inous": 27285,
  "input": 23428,
  "inqu": 20237,
  "ins": 1071,
  "insert": 31434,
  "inski": 19254,
  "insky": 21916,
  "inson": 6875,
  "inspired": 20070,
  "inst": 10715,
  "install": 26520,
  "instein": 9961,
  "insula": 13764,
  "int": 614,
  "intage": 16325,
  "inte": 5358,
  "integr": 19288,
  "intelligence": 26312,
  "intend": 6566,
  "intendent": 18296,
  "intendo": 7801,
  "intensive": 30057,
  "inter": 4929,
  "interest": 7891,
  "interested": 29193,
  "intern": 27743,
  "inters": 21622,
  "inth": 22292,
  "into": 20202,
  "inton": 1924,
  "inum": 30876,
  "inv": 17676,
  "invest": 20591,
  "iny": 3820,
  "inyl": 20876,
  "io": 1002,
  "iod": 2282,
  "iol": 1571,
  "iola": 24421,
  "iolet": 21106,
  "iological": 15362,
  "iology": 13146,
  "ion": 297,
  "ionage": 19736,
  "ional": 1546,
  "ionally": 5835,
  "ione": 8508,
  "ioned": 14031,
  "ions": 505,
  "iop": 13987,
  "ior": 1471,
  "iors": 11116,
  "ios": 4534,
  "iosity": 13900,
  "iot": 5308,
  "iotic": 26264,
  "iots": 13378,
  "iott": 19282,
  "ious": 693,
  "iously": 1695,
  "iox": 11203,
  "ioxide": 13376,
  "ip": 560,
  "ipal": 8544,
  "ipe": 4356,
  "ipedia": 9576,
  "ipeg": 16420,
  "iper": 16134,
  "ipers": 29969,
  "ipes": 25534,
  "iph": 13338,
  "iphate": 27173,
  "ipher": 13016,
  "ipl": 6710,
  "iple": 2600,
  "iples": 29703,
  "ipp": 4633,
  "ipped": 4492,
  "ipper": 29411,
  "ippers": 26409,
  "ippi": 11397,
  "ipping": 5353,
  "ipple": 20723,
  "ips": 2730,
  "ipse": 16440,
  "iqu": 1643,
  "ique": 2415,
  "iques": 6412,
  "ir": 341,
  "ira": 8700,
  "irable": 13191,
  "iral": 29712,
  "irate": 13251,
  "irates": 10641,
  "iration": 17734,
  "irc": 2031,
  "ircraft": 31899,
  "ird": 1405,
  "irds": 6237,
  "ire": 579,
  "irect": 1075,
  "irection": 19433,
  "ired": 1253,
  "irement": 31177,
  "ires": 2680,
  "irez": 25202,
  "irgin": 4461,
  "iri": 14841,
  "irie": 25739,
  "iries": 18618,
  "iring": 3749,
  "irk": 14649,
  "irl": 2116,
  "irlf": 9387,
  "irlfriend": 9399,
  "irlines": 15391,
  "irling": 23843,
  "irm": 2488,
  "irmed": 16038,
  "irming": 26711,
  "irms": 7265,
  "iro": 6797,
  "iron": 1852,
  "irrel": 23767,
  "irs": 11642,
  "irst": 651,
  "irt": 2474,
  "irteen": 22133,
  "irth": 3497,
  "irts": 9382,
  "irtual": 15109,
  "irty": 6115,
  "irus": 19681,
  "iry": 8466,
  "is": 271,
  "isa": 9471,
  "isan": 7315,
  "isance": 30152,
  "isans": 29096,
  "isation": 4864,
  "isations": 31396,
  "isc": 2490,
  "iscal": 7553,
  "isch": 23662,
  "ischer": 18604,
  "isco": 18015,
  "isconsin": 7194,
  "isd": 10916,
  "isdom": 9845,
  "ise": 745,
  "ised": 1330,
  "isen": 13561,
  "iser": 5000,
  "isers": 12849,
  "ises": 2770,
  "iseum": 28032,
  "isexual": 19004,
  "isf": 4899,
  "ish": 718,
  "isha": 20069,
  "ishable": 30189,
  "ished": 1297,
  "isher": 4525,
  "ishers": 23356,
  "ishes": 5909,
  "ishi": 22708,
  "ishing": 2987,
  "ishly": 27929,
  "ishment": 19363,
  "ishop": 9518,
  "ishops": 20014,
  "isi": 21537,
  "isible": 13326,
  "isine": 25305,
  "ising": 1540,
  "ision": 1114,
  "isions": 3252,
  "isite": 23991,
  "isition": 10100,
  "isive": 11532,
  "isk": 9001,
  "isl": 2630,
  "isle": 18020,
  "isly": 30516,
  "ism": 925,
  "isman": 25587,
  "isms": 11467,
  "iso": 28764,
  "isode": 12316,
  "isoft": 28502,
  "isol": 31339,
  "ison": 1616,
  "isons": 9025,
  "isp": 8123,
  "ispens": 29981,
  "ispensable": 31300,
  "isphere": 18489,
  "iss": 769,
  "issa": 14724,
  "issan": 21710,
  "issance": 13315,
  "isse": 17915,
  "ission": 1494,
  "issions": 6255,
  "isson": 30903,
  "issue": 22451,
  "issued": 27493,
  "issues": 31433,
  "ist": 387,
  "ista": 11533,
  "istan": 2919,
  "istance": 11173,
  "istant": 10285,
  "istas": 30898,
  "isted": 5263,
  "istence": 24067,
  "istent": 7666,
  "ister": 1582,
  "isters": 5881,
  "istic": 2442,
  "istical": 19791,
  "istically": 14981,
  "istics": 4452,
  "istine": 28977,
  "isting": 8737,
  "istle": 10936,
  "istrate": 27841,
  "istries": 25980,
  "istry": 4088,
  "ists": 933,
  "isure": 19662,
  "isy": 26220,
  "it": 270,
  "ita": 6218,
  "itable": 4607,
  "itably": 12663,
  "itage": 8954,
  "ital": 1223,
  "itals": 7465,
  "itan": 22870,
  "itant": 22928,
  "itar": 7239,
  "itarian": 7073,
  "itars": 28547,
  "itary": 9596,
  "itas": 19675,
  "itate": 12559,
  "itated": 13624,
  "itating": 21480,
  "itation": 3563,
  "itational": 18382,
  "itations": 16715,
  "itative": 13104,
  "itbart": 13354,
  "itch": 3176,
  "itched": 26648,
  "itches": 19771,
  "ite": 574,
  "itect": 5105,
  "ited": 831,
  "itely": 3799,
  "item": 23323,
  "itement": 11221,
  "iter": 5067,
  "iterranean": 16297,
  "ites": 2753,
  "ith": 343,
  "ithe": 29489,
  "ither": 1621,
  "ithub": 15097,
  "iti": 8317,
  "itial": 16143,
  "itially": 18153,
  "ities": 854,
  "itimate": 24577,
  "itime": 18110,
  "iting": 1744,
  "ition": 661,
  "itional": 1910,
  "itionally": 8417,
  "itions": 1839,
  "itious": 24812,
  "itis": 13870,
  "itive": 1768,
  "itiveness": 26070,
  "itives": 18325,
  "itivity": 12290,
  "itiz": 2668,
  "itizens": 28300,
  "itness": 3986,
  "ito": 10061,
  "itol": 9815,
  "itor": 3562,
  "itoring": 31208,
  "itors": 6382,
  "itous": 17982,
  "its": 937,
  "itsu": 22003,
  "itt": 5047,
  "itted": 16547,
  "itter": 10069,
  "itting": 8666,
  "ittle": 6519,
  "itual": 9749,
  "itud": 31118,
  "itude": 4126,
  "itudes": 9831,
  "iture": 10246,
  "itures": 20143,
  "itus": 18793,
  "itute": 3414,
  "itutes": 15328,
  "itution": 2558,
  "itutional": 4950,
  "ity": 414,
  "itz": 4964,
  "itzer": 18994,
  "iu": 21634,
  "ium": 1738,
  "ius": 4840,
  "iv": 461,
  "iva": 13116,
  "ivable": 19774,
  "ival": 2413,
  "ivalent": 29368,
  "ivals": 8832,
  "ivan": 11826,
  "ivas": 26996,
  "ivated": 25341,
  "ive": 421,
  "ived": 1542,
  "ively": 2161,
  "iven": 3971,
  "iveness": 6726,
  "iver": 1719,
  "ivered": 5594,
  "iverpool": 8549,
  "ivers": 1122,
  "iversal": 27227,
  "iversary": 8329,
  "iverse": 3981,
  "iversity": 1417,
  "ivery": 24484,
  "ives": 1037,
  "ivia": 20012,
  "ivic": 14022,
  "ivid": 1781,
  "ividual": 1951,
  "ivier": 29923,
  "ivil": 2191,
  "iving": 1789,
  "ivision": 31124,
  "ivism": 23867,
  "ivist": 25163,
  "ivities": 23649,
  "ivity": 3659,
  "ivo": 24029,
  "ivor": 22015,
  "ix": 923,
  "ixed": 7846,
  "ixel": 11710,
  "ixels": 19044,
  "ixon": 10626,
  "ixt": 6933,
  "ixture": 10328,
  "ixtures": 24213,
  "ixty": 19921,
  "iy": 9718,
  "iya": 23682,
  "iz": 545,
  "iza": 25555,
  "izabeth": 9598,
  "izable": 13418,
  "izard": 17285,
  "izards": 28528,
  "izarre": 10781,
  "ization": 1618,
  "izations": 11492,
  "ize": 1220,
  "ized": 1177,
  "izer": 9899,
  "izers": 16465,
  "izes": 4725,
  "izing": 2780,
  "izon": 7520,
  "izoph": 18796,
  "izophren": 18918,
  "izz": 7069,
  "izza": 10332,
  "izzard": 16689,
  "iÃ³n": 17003,
  "j": 106,
  "ja": 8861,
  "jack": 30599,
  "jad": 25546,
  "jah": 23410,
  "jamin": 11848,
  "jan": 12428,
  "jar": 15107,
  "jas": 30721,
  "java": 30453,
  "je": 16566,
  "ject": 791,
  "jee": 29671,
  "jet": 26968,
  "ji": 9854,
  "jiang": 30656,
  "jin": 28668,
  "jo": 8046,
  "join": 30172,
  "journal": 24441,
  "joy": 2746,
  "jpg": 18784,
  "jri": 27026,
  "jriwal": 27811,
  "js": 10513,
  "json": 21664,
  "ju": 18602,
  "jud": 9552,
  "jury": 23877,
  "just": 3607,
  "justed": 22590,
  "justice": 27627,
  "k": 107,
  "ka": 5368,
  "kan": 27284,
  "kar": 18740,
  "kara": 19501,
  "kay": 6077,
  "ke": 361,
  "ked": 7575,
  "kee": 9953,
  "keep": 8653,
  "keeper": 12484,
  "keepers": 20242,
  "keeping": 18496,
  "kees": 12948,
  "kef": 21731,
  "kel": 6543,
  "keley": 11409,
  "kell": 18403,
  "ken": 3825,
  "kens": 16414,
  "ker": 7468,
  "kered": 27858,
  "kers": 18306,
  "kes": 11337,
  "ket": 5592,
  "ketch": 24021,
  "key": 2504,
  "keys": 13930,
  "kg": 15953,
  "kh": 14789,
  "ki": 4165,
  "kick": 23916,
  "kil": 27153,
  "kill": 13576,
  "kin": 5165,
  "kind": 11760,
  "king": 9482,
  "kins": 4814,
  "kinson": 21553,
  "kish": 25547,
  "kit": 18323,
  "km": 11915,
  "kn": 16843,
  "know": 15832,
  "known": 4472,
  "ko": 6978,
  "kok": 27728,
  "kov": 18929,
  "kowski": 21332,
  "ks": 592,
  "ksw": 22907,
  "kswagen": 23488,
  "kward": 11531,
  "ky": 2875,
  "l": 108,
  "la": 4413,
  "lab": 27178,
  "label": 26151,
  "lad": 8371,
  "lah": 8536,
  "lahoma": 8842,
  "laim": 11343,
  "lain": 21886,
  "lake": 27262,
  "lam": 2368,
  "lamm": 27672,
  "lan": 7931,
  "lance": 18050,
  "land": 1004,
  "lander": 22103,
  "landers": 28341,
  "lando": 9867,
  "lands": 4566,
  "lane": 27104,
  "lang": 24575,
  "language": 18847,
  "lant": 4600,
  "lantic": 21904,
  "lar": 26199,
  "larg": 15316,
  "large": 10719,
  "largest": 20258,
  "las": 14597,
  "lash": 13396,
  "lass": 23892,
  "lasses": 29672,
  "last": 15457,
  "lasting": 27984,
  "lat": 19546,
  "late": 22343,
  "lated": 24318,
  "later": 30219,
  "lation": 17133,
  "laughs": 22927,
  "laughter": 24442,
  "law": 6266,
  "laws": 25648,
  "lay": 16714,
  "lb": 26235,
  "ld": 332,
  "lda": 21705,
  "lder": 7322,
  "ldom": 23601,
  "ldon": 25404,
  "le": 295,
  "lead": 27132,
  "leader": 26236,
  "leaders": 31625,
  "leading": 11121,
  "league": 16592,
  "leaning": 21448,
  "leans": 10568,
  "lear": 2522,
  "lease": 3620,
  "leased": 15821,
  "lect": 816,
  "lected": 12051,
  "lection": 1455,
  "lections": 31498,
  "led": 1008,
  "ledge": 3005,
  "ledged": 29647,
  "lee": 10380,
  "leen": 17779,
  "leep": 10847,
  "left": 10024,
  "leg": 1364,
  "legal": 15835,
  "legates": 29718,
  "lege": 2505,
  "lem": 14411,
  "lement": 2054,
  "lementary": 14374,
  "lements": 12107,
  "len": 14741,
  "lene": 28241,
  "length": 17091,
  "ler": 1811,
  "lers": 7597,
  "les": 852,
  "less": 1266,
  "lessly": 8256,
  "lessness": 16331,
  "lest": 30543,
  "let": 1728,
  "letcher": 25503,
  "lete": 6817,
  "leted": 11267,
  "letes": 31800,
  "letion": 22700,
  "leton": 12378,
  "lets": 5327,
  "lett": 14598,
  "lette": 20122,
  "letter": 14265,
  "leum": 18538,
  "lev": 2441,
  "levant": 13574,
  "levard": 17744,
  "level": 4393,
  "leveland": 8103,
  "levision": 3957,
  "lex": 2698,
  "ley": 1545,
  "leys": 24295,
  "lf": 1755,
  "li": 955,
  "lia": 22735,
  "liable": 23002,
  "liament": 4142,
  "liance": 27140,
  "lib": 10461,
  "liber": 20802,
  "liberal": 27961,
  "lic": 637,
  "lication": 15035,
  "lications": 22016,
  "lich": 21061,
  "licia": 30435,
  "lick": 3883,
  "lickr": 15209,
  "lict": 20024,
  "licted": 27425,
  "lide": 22993,
  "lie": 14819,
  "lied": 11757,
  "lient": 20832,
  "lier": 2118,
  "liers": 16051,
  "lies": 6988,
  "liest": 10120,
  "life": 5692,
  "lift": 30544,
  "lig": 4926,
  "liga": 30533,
  "light": 2336,
  "lightenment": 31503,
  "lightly": 28343,
  "lights": 14780,
  "lihood": 10628,
  "lik": 29678,
  "like": 2275,
  "lim": 2218,
  "liminary": 12768,
  "limited": 10988,
  "lin": 2873,
  "line": 1324,
  "linear": 28600,
  "lined": 9631,
  "liner": 22337,
  "liners": 27169,
  "lines": 5859,
  "liness": 25759,
  "ling": 1258,
  "lings": 21174,
  "lington": 15537,
  "lining": 16782,
  "link": 12040,
  "linked": 23576,
  "lins": 20129,
  "linux": 23639,
  "lis": 26023,
  "lish": 2324,
  "list": 7103,
  "listed": 16455,
  "lists": 23164,
  "lit": 18060,
  "liter": 16073,
  "little": 30180,
  "lium": 28707,
  "liv": 18151,
  "live": 14482,
  "lived": 18859,
  "liver": 12089,
  "living": 28561,
  "ll": 298,
  "lla": 7756,
  "llah": 18402,
  "llect": 6568,
  "llectual": 25990,
  "lled": 2657,
  "ller": 5748,
  "llers": 12071,
  "lli": 12465,
  "llig": 2648,
  "lligence": 3073,
  "lligent": 30613,
  "lling": 2045,
  "llington": 20529,
  "llo": 13252,
  "llor": 10801,
  "lls": 6998,
  "lly": 10208,
  "ln": 24164,
  "lo": 5225,
  "load": 2962,
  "loaded": 20311,
  "loading": 28535,
  "loc": 29704,
  "local": 15197,
  "lock": 7506,
  "locked": 26685,
  "loe": 27202,
  "log": 7934,
  "loid": 31961,
  "lon": 17273,
  "long": 6065,
  "loo": 26595,
  "look": 5206,
  "looking": 11132,
  "loop": 26190,
  "lopp": 26082,
  "lor": 4763,
  "lord": 27179,
  "loss": 24319,
  "lost": 31365,
  "lot": 27351,
  "lov": 31995,
  "love": 22449,
  "loving": 28611,
  "low": 8892,
  "lower": 24632,
  "lp": 921,
  "ls": 7383,
  "lt": 2460,
  "ltry": 30531,
  "lu": 12186,
  "lud": 755,
  "lude": 13402,
  "luded": 17174,
  "ludes": 20631,
  "luding": 6640,
  "lus": 26526,
  "lv": 6965,
  "lves": 28006,
  "ly": 305,
  "lying": 3295,
  "lymp": 5517,
  "lyn": 5356,
  "lynn": 10307,
  "m": 109,
  "ma": 3122,
  "mad": 9315,
  "made": 9117,
  "mag": 27352,
  "mage": 24920,
  "magic": 29433,
  "maid": 22905,
  "mail": 4874,
  "mails": 21751,
  "main": 14742,
  "major": 19339,
  "majority": 27915,
  "make": 17905,
  "maker": 8801,
  "makers": 5029,
  "making": 7594,
  "mal": 7775,
  "mala": 23824,
  "male": 26356,
  "malink": 27503,
  "man": 768,
  "management": 23027,
  "mand": 19849,
  "mania": 26676,
  "mann": 7975,
  "manned": 23495,
  "mans": 28067,
  "manship": 23966,
  "manuel": 15127,
  "many": 19648,
  "map": 12359,
  "mar": 3753,
  "mare": 12353,
  "mares": 28807,
  "mark": 3868,
  "marked": 20928,
  "market": 8994,
  "markets": 29568,
  "marks": 13904,
  "married": 26841,
  "mart": 13471,
  "mary": 23503,
  "mas": 5096,
  "mass": 20777,
  "master": 13190,
  "mat": 9206,
  "match": 20246,
  "matched": 30619,
  "mate": 7849,
  "mates": 5959,
  "math": 10181,
  "matic": 12168,
  "max": 16505,
  "may": 10754,
  "maybe": 24658,
  "mb": 2195,
  "mber": 1653,
  "mble": 10684,
  "md": 30873,
  "me": 2483,
  "meal": 27920,
  "meaning": 22515,
  "med": 1129,
  "medi": 2443,
  "media": 12594,
  "mediate": 28453,
  "mediately": 23391,
  "meg": 28365,
  "mega": 18754,
  "mel": 15192,
  "mem": 16396,
  "member": 17163,
  "members": 28940,
  "men": 3475,
  "ment": 379,
  "mental": 18961,
  "mentation": 16532,
  "mented": 11128,
  "mentia": 23864,
  "menting": 24400,
  "mentioned": 15719,
  "ments": 775,
  "mer": 581,
  "merce": 10648,
  "mercial": 16942,
  "meric": 837,
  "mers": 10679,
  "mes": 6664,
  "message": 29550,
  "met": 4329,
  "metal": 31978,
  "meter": 28422,
  "method": 31949,
  "metic": 17469,
  "metics": 27003,
  "metric": 29312,
  "metry": 21191,
  "mg": 21037,
  "mi": 14475,
  "mia": 21495,
  "mic": 10295,
  "mid": 12607,
  "middle": 26252,
  "midt": 18318,
  "mile": 14894,
  "military": 28739,
  "mill": 15133,
  "million": 11037,
  "min": 1101,
  "mination": 14230,
  "mind": 9613,
  "minded": 12490,
  "mine": 4141,
  "minent": 16698,
  "ming": 2125,
  "mingham": 14760,
  "minist": 1937,
  "minster": 16144,
  "minute": 9414,
  "mir": 10464,
  "mis": 23808,
  "miss": 3955,
  "missible": 24221,
  "mission": 3977,
  "missions": 9696,
  "mist": 19136,
  "mit": 1392,
  "mite": 30657,
  "mith": 25692,
  "mitt": 18474,
  "mitted": 3405,
  "mittee": 3972,
  "ml": 6712,
  "mm": 5695,
  "mn": 13711,
  "mo": 8899,
  "mobile": 24339,
  "mod": 7172,
  "mode": 31116,
  "model": 24366,
  "modern": 19026,
  "module": 30067,
  "moil": 20489,
  "mon": 2827,
  "mond": 5794,
  "money": 24798,
  "mong": 24198,
  "mons": 13613,
  "mont": 7460,
  "month": 7732,
  "monton": 15087,
  "mony": 9010,
  "moon": 21510,
  "mor": 21734,
  "more": 3609,
  "mort": 25615,
  "mos": 16311,
  "mosp": 5715,
  "most": 1603,
  "mostly": 24626,
  "mot": 25447,
  "mother": 12502,
  "mount": 17395,
  "mounted": 31881,
  "mouth": 13783,
  "move": 21412,
  "moving": 26596,
  "mp": 2720,
  "mph": 18757,
  "ms": 974,
  "mson": 23721,
  "mt": 26394,
  "much": 25735,
  "mult": 19493,
  "mun": 6883,
  "mund": 17547,
  "munition": 14688,
  "mur": 30627,
  "mus": 16968,
  "must": 26969,
  "mut": 26550,
  "my": 1824,
  "mys": 24741,
  "mysql": 31416,
  "n": 110,
  "na": 2690,
  "naev": 30063,
  "nails": 31962,
  "naire": 24562,
  "nam": 6700,
  "name": 6177,
  "named": 11696,
  "names": 13582,
  "namese": 17129,
  "nan": 11300,
  "nar": 19199,
  "nas": 24152,
  "natic": 28264,
  "nation": 24832,
  "national": 15063,
  "natural": 11810,
  "nav": 27511,
  "nce": 1240,
  "nces": 3195,
  "nd": 356,
  "nder": 692,
  "ndering": 19684,
  "nders": 26601,
  "ndra": 18943,
  "ne": 697,
  "neapolis": 15199,
  "neath": 13959,
  "necess": 10237,
  "neck": 28619,
  "nect": 1788,
  "ned": 1182,
  "nedy": 8439,
  "nee": 28554,
  "need": 31663,
  "needed": 23026,
  "neg": 12004,
  "negie": 27782,
  "negoti": 23886,
  "nel": 4827,
  "nell": 5956,
  "nels": 18775,
  "nen": 29434,
  "ner": 1015,
  "nered": 13085,
  "nerg": 31759,
  "nergy": 5931,
  "ners": 2478,
  "nes": 1989,
  "nesday": 2834,
  "nesium": 30002,
  "nesota": 7061,
  "ness": 1176,
  "nesty": 14384,
  "net": 3921,
  "network": 31504,
  "neum": 23883,
  "neutral": 27843,
  "never": 12980,
  "new": 3686,
  "news": 10915,
  "nex": 16587,
  "next": 26421,
  "ney": 1498,
  "neys": 18480,
  "ng": 825,
  "ngth": 20642,
  "ni": 7410,
  "nia": 16159,
  "nic": 6588,
  "nick": 22416,
  "nie": 11242,
  "night": 4774,
  "nik": 14674,
  "nine": 27684,
  "ning": 726,
  "nings": 20081,
  "nis": 18848,
  "nm": 29149,
  "no": 4363,
  "node": 25448,
  "nom": 24576,
  "non": 11317,
  "none": 30781,
  "noon": 5500,
  "nor": 12657,
  "normal": 13000,
  "not": 1805,
  "note": 12418,
  "notes": 23769,
  "nothing": 24759,
  "noticed": 25592,
  "now": 2185,
  "nown": 3860,
  "nox": 31914,
  "ns": 2519,
  "nsic": 17621,
  "nt": 435,
  "ntil": 8990,
  "nton": 24126,
  "null": 19200,
  "num": 28871,
  "number": 22009,
  "nut": 15682,
  "nuts": 29033,
  "ny": 3428,
  "nyder": 17491,
  "o": 111,
  "oa": 13844,
  "oad": 1553,
  "oan": 20590,
  "oard": 12603,
  "oat": 20655,
  "ob": 667,
  "oba": 16999,
  "obal": 2291,
  "obb": 6561,
  "obby": 5162,
  "obe": 5690,
  "ober": 1808,
  "obi": 15940,
  "obia": 31054,
  "obic": 20265,
  "obil": 25284,
  "obile": 3313,
  "obiles": 31374,
  "object": 20823,
  "obo": 26795,
  "obody": 18272,
  "obs": 8206,
  "oby": 27161,
  "oc": 427,
  "oca": 10466,
  "ocal": 4828,
  "ocaly": 13799,
  "ocalypse": 19037,
  "ocalyptic": 25174,
  "ocamp": 24385,
  "ocate": 12654,
  "ocated": 10753,
  "ocating": 23414,
  "ocation": 6973,
  "ocations": 21436,
  "ocative": 18851,
  "ocaust": 14794,
  "occ": 13751,
  "occup": 18119,
  "occupied": 26106,
  "ocene": 27290,
  "ocese": 23147,
  "och": 5340,
  "oche": 26203,
  "ochem": 22152,
  "ochond": 24746,
  "oci": 1770,
  "ocial": 9768,
  "ociated": 19424,
  "ocide": 14454,
  "ocious": 29945,
  "ocity": 13637,
  "ock": 792,
  "ocked": 3574,
  "ocker": 14816,
  "ocket": 6426,
  "ockets": 12073,
  "ockey": 6562,
  "ocking": 5440,
  "ocks": 3952,
  "oco": 28011,
  "ocol": 5099,
  "ocolate": 9517,
  "ocr": 4313,
  "ocracies": 28134,
  "ocracy": 4842,
  "ocrat": 1578,
  "ocratic": 6280,
  "ocrats": 14884,
  "ocre": 24896,
  "ocument": 8516,
  "ocumented": 14422,
  "ocus": 11871,
  "ocused": 18181,
  "ocy": 18281,
  "od": 399,
  "oda": 20031,
  "oday": 3917,
  "odd": 5475,
  "ode": 1343,
  "oded": 8977,
  "oder": 19812,
  "odes": 4446,
  "odge": 10561,
  "odic": 23382,
  "odied": 19525,
  "odies": 4951,
  "oding": 8000,
  "odka": 29181,
  "odo": 24874,
  "odore": 23350,
  "odox": 9944,
  "ods": 20782,
  "odus": 23375,
  "ody": 1194,
  "odynam": 23028,
  "oe": 2450,
  "oen": 8484,
  "oenix": 9689,
  "oes": 3552,
  "of": 633,
  "off": 2080,
  "office": 29065,
  "official": 15690,
  "offs": 11085,
  "oft": 7524,
  "often": 24770,
  "og": 526,
  "oga": 10301,
  "ogan": 6796,
  "ogen": 8079,
  "ogene": 22199,
  "ogeneous": 31990,
  "ogenic": 17809,
  "ogenous": 29505,
  "ogens": 25963,
  "ogether": 7818,
  "ogg": 12680,
  "ogging": 27818,
  "oggle": 30239,
  "ogle": 2382,
  "ogn": 2307,
  "ognitive": 30255,
  "ogo": 25498,
  "ogram": 24187,
  "ograms": 23493,
  "ograp": 1963,
  "ograph": 2310,
  "ographer": 16848,
  "ographers": 29781,
  "ographic": 6708,
  "ographical": 17324,
  "ographically": 29214,
  "ographics": 19828,
  "ographs": 30138,
  "ography": 4480,
  "ogs": 21609,
  "ogue": 5603,
  "ogy": 9857,
  "ogyn": 18182,
  "oh": 1107,
  "oha": 29807,
  "ohan": 20387,
  "ohn": 1420,
  "ohyd": 24491,
  "oi": 22894,
  "oice": 9541,
  "oid": 2311,
  "oids": 19701,
  "oil": 7358,
  "oiler": 25206,
  "oin": 23579,
  "oint": 1658,
  "ointed": 19150,
  "oir": 16872,
  "ois": 9983,
  "oise": 28889,
  "oit": 22417,
  "oj": 11813,
  "ojure": 23425,
  "ok": 487,
  "oka": 21177,
  "oke": 2456,
  "oked": 6261,
  "okemon": 20323,
  "oken": 5847,
  "oker": 10414,
  "okes": 2647,
  "oki": 30158,
  "okia": 14605,
  "oking": 5685,
  "oko": 15409,
  "oks": 26715,
  "oku": 18127,
  "ol": 349,
  "ola": 5282,
  "olan": 15330,
  "olar": 9277,
  "olas": 11202,
  "olation": 21688,
  "old": 773,
  "oldown": 19119,
  "olds": 9398,
  "ole": 2567,
  "olean": 31538,
  "olen": 8264,
  "oler": 13724,
  "oles": 3974,
  "olester": 19785,
  "olesterol": 20920,
  "olf": 4493,
  "oli": 10074,
  "olia": 21754,
  "oliberal": 23504,
  "olic": 3944,
  "olics": 16501,
  "olicy": 26158,
  "olid": 11187,
  "olin": 31023,
  "oline": 12749,
  "olis": 7903,
  "olit": 5251,
  "olitan": 11912,
  "olith": 18559,
  "olithic": 22679,
  "olitical": 11053,
  "olitics": 18502,
  "olk": 13528,
  "olkien": 28391,
  "oll": 794,
  "olla": 28596,
  "ollah": 13162,
  "ollar": 11523,
  "ollen": 30088,
  "ollo": 17257,
  "ollow": 998,
  "olls": 25082,
  "olly": 4815,
  "ollywood": 6404,
  "oln": 9406,
  "olo": 13864,
  "olog": 908,
  "ologic": 27880,
  "ological": 2737,
  "ologically": 12192,
  "ologies": 5217,
  "ologist": 6559,
  "ologists": 8440,
  "ologne": 26976,
  "ologue": 31970,
  "ology": 1376,
  "olph": 8731,
  "olphin": 24860,
  "olphins": 12298,
  "ols": 10359,
  "olson": 28027,
  "olt": 8164,
  "olute": 3524,
  "olutely": 14660,
  "olution": 2100,
  "olutions": 13971,
  "olve": 6492,
  "olved": 5426,
  "olver": 16728,
  "olves": 9162,
  "olving": 10097,
  "oly": 4300,
  "olyn": 30999,
  "om": 296,
  "oma": 6464,
  "omach": 11902,
  "oman": 4609,
  "omas": 4572,
  "omatic": 14716,
  "omb": 2692,
  "ome": 460,
  "omed": 9664,
  "omeday": 20919,
  "omedical": 31357,
  "omen": 3483,
  "omer": 11464,
  "omers": 15461,
  "omes": 9708,
  "omet": 890,
  "ometer": 16686,
  "omething": 8239,
  "ometimes": 6415,
  "ometown": 14838,
  "ometric": 23016,
  "omez": 23507,
  "omi": 14878,
  "omic": 10721,
  "omical": 19664,
  "omin": 6346,
  "omination": 26990,
  "oming": 6530,
  "omm": 2449,
  "ommend": 25578,
  "ommended": 31872,
  "ommod": 8677,
  "omo": 16065,
  "omon": 19218,
  "omore": 17570,
  "omorph": 26555,
  "omp": 3129,
  "ompl": 5651,
  "ompson": 9161,
  "oms": 4876,
  "omy": 9832,
  "on": 262,
  "ona": 4049,
  "onal": 16610,
  "onance": 29436,
  "onaut": 31043,
  "once": 22524,
  "ond": 617,
  "onda": 20937,
  "onde": 16224,
  "onder": 9735,
  "ondo": 20865,
  "ondon": 2993,
  "onds": 11663,
  "onduct": 11236,
  "one": 504,
  "oned": 10706,
  "onel": 24466,
  "oneliness": 30597,
  "onen": 30129,
  "onent": 3898,
  "onents": 3815,
  "oner": 12945,
  "ones": 1774,
  "onest": 17063,
  "oney": 1284,
  "ong": 498,
  "onge": 14685,
  "ongevity": 23860,
  "ongh": 17643,
  "ongo": 25554,
  "ongs": 27491,
  "ongyang": 17473,
  "oni": 13317,
  "onia": 11827,
  "onial": 27286,
  "onian": 27107,
  "onic": 7337,
  "onics": 31885,
  "onies": 16015,
  "oning": 10637,
  "only": 8890,
  "onna": 6372,
  "onnaissance": 25632,
  "onom": 5551,
  "onomous": 30710,
  "onomy": 29859,
  "ons": 698,
  "onse": 2462,
  "onsin": 7189,
  "onso": 20820,
  "onson": 31055,
  "onst": 2686,
  "onstruction": 30356,
  "ont": 842,
  "onte": 28024,
  "onto": 4758,
  "onut": 17691,
  "ony": 1591,
  "onym": 5155,
  "onymous": 7075,
  "onz": 10663,
  "oo": 3355,
  "ood": 731,
  "oody": 20890,
  "ook": 566,
  "ookie": 18951,
  "ool": 994,
  "ools": 12914,
  "oom": 4463,
  "oon": 2146,
  "oons": 12341,
  "oop": 11830,
  "oor": 2886,
  "oos": 25319,
  "oot": 1050,
  "ooter": 23205,
  "ooth": 6043,
  "ooting": 13990,
  "oots": 16374,
  "op": 391,
  "opa": 25860,
  "opal": 30635,
  "opard": 14441,
  "opath": 19932,
  "opathy": 30488,
  "ope": 3119,
  "oped": 21982,
  "open": 9693,
  "opened": 21826,
  "openh": 19834,
  "openhagen": 21431,
  "opening": 24620,
  "oper": 3410,
  "operation": 24564,
  "operative": 28624,
  "opers": 29417,
  "opes": 13135,
  "opez": 17946,
  "oph": 2502,
  "opher": 7673,
  "ophers": 19380,
  "ophile": 26744,
  "ophilia": 31027,
  "ophob": 11040,
  "ophobia": 16613,
  "ophobic": 18609,
  "opia": 20185,
  "opic": 16665,
  "oping": 14323,
  "ople": 586,
  "oples": 11627,
  "opoulos": 18567,
  "opp": 11480,
  "oppable": 31255,
  "oppy": 27832,
  "ops": 2776,
  "opsis": 30706,
  "opt": 10271,
  "optic": 28329,
  "option": 31458,
  "opular": 15435,
  "opus": 26623,
  "opy": 6490,
  "opyright": 9742,
  "oqu": 19391,
  "or": 273,
  "ora": 6924,
  "orable": 15767,
  "orage": 5533,
  "oral": 5683,
  "orate": 11208,
  "oration": 6854,
  "orb": 30691,
  "orc": 29051,
  "ord": 578,
  "ordable": 13916,
  "ordan": 6671,
  "orde": 23845,
  "order": 2904,
  "ordered": 23191,
  "orders": 6129,
  "ordin": 5732,
  "ordinarily": 25135,
  "ordinary": 9355,
  "ordinate": 24931,
  "ordinates": 31135,
  "ordination": 30085,
  "ordinator": 31673,
  "ording": 1135,
  "ordon": 8613,
  "ords": 4344,
  "ore": 376,
  "orean": 28336,
  "ored": 1838,
  "orem": 22807,
  "oren": 15524,
  "orer": 11937,
  "orers": 29298,
  "ores": 5205,
  "orescent": 31738,
  "orest": 18412,
  "oret": 9753,
  "orf": 22380,
  "org": 3945,
  "organ": 9346,
  "organized": 31928,
  "orge": 9286,
  "ori": 12788,
  "oria": 11881,
  "orial": 4346,
  "orian": 21835,
  "oric": 6960,
  "orical": 11519,
  "orically": 17148,
  "orie": 21069,
  "orient": 12527,
  "oriented": 14979,
  "ories": 1684,
  "orig": 11253,
  "original": 13389,
  "oring": 2414,
  "orious": 9506,
  "ority": 15147,
  "ork": 944,
  "orks": 3628,
  "orkshire": 24175,
  "orld": 1822,
  "orm": 621,
  "ormal": 9314,
  "ormally": 28358,
  "orman": 22934,
  "orn": 1269,
  "orne": 7581,
  "orney": 3725,
  "orneys": 10817,
  "ornia": 2924,
  "ornings": 23997,
  "orns": 13579,
  "oro": 20566,
  "orough": 7748,
  "orous": 9341,
  "orously": 22562,
  "orp": 18700,
  "orph": 13424,
  "orrh": 31827,
  "orrow": 4464,
  "orry": 6011,
  "ors": 662,
  "orsche": 23416,
  "orse": 6023,
  "orses": 12547,
  "orship": 9546,
  "orsi": 19969,
  "orst": 24982,
  "ort": 398,
  "ortal": 19042,
  "orted": 7188,
  "orter": 3902,
  "orters": 2943,
  "ortex": 30844,
  "orth": 1137,
  "orthern": 4424,
  "orthy": 17763,
  "orting": 16075,
  "ortion": 5043,
  "ortions": 12743,
  "ortium": 20134,
  "ortment": 31561,
  "orts": 1898,
  "ortun": 1759,
  "ortunate": 12579,
  "ortunately": 4456,
  "orum": 15954,
  "orus": 14243,
  "ory": 659,
  "os": 419,
  "osa": 10258,
  "osate": 25262,
  "osaur": 18099,
  "osaurs": 18640,
  "osc": 19625,
  "ose": 570,
  "osed": 1265,
  "osen": 5268,
  "oser": 20542,
  "oses": 3232,
  "osexual": 7924,
  "osh": 4047,
  "oshenko": 31271,
  "oshi": 18132,
  "oshop": 24671,
  "osi": 14149,
  "osing": 2424,
  "osion": 19323,
  "osis": 7173,
  "osit": 8274,
  "osite": 5588,
  "osition": 2747,
  "ository": 14109,
  "osity": 16771,
  "osl": 16460,
  "osoph": 19394,
  "osophy": 23963,
  "osp": 1975,
  "ospace": 22461,
  "ospel": 13592,
  "ospex": 30786,
  "osph": 18568,
  "osphere": 19397,
  "ospital": 3202,
  "oss": 801,
  "ossible": 4656,
  "ossibly": 20186,
  "ossier": 22935,
  "ossip": 23669,
  "ost": 464,
  "oster": 7182,
  "osterone": 24116,
  "ostic": 16772,
  "oston": 5050,
  "osure": 4694,
  "osures": 14758,
  "ot": 312,
  "ota": 3940,
  "otal": 6185,
  "otally": 24092,
  "ote": 1988,
  "otech": 27402,
  "otechnology": 27081,
  "oted": 4834,
  "oter": 17043,
  "oters": 20273,
  "otes": 7437,
  "oth": 868,
  "othe": 22722,
  "other": 846,
  "otherapy": 18766,
  "othing": 29078,
  "oths": 24623,
  "othy": 14517,
  "oti": 3756,
  "otic": 6127,
  "otine": 18578,
  "oting": 10073,
  "otion": 11684,
  "otional": 25617,
  "otism": 22996,
  "otive": 18228,
  "otle": 21693,
  "oto": 2670,
  "oton": 21379,
  "otonin": 31850,
  "ots": 1659,
  "ott": 1602,
  "otta": 21659,
  "ottage": 31696,
  "otte": 10624,
  "otten": 7341,
  "ottenham": 17054,
  "ottest": 22261,
  "otti": 22724,
  "otto": 27548,
  "ottom": 15100,
  "otton": 12995,
  "oty": 5449,
  "otype": 8605,
  "otypes": 12423,
  "ou": 280,
  "oub": 10799,
  "ouble": 18821,
  "oubted": 13787,
  "oubtedly": 14120,
  "ouch": 8701,
  "ouched": 26580,
  "oud": 2965,
  "oufl": 27545,
  "oug": 19719,
  "ough": 605,
  "ought": 2781,
  "oul": 3514,
  "ould": 415,
  "oulder": 17045,
  "oulos": 18038,
  "oun": 901,
  "ounce": 8645,
  "ounced": 7888,
  "ounces": 28272,
  "ouncing": 15945,
  "ound": 648,
  "ounded": 5924,
  "ounder": 26238,
  "ounding": 9048,
  "ounds": 3880,
  "ounge": 21739,
  "ouns": 26678,
  "ount": 604,
  "ountain": 19762,
  "ounty": 20386,
  "oup": 11374,
  "our": 467,
  "ourage": 25406,
  "ource": 3653,
  "ourced": 24768,
  "ources": 3211,
  "ourcing": 24556,
  "oured": 7713,
  "ourge": 16611,
  "ourgeois": 20294,
  "ouri": 9647,
  "ouring": 21550,
  "ourn": 1750,
  "ournal": 2320,
  "ournals": 17020,
  "ournament": 18028,
  "ourney": 5934,
  "ours": 5608,
  "ourse": 8679,
  "ourt": 2663,
  "ous": 510,
  "ousands": 16213,
  "ouse": 1042,
  "oused": 27310,
  "ouses": 11634,
  "ousing": 13021,
  "ously": 3296,
  "ousse": 22160,
  "oust": 14365,
  "oustic": 20057,
  "ouston": 6306,
  "out": 446,
  "outed": 10116,
  "outh": 1479,
  "outheast": 12565,
  "outheastern": 24816,
  "outhern": 4324,
  "outine": 30926,
  "outing": 8748,
  "output": 31082,
  "outs": 4915,
  "outube": 13275,
  "oux": 19883,
  "ov": 712,
  "ova": 9976,
  "ovable": 22973,
  "ovak": 18413,
  "ovakia": 23730,
  "oval": 8526,
  "ovan": 18143,
  "ovascular": 21600,
  "ove": 666,
  "oved": 2777,
  "ovember": 2763,
  "oven": 16464,
  "over": 2111,
  "overed": 2484,
  "overs": 11554,
  "overty": 21190,
  "overy": 4681,
  "oves": 5598,
  "ovic": 13859,
  "ovich": 17374,
  "ovie": 27273,
  "oving": 5272,
  "ovo": 15555,
  "ovsky": 23401,
  "ovy": 21695,
  "ovych": 28866,
  "ow": 325,
  "owa": 7336,
  "owan": 31022,
  "oway": 28823,
  "owe": 9325,
  "owed": 7081,
  "oween": 13641,
  "owell": 12292,
  "ower": 860,
  "owered": 6874,
  "owers": 3903,
  "owing": 7951,
  "owitz": 17388,
  "owl": 4841,
  "owler": 23336,
  "owment": 31307,
  "own": 601,
  "owned": 10326,
  "owner": 16265,
  "owners": 12407,
  "ownt": 5553,
  "owntown": 19206,
  "ows": 2016,
  "owship": 23183,
  "owski": 10738,
  "ox": 1523,
  "oxic": 30415,
  "oxide": 28782,
  "oxy": 30354,
  "oy": 737,
  "oya": 21900,
  "oyal": 4610,
  "oyd": 11050,
  "oyer": 27899,
  "oyle": 18551,
  "oys": 18571,
  "oz": 10094,
  "ozy": 23987,
  "p": 112,
  "pa": 9225,
  "pace": 12998,
  "pack": 10017,
  "pad": 17184,
  "page": 8381,
  "pages": 31931,
  "paid": 17941,
  "paio": 30620,
  "pal": 20067,
  "pan": 6618,
  "panz": 28370,
  "paper": 19521,
  "par": 2061,
  "parable": 25866,
  "paralle": 29248,
  "param": 30277,
  "pard": 24862,
  "pared": 23523,
  "parent": 21263,
  "parents": 20364,
  "park": 19572,
  "part": 3857,
  "particularly": 26544,
  "partisan": 21615,
  "party": 9202,
  "pass": 5854,
  "paste": 29266,
  "pat": 8893,
  "patch": 21082,
  "path": 12740,
  "patient": 27231,
  "patrick": 22427,
  "pay": 16204,
  "payer": 25808,
  "paying": 25210,
  "pc": 17771,
  "pdf": 16482,
  "pe": 437,
  "peace": 18613,
  "pecially": 2200,
  "pect": 788,
  "pected": 7180,
  "pecting": 30671,
  "pection": 16330,
  "pective": 4673,
  "pectives": 17266,
  "ped": 9272,
  "peer": 30581,
  "pel": 30658,
  "pelled": 13866,
  "pen": 4033,
  "pensive": 23474,
  "pent": 23580,
  "penter": 24443,
  "people": 13983,
  "per": 553,
  "perate": 31126,
  "percent": 22707,
  "pered": 14006,
  "perfect": 24109,
  "performance": 26206,
  "performing": 25835,
  "perhaps": 25624,
  "peria": 31373,
  "perial": 13034,
  "pering": 21899,
  "perm": 18650,
  "peror": 12295,
  "pers": 17759,
  "person": 5313,
  "personal": 22554,
  "pert": 11618,
  "perties": 25557,
  "perture": 27023,
  "perty": 15957,
  "pes": 6915,
  "pet": 5623,
  "pex": 18801,
  "pg": 10635,
  "ph": 1088,
  "phan": 11680,
  "phas": 5450,
  "pher": 16233,
  "pherd": 21346,
  "phew": 21922,
  "phies": 26447,
  "phis": 17742,
  "phone": 4653,
  "phones": 8538,
  "phot": 30761,
  "photo": 22875,
  "php": 15311,
  "phy": 6474,
  "pi": 19965,
  "pic": 13514,
  "pical": 17834,
  "pically": 18548,
  "pick": 29412,
  "pict": 18617,
  "pictured": 22963,
  "pie": 8673,
  "piece": 11999,
  "pill": 27105,
  "pin": 12325,
  "ping": 11233,
  "pir": 3221,
  "piracy": 23803,
  "pire": 24833,
  "pired": 16485,
  "pit": 14279,
  "pite": 2189,
  "pl": 500,
  "place": 4935,
  "placed": 20378,
  "placement": 20669,
  "places": 18795,
  "plan": 13334,
  "plane": 30845,
  "planned": 30478,
  "plant": 16119,
  "plate": 8472,
  "plates": 20751,
  "platform": 25360,
  "play": 2028,
  "played": 17568,
  "player": 10417,
  "playing": 16699,
  "plays": 31212,
  "ple": 1250,
  "pleasant": 20478,
  "pled": 9052,
  "pler": 23569,
  "ples": 2608,
  "pless": 14883,
  "plete": 8906,
  "plex": 13692,
  "pling": 12343,
  "pload": 8486,
  "plom": 5705,
  "ploy": 1393,
  "plug": 20557,
  "plugins": 30266,
  "plus": 8742,
  "ply": 2066,
  "pm": 5397,
  "png": 24956,
  "po": 7277,
  "pocket": 30628,
  "pod": 30874,
  "point": 4258,
  "points": 13986,
  "pol": 16726,
  "polit": 27418,
  "political": 19235,
  "politics": 28588,
  "poll": 27607,
  "pool": 6968,
  "poon": 29435,
  "poons": 30363,
  "poor": 30372,
  "pop": 13662,
  "por": 1819,
  "pora": 29042,
  "porary": 5398,
  "porate": 30610,
  "port": 608,
  "portation": 9792,
  "ported": 8629,
  "porting": 19853,
  "portion": 14919,
  "ports": 3553,
  "pos": 16353,
  "pose": 16877,
  "position": 24395,
  "positive": 24102,
  "post": 6865,
  "pot": 12441,
  "pound": 15404,
  "power": 7991,
  "powered": 13053,
  "pp": 378,
  "ppe": 25859,
  "pped": 1550,
  "pper": 3240,
  "ppers": 8979,
  "ppery": 26225,
  "pping": 2145,
  "ppo": 14592,
  "pps": 23431,
  "ppy": 14055,
  "pr": 1068,
  "pract": 26344,
  "pre": 3403,
  "pread": 7843,
  "pres": 18763,
  "present": 22481,
  "president": 16616,
  "press": 9825,
  "pressed": 31206,
  "pret": 6259,
  "pri": 4125,
  "price": 25450,
  "priced": 26584,
  "pril": 2554,
  "prim": 19333,
  "prime": 25265,
  "pring": 13647,
  "print": 6535,
  "prise": 7675,
  "prises": 15707,
  "prising": 12641,
  "prisingly": 17295,
  "priv": 15718,
  "private": 22581,
  "pro": 2300,
  "probably": 25040,
  "process": 18963,
  "proclaimed": 31609,
  "produ": 15566,
  "produced": 27706,
  "producing": 30889,
  "product": 18289,
  "production": 23266,
  "productive": 26504,
  "prof": 4988,
  "professional": 29909,
  "profile": 11544,
  "profit": 7835,
  "profits": 26122,
  "program": 28248,
  "project": 21439,
  "prom": 14925,
  "pron": 30701,
  "proof": 14677,
  "prop": 22561,
  "prot": 30676,
  "prote": 30688,
  "protect": 21324,
  "prov": 15374,
  "prus": 24435,
  "ps": 3184,
  "pse": 13622,
  "psons": 28862,
  "psy": 22110,
  "psych": 24199,
  "pt": 513,
  "pta": 25728,
  "pted": 5593,
  "ptic": 15813,
  "ption": 1447,
  "ptions": 8636,
  "ptive": 15644,
  "pton": 8782,
  "pts": 14372,
  "ptune": 28617,
  "pty": 6388,
  "pub": 23611,
  "public": 13596,
  "published": 26048,
  "pun": 29822,
  "punk": 31855,
  "pur": 13905,
  "purpose": 28886,
  "pus": 25320,
  "push": 30075,
  "put": 2509,
  "puted": 14272,
  "puter": 11967,
  "px": 16861,
  "py": 13719,
  "q": 113,
  "qa": 19308,
  "ql": 17296,
  "qqa": 25460,
  "qu": 433,
  "qual": 14037,
  "qualified": 21133,
  "quality": 12568,
  "quar": 24403,
  "quarter": 21451,
  "quartered": 31711,
  "quarters": 7576,
  "que": 3949,
  "quel": 24962,
  "quer": 11656,
  "querque": 28348,
  "query": 31630,
  "ques": 11138,
  "quest": 9711,
  "question": 26041,
  "quet": 22527,
  "quette": 29419,
  "quez": 17422,
  "quiao": 28477,
  "quin": 21352,
  "quire": 15973,
  "quirer": 30038,
  "quis": 19084,
  "quist": 26714,
  "quite": 30489,
  "quote": 27878,
  "qus": 31932,
  "r": 114,
  "ra": 524,
  "rab": 19001,
  "rac": 8270,
  "race": 9216,
  "racial": 28540,
  "ract": 1316,
  "racted": 18889,
  "raction": 19075,
  "racuse": 23196,
  "rad": 4236,
  "rade": 20142,
  "rades": 24750,
  "radical": 30615,
  "rael": 2040,
  "raf": 20812,
  "raft": 1677,
  "rafted": 23419,
  "rag": 24799,
  "rage": 7355,
  "raged": 16277,
  "rah": 11560,
  "raham": 12504,
  "rahim": 20577,
  "raid": 7048,
  "raig": 9655,
  "rain": 2787,
  "raine": 21714,
  "rained": 12369,
  "raining": 22696,
  "raising": 27926,
  "rait": 10912,
  "raits": 22049,
  "ral": 1295,
  "ram": 4225,
  "ramble": 27453,
  "rament": 13817,
  "ramento": 15455,
  "ramid": 20332,
  "rams": 15442,
  "ran": 2121,
  "rance": 8923,
  "ranch": 23597,
  "rand": 28524,
  "random": 30921,
  "rane": 12667,
  "ranean": 14783,
  "range": 4999,
  "ranging": 25525,
  "ranked": 23448,
  "ranking": 23020,
  "rano": 31383,
  "rans": 27327,
  "rant": 4160,
  "rants": 4223,
  "rap": 1408,
  "rape": 14067,
  "raper": 23328,
  "raph": 7632,
  "raq": 3121,
  "rar": 23716,
  "rared": 22442,
  "rary": 7041,
  "ras": 6982,
  "rase": 24340,
  "rast": 3203,
  "rastructure": 5171,
  "rat": 1247,
  "rate": 3889,
  "rated": 3572,
  "rategy": 19688,
  "rates": 7321,
  "rath": 24013,
  "rather": 29847,
  "ratic": 27535,
  "rating": 6737,
  "ration": 1314,
  "rational": 17977,
  "rations": 6377,
  "rative": 7702,
  "ratives": 19783,
  "rator": 7965,
  "rators": 7741,
  "ratory": 29334,
  "ratt": 24388,
  "ratulations": 30228,
  "raud": 23306,
  "raul": 24557,
  "raulic": 26392,
  "rav": 4230,
  "rave": 20718,
  "raved": 31341,
  "ravel": 17741,
  "raven": 25003,
  "ravis": 14624,
  "ravity": 26498,
  "ravo": 27957,
  "raw": 1996,
  "rawl": 15200,
  "rawling": 17659,
  "rawn": 5804,
  "rax": 31125,
  "ray": 2677,
  "rays": 18392,
  "raz": 2950,
  "razil": 5698,
  "razy": 19471,
  "rc": 11176,
  "rd": 5014,
  "re": 260,
  "rea": 20384,
  "reach": 14239,
  "reaching": 25033,
  "read": 1007,
  "reading": 24218,
  "reads": 26771,
  "ready": 1383,
  "real": 4956,
  "realDonaldTrump": 23104,
  "really": 24026,
  "ream": 2348,
  "reamed": 15037,
  "reams": 7568,
  "reat": 642,
  "reated": 15926,
  "reath": 23529,
  "reating": 17802,
  "reatment": 21452,
  "reb": 22968,
  "rec": 8469,
  "recated": 29862,
  "reci": 26373,
  "reck": 10951,
  "recogn": 25908,
  "record": 19652,
  "rect": 2814,
  "rection": 9257,
  "recy": 17119,
  "red": 450,
  "reddit": 19138,
  "redible": 28151,
  "redict": 13485,
  "redients": 26381,
  "redit": 6785,
  "redited": 19057,
  "redits": 23083,
  "ree": 612,
  "reed": 1916,
  "reedom": 3213,
  "reek": 10472,
  "reen": 1426,
  "reens": 5590,
  "rees": 4930,
  "reet": 2591,
  "ref": 7145,
  "reg": 2299,
  "regist": 30137,
  "regn": 26901,
  "regon": 7002,
  "regor": 26496,
  "regular": 17413,
  "regulated": 23018,
  "regulation": 24086,
  "rehend": 25034,
  "rehens": 7471,
  "rehensible": 28905,
  "rel": 2667,
  "reland": 5900,
  "related": 5167,
  "release": 24242,
  "released": 24465,
  "religious": 22588,
  "rell": 10390,
  "rella": 18019,
  "rem": 1355,
  "reme": 2122,
  "remlin": 13950,
  "ren": 911,
  "rence": 6625,
  "rench": 3317,
  "renched": 20015,
  "renches": 31086,
  "rencies": 11970,
  "rency": 5006,
  "rend": 11172,
  "render": 13833,
  "rendered": 23280,
  "rene": 22249,
  "renn": 26075,
  "rent": 1146,
  "rentice": 21959,
  "rentices": 31921,
  "reon": 28637,
  "rep": 7504,
  "report": 26913,
  "reported": 25199,
  "repre": 8804,
  "reprene": 8837,
  "represent": 14484,
  "represented": 23319,
  "requ": 10859,
  "requency": 27325,
  "rer": 13269,
  "rera": 20130,
  "rero": 26464,
  "rers": 28471,
  "res": 407,
  "resa": 13242,
  "rescent": 27444,
  "resent": 1902,
  "resents": 5906,
  "resh": 3841,
  "reshold": 10940,
  "resident": 1521,
  "resistant": 26624,
  "resolution": 26136,
  "resp": 4504,
  "respect": 15629,
  "respond": 5766,
  "respons": 13920,
  "response": 30233,
  "responsible": 18843,
  "ress": 593,
  "ressed": 3673,
  "resses": 20602,
  "ressing": 10874,
  "ression": 3412,
  "ressive": 5265,
  "rest": 917,
  "rested": 30554,
  "restrial": 19616,
  "result": 30221,
  "ret": 1233,
  "retch": 27520,
  "retched": 29040,
  "rete": 7481,
  "retion": 14501,
  "rets": 8576,
  "rett": 7203,
  "retty": 17224,
  "return": 22019,
  "rev": 21019,
  "review": 19261,
  "reviewed": 27151,
  "revolution": 29323,
  "rew": 1740,
  "rey": 4502,
  "rez": 22771,
  "rh": 21912,
  "ri": 380,
  "ria": 7614,
  "riad": 19624,
  "riage": 3823,
  "riages": 15019,
  "rial": 4255,
  "rian": 4074,
  "rians": 16404,
  "rib": 834,
  "riber": 26177,
  "rible": 5237,
  "ribly": 14820,
  "ribut": 2359,
  "ribute": 4662,
  "ributed": 5823,
  "ributes": 9146,
  "ribution": 3992,
  "ric": 1154,
  "rical": 8136,
  "ricane": 11183,
  "ricanes": 20594,
  "rice": 22895,
  "rich": 6439,
  "riched": 27882,
  "ricia": 26156,
  "rick": 4718,
  "ricks": 22889,
  "rics": 10834,
  "rict": 1926,
  "ricted": 19533,
  "rid": 5752,
  "ride": 25321,
  "ridge": 12558,
  "rie": 5405,
  "ried": 2170,
  "rief": 3649,
  "riel": 13865,
  "rien": 13914,
  "riend": 1294,
  "rient": 8201,
  "riented": 23304,
  "rients": 18866,
  "rier": 5508,
  "riers": 7875,
  "ries": 1557,
  "rif": 9927,
  "rific": 7521,
  "rifice": 11207,
  "rig": 4303,
  "riger": 17710,
  "right": 2323,
  "rights": 21870,
  "rik": 8359,
  "rike": 10957,
  "rikes": 16384,
  "ril": 24503,
  "rill": 19316,
  "rily": 28824,
  "rim": 4818,
  "rimin": 8750,
  "riminal": 26463,
  "rimination": 7102,
  "rimp": 25580,
  "rin": 12278,
  "rina": 19988,
  "rine": 22456,
  "ring": 1956,
  "rington": 22786,
  "rint": 13509,
  "rio": 21381,
  "rior": 10139,
  "riors": 10018,
  "rious": 31560,
  "rip": 6339,
  "ripp": 14815,
  "ript": 2439,
  "ription": 4052,
  "rique": 26178,
  "rir": 31264,
  "ris": 2050,
  "rise": 16903,
  "rises": 26608,
  "rising": 16609,
  "risk": 17271,
  "rison": 6696,
  "rist": 1472,
  "ristol": 19607,
  "rists": 31824,
  "risy": 22189,
  "rit": 713,
  "rite": 9240,
  "rites": 27080,
  "ritical": 15418,
  "rities": 16350,
  "rition": 11120,
  "ritional": 21447,
  "ritis": 31151,
  "ritz": 27360,
  "rium": 18469,
  "rive": 6791,
  "rix": 10026,
  "rm": 27762,
  "rne": 30399,
  "ro": 309,
  "road": 5348,
  "roads": 18240,
  "rob": 21685,
  "robe": 27531,
  "roc": 12275,
  "rock": 10358,
  "rod": 16897,
  "rodu": 1954,
  "roduced": 27380,
  "roduct": 8220,
  "roduction": 9141,
  "roductive": 12091,
  "roe": 18383,
  "rog": 4183,
  "rogen": 9192,
  "roid": 4176,
  "rol": 4145,
  "rolet": 27239,
  "roll": 4007,
  "rolled": 8259,
  "roller": 13366,
  "rolling": 14486,
  "rom": 395,
  "rome": 7034,
  "ron": 1445,
  "rone": 14954,
  "rones": 14633,
  "rong": 6405,
  "ronic": 4853,
  "ronics": 23849,
  "rons": 11978,
  "ront": 4238,
  "ronting": 24452,
  "room": 3224,
  "rooms": 9423,
  "root": 19622,
  "roots": 14188,
  "rop": 1692,
  "roph": 10068,
  "rophe": 18462,
  "rophic": 15792,
  "ropical": 30464,
  "ropolis": 27316,
  "ropolitan": 13360,
  "ropri": 8810,
  "ropy": 28364,
  "ror": 1544,
  "rors": 6604,
  "ros": 4902,
  "rose": 14145,
  "ross": 1187,
  "rost": 27133,
  "rot": 12080,
  "rote": 1971,
  "rotect": 15620,
  "rots": 26732,
  "rou": 477,
  "roud": 5153,
  "rough": 736,
  "rought": 2734,
  "round": 740,
  "roup": 945,
  "rous": 7971,
  "rov": 17173,
  "rovers": 25378,
  "row": 815,
  "rowd": 3448,
  "rowing": 10333,
  "rown": 2822,
  "rows": 10177,
  "rowth": 14108,
  "roy": 3527,
  "rs": 3865,
  "rt": 26505,
  "ru": 607,
  "ruary": 3132,
  "rub": 30076,
  "ruce": 26534,
  "ruck": 29831,
  "ruct": 1419,
  "ructed": 19892,
  "ruction": 2855,
  "ructions": 23291,
  "ructive": 12953,
  "ructure": 2915,
  "rue": 21735,
  "rued": 26471,
  "rug": 1928,
  "rugged": 23025,
  "rugu": 23687,
  "ruit": 4640,
  "ruitt": 28190,
  "rule": 26738,
  "ruly": 31693,
  "rum": 6004,
  "run": 5275,
  "runner": 14751,
  "running": 18005,
  "rup": 11799,
  "rupal": 29764,
  "rupt": 3488,
  "ruption": 5664,
  "rus": 16709,
  "rust": 12772,
  "ry": 572,
  "ryan": 26873,
  "rying": 10908,
  "ryn": 27313,
  "rypt": 22209,
  "rys": 20023,
  "rystal": 30927,
  "rÃ©": 24263,
  "s": 115,
  "sa": 10873,
  "safe": 22482,
  "sal": 26089,
  "san": 18034,
  "save": 29413,
  "saving": 24431,
  "say": 18216,
  "sb": 19455,
  "sburg": 27543,
  "sc": 1504,
  "scale": 8715,
  "scape": 7731,
  "scar": 10632,
  "scars": 31059,
  "scenes": 26077,
  "sch": 28397,
  "sche": 14131,
  "school": 13302,
  "science": 15416,
  "scient": 22173,
  "scill": 23635,
  "scope": 31870,
  "screen": 10168,
  "scrib": 4416,
  "scribd": 30008,
  "scribe": 9780,
  "script": 14641,
  "sd": 29379,
  "se": 326,
  "sea": 7294,
  "search": 14882,
  "season": 4752,
  "seat": 19341,
  "sec": 2241,
  "second": 12764,
  "secret": 19373,
  "sect": 9620,
  "section": 9865,
  "sections": 29462,
  "sector": 28473,
  "secure": 21629,
  "security": 10531,
  "secut": 3926,
  "secution": 16669,
  "secutor": 26960,
  "secutors": 21616,
  "see": 4068,
  "seek": 28449,
  "seen": 15783,
  "sel": 751,
  "select": 22122,
  "seless": 11382,
  "self": 981,
  "sell": 19978,
  "seller": 25212,
  "selling": 14059,
  "sels": 7986,
  "selves": 1891,
  "semb": 4663,
  "semble": 14260,
  "sembly": 6215,
  "sen": 5710,
  "senal": 9229,
  "send": 22681,
  "sens": 19082,
  "sensitive": 29870,
  "sequ": 3021,
  "sequently": 19804,
  "ser": 2384,
  "series": 23786,
  "serious": 26721,
  "serv": 4596,
  "server": 14456,
  "service": 15368,
  "services": 28788,
  "serving": 25505,
  "ses": 9690,
  "set": 3117,
  "sets": 30839,
  "sett": 19667,
  "seud": 13001,
  "seven": 26130,
  "sever": 24201,
  "sewhere": 26508,
  "sex": 7403,
  "sexual": 19691,
  "sey": 4022,
  "seys": 23337,
  "sf": 24276,
  "sh": 1748,
  "shadow": 18745,
  "shaped": 16575,
  "share": 24423,
  "sharing": 17121,
  "shaw": 29423,
  "she": 8424,
  "shed": 29940,
  "sheet": 24039,
  "shield": 31801,
  "shine": 17543,
  "ship": 7262,
  "ships": 25375,
  "shire": 9296,
  "shirt": 14634,
  "shirts": 19755,
  "shit": 17542,
  "shoot": 28490,
  "shop": 25696,
  "shore": 11553,
  "short": 20331,
  "shot": 12251,
  "shots": 27495,
  "should": 19815,
  "show": 15332,
  "si": 17557,
  "sic": 18715,
  "side": 1514,
  "sided": 19953,
  "sight": 17418,
  "sign": 12577,
  "signed": 31336,
  "significant": 27653,
  "sil": 21026,
  "sim": 14926,
  "since": 23762,
  "sis": 14955,
  "site": 16965,
  "six": 18324,
  "size": 12074,
  "sized": 12410,
  "sk": 14848,
  "ski": 14158,
  "skin": 23475,
  "sky": 14232,
  "sl": 9654,
  "slaught": 28414,
  "sm": 7307,
  "small": 20234,
  "smart": 28017,
  "smith": 24459,
  "sn": 18669,
  "so": 550,
  "soc": 28085,
  "social": 16102,
  "soever": 15335,
  "soft": 4112,
  "sold": 23632,
  "sole": 7807,
  "solete": 22140,
  "some": 10591,
  "something": 16914,
  "sometimes": 27729,
  "son": 1259,
  "soon": 29497,
  "sor": 22268,
  "source": 12955,
  "sover": 19792,
  "sp": 3667,
  "space": 14408,
  "span": 25061,
  "spe": 4358,
  "speaking": 19438,
  "spec": 17386,
  "special": 22311,
  "specific": 11986,
  "specified": 27127,
  "speed": 11349,
  "spin": 30357,
  "spir": 27130,
  "spired": 31318,
  "spl": 26219,
  "spoken": 15691,
  "spons": 16099,
  "sponsored": 19797,
  "spot": 24455,
  "spring": 16788,
  "squ": 16334,
  "square": 20675,
  "src": 22523,
  "ss": 856,
  "sson": 14909,
  "st": 303,
  "stad": 22181,
  "staff": 26851,
  "stage": 14107,
  "stairs": 17823,
  "stal": 9432,
  "stan": 12291,
  "stanbul": 18243,
  "stand": 1430,
  "standard": 21691,
  "standing": 5491,
  "stant": 22224,
  "star": 7655,
  "stars": 30050,
  "start": 10602,
  "starter": 10643,
  "stat": 25695,
  "state": 5200,
  "stated": 18577,
  "statement": 24586,
  "states": 27815,
  "static": 21684,
  "station": 18154,
  "status": 19851,
  "stay": 27814,
  "ste": 4312,
  "stead": 26440,
  "sted": 24814,
  "steen": 31807,
  "stein": 5274,
  "stellar": 29382,
  "stem": 953,
  "sten": 25526,
  "step": 9671,
  "steps": 18661,
  "ster": 1760,
  "sterdam": 21118,
  "sters": 6999,
  "stick": 15734,
  "still": 21063,
  "stock": 12956,
  "ston": 3577,
  "stone": 6806,
  "stones": 29204,
  "stood": 6126,
  "stop": 10588,
  "store": 14124,
  "storm": 12243,
  "story": 12563,
  "stown": 24664,
  "str": 14690,
  "stra": 11291,
  "stract": 8277,
  "strap": 28915,
  "stre": 20885,
  "stream": 5186,
  "street": 26893,
  "strike": 26467,
  "string": 12367,
  "stro": 22885,
  "strom": 18411,
  "strong": 10592,
  "stru": 22666,
  "struct": 30183,
  "sts": 5769,
  "stud": 19422,
  "sty": 22121,
  "style": 6848,
  "su": 2444,
  "sub": 9686,
  "success": 12896,
  "such": 10987,
  "suit": 4991,
  "suits": 13130,
  "sule": 25203,
  "sum": 25492,
  "sun": 16938,
  "super": 18144,
  "supp": 9268,
  "support": 26519,
  "supported": 14823,
  "sur": 12178,
  "sv": 24979,
  "sw": 2113,
  "swer": 17936,
  "swick": 25867,
  "sworth": 28879,
  "sy": 2022,
  "sych": 3083,
  "sylv": 8013,
  "sylvania": 8118,
  "syn": 24330,
  "system": 15563,
  "t": 116,
  "ta": 7050,
  "tab": 27544,
  "table": 13935,
  "tag": 22548,
  "tail": 13584,
  "tailed": 30752,
  "tails": 25548,
  "tain": 930,
  "tainment": 10737,
  "take": 15949,
  "taker": 27106,
  "taking": 24004,
  "tal": 31717,
  "tale": 27789,
  "talk": 15074,
  "tank": 25830,
  "tar": 21595,
  "target": 21834,
  "tarian": 10792,
  "tarians": 21093,
  "tax": 16623,
  "te": 400,
  "team": 15591,
  "tec": 31369,
  "tech": 12386,
  "techn": 21803,
  "ted": 1020,
  "tee": 2274,
  "teen": 7273,
  "teenth": 22472,
  "tees": 13720,
  "tel": 9305,
  "tell": 28381,
  "telling": 15955,
  "tem": 1254,
  "tember": 2735,
  "temporary": 27521,
  "tempt": 1966,
  "tems": 25981,
  "ten": 1028,
  "tenance": 9461,
  "ter": 347,
  "terday": 5320,
  "tered": 3441,
  "tering": 6532,
  "terior": 15098,
  "term": 3968,
  "termin": 29206,
  "tern": 757,
  "ternal": 5873,
  "terns": 29059,
  "terror": 10820,
  "terrorism": 15231,
  "terrorist": 29888,
  "ters": 892,
  "terson": 20040,
  "tery": 4636,
  "tes": 7851,
  "tesque": 30968,
  "test": 7823,
  "testing": 31772,
  "text": 672,
  "th": 418,
  "tha": 13521,
  "thal": 11550,
  "than": 13587,
  "thanks": 30668,
  "that": 5443,
  "the": 1125,
  "their": 22444,
  "theless": 9004,
  "them": 16152,
  "themed": 21486,
  "then": 8131,
  "thening": 19059,
  "ther": 492,
  "there": 7389,
  "thereum": 15337,
  "these": 26100,
  "thew": 7290,
  "they": 9167,
  "thia": 31427,
  "thing": 1202,
  "think": 12519,
  "thinkable": 29574,
  "thinking": 24580,
  "third": 14430,
  "thirds": 14256,
  "this": 7797,
  "thodox": 10907,
  "thood": 9898,
  "thora": 28945,
  "those": 22899,
  "though": 1932,
  "thought": 25916,
  "thouse": 17932,
  "threat": 17299,
  "threatening": 22677,
  "three": 15696,
  "thren": 31148,
  "throp": 10481,
  "through": 9351,
  "ths": 13072,
  "thur": 11310,
  "thy": 24246,
  "ti": 18537,
  "tic": 18556,
  "tick": 25401,
  "tics": 22600,
  "tie": 31207,
  "tier": 19931,
  "ties": 4209,
  "tight": 29004,
  "tim": 23717,
  "time": 2392,
  "times": 21325,
  "ting": 778,
  "tingly": 28984,
  "tion": 6010,
  "tions": 29705,
  "tit": 11244,
  "title": 14520,
  "tle": 864,
  "tlement": 23508,
  "tlet": 24637,
  "tml": 27009,
  "to": 1366,
  "ton": 1089,
  "too": 10681,
  "toos": 26331,
  "top": 5336,
  "tor": 14208,
  "total": 25693,
  "touch": 29512,
  "town": 11404,
  "tox": 31345,
  "tr": 3220,
  "tra": 10703,
  "track": 11418,
  "trade": 21096,
  "traditional": 29956,
  "train": 26437,
  "trained": 30679,
  "trans": 9175,
  "tre": 18485,
  "tree": 26090,
  "tri": 23267,
  "trl": 31315,
  "tro": 29117,
  "true": 13483,
  "ts": 888,
  "tsburgh": 10060,
  "tt": 1293,
  "tta": 23618,
  "tte": 10835,
  "ttes": 11268,
  "ttp": 1991,
  "tun": 27658,
  "tur": 31825,
  "turn": 21149,
  "turned": 26709,
  "tv": 22966,
  "tw": 15843,
  "twitter": 6217,
  "two": 11880,
  "txt": 26484,
  "ty": 850,
  "tyard": 29832,
  "type": 8320,
  "types": 26690,
  "tz": 21175,
  "u": 117,
  "ua": 7213,
  "uable": 6541,
  "uably": 11761,
  "uador": 21934,
  "ual": 747,
  "ually": 926,
  "uan": 7932,
  "uana": 4120,
  "uania": 26731,
  "uart": 15051,
  "uary": 2542,
  "uate": 5066,
  "uated": 6772,
  "uates": 12173,
  "uating": 11282,
  "uation": 2224,
  "uations": 5917,
  "ub": 530,
  "uba": 21937,
  "ubarak": 23040,
  "ubb": 10614,
  "ubbard": 24003,
  "ubble": 8862,
  "ube": 3713,
  "uber": 16691,
  "ubl": 1766,
  "uble": 27312,
  "ublic": 756,
  "ublin": 14420,
  "ublished": 11010,
  "ubs": 22061,
  "uc": 1193,
  "ucc": 16229,
  "ucci": 20589,
  "uce": 8098,
  "uced": 13957,
  "uch": 781,
  "uchi": 26899,
  "ucing": 24208,
  "uck": 1390,
  "ucked": 17115,
  "ucker": 11792,
  "ucking": 24820,
  "uckland": 22005,
  "uckle": 27695,
  "ucks": 5737,
  "ucky": 4966,
  "ucle": 15797,
  "uclear": 3241,
  "uct": 5031,
  "uction": 8422,
  "uctor": 25760,
  "ud": 470,
  "uda": 18396,
  "udd": 4325,
  "uddenly": 19928,
  "uddle": 26159,
  "ude": 2619,
  "udeau": 11945,
  "uded": 16656,
  "uder": 24418,
  "udes": 8167,
  "udge": 12692,
  "udget": 25230,
  "udic": 25772,
  "uding": 25771,
  "udo": 25770,
  "uds": 21958,
  "ue": 538,
  "ued": 1549,
  "uel": 2617,
  "ueller": 13654,
  "uer": 7985,
  "uerto": 12196,
  "ues": 899,
  "uesday": 2669,
  "uese": 18310,
  "uez": 11767,
  "uf": 3266,
  "ufact": 3712,
  "uff": 1715,
  "uffed": 15756,
  "uffer": 23851,
  "ufficient": 14552,
  "uffle": 18405,
  "uffled": 28930,
  "uffs": 18862,
  "uffy": 14739,
  "ug": 1248,
  "ugar": 15658,
  "ugby": 11537,
  "uge": 1993,
  "ugen": 31091,
  "ugg": 4185,
  "uggage": 28456,
  "ugged": 13488,
  "ugger": 25471,
  "uggets": 26759,
  "ugging": 13590,
  "uggish": 29425,
  "ugh": 6748,
  "ught": 8955,
  "ugs": 12598,
  "uh": 9800,
  "ui": 12366,
  "uid": 26597,
  "uild": 4076,
  "uilding": 6947,
  "uilt": 13447,
  "uine": 7340,
  "uing": 3772,
  "uit": 5490,
  "uitive": 29235,
  "uits": 16731,
  "uity": 14423,
  "uj": 13290,
  "uk": 3238,
  "uka": 20607,
  "uke": 4943,
  "ukes": 28301,
  "uki": 14421,
  "ul": 377,
  "ula": 4813,
  "ular": 1106,
  "ularly": 2503,
  "ulars": 28112,
  "ulas": 31048,
  "ulate": 4845,
  "ulated": 4661,
  "ulates": 15530,
  "ulating": 7861,
  "ulation": 1765,
  "ulations": 5846,
  "ulative": 13936,
  "ulator": 15245,
  "ulators": 21947,
  "ulatory": 21843,
  "ule": 2627,
  "uled": 21738,
  "ulent": 15694,
  "ules": 7765,
  "ulf": 4645,
  "ulin": 18359,
  "ulk": 15861,
  "ull": 749,
  "ullivan": 13618,
  "ully": 2127,
  "ulous": 6459,
  "ulously": 16304,
  "ulp": 29553,
  "uls": 5988,
  "ulsa": 28457,
  "ulse": 11527,
  "ulsion": 13967,
  "ult": 596,
  "ultan": 23309,
  "ultane": 9198,
  "ults": 9923,
  "ultural": 8525,
  "ulture": 6852,
  "ulty": 9888,
  "ultz": 19381,
  "ulu": 15812,
  "ulum": 13953,
  "ulus": 30027,
  "uly": 1897,
  "um": 404,
  "uma": 8325,
  "umably": 26688,
  "uman": 4110,
  "umat": 26809,
  "umatic": 16793,
  "umb": 2308,
  "umba": 31536,
  "umbai": 15420,
  "umber": 6723,
  "umbered": 25366,
  "umbers": 16135,
  "umbing": 30004,
  "umbl": 14081,
  "umble": 9607,
  "umbled": 12499,
  "umbles": 23673,
  "umbling": 13380,
  "umblr": 15222,
  "umbo": 27771,
  "umbs": 21936,
  "ume": 2850,
  "umed": 17749,
  "umen": 24265,
  "ument": 1907,
  "uments": 3066,
  "umer": 7840,
  "umers": 25118,
  "umes": 8205,
  "umi": 20105,
  "umin": 8198,
  "uming": 12233,
  "umm": 9843,
  "ummary": 24285,
  "ummer": 19149,
  "ummy": 16716,
  "umn": 4759,
  "umns": 14368,
  "ump": 809,
  "umper": 17878,
  "umph": 10661,
  "umping": 25020,
  "umps": 23903,
  "umption": 24986,
  "ums": 6734,
  "un": 406,
  "una": 11433,
  "unal": 18619,
  "unch": 1955,
  "unciation": 25464,
  "unct": 12938,
  "unction": 5799,
  "uncture": 28080,
  "und": 881,
  "under": 5462,
  "undred": 3035,
  "undreds": 16849,
  "une": 1706,
  "unes": 8257,
  "ung": 2213,
  "unge": 15869,
  "unged": 23921,
  "ungeons": 31911,
  "ungle": 14489,
  "unicip": 8859,
  "unicipal": 10131,
  "unicipality": 26429,
  "union": 22824,
  "unior": 8279,
  "unique": 15401,
  "unit": 29055,
  "unity": 11319,
  "unk": 3173,
  "unks": 15408,
  "unky": 26674,
  "unless": 27792,
  "unning": 7006,
  "unningham": 23858,
  "uns": 15436,
  "unt": 2823,
  "untary": 26565,
  "unte": 5795,
  "until": 27167,
  "untu": 11212,
  "uous": 5666,
  "uously": 22096,
  "up": 903,
  "update": 26558,
  "upid": 7671,
  "upiter": 18530,
  "upload": 30722,
  "upon": 30191,
  "upp": 5577,
  "ups": 4873,
  "uquerque": 28447,
  "ur": 334,
  "ura": 7316,
  "urable": 13194,
  "urai": 27589,
  "ural": 1477,
  "urally": 17624,
  "uran": 20082,
  "urance": 3708,
  "urances": 25877,
  "uras": 16094,
  "uration": 5245,
  "urations": 25228,
  "urb": 7484,
  "urban": 29993,
  "urch": 2437,
  "urchase": 20867,
  "urches": 11209,
  "urd": 2491,
  "urdy": 27954,
  "ure": 501,
  "ureau": 5373,
  "ured": 1492,
  "uren": 31275,
  "urer": 30409,
  "ures": 990,
  "urg": 3626,
  "urger": 25832,
  "urgical": 31317,
  "uri": 13453,
  "uries": 4304,
  "uring": 845,
  "urious": 16389,
  "uristic": 23782,
  "urities": 12087,
  "urity": 1503,
  "url": 10366,
  "urn": 782,
  "urned": 13036,
  "urning": 3056,
  "uro": 1312,
  "urous": 26527,
  "urp": 31121,
  "urrection": 26009,
  "urred": 13222,
  "urrencies": 22484,
  "urrency": 11438,
  "urrent": 5290,
  "urrently": 9640,
  "urring": 14296,
  "urry": 15850,
  "urs": 1771,
  "ursday": 2856,
  "urse": 13127,
  "ursed": 31637,
  "urst": 20638,
  "urt": 3506,
  "urther": 1848,
  "uru": 15529,
  "ury": 1493,
  "us": 386,
  "usa": 27614,
  "usable": 29384,
  "usal": 6167,
  "usalem": 8927,
  "usat": 26854,
  "usc": 16359,
  "usch": 26870,
  "uscript": 15944,
  "use": 1901,
  "used": 1410,
  "user": 10744,
  "users": 19432,
  "uses": 2947,
  "useum": 5421,
  "ush": 1559,
  "ushed": 15962,
  "ushes": 25710,
  "ushi": 22607,
  "ushima": 23402,
  "ushing": 14506,
  "usiness": 5977,
  "using": 3423,
  "usion": 3951,
  "usions": 15695,
  "usive": 8016,
  "usk": 14764,
  "uson": 11420,
  "usp": 18897,
  "usr": 20993,
  "usra": 21087,
  "uss": 999,
  "usse": 6198,
  "ussed": 28273,
  "ussein": 18040,
  "ussell": 7830,
  "ussels": 11586,
  "ussen": 30275,
  "ussex": 30769,
  "ussia": 28408,
  "ussion": 13352,
  "ussions": 18519,
  "ussy": 25716,
  "ust": 438,
  "ustain": 16084,
  "ustainable": 19064,
  "usted": 8203,
  "uster": 5606,
  "usterity": 15779,
  "usters": 13258,
  "usting": 11513,
  "ustom": 1941,
  "ustomed": 21454,
  "usually": 22983,
  "ut": 311,
  "utable": 23629,
  "utan": 31689,
  "utation": 23381,
  "utch": 6289,
  "ute": 1180,
  "uted": 8865,
  "uten": 9262,
  "utenant": 14924,
  "uter": 11193,
  "uters": 5085,
  "uterte": 18698,
  "utes": 1905,
  "utf": 23968,
  "uth": 1103,
  "uther": 11577,
  "uthor": 1489,
  "utic": 19117,
  "utical": 13023,
  "uties": 8499,
  "util": 30547,
  "uting": 14849,
  "ution": 1000,
  "utions": 3249,
  "uto": 11822,
  "uton": 28181,
  "utory": 22602,
  "utral": 6786,
  "uts": 5767,
  "utsche": 25354,
  "utt": 12698,
  "utter": 10305,
  "utterstock": 23244,
  "utting": 31340,
  "uttle": 21176,
  "utton": 18111,
  "uture": 1638,
  "uty": 3807,
  "utz": 24091,
  "uum": 13431,
  "uv": 16742,
  "ux": 3332,
  "uxe": 28302,
  "uy": 6508,
  "uz": 13038,
  "uzz": 5576,
  "uzzle": 28442,
  "v": 118,
  "va": 6542,
  "vable": 21887,
  "vae": 27154,
  "val": 2624,
  "valid": 12214,
  "vals": 12882,
  "value": 12545,
  "van": 9189,
  "vance": 18086,
  "vant": 4851,
  "var": 11647,
  "vard": 8561,
  "vari": 30944,
  "vas": 16003,
  "vation": 10402,
  "vd": 23268,
  "ve": 304,
  "ved": 870,
  "veillance": 24863,
  "vel": 653,
  "velength": 25165,
  "vell": 28313,
  "velop": 1025,
  "velopment": 15713,
  "velt": 15562,
  "vement": 22034,
  "ven": 563,
  "venant": 21627,
  "venge": 30188,
  "vent": 3101,
  "vention": 4589,
  "ventional": 20773,
  "ventions": 16068,
  "ventus": 24210,
  "venue": 3674,
  "ver": 331,
  "verage": 1767,
  "verages": 26894,
  "vere": 4044,
  "vered": 21161,
  "vern": 797,
  "verning": 12630,
  "vernment": 9572,
  "vers": 682,
  "verse": 4949,
  "versely": 20761,
  "version": 12127,
  "vert": 1693,
  "verted": 16898,
  "vertise": 2765,
  "vertisement": 3181,
  "vertisements": 9774,
  "vertising": 19740,
  "verts": 23011,
  "verty": 7036,
  "very": 542,
  "ves": 1056,
  "vest": 4340,
  "vet": 22057,
  "vette": 31828,
  "vey": 5525,
  "veyard": 25221,
  "vez": 24520,
  "vi": 11049,
  "via": 10241,
  "vial": 15903,
  "vic": 29848,
  "vice": 29941,
  "vict": 31117,
  "vid": 18632,
  "video": 20271,
  "vidia": 22680,
  "vie": 24396,
  "view": 1204,
  "vig": 31718,
  "ville": 3959,
  "vin": 6094,
  "vine": 24165,
  "ving": 962,
  "viol": 14644,
  "violent": 19914,
  "vious": 11446,
  "viously": 7750,
  "viron": 2091,
  "vironment": 2276,
  "vironments": 11372,
  "vis": 5303,
  "vised": 16169,
  "visible": 28061,
  "vision": 9879,
  "visor": 13215,
  "visors": 25026,
  "vity": 19846,
  "vm": 30077,
  "vo": 12388,
  "voc": 16973,
  "void": 31754,
  "vol": 11102,
  "volent": 26164,
  "volume": 31645,
  "von": 23007,
  "vor": 16036,
  "vote": 28612,
  "vous": 28562,
  "vs": 23988,
  "vy": 7464,
  "w": 119,
  "wa": 10554,
  "wage": 17024,
  "wait": 17898,
  "wal": 12823,
  "wald": 20448,
  "walk": 9490,
  "walker": 27408,
  "walks": 24121,
  "wall": 11447,
  "wan": 7483,
  "war": 5596,
  "ward": 889,
  "wards": 1987,
  "ware": 1600,
  "warm": 31685,
  "wart": 6885,
  "wartz": 21547,
  "was": 9466,
  "watch": 9524,
  "water": 5662,
  "waukee": 13096,
  "wave": 20214,
  "waves": 24444,
  "way": 1010,
  "ways": 1305,
  "wd": 25736,
  "we": 719,
  "wealth": 13752,
  "wear": 19872,
  "weather": 16475,
  "web": 15388,
  "wed": 10487,
  "weed": 31568,
  "week": 9539,
  "ween": 958,
  "weet": 8111,
  "weets": 25100,
  "wegian": 17434,
  "weight": 6603,
  "well": 4400,
  "welling": 26330,
  "wen": 26970,
  "wer": 14542,
  "were": 20048,
  "wered": 8580,
  "west": 6801,
  "western": 12435,
  "wh": 1615,
  "what": 4879,
  "whe": 12725,
  "wheel": 20871,
  "whel": 6288,
  "whelming": 31409,
  "when": 12495,
  "where": 2390,
  "whether": 25071,
  "which": 4515,
  "while": 3863,
  "white": 10785,
  "who": 7784,
  "why": 22006,
  "wi": 26848,
  "wic": 21349,
  "wich": 11054,
  "wick": 14579,
  "wid": 13152,
  "wide": 3943,
  "width": 14299,
  "wife": 20261,
  "wig": 26024,
  "wiki": 23763,
  "wild": 22418,
  "will": 10096,
  "win": 4410,
  "wind": 10499,
  "window": 29138,
  "wing": 5012,
  "winning": 11858,
  "wire": 21478,
  "wise": 3461,
  "wit": 1424,
  "witch": 4361,
  "with": 4987,
  "without": 19385,
  "withstanding": 25090,
  "witter": 1947,
  "witz": 28247,
  "wives": 31234,
  "wn": 674,
  "wo": 3163,
  "wolf": 28423,
  "wolves": 30181,
  "woman": 6794,
  "women": 24166,
  "won": 23201,
  "wood": 3701,
  "word": 6326,
  "words": 11723,
  "work": 1593,
  "worked": 28036,
  "worker": 26814,
  "workers": 19776,
  "working": 14601,
  "works": 4418,
  "world": 8020,
  "worm": 24633,
  "worth": 8437,
  "worthy": 16034,
  "would": 16387,
  "wp": 28007,
  "wright": 24137,
  "writ": 5938,
  "write": 15417,
  "writer": 13928,
  "writers": 25681,
  "writing": 13961,
  "written": 12400,
  "ws": 21680,
  "ww": 2240,
  "www": 4104,
  "wy": 25856,
  "x": 120,
  "ximately": 23285,
  "xit": 8838,
  "xml": 30600,
  "xon": 18290,
  "xt": 539,
  "xton": 19139,
  "xual": 6015,
  "xx": 12002,
  "xxxx": 28885,
  "xy": 6871,
  "xygen": 11235,
  "y": 121,
  "ya": 4173,
  "yan": 3657,
  "yang": 15296,
  "yard": 7709,
  "yards": 31589,
  "yd": 17134,
  "ye": 7737,
  "year": 1590,
  "years": 19609,
  "yen": 22633,
  "yer": 9497,
  "yers": 20984,
  "yes": 9881,
  "yet": 22736,
  "yg": 27742,
  "ying": 1077,
  "yl": 3581,
  "ylan": 17191,
  "yle": 2445,
  "yll": 21068,
  "ylon": 19171,
  "ylum": 9604,
  "ym": 5306,
  "ymes": 22491,
  "ymph": 26192,
  "yn": 2176,
  "ynam": 5093,
  "ynasty": 18076,
  "ync": 19128,
  "ynchron": 27095,
  "ynchronous": 30891,
  "yo": 9085,
  "yon": 16674,
  "yond": 3006,
  "you": 6579,
  "your": 16238,
  "youtube": 17252,
  "yr": 5536,
  "yre": 29768,
  "yrr": 24177,
  "yrrha": 24721,
  "yrus": 21592,
  "ys": 949,
  "ysc": 27210,
  "ysical": 17214,
  "ysics": 24745,
  "ysis": 3120,
  "yson": 17161,
  "yssey": 25481,
  "ystem": 7944,
  "yster": 24598,
  "yth": 5855,
  "ython": 8405,
  "yton": 25493,
  "z": 122,
  "za": 4625,
  "zai": 25958,
  "zan": 24742,
  "zb": 13062,
  "zbollah": 16035,
  "ze": 3091,
  "zed": 8788,
  "zel": 19110,
  "zen": 4414,
  "zens": 7024,
  "zer": 6032,
  "zerland": 12828,
  "zero": 23476,
  "zes": 12658,
  "zh": 25599,
  "zi": 15140,
  "zilla": 15210,
  "zing": 9328,
  "zip": 19556,
  "zman": 27710,
  "zo": 13203,
  "zon": 26551,
  "zona": 6214,
  "zone": 10797,
  "zsche": 31590,
  "zy": 7593,
  "zyme": 28661,
  "zz": 3648,
  "zza": 29858,
  "{": 123,
  "{\"": 14289,
  "{\\": 21252,
  "{{": 22483,
  "|": 124,
  "|>": 699,
  "|>\"": 19580,
  "|>(": 17496,
  "|>[": 31342,
  "|>âĢľ": 16326,
  "}": 125,
  "},": 16694,
  "},{\"": 24867,
  "}\\": 28265,
  "}}": 11499,
  "~": 126,
  "~~": 17200,
  "~~~~": 30447,
  "¡": 161,
  "¢": 162,
  "£": 163,
  "¤": 164,
  "¥": 165,
  "¦": 166,
  "§": 167,
  "¨": 168,
  "©": 169,
  "ª": 170,
  "«": 171,
  "¬": 172,
  "®": 174,
  "¯": 175,
  "°": 176,
  "±": 177,
  "²": 178,
  "³": 179,
  "´": 180,
  "µ": 181,
  "¶": 182,
  "·": 183,
  "¸": 184,
  "¹": 185,
  "º": 186,
  "»": 187,
  "»¿": 26321,
  "¼": 188,
  "½": 189,
  "¾": 190,
  "¿": 191,
  "À": 192,
  "Á": 193,
  "Â": 194,
  "Â¢": 25402,
  "Â£": 14631,
  "Â©": 15443,
  "Â®": 15960,
  "Â¯": 19008,
  "Â¯Â¯": 20336,
  "Â¯Â¯Â¯Â¯": 31518,
  "Â°": 10723,
  "Â·": 7692,
  "Â»": 16163,
  "Â½": 23564,
  "ÂĢ": 17319,
  "ÂĢÂ": 19508,
  "ÂĢÂĻ": 26704,
  "ÂĴ": 8711,
  "ÂĶ": 12003,
  "ÂĹ": 19954,
  "ÂĿ": 27131,
  "ÂŃ": 2752,
  "Ã": 195,
  "Ã¡": 5038,
  "Ã¡n": 16910,
  "Ã¡s": 20514,
  "Ã¢": 12458,
  "Ã£": 12647,
  "Ã£o": 13599,
  "Ã¤": 8615,
  "Ã¥": 12360,
  "Ã¦": 30976,
  "Ã§": 11431,
  "Ã§a": 28304,
  "Ã¨": 11661,
  "Ã¨re": 27539,
  "Ã©": 2475,
  "Ã©e": 19041,
  "Ã©mon": 15646,
  "Ã©n": 29023,
  "Ã©s": 14646,
  "Ã©t": 17436,
  "Ãª": 21083,
  "Ã«": 27530,
  "Ã¯": 23247,
  "Ã¯ve": 31166,
  "Ã±": 11140,
  "Ã±a": 25315,
  "Ã±o": 24120,
  "Ã³": 6778,
  "Ã³n": 10630,
  "Ã´": 27053,
  "Ã¶": 7868,
  "Ã¶r": 20565,
  "Ã¸": 20236,
  "Ãº": 17723,
  "Ã¼": 7763,
  "Ã¼r": 16391,
  "ÃĤ": 22367,
  "ÃĹ": 12912,
  "ÃŁ": 30109,
  "Ãł": 18526,
  "ÃŃ": 6809,
  "ÃŃa": 19277,
  "ÃŃn": 31155,
  "Ä": 196,
  "Ä«": 25075,
  "Ä±": 20976,
  "Äģ": 14185,
  "Äĥ": 17405,
  "Äĩ": 17899,
  "Äį": 20184,
  "ÄŁ": 22918,
  "ÄŁan": 31295,
  "Å": 197,
  "Å¡": 17051,
  "Å¾": 26971,
  "ÅĤ": 28199,
  "Åį": 19966,
  "Æ": 198,
  "Ç": 199,
  "È": 200,
  "É": 201,
  "Ê": 202,
  "Ë": 203,
  "Ì": 204,
  "Í": 205,
  "Î": 206,
  "Î±": 12608,
  "Î²": 30373,
  "Îµ": 22258,
  "Î·": 26552,
  "Î¹": 18648,
  "Îº": 30048,
  "Î»": 29706,
  "Î¼": 27217,
  "Î½": 17361,
  "Î¿": 17159,
  "Ï": 207,
  "ÏĢ": 31856,
  "Ïģ": 24599,
  "ÏĤ": 20778,
  "Ïĥ": 28589,
  "ÏĦ": 21038,
  "Ïħ": 30429,
  "Ð": 208,
  "Ð°": 6645,
  "Ð±": 30601,
  "Ð²": 19873,
  "Ð³": 30513,
  "Ð´": 17530,
  "Ðµ": 6859,
  "ÐµÐ½": 27254,
  "Ð·": 24834,
  "Ð¸": 8180,
  "Ð¹": 27567,
  "Ðº": 14833,
  "Ð»": 11607,
  "Ð»Ð¸": 30914,
  "Ð¼": 16692,
  "Ð½": 10256,
  "Ð¾": 5501,
  "Ð¾Ð": 9086,
  "Ð¾Ð²": 25489,
  "Ð¾Ð»": 29729,
  "Ð¿": 31042,
  "Ñ": 209,
  "ÑĢ": 9771,
  "ÑĢÐ°": 25892,
  "Ñģ": 8949,
  "ÑģÑĤ": 31034,
  "ÑĤ": 7647,
  "ÑĤÐ°": 27600,
  "ÑĤÐ¾": 21109,
  "Ñĥ": 14824,
  "Ñħ": 25761,
  "Ñĩ": 19522,
  "Ñĭ": 16720,
  "ÑĮ": 18549,
  "Ñı": 17746,
  "Ò": 210,
  "Ó": 211,
  "Ô": 212,
  "Õ": 213,
  "Ö": 214,
  "×": 215,
  "Ø": 216,
  "Ø§": 14865,
  "Ø§ÙĦ": 28519,
  "Ù": 217,
  "ÙĦ": 16290,
  "Ùħ": 25929,
  "ÙĨ": 21420,
  "ÙĬ": 25549,
  "Ùİ": 11411,
  "Ùı": 24320,
  "ÙĲ": 21635,
  "ÙĴ": 23021,
  "Ú": 218,
  "Û": 219,
  "Ü": 220,
  "Ý": 221,
  "Þ": 222,
  "ß": 223,
  "à": 224,
  "à¤": 6814,
  "à¤¾": 25455,
  "à¥": 14385,
  "à¥į": 30749,
  "á": 225,
  "á½": 23967,
  "â": 226,
  "âĢ": 290,
  "âĢ¢": 4159,
  "âĢ¦": 1538,
  "âĢ¦\"": 22862,
  "âĢ¦.": 10827,
  "âĢ¦<|": 30674,
  "âĢ¦]": 23153,
  "âĢ¦âĢ¦": 13011,
  "âĢ¦âĢ¦âĢ¦âĢ¦": 26412,
  "âĢ¦âĢĿ": 14086,
  "âĢ²": 19663,
  "âĢ³": 12279,
  "âĢĭ": 10087,
  "âĢĲ": 11007,
  "âĢĵ": 1816,
  "âĢĶ": 920,
  "âĢĶâĢĶ": 5246,
  "âĢĶâĢĶâĢĶâĢĶ": 9393,
  "âĢĶâĢĶâĢĶâĢĶâĢĶâĢĶâĢĶâĢĶ": 16673,
  "âĢĶâĢľ": 29125,
  "âĢĺ": 4754,
  "âĢĻ": 329,
  "âĢĻ,": 7487,
  "âĢĻ.": 7033,
  "âĢĻ:": 30549,
  "âĢľ": 720,
  "âĢľ[": 25408,
  "âĢĿ": 405,
  "âĢĿ)": 11721,
  "âĢĿ),": 19458,
  "âĢĿ).": 17186,
  "âĢĿ,": 3991,
  "âĢĿ.": 2979,
  "âĢĿ:": 16780,
  "âĢĿ;": 20377,
  "âĢĿ?": 17567,
  "âĢĿâĢĶ": 14744,
  "âĤ¬": 10956,
  "âĤ¬âĦ¢": 26145,
  "âĦ": 13087,
  "âĦ¢": 13310,
  "âĪĴ": 9954,
  "âĶ": 13403,
  "âĶĢ": 15433,
  "âĶĢâĶĢ": 19447,
  "âķ": 19790,
  "âĸ": 5777,
  "âĸĢ": 29396,
  "âĸĦ": 26265,
  "âĸĪ": 9691,
  "âĸĪâĸĪ": 12928,
  "âĸĪâĸĪâĸĪâĸĪ": 27304,
  "âĸĴ": 30933,
  "âĹ": 24200,
  "âĹı": 30917,
  "âĺħ": 27263,
  "âĻ": 18307,
  "ã": 227,
  "ãĢ": 7636,
  "ãĢģ": 20941,
  "ãĢĤ": 14105,
  "ãĢį": 28137,
  "ãģ": 11775,
  "ãĤ": 15878,
  "ãĥ": 12854,
  "ãħ": 27608,
  "ä": 228,
  "ä¸": 13577,
  "ä¹": 28636,
  "äº": 18486,
  "ä»": 23861,
  "ä½": 29150,
  "å": 229,
  "å¤": 29118,
  "å°": 31755,
  "åı": 26506,
  "åĲ": 27685,
  "åĽ": 31591,
  "åľ": 27609,
  "æ": 230,
  "æĺ": 23300,
  "æĺ¯": 24706,
  "æľ": 24980,
  "ç": 231,
  "çļ": 16118,
  "çļĦ": 16203,
  "è": 232,
  "è¯": 30629,
  "è¿": 26826,
  "é": 233,
  "ê": 234,
  "ë": 235,
  "ì": 236,
  "í": 237,
  "î": 238,
  "ï": 239,
  "ï¼": 11111,
  "ï¼Į": 18668,
  "ï¿": 7781,
  "ï¿½": 7885,
  "ï¿½ï¿½": 29596,
  "ð": 240,
  "ðŁ": 14284,
  "ñ": 241,
  "ò": 242,
  "ó": 243,
  "ô": 244,
  "õ": 245,
  "ö": 246,
  "÷": 247,
  "ø": 248,
  "ù": 249,
  "ú": 250,
  "û": 251,
  "ü": 252,
  "ý": 253,
  "þ": 254,
  "ÿ": 255,
  "Ā": 0,
  "ā": 1,
  "Ă": 2,
  "ă": 3,
  "Ą": 4,
  "ą": 5,
  "Ć": 6,
  "ć": 7,
  "Ĉ": 8,
  "ĉ": 9,
  "Ċ": 10,
  "ċ": 11,
  "Č": 12,
  "č": 13,
  "Ď": 14,
  "ď": 15,
  "Đ": 16,
  "đ": 17,
  "Ē": 18,
  "ē": 19,
  "Ĕ": 20,
  "ĕ": 21,
  "Ė": 22,
  "ė": 23,
  "Ę": 24,
  "ę": 25,
  "Ě": 26,
  "ě": 27,
  "Ĝ": 28,
  "ĝ": 29,
  "Ğ": 30,
  "ğ": 31,
  "Ġ": 32,
  "Ġ!": 9658,
  "Ġ!=": 25456,
  "Ġ\"": 488,
  "Ġ\"\"": 26303,
  "Ġ\"...": 31274,
  "Ġ\"/": 24006,
  "Ġ\"[": 18924,
  "Ġ#": 1890,
  "Ġ$": 765,
  "Ġ%": 6638,
  "Ġ&": 1798,
  "Ġ&&": 18573,
  "Ġ'": 1201,
  "Ġ''": 13917,
  "Ġ(": 397,
  "Ġ(\"": 10273,
  "Ġ(#": 24801,
  "Ġ($": 7532,
  "Ġ((": 22471,
  "Ġ()": 13691,
  "Ġ();": 31790,
  "Ġ(+": 16893,
  "Ġ(-": 15800,
  "Ġ(.": 21999,
  "Ġ(@": 3434,
  "Ġ(~": 29737,
  "Ġ(Â£": 16900,
  "Ġ(âĢľ": 8901,
  "Ġ(âĪĴ": 27876,
  "Ġ)": 2227,
  "Ġ))": 22988,
  "Ġ),": 14757,
  "Ġ).": 9873,
  "Ġ):": 23102,
  "Ġ);": 12475,
  "Ġ*": 3411,
  "Ġ**": 17605,
  "Ġ***": 31959,
  "Ġ*/": 21962,
  "Ġ+": 2812,
  "Ġ+=": 28366,
  "Ġ,": 1642,
  "Ġ-": 658,
  "Ġ--": 1407,
  "Ġ---": 20284,
  "Ġ-->": 14577,
  "Ġ->": 8852,
  "Ġ.": 1249,
  "Ġ..": 18490,
  "Ġ...": 3070,
  "Ġ..........": 26524,
  "Ġ/": 2099,
  "Ġ/*": 24761,
  "Ġ//": 5753,
  "Ġ/>": 26680,
  "Ġ0": 1145,
  "Ġ00": 7054,
  "Ġ000": 21136,
  "Ġ01": 14655,
  "Ġ02": 15071,
  "Ġ03": 16926,
  "Ġ04": 19423,
  "Ġ05": 19891,
  "Ġ06": 18203,
  "Ġ07": 19203,
  "Ġ08": 16746,
  "Ġ09": 18229,
  "Ġ1": 382,
  "Ġ10": 1033,
  "Ġ100": 2272,
  "Ġ1000": 10604,
  "Ġ101": 14102,
  "Ġ102": 21211,
  "Ġ103": 21371,
  "Ġ104": 20275,
  "Ġ105": 17715,
  "Ġ106": 22511,
  "Ġ107": 21783,
  "Ġ108": 21784,
  "Ġ1080": 19157,
  "Ġ109": 23086,
  "Ġ11": 1735,
  "Ġ110": 13829,
  "Ġ111": 19330,
  "Ġ112": 20846,
  "Ġ113": 23954,
  "Ġ114": 22842,
  "Ġ115": 20123,
  "Ġ116": 25106,
  "Ġ117": 26186,
  "Ġ118": 24627,
  "Ġ119": 24155,
  "Ġ12": 1505,
  "Ġ120": 9795,
  "Ġ1200": 30414,
  "Ġ121": 27749,
  "Ġ122": 28157,
  "Ġ123": 24559,
  "Ġ124": 28054,
  "Ġ125": 16553,
  "Ġ126": 28781,
  "Ġ127": 24625,
  "Ġ128": 17797,
  "Ġ129": 29061,
  "Ġ13": 2075,
  "Ġ130": 13698,
  "Ġ132": 28680,
  "Ġ133": 29161,
  "Ġ134": 30704,
  "Ġ135": 23770,
  "Ġ137": 31187,
  "Ġ138": 31026,
  "Ġ14": 2012,
  "Ġ140": 15201,
  "Ġ144": 27822,
  "Ġ145": 27249,
  "Ġ148": 29538,
  "Ġ15": 1682,
  "Ġ150": 7556,
  "Ġ1500": 23115,
  "Ġ155": 27648,
  "Ġ16": 1887,
  "Ġ160": 15963,
  "Ġ1600": 28158,
  "Ġ165": 28754,
  "Ġ17": 2079,
  "Ġ170": 20178,
  "Ġ175": 25433,
  "Ġ18": 1491,
  "Ġ180": 13846,
  "Ġ1800": 19649,
  "Ġ185": 22975,
  "Ġ1880": 30493,
  "Ġ1890": 29392,
  "Ġ19": 681,
  "Ġ190": 26182,
  "Ġ1900": 20973,
  "Ġ1903": 31567,
  "Ġ1908": 31599,
  "Ġ1909": 30553,
  "Ġ1910": 21668,
  "Ġ1911": 24542,
  "Ġ1912": 25480,
  "Ġ1913": 28553,
  "Ġ1914": 24876,
  "Ġ1915": 28678,
  "Ġ1916": 26933,
  "Ġ1917": 22901,
  "Ġ1918": 24853,
  "Ġ1919": 26583,
  "Ġ192": 26675,
  "Ġ1920": 13531,
  "Ġ1921": 28509,
  "Ġ1922": 28270,
  "Ġ1924": 29971,
  "Ġ1926": 31495,
  "Ġ1928": 30436,
  "Ġ1929": 26097,
  "Ġ1930": 12415,
  "Ġ1932": 28510,
  "Ġ1933": 24839,
  "Ġ1934": 28405,
  "Ġ1935": 26898,
  "Ġ1936": 25658,
  "Ġ1937": 25231,
  "Ġ1938": 24785,
  "Ġ1939": 21438,
  "Ġ1940": 13830,
  "Ġ1941": 22540,
  "Ġ1942": 23065,
  "Ġ1943": 24730,
  "Ġ1944": 20359,
  "Ġ1945": 16787,
  "Ġ1946": 22585,
  "Ġ1947": 20051,
  "Ġ1948": 17703,
  "Ġ1949": 21257,
  "Ġ195": 5453,
  "Ġ1950": 9337,
  "Ġ1951": 23071,
  "Ġ1952": 23227,
  "Ġ1953": 21389,
  "Ġ1954": 21646,
  "Ġ1955": 21915,
  "Ġ1956": 20815,
  "Ġ1957": 21521,
  "Ġ1958": 19841,
  "Ġ1959": 20469,
  "Ġ196": 3665,
  "Ġ1960": 7712,
  "Ġ1961": 18399,
  "Ġ1962": 17884,
  "Ġ1963": 16347,
  "Ġ1964": 15621,
  "Ġ1965": 15653,
  "Ġ1966": 16458,
  "Ġ1967": 13769,
  "Ġ1968": 13729,
  "Ġ1969": 14347,
  "Ġ197": 2623,
  "Ġ1970": 6489,
  "Ġ1971": 15078,
  "Ġ1972": 14217,
  "Ġ1973": 13831,
  "Ġ1974": 14985,
  "Ġ1975": 14040,
  "Ġ1976": 14364,
  "Ġ1977": 14236,
  "Ġ1978": 14134,
  "Ġ1979": 12317,
  "Ġ198": 2226,
  "Ġ1980": 5946,
  "Ġ1981": 12826,
  "Ġ1982": 13340,
  "Ġ1983": 13047,
  "Ġ1984": 12016,
  "Ġ1985": 12357,
  "Ġ1986": 11316,
  "Ġ1987": 11843,
  "Ġ1988": 11515,
  "Ġ1989": 10170,
  "Ġ199": 1577,
  "Ġ1990": 5354,
  "Ġ1991": 9626,
  "Ġ1992": 9113,
  "Ġ1993": 9332,
  "Ġ1994": 8414,
  "Ġ1995": 8527,
  "Ġ1996": 8321,
  "Ġ1997": 8077,
  "Ġ1998": 7831,
  "Ġ1999": 7163,
  "Ġ2": 393,
  "Ġ20": 533,
  "Ġ200": 861,
  "Ġ2000": 4697,
  "Ġ2001": 5718,
  "Ġ2002": 6231,
  "Ġ2003": 5605,
  "Ġ2004": 5183,
  "Ġ2005": 4620,
  "Ġ2006": 4396,
  "Ġ2007": 3920,
  "Ġ2008": 3118,
  "Ġ2009": 3125,
  "Ġ201": 587,
  "Ġ2010": 2754,
  "Ġ2011": 2562,
  "Ġ2012": 2163,
  "Ġ2013": 2136,
  "Ġ2014": 1935,
  "Ġ2015": 1876,
  "Ġ2016": 1836,
  "Ġ2017": 2238,
  "Ġ2018": 4917,
  "Ġ2019": 8471,
  "Ġ202": 28980,
  "Ġ2020": 9136,
  "Ġ2021": 27819,
  "Ġ2022": 26205,
  "Ġ2025": 27796,
  "Ġ2030": 20013,
  "Ġ205": 29925,
  "Ġ2050": 25643,
  "Ġ21": 2859,
  "Ġ210": 24139,
  "Ġ215": 25833,
  "Ġ22": 2945,
  "Ġ220": 22280,
  "Ġ225": 25572,
  "Ġ23": 3050,
  "Ġ230": 22686,
  "Ġ24": 2499,
  "Ġ240": 20441,
  "Ġ25": 2270,
  "Ġ250": 9602,
  "Ġ255": 30441,
  "Ġ256": 22843,
  "Ġ26": 3359,
  "Ġ260": 26113,
  "Ġ27": 3280,
  "Ġ270": 27120,
  "Ġ28": 3231,
  "Ġ280": 27598,
  "Ġ29": 3718,
  "Ġ3": 645,
  "Ġ30": 1854,
  "Ġ300": 6175,
  "Ġ3000": 21836,
  "Ġ31": 4454,
  "Ġ32": 5120,
  "Ġ320": 26444,
  "Ġ33": 6295,
  "Ġ330": 29949,
  "Ġ34": 6648,
  "Ġ35": 4483,
  "Ġ350": 15194,
  "Ġ36": 5502,
  "Ġ360": 11408,
  "Ġ365": 28715,
  "Ġ37": 6274,
  "Ġ38": 6311,
  "Ġ39": 7206,
  "Ġ4": 744,
  "Ġ40": 2802,
  "Ġ400": 7599,
  "Ġ401": 30231,
  "Ġ41": 7910,
  "Ġ42": 7514,
  "Ġ420": 31181,
  "Ġ43": 8337,
  "Ġ44": 8018,
  "Ġ45": 5176,
  "Ġ450": 20741,
  "Ġ46": 8276,
  "Ġ47": 7916,
  "Ġ48": 6257,
  "Ġ480": 30058,
  "Ġ49": 6449,
  "Ġ5": 787,
  "Ġ50": 2395,
  "Ġ500": 5528,
  "Ġ5000": 28851,
  "Ġ501": 31133,
  "Ġ51": 8826,
  "Ġ52": 8669,
  "Ġ53": 9704,
  "Ġ54": 9933,
  "Ġ55": 7417,
  "Ġ550": 29903,
  "Ġ56": 9969,
  "Ġ57": 10532,
  "Ġ58": 9981,
  "Ġ59": 10075,
  "Ġ6": 938,
  "Ġ60": 3503,
  "Ġ600": 10627,
  "Ġ61": 11595,
  "Ġ62": 10809,
  "Ġ63": 10977,
  "Ġ64": 7450,
  "Ġ65": 7622,
  "Ġ650": 28117,
  "Ġ66": 10449,
  "Ġ67": 11707,
  "Ġ68": 11289,
  "Ġ69": 12800,
  "Ġ7": 1072,
  "Ġ70": 4655,
  "Ġ700": 12634,
  "Ġ71": 12885,
  "Ġ72": 10724,
  "Ġ720": 31089,
  "Ġ73": 12485,
  "Ġ74": 12718,
  "Ġ75": 6830,
  "Ġ750": 21516,
  "Ġ76": 12296,
  "Ġ77": 12874,
  "Ġ78": 13266,
  "Ġ79": 14077,
  "Ġ8": 1113,
  "Ġ80": 4219,
  "Ġ800": 10850,
  "Ġ81": 13860,
  "Ġ82": 12960,
  "Ġ83": 14825,
  "Ġ84": 13973,
  "Ġ85": 10124,
  "Ġ86": 14852,
  "Ġ87": 14829,
  "Ġ88": 13379,
  "Ġ89": 15219,
  "Ġ9": 1158,
  "Ġ90": 4436,
  "Ġ900": 17420,
  "Ġ91": 15702,
  "Ġ911": 15084,
  "Ġ92": 15028,
  "Ġ93": 14788,
  "Ġ94": 15183,
  "Ġ95": 9316,
  "Ġ96": 14663,
  "Ġ97": 14396,
  "Ġ978": 28571,
  "Ġ98": 13886,
  "Ġ99": 9514,
  "Ġ:": 1841,
  "Ġ:)": 21969,
  "Ġ::": 13171,
  "Ġ:=": 26347,
  "Ġ;": 3975,
  "Ġ<": 2748,
  "Ġ<-": 21699,
  "Ġ</": 11730,
  "Ġ<<": 26333,
  "Ġ=": 1467,
  "Ġ==": 13918,
  "Ġ=>": 4936,
  "Ġ>": 3779,
  "Ġ>>": 10982,
  "Ġ>>>": 23575,
  "Ġ>>>>>>>>": 25372,
  "Ġ>>>>>>>>>>>>>>>>": 29746,
  "Ġ?": 9106,
  "Ġ@": 2831,
  "ĠA": 330,
  "ĠAA": 19907,
  "ĠAAA": 22441,
  "ĠAAP": 24893,
  "ĠAB": 13810,
  "ĠABC": 8312,
  "ĠAC": 6582,
  "ĠACA": 23545,
  "ĠACC": 18022,
  "ĠACL": 14767,
  "ĠACLU": 19116,
  "ĠACT": 21474,
  "ĠAD": 7559,
  "ĠADHD": 27007,
  "ĠAF": 18453,
  "ĠAFC": 21481,
  "ĠAFL": 19183,
  "ĠAFP": 11318,
  "ĠAG": 16083,
  "ĠAH": 25018,
  "ĠAHL": 25618,
  "ĠAI": 8858,
  "ĠAIDS": 19746,
  "ĠAJ": 30080,
  "ĠAK": 17025,
  "ĠAL": 9139,
  "ĠALL": 15261,
  "ĠAM": 4280,
  "ĠAMC": 29783,
  "ĠAMD": 12662,
  "ĠAN": 10267,
  "ĠAND": 8503,
  "ĠANY": 24274,
  "ĠAP": 4063,
  "ĠAPI": 8209,
  "ĠAPIs": 21074,
  "ĠAR": 7883,
  "ĠARE": 20201,
  "ĠARM": 22465,
  "ĠAS": 10381,
  "ĠAT": 6163,
  "ĠATM": 28101,
  "ĠATT": 31953,
  "ĠAUB": 17521,
  "ĠAV": 18854,
  "ĠAW": 24848,
  "ĠAWS": 20490,
  "ĠAZ": 28380,
  "ĠAad": 31120,
  "ĠAaron": 11042,
  "ĠAb": 2339,
  "ĠAbb": 9000,
  "ĠAbbas": 21099,
  "ĠAbbey": 27751,
  "ĠAbbott": 12394,
  "ĠAbd": 11255,
  "ĠAbdel": 27410,
  "ĠAbdu": 18927,
  "ĠAbdul": 17493,
  "ĠAbdullah": 20447,
  "ĠAbe": 20740,
  "ĠAber": 23896,
  "ĠAbility": 24965,
  "ĠAboriginal": 22587,
  "ĠAbout": 8183,
  "ĠAbove": 24087,
  "ĠAbr": 18200,
  "ĠAbraham": 16481,
  "ĠAbrams": 25722,
  "ĠAbs": 16516,
  "ĠAbsolutely": 26172,
  "ĠAbstract": 26243,
  "ĠAbu": 11474,
  "ĠAbuse": 26285,
  "ĠAc": 4776,
  "ĠAcadem": 7161,
  "ĠAcademy": 7892,
  "ĠAcc": 8956,
  "ĠAccept": 30765,
  "ĠAccess": 10084,
  "ĠAccording": 4134,
  "ĠAccount": 15647,
  "ĠAccountability": 30890,
  "ĠAce": 22320,
  "ĠAch": 24782,
  "ĠAchie": 27268,
  "ĠAcross": 27383,
  "ĠAct": 2715,
  "ĠAction": 8419,
  "ĠActiv": 17002,
  "ĠActive": 19983,
  "ĠActor": 25655,
  "ĠActs": 25189,
  "ĠActually": 17818,
  "ĠAd": 1468,
  "ĠAdam": 6977,
  "ĠAdams": 11124,
  "ĠAdd": 4293,
  "ĠAdded": 16603,
  "ĠAdding": 29216,
  "ĠAdditional": 21725,
  "ĠAdditionally": 11991,
  "ĠAddress": 22979,
  "ĠAdelaide": 22026,
  "ĠAden": 30989,
  "ĠAdminist": 7015,
  "ĠAdministration": 7929,
  "ĠAdmir": 21551,
  "ĠAdmiral": 24720,
  "ĠAdobe": 21234,
  "ĠAdolf": 29185,
  "ĠAdrian": 17708,
  "ĠAdult": 26773,
  "ĠAdv": 8607,
  "ĠAdvance": 27997,
  "ĠAdvanced": 16852,
  "ĠAdvent": 13382,
  "ĠAdventure": 18774,
  "ĠAdventures": 27281,
  "ĠAdvertisement": 26740,
  "ĠAdvis": 19970,
  "ĠAdvisory": 24258,
  "ĠAdvoc": 31981,
  "ĠAer": 19524,
  "ĠAf": 2017,
  "ĠAff": 6188,
  "ĠAffairs": 9709,
  "ĠAffordable": 15884,
  "ĠAfgh": 31436,
  "ĠAfghan": 4757,
  "ĠAfghanistan": 5842,
  "ĠAfric": 2848,
  "ĠAfrica": 4704,
  "ĠAfrican": 4723,
  "ĠAfricans": 24250,
  "ĠAfter": 2389,
  "ĠAg": 2841,
  "ĠAgain": 6694,
  "ĠAgainst": 12162,
  "ĠAge": 8922,
  "ĠAgency": 7084,
  "ĠAgent": 18768,
  "ĠAges": 21864,
  "ĠAgg": 24369,
  "ĠAgr": 14328,
  "ĠAgree": 13118,
  "ĠAgreement": 15083,
  "ĠAgricult": 15403,
  "ĠAgriculture": 18237,
  "ĠAgu": 25662,
  "ĠAh": 7679,
  "ĠAhmad": 18317,
  "ĠAhmed": 16556,
  "ĠAid": 22906,
  "ĠAir": 3786,
  "ĠAirbnb": 27628,
  "ĠAirbus": 31610,
  "ĠAirlines": 15853,
  "ĠAirport": 11948,
  "ĠAj": 18299,
  "ĠAk": 9621,
  "ĠAl": 1097,
  "ĠAlabama": 8044,
  "ĠAlan": 10117,
  "ĠAlaska": 11697,
  "ĠAlb": 12204,
  "ĠAlban": 19961,
  "ĠAlbany": 24254,
  "ĠAlbert": 8197,
  "ĠAlberta": 11778,
  "ĠAlbum": 25627,
  "ĠAlbuquerque": 29841,
  "ĠAlcohol": 25266,
  "ĠAld": 14686,
  "ĠAle": 8524,
  "ĠAleppo": 15969,
  "ĠAlert": 30162,
  "ĠAlex": 4150,
  "ĠAlexa": 27578,
  "ĠAlexand": 17144,
  "ĠAlexander": 9449,
  "ĠAlexandria": 27655,
  "ĠAlexis": 24527,
  "ĠAlf": 14229,
  "ĠAlfred": 19462,
  "ĠAlger": 20632,
  "ĠAlgeria": 28607,
  "ĠAli": 7288,
  "ĠAlice": 14745,
  "ĠAlien": 19027,
  "ĠAlison": 30000,
  "ĠAlive": 30028,
  "ĠAll": 1626,
  "ĠAllah": 15679,
  "ĠAllan": 26241,
  "ĠAlleg": 25626,
  "ĠAllen": 8245,
  "ĠAlliance": 10579,
  "ĠAllied": 23978,
  "ĠAllies": 30118,
  "ĠAllison": 26755,
  "ĠAllow": 26978,
  "ĠAlmost": 15777,
  "ĠAlong": 15789,
  "ĠAlonso": 26717,
  "ĠAlp": 10644,
  "ĠAlpha": 15534,
  "ĠAlready": 24651,
  "ĠAlso": 5072,
  "ĠAlt": 13927,
  "ĠAltern": 15253,
  "ĠAlternative": 26909,
  "ĠAlternatively": 31198,
  "ĠAlthough": 5003,
  "ĠAlv": 24803,
  "ĠAlvarez": 31332,
  "ĠAlways": 20276,
  "ĠAlz": 17854,
  "ĠAlzheimer": 18547,
  "ĠAm": 1933,
  "ĠAmanda": 20891,
  "ĠAmazing": 25308,
  "ĠAmazon": 5464,
  "ĠAmb": 13255,
  "ĠAmbassador": 18165,
  "ĠAmber": 24677,
  "ĠAmendment": 7904,
  "ĠAmer": 29463,
  "ĠAmeric": 887,
  "ĠAmerica": 1921,
  "ĠAmerican": 1381,
  "ĠAmericans": 2729,
  "ĠAmericas": 22141,
  "ĠAmin": 30631,
  "ĠAmnesty": 24019,
  "ĠAmong": 9196,
  "ĠAmsterdam": 22161,
  "ĠAmy": 14779,
  "ĠAn": 1228,
  "ĠAna": 16487,
  "ĠAnaheim": 24704,
  "ĠAnaly": 16145,
  "ĠAnalysis": 17727,
  "ĠAnalytics": 28393,
  "ĠAnarch": 31090,
  "ĠAnat": 26001,
  "ĠAnch": 29081,
  "ĠAncient": 20951,
  "ĠAnd": 798,
  "ĠAnders": 20328,
  "ĠAndersen": 31882,
  "ĠAnderson": 8497,
  "ĠAndre": 9680,
  "ĠAndrea": 20183,
  "ĠAndreas": 29546,
  "ĠAndrew": 5871,
  "ĠAndrews": 22594,
  "ĠAndroid": 4948,
  "ĠAndy": 10966,
  "ĠAnfield": 30528,
  "ĠAng": 2966,
  "ĠAngel": 3870,
  "ĠAngela": 15432,
  "ĠAngeles": 4862,
  "ĠAngels": 19595,
  "ĠAnglic": 31638,
  "ĠAnglo": 22502,
  "ĠAngular": 25918,
  "ĠAnim": 12868,
  "ĠAnimal": 15855,
  "ĠAnimals": 26821,
  "ĠAnimation": 25072,
  "ĠAnkara": 21166,
  "ĠAnn": 6491,
  "ĠAnna": 10344,
  "ĠAnne": 13553,
  "ĠAnnie": 27277,
  "ĠAnniversary": 28458,
  "ĠAnnual": 19504,
  "ĠAnonymous": 19696,
  "ĠAnother": 6299,
  "ĠAns": 21950,
  "ĠAnt": 3947,
  "ĠAntar": 15113,
  "ĠAntarctic": 24314,
  "ĠAntarctica": 22245,
  "ĠAnth": 7475,
  "ĠAnthony": 8229,
  "ĠAnti": 12747,
  "ĠAnton": 8251,
  "ĠAntonio": 10103,
  "ĠAny": 5414,
  "ĠAnyone": 16753,
  "ĠAnything": 21560,
  "ĠAnyway": 22989,
  "ĠAp": 8642,
  "ĠApache": 24239,
  "ĠApart": 21302,
  "ĠApocalypse": 30366,
  "ĠApollo": 19292,
  "ĠApost": 27134,
  "ĠApp": 2261,
  "ĠAppalach": 30200,
  "ĠApparently": 17308,
  "ĠAppeal": 29927,
  "ĠAppeals": 19108,
  "ĠApple": 3597,
  "ĠApplication": 21986,
  "ĠApplications": 31573,
  "ĠAppro": 19550,
  "ĠApps": 27576,
  "ĠApr": 17667,
  "ĠApril": 2675,
  "ĠAqu": 15234,
  "ĠAr": 1052,
  "ĠArab": 3800,
  "ĠArabia": 8009,
  "ĠArabian": 28232,
  "ĠArabic": 14946,
  "ĠArabs": 19224,
  "ĠArc": 15927,
  "ĠArcade": 31290,
  "ĠArch": 6655,
  "ĠArchae": 29910,
  "ĠArchbishop": 27323,
  "ĠArcher": 26076,
  "ĠArchitect": 17215,
  "ĠArchitecture": 27740,
  "ĠArchive": 23129,
  "ĠArchives": 23444,
  "ĠArctic": 11983,
  "ĠAre": 4630,
  "ĠArea": 10580,
  "ĠAren": 10864,
  "ĠArena": 12116,
  "ĠArg": 17957,
  "ĠArgent": 10615,
  "ĠArgentina": 13771,
  "ĠArgentine": 28169,
  "ĠAri": 5229,
  "ĠAriel": 31101,
  "ĠArist": 23386,
  "ĠAristotle": 30867,
  "ĠArizona": 6533,
  "ĠArk": 9504,
  "ĠArkansas": 12614,
  "ĠArlington": 26207,
  "ĠArm": 7760,
  "ĠArmed": 16160,
  "ĠArmen": 12402,
  "ĠArmenia": 22816,
  "ĠArmenian": 19600,
  "ĠArmor": 27556,
  "ĠArmour": 26700,
  "ĠArms": 22838,
  "ĠArmstrong": 17112,
  "ĠArmy": 5017,
  "ĠArn": 14089,
  "ĠArnold": 16830,
  "ĠAround": 16495,
  "ĠArray": 26473,
  "ĠArri": 26364,
  "ĠArrow": 21847,
  "ĠArs": 21009,
  "ĠArsenal": 11421,
  "ĠArt": 4670,
  "ĠArthur": 13740,
  "ĠArticle": 13143,
  "ĠArticles": 23294,
  "ĠArtist": 25968,
  "ĠArts": 11596,
  "ĠAs": 1108,
  "ĠAsh": 7995,
  "ĠAshe": 31868,
  "ĠAshley": 18879,
  "ĠAshton": 29454,
  "ĠAsia": 6239,
  "ĠAsian": 6983,
  "ĠAsians": 26877,
  "ĠAside": 24856,
  "ĠAsk": 17826,
  "ĠAsked": 23617,
  "ĠAss": 2287,
  "ĠAssad": 9586,
  "ĠAssange": 16476,
  "ĠAssass": 22176,
  "ĠAssassin": 29576,
  "ĠAssault": 27119,
  "ĠAssembly": 9844,
  "ĠAssessment": 29474,
  "ĠAssistance": 29473,
  "ĠAssistant": 14315,
  "ĠAssoci": 3571,
  "ĠAssociate": 24282,
  "ĠAssociated": 9223,
  "ĠAssociates": 28230,
  "ĠAssociation": 4731,
  "ĠAst": 9244,
  "ĠAston": 27513,
  "ĠAstron": 24687,
  "ĠAstros": 24379,
  "ĠAt": 1657,
  "ĠAth": 13093,
  "ĠAthe": 23781,
  "ĠAthens": 19714,
  "ĠAthlet": 15959,
  "ĠAthletic": 23298,
  "ĠAthletics": 29320,
  "ĠAtlant": 5260,
  "ĠAtlanta": 8033,
  "ĠAtlantic": 9303,
  "ĠAtlas": 24112,
  "ĠAtmosp": 28208,
  "ĠAtmospheric": 31958,
  "ĠAtomic": 29128,
  "ĠAtt": 4555,
  "ĠAttack": 15136,
  "ĠAttorney": 7199,
  "ĠAu": 31366,
  "ĠAub": 16952,
  "ĠAuburn": 21418,
  "ĠAuckland": 22931,
  "ĠAud": 9089,
  "ĠAudi": 24023,
  "ĠAudio": 20138,
  "ĠAug": 2516,
  "ĠAugust": 2883,
  "ĠAur": 17539,
  "ĠAurora": 22265,
  "ĠAust": 2128,
  "ĠAustin": 8222,
  "ĠAustral": 2643,
  "ĠAustralia": 3808,
  "ĠAustralian": 5471,
  "ĠAustralians": 18045,
  "ĠAustria": 15595,
  "ĠAustrian": 20620,
  "ĠAut": 6721,
  "ĠAuthor": 7167,
  "ĠAuthorities": 27384,
  "ĠAuthority": 10389,
  "ĠAuto": 15086,
  "ĠAutom": 19715,
  "ĠAv": 6172,
  "ĠAvailable": 21830,
  "ĠAval": 25831,
  "ĠAve": 13278,
  "ĠAven": 16662,
  "ĠAvengers": 20652,
  "ĠAvenue": 7527,
  "ĠAverage": 16021,
  "ĠAvery": 27308,
  "ĠAviation": 24499,
  "ĠAviv": 23195,
  "ĠAvoid": 31068,
  "ĠAw": 13039,
  "ĠAward": 9062,
  "ĠAwards": 12323,
  "ĠAway": 25858,
  "ĠAwesome": 30106,
  "ĠAx": 15497,
  "ĠAy": 12396,
  "ĠAz": 9710,
  "ĠAzer": 22685,
  "ĠAzerbai": 25444,
  "ĠAzerbaijan": 28197,
  "ĠAzure": 23317,
  "ĠB": 354,
  "ĠBA": 23798,
  "ĠBB": 13225,
  "ĠBBC": 5648,
  "ĠBC": 10141,
  "ĠBDS": 31270,
  "ĠBE": 13218,
  "ĠBEL": 28028,
  "ĠBEN": 27109,
  "ĠBI": 28592,
  "ĠBJP": 12075,
  "ĠBL": 12551,
  "ĠBM": 10597,
  "ĠBMW": 17986,
  "ĠBO": 19465,
  "ĠBP": 14697,
  "ĠBR": 15479,
  "ĠBS": 27712,
  "ĠBT": 20658,
  "ĠBTC": 22059,
  "ĠBU": 28111,
  "ĠBUT": 30271,
  "ĠBY": 13346,
  "ĠBYU": 30591,
  "ĠBa": 9045,
  "ĠBab": 12028,
  "ĠBaby": 16560,
  "ĠBabylon": 30288,
  "ĠBach": 18960,
  "ĠBachmann": 26522,
  "ĠBack": 6078,
  "ĠBacon": 29713,
  "ĠBad": 8791,
  "ĠBag": 22758,
  "ĠBaghd": 14424,
  "ĠBaghdad": 15232,
  "ĠBah": 11846,
  "ĠBahrain": 22572,
  "ĠBailey": 18509,
  "ĠBain": 25161,
  "ĠBak": 15571,
  "ĠBaker": 12349,
  "ĠBal": 10557,
  "ĠBald": 16397,
  "ĠBaldwin": 21148,
  "ĠBalk": 24602,
  "ĠBall": 8644,
  "ĠBalt": 8004,
  "ĠBaltic": 27044,
  "ĠBaltimore": 9131,
  "ĠBan": 10479,
  "ĠBand": 11067,
  "ĠBang": 8870,
  "ĠBangkok": 29283,
  "ĠBangl": 14752,
  "ĠBangladesh": 16316,
  "ĠBank": 4602,
  "ĠBanks": 17900,
  "ĠBanner": 31644,
  "ĠBannon": 15998,
  "ĠBapt": 18112,
  "ĠBaptist": 20403,
  "ĠBar": 2109,
  "ĠBarack": 6292,
  "ĠBarb": 10675,
  "ĠBarbara": 14642,
  "ĠBarber": 29757,
  "ĠBarcelona": 11716,
  "ĠBarcl": 24788,
  "ĠBarclays": 28733,
  "ĠBard": 27469,
  "ĠBark": 18217,
  "ĠBarn": 16419,
  "ĠBarnes": 17909,
  "ĠBarnett": 29093,
  "ĠBaron": 24409,
  "ĠBarr": 25391,
  "ĠBarrett": 21951,
  "ĠBarry": 12595,
  "ĠBart": 12309,
  "ĠBarton": 28817,
  "ĠBas": 7280,
  "ĠBase": 9599,
  "ĠBaseball": 15422,
  "ĠBased": 14043,
  "ĠBash": 12820,
  "ĠBashar": 17343,
  "ĠBasic": 19345,
  "ĠBasically": 19269,
  "ĠBasin": 29860,
  "ĠBasketball": 25001,
  "ĠBass": 23038,
  "ĠBast": 22433,
  "ĠBat": 6137,
  "ĠBates": 29464,
  "ĠBath": 24080,
  "ĠBatman": 10260,
  "ĠBatt": 18062,
  "ĠBattalion": 31446,
  "ĠBattery": 25369,
  "ĠBattle": 8618,
  "ĠBattlefield": 31845,
  "ĠBauer": 29356,
  "ĠBav": 31424,
  "ĠBay": 4020,
  "ĠBayern": 20952,
  "ĠBaylor": 22297,
  "ĠBe": 1474,
  "ĠBeach": 8652,
  "ĠBeacon": 27552,
  "ĠBean": 25421,
  "ĠBear": 15950,
  "ĠBears": 13273,
  "ĠBeast": 15419,
  "ĠBeat": 12067,
  "ĠBeatles": 22437,
  "ĠBeau": 29336,
  "ĠBeaut": 17168,
  "ĠBeautiful": 27582,
  "ĠBeauty": 26173,
  "ĠBec": 20010,
  "ĠBecause": 4248,
  "ĠBeck": 8895,
  "ĠBeckham": 24073,
  "ĠBecome": 31780,
  "ĠBed": 17482,
  "ĠBee": 24821,
  "ĠBeer": 15105,
  "ĠBefore": 7704,
  "ĠBegin": 19998,
  "ĠBeginning": 30073,
  "ĠBeh": 13151,
  "ĠBehavior": 28286,
  "ĠBehind": 21676,
  "ĠBeijing": 9301,
  "ĠBeing": 11390,
  "ĠBeir": 28780,
  "ĠBeirut": 29938,
  "ĠBel": 3733,
  "ĠBelarus": 26756,
  "ĠBelfast": 21787,
  "ĠBelg": 9492,
  "ĠBelgian": 17492,
  "ĠBelgium": 13446,
  "ĠBelichick": 30998,
  "ĠBelieve": 29504,
  "ĠBell": 7086,
  "ĠBelle": 31925,
  "ĠBelow": 10192,
  "ĠBelt": 15181,
  "ĠBen": 3635,
  "ĠBench": 31701,
  "ĠBend": 23734,
  "ĠBened": 22183,
  "ĠBenedict": 24150,
  "ĠBenef": 24283,
  "ĠBeng": 12554,
  "ĠBengal": 21778,
  "ĠBengals": 21076,
  "ĠBenghazi": 16901,
  "ĠBenjamin": 12626,
  "ĠBenn": 12220,
  "ĠBennett": 14731,
  "ĠBenson": 22806,
  "ĠBent": 23613,
  "ĠBer": 4166,
  "ĠBere": 31917,
  "ĠBerg": 17885,
  "ĠBerger": 27886,
  "ĠBerkeley": 12164,
  "ĠBerlin": 9622,
  "ĠBern": 5111,
  "ĠBernanke": 28536,
  "ĠBernard": 14382,
  "ĠBernardino": 29286,
  "ĠBernie": 8215,
  "ĠBerry": 22100,
  "ĠBert": 21767,
  "ĠBes": 27514,
  "ĠBesides": 16969,
  "ĠBest": 7138,
  "ĠBet": 5720,
  "ĠBeta": 20553,
  "ĠBeth": 17984,
  "ĠBetter": 14200,
  "ĠBetty": 25484,
  "ĠBetween": 14095,
  "ĠBever": 19011,
  "ĠBeverly": 24060,
  "ĠBeyon": 30195,
  "ĠBeyond": 14314,
  "ĠBh": 13369,
  "ĠBhar": 26176,
  "ĠBi": 10224,
  "ĠBible": 9072,
  "ĠBiblical": 30246,
  "ĠBiden": 15188,
  "ĠBie": 25879,
  "ĠBig": 4314,
  "ĠBihar": 31122,
  "ĠBike": 27221,
  "ĠBil": 22011,
  "ĠBill": 3468,
  "ĠBillboard": 23559,
  "ĠBills": 16599,
  "ĠBilly": 14510,
  "ĠBin": 18510,
  "ĠBing": 24726,
  "ĠBio": 20355,
  "ĠBiology": 26018,
  "ĠBir": 10895,
  "ĠBirch": 31776,
  "ĠBird": 15992,
  "ĠBirds": 28976,
  "ĠBirmingham": 15414,
  "ĠBirth": 20569,
  "ĠBishop": 15297,
  "ĠBit": 4286,
  "ĠBitcoin": 5460,
  "ĠBitcoins": 29278,
  "ĠBj": 28918,
  "ĠBl": 1302,
  "ĠBlack": 3063,
  "ĠBlackBerry": 19764,
  "ĠBlackburn": 31063,
  "ĠBlackhawks": 27452,
  "ĠBlacks": 24655,
  "ĠBlade": 21488,
  "ĠBlair": 13716,
  "ĠBlake": 11534,
  "ĠBlank": 28297,
  "ĠBlasio": 27748,
  "ĠBle": 20579,
  "ĠBless": 30348,
  "ĠBlind": 28877,
  "ĠBlizzard": 20617,
  "ĠBlock": 11702,
  "ĠBlockchain": 24478,
  "ĠBlocked": 23449,
  "ĠBlog": 12528,
  "ĠBlood": 11274,
  "ĠBloom": 9568,
  "ĠBloomberg": 12469,
  "ĠBlu": 11884,
  "ĠBlue": 6224,
  "ĠBlues": 14029,
  "ĠBluetooth": 19735,
  "ĠBlvd": 30117,
  "ĠBo": 3600,
  "ĠBoard": 6319,
  "ĠBob": 6256,
  "ĠBobby": 14858,
  "ĠBod": 27220,
  "ĠBody": 15860,
  "ĠBoe": 10112,
  "ĠBoehner": 17123,
  "ĠBoeing": 16142,
  "ĠBog": 20568,
  "ĠBoise": 31946,
  "ĠBoko": 29151,
  "ĠBol": 11692,
  "ĠBold": 26622,
  "ĠBolt": 28847,
  "ĠBolton": 29791,
  "ĠBom": 22075,
  "ĠBomb": 18141,
  "ĠBon": 9430,
  "ĠBond": 14036,
  "ĠBonus": 31253,
  "ĠBook": 5626,
  "ĠBooker": 23829,
  "ĠBooks": 13966,
  "ĠBoost": 25190,
  "ĠBoot": 20936,
  "ĠBooth": 30065,
  "ĠBor": 10830,
  "ĠBorder": 15637,
  "ĠBorders": 29943,
  "ĠBorg": 29012,
  "ĠBoris": 20763,
  "ĠBorn": 21288,
  "ĠBos": 12258,
  "ĠBosnia": 24517,
  "ĠBoss": 22182,
  "ĠBoston": 5305,
  "ĠBot": 19250,
  "ĠBoth": 5584,
  "ĠBott": 31859,
  "ĠBottom": 28335,
  "ĠBou": 13199,
  "ĠBoulder": 23098,
  "ĠBoulevard": 19320,
  "ĠBour": 18579,
  "ĠBow": 10689,
  "ĠBowie": 26983,
  "ĠBowl": 7201,
  "ĠBox": 9957,
  "ĠBoy": 6549,
  "ĠBoyd": 25236,
  "ĠBoyle": 30361,
  "ĠBoys": 16504,
  "ĠBr": 1804,
  "ĠBra": 9335,
  "ĠBrad": 7108,
  "ĠBradford": 23406,
  "ĠBradley": 14052,
  "ĠBrady": 12215,
  "ĠBrain": 17837,
  "ĠBranch": 21316,
  "ĠBrand": 14262,
  "ĠBrandon": 12875,
  "ĠBrat": 29465,
  "ĠBrave": 30588,
  "ĠBraves": 21593,
  "ĠBraz": 30896,
  "ĠBrazil": 5997,
  "ĠBrazilian": 13381,
  "ĠBre": 4132,
  "ĠBreak": 15988,
  "ĠBreaking": 21758,
  "ĠBreitbart": 14726,
  "ĠBren": 17338,
  "ĠBrend": 16467,
  "ĠBrendan": 19768,
  "ĠBrennan": 20304,
  "ĠBrent": 19377,
  "ĠBrett": 18377,
  "ĠBrew": 7512,
  "ĠBrewer": 30936,
  "ĠBrewers": 28538,
  "ĠBrewery": 22789,
  "ĠBrewing": 12511,
  "ĠBrexit": 10007,
  "ĠBri": 24960,
  "ĠBrian": 7196,
  "ĠBrid": 27736,
  "ĠBridge": 8918,
  "ĠBridgewater": 28964,
  "ĠBrief": 22653,
  "ĠBrig": 16955,
  "ĠBrigade": 23948,
  "ĠBright": 17646,
  "ĠBrighton": 27835,
  "ĠBring": 26031,
  "ĠBris": 20938,
  "ĠBrisbane": 22095,
  "ĠBristol": 21162,
  "ĠBrit": 2019,
  "ĠBritain": 4509,
  "ĠBritish": 2976,
  "ĠBritt": 26062,
  "ĠBro": 1968,
  "ĠBroad": 8566,
  "ĠBroadcasting": 26428,
  "ĠBroadway": 15942,
  "ĠBrock": 20114,
  "ĠBrom": 27185,
  "ĠBron": 8978,
  "ĠBroncos": 13746,
  "ĠBronx": 24934,
  "ĠBronze": 28578,
  "ĠBrook": 6235,
  "ĠBrooklyn": 9869,
  "ĠBrooks": 13651,
  "ĠBros": 13264,
  "ĠBrother": 8217,
  "ĠBrotherhood": 16443,
  "ĠBrothers": 14171,
  "ĠBrow": 20083,
  "ĠBrown": 4055,
  "ĠBrowns": 14996,
  "ĠBru": 7435,
  "ĠBruce": 9720,
  "ĠBruins": 21715,
  "ĠBrun": 13813,
  "ĠBruno": 27413,
  "ĠBrunswick": 26234,
  "ĠBrussels": 12125,
  "ĠBry": 8192,
  "ĠBryan": 15040,
  "ĠBryant": 15030,
  "ĠBu": 10852,
  "ĠBuc": 20132,
  "ĠBucc": 27755,
  "ĠBuccaneers": 30541,
  "ĠBuch": 21192,
  "ĠBuchanan": 29404,
  "ĠBuck": 12574,
  "ĠBucks": 29898,
  "ĠBud": 9481,
  "ĠBudd": 8453,
  "ĠBuddh": 18276,
  "ĠBuddha": 21344,
  "ĠBuddhism": 21773,
  "ĠBuddhist": 17894,
  "ĠBudget": 13602,
  "ĠBuff": 8083,
  "ĠBuffalo": 12521,
  "ĠBuffett": 25067,
  "ĠBuffy": 26883,
  "ĠBug": 20525,
  "ĠBuild": 15256,
  "ĠBuilding": 12581,
  "ĠBuk": 31594,
  "ĠBul": 10813,
  "ĠBulgar": 22518,
  "ĠBulgaria": 24184,
  "ĠBull": 7472,
  "ĠBulldogs": 27780,
  "ĠBullet": 25649,
  "ĠBulls": 13615,
  "ĠBun": 23249,
  "ĠBund": 12610,
  "ĠBundes": 25822,
  "ĠBundy": 26390,
  "ĠBur": 5256,
  "ĠBureau": 9061,
  "ĠBurg": 21730,
  "ĠBurger": 23442,
  "ĠBurke": 17152,
  "ĠBurn": 10539,
  "ĠBurning": 30405,
  "ĠBurns": 20150,
  "ĠBurr": 30767,
  "ĠBurton": 23116,
  "ĠBus": 13357,
  "ĠBusch": 27807,
  "ĠBush": 4247,
  "ĠBusiness": 7650,
  "ĠBut": 818,
  "ĠButler": 13732,
  "ĠButt": 30437,
  "ĠButter": 22065,
  "ĠButton": 29445,
  "ĠBuy": 13652,
  "ĠBuzz": 15407,
  "ĠBuzzFeed": 22402,
  "ĠBy": 2821,
  "ĠByron": 28932,
  "ĠC": 335,
  "ĠCA": 9943,
  "ĠCAN": 20029,
  "ĠCAP": 22458,
  "ĠCAR": 25738,
  "ĠCB": 11375,
  "ĠCBC": 15484,
  "ĠCBD": 23005,
  "ĠCBO": 27924,
  "ĠCBS": 8770,
  "ĠCC": 10808,
  "ĠCCTV": 28235,
  "ĠCD": 7027,
  "ĠCDC": 17145,
  "ĠCE": 21351,
  "ĠCEO": 4765,
  "ĠCEOs": 24191,
  "ĠCF": 19706,
  "ĠCFL": 31078,
  "ĠCFP": 30694,
  "ĠCH": 9132,
  "ĠCI": 16878,
  "ĠCIA": 6310,
  "ĠCITY": 30375,
  "ĠCJ": 28183,
  "ĠCL": 11695,
  "ĠCM": 17426,
  "ĠCNBC": 25639,
  "ĠCNN": 6241,
  "ĠCO": 8082,
  "ĠCOM": 16479,
  "ĠCON": 11238,
  "ĠCONT": 23210,
  "ĠCOP": 31236,
  "ĠCOU": 24125,
  "ĠCP": 16675,
  "ĠCPU": 10829,
  "ĠCPUs": 30173,
  "ĠCR": 12112,
  "ĠCRE": 30754,
  "ĠCS": 10751,
  "ĠCSS": 14128,
  "ĠCT": 15693,
  "ĠCU": 27840,
  "ĠCV": 20262,
  "ĠCW": 21766,
  "ĠCa": 13593,
  "ĠCab": 16299,
  "ĠCabinet": 15923,
  "ĠCable": 18972,
  "ĠCad": 19944,
  "ĠCaesar": 28349,
  "ĠCafe": 26254,
  "ĠCage": 25181,
  "ĠCain": 22781,
  "ĠCairo": 16813,
  "ĠCal": 2104,
  "ĠCald": 26830,
  "ĠCalder": 28436,
  "ĠCalgary": 14339,
  "ĠCalif": 2792,
  "ĠCaliforn": 28344,
  "ĠCalifornia": 3018,
  "ĠCall": 7699,
  "ĠCaller": 26573,
  "ĠCalvin": 22800,
  "ĠCam": 7214,
  "ĠCamb": 16853,
  "ĠCambod": 19845,
  "ĠCambodia": 23887,
  "ĠCambridge": 12952,
  "ĠCamer": 6866,
  "ĠCamera": 23909,
  "ĠCameron": 8221,
  "ĠCamp": 5352,
  "ĠCampaign": 12352,
  "ĠCampbell": 12506,
  "ĠCampus": 24565,
  "ĠCan": 1451,
  "ĠCanad": 1952,
  "ĠCanada": 2931,
  "ĠCanadian": 4383,
  "ĠCanadians": 10925,
  "ĠCanadiens": 25390,
  "ĠCanal": 24990,
  "ĠCanberra": 26797,
  "ĠCance": 30110,
  "ĠCancer": 16601,
  "ĠCand": 16155,
  "ĠCandy": 28742,
  "ĠCann": 18434,
  "ĠCannabis": 26911,
  "ĠCannon": 24905,
  "ĠCanon": 20967,
  "ĠCant": 16164,
  "ĠCanter": 28779,
  "ĠCanterbury": 30719,
  "ĠCantor": 30211,
  "ĠCanucks": 20742,
  "ĠCany": 19623,
  "ĠCanyon": 19973,
  "ĠCap": 3826,
  "ĠCapcom": 28957,
  "ĠCape": 15018,
  "ĠCapital": 9733,
  "ĠCapitals": 29131,
  "ĠCapitol": 10598,
  "ĠCaps": 30347,
  "ĠCapt": 9418,
  "ĠCaptain": 10063,
  "ĠCaption": 11836,
  "ĠCar": 1777,
  "ĠCarbon": 27379,
  "ĠCard": 6510,
  "ĠCardiff": 25136,
  "ĠCardinal": 22571,
  "ĠCardinals": 15169,
  "ĠCards": 20339,
  "ĠCare": 7552,
  "ĠCarey": 25294,
  "ĠCarib": 16975,
  "ĠCaribbean": 17697,
  "ĠCarl": 7026,
  "ĠCarlo": 31898,
  "ĠCarlos": 13861,
  "ĠCarlson": 29171,
  "ĠCarly": 31422,
  "ĠCarmel": 31348,
  "ĠCarn": 27669,
  "ĠCarnegie": 28597,
  "ĠCarney": 31217,
  "ĠCarol": 4537,
  "ĠCarolina": 5137,
  "ĠCaroline": 27019,
  "ĠCarpenter": 29022,
  "ĠCarr": 17490,
  "ĠCarrie": 29160,
  "ĠCarroll": 17291,
  "ĠCars": 26341,
  "ĠCarson": 13188,
  "ĠCart": 16736,
  "ĠCarter": 8789,
  "ĠCas": 11669,
  "ĠCase": 10668,
  "ĠCasey": 17831,
  "ĠCash": 17255,
  "ĠCass": 13333,
  "ĠCast": 7299,
  "ĠCastle": 14961,
  "ĠCastro": 17470,
  "ĠCat": 7462,
  "ĠCatal": 17631,
  "ĠCatalan": 31517,
  "ĠCategory": 29009,
  "ĠCath": 5312,
  "ĠCathedral": 25907,
  "ĠCatherine": 19457,
  "ĠCatholic": 6504,
  "ĠCatholics": 17456,
  "ĠCats": 27572,
  "ĠCaucas": 23526,
  "ĠCaucus": 23809,
  "ĠCause": 26949,
  "ĠCav": 16545,
  "ĠCaval": 20030,
  "ĠCavaliers": 24844,
  "ĠCave": 24767,
  "ĠCavs": 29226,
  "ĠCay": 27711,
  "ĠCe": 20507,
  "ĠCec": 22822,
  "ĠCecil": 31748,
  "ĠCed": 23348,
  "ĠCedar": 31296,
  "ĠCel": 19329,
  "ĠCele": 19219,
  "ĠCelebr": 28416,
  "ĠCell": 15483,
  "ĠCelsius": 31174,
  "ĠCelt": 14654,
  "ĠCeltic": 22535,
  "ĠCeltics": 22429,
  "ĠCemetery": 29711,
  "ĠCensus": 19509,
  "ĠCent": 1911,
  "ĠCenter": 3188,
  "ĠCenters": 19185,
  "ĠCentral": 5230,
  "ĠCentre": 8074,
  "ĠCentury": 12483,
  "ĠCer": 26010,
  "ĠCert": 23079,
  "ĠCertainly": 21540,
  "ĠCh": 624,
  "ĠCha": 18596,
  "ĠChad": 17385,
  "ĠChain": 29302,
  "ĠChair": 8442,
  "ĠChairman": 10902,
  "ĠChal": 30225,
  "ĠChall": 12274,
  "ĠChallenge": 16438,
  "ĠChamber": 14392,
  "ĠChambers": 29241,
  "ĠChamp": 28645,
  "ĠChampion": 17035,
  "ĠChampions": 11162,
  "ĠChampionship": 7212,
  "ĠChampionships": 19817,
  "ĠChan": 16722,
  "ĠChance": 12632,
  "ĠChancellor": 15898,
  "ĠChand": 15507,
  "ĠChandler": 22980,
  "ĠChang": 24267,
  "ĠChange": 10576,
  "ĠChanges": 23400,
  "ĠChannel": 10371,
  "ĠChaos": 24230,
  "ĠChap": 12556,
  "ĠChapel": 30563,
  "ĠChapman": 23187,
  "ĠChapter": 16067,
  "ĠChar": 3236,
  "ĠCharacter": 22813,
  "ĠCharg": 14174,
  "ĠCharge": 25797,
  "ĠChargers": 18436,
  "ĠCharl": 5494,
  "ĠCharles": 6775,
  "ĠCharleston": 24610,
  "ĠCharlie": 9688,
  "ĠCharlott": 19940,
  "ĠCharlotte": 13114,
  "ĠCharlottesville": 20818,
  "ĠChart": 26000,
  "ĠCharter": 21526,
  "ĠChase": 15802,
  "ĠChattanooga": 30953,
  "ĠChavez": 22763,
  "ĠChe": 3376,
  "ĠCheck": 8617,
  "ĠCheese": 27955,
  "ĠChef": 30931,
  "ĠChelsea": 9849,
  "ĠChem": 16007,
  "ĠChemical": 24393,
  "ĠChen": 15376,
  "ĠCheney": 20706,
  "ĠCher": 14809,
  "ĠChern": 30693,
  "ĠCherry": 25824,
  "ĠChes": 25338,
  "ĠChess": 28955,
  "ĠChester": 27064,
  "ĠChev": 19552,
  "ĠChevrolet": 28445,
  "ĠChi": 18352,
  "ĠChicago": 4217,
  "ĠChick": 30952,
  "ĠChicken": 23882,
  "ĠChief": 5331,
  "ĠChiefs": 16058,
  "ĠChild": 6788,
  "ĠChildren": 9913,
  "ĠChile": 13818,
  "ĠChin": 20770,
  "ĠChina": 2364,
  "ĠChinese": 3463,
  "ĠChip": 16625,
  "ĠCho": 13076,
  "ĠChocolate": 26953,
  "ĠChoice": 19451,
  "ĠChoose": 26984,
  "ĠChris": 4593,
  "ĠChrist": 1825,
  "ĠChristian": 3803,
  "ĠChristianity": 11942,
  "ĠChristians": 7719,
  "ĠChristie": 12869,
  "ĠChristina": 29780,
  "ĠChristine": 24142,
  "ĠChristmas": 5995,
  "ĠChristopher": 10590,
  "ĠChrom": 26012,
  "ĠChrome": 12569,
  "ĠChron": 11800,
  "ĠChronicle": 15322,
  "ĠChronicles": 30748,
  "ĠChrys": 24851,
  "ĠChrysler": 29143,
  "ĠChuck": 12433,
  "ĠChurch": 4450,
  "ĠChurchill": 23513,
  "ĠCincinnati": 12883,
  "ĠCind": 24783,
  "ĠCinem": 19056,
  "ĠCinema": 27259,
  "ĠCirc": 8145,
  "ĠCircle": 20003,
  "ĠCircuit": 12613,
  "ĠCisco": 29801,
  "ĠCit": 16947,
  "ĠCities": 19864,
  "ĠCitiz": 11416,
  "ĠCitizen": 20636,
  "ĠCitizens": 15528,
  "ĠCity": 2088,
  "ĠCivic": 26377,
  "ĠCivil": 7221,
  "ĠCivilization": 31439,
  "ĠCl": 1110,
  "ĠCla": 25104,
  "ĠClaim": 26559,
  "ĠClaire": 22385,
  "ĠClar": 13898,
  "ĠClara": 26560,
  "ĠClare": 21056,
  "ĠClark": 9847,
  "ĠClarke": 16707,
  "ĠClarks": 29244,
  "ĠClarkson": 31361,
  "ĠClass": 6472,
  "ĠClassic": 15597,
  "ĠClaud": 26900,
  "ĠClaus": 31604,
  "ĠClay": 15814,
  "ĠClayton": 27681,
  "ĠCle": 6912,
  "ĠClean": 16029,
  "ĠClear": 20757,
  "ĠClearly": 20683,
  "ĠClegg": 29170,
  "ĠClement": 25588,
  "ĠClemson": 26248,
  "ĠCleveland": 8426,
  "ĠCli": 15214,
  "ĠClick": 9545,
  "ĠCliff": 22630,
  "ĠClimate": 11770,
  "ĠClin": 16107,
  "ĠClinic": 27074,
  "ĠClinical": 30072,
  "ĠClint": 18354,
  "ĠClinton": 2063,
  "ĠClintons": 24705,
  "ĠClippers": 25893,
  "ĠClo": 31796,
  "ĠClock": 27475,
  "ĠClojure": 27950,
  "ĠClose": 14431,
  "ĠCloud": 11863,
  "ĠClown": 29717,
  "ĠClub": 6440,
  "ĠCo": 1845,
  "ĠCoach": 14588,
  "ĠCoal": 10353,
  "ĠCoalition": 11602,
  "ĠCoast": 7810,
  "ĠCob": 18309,
  "ĠCobb": 25414,
  "ĠCoc": 20037,
  "ĠCoca": 26131,
  "ĠCoch": 30465,
  "ĠCock": 30432,
  "ĠCod": 27440,
  "ĠCode": 8798,
  "ĠCody": 23720,
  "ĠCoff": 16243,
  "ĠCoffee": 21883,
  "ĠCohen": 12344,
  "ĠCoin": 17454,
  "ĠCol": 1723,
  "ĠColbert": 22841,
  "ĠCold": 11164,
  "ĠCole": 10098,
  "ĠColeman": 19387,
  "ĠColin": 15046,
  "ĠColiseum": 29159,
  "ĠColl": 7508,
  "ĠCollect": 15919,
  "ĠCollection": 17959,
  "ĠCollective": 31007,
  "ĠColleg": 31697,
  "ĠCollege": 5103,
  "ĠCollins": 11620,
  "ĠCologne": 30024,
  "ĠColomb": 13604,
  "ĠColombia": 16810,
  "ĠColombian": 31071,
  "ĠColon": 15259,
  "ĠColonel": 22882,
  "ĠColor": 5660,
  "ĠColorado": 6514,
  "ĠColts": 16174,
  "ĠColumb": 6184,
  "ĠColumbia": 8243,
  "ĠColumbus": 13736,
  "ĠCom": 1079,
  "ĠComb": 16745,
  "ĠCombat": 21283,
  "ĠComcast": 16658,
  "ĠCome": 7698,
  "ĠComedy": 20866,
  "ĠComey": 10206,
  "ĠComic": 16528,
  "ĠComics": 13856,
  "ĠComing": 20880,
  "ĠComm": 1939,
  "ĠCommand": 11074,
  "ĠCommander": 16668,
  "ĠComment": 21889,
  "ĠComments": 22618,
  "ĠCommerce": 14616,
  "ĠCommercial": 23433,
  "ĠCommission": 4182,
  "ĠCommissioner": 12021,
  "ĠCommittee": 4178,
  "ĠCommon": 9241,
  "ĠCommons": 11369,
  "ĠCommonwealth": 16713,
  "ĠCommun": 4362,
  "ĠCommunication": 29688,
  "ĠCommunications": 13179,
  "ĠCommunist": 12382,
  "ĠCommunity": 8135,
  "ĠComp": 3822,
  "ĠCompanies": 22767,
  "ĠCompany": 6520,
  "ĠCompar": 31602,
  "ĠCompared": 28756,
  "ĠCompetition": 25818,
  "ĠCompl": 24407,
  "ĠComplete": 18651,
  "ĠComplex": 23151,
  "ĠComput": 21927,
  "ĠComputer": 16231,
  "ĠCon": 1669,
  "ĠConc": 21339,
  "ĠConcept": 27449,
  "ĠConcer": 19285,
  "ĠCond": 14662,
  "ĠConf": 7880,
  "ĠConfeder": 15072,
  "ĠConfederate": 18711,
  "ĠConference": 8003,
  "ĠCong": 2464,
  "ĠCongo": 22711,
  "ĠCongress": 2622,
  "ĠCongressional": 12276,
  "ĠCongressman": 22977,
  "ĠConn": 19749,
  "ĠConnect": 8687,
  "ĠConnecticut": 13320,
  "ĠConnor": 23389,
  "ĠConrad": 25105,
  "ĠCons": 3445,
  "ĠConsequently": 25270,
  "ĠConserv": 5412,
  "ĠConservation": 21987,
  "ĠConservative": 7964,
  "ĠConservatives": 12987,
  "ĠConsider": 13284,
  "ĠConsidering": 25173,
  "ĠConsole": 31799,
  "ĠConst": 4869,
  "ĠConstitution": 7179,
  "ĠConstitutional": 22569,
  "ĠConstruction": 24365,
  "ĠConsult": 23069,
  "ĠConsumer": 17784,
  "ĠCont": 3090,
  "ĠContact": 19938,
  "ĠContent": 18131,
  "ĠContest": 30204,
[...]
