#version: 0.2
t h
i n
Ġ \
Ġ $
o n
Ġ a
Ġ th
t i
r e
Ġth e
e n
a l
e r
_ {
Ġ s
Ġ o
Ġ Ġ
m a
i s
l e
o r
Ġ c
ti on
t e
t a
b e
Ġ f
r a
Ġ w
Ġo f
n d
Ġ$ \
i g
l a
r o
^ {
d e
Ġ p
Ġ in
Ġ t
e s
a r
e q
a t
Ġ is
( \
Ġa nd
{ \
s e
s i
in g
} \
m e
v e
i c
h a
Ġ b
) $
h e
Ġt o
Ġ e
ma th
o l
en d
i t
Ġth at
Ġ n
s u
Ġ (
c e
Ġ d
Ġ Ċ
o t
ra c
ĠĠ ĠĠ
m p
re f
} $
g in
Ġf or
be gin
u a
f t
l y
, \
a n
Ġw e
_{ \
ig h
_ 1
f rac
v er
l o
Ġ re
\ end
Ġc on
\ begin
Ġ g
$ .
} {
en t
Ġ T
s t
m b
l l
c al
i te
Ġ =
c t
o u
e d
$ ,
Ġ be
Ġ u
c tion
r igh
Ġ &
Ġ on
c h
i th
g a
) \
Ġ i
} }
r i
m ma
e t
p h
h o
Ġp ro
m u
Ġs u
ua tion
Ġ\ c
Ġ de
righ t
Ġa n
eq uation
le ft
Ġc o
d ot
Ġb y
Ġa s
\ in
_ 2
Ġw ith
d a
} )
be l
o re
_ 0
} (
Ġ m
la bel
in e
g e
p ha
^{ \
p p
Ġ ha
Ġ\ in
^ 2
al pha
} ,
Ġ ma
e ta
i m
_ i
Ġ I
= \
t o
Ġ -
Ġ 1
_ \
Ġe x
mb da
math b
b le
math cal
Ġ S
Ġ 0
Ġa re
te d
- \
Ġ L
Ġ +
i r
p si
Ġ v
lo w
ti m
i v
o m
t er
$ $
re s
ĠĠ Ġ
Ġ A
p ro
l ine
o f
ĠT he
d u
te x
l ta
} .
p a
la mbda
t s
u r
o me
u s
p er
ig n
_ n
le q
u n
i f
ph i
Ġ C
Ġw h
) }
eq u
e c
tim es
Ġa l
} ^
Ġ it
ig ma
Ġ F
Ġth is
he re
dot s
* }
it y
^{ -
a s
la r
ti al
Ġ h
W e
q ua
t r
ti ve
T he
} _
l on
su m
tion s
+ \
ft y
ra n
mp le
f in
Ġc an
$ \
Ġ\c ite
Ġp o
ti c
b ig
al ign
Ġha ve
d s
su b
mathb b
en ce
ĠĠĠĠ ĠĠĠĠ
u p
i l
$ -
Ġ B
^ \
ro m
ic h
ti l
\ c
u t
Ġ 2
Ġ H
f or
p i
Ġ\ frac
in t
tex t
ore m
Ġ\ ref
Ġ (\
d i
v ar
t ri
Ġ x
eq ref
til de
Ġo r
ol low
o w
Ġs e
x i
} ^{
~ \
ta r
| \
se t
be ta
ĠT h
si on
Ġi f
p ar
d er
Ġ P
Ġ\ \
m ent
Ġf ollow
s igma
o te
} _{
a b
psi lon
\ }
i de
Ġ M
r m
a tion
ga mma
i z
u re
Ġf rom
th eta
ta u
ro w
i d
un ction
in fty
_ k
Ġa t
Ġs a
r ho
Ġ le
) ,
a te
qua d
c o
g le
n t
Ġ me
en er
p o
Ġa ll
de lta
)$ .
h at
Ġwh ich
_ j
th e
a se
} {\
Ġ [
i e
Ġsu ch
e ll
} (\
n e
Ġthe n
D e
Ġ R
Ġ$ (
) .
Ġs et
th er
Ġ\ eqref
o ver
Ġ k
Ġ l
Ġf unction
\ \
ou nd
s o
) =
^ *
q u
i es
a ct
s s
par tial
Ġco mp
Ġ N
ta in
m s
c k
Ġp a
o de
p e
pa ce
Ġ y
ite m
al l
\ right
b ar
p l
Ġ {\
u m
G a
Ġn ot
ho w
Ġu n
Ġd is
ra y
Ġsu b
o d
Ġo b
c es
Ġ E
\ |
a p
)$ ,
e x
b f
\ left
\ n
i a
p s
a nd
a ch
ome ga
i ll
g eq
pro of
0 0
}$ .
mathb f
mb er
s ta
ar ray
Ġthe re
t y
i al
me ga
se ction
O mega
or m
Ġs ta
m in
Ġ G
c on
Ġan y
Ġ We
Ġde fin
Ġa pp
tar row
f f
u mber
i an
Ġ\ n
Ġg ener
Ġon e
y s
_ t
si tion
Ga mma
in ce
Ġp ar
ro up
Ġ {
a re
e re
r u
Ġ\ left
Ġ D
T h
l u
h i
Ġf in
u lar
\ ,
r t
g ra
b ra
l d
Ġha s
ol u
m o
ĉ ĉ
tri x
}$ ,
Ġw here
w o
ou s
d ing
Ġb ound
Ġg iv
Ġ\ leq
] {
or ph
s q
s c
L et
s f
De lta
Ġu s
Ġ X
\ label
^{ (
se d
righ tarrow
Ġ\ right
if f
tr ic
u l
var phi
ĠI n
su l
w ide
Ġs how
_ 3
Ġ r
\ [
I n
Ġ }
Ġc ase
al ly
sq rt
re e
k e
e psilon
Ġfollow ing
Ġre sul
Ġn e
at or
ct or
ir c
) )
2 }
Ġs ome
b o
l dots
Ġ equ
Ġn on
ta tion
u nd
t ing
Ġd en
Ġt wo
p ec
) ^
Ġ z
\ sub
& \
o times
1 }
a pp
en sion
f ig
Ġ\ ,
ir st
Ġ lo
\ {
Ġw ill
B ig
over line
n u
Ġ ra
Ġ K
Ġcon t
ver y
eq n
Ġex is
o g
w here
} [
e mp
w e
a d
Ġal so
Ġin te
\ leq
la n
c c
2 0
re d
math rm
Ġ 3
Ġe ach
Ġn o
al u
\ item
p res
Ġ\ label
ge bra
Ġon ly
^ n
} }\
ab la
\ ]
mp l
Ġs o
Ġd o
o se
Ġ\ sum
ol ds
v are
Ġ V
ĠThe orem
Ġ W
l im
Ġfollow s
_{ 1}
e mma
i p
vare psilon
po sition
Ġgiv en
Ġd iff
a m
^ 1
p on
ĠTh en
1 2
Ġa r
Ġc la
L a
Ġ mu
Ġ U
si der
orph is
ĠL et
Ġm o
[ \
Ġs pace
} _{\
Ġco mple
i tion
Ġ |
) =\
p t
Ġ :
a st
Ġ j
_ s
c lu
Ġob tain
Ġn umber
i x
Ġg roup
Ġa d
f ra
a u
j e
di tion
Ġpro of
1 0
Ġc or
o th
ic al
ar y
es s
Ġc ha
P hi
Ġre s
g or
ĠĠ Ċ
Ġle t
al ity
Ġ ver
ti sf
a mple
Ġ\ end
lo g
Ġ\ to
} ^{\
Ġf irst
_ m
per ator
Ġas su
\ frac
Ġ equation
Ġin ter
line ar
_ p
Ġ O
Ġ\ begin
Ġg ra
on g
Ġ\ b
) (
ran gle
Ġs olu
im ension
v es
c dot
n ce
} ,\
fra k
du ce
La mbda
Ġ\ mathcal
is e
Ġe le
Ġsa tisf
Ġfor m
ĠF or
Ġv ar
Ġo ver
Ġ la
. .
Ġs i
y n
Ġ\ text
it s
Ġ ta
ti es
th m
ch i
ve ctor
p end
ĠTh is
Ġfin ite
\ to
} =
\ big
Ġ <
ar d
o p
Ġ\ big
lan gle
- -
app a
g h
Ġ\ Ġ
Ġt ran
ys te
k appa
le mma
Ġf act
Ġp er
F or
Ġ\in t
Ġse e
Ġ\ {
Ġpro ve
ĠL emma
Ġpo int
de f
) ^{
Ġ\ |
r k
eqn array
Ġre la
ma trix
Ġe very
Ġdefin ed
emp h
0 }
Ġdiff ere
Ġpro ble
Ġs t
ra w
ma in
il ity
st ru
) }\
Ġ es
b u
Ġt er
ff ic
le m
Ġs tr
S igma
orphis m
Ġ\ mathbb
um er
p la
s si
' s
Ġo ther
iz e
Ġor der
g es
pe ct
Ġ 4
wide tilde
ode l
ti me
s pace
z eta
mu la
le d
m all
ote s
ĠĠĠĠ ĠĠĠ
g er
Ġal gebra
_ r
math frak
ou ld
\ d
_{ 0}
equ ence
n ow
ent s
ment s
nd er
Ġwh en
s er
Ġcon sider
ti ma
Ġgener al
or k
Ġit s
Ġu se
' '
ol d
\ times
si m
ĠĠĠĠ Ġ
Ġpro per
le s
\ Ġ
Ġma p
Ġs yste
res pon
) ;
, -
te s
Ġo p
e ps
o x
er t
Ġ Y
1 1
Ġsa me
t en
Ġ$ (\
ĠP ro
f ine
ĠĠĠĠĠĠĠĠ ĠĠĠĠĠĠĠĠ
ra me
er o
c ite
a y
Ġun i
Ġexis ts
Ġ\ d
a su
igh t
ĠI f
r al
in ts
Ġ ,
\ b
se c
Ġ vector
}) .
Ġus ing
ou t
Ġo ur
n }
bo ve
} )$
Ġo perator
c re
ri me
ol og
Ġa bove
| ^
ou r
a k
ti cal
Ġ\ emph
Ġv alu
y m
ma n
p ut
ct ure
_{ 2}
Ġ\ le
\ geq
as es
i re
in u
l ti
} ;
ma rk
iv al
d en
clu de
v i
i }
Ġcor respon
] $
ffic i
c or
Ġ q
Ġtran s
^ 3
Ġb ut
Ġapp ro
Ġthe se
Ġ\ times
in d
Ġresul t
ref ore
l i
Ġ en
Ġp re
Ġin de
_ x
gra ph
Ġproble m
the orem
Ġ\ quad
pro p
co mp
Ġpar tic
Ġ\ geq
Ġ >
Ġu nder
Ġp ol
ent er
v en
/ \
Ġbe t
q quad
si tive
Ġre pres
Ġgra ph
Ġma n
Ġ qu
Ġcon sta
on d
Ġ J
Ġm odel
or d
Ġ ho
tri bu
Ġ time
n abla
ti t
sc ri
a ted
ver t
ve c
Ġc lo
p m
Ġre g
Ġma trix
w h
id th
m m
Ġme asu
] \
Ġu p
P ro
Ġsolu tion
_ c
Ġes tima
^{ 2}
Ġs ince
om ial
Ġ\ sub
Ġfunction s
Ġc ho
} -
s ing
_{ i}
Ġc ur
) -
Ġ\c dot
Ġi mpl
\ pi
we en
\ text
Ġ Q
Ġ\ alpha
i i
. ,
Ġassu me
{ (
i ve
Ġde fine
Ġ linear
Ġm ore
Ġs h
] :
fig ure
Ġcon tain
s h
Ġcon dition
Ġc al
for ma
ie ld
Ġ Z
\ le
Ġse ction
e ction
_ d
var ian
1 9
Ġthe orem
T I
i j
Ġex ample
iz ation
Ġp res
Ġbet ween
}) ,
& =
wide hat
a ble
Ġden ote
} +
Ġex t
e m
a tions
y mb
Ġequ ival
Ġg et
Ġ ro
Ġan al
Ġcon stru
Ġresul ts
_ a
ymb ol
ma x
_ 4
r y
pl it
} =\
Ġma y
^ k
\sub section
} )\
Ġk now
Ġt ri
Ġ\ lambda
Ġ$ {\
de d
\ section
g u
mb ox
Ġmu lti
du ct
ĠI t
orm al
Ġcla ss
i lar
e e
le t
Ġsyste m
\c ap
Ġs equence
_ l
( -
pl us
_{ n}
\c dot
pp ose
p rime
d is
te q
tive ly
e ver
Ġcon ver
' $
fin ition
Ġpartic ular
u b
Ġlo cal
Ġcont inu
ic ation
Ġth an
on e
Ġcomp u
Th is
ic s
ta b
) }{
umer ate
Ġpo ints
1 3
c he
Ġfor mula
r f
) ]
Ġsta te
c m
v ing
or y
) ,\
Ġn ow
en umerate
se e
R e
I f
Ġm in
Ġpo sitive
r ic
V ert
Ġt y
Ġimpl ies
se teq
Ġstr u
lon g
Ġconsta nt
\ !
Ġc ol
Ġ qua
su p
w idth
ym me
im ilar
< \
Ġ\ mu
) |
) +
P si
gor ith
ec ond
duce d
$$ \
i b
}^ \
s k
1 5
om orphism
min us
\ mathcal
Ġin to
^ +
yn omial
Ġcomple x
und er
Ġe d
o plus
en tial
a c
Ġi den
i on
Ġrepres en
v al
Ġi mp
on umber
u d
Ġ$\ {
a me
or s
set minus
ia ble
Ġh olds
Ġ "
w ith
ĠA s
c irc
Th en
. }
Ġme an
Ġ& =
Ġ- -
Ġf ix
} }{
_ N
Ġ& \
; \
Ġme th
Ġa b
ĉ Ċ
ec tive
k }
Ġwe ll
. \
b ab
Ġ lar
Ġd imension
Ġd er
^ 0
qu e
ta ble
iz ed
\in t
\ mathbb
c i
Ġo ut
\ rangle
} }$
Ġ 5
Ġre al
t ro
Ġw r
i ed
Ġw as
for m
Ġ$ $
o v
ma p
pro d
rame ter
Ġin equ
st ra
ent ly
Ġbe c
Ġdis tribu
ĠPro position
is h
ol lar
Ġd ire
er s
\ s
Ġ ref
Ġbound ed
Ġ\ <
Ġh y
ollar y
ed ge
ĠS ince
1 4
Ġdefin ition
1 6
c u
}\ \
Ġpa per
o s
y c
A s
an t
Ġpol ynomial
{ -
Ġcon s
Ġb oth
st o
Ġs econd
Ġ\ h
b b
Ġdo es
Ġde g
Ġ\ R
a ck
ĠS ection
mo oth
Ġ te
ex t
Ġ .
ĠB y
\ lim
fin ite
Ġ\c ap
\d raw
Ġco m
_ h
\ sum
be d
ate gor
Ġ `
Ġz ero
: \
} ]
Ġ )
c ha
Ġd u
\ alpha
st y
rac ter
\ mu
Ġpro duct
n g
c ol
Ġpro bab
} |
Ġiden ti
olog y
B y
C on
^{ -\
sty le
Ġcorrespon ding
is t
Ġu sed
_ +
Ġ\ m
ces s
im al
Ġf ield
nd om
la tion
Ġ\ (
Ġ\in fty
) }$
_{ (
: =
d imension
} +\
Ġexis t
Ġ- \
Ġw ork
ne l
en g
\ h
v alu
au se
Ġvar iable
ex p
~ $
Ġ\ otimes
Ġter ms
Ġl im
ur ther
gorith m
l f
a si
b it
l ic
o k
Ġ right
Ġ$ [
Ġs mall
Ġa u
n ot
in c
olds ymbol
b m
Ġd ia
Ġn ode
pa ces
^ i
Ġmeasu re
Ġsatisf y
di tions
_ e
Ġ\ Big
c us
$ }
\ otimes
Ġ\ ar
c ia
Ġ\ phi
ig en
je ct
: =\
w edge
equ iv
sc r
I t
g roup
Ġ: =
ou gh
Ġstru cture
Ġpa ir
Ġs ing
Ġcontinu ous
Ġ\ delta
Ġne ed
du ction
wh ich
s plit
Ġpa rameter
Ġde pend
_ f
Ġ\ beta
_ *
Ġde scri
\n o
Ġi de
Ġra ndom
g ral
Ġ\ pi
varian t
p ic
Ġ\ ldots
a ce
Ġ he
p re
Ġ\ s
) _{
orph ic
Ġ$ |
ne w
S ince
Ġ\ sigma
Ġdiffere nt
Ġmo du
cal l
Ġas so
Ġ\ }
} -\
n ec
c dots
d d
xi ma
) ^{\
2 5
g y
w ise
j ective
Ġcha racter
u ll
_ b
te p
Ġty pe
Ġinequ ality
Ġele ment
R E
Ġbound ary
) {
tion al
item ize
ind ent
or t
_{ k}
Ġy ou
in ate
u ppose
eng th
P i
Ġres pect
Ġcon ditions
Ġ\ tilde
pl ic
z e
1 8
om orphic
\ <
ie l
ĠTh us
Ġin tro
Ġs ymme
_ T
d ic
at ur
Ġs ol
}} (
v ial
si ty
forma tion
Ġde ter
Ġs pec
_ X
o int
Ġfin d
Ġcomp act
j }
n er
Ġ 6
pec tively
Ġcha n
a ta
vi ous
Ġs mooth
Ġthe ory
w er
^ d
map sto
Ġclo sed
ti ce
Ġsatisf ies
Ġ\ ;
\ v
Ġprobab ility
a g
Ġinte ger
_ A
ore over
in k
Ġele ments
Ġw ould
for all
Ġcomp on
' (
Ġp la
d x
Ġ\ gamma
Ġh ence
Ġequ al
Ġ\sub set
\ lambda
Ġ |\
Ġ( -
ve d
The orem
c ap
Ġ\ rightarrow
Ġex act
L E
The ta
o ta
Ġ how
} _\
Ġ\ rho
i ly
ic e
ol on
Ġg e
Ġl i
iel ds
Ġop tim
n i
Ġre st
en s
Ġvalu e
bo x
u gh
tic es
Ġe igen
' \
Ġs imilar
Ġho m
if orm
\ theta
on al
}\ ,
Ġ left
cia ted
Ġpo ssi
Ġobtain ed
Ġob ser
c up
) ^{-
ĠR e
pend ent
) }(
Ġsi mple
g ence
| _{
re mark
Ġfix ed
pla y
ĠC on
Ġto p
Ġlar ge
Ġassu mp
dimension al
Ġ\ C
ord inate
Ġ\ tau
si de
m i
mo du
\ ge
nec ted
Ġ end
}^{ (
\ be
Ġthe ir
Ġuni que
Ġpro cess
\sub set
^ s
2 00
1 7
n ti
mu m
\ rightarrow
\ Big
Ġ\ theta
v ide
Ġgiv es
pa ra
e ffici
\no indent
s tar
_ q
. $
Ġinte gral
ul let
ta tions
at ure
Ġapp ly
_ v
le ar
b y
a tive
Ġ\ tex
c enter
O N
^ 4
Ġdeg ree
Ġw ho
Ġpar t
$ )
ve x
Ġar gu
er r
Ġs p
math scr
Ġg o
ase d
de finition
Ġappro xima
E S
Ġa ction
Ġmeth od
je ction
Ġequation s
' _
Ġproper ty
= (
Ġlim it
_{ j}
Ġ ran
Ġw ay
\lim its
as is
Ġme tric
Ġd ata
Ġter m
s la
Ġcal led
Ġthe y
Ġ\c dots
if old
Ġop en
Ġequival ent
Ġc ategor
Ġc ou
Ġ\ bar
Ġn atur
Ġha nd
pro position
Ġ\ partial
N ow
)\ ,
Ġsu pp
_ g
Ġ` `
Ġm on
^ -
ro ugh
graph ics
}} {\
l t
n s
) {\
_ R
clude graphics
Ġset s
Ġres pectively
tr y
Ġ\ psi
Ġre qu
Ġvalu es
P L
p matrix
Ġ\ mathbf
T o
Ġth us
t ure
Ġmo st
w ork
Ġe ven
Ġsta nd
)$ -
Ġs paces
Ġf am
to m
ow ever
Ġbe en
g en
o sition
emp ty
c ases
Ġcom mu
Ġasso ciated
Ġbec ause
Ġ\ sqrt
Ġn ormal
Ġs ign
)\ \
\ sigma
Ġex pres
f ill
Ġsu m
ti v
\ put
\ ;
al gebra
ver se
at ing
Ġ low
Ġle mma
Ġmu st
Ġ\ hat
is tic
mb in
Ġsolu tions
Ġpro vide
Ġ De
\ beta
Ġ }\
Ġdistribu tion
Ġ\ dots
t t
Ġpa th
\ m
) )$
Ġta k
Ġco effici
Ġma in
b oldsymbol
under line
h en
c y
Ġ\ l
Ġ\ S
ve l
\ phi
Ġ\ rangle
n ess
^ m
i tial
Ġed ge
Ġt ra
ĠF ig
& &
Ġver tex
Ġproper ties
^ p
ĠH ence
rac t
Ġ\ eta
Ġh igh
to p
Ġ\ xi
Ġ\ omega
e l
Ġwr ite
Ġ line
c l
Ġver tices
Ġ\ v
Ġ\ Omega
' ,
Ġcomple te
Ġc irc
Ġa cc
)} {\
_{ -
Ġshow s
Ġ\ qquad
Ġ\n abla
Ġdeter min
$ (
Ġcla ssi
he d
Ġ\ Delta
E x
align ed
Ġ\ overline
^ t
sk ip
Ġs ide
Ġ\ item
Ġsu rf
Ġhy per
) -\
Ġv otes
y mp
ic k
Ġrest ric
Ġder iv
Ġre c
man n
PL Y
RE PLY
^ T
b ility
\in fty
\ tau
i le
u st
2 2
) /
u res
Ġsa y
N ote
Ġvar i
TI ON
d t
Ġun iform
olu tion
Q U
\ e
Ġth ree
ver s
Ġle ast
b ound
Ġ here
th at
Ġs cal
Ġinde pendent
Ġd iv
Ġ+ \
Ġa ct
ith er
Ġ\ ge
Ġ _{
al s
Ġb asis
} :
gra m
n tial
Ġal gorithm
Ġl ength
Ġma x
Ġs che
TI T
ĠThe refore
Ġman y
Ġcon nected
Ġla t
r r
ing s
ener gy
ES TION
QU ESTION
h y
TIT LE
v otes
Ġup votes
de g
Ġs er
t }
p r
ĠS o
) )\
Ġ\ varphi
\ R
Ġrepresen tation
) +\
\ vert
_ u
b ullet
la t
Ġsub set
Ġwe ak
pp er
Ġi ma
e ar
ho m
Ġpossi ble
Ġconstru ction
Ġappro ach
Ġs tar
j oint
m on
Ġsub group
Ġin finite
Ġgener ated
Ġdo main
Ġestima te
Ġstand ard
c ted
ta n
o b
e ct
Ġg ive
Ġgroup s
. $$
_ S
Ġma ps
ud y
\ rho
\ gamma
2 3
] ,
) _
Ġ\ Gamma
Ġnatur al
f ul
an gle
_ M
3 }
\ )
ta nce
Ġab out
Ġ\c irc
\ l
Ġst ra
su me
ĠĠĠĠ ĠĠ
ie w
Ġin itial
Ġco ordinate
\c irc
2 1
d im
~ $\
es tion
Ġshow n
Ġb und
[ (
Ġn ote
ga tive
e f
Ġreg ular
n ote
a ge
ĠT o
Ġc ases
Ġ= \
$ ;
Ġc yc
n orm
Ġdis cus
Ġle a
is ts
t in
Ġb i
le ss
iv en
Ġcont ra
_ L
, $
s te
o ther
Ġdire ct
E E
Ġth rough
\ r
ome tric
Ġ\ log
w a
Ġa m
\n eq
Ġt ru
\ delta
lo or
Ġde comp
ga in
mma nd
o ot
t al
Ġst udy
Ġ err
ft er
m is
Ġta ke
Ġis omorphism
sta ck
bit ra
re st
Ġcontain s
Ġknow n
~ ~
z ero
orphis ms
\ f
Ġli ke
2 4
un ctor
x y
Ġext ension
} ^{-
Ġne w
s p
Ġvariable s
Ġs pect
ĠN ote
Ġsu ffici
d f
i ties
Ġcon vex
Ġre main
,\ ,
n ing
^ j
ve lo
yn am
t on
_ 5
Ġ\ langle
Ġmean s
Ġoperator s
Ġwho se
Ġsi mpl
Ġex p
_ G
\ sqrt
ymp to
lo ck
Ġob ject
re m
Ġs en
igh b
k s
Ġp ri
tric es
Ġconver gence
c om
_ o
c ise
he ck
or ollary
es t
Ġbe low
la ck
Ġ\ ]
Ġ\ mbox
Ġla st
Ġar bitra
mo st
e p
Ġf ree
ro und
in ally
\ quad
ic ally
qua re
Ġcategor y
Ġ\ r
\ langle
_ K
cre te
Ġe m
si ze
_ -
Ġno tation
Ġad dition
o ted
Ġfam ily
Ġstr ong
ab s
7 5
Ġcont ro
\ xi
ter n
L emma
Ġ 8
Ġ energy
clu sion
Th us
\ '
\ Vert
k er
d o
Ġ\n u
C o
Ġtru e
ĠM oreover
ti k
s mall
Ġcur ve
Ġ1 0
Ġsymme tric
Ġinte gra
n ame
ĠA l
col or
Ġsub s
Ġfact or
Ġcon clude
Ġeigen valu
ve e
Ġassump tion
] $.
en ted
Ġin cre
s in
Ġ\ f
Pro of
3 0
Ġs ize
\ "
k ip
a ti
\cap tion
plic it
Ġe v
Ġbe ing
play style
Ġe ither
p le
s on
s ign
si an
\n ode
Ġ\n eq
Ġprove d
\ omega
t or
Ġpre vious
Ġwh at
Ġ\tex tit
e ed
en ces
ĠH owever
Ġ ent
o perator
Ġro ot
i ota
}} }
math sf
\ psi
\ eta
( (
w ard
tar y
lo b
Ġrela tion
Ġnumber s
i od
,\ \
Ġin variant
Ġn orm
ys is
ar row
Ġsatisfy ing
Ġanal y
\ new
b s
Ġ\ t
tik z
\ partial
al le
\c ite
o ds
o id
as ing
sub set
I I
Ġ 7
Ġ\ mathrm
ĠL ie
Ġs tep
_ B
ly ing
}$ -
Ġco mbin
Ġi r
Ġtri vial
st ract
_ y
k et
Ġcal cu
Ġinter val
Ġal low
Ġa c
Ġpo wer
Ġma trices
le ction
Ġ\ epsilon
an g
Ġlow er
Ġsh ould
} )$.
ig in
^ N
& =\
\ setminus
t ra
' )
Ġ very
m ore
Ġj ust
s tic
Ġin v
s cal
oot note
) --
ĉĉ ĉĉ
Ġargu ment
Ġ\ ell
Ġ\sub seteq
olog ical
es e
Ġ\c up
Ġn et
) },
Ġqu estion
\ Omega
P P
A n
re du
Ġc lear
t ur
pic ture
m c
^* \
Ġthe refore
Ġwh ile
Ġcontro l
Ġ /
empty set
Ġman ifold
Ġran k
Ġun it
Ġn ec
$ };
\ varphi
Ġw a
Ġidenti ty
] $,
ci ble
Ġne ighb
Ġerr or
' }
c la
\ tilde
Ġ\n onumber
Ġsurf ace
Ġf unctor
Ġed ges
Ġdiffere ntial
si c
' t
Ġser ies
modu le
ta tive
_{ t}
| ^{
if ied
tr m
Ġset ting
Ġu pper
um n
Ġsen se
Ġw or
Ġinde x
Ġcoeffici ents
Ġthe m
}} (\
Ġc h
Ġra te
Ġden otes
inc ip
\n u
re g
Ġ\ Phi
u ra
su re
it er
{ }
\ bar
en tation
}} ,
b ol
Ġ\ g
= -
{ {\
^* $
nt um
Ġcirc le
( {\
Ġem bed
Ġcor re
C C
Ġf a
Ġcon ne
b matrix
ro p
}^ *
00 0
Ġidenti f
Ġ\ Z
\ Delta
Ġn ext
\n abla
Ġex pon
S uppose
Ġoptim al
Ġb ased
in f
$ ).
Ġal ong
9 9
Ġt or
. ~
Ġspec ial
co mmand
Ġpro jection
Ġexpres sion
du ces
Ġcon stra
Ġas ympto
}{ (
Ġen ough
D E
Ġcho ice
Ġex plicit
Ġnec ess
Ġsyste ms
Ġarbitra ry
pp ing
Ġbund le
Ġpar ti
de t
Ġexist ence
\ ee
l in
Ġp r
ow n
Ġpro po
an ish
Ġde ta
Ġcompon ent
Ġe mp
m it
Ġco de
w t
Ġor igin
th es
Ġ\ E
re l
or ding
Ġit er
\h line
me ds
n ts
j u
Ġc heck
Ġf urther
tical ly
Ġder ive
_ I
{ $
Ġ\text bf
Ġdis tance
long rightarrow
as y
c ing
per p
me d
^* (
in om
Ġin sta
0 5
ex ample
+ (
ĠĠĠĠĠĠĠĠ ĠĠĠ
Ġn umer
Ġre a
er tain
meds kip
tab ular
n on
r on
}$ $
f unction
if y
ro ss
Ġre pla
Ġconstru ct
m }
) }}
Ġy ields
Ġpre cise
[ -
Ġcho ose
redu cible
Ġr ing
A l
) })
ĠS uppose
$ :
Ġanal ysis
ru le
Ġqua nti
c a
er nel
on ical
Ġima ge
, ..
Ġ\d raw
ens or
_ z
il s
Ġ{ $
enter ing
4 5
Ġth ose
ĠFig ure
3 3
\c up
Ġnet work
9 0
Ġcla im
Ġparameter s
_ F
^ r
\c olon
Ġclassi cal
H om
tiv ity
Ġor th
bol ic
H ence
Ġ\ [
Ġwith out
ot ential
Ġsi mp
Ġide al
Ġmax imal
ot op
ĠA n
co s
je cture
text bf
Ġd ynam
Ġcontra dic
Ġf e
Ġ *
Ġ\ N
th or
me di
The refore
s en
Ġdia gram
m es
ad y
Ġa gain
Ġ$ |\
it ten
Ġ quad
an ce
\ mathbf
si ve
3 2
o is
ge ther
4 0
_ w
Ġle vel
Ġgraph s
) ^\
app ro
Ġcompon ents
Ġh old
bra ce
ĠN ow
nd eed
l er
mo gen
Ġ\ Lambda
Ġrela tions
Ġsu r
_{ 3}
_ P
Ġstate ment
Ġequival ence
wa ys
Ġ$ -
] }
la ri
Ġrequ i
Ġsche me
Ġpres ent
da g
Ġmin imal
operator name
| _
Ġin duced
or der
Ġd x
_ C
_ H
) :
tab l
Ġe asi
ta nt
n onumber
Ġk ernel
o ti
Ġv ia
cor ollary
th en
Ġm orphism
Ġf low
d iv
Ġsing ular
Ġdu e
^{ n}
Ġcompu te
lob al
Ġe asy
ĠThe re
}} _{
er g
ma tic
t u
Ġcompu tation
Ġext end
ĠM a
se ts
if ic
Ġdecomp osition
b lack
\sub seteq
ab stract
0 1
Ġchan nel
medi ate
Ġproble ms
Ġe ff
qu en
Ġre call
s }
Ġalgebra ic
sim eq
Ġdu al
Ġpro ce
Ġin formation
3 5
Ga us
Ġdire ction
d iff
con t
Ġden sity
Ġ[ \
Ġ\ lim
side red
Ġv iew
g ener
Ġpr incip
tric t
ĠE q
Ġ$ $\
Ġma ke
Ġf ib
6 0
scal e
\ Gamma
il b
Ġse para
Ġlocal ly
^{ *
Ġimp or
Ġvector s
Ġdiv is
_ 6
Ġc ould
mu lt
Ġ\ widetilde
\in cludegraphics
la ted
Ġc ertain
ĠC orollary
sla nt
Ġexact ly
Ġal ways
urther more
ere nce
hi ft
\ hat
in ter
Ġa ff
Ġes tabl
^{ (\
Ġ\ chi
Ġanal og
Ġsu per
E q
g l
Ġmeth ods
Ġ\ setminus
Ġwe re
Ġinte rest
Ġwe ight
Ġco ver
b ack
Ġir reducible
Ġqua ntum
ar t
Ġb lock
Ġo dd
Ġin dic
Ġsu ppose
ti f
ĉĉ ĉ
Ġte ch
bel ian
H ere
} )$,
Ġclass es
Ġs equ
Ġpolynomial s
de fin
] (
\ medskip
mogen e
co mple
Ġver sion
al f
Ġden oted
c ity
ome try
\ S
an sion
\ ref
Ġbound s
Ġcon sidered
Ġdis crete
| _{\
S o
Ġsing le
Ġlo g
i or
Ġs trict
Ġal most
Ġsta tes
he a
Ġ( $
Ġf ound
Ġ\ B
Ġt ur
\ def
t ran
n o
a ction
Ġcou n
p }
ĠĠĠĠ Ċ
Ġo per
z ation
scri pt
ju ga
Ġestima tes
Ġ$ .
Ġalgebra s
Pro position
Ġis omorphic
Ġrela ted
. ~\
) (\
ri tical
asi c
\ log
Ġ\ varepsilon
ĠĠĠĠĠĠĠĠĠĠĠĠĠĠĠĠ ĠĠĠĠĠĠĠĠĠĠĠĠĠĠĠĠ
_ E
ĠĠ ĠĊ
al g
ar p
Ġmodel s
c ou
su mp
du al
n eq
g r
Ġv al
u e
) >
Ġra di
ate s
ti ll
Ġper iod
Ġa fter
Ġ\ prod
Ġt ensor
Ġp otential
Ġpar tial
2 7
tit le
}{ |
F rom
Ġto tal
Ġp rime
p tion
Ġcan onical
}} _
po int
5 0
=\ {
i mum
Ġapp ear
Ġ$\ {\
Ġ\ sup
)} _{
tri vial
ri er
ĠĠĠĠĠĠĠĠ Ġ
Ġ\ forall
le v
Ġapproxima tion
\ overline
re es
Ġcan not
Ġ row
Ġqua si
Ġv anish
)-- (
sta nd
or ted
_ D
A C
Ġchan ge
Ġan s
ĠE x
i er
G L
Ġ1 2
^{ 1}
si ble
l n
Ġintro duce
Ġm om
Ġst u
ĠC o
ĠL e
m id
it z
ie mann
Ġasympto tic
po thes
in ary
Ġbe ha
\v space
Ġsh all
Ġbe long
d y
Ġu su
Ġc a
Ġ\ e
Ġinter section
} /
b i
Ġdescri bed
Ġgener ator
Ġ\ P
\ N
Ġm od
et y
Ġ 9
ment al
mogene ous
c d
er n
Ġcoordinate s
res s
\ ell
n ormal
ar ch
ste ad
\ qquad
Ġf rame
Ġ\ oplus
Ġcontain ed
^ c
st er
c lo
Ġ$ ,
om in
Ġequ ality
xi mum
Ġ\m id
end ix
&= &
Ġc all
Ġcharacter istic
Ġ\h line
Ġ\ mapsto
Ġparti tion
cha n
g onal
Ġto gether
re at
Ġo cc
Ġimpor tant
Ġ\c olon
ma ke
in es
Ġwe igh
Ġeasi ly
if olds
Ġexample s
Ġcha in
Ġreg ion
Ġex pec
Ġra tional
ilb ert
Ġf ields
ĠB ut
hom ology
Ġs te
tikz picture
Ġte st
ri d
)} _
Ġ\ Sigma
i ver
lu e
su ch
oti ent
e y
ho od
s a
Ġcur ves
il ton
og onal
m od
Ġcon c
Con sider
Ġconne ction
Ġuniform ly
Ġi m
\ C
I nt
velo p
Ġ\ L
und a
def n
c yc
p ri
( -\
Ġf our
as on
sla sh
Ġ Gaus
var theta
sub section
Ġs till
t frac
Ġref er
Ġge ometric
2 8
l p
Ġs to
ll ip
Ġmin im
u ally
ha n
S S
di ent
} '
\ Z
ra tic
Ġex ce
( [
Ġtak ing
ch o
Ġobser v
Ġo ri
U sing
lo cal
Ġpol y
otop y
Ġs quare
st r
k es
Ġ\ kappa
k ov
\ mbox
Ġf ull
\n ot
O n
Ġsuffici ently
\ Phi
la tions
Ġb ack
\ wedge
M oreover
Ġ\ x
\new command
ma t
Ġc ent
Ġin verse
ch ie
mult line
res p
se ct
\c dots
Ġ ..
Ġ\ p
ne gative
dis playstyle
Ġrepla ce
,.. .,
{ |
re nt
ra ble
Ġab s
Ġan other
Ġpres er
ar is
Ġintro duced
R R
Ġcon ven
unda mental
Ġ\ !
T here
}) =
in de
/ (
Ġ\c ong
c ur
vers al
\ p
alle l
Ġnumer ical
)} (\
Ġembed ding
f ore
a x
Ġsub space
Ġfor ms
Ġ\ wedge
\ ps
Ġ\ exp
imilar ly
c f
Ġsta ble
ĠH ere
\ mathrm
Ġneighb or
Ġexp ansion
) }.
en tion
3 4
v ature
ol omorphic
}[ \
Ġpropo sed
Ġstu di
\ mapsto
Ġin f
\text width
Ġinv ol
big g
Ġmulti pl
Ġma ximum
Ġb ase
Ġdia gonal
} |\
ri es
am ilton
_ Y
ga ther
Ġ times
pec ial
Ġapp l
Ġconver ges
Ġa chie
Ġse m
F ig
appro x
_{ [
uation s
ĠO n
Ġdescri be
Ġs plit
Ġ\ mathfrak
} &
Ġim mediate
Ġlat tice
Ġsimp ly
Ġ\ zeta
k now
tex trm
ess ential
Ġad d
pa ge
Ġ\ widehat
Ġre ason
Ġsupp ort
_{ m}
Ġ\ over
ct ures
x }
Ġwor ds
\ over
Ġgeneral ized
Ġa ver
r }
{ $\
Ġ\ D
Ġfinite ly
Ġeigenvalu es
)$ $
ĠA pp
Ġtop ology
Ġsa mple
Ġma t
}) }
Ġ\c ref
igh tarrow
Ġf il
e v
)= (
Ġprecise ly
li ed
2 6
Ġ\ equiv
Ġde c
Ġper mu
Ġwr itten
Ġinsta nce
Ġderiv ative
re ady
Ġn ame
Ġs ymbol
Ġb all
Ġpro jective
in variant
p df
Ġhy pothes
Ġcon juga
Ġp ha
Ġcons equence
Ġt ree
in ed
circ le
b x
Ġcho sen
Ġtop ological
A T
ta g
) |\
9 8
| =
w r
| $
con g
te ly
par t
Ġbeha vi
Ġinteger s
Ġ }{
ut ing
z ed
Ġcontradic tion
d frac
ble m
Ġ$\ |
Ġdetermin ed
iz ing
ĠR iemann
Ġl ink
c at
a ces
as s
Ġde si
Ġcorrespon d
\n onumber
' _{
ou ble
Ġspect ral
Ġ\ max
Ġ\n orm
ten ded
Ġclo se
tit u
S E
F inally
al e
f ree
Ġdiffere nce
dag ger
] {\
}} ^{
] ^
Ġs ha
ĠL i
Ġdis tin
cu ment
Ġconsta nts
Ġlo ss
x x
> \
9 5
Ġ\n ode
i k
ii i
Ġt w
\ E
Ġ ,\
Ġrestric tion
] .
Ġg lobal
o si
Ġse lf
Ġal ready
lo c
Ġre duced
Ġobser ve
X i
Ġocc ur
ic ity
Ġpla ne
cha stic
Ġlo ok
p ol
Ġcorrespon ds
ĠI ndeed
se lf
Ġqu otient
Ġassump tions
Ġc ell
un c
Ġ â
Ġbe fore
Ġaff ine
\ oplus
Ġ\ F
\ equiv
stack rel
ch ing
Ġdepend s
- (
Ġde velop
Ġ\ vert
g et
ode sic
is ion
om orphisms
Ġin duction
la te
}\ |
ide s
}\ ,\
\ Lambda
sub seteq
Ġco mm
do cument
ce il
Ġtri angle
Ġexpon ential
n ces
ĉĉ Ċ
| }
Ġw ant
c tic
sump tion
ver al
\m id
_{ s}
Ġuni on
) _{\
ian t
c an
Ġle ss
Ġsatisf ied
Ġse mi
S ection
4 }
ĠF rom
v a
0 2
Ġrela tive
ĠS ch
Ġ\ A
se ud
{ {
ĠH ilbert
h space
rop y
on t
Ġc ar
Ġsu ffic
Ġne gative
Ġcur vature
y mple
Ġe llip
Ġau tom
p es
know n
^ q
\ epsilon
Ġ\n ot
ĠAs sume
Ġsol ve
Ġhigh er
is hed
g n
As sume
}} .
m en
). $$
ad d
Ġsupp orted
pre c
Ġquad ratic
Ġans wer
\c entering
d raw
Ġorth ogonal
Ġdistin ct
c r
in te
c ri
Ġf re
^ a
f ootnote
3 6
Ġrequ ire
ul t
Ġf undamental
Ġ essential
| |
Ġin clude
}) ^
Ġmin imum
Ġse en
Ġobject s
\ ar
le ct
Ġad j
Ġ&= &
Ġla w
Ġtrans form
g g
Ġsequ ences
Ġc ritical
8 0
lf loor
Ġmulti plic
Ġse veral
om es
de l
amilton ian
Ġde duce
rf loor
l ot
} }$.
1 00
ti ble
a in
Ġacc ording
valu ed
) :=\
var rho
Ġco homology
i o
Ġfunction al
Re call
9 6
{ (\
^{ +
Ġmu ch
Ġanaly tic
Ġma pping
Ġnecess ary
defin ed
u lari
ng ent
r d
\ B
G iven
ĠGaus sian
Ġdesi red
Ġre mark
ni ver
forma nce
$ ),
varian ce
ĠU sing
he ther
r um
ĠDe finition
}} ^
Ġin stead
big r
Ġa belian
ou nt
Ġpair s
E N
su pp
pa th
ha nd
ĠCon sider
fig ura
Ġ\ pm
\text bf
Ġb asic
Ġin ner
Ġbec omes
\sub subsection
Ġtrans formation
Ġm ention
Ġno tion
Ġ\big g
ou rier
Ġpha se
Ġcon jecture
ĠTh ese
ro duction
Ġdis joint
y ing
) }$.
) !
Ġco inc
ĠN o
ĠM ar
A pp
A B
or i
Ġapp lied
Ġl ines
m its
Ġdimension al
Ġdeta ils
0 4
ir d
Ġmeasu res
Ġstar t
g o
_ V
L L
Ġpa ra
' $.
Ġscal ar
Ġpro position
- $
r ing
Ġin ver
^{ k}
Ġ& &
Ġmom ent
Ġ\ T
Ġd one
Ġe val
: }
Ġsymme try
di ag
Ġstrict ly
rac tion
ymple ctic
Ġincre asing
li ke
Ġlat ter
Ġstudi ed
ota g
ul er
ex ists
Ġ long
Ġrequi red
H H
Ġs it
ty pe
] =
Ġvari ety
Ġsuffic es
S p
on s
N }
F irst
Ġw idth
con d
) )$.
Ġs hea
Ġremain s
M M
olu me
Ġ ~
Ġp hy
O m
ch itz
Ġmodu le
Ġ _{\
f ect
our ce
Ġunder stand
ss sim
L e
Ġcontain ing
Ġ$ {
Ġestabl ish
Ġapp lic
Ġw hether
Ġwa ve
_{ x}
s ymme
Ġho mogeneous
b il
Ġhe lp
da te
pp ed
ps chitz
Ġcomm on
Ġrepresen tations
Ġ\ Psi
k ing
9 7
m f
Ġob vious
b inom
Ġ\ I
Ġm y
Ġorigin al
\ chi
f rom
Ġcyc le
ĠN e
w ar
equ ently
Ġcons ists
Ġ2 0
3 1
b a
u sion
rac ket
c ategor
for ward
ĠRe mark
N o
00 00
re al
^* _
Ġgo od
O ne
Ġapply ing
Ġcol lection
sh arp
il d
Ġhom omorphism
Ġallow s
cre asing
q ed
th ing
= {
Ġtech ni
ran ge
_{ -\
i tions
Ġh olomorphic
c s
Ġ math
Ġ\b m
Ġge odesic
stru ction
) |^
ĠO ne
Ġmulti ple
Ġ ]
Ġusu al
^ b
Ġ\ Vert
iz es
Ġimp ro
Ġne ar
Ġre co
Ġsuffici ent
ar mon
* {
4 8
Ġdiscus sion
al ities
\be q
Ġnode s
Ġcomp are
Ġi ll
. )
Ġconstru cted
Ġ\ )
Ġex tended
Ġsub sets
,\ ,\
ĠW hen
) :=
sub stack
Ġex pla
b re
> \<
De finition
a a
Ġha ving
Ġin clusion
Ġper formance
ran g
ois son
Ġuse ful
\ eqref
Ġdirect ly
Ġsu mma
Ġma ss
ic es
ĠF urthermore
Ġform al
Ġco st
Ġrec ur
ati ves
ĠH amiltonian
y l
Ġpar ts
n a
modu les
Ġderive d
ix ed
S T
S L
ĠF irst
F F
6 5
0 3
Ġ\ sim
Ġcent ral
M P
ta te
Ġhom otopy
Ġc ross
th is
^ 5
* \
I N
Ġeigenvalu e
M R
^{ *}
Ġcoeffici ent
\ par
u stra
Ġclassi f
a v
= (\
, $$
Ġcon text
Ġneighbor hood
Ġ{ $\
Ġaddition al
ran k
Ġ\ vec
du c
au thor
i mpl
cont inu
Ġprovide d
b l
under set
Ġ\ min
in s
Ġstra te
_{ {\
c ase
p u
Ġinter pre
en ote
& &\
_{ p}
0 7
Ġpres ented
tur b
Ġproce du
Ġoptim ization
Ġcon figura
\ varepsilon
da p
Ġsto chastic
th ick
Ġgra dient
ack slash
b its
Ġdynam ics
Ġ label
re en
or iz
Ġcommu tative
cc cc
8 5
\s mall
\ widetilde
Ġstra ight
Ġin ves
S ch
] ^{
l ight
0 6
Ġg row
be s
Ġcorre ct
' )$
a h
Ġhyper bolic
per im
Ġ\s in
ĠU niver
\ t
Ġ{ };
l }
! \
Ġa round
tran s
sta ble
Ġact s
Ġstru ctures
Ġaver age
S et
h t
L i
Ġ ;
N ext
ĠF inally
gorith ms
} }$,
Ġellip tic
Ġlea ds
Ġdiffere nti
) [
Ġor bit
Ġhypothes is
Ġ$ [\
Ġ\ G
Ġsu i
Ġ begin
Ġad mits
_{ r}
mu lti
Ġother wise
Ġden se
ti ga
. \\
the re
ak ing
hi le
Ġhow ever
Ġon to
Ġy our
)} ^
cou n
ĠG iven
Ġide a
end s
w ay
_{ +
Ġth ink
form al
th ough
Ġre ce
ot ent
Ġcon tribu
Ġan gle
m ine
Ġc u
Ġnon linear
Ġman ifolds
5 5
Ġ\ M
ol umn
Ġcon e
\ zeta
tan gle
che ck
Ġabs olu
\ kappa
Ġsp an
te in
Ġent ries
Ġd ouble
A L
Ġge ometry
\big l
W hen
Ġf lat
ap la
Ġg en
ener ate
Ġin duces
ĠH a
O ur
Ġspect rum
un i
Ġinterest ing
Ġb ran
ĠĠĠĠĠĠĠĠ ĠĠĠĠĠĠĠ
c C
bound ed
Ġ\h space
seud o
_ 7
Ġal tern
la y
3 7
Ġh alf
Ġradi us
Ġname ly
Ġsi mula
\big g
Ġli ft
0 8
Ġa g
Ġcompu ted
Ġgener ic
) )=
Ġno ise
_ J
s es
c A
o graph
t wo
if ication
te red
T }
Ġf o
Ġcol umn
l tic
armon ic
i me
o sing
b ly
$. }
Ġimp ly
' $,
Ġde sign
u ch
Ġroot s
fin ity
xy matrix
tion ary
reg ular
aris on
) }$,
Int roduction
z z
ar ily
ar iant
-- --
is ting
Ġsa id
man ifold
Ġperiod ic
Ġdepend ing
\ sup
Ġfact ors
Ġtur n
qu es
Ġran ge
H owever
Ġf lu
M S
Ġta ngent
$ '
Ġste ps
Ġdefin es
Ġe t
}. $$
B bb
4 4
red ic
Ġ\ dot
Ġsh ort
Ġb o
Ġd t
f act
\ g
Ġill ustra
a co
] _{
Ġval id
k k
^{ [
mis sible
Ġpo sition
Ġth ird
is playstyle
\ D
Ġvari ation
u cl
_ Q
W ith
forma tions
^ l
che d
\ P
ĠF ourier
ua ran
d r
op en
Ġ ?
a }
Ġs ymplectic
Ġ rule
Ġmon ot
i bra
Ġmath e
men tary
$ (\
+ |
con dition
uaran te
ges t
is ted
ĠC h
3 8
de red
b ser
( |
). $
Ġuni versal
sum ing
^ x
Ġwith in
oriz on
tin y
Ġn or
ĠL ag
n ode
O O
ab ility
Ġprovide s
Ġpro ves
Ġ\cap tion
2 9
ic ial
Ġlar ger
ma il
Ġit self
Ġcyc lic
ch y
Ġdefin itions
\ make
Ġargu ments
je ctor
Ġb u
Ġprocedu re
_ U
), (
ĠC ar
Ġdescri ption
min i
dis play
Ġresul ting
Ġrepres ent
Ġappl ication
Ġeff ect
^ 6
si cal
Ġconstra ints
ore l
Ġ\ la
Ġre duction
Ġv olume
k a
Ġas ser
^* (\
matic s
lear ly
com mu
Ġinequ alities
, .
Ġ\ eps
Ġal gorithms
for ms
Ġ\in cludegraphics
Ġcomp osition
Th m
ĠMa the
\ ra
) <
Ġinves tiga
] ^{\
' (\
su rf
iz er
Ġg reat
Ġau to
ig roup
= .
Ġgenerator s
Ġdiff ic
Ġcon f
S O
Ġpath s
' m
au chy
\ Sigma
u al
6 4
Ġsmall er
Ġderiv atives
Ġcomplex ity
Ġmultipl ication
ten s
Ġdeter mine
Ġ\ cal
Ġ\c os
t w
yste m
)} =
Ġbehavi or
er m
our se
Ġsta bility
Ġstrong ly
Ġs pe
Ġfib er
cho ose
tex tit
Ġ @
Ġapplic ations
Ġ\d frac
Ġvari ous
Ġth ough
s ince
is ed
ĠAl so
T r
&= &\
line width
Ġsui table
tri angle
cla ss
\ /
B C
Ġcur rent
it ing
Ġg uarante
Ġ\b b
Ġt r
\ ne
}) =\
b erg
] _
Ġconstra int
Ġin jective
Ġe ffici
_{ (\
ti s
an ach
ous ly
Ġsurf aces
ucl ide
Ġprincip le
quen ess
l ength
Ġc enter
ĠW ith
s ol
\ author
uclide an
Ġsu re
_{ |
Ġtak es
Ġev ent
Ġimmediate ly
led ge
in ing
Ġtra ce
Ġsu g
ce ll
\ L
Ġre si
Ġm ight
Ġra ther
en cy
l m
clu ding
Ġ1 6
.. .
v iew
gener al
\ pm
Ġr un
Ġdistribu tions
Ġ\ emptyset
Ġ ^{
o ve
, (
j k
Ġtak en
i ds
il i
Ġgra ded
Ġp lan
Ġbelong s
th ors
A R
pha n
\f ootnote
rang ian
Ġc lu
Ġla ter
Ġp ut
or th
Ġnon zero
ĠP oisson
tic le
Ġexpec ted
Ġma rk
Ġrea der
Ġsit uation
o du
Ġinter sect
EE E
Ġvar ian
par ti
\make title
Ġc ard
i ma
= -\
A A
' }\
ran t
Ġd own
Ġnecess arily
Ġk ey
\e eq
b lue
Ġin put
}$ }
Ġma de
phan tom
Ġp at
}} ^{\
Ġframe work
Ġstar ting
Ġdivis or
Ġof f
ĠMar kov
Ġin finity
pa city
Ġ\ H
for med
Ġgener ating
Ġele ct
Ġmodu les
l us
Ġgener ality
Ġ\big l
Ġact ually
P S
Ġex perim
* *
ĠUniver sity
ĠRe call
Ġc ourse
Ġwork s
Ġinde ed
be q
}( -
Ġver ify
Ġp ur
au to
si tions
ĠS ub
ĠE uler
Ġf ace
ite d
Ġappro pri
Ġf ar
ĠO ur
_ 8
\ forall
9 4
Ġle ar
ro b
6 6
Ġent ropy
Ġsection s
e ded
Ġappropri ate
Ġf ul
Ġma kes
s l
b d
Co mp
mini page
\ widehat
display math
q }
Ġprocess es
}} )
Ġconven i
Ġa ble
ma tical
\ set
Ġ\ Pi
Ġre mo
da sh
\ emph
v an
se l
Ġclo sure
\s in
Ġsp in
of f
ĠTh at
ollow ing
Ġ\b oldsymbol
Ġassume d
con ver
Ġr ig
^{ 3}
' ,\
Ġproof s
re n
i la
Ġau thors
Ġ( $\
cc ording
il ib
m odel
ter s
ĠEx ample
' =
A d
ĠM ore
_ W
Ġemp ty
Ġp ure
ce pt
s equently
\ ldots
in v
c M
}) ^{
Ġ\ put
b r
Ġs c
Ġtor us
){ $
big cup
symme tric
Ġ\ ra
C D
Ġty pes
Ġper turb
L S
I m
ltic olumn
\ Psi
Ġ\le sssim
Ġpla ce
ilib ri
ha p
Ġregular ity
u de
var i
Ġre wr
Ġsign al
e g
pro duct
Ġl iter
Ġsp here
Ġcomplete ly
d }
Ġp redic
Ġhom ology
Ġau thor
algebra s
Ġd on
con vex
o sed
)\ |_{
Ġ\ ne
Ġcol or
p or
Ġpar allel
osi te
categor y
Ġweigh ts
re pres
comple x
ĠĠĠĠĠĠĠĠ ĠĠ
Ġd raw
0 9
comp act
n n
impl ies
Ġdimension s
Ġstraight forward
bser ve
Ġpla y
Ġl ies
Ġproduct s
d z
equ ival
Ġcomp ati
I T
~ (\
\ mathfrak
) ).
ĠLi pschitz
. \]
f r
Ġprincip al
' )\
_{ 4}
^ *}
Ġpermu tation
S U
s is
sk i
int ro
Ġexplicit ly
) ),
Ġdiscus sed
Ġuni tary
Ġstrate gy
Ġ '
Ġ velo
Ġd s
ti o
}} _{\
{ .
Ġ ti
^{ i}
sub figure
Ġta ble
Ġs hift
ph er
Ġcontinu ity
Ġsimilar ly
Ġi mple
^ h
Ġcon clusion
Ġas sign
Ġclear ly
Ġmo tion
Ġam ong
Ġwhen ever
cyc le
b old
Ġmention ed
Ġch ar
varian ts
Ġspec ific
H EN
Ġv is
\ x
c F
s quare
ĠL apla
g s
sub sec
\small skip
Ġfo cus
Ġcategor ies
Ġmeasu rable
big l
Ġrepresen ted
function s
H S
gu e
Ġ$\ |\
Ġh orizon
Ġfre quen
Ġconsider ing
}) _{
$ }}
col on
Ġ\ar @
v able
or ds
6 7
h }
8 8
Ġne eded
o mp
Ġse g
Ġsche mes
ow er
sta te
Ġs ource
Ġg au
id ing
ho ok
}} }\
C h
$ {\
Ġlo c
Ġinver tible
i mp
Ġproce ed
\big skip
Ġautom orphism
] )
m y
ĠPro of
Ġd y
_{ l}
it ude
_{ N}
T T
f a
Ġm ode
Ġwh y
less sim
Ġ\tex trm
Ġintegra tion
ab ove
q q
xi om
is m
Ġbet ter
Ġ }$
r iter
ve ct
\ add
la m
i ble
$ &
)\ ,\
4 7
ĠB orel
Ġof ten
ar ith
Ġcommu n
it t
is ing
ie ties
Ġm orphisms
Ġor d
Ġweak ly
Ġsol ving
C T
}} =
C P
\ %
Ġp seudo
ĠY ou
al k
Ġscal e
Ġinter f
ĠB anach
B ut
o o
Ġd omin
res sion
Ġ\ simeq
De f
' }$
C orollary
Z Z
Ġfin al
Ġdiscus s
clo se
Ġp rac
Ġsu c
k l
) )$,
Ġliter ature
inde x
c ent
Ġa dap
R ightarrow
Ġ\ Theta
Ġpa rame
we ak
Ġcard in
} >
Ġs pa
Ġremain ing
et s
Ġl ist
Ġobserv ation
_{\ {
Ġinter ior
er mi
Ġdefin ing
Pro p
Ex t
f il
po se
\ sim
ĠC auchy
ti an
gra ms
Ġon es
ar ies
_{ {
Ġiter ation
Ġsee ms
] [
Ġbe st
p f
Ġunder lying
ha s
row n
Ġd iver
Ġele mentary
l ie
Ġth ick
pla ne
po ints
me asu
D P
g f
Ġrequi res
] }\
}^ +
Ġar c
j ec
ting u
Ġapproxima te
Ġter min
u c
be low
ta ge
Ġin side
iz ations
Ġ ^{\
( (\
Ġformula s
ul us
ĠRiemann ian
c O
Ġper fect
in cludegraphics
C M
Ġsur jective
Ġ\t frac
Ġadj ac
m alle
Ġsta ted
\ dots
du cing
al gorithm
Ġho me
ĠS imilarly
Ġk not
pa nd
\ prod
b c
c ial
\ dot
8 7
cal led
Ġgen us
Ġ }{\
Ġgau ge
9 3
u mp
Ġte mp
tri es
ograph y
te mp
}. $
b ased
s pec
ke y
B B
Ġ\ abs
ad ic
malle st
sc he
ĠLag rangian
Ġdistribu ted
Ġside s
( {
res h
$- -
4 2
Ġmo tiv
s mooth
Ġare a
con nected
co ding
Ġf ig
a ra
\c os
ĠDe fine
ib li
Ġ\n otag
ĠG al
Ġtran sition
Ġre pe
Ġsta tionary
A ut
Ġre con
S ub
R S
& -
k i
var pi
Ġtrans mit
lev ant
S imilarly
ec ause
Ġ\ w
l ing
I EEE
Ġf rac
Ġ )$
mis sion
Ġs light
c H
Ġ\ longrightarrow
Ġde al
Ġexpres sed
Ġw ord
the o
ĠE uclidean
Ġlo op
Ġsem igroup
Ġshea f
Ġformula tion
}( {\
c }
}\ |\
20 17
Ġcode s
f ield
is ation
Ġ\ mathscr
Ġsubgroup s
C H
g m
ist ent
Ġt ry
C S
Ġan ti
Ġse p
diff ere
Ġto o
Ġidentif y
Ġequal s
)} ,\
c S
Ġh is
I M
Ġvelo city
Ġha pp
di tive
* }\
Ġoper ation
k in
^+ $
Ġus es
ra ph
Ġ\c o
Ġro le
sa tisf
Ġphy sical
ĠApp endix
Ġdis cre
tima te
20 18
script style
20 19
I d
}} ,\
ĠT able
Ġbund les
) /\
stru cture
Ġmon oid
Ġequ ilibri
7 0
own arrow
\c ong
m er
4 3
m n
ĠI s
f g
ĠR es
n ed
l s
Q Q
F urthermore
Ġweigh ted
Ġsign ific
| }{
Ġb inary
\h space
ĠS et
Ġestima tion
Ġcomple tes
V ar
F ix
Ġref erence
, {\
Ġcalcu late
Ġtra jector
di am
le y
ĠP o
20 16
Ġinde pend
] \\
ser v
ĠAl gorithm
od y
ste in
Ġc riter
Ġdiff e
Ġc ut
w ers
Ġconfigura tion
^{ 0}
Ġ1 1
Ġad missible
Ġuni queness
Ġ\big r
Ġen ti
ĠT HEN
ed u
Ġessential ly
Ġconver g
ta ct
\big r
Ġs mallest
hi p
Ġ }}
Ġsub section
^ u
} &\
ibli ography
f tarrow
Ġno tice
Ġeval ua
Ġsug ges
A }
script size
$\ \
tar get
c L
)} =\
Ġintegral s
e ff
Ġp ull
Ex ample
Ġexce pt
Ġ\ bf
be t
war ds
b p
] ]
_ Z
Ġfe w
m ic
Ġ1 5
hook rightarrow
Ġa x
le ment
Ġre se
b ot
Ġde v
ir ich
res ted
N N
U psilon
Ġappear s
X X
di re
Ġhe ight
Ġgener ally
gra d
Ġad joint
Ġcover ing
Ġ\C ref
ad joint
Ġ$ -\
}) (
\! \!
Ġreplace d
Ġpro ving
Ġcalcu lation
irich let
Ġobser ved
va ila
Ġmax im
Ġp lot
re sul
R es
Ġcombin ator
pro per
Ġ1 3
Ġacc ount
b ut
_{ a}
20 14
ur ing
Ġanalog ous
Ġvarian ce
) _\
L o
Ġ\ar row
Ġexp lo
t x
Ġcombin ation
si mple
Th ese
Ġev olution
ulari ties
here nt
G r
] ;
Ġmodu li
Ġvanish es
Ġ\c entering
s co
Ġbi jection
\ la
M a
G G
pl ing
4 9
ce p
M A
F T
o pt
op f
ri ly
h bar
s ch
Ġlinear ly
u u
Ġf ast
Ġcoun table
Ġrestric ted
i us
mi tive
con v
dis t
eq q
Ġon ce
op tim
es h
De fine
Ġindic es
) )}
an y
ĠĠĠĠĠĠĠĠ ĠĠĠĠĠ
Ġacc u
continu ous
Ġcons isting
Ġver tical
ĠCo mp
um ns
wh en
ĠC la
^{ t}
Ġ\v dots
Ġinte rested
ermi tian
Ġor dered
Ġnetwork s
an gu
Ġclu ster
Ġs qua
v v
Ġequ i
] _{\
Ġrepres ents
s tep
tens or
Ġla y
Ġthe ore
Ġe ar
Ġmon omial
ist ence
deg enerate
in ner
w ords
20 15
il ies
C ase
Ġm is
Ġtechni ques
' }(
s hift
ore d
mpl ing
tri ang
D D
\ re
su beq
â Ģ
Ġgeneral ization
al y
g ne
a ke
par se
| ^{\
th an
Ġeff ective
9 2
20 13
~~ ~~
Ġ\big cup
Ġenti re
Ġpartic le
lim in
Ġqu ite
t rac
Ġcom es
\n orm
ck now
Ġy ield
il p
ĠĠĠĠĠĠĠĠ ĠĠĠĠ
Ġtech n
co de
Ġmodu lo
Ġcomp arison
)) ^
B S
4 6
Ġestabl ished
Ġ\ math
Ġis o
Ġmo ve
ĠJ aco
h ol
Ġdevelop ed
U n
Ġ\ V
ar ing
7 7
ra tional
ra tion
4 1
> ]
}\ }$
}= (
\ps line
Ġo pp
ver tex
_{ h}
Ġgo al
ibra tion
bo lev
\s pecial
Ġwho le
vaila ble
u se
ide d
Ġnon negative
under brace
Ġ[ -
20 10
pa rameter
}. \
{ |\
O P
} ]\
Ġ\l n
Ġconjuga te
Ġ\d d
Ġdu ality
Re mark
Ġintegra ble
pro b
Ġscal ing
Ġfor ce
ĠMathe matics
Ġsta bil
K K
\c o
^* ,
Ġextend s
t ors
ere nces
us ing
us h
N R
}) -
Ġb low
mon stra
Ġdis tingu
\b ackslash
per iod
S P
Ġsimpl icial
sta nt
se p
Ġ\ underline
Ġor bits
un iform
E R
),\ \
} ~
small matrix
L ie
Ġar row
ti stic
mbin ing
X }
} <
f lat
Ġcoinc ides
end ing
pro j
pro blem
i led
si mp
Ġgrow th
)$ ;
r s
tra tion
Ġidentif ied
pher ical
Ġk ind
para graph
Ġtrans formations
), $
\ H
8 6
Ġ\cite p
Ġa v
Ġ )\
Ġunique ly
Ġde te
Ġspa tial
Ġinter action
> >
Ġus er
pol y
u ter
b t
i mple
he ight
)} _{\
Ġnatur ally
Ġcol umns
Ġcor ollary
Ġh armonic
subeq uations
Ġestima tor
Ġsu ms
b }
P r
) *
Ġbran ch
Ġ\in f
Ġabsolu te
Ġ\ O
Ġsha pe
\b ibliography
Ġsplit ting
Ġcon formal
Ġcorrespond ence
al ance
\not in
Ġsignific ant
}) )
Ġcomp uting
Ġtor sion
Ġvar ieties
Ġlim its
\ A
Ġif f
b v
| }\
Ġper form
\ F
I ndeed
is es
Ġin variants
ĠS ee
ur al
Ġ\b inom
Ġdifferenti able
Ġprobab il
S ee
\v skip
t z
al se
Ġ1 4
Ġdec ay
Ġde sc
ar i
Ġrec tangle
Ġori ented
\ M
g an
Ġshow ed
\ eps
Ġconver ge
Ġra tio
Ġgreat er
}\ |_{
Ġme chan
bes gue
c E
sq cup
\ title
Ġdeg rees
Ġout put
}} =\
Ġhorizon tal
\ exp
! }
Ġ\d im
cla im
Ġj oint
) "
f e
Ġcomple ment
ve red
Ġde creasing
;\ ;\
5 6
Ġgo ing
Ġde monstra
^{ p}
ĠH ow
Ġ\ ll
Ġ ru
Ġinter po
chan ge
\ T
A P
Ġg ap
p q
L em
c ian
} /\
ro pic
Ġcompati ble
Ġoper ations
w w
Ġinterval s
rac k
ir tu
Ġcomputation al
footnote size
} :=\
Ġar ticle
) <\
wh ite
)\ |
Ġto ol
Ġcou nt
Ġb ig
f irst
d or
Ġ\R R
Ġfin ding
if ically
Ġnon trivial
Ġgo es
Ġre levant
Ġsing ularities
lan g
o h
ĠW hat
Ġres olution
Ġrese arch
Ġa vailable
Ġn ull
up le
Ġexpec tation
}\ ;
v ity
Ġc re
Ġtur ns
\ ot
c D
Ġequilibri um
S h
Ġh ard
titu te
Ġb ox
g round
) &
d v
du e
\ -
No tice
Ġj ump
Ġst re
Ġshow ing
ĠC ase
Ġimpro ve
ĠI I
bu st
gh t
Ġs w
Ġpara bolic
Ġ\ a
y pe
$ ?
Ġfrequen cy
p th
}{ {\
Ġori entation
ct ing
Ġa im
res pectively
pa ir
\ vec
' -
po sitive
cor respon
Ġextension s
Ġclassif ication
},\ \
Ġ( (
7 8
ĠEq uation
20 20
Ġre duce
surf ace
D F
sc il
Ġspe ed
i rac
Ġcondition al
Ġro tation
Ġlar gest
u mann
b und
ĠA nd
] }$
ter min
Ġ\m c
ĠD enote
R }
Ġrec ent
Ġfam ilies
) ]{
)} ]
C A
lar ge
Ġwa ys
Ġar ri
ke w
Ġide als
Ġadjac ent
Ġfig ure
Ġg rid
^+ (
S pec
Ġcyc les
Ġin s
^{ m}
coun ter
+ }
l or
at ures
pi es
I S
Ġsimpl icity
_+ $
Ġbo ok
Ġd ig
Ġmathe matical
Ġblock s
duc tive
ie ce
Ġlear ning
rm k
Ġ target
C or
rac y
a ve
Ġasser tion
Ġembed ded
te st
u v
O R
dor ff
^ e
ĠS ci
Ġl ie
^* $.
Ġtri ple
I nd
A nd
lo y
7 6
po s
b er
id ent
Ġca pacity
Ġdiffic ult
\ paragraph
Ġconc ent
Ġob jective
Ġdynam ical
Ġlea ding
us dorff
ra d
c er
Ġin cluding
is o
ut ure
\ rfloor
I s
Ġt reat
Ġdetermin ant
_* \
Ġ\ :
Ġde formation
b ase
Ġtrans mission
low er
h d
_{ X}
olu tions
Ġequi pped
A t
20 12
Ġslight ly
Ġpartic les
x t
|\ ,
a ff
part ment
Ġ ^2
}) ^{\
Ġ( {\
M }
un it
Ġcont rac
)$ }
as so
Ġt rees
Ġvanish ing
3 9
{ [
Ġ ~\
Ġnormal ized
gne tic
Ġdomain s
Ġreg ar
} ]$
Ġtheorem s
de comp
Ġas suming
im odu
sic s
v x
Ġcombinator ial
bre ak
sing ular
N e
\ xymatrix
| -
ĠD irichlet
Ġequival ently
for mula
Ġout side
Ġsub graph
ra m
ĠL a
der iv
){ $\
c G
hy per
M o
Ġcompare d
ri ef
n al
Ġb racket
Ġapproach es
Ġrow s
}_{ (
Ġ\ Q
\ Theta
ĠThe y
c P
di a
p ical
ĠAs sumption
\add ress
itt le
Ġpreser ves
tex ts
_* (
Ġd i
8 4
tain ed
Ġre duces
b racket
Ġp iece
Ġm esh
is k
_{ A}
Ġimpl ic
hap ter
l b
B ox
new command
Ġ\ K
Ġexpon ent
'' (
Ġc ap
Ġpa ck
Ġ\not in
Ġmultiplic ity
text up
ĠA t
Ġlog arith
Ġdia grams
str ong
}$ )
}}\ \
Ġat ta
Ġ }(
}) }\
Ġd om
v ol
Ġcon tact
Ġre tur
rt ing
9 1
bo ok
s pect
Ġsubs equence
clo sed
Ġb ra
\b b
S u
n um
H a
Ġfrac tional
le cted
ti ves
Ġad ditive
}^{ (\
la ting
Ġtrans lation
O r
Ġin div
20 11
Ġmean ing
} |^
Ġexpla in
Ġexpression s
Ġf ol
Ġsa ys
a f
ee p
ilp otent
s ym
Ġp en
Ġra tes
Ġtri angu
\ Pi
}, $
erg od
\ max
ot tom
Ġsol ved
Ġcon cept
Ġdiff usion
)} }\
v p
Ġmodu lar
c ulus
Ġdiscre ti
Ġincre ases
} :\
M od
Ġsymbol s
}) ^{-
Ġb it
Ġquanti ty
\b m
O p
Ġdefin ite
s m
}_ +
Ġpri mitive
Ġa xiom
\ G
ĠH e
Ġp as
Ġgener ate
do main
f p
Ġact ing
P a
Ġfil tration
Ġ\ approx
Ġoccur s
comple te
ub ic
Al so
ĠLe besgue
8 9
ran s
rob en
lang ua
Ġno tations
id ence
^ A
ener al
ing er
Ġ\mu lticolumn
Ġfunctor s
I C
Ġmulti p
}} +
f l
Ġchan ges
k o
S ec
Ġs ec
Ġcon v
u te
ot ropic
la nd
Ġsub ject
N S
r g
Ġinfinite ly
roben ius
Ġ\ stackrel
Ġ\ def
_{ q}
Ġmetric s
pl ot
par allel
| $.
de scri
Ġindiv i
sive ly
Ġl ight
Ġ\ mb
rown ian
Ġsubs paces
ter m
w ell
Ġsc en
C F
ll i
Ġis su
cc c
P o
Ġdis k
Ġo mit
5 2
)$ )
^* )
et er
ive d
s ystem
Ġ\ re
Ġ\d isplaystyle
commu tative
Ġimple m
Ġcho ices
Ġ\b ullet
| <
I P
p ng
^ G
p d
Ġd id
tikz cd
Ġzero s
Ġeigen vector
Ġv irtu
^{ s}
om en
ch ar
Ġstate ments
Ġre d
ĠS tep
\ linewidth
)( -
con s
Ġref lection
^{ T}
Ġreg ulari
Ġas k
Ġd ri
p y
u }
)^{ -\
p c
ul ti
>\< ^
} :=
Ġb rief
)) =\
Ġful ly
p ort
Ġse mis
7 2
Ġ ^{2}
Ġthan k
su per
verse ly
id en
\ fill
r gin
Ġ{ }
^ H
| ,
es tions
c ar
B e
\ (
Ġstr ing
at er
Ġusu ally
Ġsingular ity
Ġtechn ical
me an
Ġle ad
}. }
tif ication
la g
Ġneed s
sf er
^ M
ha ve
equiv ariant
Ġdire cted
ga tion
D S
] ,\
Ġde cre
Ġcontribu tion
f ol
Ġp ass
+ |\
ĠNo tice
im its
), $$
Ġth resh
me tic
Ġ\ u
^* $-
Ġcharacter ization
S t
Ġcho osing
Ġb and
Ġax is
\ cal
ĠB e
Ġfin ally
)}\ \
la p
c B
Ġrela tively
A M
con j
Ġ[ [
= [
asi ble
Ġequ iv
Ġdepend ence
^* _{
^{ j}
Ġj o
Ġr ings
Ġmonot on
or ies
Ġrewr ite
ĠA ll
n umber
Ġparti tions
s hed
Ġex pect
Ġcompu tations
M e
^ L
Ġpol ic
^* $,
ĠH opf
Ġex pand
Ġcriter ion
: :
in i
li er
Ġg u
Ġcoinc ide
han ks
d le
Ġ\ be
cri pt
B }
Ġ\leq slant
ter ing
Ġaltern ative
su cc
Ġb lack
O f
Ġcommun ication
Ġcomplex es
Ġco variance
in eq
Ġappl ies
make box
Ġp ref
T M
Ġcou pling
)} ^{
Ġm ess
ĠC learly
Ġc ru
ma ry
Ġ _
D enote
Ġo scil
Ġbec ome
Ġre view
Ġaction s
Ġmore over
pla ce
Ġasso ci
}} +\
w ton
Ġsa mpling
5 7
A S
Ġext ra
^{- (
Ġrepla cing
g ray
f old
bound ary
Ġsu mmand
re nce
equ ality
j or
Ġsub algebra
Ġ\ o
L P
prec eq
S i
v }
le vel
Ġg round
Ġb re
rest ric
Ġad mit
B M
ma tically
Ġad ding
Ġtechni que
lic e
Ġf ill
on ormal
ot ing
y y
Ġa way
period ic
Ġ\ i
ch or
8 3
,\ ;
Ġf uture
V V
ay lor
5 }
en tered
s ha
Ġrig id
\ >
Ġr ise
Ġaccu racy
Ġp ick
Ġsample s
Ġderiv ation
Ġ| |
ou rho
re t
ra di
Ġiter ations
Ġse arch
the ory
Ġin c
g on
}; \
i ec
\ mathscr
Ġco me
_{ R}
lin der
Ġparame tri
). \
Ġpri mes
5 3
B F
Ġ\ var
ong rightarrow
su res
po sed
Ġg ain
s paces
ia tions
D M
Ġm ix
Ġpro ven
Ġqu estions
Ġconc er
j i
re p
os able
Ġknow ledge
)+ (
I R
ĠGal ois
t ree
ĠWe yl
& +
Ġseg ment
Ġmoment um
ra te
Ġm ixed
Ġperturb ation
' +
/ /
Ġcons istent
Ġw alk
Ġd uring
in ted
r n
over set
for d
Ġk eep
Ġ langua
od ge
c X
\ w
Ġ\ set
C L
ĠE ach
)- (
tab ly
b lock
Ġcoun ter
Ġ\ q
}- -\
Fig ure
Ġmonot one
Ġ\ ee
M ore
ĠF ix
si tivity
ĠTheorem s
\ min
ng ing
parti te
g }
fra g
B ound
ĠSo bolev
Ġinvol ving
Ġpro f
Ġ\h box
}$ ;
tit uting
S tep
h alf
Ġus ers
g iven
8 2
Ġrela x
200 9
o ch
mu lta
)}{ (
Ġwhere as
Ġg ame
ĠD o
\ u
ah ler
Ġachie ve
tis tical
\l n
E nd
ĠU n
P re
man ifolds
ho mogeneous
multa ne
au x
Ġmod ified
Ġord inary
Ġ\ operatorname
Ġav oid
Ġsuc ces
$\ {
re me
Ġcardin ality
Ġpur pose
ar se
tern al
Ġ\x rightarrow
5 1
Ġcontra st
Ġbu il
}}{ (
D is
ĉ Ġ
deg ree
M at
ĠNe umann
K }
Ġcontrol s
Ġcell s
Ġ\ Hom
ha m
o ids
Ġ\big oplus
M ain
Ġsepara ble
)= -
ar c
}\ !
\ eq
, ~
Ġquanti ties
5 4
v ir
ĠB rownian
co ver
inc ar
8 1
Ġdeta iled
] =\
^{ 4}
Ġar ith
G }
\d isplaystyle
\ o
rting ale
Ġtr unc
ith ful
l ink
tistic s
E s
big oplus
Ġ ergod
7 3
d om
f ont
atur al
ĠC al
in stein
( |\
se mb
Ġis omorphisms
Ġ\ X
it ch
ation al
(\ {
Ġp ic
Ġref erences
Ġs pherical
Ġto t
le x
,- .
de x
) ^*
Ġerr ors
cor re
ĠLapla cian
n otag
] ^-
n et
Ġd ot
mm er
\ :
be c
Ġintro duction
ĠĠĠĠĠĠĠĠ ĠĠĠĠĠĠ
Ġma king
ĠHa usdorff
Ġshea ves
Ġpo wers
_{ T}
Ġad van
Ġtheore tical
ter ial
optim al
---- ----
con stant
Ġpat tern
)$ :
ĠCon sequently
than ks
s ome
up arrow
u x
a ma
_{ M}
def i
cha racter
Ġre ach
ns tein
~ (
ĠB S
Ġsimpl ify
Ġinterpre tation
Ġta sk
\ bf
_{ c}
Ġo uter
ho ose
U nder
v ent
t ot
as sumption
" ,
Ġre ally
Ġconverg ent
Ġ+ (
ĠM e
Ġachie ved
Ġincre ase
s w
a ds
H }
| ^{-
M ar
Ġlea ves
n or
b k
re la
Ġp e
Ġfact s
Ġco dimension
O bserve
Ġrec ently
Ġ #
Ġexce p
\b oldsymbol
Ġconveni ent
) &=
II I
M C
ssi ble
ĠS uch
)} +\
er ing
> ,
Ġbi linear
}\ ]
\e mail
l se
Ġhe at
Ġmat ching
Ġlo cus
7 4
ssi cal
Ġasympto tically
ĠD irac
Ġcru cial
Ġ( .
Ġcon serv
Ġ$( -
Ġobserv ations
in al
Ġ Î
Ġ\text tt
G al
de c
Ġmultiplic ative
Ġ\Z Z
Ġinvestiga te
Ġ\ U
L }
bund le
g ies
Ġgiv ing
mm ing
}} )$
Ġcomp lic
ten cy
Ġet c
Ġeffici ent
6 3
}}\ ,
mula tion
g end
b ing
e ven
Ġorth onormal
e ther
\ textit
da shed
Ġpro por
Ġha d
Ġent ry
c T
;\ ;
e igen
Ġ lon
en ess
d l
ĠR ic
g ru
tr u
{( -
c N
Ġpro pa
Ġcirc u
Ġreco ver
Ġregion s
Ġ\b ackslash
Ġn ilpotent
18 0
Ġsome thing
Ġball s
Ġarbitra rily
}) ,\
Ġu til
$. \\
lin es
\ pa
Ġ{ {\
}) :
C la
ĠP DE
me tric
Ġde f
valu e
Ġ\ rfloor
Ġs cat
| (
Ġ\ eq
Ġprojection s
r ite
$ }\
Ġsumma ri
ex act
Ġ\ mathsf
f }
)} -
Ġequiv ariant
_{ d}
Ġres ol
A N
7 9
Ġun known
Ġun til
'' $
}} }{
Ġopp osite
Ġima ges
Ġthe sis
pol ynomial
le xi
Ġpres entation
he ad
Ġc y
Ġt rac
< -
Ġ.. .
Ġsqua res
Ġima gin
C O
umer ical
1 20
Ġcorre lation
Ġm id
Ġdirection s
S ym
6 8
Ġdetermin istic
}} -
dis tribu
Ġtot ally
\ a
-- -
ir ical
Ġtw isted
\ ast
Ġend ow
Ġsta ck
Ġ\ iota
Ġexperim ent
Ġ( -\
Ġs kew
> }[
c p
la b
Ġidenti ties
Ġide as
Ġanalog ue
ot t
Ġthe ories
Ġ1 00
Ġdeta il
y }
\leq slant
co der
}$ };
Ġb ottom
, +
Ġte ll
Ġiden tical
Ġ\ choose
h ence
ourho od
w ord
AT E
\ longrightarrow
Ġorder ing
Ġen sure
] )$
ri ed
ge ometric
Ġp hen
ĠPro blem
Ġru les
Ġt re
ord an
Ġsimula tion
Ġemp loy
^ +\
: //
Ġexperim ents
Ġ\ Re
u k
j o
o per
^ g
g ular
w hile
Ġcommu ta
\ al
Ġun bounded
\ underline
D iff
ol der
Ġmonoid al
ĠM o
bec ause
Ġmat ter
Ġimplic it
var iable
Ġa mpl
Ġv ary
C learly
' _{\
other wise
Ġ\ #
Ġconver se
6 2
Ġ\ PP
Ġt ends
Ġ\ pa
auto ref
ili ary
tro l
er re
Ġc ubic
Ġlangua ge
Ġs he
ha ng
Ġcon gru
ĠR E
_{ B}
Ġview ed
Ġinvol ved
triang leq
Ġ\c r
Ġrestric t
ten tion
Ġdetermin es
Ġcalcu lations
Ġpair wise
Co mbining
)=\ {
equ ences
Ġfor ward
Ġre l
Ġcal culus
C al
Ġfactor ization
d ge
)\ }$
Ġpoint wise
C R
Ġc entered
sco pe
)} +
` `
Ġexpla ined
if ies
A G
_{ |\
o ps
^ 7
} <\
Ġ\R ightarrow
Ġ\n o
m al
_{ v}
Ġ< \
ot o
ympto tic
H e
a th
Big r
_+ (
Ġphen omen
ther wise
le an
[ {\
ir r
200 8
qua si
Ġc us
Ġne ver
c n
ef ore
p led
en berg
ac y
Ġco herent
f ib
Ġ eq
fact or
Ġsi multane
, -\
w hat
Ġf ibration
Ġma terial
e ch
Ġco pies
Ġcommu tes
Ġplan ar
Ġnon empty
Ġ& =\
]{ $
Ġpri or
U N
^ R
Ġfin ish
h n
Ġs lo
, }
en tations
in omial
to pe
d g
c R
Ġpartial ly
p lan
Ġin tu
ĠAn y
il le
inte gral
Ġs yn
S I
^ f
Ġabsolu tely
ol or
Ġro bust
C ar
ĠF robenius
Ġtran sfer
Ġprobabil ities
Ġ\cite t
)= -\
, +\
}, $$
Ġthresh old
Ġ ray
Ġexcep tional
^ 8
ĠB ecause
ĠN ext
Ġarith metic
). \]
oth ing
Ġ\pm od
b ro
Ġdoes n
h u
Ġ\ wt
Ġfa ces
Ġpropo se
Ġremain der
ver gence
Ġear lier
re c
ten ess
) &\
ĠM or
'' ,
Ġpermu tations
rough out
^+ _
Ġestima ted
Ġ\ tr
b asis
l ip
Ġpro duce
se para
A cknow
Ġsh arp
diag onal
Ġnor ms
ra ndom
S M
pres er
s olution
as h
Ġinterpo lation
al so
A ll
p mb
Ġtran sitive
Ġpossi bly
al most
Ġbehavi our
ĠF urther
Ġget s
appro xima
Ġb alance
the less
lt ra
an ts
Ġinter nal
inte gra
}) +
sto od
\ ll
ar g
Ġs parse
. (
Ġti ght
ĉĉ ĉĊ
Ġhapp ens
) &=\
be led
s how
}{ $
at z
D u
to kes
Ġsure ly
\ qed
Ġin variance
Ġfa ithful
ad j
Ġfe asible
Ġstrong er
Ġm er
Ġ\ ast
Ġmark ed
er ature
u pper
Ġpull back
repres entation
c ritical
| |\
or n
Ġcan ce
Ġal though
se cond
h box
g re
back slash
i da
L R
su s
Ġ\ det
Ex p
A r
conver gence
Ġb lue
' =\
Ġlay er
d own
ĠT aylor
hed ral
en e
Ġtra ining
ame ly
Ġinv olution
}{ (\
pu ts
ll ing
\ math
Ġchar ge
B G
te sian
Ġsh or
ĠCla im
gra ded
a tively
Ġ1 9
Ġbe lie
n othing
Ġâ Ī
z ing
comp on
- |
App lying
ine ar
! ]
Ġasso cia
}\ {
Ġchannel s
ĠH ermitian
Ġvariation al
A D
r ig
6 1
ker nel
Pro b
7 1
Ġ\v space
Ġcy linder
= &
[ [
b ian
}{ |\
left rightarrow
ĠH odge
Ġag ree
Ġis ometric
Ġc f
Ġtor ic
Ġidentif ication
\ i
Ġmu tu
t ract
Ġor gan
Ġcomplic ated
Ġis ometry
_ 9
200 0
Ġpolic y
a mp
Ġs ite
Ġ ĉ
p ts
Ġ\ rm
S A
= {\
mb f
Ġapp e
Ġn ice
m om
Ġreg ime
Ġmat ch
differe ntial
P R
T ATE
a ges
if ted
Ġau x
$ }.
pi d
box times
Ġcomple tion
Ġe lse
Ġpo pu
Ġ< =
)= (\
err or
on ly
b R
\ simeq
ĠG e
x ample
Ġam ount
Ġdepend ent
Ġlook ing
6 }
ol y
) ^{(
f low
e le
Ġext reme
g ing
ĠQ u
the ore
Ġevery where
)\ )
Ġ\ id
_{ g}
diam ond
ear ch
5 8
f am
Ġab stract
Ġ text
ĠO r
Ġpas sing
= =
Ġi mmer
| +
Ġautom orphisms
Ġpic ture
ter ior
lim it
a cc
_{ K}
ĠĠĠĠĠĠĠĠĠĠĠĠĠĠĠĠ ĠĠĠ
Ġsee m
sche me
Ġthan ks
\ q
a z
a i
M y
ca ve
ima ge
od d
^{ d}
. }\
Ġtrajector y
Ġfib ers
\be a
m r
Ġcont raction
Ġ(\ <
our ces
su r
)) _{
Ġergod ic
Ġex hi
= }
Ġy ear
Ġmom ents
ĠA d
Ġty pical
' ve
] }(
Ġpres sure
Ġindepend ently
,\ {
Ġsta tistical
K L
com ment
eed back
osi tions
ul ts
Ġpro gram
Ġpreser ving
limin aries
h igh
Ġdiver gence
Ġpres ence
ar io
Ġun its
Ġ\tex ts
Ġma ch
j j
h olds
for t
ere d
Ġrelations hip
Ġu pon
ce ler
vi ation
ĠU nder
_ +\
O b
{ -\
Ġse lection
Ġpo st
r is
n m
Ġallow ed
\ I
Ġeval uation
Ġinterf erence
_{ G}
\h box
E D
Ġapproxima tions
\in d
A ccording
pecial ly
Ġb ases
an chor
correspon ding
ĠO bserve
Ġphy sics
Ġdiffe omorphism
Ġunderstand ing
P er
pec tive
)} }{
ax is
Ġme mber
Ġ\Big l
Ġneighb ourhood
D G
Ġ\ ker
inde pendent
b A
_{ b}
our s
cal e
pic ally
Ġspec ified
Ġresi due
sp an
S F
Ġiso lated
measu re
P ar
\ textrm
p en
b C
200 7
ĠNe wton
Ġlimit ing
de pendent
T hat
Ġ1 8
ĠPo incar
Ġ" \<
E M
S }
Ġ\ vee
vir on
Ġconfigura tions
Ġper formed
B P
Ġ- --
Ġevalua te
Ġconven tion
de termin
Ġw ide
ang ular
Ġat tention
stru ct
Ġme m
Ġpro ject
Ġ\over set
f ollowing
| $,
O S
Ġac ross
Ġlemma s
\new theorem
_{ f}
Ġmo ves
Ġpo inted
Ġno tions
Ġflu id
ĠM on
}} )\
Ġcontradic ts
Ġconveni ence
* (
ĠA ccording
Ġro und
de s
Ġcalcu lated
dire ct
Ġdec ision
Ġhigh est
Ġdiffic ul
An y
_{ u}
" ;
g cd
l en
Ġguarante e
v anish
al og
Ġtry ing
b all
Ġmo ving
Ġy et
Ġ\ al
aly tic
an o
Ġanaly ze
Ġend s
})\ \
C E
descri ption
ft rightarrow
war z
Ġun ity
}^{ +
Ġ },
lo v
f ication
}) }{
Ġhyper plane
, [
^{ N}
al ysis
cha in
new line
Q u
od rom
Ġconnection s
Ġfa il
s equence
ĠA fter
Ġexpres s
rem al
O I
_* $
ate ly
at ch
ĠB es
Ġunder stood
c ies
ma nd
200 6
Ġ\ k
Ġ /\
Ġma gn
Ġpiece wise
Ġ\b s
Ġdivis ors
Ġcombin ing
Ġ2 00
Ġback ground
E qu
Ġ{ {
ion s
ry st
loc ation
)} )\
Ġappear ing
as ymp
m d
Ġl ittle
$ ]
Ġto wards
{ #
ow ski
group s
W hat
Ġthrough out
ro ot
}$ :
equival ent
\ Q
Ġp ush
ĠC an
| >
let on
Ġlink s
Ġma gnetic
Ġpaper s
yc lic
la st
Ġpri ori
\ path
6 9
Ġ _1
Ġu nd
Ġbrief ly
Ġman ner
}) _
p an
Ġun less
Ġhypothes es
ĠĠĠĠĠĠĠĠ Ċ
Ġb ro
Ġacc ura
Ġres pon
G e
e very
otop ic
] +
H M
Ġaux iliary
K er
_* (\
)\ ;
Ġinvol ves
T wo
Ġemp irical
we igh
f s
_{ y}
Ġprac tice
Ġtriangle s
vious ly
mple x
\ _
con ne
}=\ {
Ġad v
Ġsubs titu
Ġhome omorphism
}\ )
)} )$
5 9
Ġtrivial ly
v s
Ġb ody
im it
c ross
Ġar cs
ĠG ra
Ġsimula tions
Ġillustra te
ng ed
Ġb ar
Al g
om ic
C G
Ġat temp
\ vee
ĠS e
Ġindivi dual
^{ r}
Ġwork ing
Ġf raction
ne g
,\ ]
Ġan n
Ġorder s
Ġco py
tab ility
Ġref ine
z }
L M
b X
Ġse lect
ĠCon jecture
hed ron
math tt
te re
c K
^ I
ab ly
Ġcharacter ized
Ġco ding
ic ations
}[ (
ens ors
Ġ\C C
b z
la s
\ V
Ġreal ization
Ġrefer red
c tive
Ġ\ ot
C l
Ġp h
ext ension
I V
h h
Ġre du
=\ {\
Ġma jor
ator s
Ġvalu ed
] &
Ġn ature
er cise
Ġsub category
Ġreg ard
radi us
\le sssim
O M
Ġup date
B r
\ prime
at ura
Ġobvious ly
Ġ\ autoref
ĠLapla ce
B R
\ thanks
Ġre ad
Ġsta ge
Ġ3 0
in finite
Ġar ise
sim ilar
Ġ }_{
Ġ\ underset
es timate
Ġprac tical
om y
lat or
w are
O F
lo op
Ġconne cting
ve p
h s
le ase
en table
Ġ\ &
)\ |^
_{ H}
d V
am es
Ġen sures
con stra
Ġf it
_{ 5}
P T
able s
ho se
s titute
Ġconstruction s
Ġguarante es
Ġtemp erature
le ftarrow
iv es
Ġj us
Ġinclude s
Ġgroup oid
c ro
stand ard
ĠB er
^ B
\d frac
w n
Ġprevious ly
Ġlon ger
Ġflu x
Ġgener ates
ty le
L T
12 3
rid ge
un ov
Ġcharacter s
L ongrightarrow
k y
Ġretur n
v c
tan ces
Ġ _{1}
sum es
Ġ\ de
$. \
sp here
Ġma rgin
Ġhyper surface
D o
+ (\
Ġgeneral ize
co ordinate
Ġsub manifold
} ~\
Ġc li
se mi
Ġampl itude
i y
Ġpa ge
lat tice
app endix
c ome
E Q
s g
Ġ1 7
y ap
is omorphism
F S
ol imits
Ġdeg enerate
Ġconcer ning
si ties
da ta
f n
ĠCh ern
Ġa mb
Ġs low
\R R
at ern
Ġrece ived
C at
}( (
/ .
Ġ\ qed
Ġde coding
ri x
\bibliography style
Ġ$ *
Ġflow s
}_{ -
scri pts
n p
pro vide
\ choose
tra ce
Ġs ix
big cap
Ġsimpl er
^- (
Ġ til
{- }
s d
se m
Ġother s
mo ve
Ġconv olution
ĠL o
Ġdistingu ish
Ġsymme tries
&& &&
Ġfe atures
h armonic
Ġdivis ible
Ġspan ned
ction s
@ {
f ollow
Ġdescribe s
Ġdesc ent
Ġthough t
bab ility
\ en
Ġd z
Ġendow ed
resul t
ec ke
e }
a o
}$ \
Ġver ified
B A
ĠO DE
Ġpoly tope
Ġr isk
Ġimagin ary
\section *
Ġobtain s
Ġpopu lation
ou n
Ġcommu te
Ġcombin ed
si mpl
hea f
Ġs ends
\mu lti
la tes
B o
\ lfloor
T aking
)) )
sim al
Ġide mp
a fter
li hood
we ight
& $
} '$
pa rame
Ġcom ments
ir ing
o ssible
he res
de pend
Ġsumma tion
S e
Ġno ted
) ]\
th od
bil ities
\no tag
Ġrepresent ing
[- >]
\Big l
' )$.
}( [
Ġtrajector ies
Ġexponential ly
Ġissu e
Ġas s
a ding
hy p
v t
go od
r b
Ġres pective
text normal
e ach
ic ro
me ter
\ #
Ġp ric
B ecause
Ġmeasure ment
X Y
Ġpo lar
tr in
Ġro ugh
n atural
ne ighb
i ation
ĠLemma s
Ġne ither
b Z
Ġb en
dis crete
Ġan ten
Ġlea f
| |_{
con e
\ee a
Ġad ded
Ġunit al
D R
Ġrea ds
Ġrepe ated
Ġconclude s
cri min
T R
Ġde pth
ron t
Ġintersect s
Ġdis c
)}\ ,
g ed
Ġmeasure ments
F }
a vi
m ing
Ġcu be
Ġ[ (
De partment
Ġrece iver
Ġadvan tage
d ynam
ide al
\ abs
in a
w ill
\h fill
Ġ\ tag
Ġs tri
Big g
,.. .
\ps frag
Ġsemis imple
ome tries
uni que
^ K
n es
\ `
Ġconjuga cy
Ġ& $
r c
= &\
p ower
ay es
ĉĉĉĉ ĉĉĉĉ
Ġtri angular
Ġg lu
- (\
min imal
dia gram
K S
}} ]
Ġlevel s
" ]
Ġcontinuous ly
Ġreg ression
f ixed
Ġcount ing
ĠIn te
Ġbi partite
_{ L}
Ġdiv ide
Ġfib re
an s
)/ (
Ġinclude d
ĠSci ence
ti ty
S C
tif ied
Ġin ser
Ġ\colon eqq
equival ence
int y
\ var
Ġsol ves
ier arch
Ġun stable
}{ -
Ġf ive
ĠG reen
valu es
Ġar ises
Ġ\ exists
Ġ{ (
ĠRic ci
Ġfil ter
Ġpair ing
Ġarri ve
$$ (
Ġex ternal
}{ $\
comp osable
Ġcross ing
Ġrecon struction
Ġ\ W
ster ior
^ X
I D
ĠT ake
v y
Ġca us
Ġg a
Ġtrans port
w p
) :\
}. \]
Ġdiscreti zation
M ac
In te
}) }{\
b P
ĠYou ng
: \,
Ġa tom
Ġcance l
^- $
! }\
}[ !
ĠS econd
S ome
$& $
_{ *
iz able
at op
ĠS pec
po sitions
200 5
f ace
thes is
ex istence
con st
}, {\
Con sequently
s ig
tain s
Ġ\ z
Ġtw ist
F P
f lo
Ġ\Big g
df n
ij k
Ġfe ature
sec u
Ġwr ong
}} }{\
ether ian
Ġpre ce
Ġbegin ning
\r brace
Ġadap ted
ed om
Ġqu iver
\ emptyset
Ġlet ting
ĠApp lying
Ġchain s
Ġscen ario
Ġinf er
IM O
Ġindepend ence
b w
G S
Ġscat tering
\ k
}_{ +
f i
b asic
d if
Ġclose ly
res sed
Ġimp ossible
Ġquanti zation
Ġco vers
ĠS ome
}$ ).
graph s
Ġadd ress
ĠM at
Ġsta tistics
\ stackrel
no tation
gin e
Ġf eedback
Ġradi al
ĠĠĠĠĠĠĠĠĠĠĠĠĠĠĠĠ Ġ
Ġstre ng
resul ts
RE AL
es tima
s eq
Ġdynam ic
ĠSch r
h m
vari ety
N on
Ġinterpre ted
x p
v space
iz ers
^* )$
" .
are d
dots c
Ġalgebra ically
in ite
n r
Ġimpro ved
G D
_{ S}
ta inty
Ġ ^{-
th ree
Ġch all
ĠW hile
Ġconvex ity
Ġ= &
ĠA r
Ġarrow s
m k
Ġrig or
Ġindic ates
Ġrestric tions
}} }}
lob ally
^ D
Ġ2 4
A b
)| ^{
g t
math op
Ġlocal ization
Ġelect ron
yap unov
th in
Ġfa ils
v dots
g reen
Ġw ish
Ġlog ic
)) ^{
Ġnot ing
}} |
ont inu
Ġsu pre
Ġu ltra
Ġen viron
p n
ma sh
ob s
Ġ\d dots
Ġimplem entation
Ġar ray
Ġexis ting
Ġcomp osite
y z
}{ }
ĠGaus s
Ġtri ed
Ġdeg ener
ve y
Ġden omin
Ġma rtingale
Ġv ol
Ġc m
ĠE n
h olomorphic
Ġlogarith mic
or bit
Ġstudy ing
}} ;
ĠĠĠĠ ĠĠĊ
ĠĠĠĠ ĠĊ
Ġcompact ness
key words
h er
u psilon
Ġkernel s
Ġ\m od
sel ves
n ers
$ [
l vec
ĠE lement
Ġla beled
Ġ\ '
)} -\
Ġform ally
si t
Ġpure ly
Ġme et
: [
F urther
Ġrequire ment
odrom y
: (
E T
Ġmagn itude
Ġstand s
Ġiden tically
}} -\
Ġwr iting
Ġac celer
Ġw ire
h fill
dition al
preser ving
Ġwa ves
Ġde lay
Ġdemonstra te
Ġas sumes
E C
A fter
)\, .
\re newcommand
M L
| ^\
Ġsol id
Ġbe am
Ġ\Big r
'' \
Ġrepresen tative
Ġ\lim its
tation al
ĠJaco bian
f unctor
Ġb its
Ġform er
Ġslo pe
Ġ\ ac
ĠS U
Ġlo ops
R IT
sion s
Ġ\ hookrightarrow
ĠRes earch
f un
Ġset up
Ġpo les
ĠO therwise
ĠH om
Ġi d
-\ !
^ v
l ceil
Ġ5 0
) ]$
}) _{\
D }
Ġra m
ĠJ ordan
Ġtop olog
Ġdiv ides
t b
Ġno thing
Ġpro g
La g
ĠCar tan
l r
Ġf alse
ĠC he
ĠSub section
text style
Ġin ductive
Ġbound aries
si ded
& +\
Ġre p
on es
Ġwh ite
Ġnormal ization
Ġsem ic
sk y
fra me
Ġa f
Ġ\B bb
$ },
D ec
Ġsimultane ously
' }(\
da y
T hanks
Ġf ore
Ġse lected
Ġsign als
m t
Ġhapp en
si pa
\set counter
| .
' }{
ĠJaco bi
v ille
. ]
Ġ\ scriptstyle
Ġregulari zation
I }
\ar @
R ec
20 21
An other
Ġeffect s
' _\
k j
' }}
ĠF unction
Ġre ver
od al
h ar
(\ |
Ġs ent
\r put
Ġh ierarch
fin al
Ġal pha
h tt
Ġ\h fill
f ull
Ġcontinu e
Ġco variant
ou th
ref ul
ĠN amely
u ge
u i
Ġco arse
for ce
âĢ Ļ
Ġac tive
an k
long mapsto
** **
c V
Ġindex ed
as hi
Ġco re
ch ron
en um
Ġmess age
Ġtw ice
}} ^{(
Ġar range
Ġconc ern
v is
Ġfre edom
E }
tic s
iff ere
\co ordinate
Ġpo sitions
yste ms
secu tive
os es
ymme tric
}^{ [
Ġemp ha
Ġconserv ation
ĠI nt
ore ach
Ġcirc les
Ġeffici ency
Ġconjuga tion
O T
1 10
Ġcharacter ize
Ġdia meter
Ġinc ident
( $
}^ -
Ġm icro
B efore
z a
Ġthere in
ĠA gain
P ic
ot on
Ġminim izer
Ġwor th
Ġval uation
Ġtri p
or ts
ar k
c b
Ġdiffere nces
' })
Ġmem ory
Ġindic ate
g lobal
it al
â Ī
\pm od
T ake
Ġlat tices
ĠW h
\d d
Y ou
Ġas pect
form ing
str ing
s pecial
tere xample
^ z
an n
bet ween
Ġevalua ted
Ġw on
\ proof
Ã ©
o c
Ġde pic
\fill draw
Ġrun s
R a
parti tion
Ġfor med
Ġproper ly
comp u
so v
Ġinter mediate
200 4
Ġpossi bility
Ġtrans forms
odel s
=\ ,
algebra ic
rt in
Ġthe rm
inter val
Ġsignificant ly
Ġangle s
Ġfor ces
\b inom
c ut
ac u
ĠS ta
un ately
c I
ĠS u
Ġ\no indent
a belian
\d im
ser ies
Ġlaw s
{ }{
Ġv on
Ġ.. .,
Ġend points
Ġty pically
Ġta il
Ġyear s
ro s
P C
Ġtool s
Ġcom ing
' |
es sian
Ġsome times
S R
Ġlength s
\subsection *
Ġsepara ted
Ġeasi er
d m
oti ents
Ġse ctor
ket ch
surf aces
Ġ\s tar
ces sing
Ġ\ par
w }
leq slant
art z
Ġdiscussion s
id den
Ġb ij
A x
W hile
^ y
con jecture
Ġde mand
Ġcar ry
\v dots
Ġact ual
}) +\
Ġext remal
Ġcomple teness
Ġrecur rence
N T
ro th
jec tivity
d ro
S econd
Ġg re
Ġcombin ations
B V
}) -\
Ġ. =
Ġbounded ness
sin h
^{ q}
Ġaxiom s
l k
M T
Ġhand le
R o
Ġes pecially
Ġ- (
pon ential
i med
{ }\
\geq slant
ĠCon dition
Ġvirtu al
u sed
Ġgu ess
ern ou
follow s
ti le
$ |
rr or
Ġfour th
f re
Ġcha nging
Ġ\ Xi
Ġpotential s
Ġpropor tional
Ġk ine
ss s
Ġ$\ ,
ĠI ts
imodu le
k en
Ġ2 5
nt z
Ġcou pled
up les
\l brace
y per
Ġnumer ically
Ġ\ ps
Ġhelp ful
Ġen semb
Ġth ings
ale ph
n k
Ġex terior
Ġev ents
Ġdo ing
Ġsupre mum
C B
Eq uation
Ġassocia tive
Ġasymptotic s
$ _
App endix
)} ^{\
> [
Ġ\s mall
}) (\
Ġdis crimin
Ġsugges ts
satisf ies
Ġcont in
ĠL ore
ge bro
R ic
Ġeigenvector s
i ra
Ġg rant
Ġsign ature
| )
Ġca reful
Ġres cal
Ġcomp ac
Ġresi dual
cyc les
| <\
f unc
ĠP a
Ġ\N N
\c r
Ġs izes
Ġtre ated
Ġd ou
Ġinfinite simal
\ z
Ġde viation
Ġassoci ate
D er
Ġsimple x
Q ua
Ġevent ually
Ġstudi es
Ġinde composable
Ġloc ation
)\ |_{\
fol ding
Ġapproxima ted
Ġcompact ly
ma r
O ut
' .
et ale
]{ $\
\ Hom
de creasing
Ġrel ies
lim sup
_+ ^
Ġ }^{
enter line
Ġpo le
)\ ]
Ġembedding s
Ġc and
Ġspace time
Ġparticular ly
def ine
$. )
ernou lli
)\ |_
a ms
an alytic
Ġapp re
); \
equ al
Ġ\ lfloor
Ġinvestiga ted
S D
d ownarrow
at o
^{ {\
C hapter
B D
ĠT ype
sta bility
ar ge
Ġsepara tely
\Z Z
categor ies
E G
'' _
ell ip
Ġlea ve
Ġaff ect
ga m
Ġg lobally
_{ z}
t d
Ġin ten
Ġpro duces
Ġo wn
ll l
la stic
co sh
Ġregar ding
Ġne ural
^ S
)$ ]
| =\
di ents
Ġweak er
lim its
ha ps
cer tainty
Ġ\ EE
\in put
Ġfol iation
ĠE very
er y
var sigma
Ġ\ ol
Ġillustra ted
po ses
}_{ {\
pl its
k m
ger s
Li pschitz
Ġw all
Ġformula ted
G eneral
b ur
Ġpo set
ĉ ĠĠĠ
S ol
ss ess
re lation
[ ]
Ġ\ deg
Y }
Ġconstruct ing
t p
Ġ\ vartheta
M F
: $
P D
Ġfunction als
Ġd im
Ġh ull
Ġsto pping
con juga
p in
Ġsa dd
Ġmid dle
Ġaccura te
or dered
w hose
Ġmode s
Ġar ising
ter ns
d p
v u
ta ng
Ġcol l
con struction
Ġqu atern
}\, .
or g
Ġis otropic
pp ings
Ġexpon ents
Ġl ot
Ġmonoton icity
Ġf ra
}\ }
200 3
di ly
Ġpen al
) ~
- >
12 5
Ġ| ^
rom ov
\ date
b n
l ist
Ġelect ric
ou nts
e lement
z ier
Ġme di
^{* }\
â Ĥ
fig ures
Ġoptim ality
B L
over rightarrow
proper ty
= |
Ġre verse
em bed
r ical
Ġre pro
P }
irr or
Ġremark s
^* _{\
Ġseg ments
ink owski
Ġtell s
ll er
_{ F}
Ġdistingu ished
\ operatorname
Ġcontribu tions
C an
gra mming
Ġgra ding
Ġorgan ized
Ġ3 2
M on
Ġ\ ep
text tt
Re p
Ġmonomial s
Ġequival ences
Ġbelie ve
Big l
Ġde le
\S TATE
'' .
Ġtermin ology
ri e
ĠO b
C N
Ġmeasu red
sump tions
Ġaltern ating
f y
Ġcon secutive
y ond
Ġpla ys
Ġpreser ve
Ġdomin ant
ro v
Ġtriangu lation
vanish ing
F ollowing
T V
Ġdomin ated
le in
Ġlabel s
s tituting
cla ssical
f o
al es
al ks
Ġminim ization
Ġgeodesic s
b ic
R iemann
ran ce
cyc lic
Th roughout
Ġdiff er
ryst al
M in
Ġdete ction
Ġhom omorphisms
pro jective
Ġb if
Ġaver ag
}^{ -\
li ft
decomp osition
Ġma tro
R C
Ġlift ing
theore tic
ard y
Ġ )}
Ġm ind
M ulti
Ġdev oted
). }
Ġ& :=
cep ts
Ġ6 0
\r ceil
C ha
^{ a}
ĠR o
m orphism
fin ed
( [\
)\ }_{
cur ve
Ġsa ke
in verse
co sity
)\ }
Ġversion s
_ O
}= (\
ĠD is
Ġpo lari
H o
Ġst ress
Ġho pe
aris ki
p gf
Ġrandom ly
m l
)} |
ĠC hoose
ta ngent
ni hi
}\ |_
S c
in ding
Ġprece ding
co ded
Ġreal ized
g p
Con clusion
\ K
Ġ\ ve
E P
ĠI nd
Ġcheck ed
Ġco mb
co v
ĠP ol
\ iota
ĠSch ur
ig u
om mu
}^{ *
c le
Ġqu e
k n
^ o
i ent
) }}{\
+ {\
)$ ).
as ymptotic
Ġ\c heck
Ġ+ +(
compon ent
_{ >
Ġ\ y
al low
vari ate
ĠL yapunov
Ġapproxima tely
Ġ\c A
Ġpo sterior
align at
G F
Ġan gular
Ġover all
! \!
tr ue
)| $
H ow
ur c
:=\ {
{\ |
Ġpar ity
Ġagain st
is omorphic
Ġlim ited
Ġintegra ting
i date
Ġ& &\
Ġminim izing
( .
\ X
Ġ\c O
Ġ Ga
Ġdecre ases
flo at
Re g
S um
il de
}^* \
Ġpri mary
Ġsol vable
Ġcompu ter
ul i
Con t
g b
Ġrewr itten
st ric
ĠĠĠĠĠĠĠĠĠĠĠĠĠĠĠĠĠĠĠĠĠĠĠĠĠĠĠĠĠĠĠĠ ĠĠĠĠĠĠĠĠĠĠĠĠĠĠĠĠĠĠĠĠĠĠĠĠĠĠĠĠĠĠĠĠ
ĠG L
Ġd r
M ap
Ġcon crete
ker n
n b
}\ |^
Ġbu ild
\ U
' },
ever theless
g ree
Ġac cess
\ arrow
E ach
Ġb inomial
)) -
ledge ments
or o
iec k
and er
G P
Ġspect ra
Ġstrate gies
b end
! (
Ġden sities
Ġper spec
b rack
Ġmod ification
c il
\ mathsf
as hed
S a
}= -
Ġ\ del
measu rable
i ta
M ax
b ran
Ġp un
Ġinf lu
* }{
Ġz eta
ĠI II
Ġmodu lus
R T
K M
200 2
^{ c}
Ġlet ters
ssi fication
Ġrea dily
v r
Ġe p
Ġ item
Ġestima tors
Ġpreser ved
ĠE instein
e w
Ġintro ducing
ph y
ĠC P
ib ility
n c
ĠT aking
Ġ\co ordinate
Ġremo ve
G M
_- (
ĠS t
Ġpres cri
Ġmach ine
\in dex
l if
og on
Ġapp endix
lim inary
Ġpro v
ibra tions
ĠLe gend
b G
pha se
l vert
trin sic
ma ps
ĠSpec ifically
Ġmechan ics
Ġun certainty
r ink
D ia
ver age
Ġth ing
Ġcon es
Ġextend ing
sha pe
div is
ĠO f
Ġtermin al
A gain
ul k
Ġintersection s
Ġbalance d
re call
Ġknot s
\ @
ion ic
Ġdescri bing
continu ity
in itial
equ ent
c ard
}} }$
V }
an ge
V er
\r vert
v b
Ġeigen functions
Ġvar iant
1 000
is otropic
scripts cript
Ġformula te
Ġpo ssess
Ġdraw n
\m c
Ġregar ded
to col
per ty
$- $
ĠWith out
Ġsubstitu tion
Ġf lag
Ġtrans verse
W h
n orth
tor sion
tur bed
text width
Ġmix ing
ch er
\b s
Ġnon e
con trol
roth end
Ġd a
Ġcar ried
en able
S tr
Ġ\ implies
Ġexpansion s
Ġ _{2}
\ PP
h line
Ġconne ct
.~ (\
Ġadv ance
c ore
Ġcla imed
fam ily
Ġargu e
}= -\
it eness
Ġsadd le
den sity
Ġre ady
ro matic
Ġmon odromy
}) )$
rothend ieck
15 0
Ġ4 0
Ġinterf ace
mathbb m
] )\
0000 00
u ff
f lu
satisf ying
Ġ\ wh
s gn
Ġdiv ided
Ġdenomin ator
\s tar
_{ D}
Ġh olon
f m
ant or
here nce
proper ties
Ġtreat ment
Ġ\text up
re duced
Ġma ppings
_{ e}
Ġend omorphism
Ġiter ative
en tary
Ġmultipl ier
Ġspe aking
p ter
sf ul
Ġ _2
|\ \
ĠAl though
)\, ,
Ġsequ el
con sider
}\ }$.
Ġ\big cap
L ip
} '(
Ġreco very
_- $
b ody
I F
inter section
in to
Ġ\ fill
Ġex ten
w as
Ġsimpl ified
po ssi
ill ing
Ġbe yond
Ġg ot
Ġrecur sive
ric k
| +|
ĠIn stitute
Ġp lus
Ġ( {
oid al
\n olimits
Ġmin or
scriptscript style
n f
Ġdis tances
b is
| {\
_{ E}
Ġeff ec
)) (
d ouble
div ision
}[ {\
Ġpossi bilities
Ġ. $$
ĠV er
Ġstar ts
Ġste ady
orth ogonal
ĠMa x
cou nt
}) ;
^ F
ech n
t uple
W RIT
Ġprof ile
^{ l}
Ġachie vable
\Big r
rop ical
WRIT E
symme try
}| _{
Ġsmooth ness
Ġsepara te
}} ^\
Ġfollow ed
OI U
asso ciated
j p
Ġreason ing
Ġtest ing
Ġd rop
Ġvary ing
Ġreason able
C }
{ .}
Ġ( [
mom ent
Ġco vered
Ġfast er
ĠP ar
_{ *}
bo th
B ar
^* )\
ĠLore ntz
man y
Ġconf ir
Ġbre ak
^+ }
Ġassign ment
Ġcons ist
can onical
\ O
b H
ur istic
Ġadap tive
Ġphenomen on
Ġd ashed
N P
Ġ\ underbrace
Ġbra id
Ġ3 5
Ġmis sing
Ġv io
Ġde ep
Ġen umer
Ġth in
Ġsetting s
gener ic
F G
Ġpa st
Ġsit uations
E n
Ġspec ify
igh ts
or b
Ġor b
r p
Ġt ensors
acu um
Ġdifficul ty
Ġper s
is tency
Ġs atura
ific ations
ge l
Ġimpl ication
V ol
Ġinsta nces
ĠC or
ĠF ind
] ^\
Ġspec ifically
^{* }(
Ġun folding
\S tate
Ġpro jec
Ġ\c C
Ġfa ir
sta b
bre ve
Ġconcent ration
Ġv or
Ġconstra ined
\ind ent
\in f
in creasing
Ġ\ prec
11 1
ĠC ox
\sub figure
\d ownarrow
ar po
}+ (
Ġref or
Ġpat terns
_{ 6}
Ġcoun terexample
T S
\ det
D C
ta il
+\ |
Ġexp lan
Ġcor ners
algorithm ic
stric t
Ġcons equently
200 1
ab i
g al
Ġcolor ing
th us
_{ w}
plan es
E L
u be
00 1
Re al
)$ \
t n
E very
restric tion
ĠB ayes
/ (\
cal ly
math it
and om
Ġ$\ #
Ġauto matically
g i
ĠĠĠĠĠĠĠĠĠĠĠĠĠĠĠĠ ĠĠĠĠĠĠĠ
) )\\
Ġcompu table
Ġhome omorphic
Ġqu ick
| _\
- {\
Ġre ve
Ġlike ly
ĠT wo
}. )
Ġformula e
^{ b}
v m
)| _{
}^* $
Ġsepara tion
ĠK o
Ġpur poses
Ġ\n n
Ġcont ent
Ġspan ning
^- _
\ de
gener ated
Ġin gre
qu estion
.. .,
\ vartheta
dition ally
h l
Ġhigh ly
ma trices
r l
\over set
Ġ$[ -
lay er
\ CC
_{ [\
Ġcontrol led
Ġreason s
}\ }_{
}^{ *}
Ġâ Ĩ
x b
, (\
b rid
Ġrefine ment
^ w
ĠH ar
P ut
fort unately
, {
\ underset
ĉĉĉĉ ĉ
ĠThe ory
Ġinteraction s
Ġca pa
Ġa mple
Ġdis play
not in
Ġsuc cess
\f i
' re
t l
f c
Ġlift s
d ow
de cor
Con versely
Ġfor cing
Ġsimple st
Ġpropa gation
Ġrespon se
t ures
ma y
^ -\
Ġra d
]^- {\
Ġbij ective
Ġ\c F
com ing
. \,
d B
Ġscal es
) &=&
s ys
Ġpoly gon
^+ _{
math ds
Ġex change
Al though
Ġ ),
_+ ,
on o
Ġ\g g
Ġup da
F L
Ġde lta
Ġref lect
Ġco cycle
Ġsome what
)\ |\
ĠE qu
v f
)) }\
ĠW i
Ġf erm
Ġobtain ing
^+ (\
t f
Ġdri ft
Ġs par
g ent
Ġ ri
l ication
] -
a mb
par tic
Ġperturb ations
aff ine
Re f
Ġsp heres
_{ Y}
\ om
Ġta ng
be zier
local ly
co effici
ou ville
ĠR ec
lem entary
Ġcon cave
ĠS NR
Ġ\big gl
Ġob struction
Ġres p
G C
, "
ir al
Ġw ater
Ġanaly tical
it on
8 }
Ġcons istency
Ġremo ved
| }{\
B er
Ġelect ro
Ġconsider ation
Ġin duce
a da
Ġdis sipa
ĠMa th
\R ightarrow
Ġp ub
ĠB ra
al th
s he
in label
Ġmod ify
Ġpro gramming
\ wt
ĠZ ariski
comp ati
od inger
Ġf ine
[ $\
Ġdecomp ose
\ approx
ĠP r
cor ner
Ġch ild
_{ I}
' )=
dis c
r v
b F
M SE
Ġ\ en
Ġg ave
s y
Ġ ign
Ġbuil ding
Ġ )^
Ġcongru ence
b S
ĠP art
' )$,
] _\
7 }
er c
Ġpara graph
Y au
ig gs
\e p
Ġcar rier
c U
la x
R P
c Z
Ġre cor
la w
cu be
Ġ\ up
F C
Ġ\ path
Ġ\ rr
re cur
}) )\
d w
Ġ$ <
Ġcol ors
Ġ\r times
Ġimmer sion
Ġ\r vert
Â ł
\r Vert
Ġh ist
led g
ob ject
te o
C ol
Ġimpor tance
Ġ _0
Ġexhi bit
Ġperspec tive
G H
gine ering
5 00
den ote
ke l
lexi ve
\ pr
}) ^\
Ġ\in d
Ġmutu ally
Ġcont our
pro jection
Ġrea ding
nu ll
gra dient
, ~\
pi red
tor tion
z y
Ġlike lihood
Ġglu ing
Ġs ources
Ġconcent ra
Ġsub t
ss mann
un g
Ġsequ ential
ga p
^* =
T able
ure nt
Ġqu otients
a ult
^* ,\
Ġfix es
pla in
Ġâ Ģ
Ġs plits
' ll
Ġd g
Ġt ropical
Ġal location
cor o
uniform ly
ĠH ecke
th ese
Ġin t
Ġma pped
ad missible
\new line
Ġremo ving
Ġan nihi
b ord
P h
M or
Ġ\ om
res sible
ne y
k h
lic ations
' ]
line color
Ġ _{0}
tain ing
Ġgener ation
tor us
[ -\
er ies
' d
Ġstru ct
Ġ- >
Ġenviron ment
\ mb
sp in
ga te
Ġflu ct
ĠC R
Ġtest s
ti er
ram ified
Ġsha re
K o
general ized
ĠS h
Ġ$ +
distribu tion
Ġ ve
te l
Ġcomple ted
25 0
Ġde formations
Ġlook s
B H
ore nstein
Ġintegra nd
ĠC hapter
ay ley
ĠW rite
Ġcontin uation
Ġ2 3
possi bly
z er
Ġs lice
s ample
i ers
ĠB oth
Ġat trac
Ġ\ op
weigh ted
d R
Ġrelax ation
ip otent
Ġsucces sful
i ous
. },
}, {
Ġrun ning
Ġ} }\
+\ !
}\, ,
l Vert
Ġidemp otent
s n
\big cup
cha nged
Ġattemp t
Ġmotiv ated
\Big g
Ġmathe matics
[ (\
Ġcomp aring
arpo on
}] $.
\N N
S m
Ġrecall ing
Ġpla ces
wa ve
Ġ ).
~~ ~
Ġ\l ra
Ġcoll ision
b h
Ġt uple
)-- (-
Ġimplem ented
Ġsome one
cho ol
ht bp
Ġs ketch
Ġpro tocol
N D
Ġ\ pr
ĠLe vi
z en
Ġp seud
ner gy
Ġvis cosity
= $
A V
b q
[ $
Ġ: :
In ter
Ġimp ose
Ġ lying
Ġcon cepts
ĠF ollowing
Ġrecur sion
^{ x}
}{ .
J aco
an ti
ĠMor se
el low
hol m
ĠS ec
ention ed
Ġ$\ {(
to ms
ĠPro ve
con ditions
ĠS tein
h r
to ff
ĠG r
W W
Pre liminaries
llip tic
Ġsign s
}_{ [
Sch warz
on v
Ġf all
& -\
\c enterline
+ (-
ve ps
act ing
ĠSection s
Sp in
S pace
es ted
st s
c ision
k u
)| =
] $-
x rightarrow
} &=
{ =
Ġ\geq slant
Ġtrunc ated
ha us
, &
pr incip
Ġinvol ve
Ġ !
c ast
b Q
ĠM IMO
v phi
ro u
Ġpredic tion
Ġmargin al
Ġch art
i red
or al
Ġdiv iding
Ġconverg ing
Ġ\r ceil
pr ising
s ame
Ġbif urc
Ġ\ ov
Ġ\c H
spect ral
us sian
Ġjo in
\B bb
Ġcus p
G raph
Ġau gm
S ta
P ri
Ġg reen
Ġres on
ĠF e
a rable
@ {-
Ġcor ner
Ġdiscrimin ant
ĠS how
op le
place ment
Ġinver sion
Ġdivis ion
\ rr
Ġ\c L
Ġv s
ĠD ue
Ġatta ched
Ġ\c M
ĠDe partment
Ġde coder
Ġmer omorphic
Ġ\ar g
:= (
ev y
ogon ality
] \,
Le ftrightarrow
iden tity
a ut
Ġe limin
Ġmain ly
' }$.
Ġguarante ed
Ġsubs equent
Ġestablish es
Ġequal ities
\r times
et ti
ĠM odel
qua ntum
dis tance
Ġdecre ase
Ġpri v
v in
Ġdefin able
ser ved
Ġrepe at
C I
Ġ\big gr
Ġcontra ry
Pro blem
Ġplay er
ĠQ ua
& (
Ġp lu
ĠM inkowski
Ġstreng th
G ra
o }
st ers
Ġimp act
in duced
du als
lem m
)! }
Ġgrow s
ĠH essian
g d
(\ |\
Ġrigor ous
ti tion
Ġgra vity
s F
ĠCo hen
asu re
T e
Ġlet ter
v ia
Ġsche du
Gaus sian
ĠB ernoulli
Ġ\r Vert
ari os
normal ized
Ġcol our
Ġ( $(
Ġ\ GL
IEEE eqnarray
pothes is
P art
o ck
pl ication
sol id
Ġs l
i les
ĠW hy
to gether
Ġnon commutative
in equality
ĠLag range
^+ ,
yn kin
Ġcommuta tor
})- (\
H P
with out
{- .
' /
P oisson
' :
Ġbran ching
neighb or
Q }
Ġintu ition
$ ~
_{ P}
S tokes
re a
Ġcomb ine
},\ ,
\ rm
in j
^+ $.
at en
eqn o
i math
ĠĠĠĠĠĠĠĠĠĠĠĠĠĠĠĠ ĠĠ
y p
ri an
Ġcommu ting
me mber
B E
u le
Ġco hom
Ġ\ J
alg o
\multi put
}} _\
ĠP ic
^ C
a dap
max imal
ib bs
Ġ )$.
}^{ +\
ir th
el se
top es
the red
Ġdecomp ositions
deriv ative
as ser
ma s
Ġex am
pro bability
ĠP er
Pro j
Ġsummari ze
re v
succ eq
Ġcircu it
B i
bf x
Ġpric e
avi er
ĠP ut
E X
Ġ\texts c
Ġs lot
Ġemploy ed
al t
Ġindic ated
den se
T P
big gr
S W
Ġl isted
Ġmotiv ation
he v
H K
h ard
ĠCon versely
ma ss
ta ke
)> \
D A
^{ |
s r
^ J
la ter
,... ,\
ma gnetic
og en
ontinu ous
form ally
' ^
+ {
dot ted
Ġcharacteristic s
S V
u ck
Ġintegra te
u es
n x
Ġback ward
exp ansion
ĠC ol
^ V
Ġo be
ed ges
Ġcap ture
Ġn uc
Ġcol ored
d b
oo lean
Ġtra vel
^+ $,
T H
}} [
Ġsug gest
te ful
Ġdetermin ing
Ġplan es
pro cess
C K
m ix
bb R
Ġcol lect
posed ness
Ġal gebro
ex pec
S im
H ilbert
Ġstabil izer
it ting
Ġv acuum
ĠY ang
Ġmultip lying
Ġconcern ed
Ġgeneral izes
Ġ2 1
Ġredu cible
19 99
Ġwon der
it ching
' )}
\ gg
Ġneighb ors
Ġa gg
z es
ec ted
Ġcom ment
en o
U p
Ġb ad
Ġpa y
t ty
Ġt end
Ġre ly
}} ^{-
ta tives
D iv
Ġensemb le
n l
is enberg
\ tr
}_ *
i u
bound s
Ġor ig
Ġwire less
Ġs ending
n as
3 00
Ġde ca
ur ve
Ġinflu ence
C a
is s
un ion
Ġno vel
go ing
B K
ĠAl gebra
^* _\
tot al
Ġ(- .
du ctor
12 8
h f
Ġ\b x
Ġat tract
Ġw ind
Ġ& -
Ġ\ varrho
c x
ĠAn other
tif y
sco pic
T or
min im
Ġmember s
Ġ ^\
Ġmultip ly
v w
Ġin puts
vers ality
Ġassign ed
m ond
ies z
\mu lticolumn
l der
in ation
Ġ\c at
)} _\
O V
ĠG rothendieck
Ġde fect
Ġcirc ular
b B
Ġrequire ments
, *
Ġrela y
Ġrela te
\ prec
P I
Ġpref er
es p
Ġg over
Ġimprove ment
})\ ,
- }
& \\
Ġp iec
n at
[- >,
}\ |_{\
Ġconsider ations
\ ^
ellip tic
_{ V}
) [\
Ġf usion
ise box
U M
19 98
Ġtr ig
Ġag rees
Ġtrans formed
D ue
Ġgra teful
cent ral
ĠT hanks
Ġlow est
U U
Ġcriter ia
Ġ\c D
}| ^{
Eq n
)) +
13 5
h ic
] (\
ct ually
ĠR a
Ġso ft
-------- --------
e val
ib n
te ch
chan nel
Ġcons equences
e ctor
\n n
bl ing
G R
Ġscen arios
t v
Ġmo le
Ġpiec es
Ġbi as
col umn
/ [
Ġp or
Ġag ent
Ġ\ ket
\x rightarrow
para m
Ġcompati bility
ver b
)} ;
ak a
Ġen coding
Ġ\r brace
Ġcre ate
\in v
as sume
Ġbi rational
Ġ\ xymatrix
Ġ\le ftarrow
ble ms
)^ +
UN CT
Ġre ductive
or ing
N umerical
Ġ\l vert
} '\
Ġ }.
Ġsubs tituting
Ġh ar
S uch
ĠCo mbining
Ġprov iding
us s
om m
au lay
Ġexce ed
_{\ {\
Ġkine tic
Ġa toms
Ġben ef
G K
Ġsugges ted
Ġcorre ction
w artz
Ġal ign
Ġestima ting
Ġlogarith m
n ice
Ġf la
Ġmo der
vector s
L apla
Ġ\ prime
b T
are nt
)}$ $
ig ible
red holm
Ġminim ize
Ġcardin al
G A
ĠCox eter
min imum
Ġfrequen cies
Ġ: =\
pa ck
ur l
m v
ed y
sta tes
ĠRe f
Ġex clude
Ġro oted
)) ^{-
Ġ: \
ound ation
ĠS O
)) ,\
ĠM ulti
Ġ\T r
var nothing
Ġ _\
coun table
^ 9
Ġ\ triangleq
' )^
c ref
}\ {\
Ġ\L e
Ġb ic
Ġm irror
M N
conne ction
Ġjump s
h ind
\L T
G N
Ġdepic ted
cr it
Ġstruct ural
Lo cal
- $\
Ġ$( {\
Ġprobabil istic
Ġbuil t
Ġbound ing
Ġdig raph
Ġentire ly
w s
ell er
k t
Ġabs or
Ġapplic able
K a
Ġpo sitivity
\ tag
F D
Ġdis per
N orm
com es
Ġ\c l
Ġw alks
Ġ\ frak
bold math
ĠIn stead
Ġass ms
T op
f d
de pth
B a
ti g
G E
cor por
H L
Ġam ounts
Ġdevelop ment
Ġwor st
De l
]{ .
p b
ver tices
A u
cell s
Ġsummand s
Ġiter ated
Ġthe ta
center ing
Ġparametri zed
C hoose
ssi ve
O U
x shift
Ġquad ra
Ġ\P r
ili ar
t um
re ly
Ġbelong ing
Ġfil tered
Ġadj unction
Ġen tangle
v or
Ġ" (
l ra
_{ C}
ĠG romov
ma tion
> "
O D
Re l
nec ess
us er
Ġex ercise
'' )
[ $(
Ġ\E nd
Ġdot ted
P A
G o
Ġhe uristic
{ }^
Ġpe ople
+\ |\
U niver
qu otient
P E
Ġinterpre t
] }{
Ġans wers
}. \\
> =
ĠA rtin
b g
Ġg as
d h
Ġis otopy
Ġachie ves
Ġ\ sqcup
ĠC ha
] |
Ġ\ 1
\m od
Ġ _{n}
z s
Ġindic ator
sub group
10 1
sh ort
u tr
ĠT echn
Ġvar iations
Ġte tra
Ġprobab ly
}\ !\
Ġser v
lab or
Ġ2 2
qua nti
Ġgeometric ally
),\ ,
Ġ\lim sup
da ma
j a
c z
\big gl
Ġ\ HH
n v
Ġexplan ation
Ġ ^
Ġ} ^{\
F A
sch ild
# #
Ġl en
Ġempha size
Ġla ck
Ġ _i
Ġ }(\
Ġintu i
per ties
equation s
ĠĠĠĠĠĠĠĠĠĠĠĠĠĠĠĠ ĠĠĠĠĠ
tw isted
g rid
\ tfrac
L u
ec ker
H D
N C
Ġex per
regular ity
_ *}
Ġev ol
Ġdeal ing
S ing
Ġsay ing
}^* (
al p
ign e
})$ -
fl align
Ġ\A ut
Ġimple ment
L C
ĠC ou
ar ds
Ġ\m y
d n
Acknow ledgements
S ha
Ġs pre
o dot
ĉ ĠĠ
c Y
Su pp
=\ !
mid t
b theta
stru ctures
Ġend point
tribu tion
ob tained
Ġ\ne g
Ġbro ad
ele ments
)$. }
I L
Ġformal ism
ima ges
Ġu l
E uler
R em
ex pres
l brace
parame tric
do es
Ġsub module
\b a
o la
Ġcar ries
^ E
Ġ\c S
Ġse min
lim inf
Ġloc ated
Ġf ront
ys hift
nec tivity
)\ }$.
su ffici
Ġstar ted
^{* }$
qu ote
act or
chi me
Ġag ents
con tra
{ ,
Ġanalog y
G u
Ġ= (
Ġ\ ud
ur st
du ality
Ġlay ers
Ġbe hind
c Q
Ġcertain ly
p seudo
Ġ\ Om
Ġac yclic
Ġper i
ĠHa ar
ro xima
integra ble
m rm
ur n
dis joint
Ġomit ted
){ };
Ġpre cision
ir reducible
Ġfix ing
Ġconsider s
d ig
d ri
h ler
ab c
ibn iz
dire ction
ĠS te
}) }$
ĠE s
)) }{
F M
Ġmechan ism
Ġmatro id
Ġc he
Ġ( |
valu ating
o tic
ec k
_+ (\
ger y
Ġref ined
Ġfree ly
f u
ound s
Ġrepresen tatives
}) |
s mash
ĠDo es
r un
\p inlabel
W }
Ġcomp osed
Ġfin ds
s P
Ġtrip les
de an
.. ..
$\ {\
ter ms
ga thered
Ġ\mu lti
}}$ $
b and
Ġ& +
k not
ĠA lex
Ġmodel ing
ent al
Al gorithm
cccc cccc
Ġcross ings
k r
ĠN umber
}$ \\
Ġcons titu
d ir
or igin
~~~~ ~~~~
strong ly
Ġissu es
Ġcha pter
Ġden oting
Ġresol vent
Ġinten sity
be red
Ġa bu
ĠS ol
gl igible
Ġun ramified
] },
Ġto pic
Ġcand idate
te m
Ġin jection
i vers
Ġc rystal
ĠPro positions
Ġd v
Ġ\c E
ju mp
Ġpro cessing
ĠN evertheless
ĠD u
Ġ\b R
Ġexpand ing
ĠH y
Ġ\v dash
Ġallow ing
- |\
la ss
}= "
| /
Ġaspect s
p tim
Ġs ci
Ġpro duced
re duction
Ġco set
no ise
G en
co mpl
c v
_{ Q}
Ġpre liminary
Ġalpha bet
' }^
Ġin er
B es
Ġre ci
Ġro ta
Ġcou ple
Ġinf imum
h skip
approxima tion
! }{
Ġfa ding
P ol
27 0
Ġinf erence
ĠGra ssmann
gg ing
stru cted
Ġ. $
^ P
ĠG er
Ġon line
f b
Ġis ometries
texts c
mu l
rela tive
\ W
\lim sup
} &=\
Ġidentif ying
ide finite
Ġfor get
w all
ex plicit
ĠC ho
con formal
Ġd ro
c g
bra kk
Ġ\ ga
}( -\
ĠF oundation
f ix
J }
With out
>> >
. (\
duc tively
ival ently
Ġappre ciated
Ġ\sup set
Ġhierarch y
Ġwh ence
Ġinclusion s
ĠR ad
Ġrestric ts
U }
\ y
co mbin
Ġhyper surfaces
Ġintegra bility
s ymbol
ro tate
Ġmin us
inate s
p x
os z
Ġho le
modu lar
Ġdecomp osed
s outh
Ġqu ar
ex ponential
c ertain
}] $,
ĠP e
E d
Ġsub sta
Ġde duced
\ Xi
}- (
fil led
Ġnon degenerate
ot ropy
C V
Ġorb ifold
)) ^{\
chime dean
ĠM in
Ġscal ed
ĠĠĠĠĠĠĠĠĠĠĠĠĠĠĠĠ ĠĠĠĠ
Ġcomple mentary
Ġin corpor
ĠSci ences
\ keywords
di es
ĠB oolean
Ġ )^{
p otential
ĠF r
Ġeffici ently
texts f
T C
con f
al i
Ġ\l Vert
cur l
D en
Ġholon omy
Ġs ort
hyper bolic
\vspace *
differe nt
b ys
Ġam enable
vers es
al a
el s
model s
_ -\
. }}
DE s
Ġde st
N et
Ġdata set
Ġe lastic
Ġfra mes
ke leton
"; "
Ġch ord
Ġsyn chron
x z
Ġper haps
\ hookrightarrow
Ġk e
Ġqu ality
Ġstr ings
inte ger
Ġep im
tima tely
Ġ$* $-
v ation
par ticle
Ġrecur sively
re qu
}\ }$,
Ġre ar
|\ ,\
multi plic
Ġnear ly
Ġspar sity
d c
L B
sing le
Ġexam ine
Ġprescri bed
K P
\b ullet
\l ceil
Ġ\ preceq
Ġin trinsic
L O
Ġparame tric
ĠLa urent
Ġhyper planes
up s
Ġsol ver
hom omorphism
example s
H F
Ġrecon sider
math ring
Ġsh rink
Ġdesign ed
Ġis n
Ġver sus
Ġtor i
Ġcomp ression
\ ss
Ġfurther more
Ġco s
Ġpres ents
ĠF lo
iv ing
Ġ&= &\
ĠI m
; \\
C c
) &=&\
Ġrough ly
S imilar
z i
ent ropy
rr rr
Ġ\ supp
Ġg ames
K u
Ġ\b u
ti e
] _-
ĠT r
U E
Ġref ers
Mac aulay
Ġclu sters
Ġtransmit ted
ĠP hy
Ġ\la nd
Ġbox es
sc end
Ġmin i
Ġ\ st
Ġan tic
Ġconjecture d
Ġac cep
s qua
Ġconc aten
}) /
ĠS tokes
Ġmess ages
tan h
Ġ2 6
Ġstri p
r cl
^* \|
Ġp lease
ĠCal abi
Ġ$( -\
Ġun ipotent
Ġcell ular
\set length
S NR
Ġvis ual
Ġhom otopic
Ġfinish es
Ġ\d ownarrow
o st
\f oreach
class es
Ġ\ iff
iv ari
Ġappe ared
R F
j l
Ġcli que
= >
on ically
Ġsupp orts
Ġ\c P
sta tionary
Ġdis tortion
tr unc
M D
ĠC ayley
Ġsur vey
ot al
IN R
or bits
stra p
co vered
Ġsub division
L A
ĠMathe matical
d k
Ġsumma ry
ĠP re
dama rd
ho ff
al an
Ġin comp
Ġray s
I J
\new page
colon eqq
# \
in put
Ġtrunc ation
^* }\
Ġob sta
Ġdis ks
Ġshift s
Example s
Ġt rack
Ġpro x
ial gebra
Sub stituting
Ġ> =
Ġsmooth ing
ma rgin
ong leftrightarrow
}} }(
}$ ),
Ġper turbed
big wedge
Ġabu se
ĠH ardy
Ġin her
ashi on
ho ods
ode s
Ġanten nas
mu ra
quad ratic
W rite
Ġ1 99
Ġsign ed
text color
ĠCh ina
ba tim
ra ce
ne ar
Ġ2 7
Ġsqua red
Ġ\ Y
| |^
def ault
ot one
Ġany thing
provide d
ĠS imilar
$ |\
Ġlabel led
^{ +\
ivari ate
^* -
Ġpoly topes
g ives
Ġcompac tification
R M
h ou
Ġlo ad
L arge
Ġra pid
Ġapproxima ting
Ġsh ifted
Ġt un
)$ };
S H
er kin
ha nce
_+ $,
^{ '
n one
Ġdifferential s
Ġn odal
re nts
ho ck
00 000
Ġbracket s
Con dition
Ġany one
P e
){ {\
Ġparametri zation
\ id
s olutions
Ġord inal
Ġad opt
Ġcoun tably
ww w
19 96
Ġbranch es
e fined
f our
Ġrea ction
Ġreco vered
righ th
v ability
Ġm m
j an
y i
cal C
ĠI V
' $-
, |
ĠCar tesian
F unction
}) ]
ĠS P
F r
Ġat tained
ledg ments
Ġb ulk
Ġd B
Ġ2 8
The y
),\ ]
han k
ch ite
IEEE proof
co herent
- )
R A
Ġpha ses
ro x
Ġann ulus
j class
lo ss
Ġimp osed
k p
row th
h or
Ġsur prising
Ġreco gn
Ġatta ck
Ġ" \
_+ }
Ġta me
Ġcontrac tible
' ),
ara bic
ĠM y
rig id
,\ ,\,
v ich
ver sion
p ed
| +\
s parse
ynam ic
Ġcost s
Ġchall en
f h
Ġsub variety
( $\
olog ies
M an
te ct
Ġcon ject
Ġ\math op
)= {\
Ġask ed
Ġtopolog ically
osz ul
\ up
Ġperform ing
s b
Ġevery thing
c en
t raction
co h
Ġlinear ized
$ ^
F I
}{ {
operator s
ha ble
ĠA belian
a e
v olume
Ġpenal ty
m g
Ġare as
in o
) '
ĠN ational
K T
Ġm ild
Ġma cro
at um
ht b
compati ble
B T
Ġeigen function
ic z
Ġsummari zed
Ġshor test
c W
are st
Ġme ta
Ġsw itch
e ld
asi cally
H C
75 0
Ġori entable
ti zation
Ġ\ th
Ġanaly zed
Ġp i
Ġpe ak
wr ite
\l Vert
> )
^{( -
ĠC a
s pa
Ġgeneral ised
constra ined
y a
Ġ\c B
hed ra
D i
Ġhe ter
|= |
b L
u er
ĠA P
tern atively
qu et
T rans
Ġfunctor ial
Ġwor ld
) )\,
the refore
}\ }\
L in
Ġcontinu um
Ġget ting
Ġintersect ing
Ġ| |\
Ġwide ly
Ġco prime
Ġconclusion s
R N
}$. }
ĠBes sel
Ġdiffe omorphisms
repres entations
Ġin ductively
si bility
Ġmulti variate
r ich
Ġfam iliar
hom otopy
variable s
ding er
ot s
Ġtransmit ter
Ġque ue
\ varrho
be ll
^{ |\
ar b
Ġcounter part
ĠÎ ±
co st
Ġmutu al
Ġpri mal
ĠPic ard
Ġ\h bar
da ble
1 12
sure math
ros sed
ĠK illing
dec ay
z ations
Ġe f
po le
}{\ |
is ter
)}{ |
Ġcorrect ly
b E
a w
], [
partic ular
q n
M odel
ch es
ĠD G
\ ds
ron ecker
co cycle
Ġ ĉĊ
s ay
Ġtrans versal
Ġâ ī
\text up
> (
{ }_
' ))
R G
ĠRes ults
code s
w i
u pp
Ġpre condition
Ġrad ical
t m
Ġad op
l c
de finite
M u
Ġma ssive
aa a
Ġb os
re lated
ĠAn alysis
oh n
simple x
}} |\
D f
Ġadjac ency
ac tive
is om
]^- {
^{\ ,
Ġ er
ro t
ce d
D L
ic ular
v o
Ġe lim
erm ite
Ġvalid ity
ci ties
ĠĠĠĠĠĠĠĠĠĠĠĠĠĠĠĠ ĠĠĠĠĠĠĠĠ
Ġins pired
Ġtra de
Ġve hic
b alance
Ġsemigroup s
og ene
G reen
\c M
top ology
Ġf lexi
s A
Ġsur jection
bb on
4 00
Ġref lexive
Ġhe l
par ts
lif ford
Ġagg re
_{ 7}
Ġpo p
ĠPro p
ĠS V
weak ly
_+ $.
pend icular
Ġcla ri
imodu lar
pid al
ĠDe l
base line
rg b
= {(
\ iff
cont ents
ĠPro perty
diff erence
sto chastic
Ġeffec tively
ĠHe isenberg
ĠG roup
Ġsw itching
Ġ\ im
Ġout line
tiv ation
Ġcontro ller
Ġexperiment al
Ġspec ies
Int ro
Ġamb ient
Ġ\text normal
Ġconcentra ted
la ps
H z
Ã ¶
] +\
\ ts
=\ ;
ĠC M
ĠR HS
ta ne
Ġreal izations
Ġ\def eq
! $
( *
\ EE
19 97
U ni
}). $$
P M
u zz
z able
ire cted
* -
B Z
\ sqcup
Ġop tion
Ġf ashion
s est
is ms
ĠĠĠĠĠĠĠĠĠĠĠĠĠĠĠĠ ĠĠĠĠĠĠ
tr sim
$\ ,
Ġtrans lations
Ġclo ser
Ġ 90
ĠEx t
Ġconven tional
ĠâĨ Ĵ
Ġp an
Ġjo ining
Ġorth ogonality
is y
ĠA D
I ST
on ic
SE Q
ĠMon te
Ġgra vi
Ġc are
=\ {(
ra t
Ġcompu tes
Ġmultiplic ities
Ġ )$,
Ġre ducing
Ġ\text color
T ri
Cla im
Ġf an
)) -\
note q
d omin
tiv istic
\l vert
ĠS tate
Ġanaly tically
Ġpack et
{\ '
Ġq ed
ĠRe al
tif ic
in ds
li que
ĠS L
wo od
pect ral
Ġpun cture
^\ #
ĠG orenstein
}$ &
ian s
Ġen ables
F R
ĠIn ter
[- ]
Ġdig its
Ġband width
\sub jclass
B W
Ġsem idefinite
s sec
or age
N L
Ġsta tic
Ġnon local
H T
Ġco herence
ĠC lifford
main thm
H I
on ds
ĠM AT
Ġran ges
d dot
corre ct
ir s
E A
Ġ ~~
Ġco bord
: \\
L og
ĠN on
orem entioned
Ġanalog ously
Ġsucces sive
ĠB a
Ġ$| |
c of
comp are
ĠC S
ĠQu estion
a min
ĠI N
ed ia
ĠE ven
Ġun like
Ġtriangu lated
^* )^
}| _{\
'' }
Ġcon served
ce ed
}= [
Ġme ets
Ġres ource
Ġout puts
No tation
p at
Ġco product
n ov
Ġ\v p
| |_
in jective
ĠN avier
Ġcalcu lating
Ġsimilar ity
\c olumn
id is
n h
Ġ tes
Ġsubs titute
Ġsen sing
L inear
m or
Ġ\math ds
Ġcaus al
m S
Ġclaim s
ma rtingale
Ġaddition ally
ĠOb viously
Ġlocal ized
s L
Ġar chite
Ġcontinu ed
Ġ\m f
ens en
ĠD iffere
Ġvar ies
Ġsub manifolds
me thod
Ġapp arent
Ġtru th
Ġsite s
Ġanten na
ĠBayes ian
Ġthem selves
Ġcontradic ting
V I
B ased
Ġg er
ip u
embed ding
Ġ( (\
A c
ru e
Ġful fill
s O
Ġh idden
pr p
\ if
d W
r x
top ological
ec omp
ch en
Ġdifferenti ation
2 10
Ġhy pe
L G
a q
v g
W itten
Ġ\ La
Ġ\lim inf
ra nd
\c A
{ }_{
) )}{\
ra tio
lin ed
){ .
ok ing
ol l
ta ils
Co h
Riemann ian
Ġimpl ied
cross ing
ategor y
Ġ ],
Ġn a
Ġcomp arable
the y
re lations
rac le
}= {\
Ġbifurc ation
Op tim
bys hev
Ġacceler ation
)} }$
Ġarrange ment
ĠG eneral
O pt
scal ar
}, ~\
ĠN SF
Ġmode led
Ġarri val
' }$,
ĠT op
ier stra
Ġinsta nt
Ġ _{i}
Ġamb igu
}( |
}_{\ {
Ġutil ity
Ġ )=
O C
Ġc rossed
Ġ\ ex
14 0
ĠT e
M I
Ġno isy
tang ular
Ġf ac
Jaco bi
Ġaf orementioned
Ġgeneral izations
Ġloc ations
f teq
U B
\sub float
Ġ\l brace
} ''
\column width
th rough
name ly
Fig ures
}}\ ,\
Ġ\d x
f ast
: .
n te
Ġdiff ers
htt p
ul tra
Ġs ti
Ġ\b v
D T
b imodule
ish er
O L
Ġx y
â Ł
\big oplus
} "
N A
Ġaverag ing
Ġresi du
nd s
Ġcan onically
Ġphenomen a
\subsubsection *
parameter s
serv ation
H amiltonian
Ġquad r
pa ss
G W
} '_
ĠCar lo
ĠD en
ob j
)] ^
Ġ\ vect
Ġ\S pec
Ġatom ic
C ho
or ting
ĠRE AL
Ġsc ore
Ġimplicit ly
Ġhy brid
x s
Ġpoly hedral
Ġ enter
clu ster
ĠF redholm
Ġ\b Z
determin ed
ĠP h
ĠR iesz
Ġrefor mula
uni versal
})$ $
Ġ\c line
Ġexplo it
s G
Ġsample d
\ ga
C r
_{ W}
Ġir rational
) ^*\
a ves
depend ing
mid way
Con vergence
Ġnon singular
Ġinitial ly
ĠT rans
Ġabs ence
su it
B oth
Ġ\ one
coeffici ents
Ġd atum
Ġex ec
ou ter
Ġ\Le ftrightarrow
ĠAs sumptions
G roup
T x
t g
it ness
Ġne gligible
re y
Ġquadra ture
@ {\
co homology
Ġquick ly
Ġuni verse
Ġfre qu
S tar
Ġthrough put
se y
S te
Ġ\ >
ĠV ar
\ Om
Ġconf usion
Ġimp lying
pa per
po lation
R n
on om
ĠPDE s
W ang
Ġstra tum
Ġcu bes
tru cture
G T
yn man
\b x
Ġrep orted
ĠNo etherian
Ġper pendicular
en ti
Ġful filled
_ _
ĠAs suming
Ġoper ad
Ġinvestiga tion
Ġ\ j
Ġobserv able
tur ns
Ġsubsta ntial
Ġre normal
\c line
Ġ\I m
supp ort
\ op
J J
f k
app ear
Ġdis placement
Ġd ra
Ġle d
$ -\
ĠA SM
ĠRad on
ent ral
Ġbig ger
Ġcha mber
w itz
Ġ\ tensor
}} },
ĠH iggs
F orm
\ si
Ġn ested
S K
19 95
ð Ŀ
\h bar
j unction
cite p
Ġhyper geometric
Ġdis continuous
ps picture
Ġspin or
ĠM ac
kip edia
Ġmix ture
Q P
! \!\!
h p
r ings
arpoon up
+ +
i ti
ĠB ol
ey words
_{ 8}
Ġmark et
Ob viously
ĠG rant
Ġrequ iring
ind rical
Ġobserv ables
g ment
16 0
~$ (
Ġestablish ing
Ġgener ically
Ġev idence
\c C
Ġst orage
Ġclo ck
+ +(
cho ice
Ġserv ice
ĠThe ir
Ġdemonstra ted
3 60
tran sitive
N a
M O
Ġreplace ment
Ġpop ular
ĠH amilton
ss on
au tom
T F
trans form
lo sed
}\ ;\
ĠR ham
Ġd ic
sw ap
princip al
po lar
\ Re
cover ing
As suming
fil ter
\n i
\ ve
Ġquanti f
Ġpro jector
C om
Ġ ener
Ġp ul
Ġ& \\
Ġcent re
ta ges
ĠG ibbs
al d
ill i
\c heck
ĠU SA
Ġorig inally
Ġ\ phantom
Ġwind ow
F e
Ġ }^
Ġadj ust
Ġso on
r times
Ġnumer ator
B OO
}} )$.
ian ce
Ġ4 5
su mma
Ġclassif ied
Ġcon ic
Ġw est
Ġ\d iff
enum i
ĠRe g
Ġderiv ations
ite ms
ĠS eg
K R
k x
Ġ3 6
Ġta n
\ del
ori ented
\E nd
Ġmultipl iers
_- ,
ound ed
}/ {
b V
Comp arison
_{ J}
p ure
app ly
se mis
bi ased
24 0
Ġh tt
Ġcommu tation
f q
Ġ\F F
s ymplectic
ur ity
Ġpre image
deg ener
{\ |\
gor ov
Ġobser ving
Ġdy adic
' \|
ori ta
} *{
b M
per turb
diff usion
ti a
Ġout come
. -
ĠM an
Ġdis connected
}} :
var kappa
^* =\
F ourier
Ġ\ beq
H ar
ĠLe ibniz
\e a
ĠC antor
Ġextreme ly
sem igroup
Ġab bre
Ġ\ Upsilon
*} [
eng ing
Ġillustra tes
> -
Ġ\ lt
Ġ\ ds
C W
ha se
_{ U}
25 6
Ġsp ir
k ind
Ġear ly
T A
equ i
T ype
Ġ\d ist
Ġocc up
velo pe
ir k
ĠO nce
ĠK lein
Ġw in
^{ 6}
Ġmod ifications
Ġpoint ing
Ġretur ns
ĠH el
Ġhyper graph
is er
Ġexplo re
ierstra ss
Ġ\b mod
pro ve
im es
- {
ua te
We yl
var ieties
Ġ6 4
Ġpropor tion
}) ).
P SL
n umerical
Ġreci pro
T a
Ġvarian ts
$$ |
Ġjoint ly
Ġtherm od
ĠB ob
Ġconserv ative
y x
Ġplot s
Ġ\ se
@ {}
N E
\n c
}}\ |
Ġaugm ented
Ġco oper
la sh
}| $
condition al
w est
Ġ\L L
B u
Ġver ifies
}] ,
f ile
cur ves
}} ]\
par r
Ġyield ing
] ^{-
Ġ3 4
Ġf ee
la ble
Ġsub algebras
l g
Ġour selves
\ ov
Ġ\l b
Ġcu mula
Ġprog ress
Ġ\l ceil
Ġvirtu e
prop to
d S
s v
^{+ }
R W
Ġram ified
Ġ\c on
Ġro tations
ĠM L
' }{\
ro of
== ==
{\ {
ĠF ano
c ot
cus sion
conver ges
Ġa da
pla cing
ĠN P
color ing
Ġredu nd
Ġs end
E dge
Ġcou nts
Ġman ipu
Ġ\multi row
per mu
Ġ\r d
} *
Ġsepara ting
gree k
ĠB ased
Ġinter tw
Ġpass es
Ġcode word
Ġchar ges
x v
F un
ĠS p
q s
^{ u}
e z
ĠLi ouville
Ġt rick
Ġsu mming
\ ol
character istic
Ġs tyle
ust om
ĠFlo er
| ^{-\
Ġp il
Ġcontribu te
Ġ\ medskip
r ceil
Ġa xi
b or
S tab
f C
] }(\
plit z
h g
$\ |
ge odesic
it ney
Ġsta tistic
Ġc yl
H J
\ move
x ag
Ġgravi tational
{ +}
H opf
Ġlear n
s C
Ġthere by
Ġover lap
cor r
\l ra
Ġp ort
Ġneighbor hoods
^{*} _{
Ġconcer ns
As sumption
in er
com m
la nt
L U
f ields
Ġse es
in variants
ret ch
quen cy
Ġne utr
Ġequ ally
cha nging
Ġsub scheme
b j
ull back
righth arpoonup
Ġperi ods
)| _{\
Ġst ud
an e
Ġgra dients
ol mo
reg ion
)}. $$
T ime
^ Y
differe nti
coordinate s
^ !
et o
pro tect
R D
)) +\
{- }\
Ġsol iton
IN SEQ
Ġrestric ting
Ġmole cu
alog ously
19 94
re ve
}) }.
ne xt
Ġsupp osed
Ġmon ic
b D
Ġa cknow
pres entation
\ ex
L p
big gl
B O
Ġ }\\
Ġrea ched
when ever
ch mark
SE T
Ġtheore tic
Ġ\ OO
tt t
Ġsimpl ifies
clo sure
o y
Ġdis t
gu lari
Ġillustra tion
net work
Ġho mogen
9 }
Ġhist ory
Ġtemp oral
^{ 5}
m cal
tri zation
Ġstre am
] )$.
ĠWe il
Ġ, $
Ġ[ ]
Con v
Ġrecur rent
Ġasser tions
A F
Ġtran sitions
Ġ\c X
ran e
dynam ics
Ġri bbon
Ġf ibrations
ival ent
P G
ĠB ar
Ġstu ck
Ġfrac tions
Ġrescal ing
Ġchall enging
= |\
A ss
)\ !
m ong
\sup set
\ th
10 5
_{ o}
Ġext ract
Ġalgebro id
] /(
_{ <
ill s
alu e
f erence
Ġ\ un
Ġ\ mat
ĠL inear
Ġen hance
Ġauto ma
T E
ing ly
ill en
asso cia
S s
hea ves
con clusion
multi plication
ke wise
Ġ\f ootnote
Ġfluct uations
] }$.
b ul
u ts
ex a
Ġiter ates
$ {
d dots
av y
ub ert
Ġellip se
> *
O DE
Ġtran scend
^- _{
Ġmost ly
s al
at ter
och schild
s hip
\ ket
ĉĉĉĉ ĉĉ
Res ults
non linear
S G
ĠA lice
ĠA ut
Ġcorre lations
Ġe valuating
)\ }\
ĠS tr
h k
Mar kov
Ġplay ers
head rightarrow
)| _
An n
e plitz
ub ini
\ ker
che t
Ġattract or
R L
> $
Ġ{ -
ĠTechn ology
nd ard
ormal size
Ġcon nectivity
ll ll
}(\ {
= [\
Ġb oot
Ġco f
Ġtra ffic
Bbb k
Ġlink ed
H A
lat ors
ynam ics
ho p
ax ter
u ro
Ġne arest
an ces
Ġen coded
ma ge
an cy
th ods
' "
) }}(
\! \
i ence
Ġs igma
Ġgroup oids
Ġ\S ym
Ġconf idence
Ġ1 000
\s b
] -\
ĠĠĠĠ ĉ
, #
ad ditive
Ġcluster ing
Ġiter ate
Ġfail ure
ar gu
ta rily
Ġv ice
Ġtra ditional
b low
omin us
\ appendix
^{ {
Ġi i
\q bezier
\ se
ua ng
in it
e ither
s E
Ġd amp
m ixed
ho le
ol lari
text greek
Y M
in cluding
R ed
den oted
sub ject
comp arison
co lation
Co mplex
Mat rix
13 0
]{ }
Ġ\o dot
ex ist
] }{\
Ġpolari zation
Ġ\b C
Ġsubgraph s
}$ }}
con tains
; $
Ġ@ >>>
Ġcur ved
mogene ity
polynomial s
Ġhom ological
Ġepim orphism
ide l
s lo
me as
cal A
\ bu
res olution
ua n
Ġscalar s
u su
p lying
^{ h}
Ġ\g ls
)^{ |
ign er
Ġintro duces
tal e
ff er
\m y
]= [
BOO LE
ot ents
i h
E V
Ġ\ ms
\ frak
Qu estion
Ġplace d
mb b
onom ous
l ished
tri v
ver batim
Ġtrans pose
cl ip
Ġincre ased
trac ting
Ġcur rents
}\ \[
act s
Ġc ustom
Ġ .\
Ġ\ newcommand
con cave
ou x
d q
ĠEq uations
Ġtang ential
w or
Ġagree ment
Ġsatura ted
Ġsur gery
\p gf
ĠK ronecker
Ġun changed
^+ _{\
Ġkeep ing
Ġhe ad
ak i
Ġlinear ity
O ver
**** ****
Inte gra
P f
Ġans atz
al ing
| (\
neighbor hood
out put
Ġcomputation ally
] (-
}} }^{
cont rac
Ġface ts
Ġ\ boxtimes
app ing
Ġindivi duals
g ons
d A
m x
Ġemp lo
olmo gorov
Ġde li
ollari es
/ {\
action s
C ov
Ġrigid ity
split ting
bb Z
conjuga te
Ġul timately
Ġ\dots c
Ġins ight
tri m
Ġthink ing
sche tz
Ġregulari zed
o cal
Ġcommuta tivity
}} &
il nor
Ġre min
cou pling
P F
\ table
ĠSch warz
cale box
Ġspir it
y low
}} .$$
n z
ap s
an a
Ġse man
v z
_* ,
Diff ere
\ uparrow
ces sible
/ ^
Ġcurrent ly
Con jecture
Ġcha nged
ti r
ob tain
high er
)} :
h dots
on ometric
err ing
compon ents
Ġta ut
{- }[
E F
tiv ated
Ġquanti tative
| ~
)\ }$,
\s p
a gain
^{- (\
O MA
^ W
Ġ\ ul
Ġpossess es
Ġb ridge
D B
ve ction
uni tary
T ilde
Ġ= -
Ġpower ful
b ib
htt ps
ub ble
asser stein
cons istent
Ġb last
ograph ic
ĠEn gineering
Ġ\ pre
cur vature
Ġada pt
Ġex amin
r w
Ġan isotropic
lap se
' >
Ġingre dient
Ġsimpl ices
Ġto wer
star t
}^+ $
H u
Ġ\n i
restric ted
G ener
ĠS a
ĠP oint
$, }
ote q
if e
o od
Ġfin iteness
gra ding
Ġ3 7
Ġ\ atop
ĠS um
lus h
b beta
T L
Ġasser ts
Ġir re
Ġ\ scr
Ġcu ts
per fect
)$ ),
Ġcon sumption
' )=\
Ġ1 98
\c H
Ġno etherian
0 10
ĠLegend re
Ġf ract
) `
Ġ items
ĠRE WRITE
c J
en suremath
r inf
are a
)$ ?
' -\
\big gr
Ġev ident
in duction
er iv
Ġ} =
Ġan om
) *{
Ġtrans late
^{* *
)\ <
Ġcommon ly
}\ ,\,
co mb
bund les
pro x
^{\ #
Ġ$( (
col ored
T X
Ġga mma
l ies
Ġ _n
b Y
ed a
Ġ\d om
lf and
Ġmedi um
V E
e ast
en ing
in variance
decor ate
Ġrec tangular
Ġle x
ar ding
ĠMa in
jp g
A E
Ġ _k
cur rent
Ġs ensor
Ġstructure d
) _+
\c L
Ġentangle ment
str ut
Ġto ler
Ġput ting
f undamental
Ġpropa g
ah n
n y
Ġremark able
$ "
re si
},\ ]
Ġclassif y
Ġcondition ed
' +\
H ol
Ġover view
Ġsu p
Ġver sa
Ġcre ated
spect rum
fib er
av g
Ġdifficul ties
Ġout per
{ ,}
\b en
Ġx s
lo ch
Ne w
C he
$$ {\
ti os
is tance
Ġsa w
ĠG raph
i der
' }_{
O nce
ĠN at
Ġrepresen table
ur witz
s pe
Ġcover age
ĠEq s
M U
Al gebra
n ter
w d
ef schetz
tz mann
ian g
$ ''
pro blems
geq slant
In v
Ma the
b ad
^- (\
p z
Ex istence
Ġidentif ies
ro se
t uples
Ġs hock
Ġoscil lator
&& &
Ġo racle
de sc
0 11
Ġ\ sc
Ġ\mathbb m
; \,
Ġ\ di
co pe
Ġun imodular
ate st
ĠN AT
ull er
d X
la tive
h b
land s
^* }$
Ġtil ing
^ U
st u
effici ent
}}$ -
| )\
Theorem s
\c S
Ġtable au
] ]$
Ġsta tion
Ġr ich
H E
Ġpotential ly
Ġvol tage
cal H
fig s
Ġco tangent
asi bility
Ġfair ly
\ exists
Ġ\ ss
_ !
Ġh ermitian
ĠAd ditionally
r up
Ġpositive ly
Ġf lo
tw ist
\lim inf
Ġ\c G
ĠWi ener
Ġc ause
an alysis
Ġtrac es
}{ *}{
ittle wood
ĠMax well
ĠS erre
ni k
s x
Ġpref ix
val id
$ }\\
ĠExample s
Ġsubt le
Ġrecor d
ic it
Ġf ile
ĠHa damard
Ġcohom ological
Q R
19 93
Sch midt
balance d
Ġ ^{(
u ri
ven ess
\hspace *
Ġrescal ed
D es
Ġf i
Ġrece ive
, [\
= (-
for th
Ġdiffe omorphic
Ġ\sub section
function al
sche mes
| }$
ĠPhy sics
al ong
Ġp hi
Ġde cor
ĠR ob
res pect
han nel
the tic
00 5
}) }(
ĠB etti
ĠA b
min ation
vers ally
Ġtra in
\l b
ĠC SI
So bolev
' }^{
R I
is c
Ġla nd
}). $
Ġen su
{} &
Ġ ,\\
Ġ4 8
rela x
\ wh
er ve
A H
st retch
ĠTh roughout
pdf string
N F
Ġg erm
Ġcorre lated
q p
Ġbeha ves
) _{(
] )=
redu c
^* }(
or pdfstring
Ġ\var nothing
Ġ2 9
Ġexten sively
Ġfib res
v k
Ġrelax ed
C ond
lo mb
Ġsha dow
Ġme rely
Ġref ere
Ġ\ Ext
Ġdete ct
ĠT M
Ġconject ures
) }),
S ystem
))$ $
fteq n
}_{ (\
R O
Ġlabel ing
Ġstra ta
Ġsui tably
Ġ\ varpi
den s
pan cy
re cy
et al
Ġa ir
Ġnonlinear ity
Ġ\bb R
\ st
b in
Ġin d
Ġcategor ical
an ted
Ġcar tesian
e u
Ġparameter ized
Lag range
Cont inu
Z hang
am ming
C s
P oint
$- $\
an ov
Ġover come
'' (\
sta bil
os en
comp osition
Ġbran ched
ĠChe byshev
+ [
Ġreal ize
Ġ\e ref
on to
\ varpi
Ġgeometric al
ens tein
.. .\
ca de
path s
ar bitra
Set ting
divis or
ĠK oszul
Ġis otropy
Ġk inds
con tained
of contents
Ġper forms
Ġ\c N
Ġv an
)} |\
Ġrela tes
Ġbeam forming
Ġho mo
Ġshor ten
Ġa part
^- ,
r iting
ri ds
po st
and au
Ġop tions
ĠO ptim
ti ght
Ġ\h skip
b U
n j
be ha
s X
S tate
ĠH an
Ġin jectivity
ĠD es
$ }{
Ġelectron s
Ġc au
T t
id x
Ġsmooth ly
Ġmaxim ize
Ġfrequ ently
Ġpoly hedron
$$ \|
Ġface t
Ġstack s
}| |
ator ial
inc are
ough ly
W here
tabular newline
y e
un if
sup set
Ġ\S tate
Ġ\sup seteq
E v
in formation
be ds
ĠĠĠĠĠĠĠĠĠĠĠĠĠĠĠĠ ĠĠĠĠĠĠĠĠĠ
Ġ\ Ga
tane ous
\ deg
lines kip
Ġintegra ted
Ġ\v v
f z
)$ \\
ĠS hi
}] _{
Ġn otes
con n
Acknow ledgments
}{ }{
Ġram ification
complex ity
B I
~\ (
Ġ\ ts
re ma
)) _
}\, (
ĠF act
ĠDe f
C hen
cal O
ful ly
y er
set up
Ġsee k
Ġimpro ves
sta t
Ġdev ices
ĠĠĠĠĠĠ ĠĊ
ga uge
Ġ\ newline
ĉĉĉĉ Ċ
Ġcheck s
section s
lat ory
f ront
$$ (\
Ġres ources
pa ren
o sov
Ġmultipl ied
ĠP lan
show s
13 2
unit length
\ boxtimes
}\ \\
Ġminim izers
)} [
D om
ĠD MS
set ting
Ġex position
)) "
Ġcheck ing
le ctive
[ ]{
Ġformula tions
Z }
ni kov
\ tikz
i int
Ġ\ if
Ġintui tive
|\ ;
ĠM ay
Ġ\pa ren
S ur
Ġreach es
f olds
g c
$}} ;
me tis
Ġhy dro
Or der
Ġadd ressed
eff ective
cap tion
s z
Ġb asically
to chastic
Ġser ver
E ven
Ġ\ sf
it o
) ^*$
Ġ\ ch
e b
h orizon
ee b
Ġnor med
triang ler
order ing
M V
ro man
in n
Ġinter acting
Ġsing leton
S cal
Ġcomp e
b mu
if ert
sis tency
cl in
Ġ\I d
small skip
m cl
Ġnuc lear
Ġwe dge
ĠPro f
ĠI d
Ġ= -\
Ġ\d t
s H
Ġ\S TATE
O A
bb C
_* ^
Ġ\hspace *
Ġfore st
B N
l j
Ġsub script
Ġ= >
\ phantom
ĠSub set
p v
Ġtrans lates
ĠU p
Ġrela ting
correspon d
cise ly
v atures
Ġmonoton ically
rec tangle
Ġener gies
m orphisms
Ġne f
\b r
ĠP ri
Ġy es
a de
Ġr ng
bot tom
T W
Ġas king
ach ing
ĠFe ynman
ex tended
Ġinc idence
turns tile
res ol
m A
inter pre
}{ #
D I
Ġ\B ox
âŁ ©
Y Y
ol ding
Ġsh aring
č Ċ
E instein
Ġ\ si
ro bust
Ġreflection s
Ġconf used
nice frac
{ +
s ource
}) --
as sump
\ implies
in ver
st re
Ġprocedu res
Ġcongru ent
ator y
le ma
tic ity
tri zable
B ra
j n
Ġsugges tions
-\ {
f er
he at
ĠD ynkin
t A
m ode
Ġc ame
ver ag
ĠNe w
}( (\
sta ge
Ġen jo
lot omic
Ġcenter s
Ġun countable
mes h
ogene ous
ĠS ha
&= -\
f loor
\o dot
inter cal
] }$,
: {\
al tern
m ical
estima tes
ho st
ĠB V
s ystems
ar ity
c lock
hi ps
or ms
)} )$.
Ġimplic ations
Ġconven tions
Ġ\sin h
le igh
imodu les
Ġobsta cle
S em
Ġ\c olor
ĠB efore
Ġboot strap
Ġexpla ins
Ġund irected
rr r
e k
Ġupda tes
or tant
F il
Ġminim ality
ĠDel igne
P GL
Ġsent ence
Ġexhi bits
bur g
Ġmini max
Ġmu ltic
Ġhe xag
ĠC W
ĠK u
ĠS tar
ĠK ac
ord in
) ~\
Ġser ve
Ġadmit ting
Ġtan gle
ac ute
P oly
Ġen velop
Ġe ight
ĠF ubini
U T
V ec
} >\
Ġlim i
nor ms
ime ter
Ġ\ ie
c lear
Ġ= :
fin t
Ġper colation
Ġref lected
necess ary
ol s
Ġequilibri a
Ġ\c T
triangler ight
Ġfill ing
\n mid
ĠCon t
), (\
S eg
finite ly
ga ard
Ġpack ing
Ġin homogeneous
Ġfe wer
Ġcareful ly
Ġdi lation
ĠUniver sit
Ġ\ and
ĠGal erkin
Ġdec ide
Ġdou bly
ĠAlex ander
\table ofcontents
Ġappropriate ly
m R
t k
Ġc s
ĠLegend rian
Ġde formed
inter sect
adj ac
. }.
B asic
Ġgain s
Ġincomp ressible
di tivity
dis tingu
\add plot
Ġcomp r
Ġfam ous
0 12
ĠA u
a mma
Ġquatern ion
ab or
Ġ\ triangle
Ġhel ps
F in
um ford
}] =
g oth
^{ A}
re lliptic
un iv
ak er
19 92
Ġ\left rightarrow
Ġ\b a
Ġsyste matic
}) },
Ġgraph ical
cccc c
Ġ3 1
H y
ctor s
S ect
T f
La bel
ci ate
Ġori entations
f aces
tic k
Ġcol imits
he t
Ġtherm al
ex am
V al
ĠHy pothesis
an alog
side s
[- ,
Ġt en
'' _{
R V
\ j
| }{|
\colon eqq
cal X
Ġautom orphic
Ġo ld
uni queness
a ir
Ġcomp ositions
A v
uff le
r h
Ġh int
Ġcon ductor
Ġ= \{
Ġa de
P DE
B ack
O therwise
Ġch iral
d P
ĠV ol
\ HH
m tx
Ġ\b P
m bed
us z
later al
g rowth
)] $.
Ġw itness
Ġelim inate
Ġ`` $
mb rane
simpl icial
Ġ\in dex
Ġ[ -\
Ġ\ map
Ġmay be
] &\
& $\
11 5
Ġ8 0
Ġcancel lation
D t
Ġdisper sion
\v p
Ġpriv acy
Ġ\B B
til ity
Ġ\t wo
Ġâ Ł
Ġ\ rf
Ġdev iations
Es tima
Ġsection al
dis k
Ġpredic ted
long leftrightarrow
pr int
han non
ĠTh m
ord on
sub s
ro d
Ġlinear ization
olog ically
Ġspre ad
q t
Ġ\c R
Ġf li
Ġco sets
N LS
{ $(
Ġ\ parallel
ĠFig ures
ĠL P
Ġ }$.
^{ [\
log arith
)| $.
Ġh er
at s
Ġb imodule
satisf y
Ġ\co sh
Ġprojec ted
\c D
para tion
ol i
Ġcyl indrical
Ġt uples
Ġmodu lation
Ġt ube
Ġna ive
Proof s
qq qq
Ġ\ bra
~ ~\
ex cept
) ).$$
ĠBer nstein
Ġsemis table
Ġpers istence
Ġ\ pp
a wa
âĢ ĵ
Ġde l
}| }
S Y
Ġoccur ring
Ġign ore
Ġs ink
xx x
Ġp in
Ġ| _{
Ġadj o
Ġde als
> .
Ġre v
igh ted
M E
Ġenumer ation
\c F
Cla ss
\ &
cer ning
Ġ\i int
Ġclo sest
Ġsha red
00 2
lo ad
b en
Ġpor tion
]{. /
e a
Ġ3 3
ĠB ur
rou ble
de v
scal ing
Ġsta y
$ ]{
Ġsta ting
O W
R edu
] $$
Ne wton
W i
Ġelectro magnetic
Ġ\f oreach
c tible
matic a
Ġtrig onometric
33 3
Ġminim izes
Ġfig ures
Ġpolic ies
der s
ota tions
> _
s yn
De fin
Ġgre atest
ĠH ochschild
ĠR ay
$ [\
ĠR F
mon otone
Ġadop ted
Ġcobord ism
AA A
D irac
il son
stra nd
$ ^{
ho mo
I mp
Ġ\ add
Ġupda ted
$ }]
G m
the ir
Ġext rac
ĠSch wartz
z u
Ġ\ ma
\multi row
ĠC how
\c E
Ġsimultane ous
e lementary
ĠFor mula
Ġclassif ying
For mula
}\ ;\;
ĠL ax
ĠC hen
Ġexec u
Ġben chmark
f an
Ġschedu ling
Ġtext book
ever al
Ġelimin ation
Ġ\ ri
Ġ\mb f
ymme try
$ =
P lan
R u
Sp an
und efined
Ġ\h dots
L am
Ġ\ eqn
Ġgreat ly
' ;
)$. \\
Ġdev ice
&= (
sub module
Ġ\fill draw
Ġal one
w u
Dec omp
in sta
u tage
ĠInt roduction
Ġ$- $
separa ble
\p f
& {\
12 1
Le ft
s heaf
tic ing
\c P
ste alth
v ct
r row
Ġf lip
co inc
D ata
ut ine
) ?
R H
f lush
tir ling
Ġsecond ary
Ġbo dies
di tary
cc ur
Ġch romatic
mo s
J o
Ġrapid ly
: -
}( {
Ġho les
Ġ\b old
Ġcode words
col sep
Ġ\g ets
Ġtran si
Ġperfect ly
Ġexp en
et work
^* +
19 91
Ġsimula ted
rinf eld
he l
U C
jo in
ent ry
Ġcombinator ics
Ġde t
Ġreal s
^* )$.
Ġaverag ed
is enstein
vi ate
^{ L}
ĠHamiltonian s
ida tion
Ġen able
ĠM as
\s m
Ġcon duc
\big cap
F K
Ġrandom ness
M odu
int roduction
Ġchar ts
ĠMe an
ti mum
_{+ }
Ġdomin ating
&& +\
Ġtable aux
Ġ }_
ance l
Ġdecomp oses
st d
Ġmesh es
sub space
Ġpack ets
Ġrectangle s
Ġdissipa tion
OIU Y
I so
Con struction
_- (\
ĠH all
ĠG u
Univer sity
Ġl ifted
= ~
Ġs top
Ġac qu
ĠA cknow
ĠĠĠĠĠĠĠĠĠĠĠĠĠĠĠĠ ĠĠĠĠĠĠĠĠĠĠĠ
multi ple
Ġt rouble
Car tan
Ġra tios
] }}
Ġ\d if
] /
b ow
om ent
proj lim
Ġs ound
)! }\
array stretch
. "
Ġem beds
Ġ\ mp
table au
Ġrobust ness
fre quency
Ġgap s
Ġ\ section
ĠSet ting
res sing
Ġa ut
Ġcol imit
Ġtopolog ies
T ate
a verage
Ġ\ longmapsto
}^{ {\
Ġambigu ity
e an
b la
ĠA re
co eff
}}{ |
col im
re main
Ġ$$ (
ĠCla ssification
ub set
S tein
Ġcur vatures
Ġplot ted
o pp
imp ro
sta tic
ĠBes ides
Ġfor th
Ġ Ã
)= [
B anach
res sive
ĠComp ute
tri zed
Ġ$ }
Ġ& $\
Ġrepeated ly
Ġdri ven
Ġs in
Ġ\ QQ
t c
Ġmotiv ic
Ġ\m odels
Ġmoder n
_{\ !
)} ^\
cal M
Ġpen cil
S tra
ri p
ĠB ound
tri ple
)} ^{(
}} )$,
Ġexpand ed
Ġis otopic
Ġprincip les
^+ }\
B axter
ĠH ermite
Ġtable s
s M
ob ius
\v dash
}^* (\
Ġconcaten ation
ĠA ctually
Ġ`` $\
p ow
pha nt
Ġexten sive
ĠM orita
}$ '
Ġreve al
Ġp t
Ġb ubble
ho me
Ġ\c a
Ġse ed
N M
Ġcomp ens
10 2
}| _
Ġw anted
Ġtask s
Ġ ''
L m
Ġanalog ues
dynam ic
Ġbeha ve
sc a
Ġzero es
d H
Ġs n
qu oted
pre lim
;\;\ ;
Ġsuffic e
Ġmatch es
D a
_{ _{
ric hed
Ġexpec tations
}' (\
F robenius
ĠA B
la tex
us es
weigh ts
Ġ$\ ,\
Ġend ing
\e en
Ġdistribu tional
Ed it
d F
Ġstabil ization
Ġpan el
\P r
ĠB ru
Ġregard less
Ġver ification
ĠUn fortunately
con ven
ĠP et
T ran
Ġgrow ing
ĠU E
ĠĠĠĠĠĠĠĠĠĠĠĠĠĠĠĠ ĠĠĠĠĠĠĠĠĠĠĠĠ
) }},
[ |
mon o
Ġdisplay ed
Ġarchite cture
A ff
ĠW ang
19 90
, &\
ic o
Ġ\e eq
\xymatrix @
' }_
^ Q
ĠS DE
}) ),
)$ );
Ġslow ly
L ine
j h
i tary
C auchy
cou pled
Ġ\b r
round ed
] }_{
Ġ\ sh
Ġ\ grad
Ġlog ical
\ sf
po ch
" )
var ying
E H
Ġbre vity
mer sion
B x
degener acy
Ġen coder
Ġlea ving
} &=&
ĠWe ierstrass
< <
s kew
ab a
Ġ _j
] ].
)) |
)}) ^
Ġef fort
w f
)= |
Ġ@ >
Ġ\ Prob
Ġs lic
Ġcus pidal
v dash
cha ins
en ta
ou red
w an
p tions
cal c
Ġax es
pgf xy
(\ {\
\ ii
p ot
constra int
I ts
AB C
lo s
F u
y u
h x
Ġamplitude s
Ġmon o
Ġdeca ys
p k
cal S
roxima tion
\c O
mat ch
Ġcho se
17 0
Ġdis covered
ov ich
14 4
Ġmo tions
Ġph oton
clin ic
ar s
~ }
Ġreg ret
Ġend omorphisms
Ġ })
thin space
Ġmu lt
i ro
ĠEqu ivalently
so c
dx dy
ĠMe thod
Ġpay off
ĠDe hn
X iv
Ġ} ;
para bolic
^{+ }(
Ġ( #
ĠI RS
ti bility
ĠPol ish
Ġar tif
me m
s T
Ġ\ tan
p ush
Ġex haus
Î »
ĠS ing
E rror
\ underbrace
Ġe ast
ins ler
Ġlex ic
Ġ\ real
B en
q r
Ġout comes
Ġrestric tive
\ pp
equ alities
Ġem er
\ triangle
z b
}{ =}
ify ing
si te
Ġrandom ized
Ġaver ages
Ġ\big wedge
=\ |
Ġre plic
size box
Ġd ay
a ccording
Ġme t
quoted bl
ĠL ang
Ġreve als
commu ta
F inite
Ġnotice d
})-- (\
ĠGrassmann ian
an cial
Ġquar tic
R d
ou se
ilibri um
hap ed
Ġ+ (-
ĠJ ensen
Ġcommun ications
Ġcumula tive
Ġ\v c
t X
\!\! \!\!
Ġinde termin
Ġidemp otents
Ġpropo sitions
Ġsuccessful ly
Ġrever sible
Ġsha pes
A K
R B
C olor
ĠH ee
Ġ4 7
Ġoccur rence
W ave
cal cu
di an
Ġ1 97
Ġexce ption
Ġbra ided
p ing
b xi
Ġprox imal
[ .
ĠY es
Ġmaxim ization
Ġ 75
10 8
}| =
ov l
Ġ= =>
s D
' }=
ic i
Ġa ware
)-- ++(
Ġplay ed
_{ _
g x
in son
defin es
Ġ\ alg
Ġoptim ized
Ġdig it
Ġl ens
U pper
\ un
Ġre port
C Y
Ġdesi rable
2 25
cal D
Ġpo sed
L ower
ĠT ho
ĠP ick
Ġ\d iv
A W
Ġdraw ing
Ġdi hedral
T w
Ġ\sub figure
co prod
Ġex pl
Ġtw ists
Ġmechan ical
ge om
12 4
B l
I G
b as
Ġequ ip
eter min
Ġma ster
bf u
Ġalgorithm ic
h old
fib rant
Bo ok
)| }
arc tan
D ual
f alse
Ġ\ asymp
Ġquad ric
hol tz
Ġ\ps frag
ess or
Ġ& (
incip le
\r b
_{ Z}
\ preceq
Ġmass es
trans formation
urst on
| +|\
tribu ted
ma pping
Ġc ub
u g
z ag
ĠF ock
bf a
dire cted
Ġgre edy
ĠS pace
Ġsen sitivity
S z
Let ting
Ġobser ver
Ġcu toff
J ac
bel ong
ca vity
Ġ5 3
sym m
ic a
Ġ\ref f
Ġsuper algebra
Ġradi ation
Ġpartition ed
Ġsec recy
x a
ĠM SE
le a
ĠM any
Ġan chor
pa re
/ _
Ġingre dients
[ {
o e
)= (-
Ġ. \]
ĠâĪ Ī
Ġval ua
M W
ĠE nd
Ġ> \
con cent
Ġf its
fin d
ĠC A
Ġmin ima
H am
Ġb irth
] .$$
Ġrear range
r vert
Ġname d
P Q
Ġper son
ival ence
Ġbro ken
ind ic
mu lticolumn
con figura
Ġreg u
)\ ).
ge ometry
ka i
b on
Ġjus tified
Ġ\ /
J S
Ġat tains
Ġderiv ing
,\,\ ,\,\
ire ct
âĤ ģ
< +\
Es timate
box ed
Ġstra tification
Ġsur v
Ġen velope
,\ ;\
ĠF in
convex ity
N amely
] )$,
dis cre
ĠCo mplex
Ġne ur
respon ding
tif ying
< |
\h skip
let ter
U L
r it
to day
pla ys
ĠN ash
fact ors
Ġmon oids
Ġge ometries
}=\ {\
sta ction
Ġlo st
Ġnotation al
y ields
Ga m
gen us
b W
Ġinsta bility
Ġb ary
Ġdou bling
H ermitian
Ġhe avy
Ġdiscre pancy
ui tively
suffici ent
b alpha
den tity
mean s
} ',
Ġprof iles
ĠU ni
v n
mu st
^{+ }$
P U
We ak
ĠQua ntum
mat ter
y ah
Ġprog ression
ĠSe ifert
Ġc er
\ atop
comple ment
)=\ {\
Ġanaly zing
C hap
ĠS m
Ġcha nce
Ġ _{k}
L at
}) =(
Ġmin ors
Ġquanti zed
/ {
ĠB i
ns on
strict ly
ib on
Ġsub matrix
ie gel
Ġ\ ii
Ġo pacity
product s
Ġal loc
Ġaccording ly
_{\ ,
ob ser
Ha usdorff
igh er
pend ence
Ġp p
Ġco kernel
Ġdom inates
v d
u man
ĠSch ubert
Ġsymbol ic
clock wise
Ġmu tation
Ġeval uations
che me
0000 0000
K h
pp rox
Ġclassi c
ĠTo eplitz
Ġ| (
Ġne gle
Ġcollection s
inter ior
Ġas ymmetric
Ġ\r put
ty pes
it ons
acc i
co dim
|, |
)] =
}, ...,
m entation
tri b
\m odels
H ilb
Ġ4 6
ĠK an
}{ *
Ġ\ ad
la pping
ĠH o
n umer
~ {\
phy sical
Ġ\ on
:= (\
flu x
Ġne ga
Ġ7 0
Ġcon formally
\ ms
Ġ\ ph
squa res
ga ussian
\ eqn
Ġpre tty
Ġdense ly
b K
ĠE lect
plan ar
ĠS T
ran ts
e h
s N
cal L
\ supp
Ġ4 2
am alg
ha in
Ġnow here
Ġcharacter izes
C ur
ma g
ne ga
y ou
R i
ou nce
Ġappe a
Ġ Gamma
ti veness
pair s
number s
ĠT ate
Ġiner tia
A X
F a
Ġsub complex
bb r
Ġpat ch
_- ^
Ġs pi
pl ink
ĠB C
Su mma
Ġneutr al
s equences
t rees
N ot
^{+ }\
p here
contra dic
R ad
sub algebra
V a
w ang
Ġ\l or
Ġb ring
diff e
d j
ĠW ill
Ġ\b X
st ro
rm d
ĠCont inu
Ġse ven
As ymptotic
)} ^{-
fill color
{ ~
de sign
f rk
T y
Ġt alk
ĠU se
D im
bra id
distribu ted
Ġstreng then
ĠRec ently
state ment
ĠS C
Ġ< >
Ġ$| |\
$) :
r Vert
ra s
at ou
ĠI sing
E u
tty ref
ĠBol tzmann
Ġe labor
Ġexplo iting
Ġun certain
sub st
lu gging
Ġmultip les
phant ine
\B ox
In itial
Ġblow up
re gulari
ĠS I
T hank
g k
Ġin coming
cal E
t re
x u
Ġl ife
L D
associa tive
s haped
M c
P W
Ġsta ys
ĠZ hang
}} &\
}}{ {\
Ġdis cs
Ġad vers
:\ ;
Ġvirtu ally
)) ^\
Ġout going
Ġ- (\
separa ted
ĠS DP
Ġcontrac ting
Put ting
Ġâ Ħ
corre lation
Ġp l
) _*
Ġop timum
Ġdiscreti zed
u tation
Ġsu s
la bility
object s
, |\
}} }(\
ĠK er
Ġ\M od
ro blem
Ġanti symmetric
D H
Ġdetermin ants
Ġdesc end
] })
ĠE rd
Ġ6 5
ida tes
ĠIn equality
\c olor
ĠMo st
sh or
Ġb atch
N s
ĠL u
qu id
Ġ\ verb
b ru
19 88
triang ular
n big
Ġ\ succ
Ġlear ned
ĠLa w
E nergy
Ġtil ting
Recall ing
Ġc l
me l
ĠL efschetz
Ġtriangu lations
be ck
Ġ\texts f
Ġde p
& :=
T ho
\ long
_+ )$
S q
re nces
is ations
ik i
I ter
M i
Ġfol iations
Ġpil ot
l pha
Ġ\S L
Ġneighb our
M ills
olu tive
Ġman age
' ).
\le fteqn
Ġn at
Lapla ce
Li u
)) )\
rang ing
Ġvor tex
val ent
or ation
âĤ Ĥ
I A
),\ ;
Ġcontribu tes
ĠF re
Ġdis continuity
Ġres olutions
Ġbe ta
0 15
us cript
cep tional
Ġpoly gons
c ir
Ġs cope
ĠS ylow
ĠF UNCT
rang ed
}} ),
Me an
Ġ\c c
Ġfee l
Ġinsta n
Ġbook s
> }
up date
Ġdata sets
Ġwave let
r z
ĠO ther
la nder
de kind
F q
Ġ\ diag
Ġta ck
},\ ,\
Ġsoft ware
_{ ,
Ġcau sed
g A
ĠEs tima
m C
Ġ$ &$
Ġ/ /
er a
no indent
Ġ[- >]
\ La
Ġre li
Ġcylinder s
\no i
Ġpa rent
Ġ\ new
Ġ\ succeq
Ġ\b A
Ġcomp re
ĠR am
\c l
ĠR eeb
)+ (\
Ġ{ {{\
Ġconnect s
Ġgen e
rest r
c line
We il
jec ted
^+ )
Ġnorm ally
Ġcentral izer
Ġwe b
^- }
Ġdegener acy
\ lt
be ing
}^ +(
Ġpuncture d
sp ension
ich m
T ra
Ġproceed s
proof s
' <
Ġre tri
Ġcut ting
Ġtransitive ly
in stead
Ġco chain
ron wall
h v
Ġ\c V
ĠO F
Ġwonder ing
) }).
)$ --
Ġ\ Ex
Comp aring
Lapla cian
Ġquatern ionic
ĠF orm
as sum
Ġform ing
}] .
Ġsol vers
ĠB ell
irc le
}}\ |\
}^* _
Ġe ase
Ġ }$,
Ġout lined
ĠSub ject
p ur
ar th
)}\ |
p redic
Conclusion s
Ġmacro scopic
Ġresidu es
F E
k G
Ġme mbrane
Ġchallen ge
er man
Co mple
: $\
Ġcomple ting
en sus
S ig
}$ ?
}} }_{
cr iter
itch in
he orem
Ġb is
Ġelse where
' |\
lic ate
ĠQu illen
Ġfract al
Ġanti po
Ġ\f r
Ġlink ing
at om
ĠĠĠĠĠĠĠĠĠĠĠĠĠĠĠĠ ĠĠĠĠĠĠĠĠĠĠ
T est
e ig
Ġrela tivistic
Ġhome omorphisms
Ġadvan tages
Ġjus tify
irk hoff
on dition
}- {\
)] ,
\ Aut
Ġin verses
Ġl ists
ric tion
Ġ\c K
_+ )
H il
}) )$.
\b ib
_{ 9}
19 89
F ree
Ġo utage
Rec ently
\ Upsilon
fill style
stand ing
L W
P V
Ġfor mation
Ġ} =\
C ou
P s
iv ity
ĠR IS
F ind
Ha ving
O ther
Ġmeaning ful
c it
}_ -
eigen values
Ġshor ter
Ġ Â
Z ero
Gaus s
\c at
ĠH int
Pro perties
* )
Ġb in
g w
da m
},\ ;
j m
y th
Ġmathe matically
S DE
Ġ\h alf
( #
Ġin iti
Ġsec onds
ir y
$ )}
b al
ĠCou lomb
appro ach
han ge
Ġco ded
ĠBra uer
H W
en tific
Ġrota ting
ĠY our
P O
S k
] .$
2 20
m P
in clusion
circ u
Ġadap tation
Ġmon omorphism
dis tin
| >\
moment um
T D
ĠR andom
approxima te
b idden
ĠG ram
Ġbar rier
Ġra tion
\v v
b ile
c as
ar m
ĠM ate
Ġdot s
ĠB o
Ġsimpl ification
Ġchild ren
11 11
ers on
Ġrecon struct
sp ite
Ġquad ri
line break
p ub
ĉĉ Ġ
\ IEEE
Ġto ward
iv ita
ĠDe fin
titu de
Ġreduction s
*} {\
ĠS INR
ub ular
co arse
Ġmolecu les
Ġco erc
ĠHee gaard
defin able
conver ted
Ġh im
Ġext ent
)* {\
usz tig
F l
Ġser ves
gg ed
w ing
ĠN etwork
reduc ibility
}} [\
ĠK olmogorov
am ily
Ġperiod icity
io phantine
' })$
12 2
Ġrece ivers
r der
bo la
Ġcirc um
y d
^+ )$
C u
Ġtw isting
ĠRay leigh
ge o
Ġab ility
Ġvelo cities
j ust
Pa rameter
{ [\
du ally
ti yah
ar r
Ġg lue
Ġex it
mid dle
Ġoscil lations
d bar
Ġsub tree
p un
\ perp
Ġ\b E
Ġemplo ying
ĠU AV
ĠGe lfand
} ]{
Ġn arrow
Ġche mical
f X
i et
ĠT y
Ġdown link
Ġmonoton ic
eigen value
Ġsemic ontinuous
)}\ ,\
Ġpla te
, *}
big vee
\ Y
arb oux
K n
)}{ (\
SS S
c ular
cell color
Spec ifically
i res
Ġsome how
/ |
al ph
}) >
] ).
v ac
D N
{ --
Ġdiver ges
Ġen coun
Ġreader s
E WRITE
po ssible
\ ti
b rac
Ġsta ges
Pa th
ĠSta tistics
Ġ\ dash
um es
v matrix
ĠL DP
Ġdid n
j es
al ga
ĠCon vergence
Ġframe d
{\ "
Ġcon vert
Ġcol lapse
14 5
modu lo
au er
U V
s pherical
Ġb ialgebra
Ind ex
}$. \\
zz o
Ġspecial ization
Ġexper ience
S B
^{\ {
ĠL og
au g
Ġdesign s
Ġtes ted
Ġ\ ip
Ġtranscend ental
d al
re als
Y ang
re ver
ĠInte gra
Ġtoler ance
Ġ$ +\
&& \\
Ġiter atively
ĠF alse
Ġferm ionic
Ġ\ ti
ĠLet ting
Ġpack age
{( }
Ġ\ ff
Lag rangian
)\ }.
en cies
Ġequ idis
on ym
s ma
su c
Ġmethod ology
Ġfin ancial
ĠT rue
Ġho ok
C Z
th resh
count ing
ĠA x
tra tions
D ist
D irichlet
i pa
Ġrenormal ization
e ft
}). \
M any
ĠMat rix
Ġknow ing
cont raction
per ime
Ġmaxim izing
adap tive
ĠD av
col our
Po incar
f box
| )^{
Ġreson ance
Ġd W
ĠP DF
Ġso cial
xy z
Ġb ise
Ġdirection al
S n
m holtz
Ġ} ,\
\le ftarrow
Ġassign s
Ġdemonstra tes
Pri mary
as se
Ġfil ters
N umber
d yn
Ġex ci
Ġun biased
^{*} (\
Der iv
B or
ec het
}] }
Ġradi i
Ġopp osed
I rr
)) ;
P et
Ġd V
ĠT ime
Ne umann
Ġinv olutions
ĠCar tier
ĠH urwitz
ob servation
arbitra ry
s qu
d ark
Ġnec es
equival ently
ĠM I
La st
Ġmean t
Ġgover ned
,\ \[
b dd
}, (
cha p
Ġinser t
d ou
Ġto ok
ĠCP U
In stead
N I
gener ating
ĠR L
Ġ} _{\
\rr bracket
ok er
Ġmedi an
;\;\ ;\;\
Ġcyc lotomic
Ġ\G r
\ lf
f it
un e
| )$
on ov
,.. ,
ĠL at
ĠG ener
tro p
Ġst ored
\left rightarrow
u f
\n a
ledge ment
Ġconfir m
Ġt s
Ġsepara tes
Ġassoci ation
ĠLorentz ian
su lta
Ġ3 8
p les
di vergence
Ġcommun ity
Ġpo s
Ġspan s
ĠBe the
inj lim
Ġin correct
Do es
E st
Ġreco vers
O perator
g ant
Ġcol laps
cu sed
\ aff
ĠS im
Ġ\eq def
- .
olu te
R ob
Ġaccu mulation
y b
Ġ= &\
oton icity
Ġco fibrant
Ġphysical ly
Ġth m
ir ch
Ġverify ing
Ġoptim ize
Ġdamp ing
ĠS ystem
ges tyle
wr itten
co very
Ġ| [
ĠĠĠĠĠĠĠĠĠĠĠĠĠĠĠĠ ĠĠĠĠĠĠĠĠĠĠĠĠĠĠĠ
ontinu ity
Ġappea rance
ĠS ystems
\s calebox
Ġis ogen
\ J
k b
)| |
$ ~\
s pr
\ Tr
bab il
âĢ Ŀ
^{ M}
Ġ\ De
* {\
con sistency
ĠS E
is ometric
Ġ\c I
Ch ar
Ġh itting
}/ {\
B orel
ul ty
Ġ\v ol
ĠâŁ ¨
Ġcontrac tions
interval s
l brakk
r brakk
Ma th
Ġforce d
nt ro
dx dt
ha pe
ĠE isenstein
domain s
Ġ tau
K N
12 6
Ġas semb
Ġclari fy
ĠD ia
sc at
Ġreg imes
\ 1
Ġcondition ing
K e
Ġp iv
}) _\
lear ning
}\ },
ĠIn formation
C ivita
F B
der ived
'' $.
Ġeigen space
ĠMAT CH
b nd
\ FF
la ssical
Ġimmer sed
is ometry
ĠS tra
Ġpriv ate
W F
^+ _\
Optim al
differenti able
Ġu plink
10 4
m L
-\ !\
q c
Ġre member
Ġin stru
ĠC ON
_* )
G lobal
Ġc up
tag on
Ġcon texts
ĠC N
Ġexce ll
Ġdissipa tive
Ġtetra hedron
d der
Ġ\text style
f x
ĠS i
ne ed
conver gent
w in
00 3
our nal
&& +
19 0
Ġstre t
b an
ĠL HS
ta king
ĠS chool
Ġir regular
Ġnumer ous
. ~$
\in ter
sim ir
ĠA C
\c B
black square
Ġsignific ance
Ġdiver sity
s B
u y
^{ H}
an sive
Ġ\r p
Ġ\rr bracket
es tabl
Ġdifferenti ability
)( .
bb P
ri l
Ġ$( $
Ġdele ting
Ġta ils
Ġwor se
Ġt ension
|- |
10 3
Ġtemp ered
" };
tur n
ce du
ĠB en
Ġset t
ĠF insler
le gend
id ently
Ġbre aking
O MP
}} )=
). \\
In f
ali tative
Ġ )(
comp ute
}_{ -\
m j
Ġrigor ously
uck er
Ġ\b y
Ġhigh l
Ġph ra
re ad
cla ssification
t H
Ġfi bered
it ter
Ġ\tex orpdfstring
och romatic
sk ii
l v
im g
Ġ* )
Ġthermod ynamic
^- $.
P B
... +
R m
Ġf und
)- (\
)} )$,
Ġcoun ted
le ments
ich ot
Ġband s
sical ly
A ctually
c ati
un k
G ordon
trans pose
Ġb ott
ne x
' \<
Ġcho oses
^{- }
ĠW asserstein
Ġpub lished
Ġhype relliptic
6 00
ĠM ilnor
s atura
Ġ\ plot
Ġin complete
ĠC H
Ġtransi ent
Ġ- .
ed er
19 87
] ),
qu ot
Ġview point
Ġdevelop ing
illi ard
le ts
pri m
R K
nt ropy
Ġselect ing
big otimes
adap ted
N ormal
~ ,
Ġ4 3
^{\ ,\
\S et
Ġun ivariate
Ġexplo red
Ġconstru ctive
13 4
22 2
D V
le ast
\ps circle
Ġconjuga tes
pro ved
Ġcha otic
ri ers
ĠN one
Ġst ore
Ġman uscript
Ġ\p d
expres sion
Ġcaus es
E uclidean
Ġen code
Ġ\T T
}\ }.
st en
ĠF rance
S uc
Ġcus ps
ber ger
Ġd f
ma ti
Ġpro mis
Ġ\l p
e lect
u ine
Ġfe asibility
Ġe con
perime tric
Ġcons titute
}{\ |\
\b q
val ley
cy l
IN T
po staction
ĠCon struction
gen ces
Ġreflect s
' }}\
on i
Ġtrac table
de al
con sidered
Ġ\subset neq
as suming
he el
et ric
chan ges
Ġac tivation
Ġ\f g
Ġlon gest
s keleton
re ak
Ġsector s
Ġdifferent ly
S Q
erg man
get s
Ġ\ perp
if th
Ġro utine
Ġb as
im i
Ġman if
Ġshe ll
Ġaff ected
ĠFirst ly
\ mm
is hable
+ }\
know ns
Ġforget ful
ibon acci
} ')
Ġimp osing
Ġtrivial ization
D av
al though
\b R
F c
\b Z
Ġshe ar
ap sh
' [
compu tation
}, -
Consider ing
}_+ $
=\ ,\
fa ff
equ als
adjac ent
\no align
cal P
\c on
ĠComp uter
Be low
\ LL
d ra
Con f
H O
| -\
Ġflexi ble
con struct
distin ct
Ġ}$ \
iffere ntial
esp ite
}~ (
RE S
like lihood
ĠâĢ ľ
as sign
ĠN ormal
M B
Ġ\re als
23 4
Ġb l
node s
deriv atives
\ Ga
ia ted
erg ing
Ġexclude d
psi ze
ĠH en
@{ }}
tif iable
\ mp
stra te
pa rent
ĠC ommu
Ġ\b d
ca pe
C ON
frac tional
}} }.
}} ).
W hy
Ġro tate
X u
j s
}) }^
con sta
Ġco algebra
}) /\
}( |\
per s
\par allel
t L
math e
\d x
at rix
equ ential
ĠCh ris
linear ly
o mplex
Ġ\h yper
}} )^
Ġde spite
pi e
on a
os eness
Ġreal istic
Ġbenef it
Ġsci ence
ĠR K
H at
Ġ\n a
imp ly
," \
aris ons
] ;\
A a
Ġso le
Ġe pi
ĠS k
Ġassocia tivity
Ġ 99
so id
Ġac compl
Ġti les
Ġaccura tely
Ġ\ mm
Ġpro duction
Ġcons ensus
Ġ\S p
K i
con tact
fa ult
Ġsuper position
Ġs ensors
x e
}\ ).
vari ation
Ġwall s
cal R
ilton ian
u w
ur is
\la nd
i ability
ĠĠĠĠĠĠĠĠ ĠĠĠĠĊ
Ġ\ar c
autom orphism
Ġmatch ings
J M
b ert
Ġran ks
ĠM R
Ġsa fe
B ur
be lling
main theorem
Ġirre levant
h c
ill er
Ġspatial ly
ĠJ ust
Ġrese mb
Ġexcell ent
Ġobe y
[ ]{\
'$ }
}+ {\
)}) _{
R andom
ch t
oh nson
\ di
)) /
Ġ_{ t}
^{ R}
Ġmotiv ates
Ġsynchron ization
Ġ) ^{-
Ġcommun ic
Ġmaxim ally
Ġatta ch
V e
Ġdu ration
ĠW igner
vel ength
am i
hol der
Ġ$ =
Ġs ymple
ĠB or
Ġ5 8
Ġcomple ments
ha te
Ġwork ed
Ġsubs equently
intro duced
$& $\
< ^
Ġsequential ly
Ġ\ uparrow
)] .
pro po
ab out
):=\ {
scale box
integra tion
Ġgeneral izing
17 5
\l brack
perim ents
H ess
v phantom
Ġ\ eqno
ĠW ork
ar n
ch ine
Ġfil led
K G
Ġcondition ally
Ġtrac king
Ġg ray
Ġpass age
Ġmaterial s
Ġsub ring
Ġf ron
Ġcorre ctions
âĪ Ĵ
Ġ\g r
)$. \
con c
gu erre
nte gral
T s
}| |\
ca pacity
lar ity
Ġdest ination
{ _
\to p
Ġwin ning
F re
bd ry
Ġrefor mulation
11 3
inver tible
ga ted
Ġph ot
e al
Ġcol lected
light gray
!\! \
le ading
16 5
ĠC e
Ġ4 9
R an
Ġsubs ystem
Ġturn ed
Ġsub bundle
Ġ\L ongrightarrow
ĠGe ometry
Ġ _{j}
\ ph
Ġcross es
Ġslo pes
on eda
F ont
10 6
Ġfo cused
Ġconcent rate
rting ales
Ġ\ MM
Ġ ]$
Ġ( |\
G rad
ex pand
\text tt
Ġdesc ends
\b p
Ġ\co prod
ro te
)| }{
cla ssi
e uler
cal F
Ġho mogeneity
Ġdep loy
Y Z
ish ing
ev ent
p de
ĠWh itney
0 13
ĠNo tation
Ġ\G G
* #
th ird
\ ch
er on
di ed
Ġrespect s
ĠW here
Ġro les
tur m
Ġ$ >
Ġtrans lated
L b
10 7
an i
Ġredund ant
H R
Ġg rids
Ġco in
Ġnuc le
ta ck
with in
tran sp
{ *
es ts
Ġcharacter izations
ĠLi kewise
Ġ\v u
Ġbegin s
tan ley
= }\
ext end
tor ic
o sc
van ov
ry lov
P u
key word
ĠL ater
Ġh uman
Ġappre ciate
Ġ\c U
Ġsec urity
)) (\
\ scr
w k
Ġpo sets
mo ving
Ġcomp ressed
B un
ext ra
\ tensor
Ġfor mat
ach ie
gener ator
omin al
Ġinstan taneous
A i
S equence
Ġin tended
^{* *}
dri ven
b phi
Ġ\in ner
Z F
er f
con str
Ġhand led
N p
Ġa rm
,- >]
[ [\
Ġ5 5
trans lation
z hang
Ġhere ditary
pri mitive
Ġenvelop ing
if undefined
Ġaxi o
Ġtravel ing
Ġ\over rightarrow
Ġdegener ation
C Q
H N
Ġpolari zed
ĠT V
$, $
uzz y
Ġcon junction
pe z
Ġpres heaf
Ġneighbor ing
s timate
ur y
(\ ,\
Ġknow s
ĠInte gral
Ġre ward
provide command
z in
Ġvalua ble
g lu
s tically
Ġmu l
ĠĠ ĉ
plicit ly
< (
ra k
Z h
Ġvehic le
In put
root s
] ,\\
g mail
en yi
char ge
Ġ) ^{\
decor ation
{ }{\
ĠPro bability
}) |\
\m f
qu iv
U R
R ank
\b mod
Pro duct
Ġ\pre ttyref
Ġsupp orting
ryst als
: ,
\ bra
Ġ\s m
\end proof
Ġrever sed
ma rt
Ġobe ys
Ġ{ |
Ġf riction
Ġr w
19 2
BM O
' |^
: (\
K W
Ġpro grams
l ma
ĠA xiom
Ġdescri ptions
_{ _{\
Ġbroad cast
N ik
}' _{
l z
ĠC oun
S erre
b N
h olon
su n
correspon ds
G V
ĠH amming
^{ e}
)) )$
'' $,
Ġpre liminaries
Ġrecipro cal
ĠODE s
' }^{\
Ġdiver gent
ĠSecond ary
| |_{\
~ .
Ġincre ments
ĠTe ichm
Ġ\ sq
Ġb order
Ġs ine
ver tical
per m
lon e
Ġneighb ours
G g
Ġda ys
Ġen tails
Ġun knowns
Ġdis turb
nu jan
lim ited
\b t
L d
Ġinter change
Ġen gineering
. :
n R
Ġmon ad
Ġrelations hips
Ġ title
Ġsu ff
19 86
ject s
\ Leftrightarrow
pz c
ma tr
}+\ |
Ġrepe ating
I B
y g
Ġme trizable
ĠN umerical
]_- {\
den ces
)}$ -
< =
)} &
descri bed
Sim ons
Ġ\S et
F o
Ġmulti linear
_{- }
lat tices
)}} .
in finity
Ġ\b H
Ġsub field
Ġ4 1
ĠN LS
| }}
ob ner
Ġfa vor
Ġvor ticity
f S
k d
de formation
$$ |\
\d om
ĠF er
ĠM P
Ġ }\,
Ġcontrac tive
\ GL
Ġres istance
exact ly
a ger
Ġop in
c ous
Ġb atter
Ġsw ap
Ġhierarch ical
is hi
\text color
Ġdevelop ments
(\ <
Ġvis ible
Ġun ified
j math
ex ceptional
Cha racter
' =(
Ġbase line
Ġdistin ction
2 11
ĠB P
con taining
ĠO ut
Gal ois
\ ad
Ġ5 4
T aylor
Ġ\ te
ĠP on
group oid
Ġ, $$
g ro
Ġcha os
Ġsen sitive
Ġmat ched
jec tives
nd le
O o
a j
^* )$,
Ġdig ital
+ }$
0 16
Ġn il
\b old
H i
or mula
Ġstra tified
F p
S el
in duces
odu le
su e
Ġ\I nd
Ġ& &&
Ġsuper symmetric
Ġmathe matic
Ġartif icial
s frac
pe ction
2 13
m E
$. }\
Ġat tain
Ġdistribu tive
onal d
gener ators
ĠR ight
Ġ\x x
aves dro
col lection
Ġdecomp osable
k g
Ġmom enta
Ġ\la m
Ġd if
\sin h
S N
I Z
\ ran
}{ [
S how
o ke
0 20
S mall
ub er
pri mary
}), $
Ġass ess
Ġconsider ably
Ġli quid
insta nce
den otes
m ented
ĠN ot
Ġ ;\
Ġhigh light
mbed ding
it m
Ġ\s quare
Ġshrink ing
}} /
ĠO bser
* ,
Ġfactor ial
b inary
m H
Ġaltern ate
Bes ides
be st
pm od
Str ong
$ _{
w ould
)} &\
S imple
Ġf ru
uch sian
E l
Ġh armon
ED IT
horizon tal
Ġe ver
ĠL in
Ġpo or
Ġplu g
00 4
ser ting
H an
Ġ\ iso
ac hable
Ġ\f i
^{ G}
:=\ {\
bi linear
p g
}}{ (\
^- $,
tif ies
Un iform
' }.
cor d
Ġqu alitative
ĠSub stituting
l hd
Ġsur jectivity
ĠConsider ing
Ġ\ pt
Un fortunately
m h
ĠSu pp
s tima
\@ ifundefined
Ġ )=\
\ps dots
T HM
Ġaim s
[ <-
... ,\
factor ization
] }.
00 6
cal B
cal G
om on
Ġ\up ut
)}) =
ind ices
)] $,
ĠTo gether
}/ (
\d t
Ġ\r hd
ĠF isher
en ko
us ted
\b v
le man
$\ |\
ĠD iff
p w
ĠG o
Ġho sp
Ġ\small skip
) }}}
= "
ha o
t q
or ma
Ġutil ize
\end aligned
ĠGer many
\co sh
multiplic ative
A e
\c N
g z
ĠA mong
ĠD ata
ĠA R
ĠNo ether
ĠCla ss
ĠAl ternatively
e ak
s V
Ġt ubular
Ġd ie
ua ted
Ġproject s
cr is
x iv
Ġin ducing
ph ra
ĠP aris
Ġper imeter
is son
tri angu
Ġav oids
Ġprefer red
s pl
| ,\
Ġ ))
P en
Ġnon decreasing
5 12
cedu re
\ succ
Ġ\c Z
Ġunion s
\math op
K B
\ im
Ġ$ {{\
ĠC at
ĠX X
:\ ,\
tech n
cccc cc
Ġvol umes
Ġno ticing
H odge
Ġgeneral isation
ref lection
argu ment
Ġ _t
ĠF atou
H el
S plit
f A
Ġinitial ization
ltra mi
Ġres er
Ġclo sures
Ġ2 000
pec ted
Ġcand idates
3 75
Ġc as
Ġseman tics
Ġoff er
ĠCal cu
]{ };
S eq
: ]
\ ed
Ġo c
Ġ\in ter
H yper
Ġcover ings
} &=&\
Ġsu spension
ĠIn s
ten ing
en ed
val uation
ira s
* )]
e asy
Ġun able
bi us
Ġiner tial
um mer
ĠLo cal
Ġe poch
\set linear
yc le
Ġf ram
A f
Ġcomp an
ĠD ec
inv ol
ĠO P
Ġ\math tt
ĠE X
}} (-
F f
Ġc lean
}} )}
ul ia
ottom rule
12 7
block s
\n ormalsize
)! }{
}$ }\
equ ilibrium
mat ching
Ġcardin als
Ġ\arg min
Ġ ]\
^{- |
Ġcommuta tors
Ġex cess
Ġaff ir
Ġ\d is
Ġen force
coeffici ent
Ġcre ation
VV V
@{- }[
ĠDe dekind
. &
u h
ma ximum
l cl
n ack
{ }$
+\ !\
Ġfil trations
Ġ1 20
V ector
per f
Ġpredic t
ĠEuler ian
Ġnorm ality
Ġ\c ol
ĠT ri
bra ry
mon oid
\iff alse
hen sive
0 17
e ger
Ġco ar
Ġdifferenti ate
Ġconstru ctible
Ġins ights
00 7
~ :
Ġcode book
! )
)} <\
Ġw rote
\mid rule
p rf
w b
en sity
A MS
Ġpre coding
B Q
^{ 8}
Ġdia g
Mo st
ĠBe low
0 25
Ġpro finite
origin al
Ġmatro ids
Ġ\bb Z
Par tial
ĠIn itial
stre am
ta t
Ġp df
app end
suffici ently
(\ ,
pri ori
compact ness
G O
Ġhe art
Ġsur round
Ġ\l brack
ama nujan
ĠO ver
Ġ\S O
Ġinv olutive
la beled
ĠS he
)| <\
' })\
ref er
ĠT or
os p
Ġergod icity
ĠL andau
Al ternatively
sa mpling
Ġcounter parts
Ġmeet ing
B re
F i
con stru
Ġcontinu es
Re gular
Ġac cessible
K dV
To gether
Ġdifferenti ating
Ġcap tures
Qua ntum
iras oro
D v
|= |\
], $
_{+ }\
Ġf old
r ally
ĠG M
stu died
n q
Ġ\D D
te ction
Ġdete ctor
or ange
Ġ5 00
men tations
Ġorbit al
y es
}) ,\\
tie lt
Ġsub mersion
Ġoutper forms
}) ^*
lan ts
}}{ {
ĠS GD
ĠK re
Ġcharacter izing
Ġdecay ing
Ġaccu mula
ms f
P ick
ha el
}_{ {
v ents
ich artz
Ġad ds
Ġrepro ducing
mod ified
Ġimagin e
z p
te ll
Ġex cur
)\| _\
Ġs keleton
ĠI mp
bb Q
ĠPr inciple
Ġco sm
20 5
Ġrecon structed
uro pe
u to
{- }(
Ġright most
\ne g
ly eq
Ġop tical
Ġchar ged
Inte gral
^{+ }_{
0 18
ul se
Ġtur ning
Ġcircu its
Ġresol ve
mix ing
e lta
\d is
V s
Ġc e
nder son
ay a
Ġ\ tt
min or
Ġfac ili
Ġre new
ĠS ur
AB LE
Ġ1 96
}+ (\
Ġlat ent
Ġ= (\
\ Im
n ilpotent
Ġdiagonal s
\sup seteq
deriv ation
Ġsol itons
ds on
$ );
i q
ĠS hannon
Ġacknow led
ĠN a
Ġqu al
,\ ;\;
Ġre traction
Ġdete cted
)\ ),
R ate
Ġ{ }^
ĠM ap
ell i
^* }{
Ġexpen sive
w v
ar iance
ze l
Ġachie ving
H Y
\ sq
b ach
Ġrela tivity
Ġto ur
ba um
Ġexplo ited
determin istic
Ġ\ defn
Ġ\b z
Ġpol ym
Ġ\A A
e eq
}\ ),
11 4
\subset neq
le g
it ta
Ġfit ting
\l times
Ge ometric
pat tern
ĠS cha
ĠG R
ĠM C
11 8
err on
Ġrotation al
_* $.
H ecke
ĠA ust
Ġ ĉĉ
ĠV I
ĠW ol
n olimits
Ġval uations
Ex act
ĠK L
99 9
Ġmer i
in als
la ce
tran sition
n il
Ġbos onic
w ered
z t
ĠF inite
usu al
@ [
ch ild
& (\
F H
Ġ\b N
}}( {\
tielt jes
Ġpa ges
Ġnon convex
Ġensemb les
19 83
\d dot
_* $,
Ġf uzzy
Li ouville
L ee
V ect
)\ },
^+ ,\
Ġ5 2
Ġautoma ton
Ġoscil latory
a ro
Ġger ms
sup seteq
Ġoper ads
Q p
Ġco cycles
Ġrefere e
^* :
av oid
Ġpredic tions
Ġsimula te
Ġins pection
Ġa ge
Ġ$\ \
Ġdic tionary
c ubic
Ġc at
T N
\ gr
)* (
\pa ren
box plus
display break
M IMO
)) _{\
ĠK P
sen se
ĠÎ »
c here
v ised
}+ {
unit al
ĠShi mura
ĠD iv
Ġs y
Ġ3 9
w ind
\b ase
}- >}[
Ġ\g trsim
P al
con tro
G B
ecomp osition
Ġ ess
Ġac tivity
0 14
oto pies
ounce d
ree k
normal font
le ge
b I
da ms
complex es
U P
C AT
u der
Ġh or
B on
f und
g ot
Ġ} }{
19 84
)] _{
}}{ =}
Ġco ales
ĉĉĉĉ ĉĉĉ
expec tation
C n
Ġ{ [
\c X
D K
lem me
re ct
Ġs cre
Ġmis take
ĠP L
]$ ;
tif ications
parti tions
Ġtrans por
M s
_{+ }$
Ġarrange ments
\ mat
' }=\
F unc
er ay
)} /
Ġe avesdro
Ġacc ord
Ġpro p
Ġen umerate
Ġmicro scopic
V R
Ġd p
Ġatta ching
Ġattemp ts
Ġfall s
stra int
q uation
}^ +\
ĠP as
ak ian
W u
\ ~
Ġde dic
33 33
A m
Ġ$ =$
Ġv ola
Ġanaly se
Ġtra ined
^{- }(
ĠB PS
First ly
\b k
t us
}, ~
optim ization
per t
T ur
Ġ\ kk
rest ingly
ichot omy
F UNCT
ma j
fil tration
ra p
Ġ\en space
4 14
lo ok
ĠS iegel
Ġmon ochromatic
## ##
}} )^{
ĠL ee
dis cus
Cho osing
F act
q x
Ġ\ ob
lan k
Ġc lip
Ġstud ents
_+ ^{
mu nd
\ Ext
Ġcon ical
* }(
). (
)^{ |\
Ġdimension ality
Ġassoci ates
app lied
\ providecommand
Ġb old
ĠC ur
Ġclock wise
c q
ex pon
{- >}[
a mpl
Ġsub varieties
com mon
Ġ\math ring
Ġradi o
Sch ur
Ġ\b t
it ality
Ġlike wise
K ac
In s
ĠR S
}}$ }
is on
me t
Ġde fault
Ġtri al
^- )
Ġgen uine
ear ning
S olution
da ira
di ver
Ġmeasu ring
normal size
bo ol
P b
o main
ĠL S
Ġcall s
ono i
dis p
)\ !\
c w
Ġ\ sec
Ġpar alle
Ġ\ uu
ga uss
Ġstar s
ct s
3 30
F rac
Ġhtt ps
ori entable
ĠPa uli
)= &\
Ġtaut ological
sca pe
qua te
Ġper cen
mp ty
' )}\
A SS
ma tro
me ister
}+\ |\
ord inary
Ġequ ic
il ding
spe ed
C ref
e mb
en u
Ġto uch
Ġcarry ing
ĉ ĠĊ
ĠR un
index ed
L N
p ullback
Ġmo bile
ili ation
} ~~
s low
Ġtun ing
Th ree
corre lated
ar di
Ġsol vability
Ġ\v x
Ġfin er
inte gers
Ġrece ives
M as
W ol
ĠE arth
ia o
ĠPro gram
vi ties
Ġ\ll bracket
; {\
conjuga cy
Ġencoun tered
h X
bs y
Ġattrac tive
Ġh it
simp ly
D b
J B
Ġth or
{\ ,
Ġfor bidden
)\ ;\
5 000
Ġp ix
ĠHan kel
Ġ\ pl
ĠCon ditions
Ġport fol
Ġflux es
T u
ĠĠĠĠĠĠĠĠĠĠĠĠĠĠĠĠ ĠĠĠĠĠĠĠĠĠĠĠĠĠ
Ġpre vent
Ġinf ected
M umford
ĠG ronwall
criter ion
Ġs ke
ori entation
Ġsub modules
g ive
); (
measu res
Ric ci
Q G
C X
$ ^*$-
Ġdepend ency
ĠĠĠĠĠĠĠĠĠĠĠĠĠĠĠĠ ĠĠĠĠĠĠĠĠĠĠĠĠĠĠ
mark ed
tx t
ĠSV D
R ing
= :
ĠI EEE
Ġun knot
ĠD F
fe ld
ol o
permu tation
ĠP oly
wh ence
EN T
Ġ$* $
Ġinser ting
Ġfil tering
mit ted
\g lobal
Ġultra filter
ĠC enter
pair ing
Ġinser tion
N B
N evertheless
{ *}
pro cessing
es tim
\r d
b Sigma
t R
ma cher
Ġpro ducing
Ġ| ^{
imension al
Ġen codes
Ġ\m r
Ġ\ref eq
extension s
h es
Ġcol ours
Ġ\sub float
Ġ\P ic
k ra
}{ }^
commu tes
Ġchallen ges
d in
}) }}
ĠF inding
ev olution
Ġresol ved
ĠP D
Ġrewr iting
E t
wor ld
T au
is omorphisms
CC C
L F
ĠS W
U se
\ tens
de st
pl ings
< /
Ġdecision s
ĠHel mholtz
a mbda
j ac
Ġ[ {\
Ġ Ï
ll bracket
ĠK eywords
Ġf ifth
{{ {
ĠV al
ĠJ ones
p to
ĠS tirling
Ġsp ins
] }=
t G
ĠB loch
ĠP lease
Ġreli ability
Ġdri ving
g H
Ġpa ren
Ġpre paration
XX X
Ġrel iable
Equ ivalently
Ġb us
14 3
ĠĠĠ ĉ
ĠT ran
bra ted
Ġmention ing
simpl ices
inte rest
R ight
ĠB ergman
cl m
r in
il lar
row s
Ġinher its
^* -\
Ġtrans versality
Ġ5 7
AD MM
10 9
Ġsatura tion
Ġ& +\
11 7
s lice
ĠT ra
W al
Ġd m
er ts
tru ct
' )|
ĠB u
T erm
in z
ĠS ect
\ use
ĠĠ ĉĠĠ
optim ality
itta ker
Ġ$ .$
Ġh ints
Ġ\b reve
ho d
Ġfactor izations
Integra ting
S tructure
ll ustra
Ġproceed ing
s S
^{ o}
Ġ} +
to c
Ġpartition ing
G i
tic les
z h
Ġcos ine
C one
modu li
Ġwa velength
avi ly
R x
ĠV or
thm ref
Ġti le
Ġaugm entation
ĠN C
cal T
Ġ\p mb
G er
Ġ\ tikz
ĠF ibonacci
>> }[
Ġhar der
Ġme dia
Ġdis continu
ĠRam sey
onym ous
Ġ$+ $
T ab
ĠS w
Ġuni versality
Ġstra nds
T ree
Ġc ele
)} >
Ġcongru ences
Ġs lower
ra ther
\math ds
ĠF INSEQ
P c
ĠA tiyah
tar ity
Ġdesc ending
Ġ) _{
Ġperturb ative
Ġsti ff
3 20
K eywords
se arch
functor s
Multi plying
\ triangleq
â ī
ft en
Ġhe avily
hate ver
Ġtrans position
max im
Ġ\v skip
l ish
_{ (-
f at
Ġ\n um
19 85
Lo c
bb b
in cre
Sub section
necess arily
H yp
Ġ\b k
Ġconsider able
Ġ5 6
* {-
A p
ĠP R
Ġspace like
pri mal
^* )=
comple tion
ta ted
Ġ(\ {
ic y
Ġre sulta
}^{ *}\
Ġlo ci
ĠWi kipedia
B ou
ĠR u
Ġin herent
Ġapproxima tes
ĠCa simir
Ġs qu
ĠB re
go al
S hi
se mic
}). }
correspond ence
P ower
v q
atur ally
J K
Ġf un
\s quare
cou ra
}. ..
! }{\
' )^{
Ġdiff u
Ġindic ating
ĠAccording ly
ĠC F
graph y
Ġanal ys
Ġ\v b
where as
Ġ4 4
pro pa
Ġ\big vee
Fig Font
Ġoscil lation
Ġflexi bility
11 6
Ġam alga
our n
pr inger
Ġarray s
r hd
45 0
Ġ* *
\D GC
F rob
Ġcof ibration
un o
ĠC l
Ġ\ .
Ġc larity
od ifferential
Ġexact ness
\r q
Ġ\ rk
Re lation
P res
Ġdetermin ation
Ġover head
Ġ\ it
Ġas c
)|\ ,
la sov
Ġbijection s
| )^
LE M
Ġreflect ing
T an
at omic
Ġdomin ation
ĠCo mbin
local ization
L c
m T
ĠC as
Ġclo ud
Ġsubstantial ly
Ġcontra variant
ĠA F
Ġmode lling
urope an
f la
ph arpoon
Ġinte gr
Ġtop ics
Ġ\ rt
Q C
):= (
_{+ }(
\e eqn
mon omial
Ġintertw ining
w al
ĠMar tin
Ġaltern atively
Ġhtt p
Wh ich
Ġaut onomous
}_{ >
Ġparameter ization
a xiom
Ġcont ours
Ġmain tain
chere l
b dy
ua d
sub groups
Z p
15 5
lev ance
t ol
dd r
back ground
}' $.
a der
per turbed
Ġblow ing
Ġtrip let
l is
Ġfocus ing
7 07
da d
Ġsub tracting
3 18
Ġleft most
Ġquanti fy
)] ^{
Ġref erring
conv olution
Out put
---------------- ----------------
g G
ia ms
linear ity
Ġpush out
Ġferm ions
'' '
}_{ |
yn chron
Ad S
Ġru led
spec ified
Ġimprove ments
Ġout ward
Ġ\e mail
^{ g}
od ing
Ġ\ KK
sub sets
Ġsn apsh
Ġ\d f
s ph
Ġ( )
Ġpolynomial ly
K r
\c c
C U
Ġmid point
\text normal
Ġpri ma
Ġw ants
Ġlocal ity
? }
Ġbe sides
Ġcompre hensive
Ġspec ification
R t
Ġvehic les
> ](
I E
Ġde ci
Ġ\big otimes
Ġconstruct s
il ing
z x
\def ine
orth and
Ġavoid ing
shor ten
da tion
Ġ\n mid
Ġoper ating
Ġmass less
)}\ |\
ert ur
Ġpun ctures
) )=(
dynam ical
la ne
estima tion
C ap
a sion
fra m
Ġz one
Ġ\s gn
Ġsimplify ing
Ġaggre gation
de p
lo o
ri end
big sqcup
Ġpa ti
Ġ\texts l
le c
Ġ\N orm
con structed
)! \
Ġrepro duce
combin atorial
Ġele gant
graph ic
Ġthree fold
Ġ| {\
\ tan
i en
A MP
P ara
th ose
Ġlog istic
se gment
+\ ,
Ġcomp osing
Ġspe ak
\i int
ar ticle
Ġshe et
A lt
sh ould
_{ [-
och ner
Dia mond
dd d
Ad ditionally
cent ric
arg min
Ġaccord ance
\c T
Ġenter s
\bib item
Ġd ark
Ġ\to p
d ges
Ġs ie
Ġde licate
qu i
ex m
k z
defin ing
x f
}) }(\
Ġb end
an aly
ste ps
Ext ension
structure d
poly gon
restric t
character ization
n ication
00 8
Le b
Ġphot ons
li u
)\, ,\
6 25
Ġ\u psilon
Ġcele brated
Ġext rem
o ss
ĠD rinfeld
che v
B b
bf v
An alogously
U S
P as
Ġex clu
in ery
Ġattrac ting
Ġ\ sep
ĠN E
]{ -
C e
Q FT
Ġ\ prob
23 1
Ġp end
Ġ\b w
Ġmoder ate
co ker
Ġdeal t
ma cro
ga me
Ġcre ates
Dis crete
front matter
Ġcons tel
depend ence
^{ K}
Ġheter ogeneous
A I
M G
Ġaf fin
S cript
Ġtime like
Ġro ute
Ġâī ¤
2 60
\r p
Ġpropag ator
,\ {\
Ġsucces sively
13 6
ĠLang lands
P N
\ rule
An alysis
Ġrec omm
de m
ategor ies
Ġinv oke
}} .\
Ġde gra
99 99
O c
p ly
Ġas ks
Ġnor th
o ok
e i
)) >
tit ut
Ġstra in
Ġdiagonal izable
ide meister
Ġdro pped
$ ,\
K ey
ĠL ast
k v
as sumptions
\ ma
e o
m D
Ġrepla ces
S pecial
sub fig
ĠLe ft
General ized
ĠĠĠĠĠĠĠĠ ĠĊ
Ġv ide
_+ ,\
inter polation
ĠAD MM
Ġord inals
'' =
\ra isebox
Ġiso perimetric
\b d
&= -
Ġcontrol lability
XX REAL
E ff
Ġ$\ ;
Ġsl iding
ĠĠĠĠ ĉĉ
ec han
Ġcar ds
ĠBes ov
' },\
W T
Ġ{ (\
ta me
Ġcomp ressible
lic z
sub array
{ ^
e lastic
ga s
ort un
Ġcontradic t
she ll
ĠFunction s
rotate box
ik h
alan cing
K Z
Ġ\ rank
Ġde code
Ġar ranged
ex mp
25 5
Ġ* *\
Ġca che
Ġhar ves
ĠB on
s K
ra isebox
sp heres
al king
ĠĠĠĠĠĠĠĠ ĠĠĊ
App lications
Ġsumma ble
U h
v on
in y
ta nd
Ġe uclidean
\c ref
cong ru
Ġtermin ates
Ġbatter y
Ġsuper script
Ġhist or
Ġintui tively
D et
u racy
ro id
Ġcontrac ted
Ġdedic ated
p lo
Ġen riched
{= }[
14 7
ergod ic
ell ing
pe ating
Ġoccur rences
Ġ} -
app lications
Ġ\ der
Ġ\ propto
Ġ\b S
d ox
}$ (
color box
Bound s
P H
Ġw inding
\c d
Ġwa iting
O h
te t
page ref
\over rightarrow
ĠN OMA
Ġqu ery
19 5
Ġneces sity
b ridge
\d ist
}} }$.
ĠJ ohn
Ġhe ads
Ġremo val
Ġdeca des
ĠK ey
ĠF ried
Ġra ised
Ġcircu ms
Q N
lo so
O B
f M
Ġj ob
Ġhosp itality
Ġeffec tiveness
app ed
_{- }(
are to
\ longmapsto
pharpoon right
19 82
iel sen
Ġbehavi ors
Ġmajor ity
f ar
[ |\
^{ z}
Ġlo ose
ĠK e
Ġsec ure
ist or
Ġquad rant
W a
Ġellip soid
] [\
h ua
â Ħ
Ġ1 80
th al
}) }$.
Ġdiscus sing
ĠT uring
for ces
Ġinde finite
Ġalign ment
Ġ9 5
Ġparame tr
Ġ& {\
Ġ\L ongleftrightarrow
28 8
triangle up
ympto tically
show n
Ġglu ed
P hase
_{\ |
Ġsome where
]\ !
Ġminim ized
S he
gle ftarrow
Ġradi ally
K F
Ġs es
Back ground
Ġfram ing
\ dash
Ġsub tract
hy pothesis
ti tive
ha ving
ec m
}] (
Ġinher ited
le af
ad sto
tig ating
g L
rame tric
ĠOr der
se lect
}) )=
ĠPe zzo
m z
ĠD arboux
idel ity
, ~~
\ aligned
ard o
Ġtil ings
o scil
si zed
desc ent
Ġre tract
bo ot
Ġaffir ma
us lander
as ym
)! (
Ġke pt
trunc ated
n it
Ġ\c omp
ĠB ott
Ġabbre viate
\ rt
s hi
Ġbase point
yz y
Ġprecondition er
\B B
displaybreak s
ro gate
Ġjus tification
se vich
Ġmulti dimensional
Ġassign ing
ian chi
b nu
E rr
\ bel
Ġ\s O
Ġiniti ated
Ġ$( *
Ġsub categories
bb x
Ġoptim izing
Ġjo ined
nti ating
Ġpric es
Ġcor ollaries
}] ^
Ġ\K er
iter ation
Sum ming
co herence
. ~$\
Ġtur bul
Ġquadri lateral
r brace
Ġtight ness
Ġ\ ct
Ġco mmand
Ġm inu
Ġcomp arisons
bi as
\ plot
Ġz ig
ĠV alue
}\, ,\
y ck
po isson
} '}
concent ration
o S
ĠMarkov ian
u ction
J L
] }_
}[ -
Ã ¤
Ġincorpor ate
Ġoccup ied
Ġcapture d
\c G
2 16
Ġ\ me
Ġc aching
000 1
Ġreformula ted
}} }^
pres ent
ib er
Ġself adjoint
configura tion
po les
zz i
Ġcli ques
V c
Ġ| .
Ġtheore tically
s R
Ġdu als
$ ^\
Ġti gh
( (-
ĠN S
Ġimpro ving
Ġmaxim ality
Ch ern
Ġfaithful ly
m ot
repres ent
Ġfore cast
H c
Ġ\ Exp
se en
ĠC G
Ġ| _{\
Ġaffect s
w ere
} &&
Ġha ven
Ġutil ized
consta nts
M ag
Ġcon duct
point wise
Ġquantif ier
\ De
es ult
us al
ire n
\c R
Ġsuper ior
CM C
Sol ving
_- }
nega tivity
d M
direct ly
e ref
e ight
de velop
Ġbo o
mic ro
X BOOLE
und le
cus p
Ġrecomm end
A g
ĠF ield
le e
Ġ-- (
Ġexpres sing
Ġthresh olds
You ng
\ and
w g
Ġsupp ly
), &
we ep
})$ ;
ĠY et
M il
in ct
)= &
Ġla mination
}:=\ {
{ }^{
Ġcon cluding
ĠD L
T c
u tational
Ġanom aly
k c
Ġc ited
Ġn ames
Ġmulti set
ĠOn ly
T Y
ĠM ag
Ġ\r b
Ġrever sing
ĠPol ynomial
q a
x c
Ġtran sf
Ġser vers
Ġsole ly
ĠC all
a res
Ġd w
N b
d ating
k as
Ġh uge
irtu al
ĠH itchin
lines tyle
A re
ro zen
Ġplu gging
VE CT
e per
ĠH ir
\ps arc
ĠS el
23 0
Ġmo ved
w is
Ġc le
il enberg
Ġvis cous
Ġ\two headrightarrow
F ield
\ TT
Bound ary
- [
The o
Ġ\m rm
texts l
Ġconfir med
)$ &
ĠO perator
[ \|
ell in
Ġima ging
SK I
i as
Ġfin ished
ĠW al
^{ v}
Ġauto matic
. ''
A bs
\ ff
n ab
Ġoff ers
Ġslot s
ont sevich
\footnote size
}} .$
A lex
frac tion
ĠWe ll
\d iv
] /\
Ġabsor bing
) }}(\
Ġ@ {
Ġuni tarily
Qua d
Ġalign ed
Ġsemin al
E ll
S mooth
Ġslic es
c les
m w
s at
Ġ\g l
23 5
\re sizebox
C ommu
si l
Ġd ate
Ġsubs equences
Ġir reducibility
ĠS z
$$ [
th rm
V F
ve re
ref ree
Ġspin ors
Ġ ^n
j b
}) }\\
l parr
r parr
{ )}
commu te
eriv ative
ĠE M
Ġquanti le
Ġlimi tations
c ancel
en n
Ġch ords
\beq n
ĠWh ite
star ting
ite s
Ġhy po
Ġpoly gonal
b bf
h art
}] _
Ġsubs hift
essential ly
Ġexecu tion
R et
S ign
ma z
\M od
ra bility
Ġconf lic
eq ua
}$. \
lo sure
Con vex
' ]$
V S
}^* $.
Ġh al
' :=
B U
n ary
on vergence
Ġun constrained
Ġgover ning
M ay
Ġpredic ate
. ]{
a ded
Ġpost pon
$\ ;
C ut
Y u
l st
ĠL y
Ġ\L ie
\base lineskip
Ġmod al
Ġda tab
8 00
a gin
)| }{|
C over
}), $$
radi al
Ġsta bly
)\ \\
ĠLi u
ap an
Ġmechan isms
\b C
V o
ta tes
cons ists
Ġmach inery
eq def
ij kl
Ġ& -\
ĠE rror
Ġstud ent
J P
pect rum
ag ree
Ġ\w p
ĠTHEN L
b ij
item sep
su i
olog ous
]_- {
Ġ\in v
pro g
Ġ20 10
re place
Ġla tency
Ġ\s p
sign al
Sch wartz
Ġ{ }_
Ġfirst ly
res on
13 3
tran sfer
cal f
ull ref
Ġat traction
Ġ\s cal
_{ *}\
Ġsh orthand
Ġspa cing
Ġde s
0 75
d E
ĠD P
tribu tions
)* +{
mom ents
\se arrow
t T
ad mits
ers en
Ġexpres ses
Ġferm ion
' )-
Ġar g
'$ )
cy linder
Ġ lambda
p al
ho v
19 80
Dis cussion
velo city
Ġacceler ated
e th
{ {{\
*} (\
L V
h ref
S chool
scal ed
Ġpoly hedra
spec ific
es ting
ar Xiv
P lease
} *\
Ġisometric ally
c lique
Ġn um
st udy
du cted
Ġans wered
Ġcolour ing
ĠCou rant
Ġma xima
]+ [
13 7
ĠGe ometric
}( [\
f urther
U s
ĠM ic
Ġ\rm d
ĠProf essor
P lugging
math pzc
ĠI ter
Ġeigen spaces
Ġshift ing
EA SU
b ble
Ġat las
\d if
hand le
\ ud
ĠI NT
F V
Ġf loor
ĠBS s
Ġadvance d
Ġ ,\,
Ġcou plings
Ġsubsection s
A cal
J ust
ig e
ĠW riting
ide als
pend ing
Ġ ^*
G c
m F
Ġt u
Ġ\qed here
I MP
A dd
un ing
Ġdis appear
Ġremark ed
f ac
\le t
sum s
til ting
Ġcorrespon dences
Con j
ida ble
me thods
ser t
Ġ\d dot
^- _{\
h P
Ġcounterexample s
\ QQ
^{( }->}[
bf s
con text
\inter text
Ġs il
de q
Ġes cape
D W
t up
Ġan ces
Ġsub critical
y al
os hi
Ġcould n
Ġconstitu tes
}\ :
ut te
24 5
PP P
Ġreformula te
ĠA cade
App lication
2 12
ĠV irasoro
\D D
B n
ta kes
_{ /
Ġf eed
F INSEQ
Ġcustom ers
Ġha m
)} ,\\
mark ings
vari ational
pie ce
ma jor
ĠS TR
Ġ\v phi
Ġmaxim izes
Ġenhance d
P lot
Ġincre ment
Ġextrac ted
we i
_+ }\
~$ (\
tran sla
l not
ub in
ric e
ha ra
Ġtor oidal
Ġfinding s
T i
w orth
Ġre levance
Ġat tribu
tr ig
Ġb ud
Ġ}\ ;
pri or
00 9
Ġwrite s
verag ing
w alk
ric es
Ġ\cal C
Ġ\ so
Ġ\mb b
{ }[
ta sk
ĠH u
ĠTh urston
Ġsub div
)| $,
add le
Ġnever theless
tic ular
comple tely
}' $,
Ġpullback s
] ],
left margin
Ġportfol io
Ġdia mond
)! }{(
L imit
ta iled
ĠP ower
theore tical
. *
S tability
im odal
Ġanom al
e ve
Ġ\ra r
}) <
T B
si x
)} _{(
Ġt ric
20 1
Ġmodel led
X cal
I r
Ġcol labor
Âł Âł
intersect ing
titu tion
impl icit
Ġbelie f
m M
ta p
ĠB irkhoff
Ġhard ware
ĠE uropean
Ġloss es
^{- }_{
\ space
D ir
F N
)$ }\
zen ge
conver ge
Ġvis it
ĠDiffere ntial
^{ B}
ĠS ay
MM SE
\l p
Ġinf e
ĠUniver si
Ġh oriz
ĠV an
0 19
C ox
Ġnear by
Ġthick ness
Ġ\ra isebox
Ġann uli
F Y
bo ard
(- ,
Bound ed
w x
Ġcharacter isation
Ġargu ed
> *{
R am
AR SKI
mp s
ĠZ F
La w
supp orted
Q S
Ġp red
A belian
ex change
Ġmargin als
ĠCho osing
Ġ\ proj
ph istic
ĠD C
Ġlexic ographic
Ġ\ zz
hand ra
==== ====
divis ible
Ġtack le
) '(
: |
,\ |\
ĠP yth
f R
ĠN atural
Section s
R X
\d iff
Ġ rid
for cing
po inted
}- (\
constra ints
ceed ing
o T
r put
)| |_{
Ġensu ring
s ymp
Ġtri als
ĠRecall ing
frame box
ĠBru hat
3 15
\ else
ver ti
ĠF u
: "
col l
cons isting
? )
Ġ$ )
ĠP A
co variance
13 8
S INR
Ġ\ ord
Ġre normalized
gra mma
Ġcollision s
\ real
_\ #
ter ra
olu tional
ure r
}^{ |
\b A
L ittlewood
c rystal
Co mbin
su rd
ni que
tru ecm
d L
ĠCon trol
Lemma s
gr p
L AB
on orm
Ġsu spect
Ġj et
Ġidentif ications
Ġsemic lassical
la ys
di aba
. $\
s sup
ĠSecond ly
B c
lu ster
}+ |
Ġvio lated
}} ,\\
Ġter nary
Pro perty
)}{ |\
Ġlarge ly
^{* },
inde ed
Ġresulta nt
Ġen coura
Ġconduc tivity
N um
act ory
Ġ\big sqcup
les on
Ġmulti scale
Ġn ominal
Ġv ic
om ing
Ġvola tility
para ms
Ġimmer sions
w z
mu t
ĠD IS
IEEE keywords
Ġbreak s
beha vi
)$ }.
ĠPro duct
19 79
Ġpub lic
\ sh
~$ {\
Ġ7 2
B lock
Ġ\ em
A mp
L im
Ġ${ }^
Ġfla gs
Ġaccep ted
Ġprotocol s
semis table
Ġ\c W
Ġopp ortun
Plan ck
iz ability
\b l
Ġke eps
Ġelabor ate
eq s
Ġ0 5
Ġdis e
Equ iv
> '
ĠG P
Ġfulfill s
}$ ]
Ġnormal ize
Ġ\S S
Ġvarian ces
Ġopin ion
v as
z o
Ġh its
ĠK al
len beck
the equation
lu nd
]{ ->
bm od
Ġ\ lf
Ġ\c Y
mean ing
ĠWh ich
J ordan
( [-
Ġcoun it
cal ing
)} <
Op en
$ ^{\
}) )$,
ĠM LE
imp ortant
|}{ $
Ġremin d
j et
Ġf iles
Ġcon cavity
Ġmo tives
Ġtran sitivity
vi kov
Ġs kip
$$ \{
ĠC FT
Ġhyper graphs
3 12
ro tation
Ġm im
ĠE nergy
{ :
de lay
)| .
Ġexhaus tive
}{ @{}
^* +\
; (
o pacity
ĠT ur
Second ly
Ġ _3
i dual
Ġcyclic ally
! }{(
belong s
satura ted
re ath
}} <\
omp act
\ OO
* }}
S w
om ment
c in
il la
}}{ }
en ded
ain lev
f ied
Ġ\var sigma
K O
es ter
mula tions
'' )$
Te X
Ġ12 8
ĠComp uting
[ \,
Ġan onymous
ĠM u
CL T
Ġb ond
_{\ #
cite d
Ġro om
^- _\
Ġpromis ing
S g
k ar
deg rees
Ġsyn thetic
bran ch
try agin
\ on
n L
| },
Ġdown ward
ĠA ss
ĠV ector
entral ized
ord ination
formula tion
\ sc
^{ 7}
' \\
ud in
ta x
at son
ĠJ ulia
\ et
Ġ\C H
Ġdec ided
el le
E k
)| ^{\
@{- },
Ġentangle d
gu ing
\ gl
ti tions
ar chimedean
\b P
multi pl
Ġ\ else
f T
Ġinterpre tations
k al
de ep
Ġd A
ĠC C
bf f
\ one
m X
}^{ {
Ġ\mid rule
^ Z
15 7
H iggs
Ġus age
ul sive
.\ ,\
tors or
] \|
po set
Ġtrans versely
re ce
Ġcol linear
45 6
{ =}
one y
Ġ\G al
) ).$
Ġ\ thmref
ĠM DP
ss ential
Ġexceed s
Ġ\ Var
^{* })
k f
Si mulation
Ġcompan ion
y ellow
Ġre called
ĠT hank
co d
Ġmove ment
\ Id
s nr
in duct
Ġw ild
ct r
}} >
}, -\
ĠS olution
pro c
ĉ ĠĠĠĠĠ
We ll
)| <
sol vable
p atch
ag s
}}, $$
Ã ł
tar t
Ġ\t w
SE P
\u psilon
e psi
100 00
ĠS turm
19 78
' )^{-
\ yy
Ġqu ivers
Ġcon ducted
Ġg host
che l
an ten
ĠC DF
Cor responding
F W
Ġ\ angle
Ġro bot
Ġpla ying
Ġpick ing
in bow
an other
Ġ} +\
ĠA c
}^{\ ,
Ġasc ending
ar ial
Ġb ivariate
ay ashi
Ġ\S i
ĠBa ire
+ ,
+ ...+
Î ±
er fect
ta ries
Ġ- {\
_- $.
c entered
Ġdeterminant al
Ġdecor ated
m K
Ġ\g t
^{ I}
me ta
\text style
ta ken
), ~
formula s
al ways
gra vity
mis sibility
at t
ĠH asse
Ġ|\ ,
D c
J an
ro duct
Ġi ii
lar ger
&+ &
ho vanov
Pro ve
Dia g
L DP
Ġsu be
19 81
Ġinterf aces
c frac
Ġ\ oint
im er
ĠM AP
spa tial
j aco
q k
y pical
}] =\
F s
ĠX BOOLE
f v
in force
ĠMon ge
Ġcooper ative
Ġconclude d
Ġfib rant
z ig
Ġexpl oration
pres cript
ĠAs so
O rd
ĠAn alogously
m oto
ĠU Es
J H
ĠS ym
Ġen counter
condition ed
g D
ĠL ittlewood
Ġsec ret
I H
)} :=\
small er
cur v
! [
f ibration
ĠJ an
in ternal
}_{\ {\
vari ates
Ġpul se
ac ulty
et te
Ġ\s ym
be fore
18 5
Ġtransmission s
squa red
en se
Ġh ours
Ġy shift
d Z
y ear
}- {
distribu tions
Ġ\small setminus
expec ted
squ ig
Ġre vis
on line
)}$ }
x act
ĠF L
_- $,
imp s
ft ing
Ġ= \,
da st
}| $.
- ,
L ap
\ lam
] .\
Ġobstruction s
Ġdec imal
ourho ods
Ġspecify ing
si a
techn ical
x q
ĠA W
the or
direction al
> {
| }(
Ġ6 2
Ġcapa ble
ĠStar ting
\c urve
\f r
}^* $,
o mple
sc u
R p
L ongleftrightarrow
Ġa id
Ġacc ounts
Ã ®
] )}
Ġup dating
cu bes
Ġtwist or
^*\| ^
L an
)}. \
Ġfocus es
p red
ĠY oneda
_- )
Comp uting
ĠS uc
ĠM i
back ward
can not
slo pe
q h
rac tical
Eq uations
Ġ9 6
Ġ\c d
the m
f B
ro g
\bb R
phistic ated
he ta
\v ol
\l r
8 66
}} }^{\
Ġcor rup
11 9
Ġelect rical
o z
perturb ation
ĠM S
Ġun clear
Ġspace times
Ġ\g cd
Ġ ^3
co hom
Ġ\f ref
)^{ [
Ġforth coming
g v
Ġde cla
ellow ship
}, &
)& :=
Ġround s
Univer sit
or is
g ar
y en
Ġtrade off
G l
ĠS paces
dis cussion
de le
y ra
or ig
ast er
Ġ" $
Ġ _s
exp ansive
ffici ent
[ "
Ġ) {\
C as
co variant
Ġinterpo lating
Ġevol ves
uch s
Ġpush forward
yl or
C t
Ġs ket
ĠT hom
Ġrearrange ment
thresh old
W riting
)] _
Ġbra iding
ĠLa guerre
=\ !\
ĠM odu
Ġconver s
bran es
on st
Ġ\c enterline
perim ent
L ev
Ġpropo sal
Ġ rho
L ang
Ġinvestiga tions
[\ |\
Ġa go
le b
Ġj unction
T U
m entioned
\m n
App ly
Ġ\Re al
)\ \[
L g
g ic
)= {
H cal
si vity
Ġconcept ual
R en
ĠCo mple
circ led
Ġpi pe
A LL
Ġro ll
Ġreson ant
}} }}\
ĠW ilson
Ġargu ing
Ġfru it
d onald
Ġc ot
ois y
Ġsuccess or
Ġisogen y
r T
^{ y}
Ġcre ating
Z a
Ġ(\ |
Ġp le
Ġabsor bed
lo u
_{+ ,
ĠP al
fr g
s till
}} <
ri al
Ġstand ing
ob jective
Ġf at
ĠM echan
Ġbenef its
G romov
l mm
ck s
ru ll
)}, $$
super script
Ġattrac ted
ro pies
Ġnon compact
def eq
ĠPro perties
ĠRemark s
it en
Ġmultiplic ations
; }
ĠD iophantine
F inal
H V
ĠS pin
ich ards
ĠM DS
\cite t
Ġw ider
)) ]
})$ }
spr ing
* >
Ġb imodules
Un ion
H s
ĠS c
Ġpresent ing
squig arrow
G w
over pic
bf y
t D
\f g
Ġsub class
Ġpres entations
ac yclic
Ġimportant ly
ĠKo daira
Ġcol oured
Ġcub ical
lift ing
ĠK dV
ĠW u
15 6
Ġdemand s
Ġcof ibrations
Ġ }}{\
\ tex
Ġprima rily
iren berg
: ~
Al pha
allow break
da bility
Ġsub car
ext remal
Ġration ally
ilp ot
******** ********
Ġh olding
)| ,
Ġgu ide
Ġ\Big gl
Ġ${ }_
Ġchord al
Ġn ine
comple teness
Ġ )}\
12 34
spect ra
cal culus
$$ =
AN D
q i
Ġd up
Summa ry
l cm
Ġco compact
Ġ\ red
Ġ$ ^
}) :=\
)\, (
riter ion
ex pect
Ġde velo
app lication
bb A
ĠChe valley
)| =\
aut onomous
ĠFer mat
\ ri
f lag
de macher
how ever
Ġ\n ormalsize
ĠApp ly
F rame
$\ \\
+ .
p ref
multi row
diaba tic
Ġla dder
Ġmodify ing
V P
13 9
dimension s
Ġhence forth
Ġnormal izing
ps h
Ġw hatever
]\ }$
Ġt ending
ĠC ould
Ġimp oses
a ther
ve lling
lo ops
Ġneur ons
Ġcosm ological
\ ten
Ġs chool
ĠĠ ĉĉ
so ft
hy po
ĠCoun cil
Ġ }{(
ĠS tanley
Ġhyperbolic ity
ĠB ro
\f l
Ġplan ning
Ġhype red
o tation
}^ *}
' ^{-
Ġdis plays
R och
sta ted
)] =\
blow up
ti vities
Ġs eq
ĠQ FT
Ġ\ tiny
)( (
stra ight
G orenstein
Reg arding
T ensor
ti ous
Ġre ality
Ġla belling
R c
ĠA S
Ġsurv ival
ĠR oughly
asu res
})\ ,\
f F
ĠH yper
ĠRe idemeister
compu ted
Ġsemin orm
Ġ| -
im ity
po lari
ĠPo st
Ġquadr uple
\ ul
Ġacknowled ges
en v
Ġnet s
B ru
Ġinstant on
\ du
in clude
_* )$
P in
S y
ĠAn osov
Ġfli ps
Ġ\ make
ĠY u
)}( -
Ġfluct uation
h al
label ing
ĠCal der
act ually
Ġflat ness
Ġ\b Q
let ons
p et
z n
$$ =\
ys on
T Q
wide check
def ect
\var nothing
d G
alu es
19 6
Ġeigen states
fill ing
N oting
$, }\\
)) }$
Ġ\b B
Ġsha ded
ou ts
\b E
Ġharmon ics
Ġm ill
ĠL imit
pa gestyle
cri ption
ous tic
Ġrequ est
zero s
multiplic ity
is crete
ve t
^{- }\
mo v
f G
pa nder
^* }^
Ġscat tered
S un
\ uu
per formance
y t
so b
Ġ8 1
Ġ$\# \
ou l
ok ker
ount ing
Ġre nder
ĠG old
p rt
}\ }_{\
}} }_
ĠS D
simp s
Ġdigraph s
o le
ĠF D
ĠUn like
ven tion
Ġcontro lling
trib uting
\DGC strand
j t
ĠK a
13 1
pack age
K im
ib re
ri ff
Ġpseud odifferential
] }|
t C
Ġpre images
)] }
K ra
partic les
for k
Ġcont ract
Ġmach ines
' \,
D x
co ef
we yl
ance d
S er
\c I
Con cerning
Ġ\dots b
Ġ\l r
Ġshort ly
mp ed
22 1
\b z
SS UM
Ġinf ection
\L ongrightarrow
}}\ ;
determin ant
Ġt ors
Ġcon dens
arith metic
_{* }(
E igen
cite t
Set FigFont
iv an
r H
se g
Ġar ticles
lin eto
: {$
B ase
Ġaltern atives
Ġav o
\ of
la re
28 0
yg mund
Ġ\ qq
cha stically
Ġplace ment
Ġposterior i
}} }$,
rela tivistic
S DP
su ppose
ĠA m
use ful
Ġquadr ics
n w
z m
J C
b if
in ction
)$ '
Ġu v
16 8
Ġenjo ys
lan ce
L I
Ġ+ (\
ĠM MSE
po p
Ġlo se
s Y
}} )=\
Ġsub scripts
App rox
p seud
su ally
k A
Ġm i
\ vect
Ġ\ su
ĠB r
Ġ| }
Ġuni versally
C handra
Ġre trac
Ġ ~~~
Ġ\b n
Ġbi ased
Lie b
q b
mu lants
Ġhexag on
L Y
Ġ\ til
ore tical
len eck
ref ine
ĠP en
Re placing
I den
l la
lu x
Ġ\t d
Ġweigh ting
ro ach
onal dson
bi partite
}' ,\
d D
ĠB R
)| }\
ball s
Ġsurround ing
ay ama
' )(
G U
^{ }
sen ess
Ġ }$$
Ġin su
Ġb ur
poly tope
Ġ\C P
\p d
Ġ& :
Ġval idation
A mong
}\ |^{
flush right
plot s
Ġlangua ges
B s
f ive
Ġsub lattice
Ġ2 55
con es
fil tered
llustra tion
Ġ\ mo
ĠL ine
ad ditivity
Ġmm Wave
Ġsha res
C b
L ist
S GD
Ġd S
ĠR us
re duce
Ġla min
fl ip
Ġrota ted
Ġco variates
Ġmole cular
ĠApp lied
F ried
O bser
th a
ĠPro cess
Ġ\ II
Ġp uzz
Ġ\A d
bounded ness
Ġutil izing
conne ctions
L ow
ĠL abor
Ġcentral ized
ĠB la
Ġ\ Int
Ġear th
N ode
] },\
lon gleftarrow
ces sed
hi er
ĠK ummer
Ġinter act
Ġdefect s
es sel
Ġuniform ity
t M
vm ode
c ru
Ġi id
DE F
Ġhyper cube
Star ting
\ Prob
\ar g
sur jective
Ġaffirma tive
ĠM V
Ġso phisticated
t P
q f
on ent
)}. $
Ġreason ably
Ġmotiv ate
ĠTable s
ledg ment
Ġvide o
S to
stru cting
Ġqu eries
this pagestyle
Ġdiscontinu ities
z ar
Ġ5 1
Ġtechn ology
oh r
re w
lem ref
ĠSol ving
in tic
Le besgue
Ġcu ri
was awa
N O
Ġ\c ot
sol ve
requ ire
}\| _\
Ġassign ments
Ġstation arity
' ^{
n ota
$ }}}
ex ercise
ĠK rylov
ak ov
Last ly
il lem
non zero
- (-
Ġp ants
16 3
bb E
Ġresearch ers
Su per
Defin itions
Ġh ol
o I
EN O
qed here
W itt
Ġ\ hom
ĠQ R
ĠDen oting
ĠMathe matica
\ zz
er tex
^{ <\
Ġaccep table
Ġrecipro city
Ġ( ``
In eq
) '$
H G
Ġ\ fig
}> >
ĠC T
Ġdraw back
Ġconsist ently
14 2
Con trol
Ġli brary
faff ian
ĠS un
Ġour s
Ġign ored
lect ing
repres ented
B ol
re r
^*} (\
Ġpredic tive
ĠHar nack
Ġabsor ption
F low
Ġbi ological
_{\ {|
Ġcla use
Ġ~ ~\
Ġ[ (\
\v phi
pand ing
ave vmode
th t
| )^{-
T er
is en
Ġb rings
ĠS everal
Ġsem if
2 15
Ġ( *
^+ $-
Pol ynomial
W ill
bf c
ack now
}) |^
bra ket
ar xiv
em i
v h
ĠF ermi
po sitivity
Ġ\v r
ĠS er
ck er
Ġ\l times
depend s
o i
r Cl
ĠT X
li ers
parame trization
Ġannihi lation
Do main
> -\
Ġ\ gen
ĠS tochastic
remark s
K lein
b one
ĠL asso
\c K
bf series
}\, {\
Ġregular ly
A Y
S everal
Ġ\ diam
ĠA nderson
ted ious
)} =(
\c omp
v skip
Ġproject ing
Ġattract ors
\big wedge
]$ :
}^* ,
dia grams
separa ting
avoid ing
re ason
Ġ\b V
Ġapproach ing
Ġtes sel
& \|
L usztig
Ġv a
cha pter
Ġsmall ness
Ġ\ res
es ults
ĠI M
Ġenviron ments
w iki
ĠD E
toff el
O E
Ã ¥
Ġcon st
bo v
ĠRic cati
Ġsurprising ly
ĠI C
: \!
Ġco domain
Ġpart ly
Ġobsta cles
ĠMas lov
3 21
ĠB ER
Pro d
ĠB ou
con tain
\ll bracket
mon de
SE C
Ġ\I rr
Ġ )\\
y v
Ġqu bit
Ġmark s
k ed
Ġ\m tx
Ġcoinc idence
Ġvis ited
Ġle cture
Ġpa rac
ack ey
ĠStr ichartz
\ grad
un less
ĠV ari
y ield
pe at
ĠLagrangian s
Ġconverse ly
semis imple
rm i
Ġ\ rule
ent re
ĠY ama
Ġappe aling
}: }
W S
ĠF uchsian
\b y
Redu ction
D r
i T
Ġ\ sharp
Ġb illiard
w tilde
al ty
ĠC AT
ĠM AC
au ti
16 7
\C ref
k ins
na ke
Ġbu ffer
ĠVor onoi
B lue
Ġg cd
Ġ" ...
is able
Ġde ath
Ġl ive
ĠJ S
Ġcustom er
& <
Ġre phra
en ough
as ymptotically
In equality
Ġacknow ledge
Ġcolor ings
Ġla g
}), (\
)/ (\
Ab stract
Ġer asure
S pectral
v l
-\ ,
Ġ\t p
Ġanalytic ity
Cla ssical
ĠPut ting
ten tial
cor ol
Mo ody
P X
Ġg irth
Ġsupp ress
r isk
ot z
Ġsqua refree
Ġdenomin ators
Re lated
Ġinves tigating
\ For
f ourier
Ġqua sis
M cal
Mor se
T d
AR GE
verag ed
\ med
ĠF ran
Re v
8 75
S up
Ġcomp ound
Ġ\b G
\ ha
\c Z
sh ifted
Ġbud get
Ġsa tell
Ġ6 3
Ġsearch ing
h text
Ġpro tot
Ġde coded
ĠIn tern
Ġnon parametric
Ġover lapping
Ġ$[ -\
princip le
Ġ\ er
ĠD NN
),\ ,\
}). \]
Ġqu bits
S f
i ors
Ġre lying
rightarrow s
^{- }$
ĠR edu
,\,\ ,\,
Ġ\set length
\aff iliation
Ġimple mentations
E c
I ma
\b n
Ġes t
re q
ĠS M
d on
Ġ\ ox
Ġre pair
embed ded
Ġ\ es
Ġany more
Ġmat ters
AR D
st one
Ġma rtingales
ĠP areto
Ġ\f ullref
ul um
ĠLe vel
Ġresidu ally
\ MM
f V
Ġrational s
ĠS as
ĠP erron
od ory
19 77
38 4
y o
ĠR ule
14 6
Ġ\t n
coinc ides
in ity
Ġsymple ct
ĠR amanujan
Ġ\d oteq
ĠB our
st op
ĠL ip
bf C
Ġconnected ness
defin itions
car tesian
G ar
pre vious
Ġ9 2
\top rule
Ġ ].
g lob
Ġsta tus
Ġ} |
ĠCol lege
q w
co vers
{- >
Ġa periodic
^{ f}
Ġ5 9
z w
ĠS S
Acknow ledgement
Ġevol ving
G s
H all
Ġup ward
ĠMo ore
ĠGroup s
rop ri
erg ed
Ġback wards
Ġann ounced
M m
\ Ex
Ġv ast
Ġun conditional
bu ll
wr iting
' )+
Ġ\ ka
separa tion
d int
\b N
Ġelimin ated
ty pical
}| |_{
Ġsubs olution
trans formations
er ro
ĠK as
Ġ3 00
mon otonicity
abs olute
lin eno
ĠSol ve
T ot
}\ }}
lo gram
lon gation
o a
Ġma nu
'\ }$
\ textsc
ati o
ĠAlgebra ic
G Z
Ġto pos
Ġ\c onv
f w
Ġ{ $(
|_{ [
Ġ\C at
Ġb c
ge p
Ġad vection
ĠZ FC
M AT
o ccur
ĠW itt
Li kewise
; -
B in
F our
P n
Ġpas sive
h fil
q d
Ġhom otop
inv olution
Qua si
Sim on
Ġ }}}
k ap
Ġc ry
Ġdele ted
ampl itude
A verage
] )=\
lo zenge
mu tation
Ġ\b p
)| >
F ull
ge red
ĠB ochner
B ro
^{ '}
Ġre versal
unda ment
Ġsemi direct
Ġpara bola
Ġ= {\
ab cd
con clude
ĠD i
Ġen lar
): }
thick ness
Ġtre ating
ti ties
ĠG F
l q
Ġapparent ly
anten na
-\ |
\mathbb m
Ġnatur ality
ĠOptim ization
oot s
Max well
\ es
Ġde lays
A U
Ġ\ ce
Ġg rants
Ġd k
ck et
Ġprojector s
Ġle ak
Ġphi loso
Y N
}[ {
ĠPar tial
Ġrecogn ize
t unately
d Y
s I
Ġ6 8
Ġindex es
fam ilies
Ġenjo y
ĠDav id
H b
^{ ''
co erc
Or th
Ġfunctorial ity
^ (
a round
12 9
Ġ\l q
I mage
E e
ol is
control led
State ment
et z
ĠL eray
quotedbl left
}} },\
page break
Cal cu
Ġelastic ity
contradic tion
B ott
\ GG
iet oris
B X
vec x
19 76
Ġcombin es
end er
. ).
Z e
Ġclo pen
Ġ\math it
be comes
ag ed
Ġpla in
commu ting
Ġexamin ed
h w
\g t
lineno math
L ore
Ġ( `
mu ltic
Ġma gne
Ġreal izable
Ġdiscreti zations
langua ge
oper ation
Ġappe al
)^{ *}
)}\ |_{
Ġ\h ref
x g
Ġdef er
P AR
b ited
| }.
ref erence
|\ {
Ġflu ids
ĠSm ith
\c a
mo tion
Ġdiscus ses
b ou
z f
Ġper for
}| }\
b sigma
Ġc ri
Ġvio lation
eff ect
ri m
ander monde
Ġde ck
_{- }\
Ã ¨
As so
Den oting
+ )
\ diag
in equalities
ma ster
Ġ tedious
ĠP ainlev
Ġsur rogate
Ġhistor ical
,\,\ ,\
ĠâĪ Ĵ
] }^
Ġ+ +(-
M inkowski
}{* }{$
U Y
Ġ\l ie
ĠT an
Ġsugges ting
Ġ entering
@ \
Ġin cur
35 0
ĠStein er
N t
ap ri
&&&& &&&&
ro ll
Ġcorrect ness
compati bility
Ġ ~~~~
ĠI R
us a
ĠM od
gra nd
normal ization
Ġmark ing
s sed
ĠC hannel
Ġstabil izes
f erm
Ġn p
ĠM ellin
Ġselect s
S pa
x n
il led
am ong
Ġnormal ised
Ġoscil lators
pre ad
Ġpercen tage
& \,
/ }
Ġconjuga ted
Res ult
te ta
Ġhe ights
Ġste ms
ĠApp lications
15 2
ir rep
}^{ |\
ĠÎ ²
Ġ\se arrow
^{ S}
Ġminim ally
}_+ ^
Ġreach ing
X Z
Ġk er
holon omic
W P
d rop
y an
. |
t S
pro babil
}] )
ough t
ĠRun ge
\ qq
he lp
Ġne gation
( )
T otal
Ġz er
gener ate
ĠInt uitively
â Ĩ
dis sipa
Or b
eta ils
bf X
I Q
L AT
ut ta
* }$
z k
Ġorder ings
be it
ĠPlan cherel
se v
fa ithful
Ġevol ve
Ġ2 56
17 6
Ġ\f a
Ġsuper algebras
iso lated
2 75
b lambda
inz burg
Ġ\ %
en su
}} )^{\
}_ +\
equi pped
> )"
cal I
\c hapter
^* .
we b
ac cessible
l gebra
)}) }
the ight
to f
Ġnec k
^{* }$-
Ġreson ances
Ġimplement ing
| }$.
}^{ [\
'' )\
hd an
ĠState ment
0 30
$\ ,.
}}{ |\
\re als
Ġtw in
ĠâĪ §
Ġran ging
subset neq
N otations
un tz
and rov
Ġspecial ize
pri v
\par s
E K
Ġ\ XX
ĠB og
\small setminus
j r
re ws
re turn
Ġmaxim ized
{-- >}[
Ġra re
abs or
similar ly
ĠEx plicitly
Ġpost u
ichards on
N V
Ġ$ };
)$ }}
umer al
Ġconfir ms
ĠComp aring
Ġs outh
Ġde eper
ist ration
ĠGeneral ized
Ġ _m
ha racter
ĠR ota
Ġcont ents
Ġste psize
Ġsie ve
J X
le f
ra tes
Ġpric ing
Ġinser ted
commuta tor
)) }.
Ġ\Big gr
\ asymp
Ġ\ =
ĠJ apan
) '\
M Z
factor ial
ll ig
Ġmy self
Ġtransmit ters
r me
Ġ\ ten
on struction
Ġneighb ourhoods
L K
an onical
ter al
ak ayama
ĠCan ada
K ato
}^* _{
singular ity
altern ating
se lection
ĠG ar
ĠĠĠĠĠĠĠĠĠĠĠĠĠĠĠĠ Ċ
ĠEx ercise
Ġdeli very
^* ),
Ġ_{ {\
wa ra
Ġmanipu lations
)} [\
Ġuni taries
Ġpat ches
C hi
recur sive
les co
Ġy s
coun ted
coordinate system
P p
as m
ound ary
Ġsub optimal
Ġmathematic ians
B ell
Ġis os
as z
ĠHa ving
P Y
d T
ref l
Ġsh uffle
Ġfactor isation
=- (
ĠPa rameter
ĠDIS CH
. );
Ġw arp
ĠMate m
c and
wide bar
tis ation
matro id
g trsim
mo p
}- $
Ġconver ted
ĠK az
ĠLDP C
MA P
qqqq ff
N i
R r
Ġlimi tation
3 45
Ġs yzy
ig er
eter mine
po pu
Ġreal izes
\ar c
Ġredund ancy
R ABLE
\v s
ra ft
Ġn c
- }\
H h
ta ut
it or
{ }}
Ġs ym
_{( -\
$\ +
)}{ =}
Ġpic tures
bru ch
H B
b ld
Ġco boundary
val s
ey er
ĠI den
ĠS R
and s
ĠTo da
Mo tivated
b imodules
ves tiga
22 4
van s
bf w
19 75
lari ties
Ġdesign ing
ĠSu per
gebro id
ĠT x
ka wa
rn old
Tho mas
cal V
Ġ\c Q
ĠP I
Ġ$ ;
Ġ\s F
ynchron ous
^* )^{-
Ġ$[ (
hom otopic
flush left
glu ing
)}) ;
I FF
cus pidal
Ġasser t
Ġcircu lant
bran e
V C
a mpling
W Z
Lat tice
circu it
fra med
Ġnonlinear ities
Comp act
ila teral
on trol
Ġga ther
In serting
pe ed
Ġ\m cal
Ġoperation al
ĠAcade my
D s
ĠA BC
un stable
ow itz
ĉĉ ĠĠĠ
Ġade quate
ar get
\h fil
Ġsuper symmetry
md default
de ll
ĠP hase
Ġ6 7
go es
` ,
Ġ\ ext
ĠF ren
ĠE v
ĠPro ving
OR D
ĠH er
ĠCal culus
Ġpers istent
ĠF eller
Ġcent red
)\ |^{
Ġalgebro ids
ad ditional
}\! \!
Ġg r
pre liminaries
trivial ly
aa aa
)\; .
Ġnega tively
s ho
\c ol
^* [
Ġtri m
Ġconstel lation
v tx
Ï Ģ
BS DE
Ġ$ _
ph en
ĠDefin itions
D d
on vex
bi jection
ccur lyeq
Ġsus cep
^{ P}
/ --
ref lexive
Ġstra nd
d an
ĠA uslander
)) :
Ġpres heaves
\al low
Ġscore s
Ġ ]{
Sch r
' \}
im mediate
ĠG ross
Ġbra ids
estima tor
\ tt
ch osen
)}) ^{
Ġdele te
phy sics
Ġadjo ints
) )$-
ss en
Ġrepe tition
satisf ied
serv ative
Ġ- /
member ship
dri ft
Ġdise ase
. }\\
X b
] <\
be en
es is
ho mogeneity
Ġpreser vation
Ġcol location
bell ist
Sem i
ro oted
for ts
Ġcomp ares
\t p
Ġ\ bo
Th ird
Ġro uting
_+ +
Ġhomo clinic
K V
similar ity
Ġ %
| &\
dis tortion
Ġ6 6
B SET
Q M
R U
Ġrun time
Ġfol iated
u q
Ġ$$ |
termin al
Mar tin
sf d
Ġfruit ful
S ymbol
ĠP C
G I
m Q
Ġphy sic
ĠS an
Ġpara dox
to o
Ġcur l
Ġ\C O
B J
d one
bf k
pre cisely
Ġmanage ment
S Z
Ġper man
0 40
S tochastic
mon oidal
F lo
k q
qu otients
ĠD M
Ġla x
\l or
Ġsemi linear
\t n
A rea
s par
\l s
Ġnice ly
Ġvor tices
quotedbl right
Ġro d
Ġ" (\<
Ġcoerc ive
t N
=\ |\
Ġany where
ĠPro blems
et c
con tr
Ġsubs ystems
Ġsatisf actory
dap tive
$ },\\
: {
ĠS eries
te en
}) <\
ĠE ng
Ġadj usted
Ġsto ps
ima g
Ġtarget s
. )--
Ġ\ esp
ol ing
)) <
ad van
Ġ\b T
\S p
re mum
tra jector
t bl
E mp
f ying
s so
ch in
ĠF P
Ġste ep
Ġpermu ting
Ġund efined
B ER
Ġ& \,
Ġma r
Ġob jectives
16 2
ĉĉĉĉ ĉĊ
Ġmer ge
B asis
Ġpa ired
Ġham iltonian
7 32
}}_{ {\
up default
_* ,\
Uni queness
Ġtetra hedra
r q
| {
Ġco pu
pi ro
IST S
\ tiny
ĠM A
thes es
ĠĠĠĠĠĠĠĠĠĠĠĠĠĠĠĠĠĠĠĠĠĠĠĠĠĠĠĠĠĠĠĠ Ġ
B la
)} }$.
Ġhomogen ization
)}) =\
&= (\
Ġ6 1
'' +
}] {\
Ad ding
\bb Z
D ash
g las
20 8
\ thispagestyle
on oid
app ropri
Ġ_{ 3}
> {\
f D
Ġn s
Den sity
E nt
S impl
h in
Ġobser ves
Sta ndard
A rg
ĠC om
cr v
eff ding
Ġstabil izers
N W
g ating
me chan
Ġde form
mber t
ĠJ o
Ġ\bb E
w c
is ot
Ġsent ences
d N
We i
Ġdis car
ĠE d
Go od
' }_{\
O s
u pa
su ma
^+ )\
Ġtranspor tation
illem ot
Ġderiv es
C all
}) ^{(
Ġsub problem
pher ically
flu id
ref erences
ere ntial
)] (
Ġ* \
triangle left
Ġcapa cities
Ġ1 50
ĠB rown
ĠB ianchi
Ġcounter clockwise
auti ful
\ pt
ha i
it ched
ib erg
)), $$
Ġarith me
X B
recur sion
Ġsyste matically
de mic
Ġad ditivity
Ġpla u
Ġindex ing
oper ad
ĠElect rical
adj ust
_+ ^\
Ġ\be a
ĠIt aly
Res tric
IS C
o ise
ms p
Ġsto chastically
Ġsubstitu tions
ĠA mer
co p
pe x
Ġr s
]$ }
gu illemot
}) [
14 1
sch ke
is otropy
de formed
ze bruch
Ġ\bb P
] }=\
mark ov
Is om
Ġboo lean
)^{- (
D irect
o j
Ġinfe asible
H t
L s
.\ <
stack s
Ġ\bb N
ĠDiffere nt
& /
{ }^{\
Ġn erve
Mo ore
ent y
Ġsu perp
23 6
in side
ĠP l
reg man
st on
ri a
Ġpara dig
Per formance
cal a
ĠR H
qu ar
ĠT hose
ĠH ol
od ym
man i
Ġsummari zes
di al
um in
bf m
Ġ< -
Ġaddress es
~~~~~~~~ ~~~~~~~~
e pi
}{ }\
ĠT a
Ġ\s ign
Ġjus tifies
Ġb or
cal ed
am enable
ĠS pringer
ĠK ing
Ġrank ing
Ġin distingu
et urn
var Gamma
H en
N G
pp i
pro ject
Ġmo bility
Ġâ Ĭ
Ġdisper sive
Ġ20 20
ild rel
3 25
\ succeq
}). \\
Con s
Ġ7 6
f ound
Ġ\b U
Ġ\D iv
Ġt alking
ĠS imple
Re lative
ĠT er
ĠG W
)--( .
Ġdis order
20 2
ht p
Be ltrami
re verse
Ġre achable
)_{ |
^{* ,
}\; .
Ġ\b ot
b us
allow s
$ ]{\
Ġma sk
interpre tation
Ġ& <
Ġanalys es
m N
q m
ĠS ign
Ġv ac
Ġ\big skip
vi o
Ġmon ograph
frame work
Ġaccompl ished
k ine
Ġ\ zero
Ġ} -\
Ġrecover ing
e asi
pres sure
ĠLat in
l w
ĠM al
ven ue
I w
r us
te lli
Ġ4 00
integral s
ĠK hovanov
'' ,\
&=& -\
domin ant
Ġtour na
Ġavo ided
ĠL an
Ġdimension less
inde pendence
\make at
ĠObser vation
17 4
ĠLi ke
d oteq
den sed
ro mann
Ġco final
Ġ1 95
Ġex otic
Ġs b
}} ^*
ĠA bel
ow ers
Ġcomplex ification
Ġ\def ine
E cal
ĠP U
angle d
re view
Ġin fra
ĠO R
\ps set
Algebra ic
iod ic
Ġinv oking
Ġcon fined
op man
^- ,\
& {
S cha
Ġm es
stra ints
u bar
Ġinter n
Ġconv olutional
Ġ )}{
` ;
up shape
In n
15 4
duc ation
Ġfiber wise
d C
)} :=
Ġle g
Ġlogarith ms
Ġspre ading
Uh lenbeck
en viron
{\ #
Ġpri ors
Ġadvers ary
L ength
s se
Ġtrans versally
/ -
Ġ8 4
Ġapplic ability
Ġhomogen ous
O cal
U LE
The ir
Ġsuc ceed
J a
ĠW ick
Ġ\e v
Ġw ins
un ch
{- >>}[
pro ving
ĠK ato
Ġ\C c
L ef
p date
Ġcoproduct s
Ġ( =
qua nt
ĠVer ma
B rownian
K w
\c V
irc ase
Ġ\ @
orn ia
f ety
qu iver
Ġ" '
sto kes
general ization
P os
ĠĠĠĠĠĠĠĠĠĠĠĠĠĠĠĠĠĠĠĠĠĠĠĠĠĠĠĠĠĠĠĠ ĠĠĠ
lower bound
lap sed
\xymatrix@ C
& ~
Ġ\ ran
Ġp q
,\ |
16 9
\tikz style
xt ension
o mb
ta ylor
Ġcon j
14 8
24 3
gm ented
Ġequic ontinuous
ĠF undamental
]{ {\
14 9
\v c
Ġ\l s
}^* )
ĠScha uder
Ġ\in put
Ġdis covery
Ġ )+
H Z
in ese
su ff
Ġi e
if ornia
Ġtrac ial
\var sigma
ĠInt ro
L ARGE
S table
s j
Ġs can
Ġd q
)] \\
Ġ *}
mpl ies
{( }\
}^{* }$
ĠSeg al
)*{ };
\end picture
Ġ{ #
^+ =
ĉ ĠĠĠĠĉ
H igher
ĠOF DM
}$ }.
Ġbe ams
CS I
{ ^{(}->}[
ma tik
Ġac cept
}}, {\
pand after
}\! \!\!
character s
ond on
Ġmembers hip
R f
W ork
z ard
Ġ\ lemref
Ġs imi
}} )_{
Ġdis place
Ġef forts
s heaves
ĠS itter
\paragraph *
G ray
l isting
^{* }}
\pa re
I X
b tau
Ġsub linear
Ġjo ins
semb le
comp an
H igh
Ġexcur sion
C J
V M
e finition
l h
Ġ\ ho
Ġ ~$
> _{
B all
Ġb alancing
Ġ&:= &
Ref erences
Ġeavesdro pper
Ġ\ linebreak
^{- {
Ġser ved
)} |^
comp ac
)| +
Ġspec ifies
Ġdual izing
T race
Ġsub domain
)) |\
Ġra inbow
Ġ\i math
B eta
Ġmeri dian
}) :=
19 73
ĠN N
preser ves
N m
'' -
Ġspecial ized
Ġinf lation
Ġpull ing
font size
Ġcomp ose
ex pl
C lique
f H
co ord
&& -\
author block
\ =
ĠR ing
gra de
Ġsee ing
= +\
g li
Ġc rystals
impro ved
Ġ\ rightharpoonup
Ġun ary
ĠRe placing
)}. \]
quanti zation
! )^
B ernoulli
Ġu nt
Ġ\d r
Ġevolution ary
Up date
u z
}} }\\
\b ottomrule
name d
Ġ7 3
no tice
Estima tes
sta n
bb F
\define color
w ski
Ġs tick
}= {
Ġpredic tor
Ġprac tically
C p
S ph
ri k
Ġh at
Ġ$\{ (\
22 8
66 66
compu table
H ir
an tic
array colsep
Ġreal izing
Ġsp ot
asymptotic s
Ġi j
ĠL R
~\ (\
\S i
inde p
Ġinver tibility
m W
Bes sel
2 18
}| ^{\
Ġcer tific
ĠPon tryagin
' /\
Ġc d
L ater
T K
l times
}) }^{
Ġle ts
regulari zed
Ġs gn
Ġb a
of unctor
vanish es
N irenberg
\ oo
Ġu lt
Ġper verse
Set s
Li ke
Ġcooper ation
Ġalloc ated
colour ing
< .
S truct
m Z
or r
Ġlo oseness
Ġre duc
: }}
Ġschedu le
\ wr
h orn
Ġ\ wr
ĠS pa
}^ -(
ov a
M p
u mb
\footnote text
e asure
is or
Con st
ni er
domin ated
)}, {
}}. \]
ĠSTR IP
M ic
O l
Ġper mits
16 6
Decomp osition
bol oid
Ġspeed s
Ġaggre gate
M AC
^{ <
ĠC LT
ĠD er
ange vin
/ $
ĠI S
p ull
OP T
' :=\
Ã Ń
var projlim
Ġen large
\be e
ĠAb stract
ĠS che
ĠK ar
pend ently
Ġmon th
Le gend
Ġexpla ining
t U
Ġpro b
Ġ> >
gu yen
Ġdistinguish ing
Ġpi one
A Q
x d
}) }$,
rough t
Ġbu mp
) _*\
/ |\
en z
}{ }_{
il t
pres ented
Ġ: \,
ĠCon nes
Ex plicit
Ġcent ury
cccc ccc
ĠAcknow ledgements
Ġdatab ase
lo se
Ġ\t race
Ġbo ol
Ġfore sts
}[ ][
H n
Ġfa iled
g gl
ĠY ork
coun tably
}:= (
\ sharp
{\ {\
mp son
Ġte am
Ġ$\ <
,\ :
ĠM ach
Ġtemp er
ĠNumber s
interest ing
riff ith
\ To
Ġso cle
15 9
An osov
pun cture
ro y
ĠC V
mat ched
Ġ.. .\
provide s
M al
W b
inter ference
ĠRe lation
Ġvis its
Ġ\U U
n T
15 3
ull ivan
Ġ\n c
angle s
Ġcorre cted
sur j
pgf lineto
Ġminu tes
Con cluding
A ction
S al
bf i
Ġ\b rac
amb igu
B rown
F an
Ġle gi
Ġst ory
\c i
CO MP
Ġsubt rees
ara th
cons equence
Ġflo ating
\ ub
ĠP CA
Ġcorresponding ly
ma ta
Ġhis to
A ux
ĠC hap
ĠM er
in ality
Ġf rozen
}{ *{
ĠE P
sk ian
Ġrear ranging
Ġger be
)^{ (\
^{*} _{\
{ <
Ex ercise
Ġquatern ions
g S
s lic
ig raph
ĠP eter
Ġent ropies
Ġfol ding
Ġmanif est
re ier
\set coordinatesystem
Ġpro j
ĠN OT
b atch
ĠT R
Ġ\c J
ynam ical
Ġfacili tate
C f
k T
2 90
S che
}} })
Ġ" ?
os co
\< ^
Ġtermin ate
? ?
Ġn ilpot
ll ers
vare ps
})\ |_{
_+ )\
ces sive
K l
S ob
ĠC D
Ġper mit
Ġannihi lated
Z ygmund
ĠE ither
Ġ\n on
$$\ |\
Ġconvers ations
O k
am ing
Ġdia gon
arrow right
categor ical
Ġsumma r
L H
j ourn
}} :=\
^- )$
com odule
Ġinver ting
Ġf u
ĠH S
}] _{\
Ġpick ed
il st
Ġ\B Z
repres en
wi kipedia
Ġ\b c
,- )$
arrow s
}^{+ }$
\ vep
Ġ\ is
In stitute
.~ (
Ġ ^{n}
d os
par s
* $
h z
un bounded
Me asure
Ġchamber s
Ġdiffu sive
ĠSc ott
Ġtrans parent
\v x
R iesz
+ $
B Y
F O
en space
Con ne
Ġdivis ibility
hu ge
f st
la h
pa red
comp uting
Ġpredic table
ĠUn iform
\ +
ĠA iry
Ġgra d
Ġstraightforward ly
\ el
m q
Ġf as
app lying
Co hen
bs x
Ġ7 4
Ġcontrol lable
order s
or ry
Ġde coupled
ĠA ns
Ġinitial ized
gm entation
T G
Ġs q
ĠT est
Ġro ad
bb z
Ġ\R es
\E N
Mathe matics
g q
| }^{
ĠH is
Ġte ach
})$ :
Ġzer oth
ir ically
mid rule
Ġ\hyper ref
P t
\ kk
Ġ\c f
Ġ\b F
Ġcontain ment
is tically
Ġsp ine
Ġ\p ref
\ sk
]$ )
smooth ness
ĠSta ndard
en c
ĠB asic
bur n
Ġ _p
\S pec
ĠMe thods
on est
Ġpro min
22 3
diamond suit
Ġunlike ly
) *\
B t
b rk
ĠK rull
ext ends
Ġ\t l
tis tically
ĠP i
pres entations
Ġ6 9
rule fill
Ġdiver ge
Ġ\vspace *
Ġaffin oid
de ter
Ġpo se
$- {\
Ġlog ics
ec tively
)}( {\
Ġ9 4
Remark s
u cc
x o
Ġb orn
}} ^{(\
}^{ (-
Me thod
Ġle gs
)) <\
}\, (\
Ġacc om
Ġpref erence
Ġseman tic
Ġoc ta
Ġ ^1
k is
ĠC ap
par ity
ide mp
]= [\
& :=\
Ġbe autiful
); ;
Ġtra velling
divis ors
Ġsp ring
Ġincreasing ly
Ġ\cal M
\ Proof
tri p
ne th
sc ha
out side
ish es
\cite p
sk et
Ã ¼
on ce
Ġ- {
ĠFig s
Dis c
\k wd
K ernel
d Q
h H
Ġ} &
Ġproposition al
={ [
om orph
pe ak
Ġ| _
Ġpartic ip
Ġdec entralized
$\, ,
Ġpolym er
' ))\
{ }^\
ĠB G
20 4
], $$
Ġ\ tanh
Ġal ter
T ak
Ġin nov
ĠT OP
_- ,\
Ġoff spring
ayes ian
ĠMAT LAB
Ġcollaps es
Ġb rid
^* |
ev ol
Ġreveal ed
Ġ\ dual
Ġw heel
Ġcomp ress
Ġ\ space
Ġat ten
Pa ir
P m
(- (
Ġ$\{ -
N U
Ġun ic
Ġ9 8
DB LP
ĠPro ject
Mo ser
o M
t ld
y ang
et ing
De g
Ġsub differential
ag o
mc a
)= |\
bf z
nti able
Ġiter ating
}) }_{
tic a
=- .
Ġ\ee a
Ġrespon ses
usu ally
logarith mic
Ġess ence
\ ox
ĠK irch
_+ }$
Ġdele tion
Ġ\ ed
Ġsa nd
Ġpla nt
ma te
^{ ^{\
Sm ale
ĠTop ology
, ''
ĠCat alan
F ock
Ġver tically
] }_{\
Ġ20 17
Ġdefinite ly
r N
} "]
\b X
23 3
ga tes
App roximation
E B
over leftarrow
'' '(
19 7
Ġ\M at
a A
s pt
de tails
ĠK KT
}) )^
Ġinfinite sim
ĠRa demacher
Ġbary center
Ġsimi larities
Ġ ic
ti ef
ĠF okker
Ġk n
we g
LL L
\t wo
' ^{\
b gamma
Ġc hi
pher al
sui table
E r
\ su
ta ting
sing ularities
fi ers
recur rence
ch r
Ġ\Re f
Ġprior ity
beha ved
ĠB run
_+ -
Ġelliptic ity
Ġcrystal line
Ġmolecu le
t B
| [
Ġcomple tions
vi i
F EM
Ġ\ pro
man ces
Ġdepic ts
Ġ _x
ĠS al
ĠF und
ĠD S
\b c
Ġsplitting s
Ġal le
\L ongleftrightarrow
arse val
ĠForm ally
Ġnew ly
\S ym
a R
Ġc ast
ĠA dams
D Z
Ġin exact
Ġ~ =~
Ġholon omic
Ġcon ta
ĠB ox
^*} {\
ce v
Ġsu ited
24 8
c mp
Ġf oot
ha bility
sta tistical
ĠD an
Ġsp line
ĠC amp
ob ayashi
triangle down
Ġden ois
23 7
Ġ8 5
)}\ }_{
ĠSt one
actor ization
ertur b
C enter
tr ong
Ver tex
c li
Ġto ld
ĠTh ough
\ex pandafter
ssential ly
P cal
ĠL earning
and el
Ġtrans mits
Ġpair ings
âĢ İ
Ob j
10 24
^+ }$
Ġpla sma
eval uation
m ote
y tableau
par ta
19 74
ij en
ĠAl gorithms
)& (
A J
z g
Ġ\ ub
\e ad
Ġ\cal D
D J
K k
redu nd
)}) ^{-
sol ving
Ġpor ous
D n
Ġdynam ically
Ġ\cal O
ĠOptim al
un its
mpl icit
\d ynkin
Ġ\v t
S v
si mulation
Ġocc asion
ordin ated
Ġbas in
strate gy
ĠD ecomposition
dim en
ĠStr ong
mathe matical
N c
v ision
ĠM N
c art
4 75
K ar
S l
re write
The ory
ĠM cK
pl x
cc l
Ġsuper solution
Ġtransmit ting
ĠWh ittaker
Ġpo si
ĠChe eger
L n
}} )(
ular ity
inter action
\E Q
establ ished
ĠB is
Ġhydro dynamic
M f
M er
Ġ- |
Ġb rought
Ġl ives
romann umeral
p ounds
ĠK im
ĠV o
24 6
Ġsemic ontinuity
Ġ\ps line
Ġ\ ta
bf r
Ġany way
non trivial
Ġsem iring
Ġ eqn
Ġo ct
ce ption
ĠMa ximum
MM A
equival ences
K an
or a
mu n
ĠP ath
^* )}
., ~\
\s lash
Ġprox imity
yra mid
ome o
Ġgeneral ise
\l q
Ġoper ate
Ġdou bt
Ġantipo dal
A Z
M H
M bar
26 5
process es
Ġdro pping
}, (\
d cases
sub subsec
_{+ +
g iving
Ġtransform ing
smooth ing
uris ub
@ .
}$ &$
cal ar
Ġhe mis
modu lus
perim ental
Ġindivi dually
h ermitian
i ft
Pro positions
ĠCal ifornia
Eu Script
q l
ĠM PC
}}\ |_{
integra bility
altern ative
r A
24 7
30 7
\ nd
}$ --
Ġ\text width
ĠRe l
diffe omorphism
20 7
ĠJ ack
G re
ĠO N
ĠEx istence
ĠCor ollaries
Defin ing
ĠM U
)- $
Ġrec ast
C irc
H er
S en
h ot
Ġhyper k
Ġnoise less
D O
M ult
var Phi
Ġdisturb ance
Ġthor ough
T echn
Ġoscil lating
Ġstri ps
transp ort
h ull
ar range
Ġd ichotomy
ĠR ate
ic ated
)}} ^
ucl id
Ġrespon sible
Ġsci entific
I de
x k
Ã ¡
ta rea
\c U
ĠDo F
G reek
b ulk
}} |^
bf A
sul t
Ġ| (\
sk a
summa ry
ĠAW GN
^{ >
ĠB F
inter mediate
Ġun correlated
ĠK ontsevich
Ġ\ker n
Ġexis tential
Ġbec ame
Ġ\s pec
17 7
Ġ$ &
Ġ$ ]
is ible
ef s
Ġpermu tes
ialgebra ic
17 8
H amilton
] ]$.
I K
nd on
_\ <
du st
ĠF rank
})= (\
Ġresi duals
ic an
ĠX REAL
Ġoff line
\ dual
n N
Ġd X
Ġg y
ĠA MS
ier i
B al
C i
I llustration
ĠM O
Ġhe ld
Ġlook ed
ilb er
\med break
ha mel
ah l
sol iton
Cal Q
ĠOr licz
' ^\
B og
c j
\b i
Cla ssification
Ġresol ving
}} }=
Ġcomp ara
19 8
Ġ\t f
O g
Ġimp ulse
unique ly
Ġheuristic s
R ie
ĠA ND
}_ +(
are r
\par box
Res earch
ro j
}{ -\
Ġ\r To
Ġexperiment ally
Ġpopu lations
Ġarchite ctures
Ġdiagon ally
}} /\
Ġlo ck
Cr it
ĠLast ly
s de
}} :\
ĠA v
Ġconver sion
ĠB lack
Ġsub word
ess age
)|\ \
BV P
Ġdro ps
Man in
et ween
line thickness
DF OR
ĠTho mas
Ġrenew al
Ġc it
se ctor
)\ :
Ġbi holomorphic
Ġexci tations
ĠS pecial
as k
mi le
plo tarea
>*{ };
r R
Ġu mb
Ġcap ital
Ġpeak s
T O
incip al
Ġrea ctions
local ized
.... ....
ĠAn n
D U
K utta
ok a
label led
intro duce
Ġcuri ous
Ġs pon
)}\ ;
Ġclassif ier
Ġ\Re p
ici ency
ĠP S
pres sion
Ġla te
Ġdecomp osing
\ ip
Ġd ila
\b H
Ġclassical ly
D ouble
E ps
f P
ent ries
Ġen gine
Ġintegra tor
Ġ\f p
ĠApp roximation
0 45
i A
Ġex its
de cess
Ġun necessary
lear page
V W
)=\ \
ĠO pen
18 4
\re lax
According ly
Ġretri eval
Ġ\sec ref
Ġvic inity
N H
\ der
23 2
rg od
ĠC E
ec ess
\ee e
F ar
J Y
ra in
si e
sto ch
Ġthree folds
}' )$
Ġ ðĿ
k Q
^{ }_{
}_{ [\
pothes es
âŁ© ,
fib re
Ġantipo de
K al
m ise
Ġcu mulants
Ġ\re newcommand
Wh itney
Ġp al
ent o
}= (-
sen sitive
Ġdiffusion s
C ode
ĠF I
Ġsub gradient
iter ature
\set plotarea
\ thick
Ġ$( [
\b lack
Ġcollaps ing
Ġf idelity
di o
Ġhighl ighted
ĉ ĠĠĠĠ
C hannel
Ġimp erfect
repres entable
ĠBur gers
inforce ment
N ull
ĠF uk
var s
over brace
Un like
Ġbro ader
Ġstiff ness
] \}
w inger
Ġw ra
exp lo
r F
Ġ\ cellcolor
Ġ\c ov
neighb ourhood
\c enter
L yapunov
c um
g uarante
Ġ[- >,
ĠSeg re
Ġare n
ul is
Ġtra pez
_{- }$
^{*} _
ig id
}) }{(
mo ves
yn olds
)}) (
ĠNewton ian
T emp
e ad
Ġg ate
}^ -$
Ġinver ted
amb ridge
L y
Ġf riend
he art
Ġe man
ir m
ĠC L
pow ers
3 10
Ġa diabatic
}) &\
Ġ~ |~
Ġas set
)) },
Ġinequ ivalent
V D
Ġs k
Ġ20 15
sur vey
f usion
Ġ\in te
V i
X n
\ restriction
lo ading
Ġar chimedean
l ds
ĠB ere
ex c
Ġmo tive
30 5
trans mission
Ġlegi timate
' ]\
' )]
\ KK
er tion
}^{ +}
its hape
Ġs pherically
ĠA dv
Ġbar s
ĉĉĉĉĉĉĉĉ ĉĉĉĉĉĉĉĉ
B el
F g
\ bo
f L
22 6
~~ ~\
Ġnegle cted
in tr
Ġs weep
19 72
ĠMar k
ht ml
Ġround ing
a N
Ġre le
ĠI wasawa
^* )=\
Ġsur pr
Ġinves t
Ber nstein
ĠM it
ĠK ra
]( .
ĠĠĠĠĠĠĠĠĠĠĠĠĠĠĠĠĠĠĠĠĠĠĠĠĠĠĠĠĠĠĠĠ ĠĠ
ĠInte restingly
rie mann
ĠRob in
Ġensu red
m irror
Ġ\ sk
Ġ[ :
cu toff
Int uitively
}{ _
ĠI tem
'' }\
Ġeasi est
Ġval ence
Continu ous
16 4
lect ric
trac table
de si
ĠM odels
ie u
ĠDis crete
G ro
b inomial
| )}
Ġu nex
ĠD espite
:= [
Ġ\p inlabel
- '
F x
}} _{(
Ġwork ers
condition ally
au ff
Ġ\C M
ĠWhite head
L ink
\ mbf
po i
\, .
Con ditions
Ġsuper critical
}^+ _
tief el
ar cs
)$ },
res er
)| |\
}^+ $,
Ġign oring
T ru
\begin picture
un t
fin iteness
\b S
Ġ9 1
ĠRes tric
ri zing
Ġ\h h
d dagger
f al
Ġplau sible
S ymmetric
s st
ee e
gen ta
b rown
\h h
Ġconflic t
Ġperfor mances
P l
ot ts
ĠExt ension
) [-
A y
t mp
Ġequ ilateral
Ġfa ult
Ġstabil izing
E CT
at ta
Ġcon d
Ġex cited
}] ^{
ĠV e
Ġstri king
ĠPer haps
OIUY OIU
Ġ )-
C ell
fol ded
Ġparadig m
S ketch
V u
ce ived
ch on
}) }=
ger m
ura moto
del bar
Ġempha sis
Â °
Ġto y
Ġ\s mash
Ġconf using
D espite
pro ps
ist ory
v irtual
Ġcon n
rho bar
Ġrela ys
Ġga ussian
ĠCha racter
Ġbos on
Ġ\add plot
' }-
C x
}}$ )
Ġ7 1
App roxima
Ġround ed
< *
te cted
ĠI P
fe asible
L t
w hether
im mer
Le vi
Ġ= =
' }+
E m
x bf
ma gn
Ġb ins
') "
99 8
Ġs orted
Ġ= $
_+ =
Ġfound ation
per i
gen e
rad ical
Ġs hed
Ġb ord
ps line
trans verse
I tem
ĠB ose
sta tistics
Ġqua ndle
18 7
tra in
imp lying
Def n
Ġbott leneck
N at
{ }_{\
ĠP layer
ĠG Hz
infinite ly
on en
99 7
Ġ9 3
Ġconstitu ent
ma king
Ġb lob
ĠS cho
:\ :
Ġarri ves
}\! \!\
Ġautoma ta
Ġindistingu ishable
H or
Ġf resh
}} ,$
15 8
Ġdivisor ial
Ġannihi lator
y pes
^{ D}
Ġto u
Ġex changing
\ IN
Ġspace d
)] ^{\
)| }{\
Ġtu bes
F ixed
r G
), ...,
ĠâĪ Ģ
tang ential
logarith m
al gorithms
Ġco res
A h
w icz
Ġexponential s
urisub harmonic
( .,
a ver
19 9
Ġimpro per
KK T
B is
B ir
h erm
i id
Ġ\c frac
ĠH ahn
Ġsa fety
hom omorphisms
Ġoff set
ĠA g
ĠCh ar
Ġfla vor
expon ent
H ardy
] ^{(
ĠC I
)}\ }$
ste ady
\eq def
Ġ\ar r
)\, =\,
de mo
Ġelimin ating
vo ir
row ing
Ġk m
pl ines
Ġframework s
Ġ\b W
Ġadap ting
la place
)^ -
Ġwould n
contrac tible
f on
ent ric
ĠD ou
trac king
Ġva gue
25 2
ass isted
Ġpseudo convex
Ġprojec tively
it ted
}) {\
ad dition
Ġpla t
ans atz
ĠMat lab
rigid ity
Ġp si
Ġ\e g
Ġcomm ensu
J u
or ov
mb ar
ĠC entral
real ization
po sterior
upa tion
$ )$
V an
sign ed
Ġval idate
Le ib
temp erature
Ġcircums tances
" ']
s equential
Ġe ta
pla cian
OR M
K E
L f
] ]\
~\ \
symbol s
' }^\
), {\
^{+ +
ĠBS DE
PE AT
resol vent
K re
T OP
ĠU K
Ġ$ {(
Ġde duces
ĠD r
x bar
ec lare
Ġ9 7
zi one
ĠMechan ics
$ )]
s addle
Ġf g
ĠW itten
Ġ\ isom
is ers
ĠJ ohnson
Ġexpon enti
b olds
ĠM umford
ĠMean while
Ġrec tifiable
non negative
Ġtensor ing
Ġresemb les
Ġu rn
forma tive
Ġ\s C
Ġlexic ograph
Ġadvers arial
lst listing
\ pl
_ (
ĠS tu
ĠG S
Ġnon positive
&& -
On ly
/ ~
Ġ$ <\
Ġw reath
Ġb id
Ġto day
ĠD R
Ġsp iral
Ġ\bb C
ha ust
ĠT D
)| =|
Ġsubstitu ted
n B
Ġ\ For
Q AM
)] ^{-
cat en
Ġtemp or
Ġ\q bezier
w ater
en chel
}\ ;\;\
Ġl n
ĠMulti plying
se veral
ch art
^{* }$.
ĠI H
if ford
ie f
)+ (-
Ġregar ds
' }^{(
R ho
)$. )
Rec ur
V B
b J
Ġ1 44
Ġdefin iteness
Ġ\C A
Ġ\e a
Ġmi tiga
ĠA N
\c learpage
Ġorb ifolds
! !
C losed
bb H
ĠEx p
Wi ener
x r
Ġ\ protect
cal g
\be s
ia vin
Ġ\ oo
Ġe l
ĠD yck
{$ (\
Ġ\footnote size
Ġsatell ite
R ay
ra ded
Al tern
28 5
Ġexamin ing
un ct
ow en
Ġ\sub stack
ĠEs timate
ticular ly
ĠS tieltjes
\n b
ĠD om
Ġremo vable
gan ization
tr al
ĠCalcu late
L Z
ĠCh inese
f oot
Ã ²
ĠĠĠĠĠĠĠĠ ĠĠĠĊ
][ ]{
nes ted
E W
b our
or f
ĠT S
Ġrece iving
uri ous
) ^*$.
\ map
Ġc rack
Ġsmooth ed
Ġ\M ap
ĠUn ion
ĠM F
ĠWhen ever
Car tier
s pi
ĠE ve
Al most
\la b
N r
ch ord
ĠCar leson
Ġtang ency
Ġpul led
resi dual
pp y
ĠR i
con servative
Ġlocal izing
_{- ,
{} &\
autom orphisms
T ang
Ġtre nd
minim ize
,\ <
ĠS A
ĠA M
ĠM et
Ġ$| {\
ĠMa urer
\add to
si zes
acc uracy
' ),\
' }^{-
Comp utation
sy st
S ample
Ġst range
)}\ ,.
Ġpre pare
ac l
_* ^{
Comp ute
Graph s
N AT
i mb
u ms
^{ 9}
ĠV ia
Ġnormal isation
Ġ\f l
Ġbenef icial
! :
frac tal
ff ine
emp irical
|- |\
L andau
ĠN oting
cus ing
Ġcou ples
ĠRes ult
Car tesian
pro cedure
Ġqu ote
Ġ20 16
ĠChern off
w isted
Ġ+ |
big triangleup
Ġ[ .
Ġ tim
RR R
Ġreview ed
Ġtemper atures
puncture d
B d
w ald
Ġ7 8
}' _{\
}^+ $.
] |{\
c pt
it ud
cc qqqq
Ġtrans lating
and ering
)- {\
la mb
Ġ( ?
Ġ\s L
Ġbuil ds
alog ous
F ra
^{ F}
Th ough
Ġ< *
Ġpre coder
^+ =\
ĠComp arison
Ġantic ipa
( }
R os
S ize
a bel
Ġd ama
od im
Ġnon vanishing
op n
15 1
inter p
ĠPre cisely
) )}^
in p
Ġevalua tes
ĠS LE
Ġtrans positions
re pr
)) ,\\
)| +|
c auchy
j us
Ġ\ ft
^{ X}
Ġnormal izer
Ġ\l not
Ġ\f loor
}^{+ }(
Ġ( '
ĠTrans form
ĠC re
Ġun imodal
pend s
Net work
@ /^
\ pre
Ġholomorphic ally
G h
Ġ\ ab
ta ni
Ġrecor ded
dis cr
Ġcry pto
}^{ }
over lapping
Ġnon increasing
\ prob
n S
Ġ\ url
Ġpen tagon
om ents
var injlim
20 3
Ch ris
Ġ\ vep
di er
Ġout liers
&=& (
N x
x ]
Ġmemory less
Ġswitch es
d il
le ads
qu atern
ging roup
W atson
Ġs lack
Ġ- >]
ĠR an
L ong
Ġd P
}) )}
ĠI D
pro posed
Ġoptim izer
^- }\
Ġpath wise
Ġdiver gences
behavi or
M etric
\ res
$: }
im od
ur in
ĠG EN
oto pe
ĠMac donald
' }|
S LE
| _{(
ĠU V
Ġ\text quotedblleft
}] \\
measu red
h D
n rm
mu ch
}; \\
Ġstre ams
Ġdom inate
Out line
A z
I to
w ick
Ġ\b q
}{| |
dense ly
ĠKre in
select font
A k
\e pf
compu tational
ĠChris toffel
Ġ\ as
Ġsub interval
Ġcomple mented
ĠWe ak
conne ct
Ġsket ched
}[ (\
ĠGra dient
Ġcapa bility
I W
lo ose
link ed
las so
n ications
pro file
ĠV andermonde
scr A
Ġsymme trization
))\ ,\
ura te
\ Real
Ġ\ Pro
ur ally
ĠC u
\text quotedblright
S imp
w ich
con verse
Ġinter play
19 70
AR T
vaila bility
Ġmaxim izer
Pre liminary
Ġcon ormal
xx xx
Ġexci tation
Ġsa ving
\s w
Ġnum bered
environ ment
r ality
ĠS cheme
for get
Ġ\n cline
Ġ\r me
|}{ |\
mem ory
R b
ore s
20 6
\beq a
' )^{\
ĠTh ird
Ġun ivalent
pect ra
sp line
n C
Ġde ad
Ġco action
z hou
Ġm en
Ġy ellow
Ġtri es
inde l
, >=
Ġs ought
ro me
Ġn u
In j
Ġ\d v
Ġ\ aleph
}= &\
|}{ $\
o il
Ġ( "
25 7
upper bound
}) )=\
Ġ7 9
s U
s ti
old en
}] }\
Ġview ing
\p mb
Ġrad ar
K c
] =-
{ :}
^{ }_
st rip
ĠS DEs
ow ed
pec tation
sh uffle
xp ansion
Ġparalle logram
L ab
b lam
Ġk illed
Ġ\v n
ific ant
Ġsepara bility
Ġ\n at
Big gr
sh rink
Ġ\v ct
explicit ly
in sky
}= [\
Ġfa v
Ġtransfer red
Ġ ^{-\
S b
g lue
s nd
Ġo d
}, ...,\
Ġun ordered
Ġun fortunately
sh all
Ġoptim ally
ĠD AG
Ġ$\{ {\
Ġconc ur
ĠHar ish
c ould
ne ider
18 8
resi due
Ġindetermin ate
Ġprogression s
F er
Ã ³
Ġ\T ilde
IN G
ĠSci entific
scat tering
Regular ity
Ġsub schemes
Ġhom otopies
Ġ\S s
Ġm n
im s
ag ent
_- )$
Ġstabil ized
asso c
Nik odym
b ases
m I
ĠA LL
big idx
Ġ\b beta
}=\ {(
_+ ^{\
two headrightarrow
Ġsw itched
9 00
m ol
Ġ$ :
Ġex posed
Ġno table
Ġparen theses
" :
Ġpro longation
ĠE E
}[ $
we l
M b
ĠD T
Ġsto ck
ĠUp date
I dentity
M ass
Ġ\ irrep
Ġ\V V
E b
K b
{\ ,\
su g
)) ))
ze g
ige on
Ġ- ,
Ġrela tional
S an
p j
$$ -\
ĠQ C
Ġfrac ture
]{- }(
Ġintern ally
F t
ĠD un
tab colsep
orth onormal
: _
C yc
D rinfeld
n is
ĠT ARSKI
ab er
MP C
Co mb
Ġremo ves
Ġdegener ates
ne u
16 1
Ġadv ice
Ġfund ed
V AL
Ġ\b l
Ġ\m right
Ġac oustic
Ġwave function
Ġbra in
link s
Ġbos ons
Ġassemb ly
z v
tor i
Ġcompe tition
E O
s om
| )^{\
ra el
ys cale
ĠD uring
Ġ\r v
ont ally
Ġ20 18
Wh ite
Ġbifurc ations
}^{+ }\
Ġgrading s
C cal
d ence
i um
he lm
ĠM ackey
Ġoptim isation
ON V
popu lation
^ !\
h is
Ġ\ ld
Ġmanipu lation
you ng
m B
ex po
'' _{\
}+ |\
Qua nti
Greek math
th r
Ġin fin
Ġproble matic
Ġext inction
reat er
gre edy
,\ ;\;\
In verse
(( -\
Ġexclu sively
C heck
Ġo pt
Ġcon cord
Ġ\n rm
Ġ20 14
Ġ[- ,
e as
ĠS tructure
ĠR OM
Ġ\I R
Ġult rametric
s soc
Ġhand les
{. >}[
sha dow
sw itch
ĠD a
Ġaccom mo
' );
Ġin consistent
Ġ\c p
sub spaces
Ġpas sed
Ġdis cover
Ġsub domains
17 9
orth ogonality
Map s
b sk
Ġ\ les
te ps
varian ces
B v
N n
Z hu
\ XX
Ġbo ard
Gal erkin
RIT H
Ġb inding
ad v
\math ring
Ġsnapsh ots
Ġp uts
). .
Ġ\b D
Ġ ^k
! }$
\ AA
Ġtru ly
Ġanalog s
\ Ind
Ġnon smooth
}[ [
)< +\
L l
\ matrix
o cc
Ġpre vents
Ġabs ent
}& &\
appropri ate
ĠI FS
ĠF ra
ĠG IT
^{* }$,
Ġzig zag
Ġ} )\
Ġdia gramma
22 7
Ġ_{ s}
}\,\ ,\
Mathe matical
ĠL ondon
cla ture
\ne arrow
omen clature
tot ally
Ġbary centric
ĠNone theless
Ġanomal ous
> ;
i w
ta ndard
Ġcon vection
Ġex clusion
Ġemp irically
b sub
Ġco al
Ġar ity
H f
b son
ol di
ref ined
un ay
at ten
res ta
_* }\
18 6
ĠDis tribution
C ould
f rown
u chi
ĠT u
Ġen closed
}}\ ,.
'$ };
}| $,
\Big gl
}_{+ }^{
B our
D on
th o
Ġsta tions
sign ature
66 7
Ġstabil ize
ĠArtin ian
de cre
Ġsche matic
Ġ\D iff
symme tries
projection s
Ġincorpor ated
N u
H OIU
19 4
OIU P
Sm ith
W il
\ pro
i man
Ġcol lar
Ġdeci dable
| $$
ou ng
iew icz
\C at
Ġparametri ze
Ġsemin orms
ĠP arseval
})\ )
show ing
i V
Ġ\ pmatrix
fil ters
ĠReg arding
3 40
$- --
for s
Ġtermin ation
C os
ĠG re
W C
c ub
Ġter med
Ġtri valent
_+ }(
Ġbran e
Ġthermod ynamics
| )$.
in ductive
Ġcon cise
4 000
ollow s
wa h
rela tively
h j
po si
ni tive
Ġser ious
Ġemplo ys
auff man
q e
Ġinter changing
Lef tarrow
}} }=\
Ġ+ \|
op y
Ġpla quet
iden tification
bran ching
Ġ )}{\
: \{
_* ^{\
ob vious
ita tively
Ġcompe titive
) ^*(
V alue
}$ },
all iavin
\eeq a
Ġdraw s
le ctor
ar per
Ġg ran
cal Q
}_ *(
ĠB A
^* )^{
Ġsta tistically
Ġ< _
Ġ\g o
ĠOr nstein
a tivity
d at
ĠS ets
}[ $\
Ġrela ying
Differe ntiating
ĠF EM
Ġab st
ĠPlan ck
x ing
^{ w}
ĠO per
circ les
ti gu
Ġe mission
Ġpla cing
Ġcontro llers
, }\\
] |\
on ese
ĠR ed
< _
\ xy
us p
ĠB D
Ġsign atures
Ġdiscreti ze
}$& $\
Ġb onds
ac celer
\t w
Ã¶ lder
f Z
Ġre tain
Ġ\S c
Ġ\F un
|| _\
ĠKo opman
n an
)= [\
Ġconveni ently
O K
)} }\\
Ġqu intic
UN C
Ġex cluding
ss c
inter tw
_{* ,
H essian
| }$,
Ġ\ ha
Ġcon ser
^{ C}
ha ber
cal U
di rac
ĠP an
Ġ\s calebox
Ġpend ulum
& *
V II
\ hom
Ġle gal
iter ate
\C O
Ġcoerc ivity
\c or
obser ve
( "
ad m
Ġ$$ (\
Ġ\m cl
Ġ|\ {
Ġsp ent
cou ple
ev rey
âĪ Ī
Ġpro vable
ĠB el
ĠP P
)}\ |_
Ġdepend encies
Ġseem ingly
S j
me et
Ġco adjoint
ĠH art
&\ |\
Ġ\l hd
Ġheter o
i B
i lo
x h
Ġ\b M
tur ing
mc F
\B E
Ġrelax ations
antor ovich
* [
Q ED
\v t
Function s
Ġb ide
ĠR ank
x scale
ij ing
group oids
trin sically
' ))$
in ess
der ive
Ġnon abelian
ĠJ ac
ams plain
ĠâĦ ķ
Ġsuperp otential
E lliptic
H p
\ II
ĠE H
); \\
Ġ8 3
Ġ$- (
Ġstu ff
S ay
b auer
}} }}}
dots b
\ eqno
in berg
de coding
ĠTh ree
Re lations
\s eq
17 3
Ġdi pole
S il
bb T
i ke
Ġin dust
pa spect
li k
LE X
paspect ratio
$ ^*$
E rd
M oment
si multane
$$ -
tu be
Ġpur sue
Ġpredic ts
Un it
se min
Ġcon ges
}) ]\
Ġh our
Ġ$( (\
ĠAust ral
ester ov
Ġ )\,
m il
^{ V}
Ġsub harmonic
verti ii
ĠWe instein
Ġ\ind ent
$ _{\
\s O
Ġ\m i
)). \]
metric s
intersection s
' )}{
D g
s rc
Ġo wing
under stood
Ġsubs heaf
Ġtechn ically
Ġc i
res pective
parta ment
20 22
Ġ\le t
Ġho st
h bt
con tin
ĠWe i
em er
Ġ_{ x}
ĠLabor atory
ĠGraph s
Ġno tably
Ġent ropic
column width
Ġpromin ent
Y a
ty p
Ġprojec tiv
\ the
\ empty
b ri
Ġsu cc
Ġ\no align
Ġfavor able
riffith s
s or
}{ !}{
ow icz
)+ {\
temp oral
Ġsa ve
ĠK ore
23 8
Equ ivalence
infinite simal
] }]
sub sect
ci ety
sto pping
Ġcompac tifications
ðĿ Ĳ
Ġoutper form
^{ '}(
Ġconf lu
obser vable
Ġ\arc tan
ĠF aculty
ĠK le
m kern
Ġw arm
}} )^{-
Ġmu tations
hier arch
Ġso lar
fra mes
}}$ ;
bb er
Ġformal ize
SV D
F ran
t un
Ġre por
ga wa
ĠC untz
Ġle verage
os a
Ġ7 7
\C P
Ġland scape
Ġdeploy ment
Ġturbul ence
\ kern
] &&
g B
}} =(
Ġ_{ p}
pub lished
Ġ\ tens
ha ul
Ġ} }$
sing ulari
Ġsugges tion
Mu kai
orma nder
ĠEng lish
* ]
ES ON
ĉ ĠĠĠĠĠĠĠ
ign orm
Ġal co
Ġmagnitude s
ĠNetwork s
Ġcopu la
W ilson
Ġex emp
fine ment
ext reme
\def eq
Cha in
W E
he ory
ĠL ower
}. ]
-- (
Ġreal ised
Ġsuper singular
Ġ\O b
$ _\
ĠT A
\ xx
k N
Ġ\ Proj
Ġhe alth
sp inc
}^{* }(
Ġindetermin ates
ĠGal ile
Ġsyn thesis
' _{(
Ġin vert
Ġla ser
Ġ\S h
Ġpix els
\ so
37 8
ĠCar not
Acknow ledgment
conne cting
N K
c vx
ho mogen
sub subsection
Ġ\n or
simpl ified
resta table
D h
n P
n equality
ĠT P
om ics
ĠF ellowship
Ġapp end
Ã© tale
Ġ0 0
ĠK ap
Ġadjust ment
nd e
ĠB B
)= +\
Ġad missibility
_{+ }^{
ĠB ohr
.\ @
Ġasser ted
Ġkine matic
Top ological
Ġ$(* )$
R HS
S trict
bf e
19 67
color able
n om
or ok
Ġl in
'\| _{
ril lov
V is
] =\{
on ne
+\ \
]{ @{}
ting s
20 9
)}+\ |
hh h
piece wise
\ it
ol ov
ĠMay be
* _
] ))
v X
x ponential
~ |~
Ġse x
ctor al
ens ored
K as
\ theorem
}{ *}{\
ĠF E
ĠP T
Ġman aged
AC E
Ġ20 13
Ġelectric ity
N OMA
e lim
ur r
qu at
ĠE igen
Ġcal ibration
ac le
ĠPoincar Ã©
h phantom
}{ }^{
Ġsub problems
Ġ\v f
y r
Ġ| $
)=\ {(
Ġcharacter ised
&- &
ĠCla ssical
ĠSU BSET
Del igne
Ġattack s
ogene ity
Ġtessel lation
: }\
(\ !
Ġde coupling
}) _{(
ĠS olutions
ĠL angevin
ĠNo vikov
Ġ _{(
X c
\ Gr
qu al
prop or
n ic
u la
| .$$
ĠN orth
au d
Ġpres entable
Ġsuff ix
ĠKaz hdan
] })$
pp p
ĠD onaldson
asi ew
RE M
Ha damard
Ġwish es
0 33
d cat
{ ``
Ġsuffici ency
Ġbo ils
Ġ vec
z ur
ti zed
mathb in
Ġ10 8
Ġtigh ter
ly ap
qu ality
Ġ8 2
ĠCor responding
suma bly
Ġ tilde
Ġn x
Ġdis tor
dis per
igin al
IEEE tran
})$ )
ib ly
^{+ }}
Ġcombinatorial ly
v ph
po incare
ĠD ol
Ġsem ialgebraic
Le vel
ĠSt re
lo oseness
}} ))
ill ustra
ves ter
Ġext raction
Ġrequ ests
ĠBla schke
T its
X x
` ]
Ġsto pped
uc as
A PP
I u
\ para
Ġwe l
lo aded
)} }$,
In finite
19 3
Ġro lling
Con nes
Ġprocess or
R s
^* /
19 71
Ġ\set counter
Ġmono pole
l ich
ĠB L
unction s
ĠK n
Ġab surd
Ġ\g s
Ġ_ ,
ĠAd S
easi ly
( '
C ay
b be
ĠB MO
Ġj ud
)}) ^{\
Q c
\, ,
cu ts
cp x
odrom ic
al ready
hu is
\mb b
F lat
V T
Ġf ont
bu bble
oper ations
Ġses qui
Ġf unc
ĠL usztig
In fC
lan i
17 2
sol ved
w ol
re levant
umber some
ĠQ M
Ġ\G m
Ġserv ices
o val
ore lli
23 9
gener ation
g host
Ġop ens
99 4
Ġcas cade
ĠR en
]{ |
bet ter
G J
H older
repres ents
Ġint end
margin al
ĠFin Sequence
B etti
d ar
Ġto wers
Ġde par
Ġ\g lobal
Ġ\B C
\ps polygon
develop ed
$ )-
si o
Ġsu ffer
Ġvisual ize
e j
m cc
Ġ\ lan
be am
}{ }{\
Ġen comp
ĠRe es
Ġfactor ing
ĠS il
co x
ĠE lements
prop ref
30 3
Ġev idently
oun tain
ĠX u
Ġdim er
ĠR G
Ġ\b L
24 4
Ġsec ant
Ġ0 1
No ether
PR OP
^{** }$
\ alg
\m r
sume d
\beq s
\co prod
arc cos
parame trized
F n
J e
di us
Ġper me
Ġtra ding
Ġ\c s
lemma s
Ġquanti fiers
Ġca vity
ĠIntegra ting
Ã Ĺ
qu bit
})\ ]
99 5
ĠKal man
e me
ga u
label s
ĠComp ared
ta ctic
Ġgo als
}^+ (\
Ġcrucial ly
Ġga ined
G rothendieck
ce l
\n ormal
Ġ\E q
Ġblow s
Ġequidis tant
on n
Ġa side
le pi
La x
ĠCN RS
Ġdegra dation
2 14
X P
sta tion
yn g
Ġsol itary
Ġshe ets
Ġep is
ggl ing
F redholm
G p
z d
ator ics
ind rom
Ġpropo ses
H uang
P an
U ps
h ta
ie g
Can telli
| }^
De gree
D y
V ia
ck i
)| ^{-
Ġ\w hat
itud inal
ut z
}| |^
ju gating
}& {
Ġexcep tions
ĠRa ther
utr al
Opt A
Ġwork er
ni ties
Ġlea der
Ġcance ls
Ġreduc ibility
ma c
)} }{(
ĠN L
Ġcal ibra
Ġab und
Ġ\xymatrix @
A o
E p
Ġsub intervals
olu tely
Ġund e
w y
ĠRe gular
. $}
ur ning
)) ).
ob served
Ġcent roid
Ġ~ (
resul ting
Ġsw apping
\ ur
on y
\ Th
a il
is cent
Ġcon sult
}) }=\
'' }$
18 2
pack ing
Ġa p
ex periments
PS K
period icity
Ge ometry
f ly
Ġsu ble
ĠIn verse
Ġuncertain ties
f eedback
pl er
Ġnon constant
:=\ {(
draw Color
ĠL Seg
iffere ntiable
via ted
K ap
in et
Ġ\m R
Ġtra pped
Ġrefine ments
Ġwitness es
O G
S ys
a vailable
\f ont
ĠEx act
Ġbic ategory
Sing le
M n
Ġ| |_{
mini max
Ġ\re v
la unay
}} }_{\
ĠB ig
mc A
Ġ\var projlim
Ġfall ing
G ru
in sert
ev an
s plits
ms pace
con nectivity
hand les
\ er
\ rightharpoonup
tens ors
combin ation
Ġpuzz le
es i
ĠG ab
li pschitz
ĠCon vex
yl vester
Ġ\cal F
Dec ay
ĠBell man
te gy
ĠT T
Ġne at
bo son
Ġsupp lementary
Ġg lass
ĠS till
pa d
ni ques
99 6
Ġdri ve
ellip se
ĠVar iable
Z i
f rm
ĠP faffian
Ġ\ex pect
c is
ith metic
Ġsa mpl
Ġ$(\ {
Ġte lesco
apri ori
R oughly
Ġco chains
ĠB ri
ĠE mail
ac s
St udy
itch fork
Ġcommunic ate
$ }(
Ġs mash
bound ing
Ġexhibit ing
Ġ\op n
minim ization
K C
ve cc
=\ \
ĠB ack
ĠU pper
As sumptions
Con stant
_* =
Ġdegener ations
Ġque ues
Differe nt
D w
ar ri
ĠS to
ĠMic hael
}$. )
Ġfin itary
OF DM
wah ori
Q F
Ġa rtin
he ll
scri bed
Comp are
ĠSe iberg
ĠRK HS
Ġepi demic
y ama
ĠF FT
ss a
ĠD f
Ġgrateful ly
requ ired
ĠB lock
Ġblock ing
Ar chimedean
$ ,\\
] )^
ĠB asis
ĠH H
}(\ |
vent ually
Y our
Ġe psilon
sel ian
sd p
Ġpiv ot
h il
inf o
coinc ide
Ġbise ction
/ *
ĠS pe
di ame
)] _{\
Ġreal isation
ice frac
Ġ\cal E
ommu te
expres sed
Ġrefere es
Ġtransf ers
S cho
36 5
& |
3 24
U l
re pe
Ġo range
Ġsubt raction
d ent
Ġ} )$
lt wo
Ġ20 19
ordin ator
en ability
ĠH igher
Ġr k
ĠSchwarz schild
Ġf undament
Ġqu en
0 35
n fty
le aves
ta c
ĠM M
cu st
mon odromy
mf g
Ġ[- ]
summa tion
E f
q z
Ġ\ reg
ĠC Y
ĠR W
ĠD on
mo other
\tex theight
2 95
m odes
s ke
Ġwe alth
Ġas ynchronous
Ġdec iding
Ġexplo its
ĠâĢ ĵ
ing le
bf n
Ġindic ators
inde pendently
sur gery
C ard
Ġ1 10
Ġ\b theta
Ġinfer red
deter mine
R k
Ġ- $
ag ore
)\, |\,
ĠĠĠĠĠĠĠĠĠĠĠĠĠĠĠĠĠĠĠĠĠĠĠĠĠĠĠĠĠĠĠĠ ĠĠĠĠĠĠĠ
)(- .
\w p
Ġnucle us
0 21
F X
Ġ\S upp
Ġgre y
ew ner
discre tization
D an
D etermin
O X
Ġd ice
ore ma
\d f
_* :
Ġ10 1
Ġincorpor ating
z il
ĠH ong
Ġsub modular
con servation
;\ ,\
col umns
Ġhe lic
Ġ\f m
Ġvio late
regulari zation
\ textsf
Q Coh
fr p
Ġre state
cal N
ĠThe oretical
ab br
ex ternal
]\ ,\
IN AL
ĠAd ding
Ġbrid ges
g j
t end
_* )\
&+ &\
] }^{
Ġw f
Ġcon tributing
^* }}
30 4
non lin
Ġanswer ing
Per f
Ġcobord isms
Differe ntial
S quare
b O
Ġpre decess
. }$
re ads
}_{ |\
ĠG en
sp ort
28 4
fore st
jk l
Ġske in
Ġ .}
E ntropy
G ibbs
ĠL arge
ern and
ĠMo tivated
asiew icz
e mail
Ġre ject
Ġsub object
ture d
26 4
D ou
de ff
ca usal
Ġencoura ge
A cc
a ided
ĠI T
]\ )
|< |
Ġvio lates
Ġepoch s
Ġ ^4
F ul
Ġconcrete ly
erc ises
Ġm erging
Ġmulti grid
Ġcomponent wise
Ġquasi conformal
rig or
! }.
(- .
long table
Ġti p
Ġrecogn ized
P hy
T rue
}) ^{-\
Ġal beit
mo tiv
In variant
Ġdo cument
vare p
Ġamalga mation
M et
or sion
\d z
cro ssed
boot strap
ind iv
Ġpenal ized
Ġ$ {{
}) =-
Ġ\s eq
ogen ous
FM ISC
J c
lar y
26 7
Ġsqu ee
A le
B m
V A
ĠO p
\h s
Ġprof it
$ (-
k C
Ġm or
EX P
Pal ey
ĠĠĠĠĠĠĠĠĠĠĠĠ ĠĠĊ
J ones
DE R
prising ly
A mb
A xiom
Ġ\ ur
ert on
( +
\ RE
Ġ\ To
acc urate
ĠDefin ing
Ġn th
ĠTh rough
mon oton
Ġtun nel
Ġdecor ation
a veraged
re ps
lo ying
sp c
Ġcollect ing
ĠIns titut
al ed
under lying
Ġwave lets
C FT
] _{(
ig ration
Ġpro hi
fin ding
partial ly
Ġexplan ations
distingu ished
absor bing
, ,
\ ec
m G
Ġc umbersome
Ġl iving
reg ions
\g m
triangle s
Ġamong st
ĠAr chimedean
p ics
in vestiga
' )}$
W asserstein
id ance
)_{ -
ar tial
ĠV V
Ġ\b g
)}, $
juga te
Ġfo cal
MS C
Ġcontrac ts
Ġbubble s
Ġmagne tization
ure wicz
ĠD irect
]: =
^+ }(
\put morphism
Ġobe ying
\c om
U I
\ gen
l led
^{- |\
ĠP ID
\b rk
18 9
Ġocc upation
Ġdemonstra ting
Ġexpect s
Ġexchange able
Ġexper ts
Ġtourna ment
T Z
\ diamond
e lem
ol la
ĠL M
row color
ĠD A
Ġrequ ested
)& :=\
' <\
S ame
es pecially
Ġ+ {\
ĠN ielsen
In c
AL G
Ġ\cal S
Ġaxi al
Ġb ending
ff i
ire less
cl s
\l bl
Po sitive
F ib
\end xy
ĠM en
ĠĠĠĠĠĠĠĠĠĠĠĠĠĠĠĠĠĠĠĠĠĠĠĠĠĠĠĠĠĠĠĠ ĠĠĠĠ
^{+ }(\
ĠRE PEAT
\math tt
\use package
$ ]\
l son
l itz
ĠT ensor
ri vial
Ġnon standard
Ġser ving
ĠPo incare
Ġalpha be
Ġcohom ologies
Ġ@> {\
M K
rac es
ĠH ess
Ġclo sing
circ ular
flow s
Ġconstitu tive
mati ques
' }}$
P DF
R un
Ġm s
Ġpre para
commuta tivity
Ġg ad
ĠS IC
res sively
ĠN or
ry ing
F isher
x vec
ed en
Ġsh arper
An gle
ura ev
Po ints
pri mes
cust om
[ $,
f ounded
xi ties
ĠE ilenberg
Ġthere of
sc l
diff ic
sample s
Ġintegr ally
ikh onov
Ġwarp ed
e vi
as p
Ġpre pared
_- =
] })\
Ġw ar
Ġin formal
ĠL em
co bord
Ġra ising
}| (
ĠRe presentation
ĠMathe matik
Ġ\if x
\ em
ke e
Ġchar ging
Ġcaus ality
C how
in line
&& &\\
Ġpropa gate
H m
o op
sc i
Ġ\Bbb k
g K
' }+\
S eries
ĠA ra
ĠM ori
^* },
30 1
Ġsix th
ĠD ie
Ġta b
{( -\
[- >](
ss es
hy brid
Ġquasi linear
orth o
{. }[
Ġexhi bited
conclusion s
` .
b vec
Ġ( [\
ith ub
}) =\{
Ġ2 50
Ġj obs
Ġ\m d
Ġge ode
Ġdete cting
p A
Ġco multiplication
Ġex po
ĠS equence
ĠC ambridge
P x
}} :=
ĠS pectral
qua res
ia m
cu le
Ġtor que
Ph ys
Ġ\c u
ĠF R
il er
\b w
Ġbo ost
Ġconv olutions
0 60
Ġ\ act
er ner
all ing
Al go
Ġobserv ability
EASU RABLE
[ $.
Ġp yramid
ĠA dd
ĠC am
Ġ" $\
Ġfib red
\if x
ĠMay er
L cal
\ rk
pp ly
il ities
asu rable
ĠAs ymptotic
Ġmultiplic atively
ĠLore nz
ĠPh D
Ġ\tikz style
Ġeman ating
A ns
ordinate s
@ /_
X S
Ex ponential
Ġtangle s
K H
Ġcol lective
agore an
Ġrepe titions
ĠWol fram
T n
h A
)} /\
Ġ$$\ |
Ġ\var injlim
Ġforget ting
ĠP OD
Ġcomp osi
ms c
tran sf
28 318
Ġoccur red
ĠGM RES
Ġ till
B ern
ok s
\f p
\f box
Ġhexag onal
Ġrev olution
O t
ro perties
^+ )^
Ġrandom ization
\S L
Ġ\L i
* },
r j
)* {}
4 90
Ġu ne
}) ^*\
Ġdia m
Ġ\D om
ĠMe asure
Par tition
. [
ĠT utte
ow ards
set length
Ġ) _
g ens
Ġf urn
de lim
lo p
lo pe
Ġ\n ame
descri be
ĠSi mulation
journ als
We ight
ad ically
Ġdx dt
Ġshadow ing
uris tically
ĠT emp
Ġh onest
Ġ\I EEE
Ġtrace less
n verse
re ll
Ġre jection
ĠC O
Ġmultic ast
T cal
{ ;
Ġin direct
Ġ& {
ĠM ass
Min imal
W L
ĠC heck
Ġopen ing
Ġ20 11
#### ####
im m
ĠIn put
\v center
Ġ\f rom
Ġbasic s
Sub set
ĠInte ger
discus sed
s mallest
Ġ\ diamond
Ġ$$ {\
col oured
u o
to ol
Ġ8 6
AC T
G rant
{ },
Ġ\ pageref
pp end
Ġmain taining
Ġ@ >\
" }
Ġgraph ic
Ġ ĉĉĊ
| ~\
Ġ$< $
= +
Ġ$ ^*$-
ĠV lasov
$\\ $\
ductor y
Ġ ~$\
or acle
ab bre
co cycles
Ġ\S t
Ġneur on
V ietoris
n yi
de ux
Ġhas h
ham iltonian
Ġhoriz ontally
K ol
h ilbert
Ġ\ thanks
Ġi k
ĠC over
linear ized
Ġtru st
Ġ _X
ĠS IR
ĠE ducation
P age
S AT
\ te
ili pp
G ab
R y
\ Var
ĠF ree
Ġlo ads
45 5
+ [\
V or
\ ord
+\ ,\
Ġen clo
Ġ\s lash
17 1
Ġ\O p
Gra dient
ĠEstima tion
ĠRL VECT
Ġi v
Ġsu n
ĠD etermine
\b reve
Ġorgan ization
- },
eq us
)) /\
ĠO rd
)}$ ;
25 00
bound aries
Ġillustra ting
Ġdef iciency
Ġfit ness
congru ence
~ =~
^+ -
0000 000
Ġleak age
\ da
b st
Ġd end
)| -
Ġ\C l
Co st
IEEE membership
4 05
B f
ĠP u
^* }$.
})\ |
Ġ\h s
ple x
ris on
Ġperi pheral
Ġcorrup ted
_ !\
d dag
oper ative
Ġarrival s
r E
,.. .\
\en q
c ils
t j
Ġd h
Ġpan els
perturb ative
Ġs ho
Ġc am
ĠT otal
ĠM CMC
sk er
Ġpropag ating
o ints
Ġ\c or
Ġinter iors
Ġsing letons
R IS
X REAL
m oreover
igh tening
Ġfact ored
ata ke
state vec
orb ifold
Ġ\ ominus
^- )\
orok hod
Ġ\ tri
an al
il ter
ĠH F
)) )$.
Ġ\fig ref
z c
z hu
\\ \
bb S
Ġ\q w
Ġremin iscent
Ġpl urisubharmonic
B lack
ur ling
Ġqua s
Ġ\m S
\h phantom
Ġarri ving
Ġextrac ting
ecess ary
C omm
\ pagebreak
Ġ\ amalg
ĠA long
ĠO k
Ġgra de
@{ =
\en a
Ġacceler ate
Ġdelay ed
Ġphysic ists
T ags
X t
| }}\
| |^{
on ents
et ter
}) :\
ĠB ert
\c s
lear row
Ġ\S I
Ġguess ing
redund ant
ĠB M
ak u
'\ )
Ġdim in
Ġ\ val
bu d
Ġsimpl ifications
Ġpri mi
Ġdamp ed
conven tion
n ell
Th rough
)^+ $
c lt
Ġ\ restriction
ff ler
Ġ\cal X
Ar row
ĠInd ex
E mbedding
o ft
te tra
ĠT om
ia mond
ĠW il
)| &\
Ġ20 12
N IV
] }^{\
Ġ\ io
ce iver
ĠP lugging
\b B
channel s
P erm
\ sec
is i
te or
Ġin tr
Ġpro ton
Ġcom on
anish ing
\ linethickness
Ġs s
cent ration
aux iliary
]- [
' )_{
H ermite
Ġ\ rel
ĠB ounds
30 6
\B e
ration ally
il inson
ab ling
ration ality
sten haber
Ġth read
re ci
Ġe lu
commu nication
Sh v
' =\{
C k
yy y
Ġqueue ing
Ġun perturbed
Ġra ises
Ġ\D er
Comp utational
Ġhemis phere
ĠAdv anced
Ġ$ ^{
'$ ;
ĠCon tra
33 6
iden tified
Ġdecre ased
' :\
\ ta
t ter
ar ski
ĠP ara
^{( +
\b eno
ĠInd e
s Q
\l c
hl fors
F ano
U K
is a
ĠA MP
ĠE r
ire gular
\s ym
approxima tely
Ġtang ents
Ġ\th ref
Ġinstru ctive
ar ranging
We ighted
od in
Ġretur ned
arc sin
ĉĉĉĉĉĉĉĉ ĉ
0 90
S ep
n ls
ĠS tiefel
ise ux
' )_
Ġlocal isation
Ġfair ness
Pen rose
ma ted
is ition
Ġconn ective
& &=
Ġ\h phantom
\r c
Ġ8 9
Ġafter wards
Dia gram
ĠQua nti
ĠBR ST
n ick
th ur
Ġ\ fint
ĠE C
Ġprof essor
Ġport ra
legend entry
18 3
Ġ\w w
# \{
Q H
c sc
Ġ\c urve
}^ -\
ĠR ou
ĠV II
Ġgra nd
Ro bust
]\, .
sket ch
Ġhand ling
Du ality
ĠInd ia
Form ally
Ġphra se
" {
it H
Ġ\s ig
Ġenumer ated
ĠRe ynolds
Ġund ec
minim izing
ĠPh ys
U u
Ġcon ics
\n l
ee l
+ },
im o
Ġbig gest
D imension
E I
R at
Ġa vailability
reg istration
Ġperman ent
un ipotent
\v phantom
Ġscat tere
Ġsti mula
y on
la c
ĠI F
Ġr fl
~$ {
Ġsp urious
Ġconv ince
; $$
\ Exp
\r brack
sign ificant
gli ardo
w en
Ġ\ equ
}} )\\
Ġen rich
)+ +(
val idation
)* +{\
Ġdi lations
Comple te
Ġ\ ec
Ġ\c i
Ġex changes
Ġ _r
! \,
A rtin
E i
M LE
x m
in version
cell ular
}_{+ }$
d U
Ġwh ilst
ĠZ ero
prec ision
C oun
} ---
ran ishi
Ġsupp ressed
Ġ\A c
ĠMo ser
conjuga tion
\ ka
ĠR ussian
lim func
}| |_
Ġin tractable
ĠC entre
^* :\
Ġsub trac
ĠCon struct
ĠVol terra
$\ {(
Ġra ise
\be as
Car lo
Ġin tra
xi al
CD F
ĠH igh
Ġsub matrices
ia g
ever i
]^ (.
na ive
)\; ,
Ġpub lication
Ġquantif ied
)\< ^
Ġinfinitesim ally
\ Co
a ware
m O
'' =\
Ġ\S pan
\e es
iter ated
}\,\ ,\,
temp t
vv v
lli ps
high est
Ġpush ing
partament o
F cal
h ess
Ġi on
ĠR osen
32 8
Ġgu idance
Ġ\ nd
35 3
bi qu
Ġbelie ved
Q q
j d
ca pa
Ġdot size
Ġsett led
Ã¤ hler
\c prime
Ġ$| (
do i
27 6
\mid dle
Ġcompr ises
h G
ha vi
Ġi mm
)} )\\
28 6
remain der
calcu lation
Ġ\c ard
ĠD FT
inter acting
Ġrecor ds
t V
ob serv
] }}\
r B
is try
ot or
pre p
propa gation
Ã® Ã
N one
\ as
,\ !
Ġde singulari
ay er
under bar
\C M
Ġaccep tance
J T
end owed
Ġse vere
}] ^{\
\ tabularnewline
ow s
)) }(
Ġ\b Y
Ġtermin als
Ġ\var kappa
om it
Ġmulti graph
fact s
Z G
to s
Ġ\b K
Ġclu b
C ayley
Ġ\b i
Ġlong itude
\makeat letter
@ >>>
Ġsta ircase
ting er
under standing
&& =\
)}} =
Ġincomp arable
dark red
L op
L HS
in ski
Ġ\ lo
))\ ]
Ġ^{ 3}
ri el
rm default
ĠN akayama
ke ep
^{* \
omin o
Po incare
ĠAlgebra s
s age
Ġ\ 0
main result
Ġ* -
Ġdx dy
pur ple
Legend re
la d
Ġpartic ipa
sp n
Ġrep elling
Ġprescri ption
,* }(
\allow displaybreaks
Ġ _R
E mb
j v
19 68
Ġrepro duction
TF UN
pub lic
2 96
N ame
]\ ;
Ġfulfill ing
M ix
N or
de ath
$$ {
as su
Ġestima tions
Ġ\dots m
Ġtra ver
pass ing
Ġp s
Ġ\in to
les ky
Ġstabil iser
cz os
is sa
Ġin trinsically
ĠR V
ĠV a
exp r
Ġannihi lates
ĠSum ming
, :
2 17
B undle
it man
P at
ĠT s
Ġ\c n
var d
ĠM el
}(\ {\
so hn
_+ =\
))$ ;
Ġinterest s
]. \]
Ġparame trix
exponential ly
Ġ** @{-},
P rime
Y I
a one
LL N
\bb N
Ġ( *)
ĠU L
str ings
Sp c
Un if
Ġrecogn ition
impro ve
cal K
Ġk ink
Ġno ises
ĠU sually
Ġ\m A
Ġoper ates
\M T
Ġarri ved
Ġmult inomial
* (\
g ulis
Ġis ot
ĠF eder
Ġ8 8
Ġ\col im
Ġqual itatively
F amily
l man
n aturally
Ġa head
}{ !}{\
}| ,
Ġdiscre tisation
ĠAlex androv
rever sible
D un
Ġh und
Ġh oro
ple ctic
{$ '$}
Ġabs orb
Li ft
fa il
Ġreconstruction s
! ,
. ),
O per
Ġcon densed
je e
Ġillustra tive
^*\| _
represent ing
P eter
i ot
'' :
\E e
Ġinjection s
n ob
qu ist
wh y
)-- (\
iden tify
A O
ro dinger
}) &
ĠI to
Ġ< <
Ġpre print
dis crimin
light ly
imp ort
ĠBer ry
summa ble
L k
Z hou
en riched
ref oil
tex orpdfstring
Ġ\C o
Ġ\C al
Ġem erging
Ġtrace d
Ġpur su
Inte ger
Lore ntz
f uture
)| |^
$( {\
inde composable
ĠIntern ational
en a
ul sion
ĠMan in
st ron
ĠN aka
Ġ200 9
[ \{
ĠG ray
Th urston
Ġj ournal
non degenerate
Ġim bed
Ġ<= >
+ }(
ys in
Ġemer ge
S paces
}) &=\
effici ents
O bs
me ters
ou los
in comp
}) +(
Ġ1 60
Ġ{ |\
\d l
Ġcommu tant
3 11
re construction
es ti
ĠRe LU
Min im
Ġ\lra r
Ġtranscend ence
C y
Ġb d
Ġ& (\
=\ ;\
An alytic
Ġdomin ance
fi les
Quad ratic
ĠFuk aya
Ġcon nec
Ġsh allow
)), $
ĠâĨ Ĳ
ĠXX REAL
re placing
^- =
\f cir
34 7
vari ous
_{*} (\
ĠPri mary
maz ure
Ġdevelo ps
Y X
a way
Ġro u
tro pical
Ġ_{ m}
han tom
Jaco bian
] ]:
ĠS ymmetric
ĠPo ints
Ġdi verse
\theorem style
ĠT ao
67 8
Ġfast force
' }-\
R oot
r D
\big otimes
Ġmeasu rability
Re presentation
Ġsl ide
= #
g nitive
j g
on nected
Big gl
ĠK S
Ġori ent
tis m
re mo
(\ !\
ĠQ P
base lineskip
D Q
ta ri
Ġ& &&&
ch ern
\in te
ĠS plit
ĠC ra
Ġsub cases
ke ley
Pro jection
Ġ) ^\
determin es
Ġstrengthen ed
Ġunex pected
4 16
Ġop tics
Ġ` $
Ġpix el
Ġances tor
'' }(
ĠRe ed
tan ts
ijen huis
* .
\g trsim
ĠSt udy
Ġ ĉĉĉ
D l
R Z
k w
}} }+
Ġpro be
par tim
Ġ '$
Ġ Ã©tale
Ġsignal ing
rgod ic
\v f
Ġ@ .
consider ing
permu tations
analog ue
c st
ign ore
\C al
Ġexceed ing
\ unitlength
c ry
h M
Ġde duction
Ġco ordination
Ġmis match
Ġins pi
Ġke ys
slo ped
H g
] <
z is
}} ;\
Ġst alk
ik x
ĠGa u
abbr v
S in
)} ]\
tation ary
mi er
Ġ\n m
ish art
$; }
Pa per
ĠMate matica
\ height
n th
Ġg ates
Ġ\s g
av o
Aff ine
Ġstrengthen ing
ref mark
Ġ& &&&&
Ġmotiv ating
corre ction
S hift
up ta
ab in
Ġbi partition
Ġmis ses
Ġfail ures
Leib ler
kee paspectratio
A long
th ogonal
Ġte le
Ġcommu nities
Ġ\g b
MA GE
ĠRus sia
Ġat tributed
Ġ\C F
]{-> }(
J N
Ġ$ ).
ĠB aker
Ġspect rally
Ġ rt
lo cus
Ġh f
Ġreci pe
ĠMap le
Ġopportun ity
N d
of ic
if ier
ĠP hi
ĠM D
lim iting
mf p
Ġpostpon e
Ġ(` !
Ġa rt
ĠAl g
\x ra
asymp t
ĠAP s
ĠDes ign
Ġecon omic
u ality
Ġw ent
Ġ1 23
\v u
ĠSch midt
Ġcumula nt
Ġspi ke
ĠC B
ĠRe peating
ste l
SO S
Ġ\cal L
3 000
\ mo
Ġc r
ta tor
Ġsub ordinate
bab ly
)}} _{
t Z
Ġw it
so bolev
){ }
Sp here
struction s
immediate ly
Ġinvest ment
C oker
er ial
\n s
19 69
ðĿ ĺ
W B
k im
o om
Ġidentif iability
34 2
rich s
Ġarithme tical
" ?
S x
par box
). ..
so s
}| }{
)_{ [
24 1
b ibliography
Ġb ag
)\, {\
_- )\
05 0
Ġfound ations
):= (\
Ġcompac tified
Ġ ridge
@ (
S inger
a us
st ress
ĠC OMP
})\ }$
long to
Ġ`` \
Ġ\mid dle
cr cr
Ġ~ .
F U
Ġ\ el
Ġex haust
di ma
Ġstand ardi
Ġregu lator
\ra rrow
tru th
\ diam
is cher
big O
ĠV ECT
Ġ\x ra
P CA
l ct
Ġin tric
igh ter
ĠD imension
ĠK i
Ġtri diagonal
Ġsubject s
network s
Z FC
{- };
Ġsum med
N il
\ ld
Ġ\ propref
Ġ= \\
Ġadvan ces
4 64
t Y
re nd
Ġd c
ch romatic
=( (
Ġ\l m
Ġpiv otal
o ften
\n on
32 7
|}{ }
Ġrevis it
Ġd ip
Ġu biqu
pp ler
Ġal g
Ġextra polation
ĠBour gain
k at
q v
co q
ĠD omin
10 10
]$ ).
Ex panding
04 8
contro ls
\curve to
ta s
Ġover laps
ven umber
]: \
llig ent
M x
Ġs im
ĠFor mulation
}] ,\
Ġ\v a
Ġquanti zer
Ġdescend ants
g ithub
ĠC ases
po v
ĠN ik
ince ton
Ġ: }
ob er
sit uation
partim ento
G k
K at
ess sup
\b reak
crete ly
Ġorth o
Ġbide gree
S X
x is
Ġs orts
Ġt iny
Ġgra dually
.} ]
Ġquanti fication
Ġ\T or
\i math
ada ys
mag ic
Ġres cale
Ġ\B R
Ġlot s
Ġemer gence
4 33
L ar
Y ama
h it
Ġcon sum
co set
ĠD etermin
}}\ }$
8 000
B an
$, $\
}} }{(
ĠL O
ĠE l
ĠSpa in
S ource
s J
w ig
ï ¼
in st
ĠM apping
ĠG lobal
ak is
19 1
Ġmix tures
z an
us hed
ĠZ hu
ĠCar leman
Ġ\re q
opp osite
G n
Y es
] >
k lov
\s tep
Ġsymme trized
cy an
la cing
Ġx shift
Ġsub family
ĠK en
ĠQ ED
Ġ '(
ps mall
))\ |_{
Ġac compan
\ autoref
pa p
Ġsatisf action
ci ation
Ġsesqui linear
}\ <
}= &
ĠComp act
Ġsemic on
. '
w l
Ġre active
)) }\\
}\; ,
ĠN y
\n umber
Ġcontinu ing
figura tion
B loch
J R
it ous
ĠS en
ex terior
pres s
ĠFor tunately
Pro bability
dig raph
Ġsynchron ous
Ġsub st
ub s
associa tivity
l iterature
m ouse
bs m
\ verb
k lo
n bd
u j
Ġnumber ing
Ġla sso
Ġlength y
Ġlag rangian
G Y
P op
f itting
ver man
co dimension
00 11
olu mb
Ġcall ing
yield ing
L ions
Ġ\in dic
ĠB regman
Ġtors or
Ġcertific ate
sub modules
ef l
\C F
Lo op
nor med
Ġtextbook s
straight forward
Ġtou ching
Exp ansion
ĠâĦ Ŀ
@ <
C ross
E h
ti les
Ġs ki
Ġp ec
Ġb ru
}} )}\
[\ ![
ĠĠĠĠĠĠĠĠĠĠĠĠĠĠĠĠĠĠĠĠĠĠĠĠĠĠĠĠĠĠĠĠ ĠĠĠĠĠ
Ġlong itudinal
: &
\ ominus
ich ard
Ġ\f h
Ġdiagonal ization
37 6
u lation
re newcommand
}_ *\
ĠG ood
Ġanaly sed
trans versal
ĠBe ijing
combin ed
\ opt
\ iso
}. (
Ġeven ly
He isenberg
oun ted
U ED
ha d
ĠH ill
25 4
Ġhom omorphic
Ġ8 7
ĠĠĠĠĠĠĠĠĠĠĠĠĠĠĠĠĠĠĠĠĠĠĠĠĠĠĠĠĠĠĠĠ ĠĠĠĠĠĠĠĠĠĠĠĠĠĠĠĠ
IR ST
eigen vector
Ġex changed
ĠF our
)) _\
frak g
\b T
Ġsuper gravity
Ġcapa cit
spa cing
\S S
AS M
Ġhetero clinic
or te
}\ },\
ph ic
^* >
limin ation
ĠC n
ne vich
]{ (
Ġresul ted
au gmented
Ġcha p
Ġver batim
ĠBound ary
L Q
ĠS tability
co algebra
ne gligible
ĠPa ul
E LL
H r
Ġma gic
comp osite
ok ed
Ind e
Ġann ular
ĠHir zebruch
omple te
Ġ _{-
s pp
Ġn t
ĠG NS
dec ision
coll ision
n iform
Ġpro d
iter ative
Ġ* (
Ġinterpo late
pen alty
ĠL am
ĠF low
Ġ-- ++(
bb D
Ġintegra tors
Ġ\ne arrow
some times
Gener ic
mathb old
ĠS outh
cont our
analog ous
ASS O
h C
Ġh z
ut ter
ibli o
Ġvisual ization
P y
is se
Ġas ymmetry
ĠA DC
St re
Se lf
25 8
Ġabbre viation
Ġc ite
ĠT ak
ho pf
pm f
)}} ^{
\t d
\math ord
E mail
Ġin accessible
bf p
Ġstrong est
Ġview s
ĠEq n
Ġhelp ed
Ġprecondition ed
Ġexpen se
}\ /
as si
ĠRe la
Ġ\cal A
Ġ^{ p}
refine ment
p tive
t E
_{\ |\
ĠA NR
proof of
Ġmicro local
ma terial
ut y
ĠD ar
$} &
ĠCon cerning
Ġachie vability
bracket s
Ġdepic t
& [
4 20
Ġs po
ll is
Ġal together
rm s
)) )=
Ġ\b lue
Ġup wards
_{* }$
Ġwire tap
Ver tices
pack et
Ġlife time
\ at
ts hor
Ġphy log
$\\ $
g rant
l x
{ <-
ĠC ode
ĠW ould
\b G
\b rac
sen ing
Ġsur ve
Ġ\L ip
, _
Ã Ĭ
)^{ *
side set
Estima tion
tigu ous
ĠKore a
S olutions
T p
r To
}) &=
Ġvar ied
dic tion
I mm
l le
)} :\
Ġh x
Ġdiff use
Ġcal c
\Big gr
abs olutely
Ġration ality
Ġaxio matic
Ġdecla re
C yl
s W
$\ %
Ġes cap
vide d
mon a
ĠSub sequently
]}{ [
Z M
m U
\in ner
25 1
ĠQua d
invol ving
' )-\
S ymmetry
t F
24 2
ĠSu mma
Ġreser voir
Ġdisplace ments
T ao
ĠK ullback
\b U
{| |
]^{ <\
Ġintegrand s
X ]
Ġ\g nl
Ġback haul
Ġthresh olding
Intro duce
\ aa
b lob
Ġ\ str
Ġw rt
ia gram
Ġ\b h
'' ).
Ġpre order
/\ "
ors es
ĠApp roach
\B Z
\var kappa
ashi wara
Ġparac ompact
O me
all en
au ville
Ġbec oming
Ġpla tes
Ġformal ized
m V
to wer
Ġstru ggling
Ġfactor ized
lin na
non empty
When ever
diame ter
' })$.
}) )\\
jec tively
bv p
Non linear
Ġempha sized
Ġdif fraction
M el
se con
ĠI dentity
stru c
AC K
Ġomit ting
Ġ200 8
ĠUniversi dad
Ġhypered ges
tshor ne
b id
^* ))
ĠK err
.} ~\
Complex ity
Ġ\dash v
> :
\ ext
c lean
mp h
ĠK ernel
Ġ&\ ;
numer ics
W igner
ĠH uang
ger be
{$ {\
nte gra
ĠK el
}}\ !\
ĠJ ames
25 3
AG E
ĠSim on
D uring
b ner
de ta
et t
mu tu
ĠB al
ray s
\S O
Ġfra gment
F ormal
\ trans
cal Y
Ġ= [
ĠE vans
Ġ\s D
}^* _{\
35 5
trunc ation
U D
ch uk
Ġl c
ding s
append ices
Ġdenois ing
+ -
ĠT F
ĠH Ã¶lder
'$ ).
Ġ\l c
hand ed
S as
b lank
un ip
vi ve
new ton
Ġ\t c
gn os
Ġ\cal P
Ġhar m
Ġprecondition ing
an nihi
Ġle m
), -
Ġ} |\
ci ent
Ġ\cal H
Continu ity
Ġpro cessed
int en
tric k
bb c
\be g
Ġcu sto
\D eclare
Ġcondens ation
Ġhisto gram
Ġs mart
pp f
di tarily
are lli
Ġsequ ent
Ġintuition istic
all s
}}$ };
\S ubset
K t
Ġk lt
bf b
ĠMulti ple
osco pic
Ġbord ism
x j
ffici ency
ĠDe pending
27 4
triangu lation
' )$-
, +}
\ Ad
)} &=\
Ġdis agree
Ġfli pping
Ġ ice
] }\\
b orn
lar gest
\be gingroup
Ġ\ve ps
>* {}
Ġartin ian
b om
la u
Ġ\b mu
)}\, ,
Ġsubdivision s
M ilnor
b bar
| |$
ma ts
Ġ\n ormal
omp arison
\en eq
ĠSte ps
Ġpec uli
ĠF o
big skip
ĠJ u
\m E
ron skian
ial g
}}\ ]
18 1
Ġremain ed
.& .&
advan tage
n H
}} ~
ĠG D
ey ond
author refmark
ara m
\z @
appear s
Ġintr igu
c learly
Ġn m
ĠP O
ĠP SD
98 7
Ġinterpre ting
fa ir
Ġdete ctors
Ġreplic a
- [\
}} }]
Ġex pander
Ġ{ }&
Ġ$\{ |
Ġemer ges
configura tions
L x
ĠP ra
Ġsub semigroup
Ġar Xiv
})\ ,.
:= {\
ag ier
Ġsp ite
do c
ater ial
>*{} **
- >}[
x w
ĠM alliavin
ĠHa w
Ġdra ft
S at
s ff
Ġco algebras
Ġ\s A
4 80
@ $\
I deal
s an
en umer
su mmand
gin ary
ĠP M
ij n
40 1
ogon ally
Et Al
ĠKirch hoff
K olmogorov
L X
h ari
Ġe ye
su ffic
30 2
Ġfre eness
R g
ma gne
se ll
un a
Ġ\s H
aligned at
\r v
Ġinterpo lant
Ġdiagramma tic
Ġ ),\
A TION
Ġequiv ariance
vis cosity
Max imal
ĠStar t
, $\
I O
b ft
m se
v F
Ġ\c url
ĠA dam
^* )^{\
Ġ: )
Ġlamin ations
ĠYama be
D cal
ĠC os
sub manifold
Ga p
kov ich
Ġhappen ing
Ġconject ural
Ġexecu ted
Ġsq rt
\ is
ĠU S
Ġsemi lattice
ĠIs rael
decomp osable
anchor base
Ġdemand ing
Ġdecoder s
k ur
Ġto mo
ĠF S
Ġ{ -}
og ers
.. <
Ġ\s d
Ġincre mental
bre aking
Ġfra g
' }}{
Ġ\ $
)\ ,\,
mple mentation
]: =\
ud ent
vers als
ple y
Ġtrivial ity
nb hd
Ġ\eqn ref
[ #
h ilb
Ġlink age
Ġinterf ere
ans wer
urst enberg
Ġbor row
D X
U pon
Ġh ot
MM ENT
(# )
G b
K oszul
\ lan
Ġ\ li
ĠK K
Ġpermu ted
Ġattribu te
ol ine
ĠW a
\b pf
)}} [
Ġattach ment
on stant
ĠT au
Ġ\f n
ertain ly
Ġsuper con
Ġworth while
Ġaggre gated
ĠCON J
\ oint
co mma
Ġwhere by
05 5
iden tities
Ġreview s
Main Theorem
HI LE
remain s
Ġex plic
ĠN orm
30 8
Ġcent rally
men tarity
eep ing
adj unction
> $.
ĠBe ing
Ġfla v
)\ }.$$
the enumi
val uate
sen sus
35 6
\pa gestyle
$ })
$ }{$
lo city
22 9
hy dro
coun terexample
ĠSome times
Ġ\ of
ir u
Ġcomp osable
Ġun ambigu
frak p
Ġ\C L
ĠAl tern
reg ard
Ġmotiv ations
Ġantic hain
Ġdisappear s
= }&
O dd
{ }_\
en tangle
ex e
Ġ\b ottomrule
ĠĠĠĠĠĠĠĠĠĠĠĠ ĠĊ
ĠEstima tes
Ġsuscep tible
N g
f j
n oisy
q g
la v
da s
In ner
clu sive
}+ (-
play er
\r g
Ġ\g m
card inality
Ġdepar ture
H op
I RS
Ġ\ tabularnewline
pp ers
Ġv acc
ĠF a
sh ot
ĠZ e
inter face
lot s
syn chron
Ġaccommo date
Ġalphabe ts
\ ct
le dast
text md
ĠG abor
ff f
Ġequ ator
24 9
cont ract
Pas sing
r cs
ti tem
en ario
al ex
Ġcomple xities
hyper plane
Ġ_ )
evan linna
pre l
Ġdisc ard
Ġelectron ic
c am
co chain
inc l
\E ND
dou bling
ĠSel mer
f ct
p T
la k
mp er
_{\ !\
Ġqu oted
Ġfit ted
fun ct
Ġade lic
L infty
\ rest
e lation
ĠM il
Ġcomp art
inter po
mail to
Reg ion
Ġpati ent
F m
ra ise
Ġex trinsic
Ġ+ +
ĠP ad
}^{\ {
Ġ\b I
Ġ) _{\
Ġ\S U
$; \\
âĢ Ķ
Ġepim orphisms
Ġaccompl ish
ĠKP Z
Ġ\ at
Ġs its
ar ts
)}\ ]
my def
Ġavoid ance
J W
R mk
la ch
ĠT its
ĠL E
Ġun weighted
sh aring
86 60
Cl ifford
. {
\ red
\ mi
ra r
pa rov
un neth
ĠE G
pre cise
dd dd
Var i
Ġtreat s
Ġhighl ights
[ x]
in r
ĠI ma
ĠS ET
ome ter
\h size
Ġ_{ a}
Inte restingly
ĠAr guing
cof ib
isc id
F b
de e
ĠF an
)) |^
Ġho c
err ors
may a
M r
})\ ;
ĠĠĠĠĠĠĠĠĠĠĠĠĠĠĠĠĠĠĠĠĠĠĠĠĠĠĠĠĠĠĠĠ ĠĠĠĠĠĠ
Ġ\I P
Ġenviron mental
< {\
\ strut
c df
\C H
}' )\
Ġ200 7
' ;\
V v
f em
m ref
t ory
Ġre ac
dis tr
hea vy
ene tic
Ġbott le
sug ges
B PS
s Z
ĠS OS
ec es
Ġattemp ted
{+ }\
Ġbru te
b ted
s and
Ġb x
ri v
Ġas sis
Ex plicitly
\e v
Ġnovel ty
Mean while
7 20
H al
] ]$,
Ġ\ aa
^{ E}
Ġan ne
po d
]{ #
Ġtechn ologies
Deriv ation
Ġphiloso phy
P es
Ġbi ology
Ġrepro duces
ĠGener ally
. $\\
ri z
Ġgroup ing
}& {\
cr ys
}_+ $,
Po st
ĠR C
^{+ }_
Equ ality
Ġteach er
) ^*$,
n D
al gebroid
Ġul timate
Ġnegle ct
H int
g X
Ġs moother
Ġre inforcement
qu otation
ac cess
}_{+ }\
Ġ\check mark
Ġcompens ate
Alex ander
= ~\
\ rank
b ern
dot size
Ġ\d int
Ġ\g w
uni q
vio let
psmall matrix
Ġ5 12
): \,
ĠComp utational
fre q
ĠMin istry
ĠLog ic
kine tic
Ġconflu ent
K MS
ma kes
Ġco p
ĠB inomial
\h p
Ġretur ning
Sing ular
Ġ\ Alg
ĠW ar
view ed
M HD
U c
{ ]}
triv list
fT gh
_{ {{\
ĠF O
Ar guing
\I rr
ĠOperator s
Ġattribu tes
l iv
)} ]$
Ġcharacter ise
Ġnormal s
local ity
Un ary
AG A
\xymatrix@ R
D p
h ss
Ġ} [
Ġtrans finite
Re iten
ĠComp utation
reson ant
R ange
k an
ri ques
us ch
\| _{
Ġ\le adsto
Ġbi o
]^ (
arg max
Ġsl it
b rho
Â ·
Ġun sure
nti ation
32 6
Ġpref erences
ĠTy pically
> +
}| =\
Ġend ofunctor
xiom C
M esh
ract or
Ġcru de
link ing
< |\
Ġsol en
Ġ\r H
Ġ\hyper link
Ġretrac ts
ol iu
ĠL T
ss ines
}\| (
\ra r
Ġ\top rule
desi red
\ rf
a X
b dot
me x
it self
ĠS em
ĠD NA
}), (
small idx
indic ator
âĦ ĵ
= :\
D ynkin
r hs
w rap
Ġ\ matrix
Ġf irm
Ġm al
\n at
lan es
); }
Ġallow able
flu ct
Z n
es ub
Ġi p
ĠM ed
ĠX Y
Ġlo ading
Ġhere after
Ġyour self
Ġaffect ing
B ri
\ rowcolor
ĠB eta
36 7
Ġbar riers
] =(
c ra
Ġpo ol
nu al
'' }{
ata n
ES S
Ġ\v y
\l ie
Ġinterf ering
fib ers
Ġcli ent
Y e
\ linebreak
ĠA zu
ĠK uramoto
100 1
Ġsnapsh ot
Cox eter
Ġ ^{k}
, }\
A sc
\ mark
le avevmode
ĠE con
}}\ !
Ġparametri zing
,+ }(
dig it
Deriv ative
Ġperme ability
K p
\ ho
n otations
Ġre ordering
Ġsu bar
[...]
