#version: 0.2
Ġ t
h e
Ġ a
Ġ s
Ġ w
n d
Ġt he
e d
Ġ b
Ġt o
Ġa nd
Ġ h
Ġ f
i n
Ġ T
Ġw a
r e
i t
o u
Ġ l
Ġ d
Ġ c
Ġ p
a y
Ġ m
e r
Ġwa s
o m
ĠT he
Ġ he
i s
a r
Ġ n
i m
o n
Ġs a
i d
l l
Ġh a
Ġ g
a t
Ġ S
in g
o t
e n
a n
l e
o r
i r
a m
e t
Ġ H
Ġ it
Ġt h
i g
ĠThe y
Ġ in
i l
Ġp l
ĠH e
Ġ "
o w
v er
r i
u t
Ġb e
Ġ u
Ġsa id
Ġpl ay
it h
Ġd ay
Ġw ith
p p
O n
Ġ o
Ġ y
o o
k ed
Ġ r
Ġhe r
c e
Ġ I
ĠS he
l d
ĠT im
Ġh is
Ġs t
k e
Ġ e
Ġb ig
n t
c k
Ġy ou
ver y
s t
v e
e nd
Ġ on
u n
Ġha pp
ri end
Ġf riend
a ll
il y
Ġ L
Ġthe y
Ġw e
Ġha d
Ġn ot
Ġl i
Ġu p
he r
Ġwa nt
Ġo f
a d
it t
s e
Ġ B
Ġd o
Ġhapp y
en t
Ġ very
Ġ M
e s
Ġth at
Ġsa w
On e
' s
ou ld
Ġm om
Ġf or
Ġs h
itt le
Ġl ittle
Ġs o
Ġs he
c h
im e
Ġn e
Ġn am
. "
Ġt ime
Ġ k
ou nd
Ġthe re
Ġnam ed
Ġs m
Ġb o
Ġwe re
ĠL ily
Ġwant ed
Ġb ut
ou t
T he
Ġfriend s
v ed
! "
h t
ĠT om
ir d
e l
Ġb ird
a l
Ġa n
a ke
Ġto o
om e
ĠI t
u g
id e
Ġw ent
Ġw h
Ġhe l
On ce
Ġ is
Ġa ll
Ġhel p
u e
Ġl oo
Ġl o
t er
Ġ A
Ġup on
r y
o re
i nd
Ġf un
g et
Ġto y
i ll
am e
Ġa s
Ġa t
r a
Ġ j
Ġd id
get her
Ġ re
u r
Ġs e
Ġto gether
a ck
Ġc at
l y
Ġt re
oo d
i c
t ed
Ġdo g
Ġc ould
Ġc an
Ġthe ir
ar d
e c
ar k
Ġg ir
Ġplay ed
Ġh im
Ġb all
? "
Ġgir l
w ay
Ġr o
Ġg o
he d
m y
Ġa re
Ġ out
Ġl e
Ġf r
a in
Ġk n
he n
Ġthe m
u m
' t
a x
Ġsa d
u l
Ġbo y
Ġtre e
ot her
Ġha ve
Ġm an
Ġc l
Ġlo ved
Ġloo ked
ou g
Ġf ound
Ġs p
Ġst ar
ĠS ue
on e
h ing
Ġs c
Ġb ack
ow n
ĠM ax
a re
Ġli ke
f ul
s ide
Ġm e
Ġbe c
Ġp ark
ig ht
on g
Ġc ar
o p
el t
Ġ One
Ġli ked
Ġw ould
Ġm ake
r ound
Ġl a
Ġf a
Ġf elt
Y ou
Ġ W
e ll
Ġse e
ĠB ut
om et
Ġas ked
a g
Ġne w
Ġn o
i ce
ĠS am
ou se
Ġstar ted
ar ed
Ġc ame
ĠB en
Ġa l
Ġ other
oug ht
il ed
Ġs omet
Ġa g
Ġg ood
Ġsm all
s s
Ġb r
Ġsm iled
Ġs ay
ri ed
ad e
ing s
Ġ Ċ
o b
p ot
Ġw or
Ġf ind
Ġe x
i a
Ġa way
t y
Ġp ut
Ġwh at
Ġsomet hing
Ġc o
Ġfr om
Ġm ade
Ġth ought
en ed
Ġh ome
Ġplay ing
oo k
Ġe very
Ġwa l
Ġm u
u c
a ch
ar n
ĠS pot
Ġr an
i le
Ġ F
i e
Ġ J
a ve
Ġag ain
Ġs ome
Ġla ug
d d
Ġh ouse
Ġd own
Ġf l
k ing
Ġtoo k
Ġsc ared
Ġp r
n y
u re
Ġtoy s
Ġle arn
Ġ You
i f
Ġw ill
Ġbo x
i ck
re t
a b
e p
Ġm y
Ġa round
Ġth ings
Ġyou r
ou d
Ġb l
u ck
Ġw hen
Ġli ved
is h
Ġf e
Ġthe n
Ġs un
a s
Ġs w
, "
Ġc h
u s
pp ed
Ġa b
ĠM ia
an k
Ġg et
uc y
T im
um p
T h
Ġl ot
is t
ot h
Ġt ried
a p
Ġkn ow
Ġsay s
Ġg ot
it ed
Ġwh o
Ġkn e
u st
Ġman y
nd er
Ġin t
Ġab out
L ily
Ġp ret
Ġd ec
Ġan y
Ġr ed
Ġ D
i ve
Ġkne w
a ce
ou s
Ġm ore
is e
Ġc are
all y
Ġp ic
a u
q u
Ġh ug
ĠL ucy
Ġlearn ed
Ġp o
Ġwa ter
f ter
Ġ v
Ġbec ame
Ġbe st
au se
Ġo p
Ġg re
Ġex c
ur p
way s
â Ģ
Ġout side
Ġlaug hed
Ġloo k
Ġal ways
Ġdec id
Ġsh ow
Ġu n
an t
ĠB ob
Ġro om
f e
Ġdecid ed
Ġh o
Ġbec ause
ĠS o
Ġint o
Ġe at
it e
Ġj ump
ĠA nd
Ġp e
Ġb oth
er s
ĠM om
Ġd ad
The y
u dd
Ġ ke
Ġon e
n n
Ġth is
Ġexc ited
Ġfa st
Ġn ice
Ġ E
Ġfe el
T om
Y es
Ġr un
Ġl ong
Ġto ld
Ġs k
Ġa m
urp r
ou r
Ġin side
u ll
Ġt r
Ġs urpr
Ġm o
in k
Ġpret ty
in y
Ġs or
W h
Ġt ake
o g
Ġe ach
Ġs l
Ġg ave
Ġmu ch
Ġg ra
le w
nn a
Ġro ck
Ġh ow
Ġst r
ar a
im al
Ġan imal
g ed
Ġne ed
Ġth an
B ut
v en
et ter
Ġto w
Ġ or
Ġ C
Ġu nder
es s
Ġo ld
Ġsor ry
g e
is ed
r o
ur t
Ġc le
Ġf ish
Ġwal ked
Ġcl o
a nd
Ġbe ar
f t
a se
a st
Ġha nd
ur n
ĠW e
Ġk ind
ĠH is
Ġt e
he re
Ġhapp ened
Ġj ust
Ġfl ow
Ġf ood
Ġl ist
Ġdid n
Ġanimal s
Ġh ig
p l
Ġne ar
Ġwa t
Ġ ide
Ġt ry
c hed
Ġsk y
in e
Ġs n
v ing
Ġf i
r om
Ġu s
Ġide a
Ġb etter
ĠA my
Ġb ug
Ġhe ard
g ry
Ġit s
Ġt w
Ġl et
p ec
at e
ab le
f f
Ġ en
Ġcare ful
Ġsh are
e x
Ġ if
Th ank
Ġf ly
M om
Ġst or
i al
Ġf lew
m ore
Ġany more
ĠT h
Ġsp ec
Ġspec ial
i on
Ġc om
Ġlot s
Ġne ver
Ġb y
l f
re am
Ġd an
Ġb u
Ġf o
Ġw ind
Ġd on
Ġt al
Ġcle an
or t
Ġg r
Ġlo ve
r m
b er
Ġe nd
ĠThe n
op le
Ġe ven
Ġm ag
Ġh ard
Ġsh iny
udd en
Ġf ore
Ġo ver
Ġc ake
a k
Ġb ook
Ġco l
Ġt urn
Ġf am
Ġb ad
Ġsa fe
Ġa fter
ad y
ĠA nna
udden ly
Ġpe ople
Ġpr oud
ĠE very
Ġsurpr ised
pec ted
L et
Ġhig h
Ġc u
Ġh urt
Ġc ome
im b
ard en
Ġdo or
Ġg arden
Ġg round
b b
Ġop ened
Ġpic ked
Ġl oud
Ġcl imb
ex pected
Ġun expected
Ġg l
Ġc he
il d
Ġ im
A s
Ġg ive
Ġwa y
a il
' m
Ġthan ked
Ġcol or
Ġbl ue
Ġst ill
Ġe ver
Ġhug ged
ĠF rom
Ġc all
Ġf ar
i p
ĠH er
ĠS ara
ĠW hen
N o
Ġof f
Ġmag ic
i z
oug h
ag e
um my
Ġ K
Ġjump ed
Ġsh ould
Ġfam ily
Ġp ar
oo l
Ġk id
Ġsm ile
he s
u ff
Ġpl ace
k ay
Ġwal k
Ġn ow
c t
ĠI n
Ġgre at
e m
t ure
Ġ qu
Ġstr ong
le s
Ġst ay
Ġu nt
Ġst o
a ut
Ġfore st
an e
Ġb ra
itt y
Ġ P
Ġfr og
Ġbr o
Ġunt il
o on
Ġbe aut
d y
Ġs qu
Ġst ick
x t
Ġne xt
Ġbo at
le ase
n ing
Ġhapp ily
Ġlist en
a king
Ġkid s
Ġt ra
i es
i ful
Ġbeaut iful
Ġa pp
t h
Ġhelp ed
Ġd ra
Ġshow ed
Ġclo s
b e
Ġim p
Ġstor y
un ny
o y
Ġwh ile
Ġtow n
re l
p t
Ġr ain
re ss
Ġpic ture
Ġbe ing
Ġre m
Ġevery one
I t
ar y
re e
Ġm or
Ġha t
Ġcall ed
Ġm et
Ġsto pped
Ġa d
Ġg ame
N ow
H e
C an
Ġan gry
g er
uff y
Ġop en
Ġw o
Ġtr uck
Ġke ep
Ġso ft
W hen
Ġc ry
Ġy ummy
Ġlo st
Ġb ed
ĠL et
ĠS ally
Ġwa rm
b y
v ent
Ġbra ve
Ġm ouse
ĠW h
Ġat e
ĠK itty
is hed
Ġd e
f ore
Ġdo ll
s o
Ġcould n
Ġwat ch
Ġle ave
Ġal so
dd ed
Ġf ell
Ġgre en
Ġfa ce
Ġtw o
g an
is s
Ġflow ers
b it
Wh at
Ġ R
b le
Ġno ise
ab bit
ir st
ow l
Ġw here
a z
o ck
Ġso on
se lf
Ġsl ide
Ġr abbit
Ġho le
l uffy
Ġbe fore
ir rel
Ġp us
ir ed
Ġsa t
ill y
Ġhe ar
Ġu se
H i
âĢ Ŀ
Ġke pt
Ġp a
âĢ ľ
Th at
Ġsqu irrel
e ar
The n
m a
Ġno dded
Ġex pl
Ġst ore
Ġc ook
Ġhand s
L ook
Ġbird s
Ġp ain
Ġgo ing
Ġfun ny
Ġha ving
d ay
Ġs ing
ay be
u ch
Ġe y
a ug
Ġcat ch
aug ht
ĠC an
ĠF luffy
u it
Ġy ell
Ġth ink
le ep
Ġc ra
Ġf in
B en
Ġb re
Ġfi x
Ġt ired
Ġb unny
Ġus ed
Ġloo king
Ġb us
an ge
a ir
Ġwor k
Ġw r
Ġ our
Ġp ull
W e
Ġth r
t hing
Ġ Now
Ġwa it
Ġk it
Ġs ound
t ing
Ġj o
Ġha s
Ġ G
Ġme an
Ġpo nd
em ber
Ġbe h
Ġd r
Ġsun ny
l ed
Ġother s
Ġas k
n g
c hen
Ġkit chen
Ġtal k
Ġfl o
Ġd if
Ġp ie
re w
ĠJ o
Ġhe ad
Ġre al
Ġf irst
Ġt ri
Ġmom my
Ġey es
ell o
Ġimp ort
H ello
Ġfa v
at h
j oy
Ġ z
Ġrem ember
Ġr ight
Ġflow er
Ġc on
Ġm ess
Ġpar ty
Ġco ld
ĠD o
Ġv o
Ġsw e
i ous
Ġsa nd
Ġ âĢľ
a c
or n
Ġr ace
Ġcu ri
im es
Ġimport ant
Ġd uck
Ġmor al
Ġsh ared
z y
ou nt
ĠJ ack
Ġ ice
Ġo kay
Ġad vent
Ġwor ked
ll ow
A t
Ġen joy
Ġd ress
Ġbr ight
Ġm aking
Ġcuri ous
Ġ own
Ġt all
Ġd ir
Ġh op
re ed
Ġh id
Ġfav or
Ġ ri
h n
Ġs leep
Ġd is
Ġfavor ite
W ow
Ġth ing
Ġbe gan
Ġm on
Ġb ag
Ġh ill
D on
Ġcl a
Ġdra w
Ġre st
Ġhe re
Ġy ard
Ġt ell
ĠF in
st er
Ġwat ched
q ue
Ġfo llow
Ġmo ve
Ġbe l
ec t
Ġc ut
Ġn ight
Ġag reed
Ġp ick
c o
Ġbl ock
Ġh un
ap er
ll y
Ġst op
Ġbeh ind
ĠTh is
Ġsurpr ise
i ed
Ġsh o
Ġh ot
A fter
Ġt able
Ġgra ss
Ġwor ry
Ġd ark
Ġtre es
Ġvo ice
Ġwal king
fe re
Ġflo or
Ġfar m
Ġli on
Ġto p
Ġdif fere
Ġp lease
Ġr u
Ġs ong
Ġbut ter
Ġt ail
Ġswe et
M ax
Ġsh out
Ġcolor s
Ġre ad
ĠD ad
Ġl ady
Ġfor g
is y
Ġleave s
Ġclos er
ig n
Ġcar s
Ġturn ed
Ġneed ed
Ġt ast
Wh y
Ġw ood
ar ing
Ġc ried
Ġdiffere nt
Ġlaug h
Ġd el
Ġpie ce
âĢ Ļ
er ed
ĠM r
Ġro ll
Ġadvent ure
Ġfi re
Ġdo es
i ke
Ġc r
Ġhun gry
Ġha ir
ĠS uddenly
Ġp aper
Ġfeel ing
Ġyell ow
Ġf ull
Ġpr in
S ue
b o
Ġto uch
ĠA s
A nna
S am
Ġw et
Ġfriend ly
Ġp er
o om
k en
c ked
a ched
Ġsw ing
Ġfr uit
i ent
Ġbro ken
Ġre ady
by e
Ġpr om
pp y
ĠTh at
Ġan other
Ġl ight
Ġpret end
Ġdan ce
at er
Ġclimb ed
w here
Ġlist ened
ĠBob o
Ġdan c
Ġrun ning
Ġon ly
Ġpl an
Ġg one
Ġsw im
bb ed
S uddenly
Ġtra in
s h
il a
nd ma
S ara
ĠJ ane
Ġclo se
a v
S he
Ġsm ell
S o
ab y
Ġam az
Ġho ld
Ġblock s
Ġwo nder
ĠTim my
Ġre pl
ĠA ll
Ġbutter f
Ġse es
Ġre ached
Ġwa ll
Ġp u
one y
r ed
Ġsl ow
Ġhelp ing
Ġd ri
Ġc ream
Ġc ool
Ġgl ad
a f
Ġa nt
Ġl ess
Ġbe en
Ġgood bye
Ġa c
Ġf ight
at her
M ia
Ġpus hed
ic ed
Ġfa ir
Ġmu st
Ġh ide
Ġmom ent
Ġwind ow
Ġ O
Ġs it
Ġball oon
Ġsn ow
Ġch ild
Ġexpl ore
ĠEvery one
Ġa r
Ġw ished
Ġb aby
Ġd one
Ġwa g
Ġst e
Ġbu y
Ġst uck
Ġper f
Ġth ank
Ġm ight
ic y
Ġnam e
iz ed
Ġtry ing
Ġb it
Ġcom ing
Ġb ar
Ġqu ick
Ġf all
Ġapp le
as h
Ġsc ary
Ġlook s
Ġbu ild
Ġdo ing
Ġw in
Ġunder st
a isy
Ġd in
Ġd ream
Ġdir ty
Ġhe ld
am es
Ġbook s
Ġm ar
I n
Ġbutterf ly
Ġle ft
Ġshout ed
Ġc ount
Ġrepl ied
av y
Ġre ach
Ġt iny
Ġthr ough
ot t
Ġd ro
Ġwh y
Ġa ir
Ġbr an
Ġla nd
ke y
Ġth ree
Ġpull ed
Ġsp l
Ġgr ow
Ġtre at
Ġbr other
Ġw ise
Ġwood s
Ġs ure
' re
Ġch air
i x
Ġm at
in s
Ġse en
Ġp ink
Ġcla pped
Ġpl ant
Ġ owl
el y
Ġcu p
ie ld
Ġsomet imes
and y
Ġf ill
Ġcl oud
as k
Ġsw am
out h
Ġj ob
Ġcolor ful
Ġremember ed
Ġbig ger
Ġne st
Ġm outh
p e
O kay
Ġless on
Ġjo in
Ġc re
p h
ĠThe re
ou p
ro om
Ġwa ved
ar t
udd y
Ġgra bbed
Ġstay ed
O h
Ġpain t
Th is
Ġcl ot
Ġcon t
Ġclot hes
Ġ ve
ow er
ĠA fter
Ġwa ited
Ġquick ly
c le
Ġwor d
Ġbro ke
uck y
Ġg ames
Ġc ast
Ġb lew
Ġg ent
ĠMom my
Ġenjoy ed
Ġnot iced
J o
ri es
at ion
Ġs et
Ġlike s
Ġpicture s
t on
d e
Ġse a
Ġhe avy
Ġmu s
Ġal one
Ġg if
as ure
Ġany thing
Ġsp ot
Ġm iss
Ġho pped
Ġwor ld
Ġturn s
or m
Ġy ear
d er
Ġb ott
Ġp at
Ġp ot
Ġp en
l c
H er
Ġm ix
Ġa rm
Ġb ike
Ġt ight
Ġevery where
Ġw on
L ucy
Ġtow er
Ġth rew
Ġhim self
Ġfollow ed
ĠB uddy
Ġr ide
m an
Ġj u
le ss
Ġj e
B ob
am p
ap e
Ġcom p
Ġke y
r ow
" .
Ġwh ite
ct or
Ġwr ong
ĠD aisy
Ġmake s
ĠWh at
Ġbre ak
Ġbl ack
are nt
S pot
n er
D o
e e
Ġde ep
th y
Ġmus ic
Ġpo l
Ġdel ic
ce ss
u ed
Ġforg ot
Ġbe e
Ġp arent
Ġcast le
o lly
ve s
Ġe m
i et
Ġwe ar
Ġh it
is ter
ou n
Ġqu iet
Ġr ound
an ce
Ġst u
Ġdanc ed
Ġv is
Ġwant s
ull y
Ġle af
Ġmon ster
Ġn ap
ĠJo hn
Ġunderst and
Ġb owl
an g
o s
r ot
Ġb or
re n
Ġtal ked
itt en
Ġd ry
Ġfast er
Ġcook ies
Ġbr ought
f ully
Ġle g
ro ss
Ġm um
z z
Ġs ide
F rom
t s
Ġs ign
ĠIn side
Ġsm art
c y
Ġrock s
Ġsome one
H is
Ġpo in
Ġse c
Ġsh aring
Ġfo x
Ġwe ll
Ġre l
Ġhapp en
Ġre s
Ġbut ton
Ġbran ch
ĠL ila
Ġre ally
Ġfin ished
en ce
ard s
Ġdin ner
Ġs ister
Ġfly ing
ed dy
Ġcont in
Ġwor ried
Ġe le
ĠT o
Ġvis it
ĠM aybe
Ġbe ach
Ġ que
Ġsec ret
Ġe l
ĠSara h
Ġk ing
Jo hn
g y
Ġto day
Ġperf ect
Ġri ver
Ġevery thing
Ġs illy
Ġsh in
ĠJo e
Ġdan ger
i pp
Ġchild ren
Ġg u
ĠSo on
Ġf ield
Ġfill ed
Ġf ur
Ġel se
Ġsmile s
Ġwe lc
ĠA t
Ġw ish
ĠE m
Ġsa ng
Wh ile
Ġg i
z e
Ġp udd
Ġsn ack
Ġeat ing
Ġreal ized
Ġpiece s
Ġprom ised
or d
Ġsp r
Ġp ig
Ġf ree
Ġcontin ued
Ġb ite
e ad
Ġparent s
Ġcare fully
Ġe ar
itt ing
at ed
J ust
Ġj ar
M aybe
Ġc ow
A my
Ġbl ank
Ġdra g
st ead
Ġor ange
Ġmu d
Ġcry ing
Ġblank et
Ġen ough
Ġroll ed
ck et
Ġs oup
Ġsa il
Ġp urp
im i
Ġy es
a le
Ġdr ink
Ġsn ake
Ġb oun
se s
Ġp et
Ġcra b
Ġlaug hing
Ġthr ow
Ġfair y
Ġword s
Ġamaz ing
Ġb ath
i ch
Ġpurp le
Ġ Z
Ġwith out
i re
Ġbott le
ĠB illy
Ġgif t
Ġgra ndma
F in
us ed
on s
Ġp ast
Ġm oney
i ver
f ort
Ġm ail
ĠG ra
Ġbar ked
Ġwag ged
Ġat t
ch ool
Ġmon key
Ġdo ctor
Ġbr own
un ch
Ġmo ved
is es
Ġask s
Ġget ting
Ġclos ed
Ġw he
Ġwelc ome
Ġs u
Ġc andy
Ġs chool
Ġmor ning
Ġown er
g g
Ġl on
Ġm other
Ġhig her
Ġs itting
Ġtre asure
. âĢĿ
Ġsm o
! âĢĿ
Ġdanger ous
Ġlon ely
ĠC h
Ġli ving
Ġapp les
us h
Ġsh op
Ġstr ange
as ed
ve l
Ġshin ing
Ġro ad
ĠTom my
Ġcre at
e re
un a
Ġpa w
Ġr a
e y
Ġsho es
Ġp re
Ġ -
i ble
Ġst re
Ġtal king
al thy
Ġc aught
Ġe gg
Ġpa ss
m e
o l
Ġl ake
Ġrun s
Ġb uck
Ġl etter
Ġw ings
Ġche e
f ish
Ġm ad
Ġf an
ask et
Ġb asket
a ss
Ġdrag on
a pp
Mom my
s et
ck s
Ġst one
Ġthink s
Ġst and
Ġdelic ious
Ġno se
Ġpudd le
Ġto m
ĠM imi
ĠB l
Ġbel ie
Ġfarm er
Ġsa me
Ġyear s
bo ard
Ġt eddy
Ġb at
is k
it ch
Ġm ine
Ġse ar
Ġco at
c hes
ig h
Ġday s
Ġbr ing
Ġgent le
Ġf it
Ġstar t
Ġfin ally
Ġwh ist
Ġcr ay
Ġsc ream
ig g
Ġk ite
Ġp ill
ph ant
ar m
Ġv ill
Ġch o
Ġsing ing
ell a
s w
Ġtast y
in ed
Ġp h
Ġb en
Ġtr ou
Ġher self
Ġshe ll
Ġhop ed
Ġan sw
Ġw ore
Ġsw ings
s y
Ġh or
Ġbel ong
P lease
Ġpus h
Ġbus h
isk ers
Ġcar rot
Ġar ri
aught y
Ġte ach
b ow
Ġn aughty
ra ct
Ġele phant
Ġdro pped
Ġsh ap
Ġco ll
i er
Ġte ac
s c
e my
Ġwo ke
Ġp ile
b all
Ġhid ing
Ġc our
is a
er ry
Ġto uc
Ġpu ppy
Ġm in
' ll
Ġsee m
ll ie
Ġtw ins
am a
Ġl unch
Ġb ow
Ġsa ck
Ġp ers
Ġcour se
Ġche ered
Ġshap es
ĠJ en
Ġgre w
f used
Ġro pe
Ġvill age
ir th
irth day
Ġju ice
i pped
Ġrain bow
Ġsp in
O K
Ġsh ook
J ack
Ġsp oon
Ġben ch
Ġstre et
Ġf ence
Ġcut e
ĠF red
Ġro b
Ġn ut
Ġchee se
Ġpr ob
Ġtouc hed
id ge
co l
Ġj oy
ĠWh iskers
Ġarri ved
Ġse ed
Ġwa r
Ġteac her
Ġc orn
G ood
Ġab le
Ġfore ver
Ġbe ll
Ġfe w
Ġcar ry
Ġmo st
Ġpl ane
ĠBl ue
Ġe as
le m
Ġsound s
ll a
Ġd es
Ġsp o
Ġprob lem
Ġb irthday
Ġp ower
Ġin c
b r
um b
Ġbug s
il k
Ġwonder ful
Ġdoll s
Ġbus y
at o
ir p
Ġw ra
e b
Ġprom ise
ĠTh ank
Ġfeel s
i an
ĠEm ma
et er
Ġbre ad
Fin ally
Ġne ck
Ġm ilk
Ġrob ot
Ġre c
Ġsh y
ount ain
Ġk iss
ir t
Ġhear t
Ġb and
Ġc ave
Ġpo cket
u b
Ġhelp ful
g ly
Ġslow ly
Ġbelie ve
Ġsh ake
ump y
e ared
Ġpat ient
Ġp op
Ġo b
ar p
Ġli ve
Ġstor m
Ġhold ing
Ġu gly
Ġtow ards
Ġup set
Ġt urt
Ġsh r
ad ow
Ġco ver
Ġk itten
o st
ĠR emy
Ġsh arp
Ġdis app
Ġstor ies
Ġs uc
Ġh oney
o ve
ĠB ella
re ad
Ġno ises
ĠL e
Ġball s
Ġc ir
Ġsp ark
Ġgr ay
Ġd ist
Ġdir t
og gy
Ġl ate
Ġdri ver
Ġse at
Ġbuck et
Ġme et
Ġyou ng
Ġamaz ed
Ġturt le
al m
Ġsp id
Ġtreat s
Ġmagic al
u nt
Ġgl ow
at or
Ġsee k
Ġz oom
Ġle m
Ġsand w
fort able
um ber
Ġtri p
Ġm ist
our n
Ġspl as
Ġm ark
Ġj ourn
Ġfo ld
Ġm ach
Ġpu zz
Ġpar t
Ġhor se
Ġw ild
Ġor gan
Ġprin cess
l ing
pp ing
oo se
Ġcook ie
S ure
Ġhug s
en s
ĠM ark
Ġt aking
un g
Ġwhe el
ep end
Ġcl oth
ĠL isa
Ġs ug
Ġin stead
Ġbu bb
Ġstr ing
Ġn et
Ġdro ve
Ġru de
il ing
Ġhug e
ĠJ im
Ġco in
Ġstar s
Ġfight ing
B e
Ġsp icy
Ġl ucky
O f
Ġcra w
He y
Ġb one
ĠGra ndma
Ġin v
or s
n ot
Ġc a
Ġfor get
pp er
u p
Ġd i
a ur
Ġsa l
ĠFin ally
Ġcan not
Ġwhist le
Ġc ard
Ġs ick
Ġp ath
Ġc ou
Ġspid er
Ġw ide
L ila
Ġsnow man
Ġfo ot
Ġli fe
Ġsong s
Ġpill ow
iz e
ĠJ ust
ul ar
L ater
e st
ĠA nn
Ġfix ed
er t
Ġgi ant
op h
ri ll
Ġno d
Ġbo ss
Ġcom es
Ġla st
Ġjo ke
Ġmo on
Ġtast e
d en
Ġmach ine
Ġgr umpy
Ġwa ve
Ġth in
Ġdri ve
Ġcar t
Ġas h
Ġs er
Ġgra b
Ġpe ace
Ġdad dy
l ower
Ġ On
ĠLe o
Ġs el
er y
Ġshe lf
Ġhid den
ere st
Ġs uddenly
Ġwas n
Ġwr ite
Ġland ed
Ġcon fused
Ġr ing
Ġch ange
Ġwor m
Ġint erest
Ġch ased
Ġfruit s
Ġs our
oo p
Ġmy ster
Ġb ark
it y
Ġr ad
Ġsmo oth
ĠC ome
Ġadventure s
Ġv al
Ġste pped
Ġf le
op e
Ġo ven
Ġtake s
Ġmiss ed
Ġsel fish
k in
Ġshe ep
Ġmess y
Ġac ross
T o
Ġ ent
Ġex p
Ġc e
Ġl ater
ell y
t o
if e
Ġstick s
Ġ N
Ġt ie
ĠL una
e ver
Ġb ought
Ġst ep
S t
Ġd rew
Ġte a
pec t
irp y
Ġb an
bo x
? âĢĿ
Ġwas h
Ġl ay
Ġp our
Ġbe ak
Ġj og
o se
Ġgr ate
Ġduck s
Ġsp e
Ġleg s
ug g
Ġf il
ĠB u
Ġem p
m er
Ġhop e
Ġemp ty
Ġsl id
Ġfe ather
Ġsleep y
Ġdr um
am ed
ar s
et h
Ġz oo
Ġp an
Ġph one
Ġgrate ful
Ġf ing
ion s
Ġlem on
ĠC at
le t
Ġcle ver
ĠM olly
Ġsmell y
Ġim ag
Ġspl ash
Ġinterest ing
ĠJ ill
Ġsa ve
Ġch ick
Ġc alm
Ġm ed
Ġwatch ing
S oon
iz zy
iz z
Ġpl ate
Ġ ign
y ard
Ġcloud s
Ġban an
Ġl ine
Ġface s
Ġb a
Ġa ct
Ġli ft
Ġth ough
Ġwo lf
Ġback yard
w el
Ġseem ed
Ġdog s
Ġspr ay
C ome
Ġpr ot
Ġwho le
Ġm ot
Ġfan cy
ĠDad dy
Ġque st
Ġarm s
Ġpuzz le
Ġhe althy
Ġsu pp
w ard
Ġfin ish
er ly
Ġal ong
ll o
Ġrock et
Ġexpl ain
d ge
Ġeas y
Ġje wel
on t
Ġp ract
Ġj elly
ĠCh irpy
Ġt id
Ġf ake
Ġcray ons
Ġwonder ed
Ġm aybe
Ġsc ar
Ġsh ip
Ġnot hing
one st
Ġem b
ig er
Ġp ool
Ġlong er
Ġany one
ĠB e
ĠJ erry
u ally
Ġfr ont
Ġwor king
Ġgive s
ir r
Ġp ack
Ġs uch
ĠB unny
o cked
Ġboss y
ĠD oggy
Ġtrou ble
m ent
Ġsmell ed
Ġsa ved
Ġp in
ra ss
Ġne igh
ar rass
it ing
Ġh onest
ar ge
Ġa v
Ġemb arrass
Ġv an
Ġforg ive
Ġtid y
Ġwe ak
Ġput s
ur se
un k
Ġsh irt
Ġk ick
ĠW ith
Ġm ind
ĠO llie
Ġneigh b
Ġplant s
ĠMom o
Ġso l
Ġgent ly
Ġco zy
or row
m ing
Ġexpl or
Ġmist ake
Ġy og
s p
oom y
o c
Ġpoin ted
Ġl ad
Ġa f
Ġst ood
Ġon to
or k
Ġwait ing
Ġjump ing
Ġprin ce
Ġc ross
Ġlo ck
Ġche er
Ġque en
ĠWh y
ĠM ary
Ġw ing
on es
Ġl arge
Ġlove ly
w e
ul t
Ġs ur
Ġre t
Ġde er
A nd
Ġche w
Ġcou ch
Ġb al
Ġst ret
aught er
ĠThe ir
er a
Ġplace s
ĠM y
Ġlad der
Ġret urn
oo f
ra id
Ġant s
Ġd ish
Ġaf raid
Ġclean ed
Ġtom orrow
Ġbuild ing
Ġsandw ich
Ġpers on
S ally
n ed
Ġpretend ed
Ġboun ce
Ġw ip
ge st
Ġmat ch
Ġri ch
u ce
Ġp izz
Ġg ather
Ġsear ch
Ġbor ing
om an
ĠS omet
Ġte eth
K itty
Ġh um
M y
Ġd aughter
ac ed
Ġw oman
Ġscar f
Ġgo es
ĠTo gether
Ġla w
Ġst ra
Ġswim ming
Ġfur ry
Ġsplas hed
Ġlove s
Ġp ri
Ġtr ue
Ġscream ed
Ġla zy
Ġg en
Ġansw er
Ġn umber
Ġe ag
Ġash amed
Ġpizz a
Ġapp eared
a w
Ġfe ar
Ġnear by
Ġpower ful
Ġfl ag
Ġha ng
v ous
Ġcl own
ĠS t
e k
Ġch ase
Ġmot or
Ġwa nd
ĠT V
Ġru b
Ġsuc cess
Ġcho col
ĠI f
Ġcreat ive
Ġtr ust
Ġwe aring
Ġno isy
Ġmat ter
p a
Ġd ig
Ġhe llo
Ġn er
Ġtoo l
Ġsa f
ĠB ird
ad o
Ġner vous
el p
Ġte st
Ġsm iling
Ġso ld
ic ked
o ppy
os aur
Ġcir cle
m b
Ġm ap
Ġdr ank
Ġcla ss
Ġtri es
Ġchocol ate
ĠP lease
Ġimp ress
Ġkne e
Ġgen er
Ġdin osaur
Ġpol ite
Ġm irr
ĠBob by
ĠT iny
Ġballoon s
Ġgo ld
Ġr are
Ġprot ect
Ġc and
St op
Ġcar ried
ĠG o
ens ive
Ġa p
Ġsh adow
Ġmirr or
ĠD on
Ġba ld
Ġg un
Ġexp ensive
in a
Ġre g
Ġmyster ious
if f
Ġp ump
ĠS p
Ġnot e
Ġher o
Ġmar ch
Ġh ar
Ġ icy
ar l
Ġres pect
Ġwe ird
Ġsn ee
Ġg ate
Ġc ri
Ġso ap
ra g
ut e
iss ors
Ġpo or
Ġthe se
Ġtow el
Ġwh ale
Ġfe et
Ġt ape
Ġd izzy
itt er
Ġgener ous
nd pa
Ġpre s
ĠBen ny
Ġdis co
H elp
n ic
vent ually
Ġpic nic
Ġle ad
Ġm ic
Ġs que
Ġembarrass ed
Ġjourn ey
Ġsug ar
sc ape
is p
Ġpeace ful
Ġbo ot
Ġt ent
Ġf at
ĠB ear
Ġsc issors
Ġtast ed
Ġyell ed
Tom my
Ġt ick
Ġm el
Ġbr ush
Ġdanc ing
Ġgl ue
Ġcl ap
Ġr ough
Ġh ur
Ġbr idge
ot e
n ess
Ġdec or
Ġclos et
Ġcr own
Ġst ir
u al
Ġprin t
ĠSomet imes
air s
ow ed
im p
ĠH ow
um e
Ġc ap
Ġl amp
Ġv ase
Ġsc are
le br
Ġrel ie
l ves
Ġe ld
an y
Ġte le
Ġce lebr
Ġg igg
Ġwh isp
Ġlo g
Ġsc o
Ġbl ow
Ġpain ted
ĠD ucky
Ġp ay
er ries
Ġw is
Ġb erries
Ġmix ed
Ġsp read
Ġc age
Ġwould n
Ġb ake
r ob
get able
Ġm ountain
Ġad m
Ġdraw ing
Ġbec ome
Ġfam ous
Ġbe an
Ġkn ocked
Ġn orm
Ġve getable
as p
Ġk icked
ust r
Ġsh ark
Ġinc red
Ġlo se
s er
Ġnorm al
Ġwra p
c ed
Ġgr oup
Ġth ick
Ġ 3
Ġf ine
Ġgl ass
Ġign or
Ġclo ck
Ġte am
Ġeld erly
Ġcle ar
Ġcorn er
Ġfr ustr
Ġmight y
rob e
Ġc one
Ġincred ible
ĠB r
ig hed
Ġmom s
D ad
Ġbal ance
Ġso ck
Ġsp ace
Ġj am
rag ile
Ġfr ight
Ġbran ches
Ġorgan ized
Ġro ar
p ort
Ġsw ord
ĠM ama
al ous
Ġgu ess
Ġf ool
Ġse ll
Ġfe ed
ĠS ome
Ġwh ich
Ġh orn
Ġpres ent
Ġje alous
Ġy arn
on y
Ġf ragile
Ġb urn
Ġunderst ood
Ġstu bb
Ġm is
Ġt er
Ġfrustr ated
W here
r ay
Ġho se
c ient
Ġsp ent
Ġsho e
Ġt aught
Ġstubb orn
Ġtw ist
Ġcreat ure
Ġche st
Ġspo iled
Ġrelie ved
Ġan cient
Ġwa ke
i que
Ġfi er
Ġpr ay
Ġfier ce
Ġegg s
Ġc ab
Ġter ri
Ġb arn
Ġpump kin
Ġcom fortable
Ġor d
Ġfright ened
y m
Ġto ug
or ry
Ġun ique
Ġme asure
Ġgo at
Ġwag on
Ġun us
Ġbre ath
Ġfool ish
Ġuse ful
Ġexplor ing
Ġstra w
d le
Ġunus ual
Ġd ug
Ġcl ay
Ġdisco ver
Ġtom ato
ĠP e
Ġde ad
Ġfind ing
Ġpol ice
Ġwr ote
Ġcl um
Ġex am
l ace
Ġwa ves
Ġsqu are
Ġhear s
Ġcab in
Ġtell s
Ġneck lace
Ġd ull
Ġclum sy
Ġtoug h
Ġbubb les
Ġno sy
Ġsear ched
To gether
k n
Ġwas hed
Ġbath room
Ġpaw s
bb y
o nd
an ged
un n
Ġbo ard
kn own
f ic
Ġas king
Ġcra zy
Ġthank ful
Ġb itter
Ġsun f
y al
Ġp ir
Ġdif fic
al k
ber ry
Ġ ind
Ġro se
c il
Ġsw an
Ġbl oom
Ġun known
ĠE lla
Ġcover ed
Ġdiffic ult
Ġpen cil
Ġa dd
Ġfing er
Ġha m
Ġh oop
Ġj et
Ġw itch
Ġdr op
M e
Ġ '
Ġchick en
Ġgl oomy
Ġlo yal
a pped
He re
Ġwe althy
al s
c om
l ight
Ġun l
Ġcat s
Ġend ing
Ġg uit
b led
sh ine
Ġdo ve
Ġjoin ed
Ġc her
an ut
Ġmo v
Ġterri ble
Ġyour s
i ant
ĠR ex
Ġsal ad
ĠAnd y
Ġ U
Ġnut s
Ġr at
g round
Ġt iger
Ġpot ato
Ġm ask
x ible
se lves
Ġval ue
Ġch anged
Ġmo ving
Ġexc iting
orm ous
ĠM any
Ġbo dy
ĠT r
Ġto ast
Ġrec ord
Ġz ip
er p
Ġche ap
Ġdis g
Ġguit ar
irst y
Ġknow ing
Ġadvent ur
Ġyour self
Ġen ormous
Ġhair y
E very
Ġsho ot
ĠBr own
Ġbor ed
Ġpe pper
Ġrem ind
Ġac orn
Ġadventur ous
or y
Ġsun shine
Ġsmall er
l and
Ġhat s
Ġst uff
Ġsol ve
ĠJim my
Ġfle xible
Ġco st
rill iant
Ġkn ife
Ġperf orm
Ġsnack s
Ġnod s
Ġsh ore
Ġb rilliant
Ġth irsty
Ġdelic ate
Ġfr own
Ġdisg ust
Ġcoll ect
Ġseed s
Ġst ri
Ġcount ed
Ġas leep
Ġbanan a
Ġmail box
re en
Ġd ough
Ġtri ck
in ess
Ġneighb or
ung le
Ġhe al
l ive
Wh o
Ġst age
Ġmark et
Ġcu be
id ent
Ġj ungle
Ġst at
Ġsque e
Ġexplain ed
mb re
Ġu mbre
Ġdisgust ing
at es
J im
f ted
Ġla b
Ġjo lly
Ġfl ash
u nd
Ġfr idge
in al
p id
il t
Ġcr ane
c orn
Ġs uit
Ġr h
id dle
Ġsunf lower
Ġt imes
Ġcat erp
Ġcaterp ill
ĠA l
Ġrel ax
Ġsh iver
Ġf our
Ġis land
ig inal
Ġh arm
ĠWh ile
ic t
Ġstu pid
y ing
Ġmed ic
ĠIn stead
Ġcom b
Ġg oose
Ġc ro
ed ient
ĠW ill
Ġsto ve
I f
A re
Ġind epend
M um
m ost
Ġg em
Ġspr ing
Ġbat ter
Ġs ighed
Ġvegetable s
Ġst ones
H ow
p es
Ġsh ine
Ġmedic ine
Ġd epend
Ġr ug
ĠYou r
Ġcare less
Ġor iginal
Ġst amp
Ġg ar
Ġc ries
In side
Ġcarrot s
g u
Ġsc r
Ġsuccess ful
Ġsa uce
Ġje ep
Ġpop corn
Ġme al
Ġob edient
Ġal most
Ġm iddle
Ġstu dy
Ġindepend ent
Ġmag n
Ġfear ful
Ġj ack
m et
ink y
S orry
ĠSam my
Ġe scape
Ġcaterpill ar
Ġser ious
Ġpe anut
Ġbed room
Ġeag er
ak en
Ġget s
Ġpar rot
Ġstat ue
Ġhel met
Ġpe bb
Ġf ountain
Ġ No
Ġra ven
Ġan g
Ġpast a
Ġumbre lla
Ġcomp et
The re
Ġjack et
Ġbelong ed
Ġde st
Ġfil thy
Ġdes ign
Ġbor row
Ġc am
er able
Ġhouse s
Ġpri ze
Ġh ay
Ġbra ce
Ġstand ing
Ġmis erable
Ġr aced
Ġt aken
ag es
Ġfor k
Ġcray on
Ġpain ting
Ġtri ang
Ġimpress ive
Ġch oose
Ġf ig
i o
Ġt ied
Ġspot ted
ia ble
Ġli fted
Ġsl ipped
our s
Ġt ank
Ġthought ful
Ġdepend able
Ġste al
Ġgar age
en ny
Ġbu ilt
Ġmu sh
Ġ er
ip e
Ġmo le
Ġcraw led
Ġsc ale
Ġboat s
Ġp ian
Ġp ant
Ġham mer
Ġbott om
l ph
Ġcheer ful
Ġus ing
Ġsmo ke
Ġpick s
Ġmo der
Ġshow s
Ġpian o
r n
ber ries
Ġmagn et
d ile
co dile
Ġhurt s
in ary
Ġcra ck
Ġen g
Ġre f
Ġmel on
Ġa unt
Ġwa ff
Ġmoder n
Ġdo lph
unn el
c ream
p ack
Ġt unnel
o in
Ġar row
Ġrel iable
Ġho pping
Ġmush room
Ġj ug
Tim my
Ġsqu ash
Ġg um
Ġs ink
Ġmov ie
Ġt ax
Ġfl ute
Ġbe et
Ġle an
The ir
Ġpop ular
ic op
icop ter
i v
Ġcry st
Ġon es
Ġs il
Ġcompet it
Ġhel icopter
as er
Ġneed s
ll ip
llip op
Ġcro codile
Ġli z
M olly
Ġp ress
Ġtrou bled
Ġpig e
Ġlo cked
Ġtri cks
Ġlo llipop
Ġplay ful
Ġhum ble
Ġtax i
Ġkiss ed
Ġl ow
a ppy
com fortable
am ond
Ġun comfortable
Ġr id
h ost
Ġwa nder
at ch
Ġang el
ed y
c les
Ġto rn
Ġgra ce
Ġan x
Ġwra pped
Ġmu ff
Ġtw ig
Ġpant s
Ġhelp s
Ġdisapp oin
ĠS n
Ġdi amond
Ġcam era
ot o
Ġanx ious
at ter
Ġg host
Ġte ars
Ġru ined
ĠJen ny
c ident
il ty
Ġqu ar
ĠE ven
op l
a ff
Ġf is
Ġbel t
er opl
Ġen v
Ġgu ilty
Ġb ull
Ġa eropl
Ġhelp less
Ġhapp iness
Ġliz ard
Ġboy s
c ut
ex t
Ġc ere
Ġwalk s
ce an
Ġpass ed
Ġme ant
Ġo cean
Ġfl uffy
Ġw ire
Ġn ail
Ġbrace let
Ġde af
Ġstret ch
z ed
Ġca ct
Ġcand le
t t
Ġbeet le
Ġm op
Ġharm less
ump et
Ġord inary
Ġansw ered
Ġcoll ar
Ġc op
Ġbe es
Ġt ire
Ġsh ape
Ġquar rel
Ġrad io
Ġflash light
Ġcryst al
Ġhard er
Ġpour ed
Ġtr umpet
Ġeng ine
M ama
Ġpers ist
Ġh unt
Ġto oth
Ġcere al
Ġinv ited
Ġcomp ut
Ġoff ice
Ġt ag
Ġm elt
Ġsp ill
Ġch arm
co a
Ġsco ot
Ġl it
Ġc omet
Ġtriang le
ie f
Ġm ug
Ġyog urt
u be
Ġsp end
Ġre p
Ġcomp ass
Ġac cident
Ġsh ade
he tt
ag hett
aghett i
Ġdisappoin ted
Ġli cked
Ġcact us
Ġpa le
Ġc ush
Ġfig ure
Ġgi ving
Ġreg ular
Ġav oc
Ġpr o
Ġshe et
Ġwhisp ered
az e
ell ig
ut h
Ġcre ate
Ġbar ber
Ġint ellig
Ġp ipe
Ġro de
Ġr oof
Ġth read
J ane
Ġli br
Ġlo ad
Ġv i
it her
Ġgif ted
c col
Ġpract iced
Ġdel ight
ccol i
Ġhar sh
Ġp ow
Ġd ust
as ses
ĠTr ue
Ġb icy
az z
Ġsp aghetti
Ġcompass ion
Ġsa iled
ur key
u bby
Ġfor ward
Ġpersist ent
Ġm itten
Ġspe ed
Ġco coa
Ġen vel
Ġquest ions
Ġcomput er
Ġfeather s
Ġc oo
h ip
Ġgl ove
Bob o
Ġri ce
Ġshr imp
Ġdes k
Ġst ream
Ġin se
g ing
Ġpige on
Ġcharm ing
Ġear s
Ġcar p
lc an
Ġra ft
Ġenv ious
Ġkn ot
Ġt urkey
Ġstrong er
om es
Ġco ins
Ġt ap
lcan o
we et
Ġtra p
umb ers
Ġaeropl ane
Ġtr unk
Ġwhe at
Ġbox es
Ġch ubby
Ġcarp et
Ġrest less
Ġintellig ent
Ġt ube
Ġsp un
Ġdream s
Ġfriends hip
ul if
ol in
Ġha lf
Ġcraw l
Ġloo p
Ġbro ccoli
Ġon ion
Ġdel iver
Ġac ce
an ger
Ġv ide
Ġvo lcano
ĠJ ake
Ġs le
Ġtra ck
Ġb ri
Ġca ulif
Ġv ine
Ġtick et
y e
Ġth ief
ess ie
cy cle
Ġloud er
Ġinse ct
Ġn umbers
as ing
Ġy aw
Ġhair cut
Ġsleep ing
it al
Ġm ill
Ġe ventually
Ġal ert
Ġexc ite
Ġpebb le
Ġho sp
Ġatt ract
Ġplan et
ĠTo day
Ġun iver
ul u
Ġer aser
is ted
Ġreturn ed
Ġhosp ital
Ġdest ro
Ġgrace ful
Ġhappen ing
ac he
ĠO K
ĠEm ily
Ġdec ide
Ġlearn ing
Ġsc reen
rew ork
Ġnice ly
Ġle op
Ġcaulif lower
Ġcompetit ive
Ġpo em
Ġcelebr ate
urt ain
Ġpe ach
Ġsold ier
Ġsa us
Ġpar ade
at ient
Ġattract ive
Ġc urtain
Ġdolph in
Ġvi olin
Ġb ase
Ġway s
G o
Ġtra vel
t en
Ġro d
at s
Ġignor ant
Ġwheel s
Ġy ach
ul b
Ġsc atter
Ġcompassion ate
Ġd eter
Ġbar rel
Ġenvel ope
Ġbubb le
Ġl ying
Ġfi rework
Ġsor t
Ġquest ion
z zy
ĠP ipp
Ġscoot er
Ġdeter m
Ġr ag
Ġth u
Ġbicy cle
el ery
Ġneed le
Ġju dge
Ġb ulb
ĠF r
Ġleop ard
Ġyach t
Ġte m
Ġp ony
Ġcri cket
Ġh omes
Ġor der
Ġad or
ter n
Ġtr uth
Ġh ook
d om
Ġru bbed
ig ator
et e
Ġbus hes
Sara h
Ġun cle
Ġcush ion
Ġsp ell
Ġgr own
Ġcoo ked
Ġador able
Ġch alk
Ġso ar
Ġp urse
Ġthem selves
Ġsk in
Ġimp atient
Ġc elery
Ġtr ay
Ġshell s
Ġpen gu
Ġsn iff
Ġpr un
Ġwall s
Ġse al
Ġlive ly
Ġc ase
Ġall igator
Ġdist ant
Ġrad ish
Ġsay ing
Ġspe ak
Ġmotor cycle
Ġme at
Ġs end
ill a
Ġspin ning
Ġfor th
Ġcount ing
Ġboun ced
Ġent h
Ġch ain
Ġclean ing
Ġ ed
eb ra
Ġfil m
Ġsle pt
Ġp it
Ġsur f
Ġmar ry
Ġwall et
us ia
Ġmet al
Ġenth usia
eb ook
Ġwe ek
Ġb in
Ġnot ebook
ur b
Ġwip ed
Ġsk ip
is ion
Ġbig gest
ch air
Ġavoc ado
Ġimp ro
Ġbeh ave
Ġdestro y
v ator
Ġband age
Ġlaugh s
Ġste ak
Ġpat tern
Ġpo st
Ġele vator
ĠBu zz
ĠS h
us ie
Ġd ive
Ġsh ut
Ġsk ipped
Ġunl ock
Ġdi ary
de st
j ect
Ġz ebra
Ġbag s
Ġarm chair
ag ed
Ġdist urb
Ġo y
ra ge
Ġpo le
Ġshow ing
at ing
Ġgather ed
Ġcl ub
Ġn urse
b ul
Ġear th
Ġen c
Ġstr anger
Ġswe ater
Ġjelly fish
Ġsc rew
ĠP oppy
Ġtem p
Ġmix er
G ive
Ġcom pl
Ġsk ull
Ġl ime
Ġb ump
bul ance
Ġam bulance
n am
Ġf ather
Ġjourn al
Ġloud ly
G ra
it o
Ġfold er
ĠB et
Ġsh ield
ĠL ulu
Ġlibr ary
ĠP eter
Ġbutton s
Ġplay ground
Ġtruck s
Ġin k
Ġlight s
Ġt ummy
Ġpoin ting
Ġc ity
Ġdecor ate
Ġst ation
ir it
Ġpre p
Ġfall s
qu ito
ĠP olly
B illy
ĠF o
Ġf u
ent ion
n ger
ĠBird y
Ġher b
l ies
Ġor nam
Ġornam ent
Ġmo dest
Ġgu ard
Ġmo s
Ġknow s
Ġc ord
Ġpol ish
Ġmar ble
ob y
Ġmos quito
umb led
Ġsal t
Ġatt ic
Ġve st
Ġwhen ever
ct op
Ġy et
Ġres c
Ġdisapp eared
Ġp le
ce ed
Ġstraw berry
Ġon ce
ĠM um
Ġk ay
Ġbrother s
Ġit ch
Ġpir ate
Ġfoot ball
Ġspl it
ke le
kele ton
Ġh ipp
Ġa ut
Ġl ed
ur ing
ctop us
Ġdri ving
Ġc able
Ġsupp ort
Ġcall ing
Ġcup board
ak y
Ġwis hes
us hed
Ġcomp let
Ġtri pped
Ġro ot
Ġkay ak
Ġo ctopus
ob ile
Ġa dded
Ġed ge
Ġm ild
Ġsuc ceed
Ġdeterm ined
st ic
?" .
Ġread ing
Ġco al
om obile
W ell
Ġsun g
ut es
Ġsug gest
p ar
Ġst ack
Ġkind ness
Ġthu nder
Ġaut omobile
Ġenthusia stic
Ġsnee ze
Ġcompl ain
Ġcart oon
Ġyog a
Ġgr owl
ĠL ittle
ht ub
Ġfle a
Ġme adow
Ġdraw er
Ġbat htub
Ġri bb
oph one
Ġha ll
Ġmean s
Ġs keleton
Ġgo lf
l a
Ġm ath
Ġve il
Ġhunt er
Ġg or
Ġfl ame
Ġpo ke
Ġvide o
Ġche ss
Ġtr oph
Ġcup s
Ġglow ing
Ġmat t
Ġoy ster
Ġpen ny
w ork
Ġsp ear
l asses
Ġit self
Ġdraw ings
Ġhipp o
Ġrep air
Ġsw itch
Ġsung lasses
Ġtele ph
Ġcost ume
Ġd ess
Ġz ipp
, âĢĿ
Ġmuff in
Ġre pe
Ġpast ry
Ġar g
Ġroll ing
Ġmin utes
Ġp un
Ġmake up
Ġpa cked
ir on
ĠPe ople
Ġwaff le
c ase
Ġhand le
Ġm aze
Ġpe ar
ri c
Ġteleph one
Ġp ine
a it
Ġg ear
Ġmatt ress
Ġhe dge
Ġpack age
a ving
ĠM iss
Ġsho cked
Ġtroph y
Ġpow der
Ġkn ight
in es
Ġc ob
Ġmiss ile
Ġfr ame
Ġman aged
Ġenc ou
Ġw ife
Ġo k
Ġse par
Ġst airs
w eb
Ġr ot
Ġc amp
r ophone
Ġmag az
ur ch
Ġcol our
Ġstr ugg
Ġgra pes
t ime
Ġf ile
he ad
ĠT ina
Ġbasket ball
B ye
Ġcob web
Jim my
R e
o ld
ĠT weet
p er
S ee
Ġper m
Ġw ool
ĠD an
Ġmic rophone
es day
Ġey e
Ġle ash
Ġg asp
ie w
ke ep
Ġwe ep
Ġbark ing
at ure
Ġsaf ely
Ġte ar
Ġv iew
f fe
Ġslid es
Ġstep s
ist ol
ffe e
Ġbanan as
Ġst aff
Ġsp irit
Ġt ask
Ġgigg led
Ġho c
Ġhoc key
Ġve nd
Ġth ose
Ġgor illa
J ill
Ġcool er
ĠR ose
as her
Ġear ly
Ġmar ched
c ing
ro sc
Ġmin t
ĠL ook
w asher
Ġfl our
Ġhot el
h ic
Ġsail or
Ġdess ert
Ġph oto
rosc ope
Ġve hic
il ot
Ġof ten
Ġch urch
ĠP ete
Ġcook ing
Ġrem ain
Ġf ive
Ġsaus age
Ġ ot
Ġt en
Ġtool s
Ġmed al
Ġe ither
Ġfire man
ch or
Ġgra ndpa
Ġot ter
Ġbase ball
Ġp istol
Ġpretend ing
Ġdish washer
Ġorgan ize
Ġre ver
Ġpe e
Ġvend or
Ġkn ock
Ġs ight
Ġg rill
Ġtemp le
Ġbatter y
Ġthin king
Ġopen s
Ġ ow
Ġreal ised
Ġ iron
Ġla ser
Ġo il
Ġsn e
Ġsand box
Ġpat ch
Ġh ours
Ġr ise
Ġwh ip
' d
ĠG ive
ctor y
Ġan chor
Ġtra sh
en se
ĠBet ty
Ġsh ort
n ey
Ġrh in
Ġfa ctory
se um
Ġm ay
Ġwar d
Ġcard board
at ely
ug ged
Ġlot ion
Ġmess age
Ġward robe
A l
Ġval u
Ġc ell
Ġmu seum
ap ers
Ġu r
Ġhang ing
in ation
uc et
ail able
ĠS unny
ĠZ oom
Ġh ive
Ġtow ers
e er
Ġblack board
Ġme m
keep er
l oo
Ġco ffee
Ġexcite ment
Ġp ilot
F luffy
re ady
Ġnap kin
Ġpengu in
Ġre ward
Ġche ck
ĠPipp in
Ġqu it
Ġcan e
r on
Ġpick ing
pl ace
ĠSn ow
az or
Ġ ig
Ġfa ucet
Ġpass port
ĠR ob
Ġst umbled
Ġdream ed
ĠB essie
Ġig loo
ar oo
ang aroo
Ġfree z
Ġju icy
Ġall owed
Ġhold s
Ġal ready
Ġav ailable
pl ay
Ġset t
Ġbat he
Ġtorn ado
im ney
Ġfing ers
ht ray
Ġha nger
Ġnew sp
Ġs ize
Ġla und
Ġl end
Ġch imney
Ġlaund ry
Ġo ak
Ġfis her
Ġk angaroo
Ġm en
ĠEvery where
Ġtell ing
Ġno vel
E m
bo dy
Ġm ummy
Ġp al
Ġmu le
Ġcher ries
Ġnot ice
Ġpract ice
Ġspill ed
Ġre ind
Ġcomplet e
Ġenjoy ing
Ġmic roscope
ar ian
amp oo
Ġg ain
Ġfire place
Ġimag ine
and a
Ġsu b
Ġdis play
oc er
ĠZ ip
Ġfast est
Ġmagaz ine
Ġhur ry
Ġcabin et
Ġshr ink
Ġas htray
W ait
Ġcow s
ĠSp ike
Jo e
g en
Ġpal ace
Ġimpro ve
Ġr ake
Ġreind eer
ac hes
Ġfall ing
ocer os
Ġsk irt
Ġdiscover ed
Ġstar ed
Ġro ared
ur ed
a id
Ġsil ver
Ġt ub
Ġtra il
I s
Ġmin er
c ome
Ġb ill
ict ion
Ġf og
Ġa x
st airs
Ġh ut
Ġhapp ier
ile t
Ġtall er
iction ary
Ġo ats
Ġfisher man
Ġob ject
Ġp or
v ision
Ġvalu able
Ġsh ampoo
Ġho les
Ġoff ered
Ġboot s
Ġrhin oceros
Ġnam es
Ġto ilet
Ġclimb ing
Ġbl in
v ice
Ġstret ched
O w
Ġzipp er
ie st
Ġlisten ing
Ġbath robe
ale nd
Ġjewel ry
ĠHe re
Ġjoke s
Ġs ym
Ġtele vision
Ġpro v
Ġc alend
Ġstop s
Ġax e
Ġjump s
Ġfu el
Ġspark ly
Ġperf ume
ĠS usie
c u
Ġbu ry
M ummy
bo l
l u
Ġpress ed
ĠK im
ree k
Ġre ce
f a
ĠT oby
Ġne at
Ġc reek
Ġpo pped
Ġop era
Ġcalend ar
Ġsn ap
Ġatt ach
Ġgasp ed
Ġsym bol
Ġt una
ĠM ar
Ġp apers
M r
Ġres ist
Ġun pack
Ġd ictionary
Ġsub way
Ġletter s
Ġfreez er
Ġcho se
Ġpin ch
z ag
Ġspo ke
Ġany way
Ġhelp er
Ġpor ch
af fe
Ġsu per
Ġbike s
Ġli e
ar ry
ic hes
Ġtight ly
Ġcom fort
Ġsh aking
Ġbook case
Ġs on
Ġr azor
ĠA re
Ġsandw iches
aur ant
ig zag
Ġwe igh
Ġagain st
Ġstick ers
Ġrest aurant
Ġnewsp aper
Ġbl ouse
Ġvehic le
Ġswing ing
Ġp ed
Ġdis ag
Ġn ature
Ġsquirrel s
Ġbelong s
iv al
Ġswam p
Ġbutterf lies
Ġg ym
Ġinc lu
Ġgrow ing
d el
Ġbuck le
om ed
Ġstir red
Ġmust ache
Ġbill board
Ġbe ep
x y
Ġal arm
Ġli p
Ġfe st
Ġlight ning
t e
Ġhun g
ut or
Ġdist ance
Ġc ards
og n
Ġob ser
Ġag ree
L ittle
Ġex t
Ġte ase
Ġrec ogn
Ġrub ber
Ġhat e
i k
f ast
O uch
Ġdoes n
Ġmusic ian
e f
Ġad vice
Ġbee f
Ġser ve
asp oon
Ġsweet ie
Ġmo del
l ter
Ġblue berries
Ġcri b
Ġso fa
Ġcir cles
Ġbreak fast
Ġt utor
as is
Ġbooks he
Ġgir affe
Ġfest ival
Ġsepar ate
st ri
Ġshe lter
Ġg as
Ġair port
Ġo live
Ġr ail
Ġbookshe lf
Ġfrog s
Ġte aspoon
Ġrever se
Ġj unk
Ġrid ing
Ġple ased
Ġdra in
ĠMr s
Ġwip e
Ġo asis
Ġso il
Ġa head
Ġresc ue
Ġle aving
um mer
Ġch ance
Ġpain ter
Ġsquee ze
Ġkn ob
Ġpo ked
ĠT eddy
Ġpee ked
Ġl umber
Ġtrain s
Ġext ra
Ġsl ipp
Ġqu iz
Ġre fused
rm omet
Ġp age
re s
Ġru les
Ġhappen s
Ġsound ed
Ġpoin t
Ġin s
Ġwin ter
Ġdanc er
ĠGra ndpa
Ġbird c
Ġdisapp ear
rmomet er
ĠDo lly
Ġwas te
Ġwe ather
Ġbirdc age
Ġli c
Ġthe ater
Ġre ef
Ġcarry ing
Ġinv ite
D aisy
if orm
Ġgo al
Ġo stri
Ġsw ung
Ġun iform
Ġtr ade
Ġcl iff
Ġlaw n
i ence
ĠP andy
Ġlean ed
ol a
ang u
Ġacce pt
Ġadm ire
Ġaccident ally
Ġfor t
Ġpast el
bb les
Ġst om
Ġl angu
Ġtw ir
Ġs uff
Ġp anda
Ġb et
r iger
riger ator
re nder
Ġblin ked
Ġpe ek
Ġstar ts
Ġref rigerator
Ġany where
!" .
n a
Ġimag ined
Ġdream ing
Ġrem ove
n ight
ĠL ee
Ġshow er
Ġce iling
Ġclass room
ĠC o
Ġcar ing
Ġgra nd
Ġmiss ing
Ġlic ense
a ked
i um
Ġst able
Ġthe rmometer
Ġmonkey s
Ġwar ned
ast ic
Ġs ummer
ĠW here
Ġab ove
Ġbri ck
ec ted
Ġc udd
Ġproblem s
am ber
Ġch asing
Ġap ron
Ġlab el
Ġs ent
it ure
urn iture
Ġlaw y
Ġl id
ugg age
Ġrespect ful
m ed
Ġf urniture
Ġfrown ed
Ġzoom ed
Ġp ages
Ġb ent
Ġpre vent
Ġl uggage
Ġmistake s
Ġsun set
Ġostri ch
Ġsuggest ed
is on
Ġwindow s
l ow
Ġj ail
Ġw ine
ation s
Ġribb on
Ġold er
Ġshout s
Ġgra pe
Ġw igg
uc ture
Ġstr ucture
ĠC l
Ġspo il
e or
Ġfix ing
Ġch amber
Ġlion s
Ġfind s
Ġdel ay
Ġhand ed
Ġsearch ing
Ġun ite
D id
Ġf ought
Ġlawy er
Ġbright ly
Ġmeet ing
Ġpa ir
Ġcho ice
Ġsurpr ises
ĠE llie
Ġar t
Ġfav our
in arian
eter inarian
ad ium
Ġst adium
ĠU n
C h
Ġproud ly
ik i
Ġv eterinarian
Ġchair s
v et
Ġsl ip
ro d
ĠS pe
Ġsad ly
ĠB ow
Ġinc re
ĠC arl
Ġpudd les
Ġb erry
Ġint rod
Ġran ch
ĠB oun
ve al
Ġarg ue
Ġadm ired
Ġfavour ite
Ġc ur
You r
Ġin f
Ġ V
Ġexcited ly
Ġgrab s
Ġr ac
Ġste am
m end
th ank
Ġhum an
eor ge
s ity
ĠHe l
Ġpus hing
Ġsa ving
Ġre veal
ĠR ed
Ġy ield
om mend
all ey
Ġm all
Ġremind ed
ol og
Ġrec ommend
Ġle ak
Ġsur render
Ġhar b
a ul
Ġapp l
cu ss
Ġwe ap
Ġreg ret
Ġput ting
Ġv alley
Ġminer al
Ġeven ing
el come
Ġforg ave
Ġmat ches
Ġsnee zed
Ġpu p
Ġr ushed
Ġa w
ec ause
Ġsp ade
Ġap olog
Ġpl ates
Ġdis cuss
Ġprep are
Ġharb or
Ġign ore
Ġcount ry
ĠB ig
Ġlangu age
ĠBu zzy
Ġpull s
Ġpl astic
Ġsupp ly
Ġflo at
Ġsniff ed
ĠJ azz
Ġrepl ace
Ġme as
ĠB ill
Ġra ise
Ġsho vel
ĠN ext
Ġf re
Ġcar ed
Ġso cks
Ġstri p
Ġdoor s
Ġmyster y
Ġli ves
Ġrest ore
Ġstick er
Ġs udden
ar i
Ġkind s
Ġslipp ery
er o
ĠO w
Ġplay er
Ġpan ic
ric ane
Ġhop ing
id ay
Ġsh one
le x
her o
Ġbe g
ĠB inky
ĠM ike
Ġsuper hero
Ġdelight ed
Ġg ro
Y ay
au d
ch an
Ġchick ens
Ġshould er
Ġrain ed
Ġcolour ful
Ġbre at
ĠAl ice
Ġcla w
ĠBu bbles
Ġsoft ly
Y uck
r ise
Ġp ort
Gra ndma
Ġho l
ic er
Ġhol iday
Ġbark s
Ġ âĢ
Ġthrow ing
as on
Ġplan es
M ary
ĠFred dy
Ġbe nd
Ġshake s
Ġend ed
Ġinf ant
Ġshiver ing
Ġkne el
Ġsun rise
Ġpus hes
ĠO live
Ġthank s
Ġfre sh
Ġsuff er
Ġpoin ts
im ed
ĠP at
w ards
Ġt ip
ĠSpe edy
Ġfree ze
Ġkeep ing
ĠW ould
Ġco pper
Ġgigg le
Ġsmell s
Ġde ar
Ġent er
Ġprov ide
chan ic
c ast
Ġdis hes
ĠE nd
co nd
N ext
Ġappl aud
Ġhead s
Ġun h
Ġhur ricane
Ġcher ry
Ġm ass
Ġme owed
Ġmen u
Ġse cond
Ġth umb
Ġbright er
in ce
Ġme chanic
Ġsand cast
Ġw re
Ġspray ed
Ġlet ting
Ġe vent
Ġweap on
Ġlaug ht
Ġ x
Ġlaught er
Ġcla pping
Ġfeel ings
W ill
ick y
Ġsplas hing
em ent
Ġcast les
ac ked
ĠO r
c er
ĠF l
Ġsc ore
Ġuniver se
app ing
Ġn avy
Ġstick y
Ġd em
oph ie
Ġr ow
Ġroom s
Ġfl ies
ig i
ĠD ave
Ġunh appy
Ġgre edy
Ġd are
Ġal ive
Ġbreak s
Ġen er
Ġcou rage
Ġinv it
Re ady
Ġrepe at
Ġdem and
Ġtrust ed
L isa
Ġsome where
arl ie
Ġprun e
Ġwre ck
b les
Ġsk ill
Ġexam ine
Ġpar ts
Ġ Y
y ear
Ġeat en
o e
A ll
en ry
Ġm ention
er c
Ġrain ing
ĠHel p
B uddy
Ġthrow s
Ġjog ged
que st
Ġstar ting
Ġr ush
Ġpo ison
Ġpir ates
he art
Ġv ac
Ġcont ent
Em ma
ĠK iki
Ġs igh
Ġfl apped
Ġdrop s
Ġsp ort
Ġch irp
Ġspark led
Q u
ĠZ oomy
Ġgi ven
Ġstre ng
Ġste el
A nn
Ġbump ed
Ġyaw ned
Ġstu d
Ġre quest
Ġsco ld
Ġmy self
Ġstreng th
Ġshr ugged
Ġcoat s
M ark
Ġpun ish
Ġsn ugg
Ġe qu
Ġuniver sity
Ġpa id
ĠJohn ny
Ġpig s
Ġscr atch
Ġto e
Ġex erc
Ġtra cks
Ġup stairs
Ġpray ed
Ġcross ed
Ġsquee zed
Ġimpress ed
Ġfl ood
Ġboun cing
ĠR u
Al ice
Ġrabbit s
Ġbad ly
Ġle ather
Ġwar n
Ġex pect
g es
. .
Ġnew s
Ġt ide
ĠT ed
Ġmin ute
Ġbear s
Ġclaw s
Ġbu zz
Ġsweet heart
Ġn ation
y th
ĠS m
yth m
Ġhe at
Ġhis t
Ġvac ation
Ġstraw berries
Ġobser ve
S h
Ġexplor ed
Ġsett le
Ġsandcast le
Ġyaw n
Ġhist ory
ĠL illy
ĠL ola
m are
ĠM ummy
ĠS que
i ally
Ġbelie ved
Ġhor ses
in king
Dad dy
ĠH oppy
Ġche cked
ĠM andy
Ġto ur
Ġnet work
Ġchee k
Ġoff er
ĠU nder
Ġeas ily
Ġpl aced
s pec
Ġspot s
Ġsnow ball
we en
Ġener gy
ĠB ee
Ġimag ination
Ġblue berry
m en
Ġbet ween
ott en
spec ially
ĠG igi
iz es
Ġd aisy
Ġwa ving
ree ze
Ġv room
re at
Ġso ak
Ġsaf ari
Ġrh ythm
Ġmass age
Ġstom ach
Ġb aking
qu ake
Ġnight mare
Ġins isted
Ġblow ing
Ġent ered
Be fore
Ġst air
Ġbeaut y
Ġp alm
Ġtw isted
Ġb other
Ġwr iting
Ġprun es
Ġsc oop
Ġbra in
Ġ ing
ip ment
Ġpo ppy
Ġhill s
n oon
Ġafter noon
Ġe specially
Ġequ ipment
he st
Ġs ir
ĠS ee
Ġp ad
Ġcall s
red ient
Ġing redient
ĠFo x
Ġearth quake
Ġignor ed
ĠSnow y
Ġburn ed
Ġno body
m ble
Ġst y
ap a
Ġse w
Ġt ug
is ty
xy gen
Ġhear ts
ar nt
Ġle arnt
Ġlemon ade
Ġincre ase
J enny
ill ie
Ġg az
Ġback pack
Ġmail man
Ġwhist led
Ġped al
F red
Ġshop keeper
ĠS k
ff ic
Ġperm it
Ġtre mble
Ġy ucky
ang es
Ġmove s
Ġintrod uce
Ġlem ons
Ġcra sh
Ġbean s
Ġflo ated
n esday
ed nesday
itten s
W elcome
Ġplan ned
Ġstri ke
Ġtra ffic
Ġinclu de
ĠL ucky
Ġsl ap
Ġrac ing
res ses
Ġwis dom
Ġwag s
ĠFin ny
la imed
Ġp ur
ĠG eorge
Ġl uck
Ġfollow ing
Ġpri ce
ec ting
Ġm ama
Ġp itch
Ġbel ow
ĠE lly
ĠH ave
Ġwe ight
Ġexc laimed
L e
Ġbu ried
Ġfollow s
Ġcom f
Ġrecogn ize
Ġingredient s
h ouse
t ain
Ġf urt
Ġcand les
M imi
Ġmar bles
ri age
und ay
em ember
ĠA lex
er ation
ĠW ednesday
Ġap art
Ġgrowl ed
ĠS u
Ġhop es
Ġteach ing
Ġfold ed
Ġclose ly
ore s
uc t
ĠFin n
ĠWh o
Ġcon f
Ġhe el
ĠS unday
Ġencou rage
ĠP aul
ĠOw l
Ġz igzag
Ġpull ing
Ġd igg
Ġboun cy
Ġfurt her
Ġchew ed
Ġdigg ing
Ġwin ning
W ith
W oof
Ġd resses
Ġim age
re c
c ery
Ġshout ing
Ġgro cery
Ġtw isty
Ġpeanut s
Ġpuzz les
bb ing
ĠD og
Ġscr at
Ġch ores
Ġwhisp er
l ook
ĠI s
Ġsp ike
ĠFr oggy
Ġc ape
Ġsn ail
Ġacorn s
Ġworm s
h ood
Ġdeep er
Ġur ge
if i
ĠWhen ever
Ġexp er
ĠT illy
ĠSque aky
ĠGra ce
Ġplan ted
Ġatt ention
ec ture
Ġexerc ise
ĠDan ny
Ġcu b
Ġop eration
Ġunder ground
Ġag re
Ġh on
Ġqu ite
Ġcreature s
Ġs imp
Every one
Ġstrugg le
ĠM ittens
or al
Ġbl ood
dd y
Ġl ecture
Ġwas hing
Ġhurt ing
Ġgif ts
Ġvan ished
Ġdress ed
Ġinvit ation
Ġsol ved
Ġli cks
ĠSh aring
Ġsnugg led
i ppy
Ġmar riage
Ġb le
Ġquiet ly
Ġwar ning
g ie
Ġj azz
Ġbreat he
Ġelephant s
rec i
Ġs izes
Ġd ried
Ġfall en
Ġland scape
or ies
Ġspr ink
Ġneighb our
Ġm ice
u esday
Ġapp reci
ĠS ophie
ĠJoe y
Ġeag erly
ĠâĢ ĵ
Ġsail ing
ĠCo co
Ġpa used
Ġcount er
ip s
ĠG ood
ĠBoun ce
ĠP enny
Ġwor th
ĠR ock
look ing
Ġo xygen
B ecause
Ġre lease
Ġshin ed
N ot
p ted
Ġre aches
Ġbal an
ĠZ ara
is ses
Ġo h
Ġk isses
Ġsty le
Ġbri cks
ĠT uesday
Ġgl o
Ġplay s
Ġide as
Ġw ob
Ġin st
s ed
Ġfirework s
B ella
igg ly
Ġsee ing
uc ked
Ġfl ap
Ġacce pted
ĠP ip
op s
r ight
Ġbl ink
To day
ĠR os
Ġtre mb
The se
Ġmu ddy
Ġmem ory
Ġmar ried
Ġtomato es
m m
Ġex it
ĠAnn ie
Ġwag ging
Ġfa sh
R emy
ĠCh arlie
Ġwander ed
un ately
ipp ing
Ġglo ves
Ġcap tain
Ġpillow s
Ġrece ive
ĠP inky
Ġres p
Ġd uring
ra ged
ĠEvery thing
et ch
Ġpet als
Ġwe b
Ġwater ed
ĠE ventually
Ġs i
Ġman age
i ved
Ġbr ings
Ġpin ched
Ġcake s
Ġvan ish
ĠBlue y
Ġfash ion
Ġprin ter
Ġdestroy ed
Ġtreasure s
Ġall ow
n ce
Ġhad n
Ġwor se
up s
ĠF ifi
S urpr
Ġve l
Ġhit s
Ġvel vet
x u
Ġapp ear
Ġb ur
Ġdisag ree
Ġcatch ing
Ġscatter ed
ĠR o
Ġmem ories
Ġsor ts
ĠP apa
d o
Ġher s
Ġpe ars
Ġsign s
Ġscold ed
Ġb ones
Ġor anges
Ġran g
Ġsn apped
Ġsit s
Ġseat s
Ġgaz ed
Ġra ised
u xu
B l
ĠMar ia
Ġz ipped
Ġp ies
Ġprin ts
Ġsh ot
Ġslid ing
ĠGo d
Ġfr o
Ġeas ier
Ġskill s
ss ible
Ġclimb s
Ġtwir led
c cer
Ġblanket s
Ġforg otten
Ġba ked
e ster
Y um
ester day
Ġdiffere nce
Ġgold en
Ġl uxu
or ted
Ġk itty
ĠT w
is ing
Ġcut ting
Ġse ason
ag gie
Ġnow here
Ġcr ow
Ġso ccer
Ġd ared
ĠH enry
Ġbit es
ĠH arry
Ġl ung
Ġcelebr ated
an ny
Ġstra ight
ch oo
Ġunl ocked
ch ie
st ers
a h
Ġsor ting
Ġcoll ected
Ġble ed
ap ed
Ġwelc omed
d ing
Ġvis ited
Ġspoon s
Ġour s
Ġst itch
Ġjog ging
Surpr ise
Ġem er
med i
ĠSp ark
Ġis n
medi ately
Ġto ng
Ġtra ve
Ġwin ner
Ġs ince
um ble
Ġru in
Ġpret t
O k
M oral
ĠT ony
Ġatt ached
Ġweep ing
Ġmarch ing
Ġluxu ry
Ġsimp le
ĠE ach
Ġshould n
Ġguess ed
Ġz ero
Ġcre ated
Ġstuff ed
Ġpet s
Ġwa ist
Ġur ged
Ġfam il
Ġbow ed
Ġsell ing
ct ion
Ġflo ating
ĠSm ith
Ġby e
ĠK ing
Ġking dom
Ġv ict
Ġolive s
Ġkick ing
ĠW iggly
Ġpun ished
ĠL iz
ĠB aby
Ġto es
Ġgr ant
s it
Ġmus cles
Ġjewel s
ĠRos ie
Ġbed s
Ġmel ted
Good bye
Ġsl ice
Ġgr in
Ġunderstand ing
Ġcollect ion
Ġto re
Ġmeas ured
Ġcra s
Ġtra pped
omed ay
i ers
Ġl ined
ak er
' ve
Ġac ted
fort unately
Ġencou raged
ĠS andy
v a
Ġrece ived
ĠBe fore
Ġwaff les
r r
ĠW ally
Ġwe st
Ġme ow
Ġpattern s
r in
in o
ent s
Ġbr us
e ath
Ġmouth s
k ins
Ġb ang
ĠK ate
Me ow
Ġpe aches
Ġb reeze
ad ed
un e
r ing
Ġprin ted
Ġsold iers
Ġs omeday
Ġpotato es
Ġpup il
um es
ĠM illie
Ġdrink s
Ġshe d
Ġexper ience
ĠT una
Ġpresent s
Ġfire f
ĠRu by
Ġsur round
Ġn one
Ġvoice s
os ed
Ġdr inking
e ep
ĠUn cle
Ġrelax ed
is hing
Ġvict ory
c us
Ġbre aking
Ġpaint s
Ġhur ried
e ve
Ġtw ink
Ġtong ue
iss ion
Ġcost umes
Ġfl at
Ġmention ed
Ġbeg ged
Ġte asing
Ġwhist ling
Ġf etch
Ġperm ission
Ġdisag reed
Ġs ip
Ġpe arl
Ġstr o
ĠThe se
ake s
ve st
Ġapp ro
Ġe sc
Ġsk ipping
Ġfis hing
ĠM ay
Le o
Ġhig hest
Ġp ra
Ġwat ches
Ġsor ted
Ġring ing
Ġto night
Ġop in
ĠB o
sh ip
Ġlet s
ic ing
Ġ Qu
Ġperfect ly
Ġshadow s
Ġim mediately
Ġherb s
Ġwarm th
Ġsp it
Ġremain ed
t her
ĠIt s
w alk
Bob by
irr ing
J en
Ġsne ak
Ġs ix
Ġlip s
Ġkneel ed
Bl ue
Ġcont est
ĠC he
ut ter
Ġcartoon s
Ġside walk
Ġcol ours
Ġstamp s
Ġag o
H a
ĠT oto
ĠFo llow
Ġe ast
ĠB oo
Ġhead ed
o ved
" ,
Ġstr ang
Ġlady b
Ġf ed
Ġsupp osed
Ġroot s
Ġli ck
Ġcr unch
Ġmix ing
Ġwork s
Ġdecor ations
Ġkn own
Ġmelt ing
M andy
Ġemer gen
Ġrest ed
Ġl ines
ĠSu zy
Ġl ily
ĠJ ul
ĠA b
Ġinst r
Ġla id
Ġcon es
Ġsucceed ed
ĠG r
Ġwigg le
et y
Ġset ting
Ġsh ock
ĠS low
Ġstud ied
s ing
Ġstrang ers
ĠRock y
Re ally
Ġtwig s
Ġtheir s
Ġbr id
ĠD r
Ġgirl s
b oo
Ġscream s
!" ,
Ġord ered
Ġland s
Ġst irring
Ġmoment s
Ġfield s
Ġal right
Ġsteal ing
And y
Ġr ul
Ġbrave ly
ĠB oth
av id
Ġm ister
d ed
! '
Ġin vest
Ġscrat ched
Ġplay time
Ġri pped
Ġinvest ig
Ġt ucked
Ġrest ing
Ġburn ing
ĠCh icky
ĠCl ara
Ġbrid ges
is hes
Ġoff icer
p lease
Sam my
B ird
ab ies
Ġsett led
Ġmat ched
Ġa chie
Ġte x
Ġtex ture
H appy
Ġturn ing
Ġwait s
ĠSk y
P eter
Ġtremb ling
Ġnail s
ist en
or ed
at ie
ĠSome one
Ġmuff ins
ĠJ ames
Ġesc aped
Ġpile s
Ġinvestig ate
id s
Ġbro om
os ity
Ġladyb ug
Ġso re
ĠPe pper
Ġappreci ate
Ġadm ir
Ġth reat
Ġb abies
Ġsil ence
Ġsister s
Ġare a
Ġdad s
Ġemergen cy
id es
Ġansw ers
Ġpu pp
Ġkey s
Ġchew ing
Ġsl apped
Ġw iz
Ġimport ance
Ġser ved
B oo
ĠH op
Ġsaf ety
W ould
iz ing
B u
Ġspark le
Ġtouch ing
ĠL ater
Ġso ared
ig ail
Ġs ings
Ġhe n
all en
E lla
b ers
ant ly
Mom o
ĠD ino
Ġamaz ement
Ġch allen
Ġkeep s
Ġtw in
Ġreveal ed
Ġhe sit
ache l
Ġit em
an na
Ġd ire
Ġso aked
Ġwr it
z ing
Ġfood s
Ġdinosaur s
Ġrid es
Ġrecord ed
Ġtick le
Ġin ch
ĠZ igzag
Ġv et
Ġwiz ard
ĠM e
Ġtrip s
Ġglow ed
ĠFr og
ĠA n
M mm
Ġbe amed
Ġh i
Ġqu ack
Ġcur led
Ġha ted
Ġw ink
Ġsho pping
Ġeat s
E ventually
ĠB ug
Ġpra ised
Ġwood en
Ġbring ing
Ġmitten s
Ġstudy ing
Ġgu y
Ġbrus hes
Ġspace ship
Ġcraw ling
Ġg ust
ĠSomet hing
Ġrul er
C at
Ġfl av
Ġdown stairs
Ġshoot ing
Ġn apping
Ġtast es
Ġsprink les
Ġmark s
Ġcudd led
he llo
Ġf ut
Ġd ot
pl ash
a les
Ġfut ure
a ved
Ġmon sters
Ġcoll ecting
Ġmeas uring
ĠH appy
Ġfamil ies
ĠF irst
ĠO ut
' .
ĠM o
Ġo at
Ġth rill
ir ts
Ġres ult
Ġappro ached
ĠR abbit
J ake
Ġcrunch y
a ct
Ġrem em
Ġbleed ing
Ġremem bers
Ġn icer
Ġbe at
U n
Ġsne aky
Ġdisturb ed
Ġlead er
Ġsc aring
h ind
Ġpe el
ĠH ope
O r
Ġfire men
Ġneighbor hood
ĠSt ar
Ġgre y
ĠN ot
Ġmot ion
Ġno on
Ġpo ssible
Em ily
Ġapolog ized
S omet
Ġwe ighed
ĠD id
Ġticket s
Ġnap s
u es
Ġloo se
C l
Ġpr ide
Ġyou th
Ġswim s
Ġstr ings
Ġrecogn ized
p ed
Ġsi ren
Ġpo king
f ied
ĠH o
Ġtri cked
c ious
el vet
Ġgain ed
Ġwonder s
Ġcras hed
Ġwant ing
h a
Ġo be
Ġsees aw
Ġwork er
unn ies
Ġdraw s
om ing
Ġscoop ed
l s
. '
Ġzoom ing
Ġopin ion
Ġyell ing
Ġprep ared
Ġgrin ned
ĠSlow ly
Ġa we
Ġdog gy
Ġpoem s
Ġact ing
ĠBe ep
Ġhapp iest
Ġche f
Ġsne aked
Ġresp ons
ĠAl ways
Ġe ff
ĠL izzy
Ġb unnies
Ġown ed
Ġany time
Ġstr uck
Ġped als
Ġkn elt
O llie
oy s
Ġsecret s
Ġp ause
en a
Ġdecor ated
Ġhorn s
Ġagre ement
ĠS qu
Ġfr ost
Ġtall est
Ġobe y
id ed
R emember
og o
ĠSt op
riend s
H ave
Ġdecid es
Ġ Once
Ġbeh aved
Ġt ugged
Ġs ides
Ġw oof
l ier
z en
Ġgood night
Ġsl im
Ġkeep er
Ġspark ling
Ġchirp ed
Ġpre cious
m other
Ġrepe ated
T r
Ġclap s
Ġcont ain
aff es
Ġsnowball s
i en
ind y
ĠR ay
Ġour selves
r s
all ow
Ġgir affes
u d
Ġbalan cing
Ġkind ly
Ġspend ing
Ġwrit es
ay s
pp ers
ĠL ike
om as
Ġhis sed
Ġpr op
F irst
Ġfro zen
Ġfrost ing
Ġeff ort
Ġbuzz ing
Ġstrugg led
ĠSt eve
Ġadmir ing
Ġre le
ig gy
Ġsweet ies
ĠV elvet
o h
Ġslim y
Ġbr ushed
Ġbloom ed
S usie
Ġpol ished
ĠA m
ĠZ oe
ar th
Ġcomf y
Ġb oo
an ted
Ġstay ing
Ġru bbing
D ucky
Ġrock ing
Ġpocket s
Ġthrill ed
Ġbe side
Ġcomp le
ĠA unt
ĠM aggie
is dom
Ġe ight
Ġmach ines
Ġear lier
A h
ur ry
Ġy esterday
Ġseem s
Ġr ust
ĠK eep
Ġtrave led
Ġfold ing
Ġbo om
Ġcra cked
Ġhug ging
S p
it ies
Ġrad ishes
ĠSt itch
Ġopen ing
Ġlo ving
Ġcir cus
Ġcuri osity
Ġsurround ed
ĠR achel
Ġspray ing
Ġdemand ed
Ġpaint ings
am ie
ĠG reen
Ġrem oved
Ġg aze
Ġpebb les
Ġhard ly
Ġzoo keeper
Ġhon k
Ġcat ches
ed ding
Ġst ing
Ġstri pes
Ġpow ers
Ġload ed
ĠPipp a
Somet imes
Ġpot s
Ġsplas hes
Ġpet ted
ĠD avid
Ġmatch ing
Ġto ss
Ġbe lly
Thank s
Ġst are
Y ummy
Ġwhat ever
Ġapolog ize
Ġro cked
Ġcomf orted
ĠB ree
i bb
Ġdec ision
ĠBird ie
Ġribb ons
ĠJ oy
Ġstrugg ling
er n
Ġex pected
Ġdes er
Ġste ep
Ġprot ected
Ġneighb ors
Ġsmile y
Ġchase s
D uring
Ġgr anted
Ġcr umb
ĠM at
Ġpur red
Ġdi ving
Ġsad ness
Wh iskers
w h
Ġorgan izing
low ers
Ġeag le
Ġhero es
Ġd ipped
Ġsun light
Ġli ed
Ġpastel s
ĠFr ank
Ġroad s
Ġsaf er
Ġscr u
ĠM illy
Ġarg ued
Ġgo als
E x
Ġdisco very
ĠW ater
ĠAb igail
Ġpe ered
Ġvill ag
ĠBoun cy
l oe
R o
Ġdrag ons
Ġt im
u se
Ġbuild ings
Ġbucket s
Ġpart ies
Ġbe ard
Ġw edding
R ex
an a
Ġfl utter
Ġplanet s
ĠRob by
Ġpol ishing
Ġan n
Ġfa sc
ir a
Ġrele ased
ĠCh r
Ġcrab s
ĠG ogo
Ġtail s
ĠW atch
Ġsaus ages
ĠJ u
Ġar gu
Ġcont ro
Ġbott les
Ġwigg led
Ġte ased
u ke
Ġargu ing
Ġsl ed
Ġdrag ged
Ġpad d
ĠC ar
Ġro aring
Ġcle aring
Ġsh irts
Ġmov ies
Ġgather ing
Ġair pl
Ġw id
joy ed
Ġteac hes
Ġspid ers
Ġl imes
ĠR emember
ĠD are
Ġover joyed
Ġact ually
Ġsigh s
Ġcontin ue
Ġso aring
Ġcudd le
Ġsmall est
ĠJ ess
Ġdri ves
Ġri p
Ġspark les
Ġsit u
Ġcub es
Ġref res
Ġtal ent
ĠO lly
Ġchallen ge
Ġgrand mother
ĠS plash
Ġpour ing
Ġpretend s
Ġcut s
Ġfasc in
Ġpe ppers
Ġquarrel ing
Ġb ank
Ġshiver ed
Ġman e
um m
Ġdust y
Ġwonder ing
Ġvillag ers
Ġstretch ing
n joy
Ġweek s
Ġwhere ver
Ġdark er
T iny
j am
Ġr ings
Ġon wards
Ġ X
le y
Ġun ited
ĠK atie
s ses
A choo
i b
Ġbe ad
ĠEvery day
ĠBe ing
Ġprett iest
Ġc aut
John ny
Ġreal ize
Ġcomp any
Ġpengu ins
L una
anna h
ĠSp ring
Ġbed time
ĠW isdom
Ġcomple ted
ĠLe ave
âĢĿ .
Ġknight s
F r
Ġflag s
ĠJ e
ĠB ecause
Ġplay room
ĠP rin
Ġact ions
ĠZ ero
Ġlearn s
Ġgot ten
d am
ind a
Ġpat ience
Ġshr ug
Ġkit es
Ġrespons ible
Ġfe ars
Ġdest ination
Ġwire s
Ġrep ly
Ġwr ist
Ġd am
Ġpack ing
Ġfa ult
Ġmountain s
Ġapplaud ed
aw s
Ġscru bbed
ĠA va
Ġcre pt
Ġm a
U h
ĠE arth
Ġsat is
Ġth ird
Ġpencil s
Ġwin s
Ġph ot
Ġstick ing
Ġb aker
Ġvisit ing
Ġw ound
Ġuse s
Ġremind er
Ġpe as
Ġcontro l
Gra ndpa
Ġjo king
as hed
Ġaw ake
Ġinstr uct
Ġstar ing
ĠP ut
Ġheal ed
Ġh itting
ĠF ish
Ġscream ing
Ġbeg in
R ob
uck ily
ĠF riends
ĠM oo
ic orn
Ġhelmet s
ent y
Ġun icorn
se ek
Ġtowel s
S illy
ĠL ou
Ġch ips
Ġcre ation
Ġwas ted
l er
ic a
b ie
ĠBe hind
Ġmask s
la ire
Ġforg i
Ġitem s
Ġfiref ight
M ar
Ġlollipop s
W atch
Ġout do
Ġhe av
Ġgun s
Ġd ied
ĠH ippy
Ġse as
Ġgl itter
udd les
Ġarri ve
Ġwere n
Ġsto le
Ġsc ales
Ġper ched
Ġac com
Ġlog s
Ġachie ve
Ġpract icing
d ie
Ġwho se
Ġpump kins
Ġinstruct ions
St ay
Ġbatter ies
Ġsw oop
Ġcand ies
Ġagre es
Ġpro ject
in ing
Ġsnake s
Ġchirp ing
Ben ny
Ġshe lves
Ġprot ecting
Ġex act
Ġpar ked
Ġpatient ly
Ġact iv
ĠC ra
Ġshould ers
Ġvide os
Ġblow s
Ġprom ises
Ġd ent
F o
us an
Ġexam ined
Ġairpl ane
jam as
D oggy
n ers
he e
ue st
Ġro ses
g o
Ġaccom pl
Ġtask s
D ave
ĠHo ot
P oppy
ĠB op
B unny
Ġbead s
Ġbowl s
Ġcrumb s
Ġlisten s
ĠL ove
z es
ĠCat ty
ĠBrown ie
P ete
ĠO l
Ġb unch
Ġc ough
Ġdolph ins
Ġg uest
Ġrequest ed
c akes
Ġrem ote
Ġimpro ved
ant a
Ġreach ing
Ġbra nd
ĠJ an
ĠB ye
Ġal ien
ay la
Ġcop y
Ġcheer ing
ir m
ĠS un
Ġphot os
ĠChe w
ĠJul ie
ĠBl ink
B ad
T ime
Ġcan s
ĠC uddles
Ġtim er
ĠB y
Ġrepl aced
Ġwork ers
ath y
Ġst ern
ĠE njoy
Ġne ither
M ike
Ġpass ing
Ġmis ses
Ġcurtain s
Ġconf l
ast er
Ch irpy
Ġrainbow s
Ġrub s
G eorge
Ġroll s
uct antly
Ġpat ted
Ġpa jamas
il o
Ġoutdo ors
d ies
Ġcomplain ing
es ome
ĠSqu irrel
L ola
R un
Ġpupp et
ĠPrin cess
Ġclose s
Ġben eath
Ġdrum s
Ġla p
Ġt une
ĠB eth
ĠM ouse
Ġfill ing
M iss
Ġref use
ĠS orry
ang led
Ġfa ced
Ġswe at
Ġse ven
Ġbalan ced
.. .
Ġqu acked
Ġresc ued
n eath
ĠA bby
P aul
Ġaw esome
ist le
Ġmiss ion
ĠHow ever
Ġguy s
Ġcaut ious
Ġconfl ict
Ġc ause
Ġv ent
Ġobser ved
ĠTh omas
Ġintrod uc
Ġpast ries
Ġ 1
ĠO ur
Ġdoctor s
Ġexact ly
n ie
Ġru le
Ġbec oming
Ġpolice man
b l
Ġm es
Ġrocket s
Ġ Yes
u ly
ĠD ot
y ou
Ġfair ies
Ġp out
l ay
Ġbloom ing
Ġtra ctor
Ġfar ther
Ġins ist
ĠS ad
O ops
A n
av i
G reat
Ġremember ing
Ġinclu ded
Ġcur ly
F ine
Ġteam work
Z oom
z ie
Ġsl am
Ġwob bled
Ġfascin ated
Ġtr uly
Ġhelp ers
Ġsight s
Ġpad dle
Ġst umble
Ġf irm
H enry
ĠJ illy
ac ob
Ġca used
Ġpray er
Ġrecord ing
ke lly
Ġsp ong
Ġstar fish
Ġtr aded
Ġsupp lies
Ġth ro
Ġpoin ty
a is
Ġinv iting
Ġsitu ation
e ah
Ġevery day
Ġneighbour hood
Ġornament s
ĠA lly
Ġval ued
g ers
ink le
Ġadd ing
S ome
Ġrel uctantly
Ġdot s
Ġstay s
Ġtable s
Ġprett ier
Ġb are
Ġdes ert
Ġsnow men
Ġste ady
Ġminer als
ara way
Ġth orn
Ġf araway
Ġgl asses
o dy
Ġa st
ĠFo xy
ĠG et
ĠS ure
ĠW elcome
ĠTw o
Ġswoop ed
Ġfork s
Ġ ĠĊ
Ġus ually
Ġus ual
P olly
Ġd ar
ĠJ amie
Ġun f
Ġwin ked
Ġsnee zing
Ġsol ut
Ġload ing
Ġspong e
ĠQu ick
Ġinsect s
Ġpan s
D og
ĠS anta
Ġso bbed
J ames
Ġgrowl ing
ĠCh loe
Ġthro at
Ġno ses
ĠJo sh
ar ter
ĠD izzy
Ġscar ves
Ġconf ident
s m
ĠW ant
Ġyour selves
ag ull
Ġhome work
ĠSt ay
Ġsuperhero es
Jo ey
Ġsm arter
Ġwind y
Ġlibr arian
T ina
ĠK ids
Ġgem s
D ays
Ġunder neath
Ġkick s
or a
Ġknow led
Ġitch y
Ġjacket s
Ġknowled ge
ĠS kelly
Ġsurf ace
ĠF or
Ġunt ie
ĠD uck
Ġprince sses
Th ose
.. ."
H old
Y eah
Ġcom m
c oon
id o
Ġsquare s
ĠH enny
Ġread s
Ġgigg ling
Ġwarn ings
O ur
Ġyou nger
e ed
Ġch oo
i ar
v in
Ġclown s
T oby
ĠM ix
Ġro pes
s on
Ġbit ing
Ġcrow d
ĠUn fortunately
p ite
Ġse agull
Tr ue
D anny
Ġpadd led
Ġwear s
Ġdeliver ed
Ġon ions
Ġtwir l
Ġbuzz ed
ĠM on
Ġcomplain ed
Ġb umpy
E w
Ġst em
Ġpig gy
Mr s
ĠAnn e
Ġdire ction
Ġdi ved
Ġt angled
Ġstart led
Ro ar
Ġlean ing
ul ts
ou ch
bb ie
ĠA nt
ĠJ ones
Ġbad ge
Gra ce
th ough
Ġde al
Ann ie
Ġv owed
ĠP o
Ġnap kins
Ġun p
Ġtick led
Ġr isk
Ġcover s
Ġp ec
an es
Ġyell s
Sh h
Ġsatis fied
Ġknock s
Ġrefres hed
t uce
cu se
Ġc ous
Ġarrow s
M aggie
in t
ĠWh istle
Ġwip es
Ġspe aking
P e
Ġlet tuce
Ġguess ing
ĠQu ack
Un fortunately
ĠS usan
Ġri pe
ĠS c
ĠDo do
Ġhid es
Ġchoice s
ĠRo ver
Ġsign ed
Ġslow er
Ġseek er
Bu zz
Ġintroduc ed
Ġsing er
Ġcreat ing
ĠMat t
Ġfro ze
Ġjo ked
ugg les
Ġc ent
Ġsque al
Ġexplore rs
Ġtoast er
f it
Ġav o
S ophie
Ġpray ing
Ġwr itten
ang ing
Ġdiscover ing
ĠD ara
Ġprov ided
ĠL ion
Ġref le
Ex cuse
Ġmushroom s
ĠJe ff
ĠP aws
Ġkne es
Ġpay ing
Ġhid er
ĠAs h
Ġwander ing
ence s
Ġimag es
Ch arlie
Ġst ung
ĠW ink
Ġmagnet s
Ġbare ly
Ġbeh aving
?" ,
Ġmar ked
Ġtip to
br ush
ĠD ee
Ġrest ored
Ġlead ing
Ġn ine
Ġch uck
Ġgre et
ad os
T eddy
ll ed
Ġbra very
Ġgear s
ĠSn uggles
Ġcompetit ion
Ġout fit
Ġwis hing
Ġprop erly
Ġvent ured
Ġdance s
Ġmus cle
ol ine
rr r
e al
Ġch at
Ġsal ty
t le
Ġpen s
ĠBet sy
k y
Ġran ger
ĠZ iggy
Ġdeser ve
Ġhow ever
Ġmatter s
Ġdark ness
se qu
ĠF u
Ġrain y
Ġcobweb s
Ġbur st
Ġruin ing
Ġchef s
Ġb ak
am b
Ġblock ing
Ġcon sequ
it ely
ust ed
Ġv ines
Ġsc ur
st y
b ric
Ġfa bric
Ġent ire
Ġperform ed
Ġbase ment
Ġle ast
ĠBug gy
ab el
Ġscrat ches
Ġheav ier
ĠC laire
S n
Ġmin ts
Ġavoc ados
Ġtwir ling
How ever
ĠL inda
Ġlo sing
Ġscur ried
r ink
ĠJen na
Ġsunf lowers
Ġrain co
Ġsword s
T weet
Ġcl ick
ĠL aser
Ġjob s
Ġsil ent
ag ic
Ġfl ames
Ġnecklace s
ĠL uke
Ġrelie f
ĠGr umpy
f l
Ġsn at
Ġrot ting
Ġsew ed
Ġtrick y
Fo llow
J erry
L isten
l en
Ġlight er
oph ia
Ġbow s
ĠSk ip
Ġex ha
Ġsolut ion
Ġconsequ ences
A lex
ĠL ena
Ġst ain
Ġtire s
Be ep
Ġunp acked
Ġrace s
Ġpart ic
Ġbump s
Ġp ins
Ġwrap s
A b
r ance
Ġb acked
Ġdecor ating
ais ies
Ġw ow
Ġdent ist
Ġneed les
Ġcautious ly
Ġlift ing
Ġpur r
izz ie
Ġaccompl ish
a a
Ġd aisies
Ġtriang les
ĠTh ose
Ġhesit ated
Ġann oy
ĠP r
ep t
Ġgrowl s
Ġcrack ers
c her
Ġstom ped
Ġgra bbing
Ġc ott
Ġbo dies
Ġfig ured
o ke
ĠT ree
Ġbuy ing
ĠF ido
ĠR olly
Ġm ater
ĠA dam
Ġmater ial
Ġswan s
Ġt ies
Ġgrow s
Ġg ri
Ġsweet s
ĠGood bye
Ġown ers
Ġcheek s
ĠC athy
Ġflav or
ĠJ essie
Ġsuffer ing
B ig
ver s
Ġfa ct
v room
ĠE l
Ġgroup s
Ġfore head
Ġlung s
H arry
Ġre pa
Ġinterest ed
Ġbak ery
b ly
ĠM ilo
Ġf reed
L illy
ĠNot hing
Ġchuck led
F or
it ches
Ġsw ept
Ġcon n
Ġthu d
Ġexha usted
Ġt apped
Ġtwink ling
Ġne ct
Ġnect ar
? '
ro sty
Ġfe ast
Ġdar ling
T w
R u
ind r
ell e
Ġwor ries
ĠM ad
Ġtunnel s
Ġfu zzy
ĠTr ust
Ġrepa ired
Ġre ason
ĠCo pper
ĠB all
Ġactiv ities
Ġun s
ĠH annah
Ġpec ked
ĠT ry
ĠL isten
Ġme als
Ġra indr
Ġent rance
le ts
Ġcomplet ely
Ġpartic ular
Ġma iled
Ġnest s
ct ions
Ġwait er
Ġcudd ly
Ġs ense
ĠN ana
Ġcolor ed
Ġle ap
ark y
Ġpl enty
Ġpee king
ĠC ara
Ġslam med
b and
Ġplay ers
st ep
Ġbu dge
ĠB irthday
Ġmon th
n o
Ġforget s
Ġd en
Ġ Q
Ġhand ful
ĠOl iver
Ġsc ra
o ssible
Ġm er
Ġgen ie
ĠChr ist
Ġst ool
igg ie
ĠP up
Ġtalk s
ĠSu zie
Ġfeed ing
Ġpassport s
Ġfilm s
Ġbath s
Ġimp ossible
Ġdeterm ination
Ġprin ting
Ġdesign ed
M ay
Ġbu ses
bo at
le phant
Ġbar s
Ġsuit case
ue en
Ġcount s
Ġo pp
Ġsto len
Ġspread ing
Ġspike s
Ġste er
Ġwip ing
ĠSn ap
Ġl amb
ĠR ain
Ġhon ked
et ty
n ies
Ġcow b
W hee
Ġsepar ated
Ġsi bl
Ġsibl ings
Ġhop s
Ġch op
Ġfire s
Ġsew ing
ĠTw inkle
Ġfe ver
Ġtwink le
Ġt y
Ġcamp ing
ĠM ira
Ġl ower
Ġch anging
Ġbeh avi
y es
ret ch
ĠBl oom
Ġcelebr ation
m as
Ġli qu
Ġdoll house
Ġsqueal ed
S unny
Ġback ward
Ġag e
Ġsnat ched
b ut
Ġc ash
Ġtw ice
Ġs way
it ched
le e
Ġcelebr ating
ĠPe anut
Ġshr inking
Ġk ings
Ġac he
Ġshop s
Ġkitten s
h o
we ed
ĠJ acob
ĠJess ica
R ose
c ope
ĠG ina
ri ous
au ra
Ġh us
Ġtouc hes
Ġpan cakes
Ġavo id
Ġsp at
air y
ĠF rosty
r ig
ĠN ina
h og
Ġpath s
ĠH old
Ġr otten
S andy
Ġdro pping
Ġsea weed
Ġcalm ed
ĠJ on
ck y
ĠM el
Ġtwist ing
Ġstro ked
P ipp
Ġunt ied
ll en
Ġplay house
ile s
ive s
M illie
Ġstud ents
Ġpupp ies
ĠSo f
Ġscrew s
Ġsome body
Ġast ron
Ġliqu id
ig ning
h i
Ġsqu ish
Ġwake s
ĠR e
am my
ĠW oof
Ġbrace lets
Ġastron aut
Ġthr own
im mer
Ġloop s
ĠO ther
are n
L uckily
Ġwra pping
Ġpl ain
Ġplan ning
n e
Ġa imed
Ġsk unk
Ġtr amp
Ġpen nies
Ġsh oo
Ġdanc ers
Ġlift s
c l
Ġspark s
Ġfiref ly
Ġpo ster
D an
ĠChrist mas
p en
Ġreward ed
Ġobject s
Ġdire ctions
Ġc ust
y an
end y
Ġrefle ction
Ġhus band
T ake
ing o
us ing
Ġcl ues
ri ver
âĢ Ķ
u ppy
Ġlead s
Ġincre ased
Ġbl ocked
Ġr ising
Ġdo d
ĠY esterday
Ġcous in
ĠWith out
Ġforget ting
rig ued
K ate
Ġbegin ning
Ġtramp oline
Ġcust om
u de
Ġstore keeper
Ġpout ed
Ġzebra s
Ġhedge hog
Ġborrow ed
ĠRo llie
ĠâĢ ĺ
Ġsnow fl
Ġcountry side
J ump
ĠJ ay
Ġa ff
Ġvehic les
Ġinstr um
ĠM ic
ĠK ayla
Ġmes mer
ĠU p
Ġfrown ing
U nder
P at
Ġmark er
y ond
Ġbe yond
Ġpres ses
iv ity
ĠQ ueen
ĠOn ly
Ġdam age
ĠT ara
ĠB iggie
Ġfar t
i very
ie ce
Ġwhisp ers
Ġslip s
Ġswims uit
Ġn ibb
Ġheal th
ĠJul ia
j o
Ġfl apping
Ġwarm er
arm er
Ġtipto ed
Ġregret ted
Ġlay ing
ĠRob o
Ġy elp
Z ip
Ġevery body
ĠF ire
Ġgl ued
Ġrain s
Ġcre ations
Ġhear ing
Ġcold er
itt ed
Ġsw ir
iver sity
a el
ĠE lephant
Ġshap ed
Ġstreet s
ad es
Ġfin s
Ġcush ions
Ġrust y
O ut
Ġsa n
Ġfart hest
Ġcreat ivity
ĠMike y
Ġsa le
Al ways
Ġstrong est
Ġfit s
ĠSpark y
ibb it
Ġbell s
C o
Ġdoll ars
ĠL arry
Ġlend ing
Ġe arn
ĠCh irp
i am
ee se
Ġcash ier
M illy
ĠM oon
ang le
Ġinclu ding
ĠR ich
Ġsniff s
Ġrainco at
Ġsan k
Ġsto pping
Ġtremb led
Ġsour ce
ĠMiss y
it i
im on
Ġind eed
Ġwob bly
Ġguest s
ter s
Ġsing le
an s
Ġrecommend ed
Ġspell s
Ġwe e
Ġaccomplish ment
Ġbel ts
Ġsurpr ising
Ġend s
Ġhope ful
Ġseas ons
ĠT ake
ĠSnow man
ĠE ls
Ġplan s
ich ael
Ġsupp orted
Ġencou rag
Ġsuff ered
B ear
Ġperform ance
Ġart ist
N ina
Ġslow ed
e et
Ġg ross
st ick
Ġflav ors
ill ed
Ġsp ins
Ġlabel s
Qu ack
Ġraindr ops
Ġdel ivery
id ing
Ġforgi ving
ch o
ara c
ert ain
Ġrac coon
u ing
Ġpour s
ob ody
ĠW oo
Ġstand s
Ġturt les
Ġvan illa
B ill
u ess
Ġrec ipe
Ġbe am
Ġt ying
il ity
Ġg eese
Ġwill ing
Ġdraw n
Ġrob ber
V room
Ġwe pt
ĠB ones
t he
ĠS ophia
Ġcorn ers
Ġch arac
Ġque ens
Ġpop s
Ġd ie
el ia
Ġsail boat
Ġgri p
Ġdriver s
ĠS w
it ude
Ġhall way
Ġimag ining
Ġsecond s
Ġm oo
ĠFu zzy
M ine
Ġprep aring
Ġwid ened
Ġad ult
ĠSp irit
Ġgro cer
Ġc oop
Ġtalent ed
ĠP am
ĠBe aky
ĠI zzy
Ġsail ors
umm ies
Ġso fter
Ġas ide
Ġwater ing
Ġknot s
Ġsend ing
Ġt ipped
Ġuns ure
L ulu
Ġhor iz
ĠL izzie
Ġtree house
Ġnot es
ll ing
Ġe cho
ig ers
Ġachie ved
Ġhoriz on
Ġdeliver ing
Ġhot ter
ĠSt ella
Ġple asure
Ġsque ak
Ġpupil s
Cl ara
Ġbur row
Ġangel s
Ġcurious ly
E llie
Ġblin king
Ġy um
ĠJ une
Ġtw eet
ĠSt retch
Ġsymbol s
w k
ĠC indy
Ġpass en
ĠRu dy
Ġt ummies
Ġt iss
Ġpige ons
Ġfigure s
o ey
Ġband ages
ĠRob ert
Ġd et
Ġc oup
ĠDo ctor
Ġrobot s
umb ling
Ġtoss ed
Ġh our
Ġback wards
al ph
Ġro ars
B aby
Ġmer ma
Ġr ather
u zz
at ur
Mar ia
c ited
ĠCra b
ĠP lay
Do lly
Ġgrocer ies
M oo
Ġzipp ing
ight ing
P ut
V ery
Ġam ong
Ġ icing
p rin
Ġbl own
Ġun w
Ġafter wards
Ġr umble
!âĢĿ .
Ġscrew d
ipp er
ĠT ia
ĠT iti
Ġg lee
Ġsp ed
Ġpr ove
Ġd ip
Ġover come
Qu ick
us hing
Ru by
Ġsurf board
Ġshovel s
ĠTo ot
Ġslice s
Ġm erry
Ġm ate
Ġwob ble
ĠT urt
ĠA bbie
Ġhead ing
Ġdisturb ing
Ġrever sed
Ġfirefight ers
all owed
Ġsw allowed
J ul
Ġch ip
Ġsc ored
Ġfl ipped
ĠJ ump
Ġsquee zing
ust y
Fr ank
Ġwa king
ed s
Ġint rigued
S ad
L ike
S u
Ġm aker
at y
ĠB arky
B etty
Ġha wk
aw n
Ġencourag ing
Ġp uff
on ies
Ġch os
ĠR on
Ġchos en
Ġa ud
ĠA ng
ĠF armer
Ġcoup le
Ġdesign s
Ġslipp ing
Ġscrewd river
ĠEm my
Ġsquish y
Ġgarden er
Ġcent er
he w
Ġriver s
ĠE x
Ġmark ers
Ġresp ond
Ġt igers
Ġjar s
Ġfrown s
pec ting
ĠK it
Ġflutter ed
ĠSad ly
R ibbit
ĠR yan
Ġfirefight er
ile y
Ġsec ure
Ġsuit s
Ġsprink led
ĠS l
Ġcream y
Ġbr u
Ġshark s
Ġignor ing
as hes
Ġgigg les
Ġtight er
Ġtiss ue
b ird
Ġfirm ly
ĠL aura
oun ce
Ġsh own
Ġfamil iar
Ġthorn s
Sp ike
ĠW o
Ġdraw ers
f ly
ĠZ ee
Ġexp ress
Ġd aring
ch ild
Ġcross ing
Ġcloud y
Ġperform ing
Ġcolour ed
Ġaud ience
C ar
Ġa is
ĠN ick
Ġpedal ed
G et
Ġmix ture
a e
Ġt il
Ġc or
ment s
Ġgrace fully
Ġde f
r at
Ġhaircut s
Ġyield ed
g gy
Ġp onies
Ġcrown s
Ġbit s
Ġto dd
Ġdis ob
ĠS leep
Ġhang ers
Ġnervous ly
ĠP atch
Z oomy
bb led
Ġpay s
Ġpe ck
Ġstro ke
B ang
Ġn apped
Ġres pected
a ven
Ġmind ed
Ġ 2
B essie
e en
dd ie
f all
B oys
Ġtest ed
Ġe v
ĠChr is
K im
p arent
ĠUn iversity
Ġbee h
ĠN ear
ĠTurt le
Ġsurf ing
Ġneighb ours
Ġsh ady
Ġd arl
ad ing
ion a
Ġmagic ian
Ġenthusia sm
Ġdarl ings
ver ed
Ġwis ely
ar row
Ġst itches
D ear
Ġsail s
ab ly
ke nd
Ġthought s
Ġwee kend
ĠTweet ie
Fred dy
Ġremind s
ant ha
th a
Ġfle as
Ġsurround ings
Ġspit s
Ġteam s
Ġfill s
Ġlesson s
Ġtemp er
ĠAl ong
Ġfl ip
Ġpaint brush
Ġmel ons
Ġmerma id
K atie
Ġel bow
Ġhoop s
Ġgrand child
Ġexpl o
Ġsport s
G uess
on i
or ing
Ġli es
ĠF ighting
Ġpan icked
Ġam ount
Ġclean er
c used
Ġlong est
ra c
Ġscoot ers
Ġl ent
Ġbel oved
immer ing
Pipp in
Ġbeeh ive
Ġs ill
og a
Al right
Ġoy sters
Ġgrand parent
it a
ong rat
ongrat ul
Ġforgi ven
ll e
Ġmagaz ines
ĠW ise
Ġar r
Ġe lf
Ġrepe ating
Ġdiscuss ed
Ġsweet est
ĠThank s
Ġwa dd
ĠMay a
K eep
Ġre ass
Ġla ce
ĠGr anny
Ġnightmare s
ĠW illy
Ġtub es
Ġunderstand s
Ġspoon ful
Ġn ood
ĠZ oey
Ġbat hing
Ġman ners
Ġswe ep
ast y
Ġb ully
Ġn ur
ĠH olly
Ġspr ang
Un cle
Ġwr ink
ĠY et
on na
Ġgu ide
c row
Ġc rew
rom ise
A m
J azz
Ġbreat hed
an cy
ild a
wh ile
ĠB ally
Ġbulb s
Ġne are
Ġgrass y
step s
Ġsp ies
Ġtest ing
Ġwigg ly
Ġc oug
Ġsol ving
Ġsheet s
ĠR oo
Ġfoot steps
nt il
After wards
Ġspeed ing
ent ly
Ġfo cused
oun ced
? !"
Ġbra ver
Ġcam el
Ġmesmer ized
ĠSpark le
Ġhesit ant
Ġlick ing
ce pt
Ġr ushing
ĠW ell
ĠP uppy
Ġjoin ing
ĠMar tha
Ġgreet ed
Ġpol ar
ĠBu bb
K iki
es pite
Ġch anges
Wh ich
ĠN obody
Ġmaterial s
Ġwor n
Ġstor ed
und red
Ġbicy cles
Ġm ast
Ġan ger
Ġpeace fully
Le ave
Ġship s
Ġn uzz
Ġg onna
Ġsp ice
Ġterri fied
Ġpol itely
ĠSh ow
Ġscare crow
Ġspill s
Ġkn ives
Sn ow
ĠMix y
Ġbury ing
pp ies
Ġev il
Ġare n
Ġheal ing
c a
Ġdon key
Ġaeropl anes
E ven
f reeze
Ġm iles
Ġse als
Ġscatter ing
ĠChew y
Ġd ump
am boo
Ġworry ing
z oom
B ee
D avid
ĠL enny
be ep
Ġpuzz led
Ġst acked
ĠK ip
P enny
Ġlo ses
ĠN ice
ĠW in
dd ing
Ġbasket s
Ġtrave lled
ĠO kay
Ġgaz ing
ĠT ess
Ġbl ast
H urry
Ġtemper ature
Ġcl ue
Ġtast ing
Ġdri pping
Ġbelie ving
ip es
Ġpinch ing
Ġso aking
Ġrat s
Ġ1 0
Ġsand y
ĠIs n
er m
ĠS imon
re ct
an while
re y
is c
ĠAb i
B inky
Ġban ged
Ġpunish ment
- -
Ġhuman s
Ġcras hing
Ġu nd
Ġfor ce
ĠA na
Ġh undred
Ġg est
ĠL ia
Ġswim mer
ĠChe ss
Ġsnowfl akes
Ġrelax ing
Ġres isted
Ġbeep ed
Ġquarrel ed
Ġr amp
ĠW endy
ĠF airy
Ġjo ins
Ġbackpack s
el ie
Ġdress ing
Ġdelay ed
year s
f orm
ĠP h
Ġtodd ler
ĠL uckily
ab by
Ġcover ing
O pen
Ġben ches
Ġencourage ment
Tw o
B y
Ġfl ight
Ġtow ard
Ġscra ped
ĠT e
or ter
Ġfo cus
ĠJu dy
B ow
Ġpurp ose
' ."
Ġlip stick
Ġcor rect
Ġb amboo
ĠC ow
Ġperm itted
Ġtwink led
Ġmonth s
Ġpot ion
Ġlangu ages
Ġord ers
Ġpo ppies
Ġrisk s
Ġfreed om
S pe
Ġm aster
Ġnood les
Ġf aded
sh m
T ony
Ġwound s
shm allow
K ids
ĠJo jo
Ġbird house
Ġcream s
ri er
is ions
ĠHer b
Ġcell s
Ġannoy ed
op es
Ġad ults
Ġsniff ing
Ġche ers
Bird y
Ġunw ra
Ġp uck
ec ca
Ġflo ats
Ġopin ions
Bu zzy
and as
In stead
Ġfl own
Ġhands ome
Ġsnee zes
ĠM int
Ġno dding
Ġsmell ing
Ġbur nt
Ġsc en
Ġdri fted
Ġ 5
Ġwith in
b age
Ġhe ight
Ġsc ient
Ġbother ing
Ġdam aged
Ġsl ither
Ġte aring
Ġple aded
Ġinstrum ents
Ġe ase
ĠAl i
B ack
id er
ĠMar ie
Ġscient ist
M ira
Good night
Ġp ound
Ġhand ing
Ġsell er
Ġg erm
ĠS ay
d a
Ġwas ting
Ġfile s
Ġdream t
Ġres ults
ĠM abel
Ġexplain s
Ġdestro ying
Ġbrus hing
Ġhis s
ous y
ĠR azor
Ġcharac ters
C arl
Ġc ertain
P andy
ĠH ug
Be hind
ĠSt e
Ġsweat y
ĠC r
b ell
Ġbus iness
ĠRob bie
Ġon ward
un ched
Ġtal ents
T ry
Ġbrave st
Ġeng ines
as hing
ĠP en
ĠJan ie
Ġstern ly
Ġpost man
Ġmosquito es
prin ts
Ġt uck
Ġmind s
Ġscare s
Ġstom p
Ġapolog ised
Ġman ag
c ake
Ġb itten
Ġsn uck
u rious
Ġsw itched
Ġdec isions
Ġremind ing
Ġtil ted
Ġsing ers
ĠPo or
Ġbehavi or
u el
u nder
Ġdes per
atter ed
ĠJu dge
it ion
Ġsque aked
Ġpeel ed
ĠEvery body
in ny
bb ers
Ġpur rs
Ġy umm
Ġsm ashed
Ġtreat ed
ĠU ntil
Ġdisplay ed
Ġrust ling
Ġneat ly
Ġmate y
ĠB ess
Ġplant ing
Ġmar shmallow
Ġin sp
ĠB ra
Ġcra cks
Ġbell ies
Ġyelp ed
Ġgrandparent s
Ġshin es
ĠN avy
Ġfa iled
Ġcolor ing
Ġsc amp
a ver
Ġh oo
ĠY oga
Ġs y
ĠM ake
Ġzoom s
Ġn asty
Ġbreat hing
Ġcomb ed
Ġp andas
Ġdes pite
l ine
Ġadd ress
Ġwater fall
ig hing
ĠL oop
uff in
ĠAng el
T illy
r up
Ġro bbers
Ġwid er
Ġant ic
Ġdoor way
ĠTo dd
Ġsweat ers
Ab igail
Ġecho ed
P lay
Ġed ges
e vin
ĠSh adow
A unt
c c
Ġg ap
ĠBl inky
Ġdisob ey
L iz
Ġin j
ĠM ichael
ĠFl ick
w ise
Ġt ar
W ake
os cope
Ġtap ed
Ġact ion
Ġscold s
Ġflap s
f ather
or king
ĠM indy
Ġmagn if
Ġcrawl s
R os
Ġgo bbled
Ġsw ap
ĠG ary
ul p
Ġback s
ĠE ddie
Ġwar ri
ĠFish y
Ġst eth
Ġse ver
om p
Ġshin ier
Ġprob ably
Ġnewsp apers
S low
Ġsever al
L ena
Ġenc ount
ĠMe g
Ġpl ucked
Ġquiet er
Ġser ving
Ġconn ected
Ġ ouch
R ock
t ock
Ġo cc
ĠSh are
A dam
T ed
Ġgest ure
Ġpl ot
Ġdoor bell
Ġstud ent
T oo
ig ger
Ġcare s
Ġsqu aw
Ġresc uing
Ġgrand son
Ġrow s
Ġsimp ly
Ġwhist les
m ies
Ġg oo
Ġsp y
f ire
Ġsh orter
Ġsnap s
Sh rink
Ġastronaut s
M agic
ĠTim e
Ġunpack ing
Ġcott age
i el
Ġaccident s
o llen
Ġm ood
Ġsw ollen
v ant
ĠN ut
St eve
ib i
ĠS e
ĠM ousy
ĠZ ippy
Ġbother ed
Z ara
ab elle
H annah
Ġsteth oscope
an ie
Ġca using
Ġtrust ing
F l
M ad
f ound
Ġdress er
Ġleap t
M at
Ġpill s
Ġprop er
ret ty
Ġthrough out
O live
Ġs ou
ĠD ina
Ġrun ner
Ġpray ers
ain t
Ġjoy ful
Th omas
Ġlo cks
ĠPr ince
J amie
Ġgoat s
Ġtar get
ĠW ait
ĠK aren
ĠB ang
Ġde ars
Ġfl ips
Ġwadd led
Ġm unch
ĠC ro
art led
Ġlow ered
wh at
R ed
m ates
ĠJack ie
Ġste pping
Ġteacher s
ĠT oys
Ġcowb oy
Ġin ches
Ġenvel opes
ĠV room
Ġexplore r
ĠR uff
ĠR alph
ear s
ĠRe ady
Ġantic ip
N ice
Ġplay d
re st
un ity
ĠB ad
Ġch ar
Fin n
Ġcon s
Ġfloor s
Ġknock ing
Ġeffort s
Ġuniform s
Ġtr ot
Ġaw are
l ied
Ġfoot prints
en ing
ĠF iona
Ġnear ly
Some one
ll as
ĠR ia
ĠT ri
Ġwh imp
Ġgl itt
Ġdis c
Ġappreci ation
iv i
Ġne cks
Ġche cks
Ġs ens
Ġla pt
Ġex cept
Ġcoll ap
Ġch arge
ĠJack y
Ġpl ug
ĠP l
oo sh
Ġflutter ing
Ġumbre llas
Ġstamp ed
Ġsandcast les
ĠDave y
Ġstat ues
H oppy
ĠH oney
Ġshr ank
ĠAm elia
isc uit
Ġfin ishing
ac y
Ġpri ck
Ġadd s
Ġchocol ates
Ġstro ll
Ġdod ged
r ily
r ons
Ġhunt ers
Ġpassen gers
Ġgerm s
ail s
Ġwr igg
Ġap rons
Ġais le
om b
og er
Ġset s
ĠG erry
Ġwe eds
Ġnovel s
.' "
ĠT aking
Ġdemand ing
Ġscratch ing
Ġmeow s
or der
Ġnur ses
L ucky
Ġmind ing
Ġdiscuss ing
Ġk illed
ur render
ĠC ari
Ġdrive way
Ġbec omes
iss a
D r
ĠEl iz
Ġlapt op
Ġha ird
ĠD espite
Ġtool box
ĠSad ie
Ġatt ack
Spe edy
Ġpo sit
Ġbounce s
Ġscamp ered
Ġde ed
Ġspray s
Ġsupp lied
Ġburn s
Ġfriendship s
Ġtem pt
Ġsuggest ion
Ġsl apping
Ġclos ing
ĠG l
Co co
so l
Ġbelong ings
Ġinvit es
Ġanticip ation
A rrr
ĠSt an
Ġspring ing
Ġer ase
Ġr ays
Ġtwist s
Ġcott on
Ġforgive s
Ġsnugg le
Ġmodel s
Ġhum ming
Ġmass ages
Ġfor m
Ġsh all
Ġnew found
Ġrespond ed
ĠShe lly
Ġex pecting
Ġghost s
on nie
Ġche ated
Do es
ĠWoo ly
G igi
ott e
Ġtravel ing
Ġal though
Ġbat tle
Ġmom mies
Ġco nd
allow een
Ġcar ries
Ġinvit ations
Ġa im
Ġrefres hing
Ġpresent ed
Ġr owed
ĠB umpy
Ġtw enty
ĠN e
Ġcon c
Ġsqu ir
Ġfox es
arl otte
Ġduck ling
Ġcoop er
ĠB ibi
Ġfin al
Ġca fe
P ip
Ġmarshmallow s
ot s
Ġcl icked
ĠZ ipper
ri e
Ġbe aver
Ġdes igning
f ive
he l
ĠH alloween
ĠM uffin
Ġjet s
Ġmug s
ĠWho ever
Ġdr own
ĠAl though
ĠR uth
Ġtri cycle
Ġpicnic s
ĠEx cited
i ens
o or
Ġcon vin
Ġopp os
ĠP op
Ġscoop s
ĠMad die
Ġc ongratul
Ġal iens
Ġtravel s
ĠâĢ Ķ
Sad ly
ĠC le
Ġtest s
Ġquestion ed
ĠSpe ed
Ġstrip s
Ġcra ft
N ear
M ouse
in ted
Ġde fe
p o
co vered
ĠFl utter
ĠBubb a
at ty
ir i
Ġfight s
B all
ĠBig gy
Ġoppos ite
E lly
F ind
ro ken
Ch loe
H mm
ĠN ever
Ġgrand father
Ġaff ord
Ġencount ered
Ġr out
Ġdec l
Ġra ising
Ġup side
ĠV ivi
Ġfl ashed
ĠR ita
Ġcalm ly
Me anwhile
B r
Ġreal izes
Ġyaw ning
Ġsince re
J ess
in ch
ĠI m
Ġb uddy
ĠSam antha
Ġcryst als
Ch oo
Ġcup cakes
Ġbuck led
atur day
B oth
by es
Ġwin ners
Tr ust
im ent
ver se
Ġdef in
r is
Ġca w
Ġweap ons
' ,
ĠS aturday
Ġche at
Jo sh
Ġpack ages
Ġsa cks
Ġgood byes
Ġco ach
Ġatt em
Ġmes ses
Ġcon vers
ĠTr uck
ĠM ina
ĠE va
Ġdri ft
Ġcap s
Ġen em
Ġenem ies
qu et
sh adow
ash a
Ġscr ub
ĠFl o
Ġyumm iest
Ġreturn ing
Ġsw allow
Ġadmir ation
ĠMe gan
ĠSof ty
S ince
Ġspr out
ĠLou ise
ri an
Ġun able
ĠAn other
ĠPlay ing
Ġb less
Ġsad der
Ġbright est
Ġfreez ing
ĠY awn
v al
re verse
on se
Ġco sy
ĠO h
ugg ing
Ġresp onse
ĠM an
ook s
Ġbr ide
Ġdiamond s
Ġgar bage
Ġhon king
Ġopp ort
st alk
Ġstret ches
Ġprevent ed
Ġwhisper ing
Ġre app
Ġwho ever
ant astic
ĠG ray
Ġaw ful
Ġjourney s
Ġweigh s
Ġaw oke
B rrr
er k
Ġo dd
Ġdragon fly
Ġtrap s
Ġb orn
Ġspice s
al th
Ġcl ip
Ġreass ured
Ġbean stalk
ĠM aisy
Ġexam ining
Ġbeet les
iv ia
Ġautomobile s
Ġarg um
Ġdefin itely
Ġst all
ic i
Ġvisit ors
Ġstuff ing
Ġplayd ate
H op
Ġwas hes
m ine
b roken
c ie
Ġwis er
Ġcustom er
R achel
o ff
em ma
ĠJo lly
ĠFl op
Ġtrave lling
ĠSof ia
Ġb ou
ĠN urse
Ġbou quet
Ġt umbled
ĠE lle
Ġdecor ation
Ġcamp fire
Ġhaird ress
, '
Ġhonest y
Ġb omb
On ly
eb ecca
up er
Ġbu d
Ġwelc oming
Ġoffer ing
ĠHe llo
Ġwe alth
ĠJ ax
ĠO t
Ġocc as
or se
bb le
Ġloud est
Ġincre asing
Ġinsp ired
Ġpar ted
Ġtrou bles
Ġgro an
Ġty pe
ĠNut ty
Ġwh ales
ĠTh under
ĠR icky
ĠCh ick
Ġdecl ared
ir ac
Ġcorrect ly
y l
y ler
Ġbeak s
ĠQuack y
f us
Ġcle ared
ath an
Ġcowb oys
ĠDot ty
Ġnuzz led
Ġex ch
ook y
Ġpri zes
v y
Ġwarm ly
Fin ny
ĠMiss ile
Ġre wards
Ġobey ed
Ġcustom ers
ĠF el
Ġcomfort ing
Sh ould
Ġsiren s
sh aped
ĠFl appy
Ġconn ect
ĠB ingo
m atch
ĠM agic
Ġre ly
Ġtown s
ĠV icky
elie ve
Ġf antastic
Ġtr igger
Ġown s
Ġbend s
Ġinsist ing
H oney
ĠF e
Ġspo iling
Ġhairdress er
Ġp ipes
Ġpo ses
Ġshare s
Ġclean s
Ġsupport ing
Ġsurrender ed
ĠC ook
Out side
Jul ie
Ġwrink led
ren ch
Ġcho pped
Ġmo ons
Ġrec order
B eth
un es
Ġthan king
Ġsnow y
Ġbeam ing
ĠWo lf
Ġsc urry
ell ow
Ġenjoy able
Ġact ive
Ġexper ien
S un
Ġc oral
ĠP iggy
ĠK evin
Ġdoll ar
Ġenv iron
Ġlo c
w orm
ĠB ub
el ope
Ġstream ers
ĠPat ty
ĠM other
ĠZ ack
ud ged
ing er
Ġex amp
Su zy
Ġshort s
Ġshoo ed
Ġenviron ment
J e
T ree
Ġ ill
Ġsc ent
Ġbru ises
ĠL uc
Ġhis ses
ust er
Ġpl ugged
Ġgr at
Ġsteer ing
ĠEls a
Ġwarri or
Ġvisit s
Ġsel f
Ġexerc ises
Ġdan gers
Ġcudd les
Ġs igning
ap tain
Ġun fortunately
Ġsqu ished
ĠM in
B o
R ay
ĠR el
sc reen
Ġpilot s
ĠL ight
Ġapplaud ing
Ġgrat itude
ĠM oppy
be e
Ġdisappoin t
Ġprov iding
Ġt ing
ĠR ub
Ġtick les
m unk
Ġbad ger
Ġnight s
Ġstorm s
ĠEls ie
Ġconvin ced
ĠK elly
Ġju d
Ġchoo sing
G row
n gest
Ġyou ngest
al f
Ġbra ins
Ġrespons ib
Ġactiv ity
Ġneare st
A bby
Ġexplo ded
Ġarr anged
Ġcoug hed
C laire
J oy
ĠT re
ĠF ly
Ġreward ing
g ood
ĠA r
Ġsun screen
erp iece
ĠFl oppy
Ġbo nd
as ers
Ġpe ep
ĠK aty
ĠJo an
ĠTweet y
M on
ĠS weet
il ities
ir l
Ġsoap y
Ġannoy ing
S plash
ĠS al
me ow
Ġrail s
Ġlace s
p r
Ġt apping
Ġoff ic
ĠP ine
Ġthread s
Ġappreci ated
ĠPh il
Ġwe ighing
Ġheart broken
Ġemer ged
Ġcongratul ated
D anger
ĠP ick
ĠS il
Ġcl erk
Ġcrocodile s
ĠN ancy
Ġattem pt
Ġmess ed
Ġscr am
Ah oy
Ġexamp le
Ġt in
Ġd ial
ĠA ny
Ġsn ug
Mom ma
ĠK ay
bo ards
Ġhook s
ĠJon ny
Ġtop s
Ġchip munk
s n
w ater
Ġso ot
Ġbat hed
Ġguard ing
ĠT ippy
Ġmanag er
ort unately
ĠMic roscope
F riends
ĠB aa
Ġmast erpiece
Snow y
Ġer asers
et ah
ĠTom orrow
Ġfin ishes
Ġtip s
Ġf et
Ġme mb
Ġdig s
Ġcomm on
Ġnibb led
Ġtrot ted
Ġmemb ers
Ġkind er
Ġche etah
Pe ople
Ġbl ond
ĠD e
Ġchew s
Ġparticular ly
Ġbe ast
Ġrip s
ir cle
L izzy
Ġfa ith
ĠHelp ing
Ġargum ent
Ġearn ed
ĠC ici
ĠJo ke
Ġobser ving
Ġforgiven ess
ĠJ umpy
Ġche aper
Ġfis hes
Ann e
Ġinst antly
Ġexperien ced
Ġgener osity
Ġmis chie
Ros ie
Ġmischie vous
Ġc ages
Ġfo am
Ġcur l
ĠTw ist
Ġmeow ing
C indy
m ered
Ġstore s
B aa
Ġmatter ed
Ġgrand d
etch up
Ġp asses
Ġte les
Ġsleep s
Ġl imp
ĠA g
Ġbreath s
io let
et tle
Ġr in
ord inary
ĠFred die
Ġgasp s
S que
Ġr umbling
ĠMom ma
Ġhat ch
G r
G ot
Ġgrass ho
ĠHo pper
Ġaccompl ished
at ive
Ġth ump
end ing
Ġstr um
Ġmat s
Ġsmart est
Ġteles cope
Ġwh ined
Ġtr ans
Ġmo at
G ina
ĠI ce
Ġj ugg
Ġfarm ers
Ġscram bled
ab ra
Ġdri p
ĠM ore
Ġgarden s
Ġang rily
Rob bie
Ġsy rup
Ġcollap sed
Ġforest s
Ġve gg
Ġdiscover ies
Ġsty les
Ġexperience s
ou raged
Ġmed als
o ver
Ġmean ing
Ġcon qu
ĠDo es
ac ing
Ġotter s
Ġty pes
Ġf aint
ide y
Ġsn apping
Ġhard est
ho le
Ġf if
Ġmove ments
Ġexpress ion
Ġch illy
ac ock
Ġbubb ly
Ġaff ect
Ġto r
Ġsur v
Ġvest s
Ġunf air
P inky
ad abra
When ever
Ġtooth brush
Ġextra ordinary
Ġscore s
N ever
p it
Ġatt itude
Ġcour t
Ġblue bird
Ġvi br
ĠMon key
Ġhor ri
Ġk etchup
Ġspear s
ĠB erry
m el
ll s
Ġsoon er
Ġbehavi our
Ġgrassho pper
M other
Ġpat ches
K aren
Ġha bit
Ġmom ma
Ġaf ar
Ġpoke s
ĠAsh ley
M o
J acob
er ts
ĠF riend
Ġthick er
Ġ icky
ĠT erry
Ġth ie
Ġsc ri
ĠF le
Ġshr unk
Ġclass mates
Ġsquee zes
Ġslither ed
J on
Ġglitter ing
Ġprick ly
y d
Ġexp ert
er ing
ĠR iri
Ġkneel ing
Ġann ounced
Ġto pp
ĠS uper
Ġpe acock
Ġmark ing
ĠA choo
ĠC ally
ct ric
Ġcost s
Ġwater mel
Ġzigzag s
Ġthie ves
Ġh ood
Ġjump er
Ġsk irts
ĠZ og
Ġact s
Ġwo lves
ĠCl oud
ĠSw im
P apa
Ġco coon
Ġsque aky
Ġthumb s
Ġbo ards
Ġcon cer
Ġwood cut
ĠBe cky
ĠEliz a
ell ing
Ġser vant
l o
ĠJ ason
Ġche ating
Ġr aking
Ġtr ading
aff le
J essie
id ence
ĠA pp
ĠE ric
Ġexplain ing
Ġb iscuit
Ġlunch time
Ġtid ied
Ġluck ily
ri ck
ĠP uffy
ĠA c
Ġspill ing
Fr og
an ced
ĠU se
Ġdess erts
ĠDan iel
ĠAn imal
ĠMad dy
Ġtrans form
ĠM ine
ĠD ay
ĠP ig
c at
r or
ĠG ill
ĠSt ill
F ire
Ġm irac
Ġmess ages
b u
ĠT ammy
Ġbe ating
ĠL ung
ĠC aptain
ĠG illy
Ġwindows ill
r ough
Ġsee king
Ġch ill
Ġa ctor
am ma
ĠL ina
ĠRain bow
id y
ĠWill iam
ĠM ath
A ny
âĢ ¦
pr il
o ot
ĠH i
Ġfore shadow
ĠP inch
ac les
Ġlean s
Blue y
B ounce
F reeze
s se
w ar
ĠT iger
Ġhis sing
Ġfl ashing
Ġcloth s
ĠSt ep
ĠFrank ie
ĠMon ster
rac adabra
Ġwatermel on
Ġwind ing
Ġdisc ouraged
Ġposit ive
Ġfor ts
ĠW il
Ġdri pped
Ġcompet e
Ġwoodcut ter
p op
Ġfun n
Ġtea pot
Ġpress ing
Ġdisagree ing
Ġgl immering
Ġde v
it s
Ġtidy ing
Ġtrust s
Ġkangaroo s
Ġvegg ies
Ġland ing
ĠPe ep
Ġtemp ted
ĠFl ora
Ġdo ck
Ġfor med
Ġsh allow
Ġf ade
Ġr ack
ĠTo oth
Ġele ctric
Ġcop s
f lowers
ick ing
Ġover w
Ġapolog y
Not hing
ĠL ife
Ġwor st
Ġsled s
ĠSil ver
up id
cream s
Ġcomet s
l ers
Ġp apa
ĠM ag
ĠJ elly
ĠSh ark
Ow l
Ġsitu ations
Ġconvers ation
Ġoffic ers
B ug
i ving
el ing
ĠR oger
ĠCh arlotte
st orm
Ġsun s
R ain
a i
Ġpizz as
Ġzip s
Ġmill er
Ġstructure s
Ġscurry ing
Ġ 4
Ġf oggy
Ġd ing
ay e
Ġsa v
ĠH urry
ĠBut ter
ĠAm ber
ĠOl ivia
Ġgrandd aughter
Ġoverw hel
Z oe
Ġas s
âĢĿ ,
ĠJane y
Ġweb s
Ġdeser ved
R abbit
ĠS asha
ĠB uster
ĠSp idey
ĠY ummy
Ġcub s
ĠMix ie
Ġopport unity
Ġsn orted
ĠGo ld
Ġrhin o
Ġdifference s
ĠT ell
Ġquack ing
F ifi
Ġhe aven
ĠBird s
Ġle vers
Ġunl o
Ġinch worm
ĠT yler
if ully
Ġappro ach
ĠRu fus
Ġseagull s
Ġcooper ate
ĠFel ix
ĠB oom
Ġpo sse
wel come
Ġposse ss
end ed
Ġpo se
?âĢĿ .
ĠSm oke
Ġspeak s
Ġsneak s
Ġdisappoint ment
o f
s ers
and ra
oc ular
Ġbin ocular
Ġart work
Ġsc owl
Ġanswer ing
ĠSn ake
Ġsurf ed
sn ap
rag on
Ġshort cut
Ġs ipped
Ġrob in
ĠIn ky
Ġar rest
Cl imb
Ġam used
ĠGra nd
Ġribb it
ĠAm anda
Ġunwra pped
Ġre un
Ġpepper oni
Ġrepe ats
Ġappl ause
ĠM ae
ug ar
ss y
ĠC ars
Ġkey hole
Ġcheck out
D eal
L ia
Ġvisit or
Ġstri king
Ġpadd ling
Ġpuppet s
E at
Ġin ter
ĠB rian
Ġun z
ĠC ircle
Ġatt acked
Ġcro aked
Ġsp ooky
ĠG us
ĠOt to
E ach
Ġd ep
Ġbeaut ifully
ors ie
ĠJe an
Ġgroan ed
Ġcheck ing
Ġswimsuit s
cident s
ĠY ellow
Ġcons ider
g ar
j est
ĠSque ak
ĠSl inky
Ġg room
Ġin vent
Ġwater s
L uke
Ġnet s
Ġexam s
u ses
y le
ĠR ebecca
Ġdry ing
Ġl ump
art in
ĠAunt ie
Ġshrug s
u dy
ĠS ince
Ġso bbing
ag ine
Ġshy ly
Ġcheer fully
Ġshoot s
Ġheel s
Ġhonk s
h ny
ot ion
Ġch in
an ish
le st
il i
Ġsh h
Ġhang s
Ġhealth ier
Ġwhimp ered
M ilo
es ses
Ġcaterpill ars
s ie
Ġf ries
Ġsqu inted
ĠR atty
Ġmagnif ying
Slow ly
ĠM us
ĠF ind
Ġbl amed
izz es
Ġfascin ating
Ġsc ulp
Ġfrustr ation
Ġsculp ture
ĠT ip
Ġsh immering
ic ious
ĠMar ch
ĠPen elope
ou ched
Ġnumber ed
ĠPe ace
Sh aring
Ġs uck
ĠW affle
ĠP et
Ġnibb le
i bbles
Ġpo ss
Ġflow ing
ed ic
ell ie
oth y
Ġgr umbled
ĠO ff
Ġra ked
Ġba a
Pe pper
hing s
Ġbuild er
Ġple as
Bu bbles
Ġfa cing
Ġgu ards
Ġpet ting
Ġsway ing
ĠWoo lly
Ġmyster ies
Ġsprink le
Ġdet ails
rac ted
e at
am il
ĠH ar
Ġfl ock
Ġsn ort
Ġen emy
ĠBo at
ĠB arry
Ġgood ies
ĠC urious
Ġtable t
Ġtexture s
Y esterday
Ġw ig
Ġpo pping
th at
Ġcr ops
Ġmar ve
Ġcount ries
ĠGra cie
Ġfan s
ĠJen n
Ġwild flowers
Ġstack s
Ġknob s
ĠSee ing
ĠTess a
se y
Ġbush y
Ġloc al
Ġbow ing
Ġang rier
Ġhunt ing
Ġdrown ed
ĠBub u
Ġpeep ed
Ġbinocular s
h ow
ĠM atch
Ġste w
Ġmap s
Ġn iece
Ġqu izzes
ĠG low
Ġmoon light
ĠD eal
ĠJohn son
Ġoutfit s
Ġw rench
Ġwh oosh
Ġweak er
Ġcrow ded
Ġend ings
cy cles
Ġmind ful
ĠBee f
Ġfl ashes
Ġhesit ation
Ġproper ty
Ġbo il
Ġcar ts
Ġab ility
Ġun less
ĠAnd rew
ĠO xy
Ġimagination s
o ll
Ġgl ared
ĠR ight
ĠAc cidents
Ġha ven
get ic
Ġkn it
Ġfold s
Ġmic row
Ġspace s
T una
Ġfo nd
Ġdirt ier
Ġunf amil
Ġresponsib ility
Ġunfamil iar
Ġp ouch
Ġdesk s
Ġmicrow ave
b ank
Ġcrack er
I m
s aw
Ġd ate
Ġsw apped
th s
ĠO xygen
rn ie
Ġmem ber
B less
ĠR ing
ĠR avi
ib ly
S qu
ĠB un
Ġwh ine
Ġdoor step
Ġsoft ened
Ġdisappear ing
ĠHel en
Ġast on
W ant
et s
Ġre bu
ĠPe ggy
Ġquack s
ĠT oo
Ġn atur
ĠF ix
Ġlisten er
ĠCh ip
sc ar
Ġwrit er
l t
st and
Ġbl ushed
ĠSp icy
f ree
Ġnot icing
Ġpri v
Ġpalm s
C ra
ven ir
ĠP ast
Ġsou venir
po ison
ĠT ra
re pe
ĠG abby
Ġdis aster
Ġlaw s
repe at
end ant
ent r
Ġph ones
Rob by
A va
ĠB ert
ĠCo al
Ġconf idence
ĠL i
Ġstir s
Ġoverwhel med
Ġfl ick
ĠC ut
Be ing
Ġmay or
Ġtim id
u pt
Ġt ugging
re g
as mine
ĠP retty
ĠR es
gu ess
ĠMo le
Ġunt angle
Ġowl s
Ġmail ing
Ġinj ured
ĠB ooks
al a
Wh ose
fa ction
Ġsatis faction
Ġconc entr
ĠIm mediately
l or
ĠP ot
ĠWh ite
ĠAnimal s
F ly
M ittens
M abel
ĠB onnie
Ġpr ank
ĠE at
th is
ĠN ora
ĠWo nder
C he
W iggly
m ers
Ġj ing
ĠMel issa
Ġhoo ves
ĠTri angle
Ġl im
ĠS ir
st r
ĠR un
Ġfix er
ĠSt artled
ĠCl ose
ĠCle an
Ġcl ut
Je ff
Ġsk ies
ĠTr ucky
Ex cited
Ġinstrum ent
b ling
ĠH orsie
ĠF aye
Ġsn ar
ĠK n
ĠMat ilda
ic ate
Ġdisag re
w ell
ad ually
Ġpe cks
Ġcre ak
ik y
Ġstain s
ĠSleep y
Ġwrigg led
Ġrin se
l ish
ch ing
S usan
ĠI cy
Ġsh ave
Ġcap t
Ġbump ing
ĠHel i
ĠCra bby
ĠS ing
Ġr uff
Ġbend ing
Ġswir l
Ġsand pit
Ġexplor ation
Cl ose
ĠSc issors
Ġchat ted
Play ing
M ake
Ġle ver
cess ary
Ġrod s
Ġfact s
ul f
ĠC andy
Ġattach ing
S c
Ġfool ed
Ġbur ger
ĠB ro
Ġglow s
Ġclear ly
Ġconcer ned
Ġla va
Ġsal on
Ġrever sing
May a
Ġcertain ly
W ally
Ġsm elt
Ġcomp an
Ġmotor cycles
Ġfet ched
Ġt unes
Ġsomet ime
Ġtr oll
Ġold est
Ġfiref lies
R ing
Ġkiss ing
Ġchallen ges
Ġblond e
ĠBob bie
Ġwarm ed
Ġcir c
Ġpro d
K ayla
S m
Ġb ound
ĠL ots
Ġdifferent ly
Ġunlock ing
D ino
T ara
urp le
Ġcut ter
Ġcup cake
Ġriver bank
Ab racadabra
Ġdet ect
Ġconqu ered
Ġnatur al
Ġhat es
ĠFl ap
s orry
Ġall ey
Ġreal ise
Ġsend s
Ġswir ls
ĠFlop sy
el s
ĠC ammy
Is n
Ġwigg ling
Ġbang ing
Jul ia
s a
Ġm unched
Ġcl ips
ĠO pen
Ġhipp os
Ġsens ation
ĠRel iable
Ġtopp ings
Ġf ist
Ġha lves
Ġst ings
Ġro be
Ġbr akes
Ġru bb
Do ctor
ĠGreen y
Ġsway ed
Ġmirac le
F ish
H ope
Ġostri ches
Ġsurv ive
M ichael
er g
Ġother wise
ĠP ink
Ġcr ushed
Ġbubb ling
Ġemb ra
Ġtor to
Ġtent s
keep ers
ĠLook ing
ĠCl imb
ul a
an i
ĠO f
Ġrepair ing
ĠW orking
ber t
Ġliz ards
Ġstretch y
Ġvine gar
ĠFlick er
Ġrubb ish
Ġpassen ger
M any
Ġp ounced
ĠWh ich
Ġvibr ant
Ġtorto ise
ĠE d
ĠR h
ĠGr ump
Su zie
Ġscen e
Ġgl ided
Ġmoo ed
Ġdesper ately
Ġb as
Ġp oop
Ġint ently
ast e
Ġsn ip
Ġcalm er
Ġcop ied
ĠSunday s
Ġma jest
ĠLight ning
Ġtw el
Ġwo ken
Ġjoy fully
Ġcoo lest
Ġrag s
Ġjud ges
ĠJo dy
Ġlecture s
sm elling
O O
Ġh ips
Ġcous ins
Ġaston ished
n et
ly n
Ġgl ob
Ġcap es
ĠOut side
is ible
ĠP er
Ġgu esses
Ġarri ves
Ġinv isible
Ġsuccess fully
Ew w
Ġgoo ey
Ġreun ited
un o
ĠL u
ra p
Ġbat s
Ġspeak er
wh y
Ġtwel ve
ing ly
Ġgood ness
Ġcomput ers
ĠCarl a
Mike y
Ġchat ting
ur ity
Ġstack ing
Ġsnowfl ake
Ġpark s
ist ory
Ġrac er
Ġpound s
Ġdesper ate
Ġreapp eared
O l
Z igzag
Ġan k
Ġle vel
Ġluck iest
Ġcomm un
Ġcompan ion
Ġt ale
Ġsell s
Ġcricket s
Ġstomach s
Ġd ou
Ġg ates
ĠS ugar
Ġwind s
ĠSte ven
Ġdisobey ed
Ġdisagre ement
N ick
g r
h ile
Ġs us
nd ed
Ġd umb
Ġho ses
Ġaw hile
Ġpearl s
L ou
m ie
Ġg all
Ġso da
ĠW hee
igg les
Ġloyal ty
ĠOr ange
Ġpops ic
L inda
M ore
ĠRos a
Ġtong ues
ĠC D
Ġrid er
us ion
Ġcr isp
O oh
Ġab o
Ġsure ly
ĠBl ack
ĠAnn abelle
ĠL aw
Ġbu nd
col ored
Ġoccas ion
d og
it es
Ġst un
Ġchick s
izz a
Ġguit ars
p an
re nt
ĠA pril
ĠR aven
Ġintellig ence
Ġalligator s
Ġsepar ating
Ġseas he
Ġabo ard
F ound
ĠW inky
ĠV iolet
Ġrebu ild
! âĢĻ
C atch
b ed
Ġc uc
ĠI ron
ch ief
Ġlearn er
ĠO ld
Ġcre ep
Ġcro ak
aid s
Somet hing
Ġcaut ion
r um
Ġr ins
Ġwh ines
Ġsp iky
ĠC are
ĠUn i
Ġreveal ing
sol ut
d es
ĠS ettle
Ġtick ling
ĠC oby
Ġunder water
Ġcr ouched
ĠRo ar
Ġesc ap
Ġglob e
u dge
w orking
ever se
Ġbloom s
Ġ' '
Ġappear ance
f ived
st op
se ph
ur ricane
Ġle aking
ĠSo cky
Ġhat ched
Ġguard ian
Ġstroke s
ĠB a
Ġdo ves
Ġpr og
if er
Ġzoo keepers
Ġpersist ence
!' .
eal ing
Ġrout ine
Ġbl ame
Ġqu ilt
Ġsqu ashes
Ġpain ful
Ġlight ing
Ġadm it
Ġtap s
Ch icky
Sn ap
S leep
T oys
Ġsh attered
Ġri pp
Ġdeep ly
Ġtempt ing
J an
arn ing
Th ree
Ġmo ld
ĠP uff
Ġthr one
Ġsec urity
gg les
Ġpeek s
Ġbur gers
Ġcent re
Ġsquir ted
Ġelectric ity
R alph
Ġt ant
ĠL iam
em on
Ġcook s
Ġreal izing
ĠSp in
Ġallow ing
Ah h
Mat t
Ġcho pping
Ġexch ange
S ophia
Ġl ar
ĠR ace
Ġsweet ly
Sh are
ĠQuick ly
ĠA lf
Ġsweet er
Ġglitt ered
Jess ica
Ġrins ed
ck er
us hes
Z ero
Ġgo ggles
ĠIn ch
Ġbuild ers
Ġmelt s
Ġfu rious
Ġener getic
Ġdefe ated
Ġwa ded
ĠC omet
ĠCat s
Ġmel ody
Ġsniff led
Ġchoo ses
ĠOther wise
Ġtant rum
is app
ver ing
as y
ort h
ĠG iant
Ġcompet ing
Ġcontain er
b ang
ĠM ila
ere my
ĠSh arp
o ss
Ġh udd
Ġl ull
ĠD uke
ĠR ara
Ġprotect ion
Ġserious ly
Ġund one
Ġattempt s
Ġlar ger
L izzie
Ġcl uck
ĠC her
ĠP ark
ĠWh ale
Ġbuck les
Ġhelicopter s
Ġcoo ed
Sh oo
Ġtoss ing
ĠPinch y
c on
ĠT ears
S w
Ġd edic
ĠH or
ĠD in
St ill
Ġhum med
Ġcourage ous
ĠSm o
solut ely
S weet
ĠT hings
ĠM a
Ġal oud
Ġmu ster
Ġpatient s
Every thing
Ġrac ers
Ġdeser ves
Mad dy
Sque aky
C urious
U se
ar ted
ĠD ragon
ĠO ver
Ġgo d
ĠJ et
ĠR usty
Ġmar vel
Ġmeet s
ĠSque e
Ġtour s
ĠLiz a
ĠH ops
ĠR eddy
Ġwra pper
Fr oggy
ĠCr usty
Ġbo oth
Ġwh iskers
Ġnice st
Ġimpro ving
S urrender
Ġimag inary
ĠSt arry
Ġmeadow s
Rock y
ĠL and
Ġbo ld
Ġbl ades
ĠPe bby
!' "
Tw inkle
ĠS ummer
Ġcr uel
Ġpair s
Ġstro lled
Ġrisk y
" !
Ġob st
Ġpeel s
J une
M ina
ĠJo anna
Ġincred ibly
Ġwink s
ĠBra in
ap s
ĠK ind
me al
Ġtank s
Ġneare r
Ġsquaw k
ĠExcited ly
S ay
w are
Ġop t
Ġmess ier
Ġar my
Ġlamp s
Ġpedal ing
Ġtransform ed
l os
ĠR iley
Dave y
Ġinj u
C are
Ġst ur
Ġfa il
Ġpe ak
Jack ie
Ġmunch ing
Ġhorri ble
I ce
O P
Ġtre as
Ġover head
ĠK yle
ead ing
Ġfu ss
Ġholiday s
Ġunwra p
ĠSwim my
Ġn arrow
Ġbo iling
ill as
Ġre ct
Ġdry er
Ġpan icking
Pipp a
Ġpuff ed
c an
Ġto t
Ġho st
ĠP atient
gu ard
Ġdive s
s he
Ġoff ers
ĠP ass
Ġsoft est
sh rink
Ġconf usion
ĠBree zy
A w
M arth
k ind
Ġall erg
ight y
Ġun covered
Ġmust n
ĠJen nie
Jen na
cl oth
Ġposs ib
Ġmarve led
Marth a
on ed
Ġcool ed
Ġeld ers
J anie
Ġd ips
ĠB ell
ra w
ic iest
Ġcur rent
ĠV ery
ĠDog s
Ġmuster ed
Ġr oo
Ġsc re
Ġgl anced
Ġgrate fully
Ġcher ish
Ġrot ted
uct ion
ĠSun shine
Ġcoug hing
ĠWin ter
Ġheight s
Ġank le
Ġtreas ured
ee k
Ġ- -
Ġchain s
par able
Mad die
' ?"
Ġs inking
Ġsh aky
ĠG u
ĠO scar
Ġcup boards
ĠBr uce
Ġenc los
Ġheav ily
Ġenclos ure
ĠM artin
Ġsp are
Ġinse parable
Ġsle igh
ĠCro codile
Ġgall op
S ky
ri ce
ĠSp inny
ĠCl ay
Ġoat meal
E njoy
M ove
Ġl ush
Ġd ashed
Ġm ac
Ġr iddle
Ġne cessary
ic ally
Ġcan v
ĠF a
ĠBr ad
Ġclub s
a fe
Ġh ob
st antly
Ġse ction
ĠP urple
ĠSqu are
ĠMon a
P rin
m o
ir affe
ipp ers
id i
ir ing
Ġcon v
Ġorder ing
Ġpra ise
ĠDid i
Ġglitt ery
D are
M el
Ġsa x
Ġsc al
Ġzipp ers
ĠRob in
Ġrainco ats
Ġhundred s
Ġscen ery
ĠFriend ship
Ġdev ast
Ġallerg ic
ĠD illy
our ed
Ġsuggest s
Ġrow ing
Ġcomple ting
ĠJan et
T urn
an tern
Ġun st
gg ie
ĠV al
ĠCar ly
Ġconv ince
A nt
Ġa rom
Ġn ations
ĠB elle
Ġflo ppy
pe ople
Ġmush y
Ġcond ition
ate st
Ġpract ised
Ġmusician s
Ġrecommend ation
B oom
P romise
ĠB ar
Ġse ated
Ġcharac ter
is bee
Ġch atter
Ġskip s
ĠPot ato
ĠT idy
ild ren
Ġdri ll
ĠLe ah
Ġborrow ing
Ġhudd led
Ġcanv as
N e
ĠH a
ĠW he
Ġho vering
Ġsl ot
ĠC ould
St artled
ais ie
Ġsoot hing
Ġlull aby
Ġdevast ated
Ġgl isten
Ġenjoy s
ĠPat rick
cl ock
ĠCr ane
ep eat
Ġch ili
Ġexper iment
R ight
ot ch
ir ty
Ġre ck
Ġsp arrow
Ġho ot
Ġrock y
ĠC ell
Ġrem o
Sam antha
ĠO ak
app le
ĠN umber
ĠBr ush
ĠFl uff
ĠRes pect
ĠS keleton
en n
all ed
ĠM s
if t
Ġshow ers
sh op
Ġcomp romise
Ġvalu es
Ġairpl anes
Frank ie
Ġtempt ation
ĠAg ain
Ġpleas ant
Ġf ulf
Ġro yal
Ġhair s
Ġchalk s
Ġcond uct
im mered
at form
ĠH urricane
Ġdist racted
Ġfold ers
Ġsus p
F ortunately
ĠM op
rob es
Ġcompl iment
ĠCl ub
ĠPaul a
Ġunf old
Ġreck less
m ate
am ing
Ġpl atform
Ġre cess
Ġab solutely
Ġhead ache
Ġmust aches
Jack y
Ġgor illas
Ġactor s
ĠLi bby
E l
S imon
Ġp iled
Ġcord s
Ch ris
Ġtowns people
Ġconsider ate
P am
w en
Ġsmo king
ĠY um
ĠCar rot
Ġla sers
ĠF un
ace y
ĠAl arm
Ġcomb s
Ġchar ged
a ily
ic o
ĠE ating
Ġpant ry
Ġshield s
ĠCar rie
Ġstur dy
Ġarom a
e ven
h and
So f
Ġwa nna
Ġpe a
Ġhor ror
d ers
l ike
Ġwa x
Ġas hes
ĠE rnie
sc otch
Ġbeep ing
Ġdisappear s
Ġcommun icate
Ġconduct or
P oor
Ġsp ades
Ġbuy s
Ġpet al
Ġfence s
ĠLe af
ĠAl an
Ġladybug s
Ġsilent ly
r ings
Ġl un
Ġab ack
Ġwob bles
L arry
Ġs ilk
Ġl en
Ġy uck
ĠW ake
ĠP ar
ĠSt and
W in
g n
Ġwarm est
Ġham ster
Al though
ĠBro ccoli
Ġp ail
ĠH ank
Ġho llow
Ġmove ment
Ġcave s
Ġlife guard
Ġmot ions
Ġload s
Ġmagnif ic
H oor
Ġwh ir
Ġsn oring
ĠTh rough
Ġear rings
Ġembarrass ing
Ġagree ing
Hoor ay
Ġs ly
ĠF izzy
Ġbl ade
ate ful
ĠHor sy
Ġcl im
ĠJ asmine
ĠSo ar
ĠSp oon
Ġpay off
Ġcable s
ĠMar ley
Ġais les
Ġscowl ed
H E
M ix
Ġha re
Ġsl ight
Ġalong side
Ġpossib ilities
ĠC ake
Ġant lers
Ġsign al
Ġscratch y
ĠGrace ful
ĠStan ley
N ana
S ir
b arrow
Ġl il
Ġwheel barrow
ĠU gly
Ġpad s
Im agine
Ġdedic ation
S k
W isdom
Ġlook out
ĠSo ap
la us
ĠTuesday s
Ġconfident ly
Ġdump ed
C hew
D uck
Ġh uff
Ġpl ank
ĠB ark
Ġro ast
Ġwood pe
i bo
ĠS is
ĠF ork
C on
Ġhand les
ĠP anda
Ġwork shop
Ġcher ished
rey a
ĠLuc as
P retty
k a
m ark
re m
Ġco con
Ġhurt ful
ĠR ad
Ġcoll ars
Ġcocon ut
o kay
Ġke en
Ġfly er
ĠR eading
ĠG ert
ĠAll ie
Ġharm ony
Cat ty
Ġco de
Ġgre atest
Ġun kind
Ġhar vest
Ġmesmer ised
Ġsquaw ked
Ġdefe at
Ġcar ton
ĠE ver
Ġra ises
ĠBe be
Ġpistol s
Ġmagnific ent
Ġ âĢĿ
B op
Ġdr oop
Ġcro sses
h orse
Ġg ul
ĠA f
um ed
ĠC olin
ian a
ĠBr uno
Ġpro cess
Ġgul ped
. âĢĻ
oo h
st al
Ġwh ipped
ĠC laus
Hi ppy
Ġmix es
Ġwhe ther
good bye
Ġfunn iest
ĠMag net
Ġprog ress
Ġsax ophone
ĠS chool
ĠJ am
Ġpo llen
Ġdecid ing
Ġcap ture
Ġcudd ling
Ġinf orm
ĠMus ic
F ree
Ġgu ided
Ġtent acles
Ġbeg s
K ing
O lly
P h
ĠT ick
Ġmagic ally
Sh ow
Ġst inky
ĠW r
Ġyawn s
ĠApp le
Ġglisten ing
Ġh oof
ĠK en
ĠAm i
in ct
Ġclothes line
Ġparrot s
Ġsle eve
ĠCo ffee
Ġclim ber
Ġwoodpe cker
A bbie
Ġh int
Ġfl uff
Ġgr uff
imb o
ĠO ink
Ġspl itting
St ar
Ġhalf way
ĠRob ot
Ġlil ies
ĠS andra
ĠH at
ic s
ĠD uring
Ġsleep over
Ġres pecting
ĠBe a
Ġcraft s
c ra
Ġd izz
Ġsl urp
Ġgr ump
Ġste ered
Rob ert
ongratul ations
ĠCook ies
l ings
Ġn udged
th ur
Ġcontin uing
Ġdust pan
Ġwid ely
Ġdep ths
C ara
k i
s urrender
ĠH ook
ow ing
Ġrun ny
Ġtast iest
Who a
ĠRo xy
Ġachieve ment
Ġamong st
T e
am i
ry stal
ĠG emma
Ġmot ors
Ġshot s
' !"
Ġc alf
ĠM amma
Ġj igg
ĠC omp
ĠO uch
Ġlon el
Ġband s
ĠN ature
Gr anny
Any time
Squ irrel
Ġcirc led
ĠG inger
Ġfarm s
Ġglad ly
ray s
Ġtrail er
Ġbleed s
Sp ring
ĠJon athan
Ġst alk
But ter
Ġhide out
Ġbath robes
Ġbend y
A na
ĠM ail
Ġsc ience
ĠC ream
sh irt
ĠO p
Ġfright ening
Ġvent ure
Ġdod ging
ĠCher ry
Ġthe at
ĠT oy
Ġpl o
ĠL ast
ĠN ate
ĠN elly
St ella
Ġtrunk s
Ġwarn s
Ġsou l
Jon ny
o ors
nd y
Ġm ur
ke st
Ġsk ate
Ġcomp ared
col ate
Ġpan cake
Ġtick ing
Ġind oors
Ġfloat y
Sad ie
S it
en na
Ġfr isbee
Ġbl ush
ĠP romise
Ġenter ing
Ġsnar led
Ġ 9
b ook
Ġt ill
Ġd aily
ĠB ibo
ĠJo sie
Ġset up
ĠCh oo
Ġgiant s
Ġstra p
ĠSp ider
Ġspirit s
boo s
Ġintroduc ing
Ġavo ided
ĠAf ric
ĠW as
See ing
ĠCo coa
ĠJu ice
Fo xy
Ġsolut ions
Ġexplo de
Ġlen g
ce ll
us y
Ġdin ing
ĠSt ri
ĠFe ather
Ġunz ip
C ow
G ogo
Ġto ne
Ġp ace
ĠThe rmometer
Ġsc ree
ĠP ir
Ġrest oring
Ġham mers
Ġenthusiastic ally
Ġwigg les
Ġsupply ing
Ġpur ring
Ġlimp ed
L aura
h nn
u ise
ĠD el
Ġpro ved
Ġcontain ed
Ġsusp icious
ĠSis i
F our
t led
Tom orrow
Ġpres chool
Ġisland s
With out
utter ed
ĠCar ol
Ġtheat re
Ġw etter
Ġw icked
ĠT uck
Ġp urch
ay lor
ĠCh ar
Ġleop ards
ĠDan cing
Ġlim its
ĠS urpr
Ġown ing
Ġhop scotch
ĠSh ake
hnn ie
it am
ĠM ac
es y
Ġfl ippers
Ġroll er
ĠTe ach
ĠTre es
g are
Ġin n
Ġj aws
Ġsl ime
Ġlast ed
Ġthunder storm
gare t
B oun
T ell
Ġn anny
en ses
ĠP ep
Ġac cess
ĠSt ealing
Ġaunt ie
Ġgr adually
os p
Ġobedient ly
Ġinn oc
s itter
Ġpo les
ustr ated
Ġrust le
ĠJenn ifer
Ġbund le
O ver
ĠG ret
Ġdri es
ĠN ibbles
Ġcur ve
Ġthreat ened
yd ia
Ġscal y
R everse
o colate
Ġr ises
Ġwe ed
Ġne ighed
ĠJ es
Ġv itam
az ors
Al ong
Ġtwir ls
Ġroo ster
F riend
j ust
ĠS illy
Ġvill ain
Ġcalm ing
Ġrepair man
Ġstain ed
ĠJoan ne
P ush
Ġm end
ar ies
an n
Ġpl us
Ġbird ie
Ġag es
ĠF unny
Ġab and
Ġgra in
ĠBe es
Ġpant ing
Ġtuck s
Ġting ling
Ġmajest ic
N G
T oto
g ra
ar on
ell er
ĠD ull
Ġgr unt
Ġsmo ky
Ġrec ipes
Ġur ging
ĠPr une
Ġsh ame
Ġbl ur
Ġhun ger
Ġchirp s
Ġexerc ising
ĠClean ing
Ġescap ing
ĠW ow
Ġtw itched
ĠJo die
Ġfour th
Ġnotebook s
ĠChe e
Ġchallen ged
ĠFe eling
Ġfr ames
Ġflow ed
We e
Ġsmo other
Ġmissile s
Ġpoison ous
prin t
Ġpeck ing
Ġstroll er
yl an
Ġrect angle
ac her
gg ing
ĠSh ould
ĠPat ches
Ġdod ges
ĠSing ing
el sey
ĠBut ton
Ġbl ob
oy al
iss y
ĠThank fully
te en
ud rey
E ls
T en
ĠT urn
ĠS itting
Ġle aped
ĠW orm
Ġbl ed
Ġtr im
Ġpossess ions
? !
A r
Ġl antern
ĠG iraffe
Ġlight ly
ier ce
Ġinv ol
Ġhandle b
Ġnotice s
Ġkneel s
Ġflood ed
Ġtipto es
Ġ2 0
Ġdetect ive
B et
P op
ĠT ube
Ġloo s
Ġsc ut
Ġche esy
Ġsmooth ly
ĠTw isty
Ġcomm and
Ġcrisp y
oss om
cell ent
P ick
on k
al ity
ĠAfter wards
ang a
Ġmill ion
Ġjugg le
ĠAfric a
ĠD oug
Ġde vice
Ġflav our
ĠR umble
Ġbaby sitter
Ġprotect s
Ġrecord s
Ro ver
Ġplo pped
A lly
W o
ĠT op
ent ial
ĠE ve
Ġbright ened
Ġchew y
Ġflashlight s
Ġdust ed
Ġstrike s
Ġpound ing
Ġrout e
F ido
b s
Ġm itt
is her
il ar
Ġsw at
ĠC act
ĠP a
Ġtooth p
ĠCl are
Ġstare s
Ġ1 2
ĠRon ny
Ġremo ving
F e
R A
T HE
Y ears
re et
Ġo ars
Ġst iff
ĠL ady
ab ella
ĠD i
ĠHer o
Ġnight stand
Ġper se
Ġmis chief
Ġinst inct
Ġstomp ing
c he
ĠS ly
ĠG irl
Ġcontent ed
ĠOff icer
b ur
y a
ic ia
Ġdist ract
Ġturkey s
ĠFl ash
ĠDr ink
Ġbru ise
Ġreapp ear
Care ful
Boun cy
D ing
J illy
Ġa id
Ġc ig
Ġth irty
Ġbo lt
ĠA very
ic al
ic ated
ĠJ eremy
Ġbra id
Ġde ck
ĠJo seph
Ġsea horse
Ġpers u
Ġpri est
Ġperform ers
Ġref using
Ġund o
Bet sy
F iona
J ay
h adow
im ents
Ġat op
Ġeyes hadow
Ġvo l
Ġwag ons
Ġquick er
Ġorgan ised
Con fused
ĠChee se
N obody
y ield
ĠM ill
ĠP ear
Ġright ful
ĠN ed
Ġdisg uise
ĠZoom ie
Ġdisplay ing
ĠCo zy
ern ie
Ġraindr op
Ġchar ity
Ġunlo ad
ĠGu ard
A ng
P ass
Ġt end
or ious
Ġpr ison
Ġtable cloth
Ġra is
Ġshrimp s
Ġstud ies
Ġarrest ed
Ġlo ser
ĠF ortunately
ĠD ream
Ġju iciest
Ġoccas ions
Ġslight ly
v o
Ġl ur
ĠB elieve
ĠM ild
are tt
ab eth
Ġtri pping
Jo hny
Ġscr unched
Ġlow ers
ĠFl ame
Ġladyb ird
Ġfif ty
Ġleng th
Ġm ound
um n
ĠSo ft
Wh istle
Ġstor my
Ġvi ol
ĠMatt hew
Br own
Ġdial ed
B ra
Ġh ike
ig e
st upid
Ġso ggy
ĠF reya
ĠO stri
Ġbirthday s
Ġfierce ly
chan ted
Fo x
Ġcomm unity
Ġlonel iness
a ure
ĠH onest
Ġdo zed
Ġkn itting
Ġla unch
ex it
Ġsnow ing
Ġhope less
Ġinform ation
l ock
Ġt iring
Ġr umbled
ĠD usty
Ġun c
ĠG ia
Ġteaspoon s
ĠBess y
Ġcig arett
U p
f riend
ĠM ighty
Ġfor ced
Ġbo iled
Ġro amed
our ce
ĠG or
ĠDo ll
ĠDo ing
Ġres ource
H el
W oo
re ase
pp a
Ġunt angled
Ġboard ed
Ġtrumpet s
Ġforeshadow ed
w o
Ġany body
Ġen chanted
ĠR ani
orn ado
Ġcute st
Ġhoney com
asp er
ĠFr an
ĠCare fully
C le
w oo
Ġg le
Ġfix es
ĠG reg
Ġocean s
Ġguard ed
Ġscru bbing
Ġwrist s
ĠDe af
D rink
p oke
r ina
Ġs umm
et t
ĠH airy
Ġduck lings
Ġdi v
ĠN icky
Mar ie
rup ted
D izzy
p hew
Ġw itches
at ic
ĠB oy
Ġne phew
Ġdrag s
Ġstret cher
Ġcomb ing
Ġroof s
Ġaccept ing
Ġevent s
ĠMe ow
ĠF anny
Ġant enna
ol ph
Ġpine apple
Ġscold ing
ĠSm all
jam in
ĠFa ith
m osp
in ting
Ġp ounce
ĠM elt
Ġat mosp
and el
!âĢĿ ,
Ġlake s
ĠBr other
Ġer upt
Ġpro ceed
ik a
Ġrul ed
ĠSe an
ĠKind ness
Ġatmosp here
F ive
M ind
Ġt ul
Ġcreep y
Ġaband oned
B C
i or
t alk
Ġr ay
ĠShe ll
ĠA BC
Ġpr ops
Ġch amp
Ġpin ches
Ġsalad s
Ġdesign er
f lies
g re
ĠS ale
ĠM aisie
ul iar
Ġpark ing
ank y
co ver
Ġsnugg les
Ġbang s
Ġpec uliar
val ue
gr ateful
G us
b elt
n ings
x ie
Ġk ill
Ġri cher
To dd
Ġmis ty
Ġdizz iness
Ġhandleb ars
Ġs im
or is
ĠJo Jo
Ġba it
Sp ark
An other
Ol iver
c ies
f ant
Ġhow l
ess a
Ġsoft ness
Ġyard s
bo om
Ġwin king
To ot
Ġcontent s
Ġemergen cies
Dan iel
o d
ad a
ĠR oy
Ġseat belt
Ġterri bly
Ġvolcano es
Ġgor ge
B le
S on
V elvet
Ġpl um
ĠW orry
ĠSo ck
Ġje ans
Ġgu ilt
Ġdest r
Ġpro f
Ġsne aking
Ġbeg un
Ġgrandchild ren
: "
ous ly
Ġwalk ie
Ġfan c
Ġtrust y
Ġfisher men
ĠMat ty
Ġmanag ing
Ġexch anged
M ae
R uth
R yan
S anta
ĠJ etty
ĠG wen
ash ion
Ġspo ken
Ġjog s
ĠBe an
Ġpres ence
Ġstri ct
ĠBill ie
ĠFle xible
Ġclut ched
ĠTim othy
Ġli ar
ĠF ather
ĠE n
Ġri ches
Ġwand s
Ġsub ject
Ġvitam ins
Ġgorge ous
g ain
oo ked
op ard
ĠIn stantly
ress ed
Ġunl ike
Ġstri pe
Ġvalu ing
Ġgrand k
Ch ildren
Ġheav iest
Ġarr ange
Ġforeshadow ing
C athy
L ove
Ġd amp
ĠL ong
Ġsh aker
ĠW ar
ĠSt r
Ġmailbox es
Ġsett ling
Ġdelay ing
ĠSal t
ĠPass port
Ble ch
ĠT iki
ĠHe el
ĠK at
ĠK enny
ĠG en
Ġreal ity
Ġcr ust
ey ed
Ġspe ck
Ġrhythm s
ĠMic ro
P r
Ġd ia
Ġli f
ĠA men
ĠK anga
Ġad op
Ġuse less
ĠAs k
Ġlad ders
ĠSh ine
Ġblink s
Prin cess
Sof ia
ĠGert ie
Ġs izz
Ġsun b
Ġdad dies
Ġkind est
Ġprom ising
Ġrequest s
Ġrele asing
Ġripp les
Ġunst uck
H olly
f low
l aud
Ġsm ash
Ġhand y
Ġsn atch
ĠK ai
ĠCh uck
ĠCh omp
Ġener g
Ġappear s
D ee
K aty
M aisy
S H
Ġt ales
Ġm ashed
ĠS ail
st ack
Ġcl in
ous and
Ġun grateful
ess ion
Ġexpl an
Ġcomp are
ĠCh ippy
ol o
Be ware
ĠN eed
Ġperform er
Ġtap es
Gra nd
ĠMar garet
Ġinter rupted
Sk ip
Ġf itting
on ight
ir ls
Ġclo cks
Ġpudd ing
Ġpre f
Ġmeet ings
Every day
Ġsink s
Ġpra ises
Ġruff led
N ancy
P er
v ie
Ġt umbling
ĠA d
ĠC e
Ġsqu irt
ĠR andy
Ġlun ged
Ġhoneycom b
c ar
Ġd ong
el ine
Ġop er
Ġgra sp
Ġclot hing
Ġbarrel s
Ġresist ing
Ġvalley s
ĠRu d
Am elia
R oger
ĠC ube
Ġde eds
ĠSh iver
Ġunlock s
Ġlawy ers
Ġloving ly
Ġslam s
Ġtot ally
P en
b elieve
Ġw il
ĠT ap
Ġo ink
Ġsome how
Ġho vered
Ġread er
Ġpit cher
Bl ink
Ġann ounce
Ġelbow s
ĠMin nie
Ġinju ries
Ġpurch ase
el ace
Ġtr udged
Ġstor ing
As h
Ġsho elace
Ġac rob
Ġdes ce
ĠOn ion
ĠNo ah
Ġsurround ing
Ġreass uring
Ġproceed ed
? âĢĻ
B ree
W endy
c ri
ĠM ind
Ġout come
ant s
be h
Ġwra ppers
Ġsick ness
Ġskin ny
Ġyelp s
ĠJelly fish
i rework
y la
ĠG oose
Ġpat ting
Ġatt endant
aw k
Ġlic enses
Ġinst ant
Ġcras hes
Ġhe y
Ġr azors
Ġst ate
Ġfl utes
Ġgreat er
Ġsweet ness
Ġext rem
ĠAlex a
hee se
Ġdar ted
Ġnibb ling
Ġbound ed
ĠSmo key
Ġextrem ely
S l
ar oni
Ġball er
ul ture
Ġcl ucked
ouse l
Ġthought fully
Ġch attered
ĠD ory
Ġover flow
Ġcur ls
Ġstrip ed
ĠFu zz
Ġb ins
Ġc af
Ġth ousand
Ġr is
Ġsh uff
ĠR a
ĠBra ve
Ġconnect ion
Ġpref er
Ġt ippy
Ġto ad
Ġn in
Ġcar ousel
Ġgr anny
iv ated
Ġprice s
ĠDr op
Ġseashe lls
Ġrais ins
? ,"
ĠS it
Ġit ches
ĠI nt
ĠF it
ĠF urry
Ġv ar
Be cky
Ġkay aking
ĠMe anwhile
Ġcomm otion
Ġservant s
aure n
o k
Ġt ink
ĠT aylor
ĠL emon
ĠD ash
Ġnest led
Ġrad i
Ġdisgust ed
Ġstem s
Ġdou b
Ġcuc umber
Ġexplan ation
i ara
re ck
ĠH anger
Ġdo dge
ĠJo hny
Ġpass ion
Ġcrack ing
Ġbless ed
f illed
un ior
ĠL ayla
ĠF ierce
ĠD ictionary
Ġele ven
Ġmed ium
Ġscar ier
Ġsol id
Ġstream ing
Ġskeleton s
alf way
ĠPet ey
Ġtimid ly
he arted
Ġbo ast
Ġwh izz
ait lyn
Ġbeep s
ĠCl aw
Ġconc ert
Ġsquir med
ĠSquee ze
c st
r idge
r ope
Ġs ons
Ġfl akes
ĠR ick
Ġeld er
Gra b
Ġfresh ly
ĠIs la
Ab i
ĠNe ither
ĠOstri ch
D el
L uc
Ġg n
Ġbo omed
ump h
ĠC rystal
Ġsick er
ĠCat ch
Ġpract ising
Ġspeed s
Ch oose
Bird ie
Ġwrink ly
ĠGold ie
Excited ly
Ġinstinct s
H enny
ĠH ipp
ĠC ass
Ġtrain ing
ĠAr thur
Ġembra ce
ĠClimb ing
Ġgrandk ids
R icky
a way
Ġe cst
ĠO ct
Ġspr ings
Ġsal sa
ĠAl bert
Ġer ased
Ġcere m
ĠCar oline
Ġmac aroni
ĠMelt y
ĠRud olph
D espite
c ip
h aps
t wo
ĠL oyal
Ġli king
ĠW ork
ĠD ough
Ġdon ut
ĠP izza
th an
Ġdrag ging
St retch
Ġlock ing
Ġcact i
ĠSh all
Ġwaste ful
ĠPast el
M oon
O ld
Ġb ould
ĠS ack
ĠH orse
ĠSpot ty
Ġcompl icated
Ġvac u
Ġballer ina
D ara
L ost
Ġl umpy
Ġwas p
ĠB ull
Ġse vent
uc cess
Ġsor row
Ġqu itting
Ġcoll age
Ġspread s
Ġenv y
Ġobst acles
ĠPir ate
Ġecst atic
Ġcerem ony
M atch
m ade
r imp
ĠS on
ĠM ilk
Ġch ann
ĠTh ink
ĠIn fant
Ġur ges
Ġstun ned
isapp ear
G abby
f ield
r am
w ee
Ġp endant
ĠS usy
Ġo gre
You ng
ĠW ind
Ġcare free
Ġgl oom
Ġfavor ites
ĠWil ma
E n
F un
d ream
Ġf ading
ĠT ornado
Ġd iver
Ġlo bby
Ġfl am
Ġsn ore
Ġad v
Ġcaulif lowers
Ġstation s
Ch irp
Ġcur ves
Ġaw a
Ġequ ally
Ġsnail s
Ġscree ch
j ack
k er
Ġsa ves
il s
ch a
Ġcl ung
Ġprin cip
Ġmusic al
Ġshin iest
Ġdelight ful
Ġsuper mark
ĠAny thing
Ġass ist
Ġsupermark et
C RA
d on
ĠH ilda
Ġplay fully
oo s
ĠL ydia
ĠM ost
Ġfor wards
al ia
get s
Ġhome less
ĠD ora
Ġcra z
Ġcut ters
Ġcr anky
Ġlunch box
Ġob l
Ġsnugg ling
Ġscoop ing
Ġweight s
Pat ty
Ġting le
W he
t ling
ĠM ust
Ġre covered
Ġfr ant
Ġtick ly
ĠCl own
sol ved
Ġinvent ion
L ion
a ction
i w
s ery
Ã ©
Ġday dream
ra in
Ġgra ins
ock s
Ġprince s
Ġbal c
Ġpor ridge
Ġinclu des
Ġprevent ing
ĠIs abella
Ġuns afe
ĠChar les
Ġinnoc ent
ĠGret a
c ted
e ves
Ġd andel
Ġv oy
ĠC ount
ine ma
Ġgarden ing
ĠR ory
Ġsound ly
ĠG ail
Ġtight rope
Ġcalm s
Ġmop s
Ġsle eves
Ġsteam ing
Ġpriv acy
Ġcapt ured
ĠAlf ie
ĠDin ner
Ġtoothp aste
E va
I zzy
J ason
U sing
Ġd im
ĠB ernie
Ġmo les
Ġclo ak
ĠWe st
ex i
Ġtri umph
Ġser vice
arl a
ict ory
Ġindepend ence
Ġsniff ling
Ġtroph ies
Ġremain s
Ġsuitcase s
Ġpriv ate
Ġgallop ed
Ġdestr uction
C aw
p ill
Ġc inema
ĠA udrey
Ġre action
ĠF ore
ĠBo x
Paul a
Ġscra pe
Ġnur sery
v ious
Ġm id
Ġg ummy
Ġch a
ĠC all
Ġdoll y
Ġfull y
Ġdish onest
ĠSp anish
Ġrat tle
Ġanxious ly
Ġpony t
Ġallow ance
Ġstro lling
ĠAng ie
ĠFle a
Ġloos en
C ool
l ove
Ġc ulture
ĠA v
Ġout ing
umb les
Ġthin ner
Ġswir led
ĠCro co
Ġlur king
Ġprincip al
M ister
w ine
Ġto ck
Ġout sm
Ġgl iding
Ġadd ition
Em my
Ġdiscuss ion
ĠOp era
! ,"
M ila
Ġclean est
ĠAs htray
Ġspr ung
ĠSh ampoo
Ġsupport ive
Ġearthquake s
Ġbank s
Ġsweep ing
Ġnuzz les
ĠPear l
Ġbalc ony
K elly
R epeat
Ġbe gging
oo ke
Ġre port
Ġdog gie
Ġab ilities
Ġv ast
imb a
ĠP ol
Ġmor nings
llow ed
ĠSt u
Ġpit s
Ġsteak s
talk ie
m ail
it ive
an ana
Ġon line
ur r
Ġcat cher
Ġgood s
ĠTh ree
ĠR ag
oin t
Ġunicorn s
Ġproject s
Ġflam ingo
Ġvoy age
V D
ĠB urt
Ġbr ake
ĠJ ellie
ĠD VD
Ġmess ing
Ġadventure rs
sh ips
ball s
ĠRos y
Ġdisob edient
ĠNe w
Fe eling
Ġchamp ion
H ide
Ġsh aken
Ġsad dle
Ġcr anes
Ġnumber ing
ĠHug s
Ġpopsic les
Ġunfold ed
Ph il
ĠABC s
Ġ 8
ar ked
Ġun iting
Ġhow led
ĠP ain
Ġrepl ies
Ġmum s
Ġcho ke
Ch arlotte
ĠBo ssy
Ġswir ling
Ġsqueak s
id ance
Ġwh ining
ĠBen jamin
Ġdeep est
Ġgu idance
Ġpart ner
ĠMar cy
ĠSk ull
Surpr ised
ĠSlow poke
Ġgod mother
ĠGor illa
Ġb udd
id dy
Ġsp ied
ĠW or
Ġred dest
Ġstr ay
Ġground ed
Ġdes ire
Ġvase s
Ġharm ful
ik o
Ġcur ved
Ġinf ect
Ġstud io
Ġphot og
ĠPo ke
Ġaccess ories
ett i
Ġbould er
r it
Ġp ave
er as
ĠH and
il st
Ġsh immered
Ġrun ners
Ġapp et
ĠG uess
Ġres umed
Ġra w
ĠV e
ĠMel ody
Ġbru ised
Ġstrum med
Ġjing le
Ġpave ment
Y ield
Ġbr ats
ĠF ood
Ġfair ly
ĠLe opard
Ġyield ing
Ġconf etti
Mmm m
Ġmotion ed
Ġsnort s
Ġscre ens
B ert
E ric
ĠS oup
Ġr ink
Ġsp ee
ĠD river
Ġsnow ed
com ing
Ġregular ly
Ġskull s
Rob ot
ĠSw itch
Am anda
Ġpossess ion
Ġbudd ies
Ġspee ch
E E
P l
f lower
m oo
u ri
Ġa h
Ġg ulp
ve y
Ġsw itches
ĠG as
Ġsand als
Ġboss ed
Ġscr unch
Ġcam eras
Ġhall s
Ġpopsic le
o xygen
v or
Ġb un
in c
Ġpl ow
ri et
Ġspin ach
Ġsuc ked
up ted
ĠN orth
ĠNo vel
Ġer upted
gen cy
ĠSe at
Ġcons id
ĠStep h
H ar
Z oo
p ie
Ġt ac
at ue
ĠHe idi
ĠD ish
Ġgre ed
Ġrepl acing
ĠN ia
ĠDog go
Ġtarget s
ĠEliz abeth
Ġhorri fied
ĠMust ache
R el
Z iggy
ĠS id
ĠB iscuit
Ġfi rew
ĠG eor
Ġdri ven
Ġselfish ness
Ġcab bage
Ġaut umn
Ġgesture s
ĠWr iting
Cle an
E ver
re x
Ġwh isk
Ġdis m
Ġworld s
ĠLe arning
Ġent ertain
St itch
ĠWednesday s
ĠPop corn
P o
W ednesday
Ġw it
Ġf are
or ia
Ġcar ved
ĠC al
Ġgl ide
ĠN an
Ġimag in
Ġcareless ly
Ġaccident ly
ĠChick ie
Ġfist s
ĠBa iley
Ġhuff ed
m ar
he lle
ĠH unt
ĠD ylan
ĠE llen
Ġgr umble
Ġgl imp
Ġpot ential
Ġfree ing
Ġfew er
ĠN athan
Ġmeasure s
Ġcontent ment
Ġfashion able
Ġchallen ging
ĠAngel a
Ġwarri ors
Ġscri bbled
Ġbiscuit s
Ġacrob ats
P OP
W ater
u h
in nam
Ġst ump
ĠR ound
ater pill
ĠN ap
ĠAl ison
Ġtag ged
ĠV o
Ġhon or
ĠAnt y
ĠHipp o
innam on
L enny
Ġto ot
ou ble
Ġp y
ĠH ot
Ġac c
Ġpast e
Ġview s
Ġow e
ĠMic key
Ġpuck er
Mon key
ĠOct o
uri osity
D e
F armer
N urse
V al
k s
m aster
ed ro
Ġp als
ĠC ol
Ġsn ipped
ac le
Ġper ked
Ġfeather ed
Ġrep airs
Ġstream s
Ġequ al
Ru dy
ĠRich ard
R iley
ĠJ imbo
ĠWh ist
Ġimportant ly
âĢĻ .
Ġhung rier
Ġwob bling
ising ly
ĠLou ie
Ġdef end
ĠGl ass
ĠWil bur
Ġresource s
C heese
K n
M in
h ill
ĠT oni
ĠD ays
ĠN one
Ġjourney ed
Me gan
Ġhammer ing
Ġquar re
Ġins pected
Ġgoal ie
ĠCarl os
Ġtil ts
A pp
J udy
r upt
Ġd ucked
Ġc innamon
Ġhe ed
ĠL ime
ĠW ood
Ġcle are
ĠAll igator
iver se
ush room
Ġdes cri
Ġscarf s
Ġpeaceful ness
Ġexerc ised
Ġscra p
F u
L ina
re ak
ĠM oney
Ġfor ty
ĠF lowers
Ġch unk
ĠP eek
Ġser ves
Ġlay er
Ġcase s
Ġpout s
Ġfrant ically
Fu zzy
R uff
et ime
ĠM uch
Ġsun k
ĠD anger
Ġsound ing
Ġlumber jack
oe be
Ġsubject s
Ġdesce nded
N ora
Ġs ul
Ġhe ater
Ġro am
Ġsc an
Ġbl urry
au ce
ĠC op
ro y
ĠJust in
Ġcop ies
Ġpun ishing
Ġsunset s
Miss y
Ġsnat ches
hi bit
D ot
f ect
Ġp oof
Ġn or
an ked
Ġth irst
ĠB endy
Ġfl ipping
ĠC on
em o
th ree
sh oot
St an
Al i
Ġhurry ing
Brown ie
Ġantenna e
irework s
Ġinfect ion
g iving
ĠH istory
ĠTom ato
el a
ug gy
ĠW ine
Ġsk ates
Ġgr umbling
Ġgl immer
Ġbra g
ĠP ill
az ing
Ġspin ner
ĠN ight
sp ass
Ġjeep s
Ġcur sed
Ġgrin ning
Ġpadd les
ĠJan ice
Ġmitt s
ĠCact us
T re
a ld
t ie
t ick
Ġt ang
at ted
Ġcar ve
ip ed
Ġad vant
ĠAs ked
zz ly
Ġjog ger
Ġpri cked
ĠBr ooke
ĠMe asure
ĠJu les
Ġstomp s
Ġsuck ing
ĠVal ue
D own
Ġl ately
ig her
ic kest
ale b
app laud
St ir
Ġcrack ling
ĠFr ance
Ġgain ing
Ġped alled
Ġchance s
Ġfre ely
Aunt ie
Ġcapt ivated
ĠRh ythm
Ġlif etime
Ġenerg ized
H o
R ace
r ant
ĠA bb
Ġexpl os
Ġcr ooked
ĠO y
Ġem pt
Ġben ef
Ġjealous y
Mum ma
Ġhay stack
ĠLeaf y
b ug
g ive
or ant
Ġy ay
Ġcar n
Ġsurf er
ĠCook ie
E ddie
h aw
Ġwa vy
re r
Ġhe ated
ĠH ouse
Ġk iw
al ter
Ġbl ossom
ĠR uffy
ĠG ear
Ġdr ople
Ġpol ka
Ġembarrass ment
ĠSt atue
Ġtax is
Ġrail ing
ĠRu de
Bl oom
ĠBubb le
Ġembra ced
Ġwil ted
1 1
A R
G reen
m ind
r un
Ġcl am
op era
Ġexc use
vent ure
Ġcon str
Ġtight ened
Ġvan ishing
Sh ut
Ġcrunch ing
Co pper
Ġstun ning
Ġcha os
Ġ 6
Ġpl acing
Ġbo oming
Ġfe ared
Ġun e
Ġbright en
ĠZ e
Ġjoy ous
ĠBr ing
Ġtrail s
ĠMar ty
Ġrefle ct
ĠHug o
Ġbas il
Ġfirew ood
Ġadvant age
Ġs ite
Ġin ched
Ġgo bl
Ġcar riage
ate ver
ĠTh ough
Ġgl ist
ĠP istol
be am
Ġpick les
Ġprot est
ĠWill ie
Gra cie
rec ord
Ġcough s
Ġscientist s
Ġouch y
Ġclut ching
Ġfulf illed
ĠStr ong
Whe ee
O ink
Ġt ed
ĠM ars
ĠM ond
Ġex cellent
Ġtra pping
Ġwo nd
Ġbelie f
Ġseal ed
Ġmatt resses
Ġ9 11
' ,"
S al
w oof
y me
ĠS ave
Ġr ash
Ġr asp
ĠShe ep
ĠM ud
ĠD own
Ġpe w
ĠR ush
Ġmust ard
Ġins pect
ĠUnder neath
El iz
Ġinvol ved
Ġclin ic
Ġchann el
Ġglist ened
C ongratulations
K evin
ĠI vy
ĠL umber
ĠL ying
Ġre ins
Ġse le
Ġfl ipper
ak ers
ĠG reat
up ert
Ġrare ly
Ġter ror
Ġbill s
Ġpainter s
ĠPat ience
Ġconcentr ated
ĠPar ty
P hew
p ilot
un ate
ĠM ick
ĠM ister
Ġbo bbed
Ġal b
Th row
ĠC able
Ġqu iver
Ġremain ing
Will iam
Ġvict orious
Ġprod uc
Ġhob by
Ġoverflow ing
O ff
l ife
Ġf rag
en ess
ĠM aking
Ġre act
Ġcl asses
ĠJ emma
ump kin
Ġor ch
Ġclo ver
Ġtast ier
Ġcomb ined
Ġstair case
Ġsneak ers
ne w
ĠPer cy
Ġscut tled
B OO
V anish
s l
Ġt ack
Ġt ending
in ked
Ġsh ades
Ġex hibit
ĠD eer
Ġrun way
ĠR ingo
fere nt
She lly
ĠSt art
Ġsniff les
Ġsurprising ly
Near by
Ġunlo aded
Ġvacu um
Ġdism ay
Ġted dies
R ebecca
Z oey
c hest
Ġw oo
Ġf er
Ġf ate
Ġd azz
ay a
ĠM ason
ch y
Ġsp itting
Ġun sc
Ġtr an
ĠC ora
ĠP urr
iet y
Ġspe edy
Ġdig ger
Ġfeed s
Ġref uses
Ġiron ing
ĠBug s
Ġeff ect
ĠMin ty
Ġsculpture s
Ġ (
Ġh ind
Ġf ired
if ferent
ĠE ng
Ġqu ality
pt ion
ĠR ibbit
Ġbeh old
Ġunl ucky
Ġbreat hes
Ġsty lish
.' '
wh o
Ġsill iest
Ġdial s
ĠBa ld
a iled
w ow
nd s
Ġp ang
Ġsh aving
Ġback ground
Ġun pl
Ġtr ad
ĠR ina
Ġcr umble
oc ado
Ġprotect or
ĠSp ray
Ġham mered
Ġshore line
ĠRo d
Pe anut
Ġdia per
EE P
Ġglimp se
Ġcarn ival
ĠMond ay
C ook
b i
h ide
m aker
ĠS a
ĠI gn
Ġout er
ĠF lower
ĠC elly
ĠC uriosity
Ġband aged
Ġinterest s
Ġpost s
ĠDan i
cher s
ĠJump ing
Ġconvers ations
enn is
B rian
D in
Ġm ain
ĠS ister
Ġhow ling
Ġtw itch
Ġgl ues
Ġpar amed
Ġsu nd
ĠN at
St and
Every body
Ġspring time
Ġkayak s
ĠSnow ball
Sp in
Ġinsist s
Ġopt ions
Ġstalk s
Ġshuff led
J ax
M amma
r ous
ood le
op en
Ġbubb led
ĠN ellie
ĠSt ick
Ġlead ers
ĠFr uit
ĠPip er
Ġseashe ll
Ġcuc umbers
Butter fly
J u
n ow
Ġs ipping
Ġre jo
Ġco iled
ĠC ate
ĠP edro
Ġmean er
Ġsurrender ing
Ġfloat ies
ĠPrin t
ĠFork y
Els a
Ġp ry
Ġgo bble
Ġle ashes
as c
Ġch ug
Ġmag pie
Ġnight fall
ix ie
Ġcre aked
Ġrel ation
Ġpast or
Ġsharp en
Ġpack s
Ġbull ies
Ġcarpet s
Ġgrown ups
Ġdemand s
Ann abelle
Ġslap s
Ġappro val
ĠWin nie
Ġcaw ed
Ġfet ches
Ġfif teen
ĠRad io
Ġsim ilar
ĠInt rigued
Ġdrople ts
Ġalb um
A very
P ark
b ec
v ia
z ero
Ġst itched
ĠA da
Ġex ting
Ġhard working
Ġimp act
Look s
Ġsmo ot
Ġmirr ors
Ġbaseball s
Ġignore s
Ġdare s
Ġhurried ly
Ġrust led
ĠMon ica
Ġleap ing
ĠHug gy
ĠStep hen
ĠMus cle
Ġexting u
p ers
p ass
Ġgl inting
ĠG aby
ĠBall oon
Ġhoo ked
Ġsy ring
ĠTri xie
Mon a
Ġjigg led
Ġimagin ative
c up
g s
Ġd il
Ġc ents
ĠH im
un ities
ĠL auren
Ġlo ss
ven ge
az zy
Ġsheep ish
St ep
Ġrug s
Ġjug s
Jane y
Ġmeat balls
ĠY outh
Ġhesit antly
ĠFu el
Ġopport unities
Ġdoub t
Ġfare well
Ġune asy
P izza
Ġt iara
Ġb urp
at t
Ġo o
ĠL exi
ĠF ive
app iness
ĠBr ight
Ġtoug hest
ĠPe ppa
Ġcollect ions
Ġmen us
Ġbuzz es
Ġpad lock
Sp icy
ĠEl i
Ġbless ings
Ġmur ky
Ġwit ness
aterpill ar
Ġgobl in
Ġwond rous
Ġsyring e
G reet
P up
Y oga
y er
Ġd ut
ĠM ushroom
Ġfor ming
Ġwh oos
Ġlo sers
Ġre venge
ĠE than
Ġmo ist
ĠC elery
Ġsqu atted
Ġhat ing
ĠG row
Ġclose st
Ġsucceed ing
ĠMar cus
Ġsimple st
Ġsix ty
Ġprop eller
Ro llie
ĠMouse y
Ġunf reeze
Ros a
Ġcompliment ed
hand ed
Ġris en
l ost
Ġb ust
Ġl ens
Ġpl un
all ing
ĠB ecca
Ġstar ry
ĠW iggles
ĠF reeze
Ġeat er
Ġend less
ĠO il
?âĢĿ ,
Ġhope fully
Ġfeed er
Ġartist s
Ġposit ion
Ġhabit s
ĠEd ward
Ġdou ble
Hel en
? '.
A gain
m ill
n es
Ġst umbling
ĠB us
ĠJ ade
Th rough
ap es
Ġover night
Ġwalk er
Ġunt w
Jo jo
ord s
Ġpass age
ĠGo lf
Ġclum s
Ġrid den
Ġcabinet s
Ġstrength s
ĠSee k
Am ber
Lou ise
Ne w
O AR
P ar
T erry
g l
g ling
h ave
j ump
Ġs ips
ĠM ara
ĠF ast
ĠCh ocolate
Ġforget ful
to es
Ġchest s
ĠTr ouble
Ġcrack le
oin ted
ĠMum ma
ĠMel anie
Ġgle aming
Ġdil ig
Ġ Yay
c r
t here
ĠS imba
Ġbo bbing
Ġsp ine
âĢ ĺ
ĠK athy
az y
Ġcre aking
ph ones
ĠWill ow
Go d
ĠCl ar
Ġsecure ly
ĠAlf red
ĠJes us
Ġ 7
C andy
S oup
m agic
in oceros
ce l
Ġbar bec
Bob bie
Ġban ner
Ġyumm ier
M arry
b el
h appy
im ate
at rice
Ġpl uck
Ġup s
Ġtre spass
Ġsw ift
ĠK aitlyn
ĠP aper
Ġaf lo
Ġstrugg les
ĠMar co
Ġunw ell
ĠFly ing
Ġaflo at
e ers
ir anda
ĠJ unior
ĠC ont
Ġte ch
Ġz ig
Jo hnnie
ĠTo ast
ĠCh ina
St upid
Ġtick lish
ĠPe ach
Re lease
Ġflav ours
Ġass ured
Ġscre ec
cra ck
ĠVo lcano
p air
Ġd ying
at he
ut o
ĠM erry
ur f
ong o
ĠW anda
ĠD ing
Ġun ison
Ġcu pped
ĠJo el
mb ur
Ġspell ing
ĠSh rimp
Ġconf using
Ġattack ing
Ġbud s
Ġscri bbles
Ġconcentr ate
R est
ĠL ance
Ġsm ir
ĠP ee
ĠP ray
Ġz one
ĠO at
Ġpack et
Ġlad ies
ĠDon na
Ġrece iving
Ġtease s
Ġleak s
isc illa
Ġwrigg ling
ĠTre vor
Ġmarvel ing
Val ue
Ġexplos ion
L ife
L emon
M ail
P atch
T essa
v an
ed ience
er ie
Ġha mbur
Ġpo nder
Ġwarm ing
Ġmother s
Ġclever ness
Ġthoughtful ness
ĠPo le
ĠFeather s
ĠButton s
Ġcontented ly
Ġcleare r
N ate
R on
ĠM ove
Ġsp ir
Ġground s
ĠO ctopus
ĠBe ak
ĠSt one
Ġadm itted
Ġdisplay s
Ġsent ence
ĠY og
ĠRock s
ĠSc r
Bug gy
Ġunz ipped
Ġadop t
Greet ings
P aws
R olly
Ġd ue
Ġpl umber
ĠL o
ĠB el
Ġro les
Ġmu les
ase y
Ġspot less
col oured
Ġreg ister
erc ise
ĠThanks giving
Je an
Ġawa ited
Ġorch ard
W ink
Ġd ice
Ġd ash
Ġc ities
Ġfo ss
ĠDo c
isk y
Ġsoap s
Me g
ĠCl ap
Ġble nd
!' '
yl via
Te acher
ĠHunt er
A NG
Ġm uttered
oo o
Ġher d
Ġre solved
ĠD iana
Ġqu ickest
Ġmean ings
Ġhead phones
Ġsecret ly
iver s
Ġwre cked
ĠSc ale
Ġcroak s
Ġgn ome
Ġappet ite
B elieve
S asha
d led
f our
ĠT er
Ġc y
Ġn ibbles
at hing
Ġth re
ve nder
ĠA ren
Ġla vender
Ġco ast
Ġadventure r
Ġarm or
Ġbat ch
Who ever
ĠFr ustrated
Ġpost ers
Ġbet ray
ĠUn iverse
Ġluck ier
isapp ointed
Ġobst acle
Ġviol ins
Ġponyt ail
P ay
f ying
Ġm ended
Ġha lo
ing ing
pp ly
ack y
ic ense
ul ty
ĠF lex
ab out
Ġpo d
Ġpe st
Ġmo an
Ġgra zing
ĠIn k
ĠWh ip
Ġz ap
Ġkey board
Ġfle x
ik ki
Ġdear ly
ĠSm iley
stick s
B un
S andra
T oy
t able
z ip
se ed
Ġlittle st
Ġne ared
Ġwh ilst
ĠC om
bb ling
Ġant hill
Ġcow g
ĠSt ory
ĠNo sy
ĠBeep y
ĠMat ches
Ġaim s
hel p
Ġstall s
Jan et
Ġradi os
Ġbarbec ue
T onight
U m
d les
Ġb on
Ġsa uc
id en
Ġr umm
Ġball et
Ġco cked
Ġhome made
Ġch ore
Ġun b
Ġswe ating
Ġper ch
Ġsur ge
Ġbedroom s
Ġbull s
Ġtray s
Ġchimney s
Ġluxu rious
Ġ1 5
Ġspat ula
Mat ilda
Ġcollap se
ĠRub ber
Ġsunb urn
E lle
R andy
h ot
t op
ĠT urkey
ll i
Ġst umbles
Ġsc oring
Ġint r
Ġwater y
Ġsk ating
Ġor ig
ĠC ross
ĠK elsey
Ġgreen s
Ġcr itter
In c
Jo an
ĠBe ary
Ġrh yme
Ġcop ying
Ġvend ors
Bird s
ĠApp les
Rain bow
ĠDin osaur
Ġopt ion
ĠCube y
Ġwhoos hing
A rr
T yler
j i
t les
ĠT abby
ĠH alfway
Ġcl amber
Ġco ck
ab rina
ĠE ast
Ġam use
Ġpar ades
ĠR upert
Ġtravel er
Ġbeg ins
Fred die
Ru fus
Ġscra pes
Liz a
ĠGrand ad
ĠRh inoceros
Ġchatter ing
B ring
K ip
Q uit
ĠT ad
Ġc ork
Ġbird seed
Ġwh irring
ĠJ asper
Ġsun beam
Ġchild hood
Ġspl in
Ġcorn field
Ġprotect ive
ĠNo d
Ġinsist ent
Ġund erest
shadow ing
Ġrin ses
Ġsnar ling
CRA SH
Ġconsid ered
E d
F ather
G ary
Q ueen
m aking
t est
w he
Ġh yd
Ġp uffy
at a
ĠS our
or i
Ġy anked
ĠL ions
ĠB iff
al king
ax i
Ġla z
arn ey
Ġfl ush
if ted
Ġtr ades
Ġstory book
ĠR est
Ġmean ie
Ġste ad
ĠEm mie
ĠZ eb
Ġsu p
Ġsque aking
Ġrh ym
ĠSn ee
Ġadmire s
ĠAny a
Ġfif th
Ġfulf ill
e ze
r op
t ac
ig ed
itt ers
ĠB oris
ĠM anny
ul ously
Ġbl ind
Ġstr ut
ĠTh row
iz mo
Ġflo pped
Ġarri ving
Ġjourn als
Ġcollect s
ĠAl icia
Ġbull et
Ġyach ts
Ġdire ct
Ġecho ing
ĠCloud y
ĠBar ber
Ġvol unt
Ġunc ertain
Ġcigarett es
H istory
T ia
h op
Ġd ates
Ġc urse
an cing
Ġk o
Ġdon ate
Ġbra ids
ĠP ilot
ĠP ippy
Ġde ath
Ġfight ers
Ġar c
Ġspr inted
Ġent ers
ĠN ell
Ġpost c
ĠFo ot
Ġsuggest ing
Ġstro king
ĠSc ott
Ġgreet ing
ĠHar old
Ġscreec hed
P uppy
b ies
n umber
w ing
an as
ĠH anna
ĠL acey
Ġre el
Ġnew ly
Th ough
ĠD ark
ĠP aw
Ġrem ark
Ġcon so
Ġtag s
Ġgrown up
Ġwiz ards
ĠPh oebe
Ġgap s
ĠPick les
Sw im
Ġhob bies
Ġsilk y
ĠAv ocado
Ġquarre lling
G as
R ita
W ise
s ix
ĠH igh
ĠH aving
ra ser
Ġgra ve
ĠC aleb
Ġtra ce
ol k
Ġwild er
Ġlay ers
ĠSt ars
ĠFr iday
ĠOw en
Ġdem on
Ġachie ving
Ġboo st
ĠMic helle
Ġ10 0
Ġclip board
ĠAr chie
Ġfunn ier
Ol ivia
Ġobl iged
Ġbenef it
bel ief
Ġbetray ed
A pril
J elly
K ara
M ath
et work
ĠH ard
Ġplay mate
ĠB umble
Ġman go
ty le
Ġany ways
ĠE ag
ĠC up
em ons
Ġcook out
ĠJack son
os quito
ĠCh alk
ĠN emo
Ġfing ert
Ġdiffic ulty
ĠSh arky
Ġprep ar
ctop uses
ĠSm ile
Ġapart ment
wh oosh
ĠBeth any
Pe ggy
ĠPet al
Ġamuse ment
n ut
Ġt iles
Ġs ighing
ĠT ag
ĠI ndy
Ġre nt
Ġex isted
Ġsw ell
Ġsmart s
Ġwild ly
ulif lower
ĠFr idge
Ġregret ful
Ġvillag er
Ġclick ing
Dr op
Ġcooper ative
Chew y
Ġvillain s
Ġpersu ade
ivers ary
Ġ ic
E lephant
R a
Ġc it
om ers
am ent
Ġbe ats
Ġcan es
ag ing
Ġun cover
ĠP aint
ĠG uppy
Ġru by
Ġcr ump
Ġspo ilt
ĠLe arn
Ġrake s
ĠOr iginal
ĠIm agine
Ġfond ly
Ġperse ver
ĠAd venture
Ġkiw i
Ġrejo iced
A P
M int
M artin
N umber
R ia
b ag
j a
s ure
w ear
ar let
Ġha irsty
ĠH ome
Ġst ab
ĠB es
ĠM iles
Ġj ay
Ġcan n
Ġgentle man
Ġshy ness
Ġtoug her
Ġscoot ed
Ġax es
ĠJul iet
ĠMix er
ĠRe g
Ġmast ered
Ġdrift ing
ĠDe bbie
Ġprefer red
En ough
Ġtang y
Ġunsc rew
G l
K enny
P ig
S ix
T ammy
t weet
Ġt ut
Ġk ern
Ġk ettle
Ġwh irl
Ġcar rier
ĠD ifferent
nn ess
Ġmo pped
Ġneed ing
ĠK ara
Ġpar ting
Ġsqu irm
Ġlion ess
Ġfruit y
Ġrat tling
ĠCl aws
Ex it
ĠPast a
beh aved
Ġthousand s
Ġnin ety
Ġsevent y
Ġthre ats
Ġsup erp
Ġdemon str
Ġpersever ance
C ould
im a
ri cket
ĠW ild
ĠW indy
ret ched
Ġsw ish
ĠC and
Ġgl immered
ĠR epeat
Ġdis belief
Ġtrain er
Ġvis ible
ĠBl ood
Ġdes pair
br ushes
Ġtid ier
Ġsuit able
Ġsauce s
Ġblouse s
Ch ange
Ġeight y
Ġpout ing
Ġannounce ment
ĠCont est
R oo
a nder
n ine
s plash
Ġs omers
Ġwa iled
Ġg al
ir ley
se ven
Ġlo af
ĠMax ine
ĠF ine
Ġch ant
Ġho pper
ĠE rin
ĠC aterpillar
Ġhand led
Ġfi zz
Ġad just
ĠJo hnnie
Ġcomp ost
Ġstre ak
Ġbread cr
And rew
ĠSp aghetti
ĠWhere ver
Ġwaist s
Jen n
Cl ap
ĠDuck s
ĠKay lee
ĠDream s
Bra vo
Ġfanc iest
Ġphotog rap
mind ed
Ġcit iz
Ġbreadcr umb
b aa
h h
Ġl itter
or nness
Ġk il
ĠSam i
ĠJ og
Ġch ief
ĠK e
be ar
be at
ĠDo lph
Ġcomb ination
Ġimpatient ly
Ġsurf ers
Ġrecommend ing
ĠLiz ard
ĠLeave s
ĠPr iscilla
ĠSweet ie
F ore
G erry
Ġb ay
Ġp oo
Ġp ier
or ty
Ġst ash
un iversity
ĠB uck
Ġco aster
ĠF our
Ġtr ous
ĠP umpkin
Ġwait ress
ĠDo ve
Ġmin i
Ġcap able
Ġigloo s
Ġprov ides
Will ow
Ġexper iments
ĠMe i
ĠFire man
Ġdet ail
Ġmerma ids
ĠCle o
Ġbless ing
Ġfaith ful
Ġjugg ling
Ġjing led
Ġgrump iness
Ġ ĠĠĊ
K elsey
N O
P eek
R ub
W illy
W arning
l aw
m i
n s
r uck
Ġin qu
ow s
st retched
ent ions
Ġso bs
ch ors
al ities
ĠA ri
Ġare as
Ġout stretched
ĠF ace
ĠD ance
Ġdoor kn
Ġpick y
Ġthank fully
Ġdrum mer
sp ell
Ġstubb ornness
ĠFo ld
Ġreind eers
ĠAn chor
Pe ace
ĠPr unes
Ġglee fully
po le
Ġwhir led
Ġdazz ling
Ġphotograp her
Ġdoorkn ob
C ari
F el
W ind
j ected
Ġt umble
Ġg arl
an anas
ĠHe art
Ġmo ss
Ġover he
ĠDo lls
oc co
Ġcloset s
Ġnorm ally
ĠSome where
Ġcompl iments
Ġcamp s
Ġsi bling
ĠRo ly
Tr uck
Ġann iversary
Quick ly
Ġdump s
Carl a
ĠGl oria
ĠButter fly
gra ndma
Ġsheepish ly
Ġtrous ers
B ess
B iggie
K it
U ntil
W r
d anger
in n
or get
ĠM oe
ĠM isty
Ġlong ed
Ġru ins
Ġpers isted
St even
Ġquarrel s
lu de
Ġrecogn ised
Ġslipp ers
Ġhen s
ĠSqu ash
Fr ustrated
ĠPo ison
no vel
Ġprod uct
Ġinju ry
Ġgrunt ed
Ġremark able
B arky
K ay
S pid
e ight
n or
s ized
y um
Ġf res
Ġp unch
Ġmo pping
ĠTh umb
Ġgl ory
Ġgreen er
Ġdis res
Ġcr itters
Ġround ed
Ġside ways
ĠPe ppy
Ġbull ets
Ġpoison ed
Ġsi xt
Sp ray
Ġsquaw king
Ġcheetah s
Ġtul ips
Ġempt ied
D ina
a uliflower
g row
z er
Ġd u
ĠM iranda
Ġbl ues
ĠC ord
Ġwind mill
Ġpol icy
ert ime
ĠBe et
Ġ3 0
Ġshiver s
Ġcolour ing
Ġins ides
Ġrecommend ations
ĠSpark les
Ġthrill ing
Ġyouth s
ĠCra bbie
Fl op
Ġsens ible
ĠRel ax
ĠAg nes
ĠKn owing
ĠLaw yer
orget table
Ġ $
Ġ .
H ot
L ong
O xygen
ĠM uffy
al i
ĠC ee
ro ll
ĠK ippy
Ġtight en
Ġpaw ed
St ri
Ġdrum ming
ĠU sing
ĠListen ing
Spe ed
Ġplug s
Ġwrigg le
Ġdroop y
Ġdilig ently
D ance
Ġb ared
Ġm ash
Ġr ushes
ĠB EEP
Ġre qu
as ons
Ġch ugged
Ġsafe st
Ġpond s
ĠO aky
Ġsnow s
Ġround about
Ġatt racted
igg le
Ġdist ress
Ġrecord ings
Ġbri ef
Ġoutdo or
Ġunf orgettable
Tw ist
ĠMad eline
Ġassist ant
Ġdandel ion
Ġdirect ly
Ġbreadcrumb s
G inger
Ġn ug
or othy
Ġo ctopuses
Ġe erie
Ġun ra
Ġfast ened
Ġsl edding
Ġfo il
ious ly
Ġlight house
Ġcool ness
umb ly
Ġdi aries
Ġsupp ose
Ġmoder ation
Ġsuggest ions
Ġble nded
Bu bb
ĠCra w
Ġscri bble
ĠSquee zy
ĠStand ing
ĠJes se
Ġsizz le
Pen elope
ĠPain ting
ĠSteph anie
Ġparamed ics
Ġclamber ed
S e
S ing
Ġs is
Ġm ult
ĠL y
Ġan chors
ĠA llowed
ĠF ar
ĠF ireworks
Ġcle ve
Ġdra ped
He idi
Do do
Ġgu iding
ere k
to ot
Ġteam mates
Ġloop ed
Ch ocolate
Le ah
Ġslither ing
Ġmeaning ful
Ġsumm ertime
Ġunpl ugged
G reg
H ank
O t
Ġg ad
ĠS et
ĠS pl
ĠS eth
Ġpl ump
ri lly
Ġy e
ur ly
Ġam bit
ged y
Ġgarden ers
Ġtired ness
sh ake
Ġmix ers
ĠAnn abel
ĠN etwork
let e
ĠBe atrice
Ġpri zed
Ġador ed
Ġmechanic s
ĠMoo Moo
Ġsqueal ing
Ġsurv ived
ĠBar b
Ġhoot ed
Ġvol ume
Ġcaf Ã©
ĠAbb i
B arry
N AP
Ġs ession
er gency
Ġwas her
ri p
al ance
Ġj ig
Ġsome place
ĠD ennis
ĠC ongratulations
Ġsn oo
ĠP al
ĠP illy
Ġdr unk
Ġcr ad
Ġbuy er
Jo sie
ĠZ ebra
Ġlay s
era ld
ĠTr unk
Ġcro aking
Ġple a
Ġtornado es
Ġencourag es
Fl o
Got cha
Ġapproach ing
Ġtul ip
ĠWood y
ĠPill ow
B rr
F rosty
S kelly
f ashion
o le
Ġm oose
om i
ĠS eal
ot ions
ig uel
ĠI nd
Ġbo ing
Ġsp out
Ġal as
Ġal ph
ish a
ĠE specially
ĠE raser
ĠTh inking
ion ate
ac on
Ġland sc
Ġem otions
Ġpast ure
ere al
Ġimag ines
Ġeld est
Ġshoot er
Ġcact uses
ric anes
Ġble ated
ĠGr adually
Ġpeel ing
ĠHo pp
Ġcoop eration
ĠHar riet
ĠT utor
Ġwa ry
Ġd ents
ĠH ide
ĠHe ather
ĠC elia
Ġdan gling
ĠR eal
Ġsear ches
ĠDon ny
iff y
Ġsplit s
Mar ch
ĠGl ue
Ġlimp ing
ĠPa ige
ĠCount ing
ĠFore st
Din ner
Ġgal ax
Ġcamps ite
J asmine
M ick
Ġm ower
Ġfe ature
Ġsw arm
ĠBob bi
ĠP ri
ĠG un
Ġslow s
Ġbar bers
Ġpath way
Ġeager ness
Ġyogurt s
Sh ake
ĠIs abelle
ĠTry ing
ĠRe ggie
Ġbeam s
ĠPen gu
Ġwhimp ering
ĠBaa Baa
ĠPig e
ĠCass ie
Ġspeech less
Ġconso le
Ġfingert ips
Ġlandsc apes
M a
P ull
Z ee
i qu
l icense
o ses
s un
Ġf ished
ar ch
ĠS auce
Ġne g
ra ph
Ġre asons
Ġfl icked
Ġpr ed
Ġsw er
ĠP ingo
ott ie
Ġbee keeper
ale y
asket ball
ĠBl ocks
Ġer ra
Ġple ading
Ġfort une
Sh adow
Ġcrow s
ĠCra zy
ĠTra in
Ġdetect ives
ĠMill er
Ġgrasp ed
Ġoo hed
B onnie
P ol
in i
it z
ar r
ĠS tyle
ĠL illie
al ie
ec ord
ach t
ab et
us age
Ġv ain
Ġopen er
Ġri chest
ang les
Ġpre y
Ġob vious
oph ones
irr or
osaur us
ĠBear s
Ġlow est
Ġhelpless ly
Ġmen acing
ĠTe aspoon
ĠNe igh
ĠDough y
Stan ley
Ġunderest imate
Bubb a
Ġalph abet
C ats
K en
b ecause
ĠT am
Ġsm eared
ĠA ddy
own er
ĠW anna
ĠD raw
Ġv ig
ort ing
Ġgr ade
Ġim it
ĠP an
Ġfarm house
Ġwood land
Ġwise st
Jo seph
row s
Ġpre c
Ġob edience
ĠSt acy
Ġraven s
Ġperm itting
Ġcomfort ably
ĠJu an
Ġbak ers
ĠTrust y
Mel issa
Ġprison er
Pr ince
Ġko ala
L i
R ory
Ġg own
Ġin ser
ĠL ara
ĠB on
ĠB itter
ĠF ake
ĠD ust
ĠSo cks
Ġpar ach
Ġwonder land
Ġpot ty
Ġmarry ing
Ġmem or
ĠCl ucky
Will ie
ĠSm iling
Car ly
ĠSal ad
Ġtor ch
Ġcigarett e
ĠGen ie
Ġcraz iest
Ġscrap s
Ġsund ae
Ġinser ted
L A
M indy
M uffin
R ick
R OAR
c atch
p her
Ġl atch
id get
ĠL acy
ĠA aron
Ġas se
Ġout run
Ġfind er
ĠC ray
ro ar
Ġbad ges
Ġgl ance
ail a
ĠR at
ĠG izmo
Ġsho ved
Ġcr umbled
less ly
Ġbelie ves
ĠAl so
ĠSh irley
Al most
Br other
ĠAny time
Ġconqu er
Ġbold ly
Ġspeck led
Ġwhizz ed
Kn ock
Min nie
Eliz a
W as
h ony
l iest
ĠT own
ĠT ouch
ĠT igger
Ġn umb
ĠH ay
Ġst ressed
ent er
Ġcan ce
Ġco z
ĠP ush
az el
ĠG ame
Ġtrain ed
zz le
Ġel ves
ĠCh oose
ĠBl u
Ġsharp ened
Ġmeasure ments
ĠV an
Ġsprink ler
Ġappear ing
Ġstitch ing
Ġpause s
Ġgri zzly
Ġhandful s
Ġwhimp er
ĠNe ck
Ġsprout ed
Ġtot al
Ne igh
ico le
Ġskate board
ĠCall ie
Ġheed ed
Ġcock pit
Ġ ome
s omet
u le
Ġt ad
ig o
ĠL unch
Ġj er
Ġun even
Ġlong ingly
ĠP in
ĠZ oo
Ġwild life
ĠN ala
Ġbored om
ĠSn appy
Ġscatter s
ĠDan cer
Dog s
Ġchuck le
rink les
Ġmajest y
ĠNeed le
Ġtech n
Ġ eter
s k
Ġm mm
Ġup coming
Ġcl ang
Ġfl ushed
ĠD en
iz er
ĠK arl
Ġrain water
Ġcra fted
ĠG arry
ster y
oop ed
ĠBu d
ĠBu ry
Ġav ail
Ġtrick ing
Ġshut ting
Ġclick s
Ġflick er
Ang el
Ġdiv ided
Ġtac os
Ġtack le
Ġbust ling
Ġeter n
A ha
D ay
b owl
id den
ĠL ill
Ġsm ashing
ĠA rm
Ġro sy
ive ly
Ġrun g
ĠP art
Ġmin ty
Ġring master
to ed
Ġscar iest
ĠSh iny
Ġcalend ars
Ġbeat en
ĠCook ing
Ġjugg led
ĠMail man
reck les
BOO M
Ġcrump led
Ġcitiz ens
danger ous
J imbo
K athy
L a
L iam
T uesday
m ary
Ġw ilt
le nd
ĠB ike
ĠW alter
ag on
Ġal ike
ess or
Ġstory t
ĠWh ippy
art ment
zz z
any a
ĠTr udy
Ġbehave s
Ġwhip s
Ġsym p
ĠMic rophone
Ġramp s
ĠCow y
Ġsnug gly
ĠGrand mother
ĠSurpr ise
Ġtrim med
ĠBes ides
Ġdisres pect
' !
B oy
B elle
F etch
F ighting
J eremy
V iolet
Ġt it
ĠT all
Ġo val
ĠB ack
Ġsaw ing
Ġcl ient
Ġbr ist
Ġv irt
Ġtra gedy
ĠG host
ĠO asis
epend able
ĠN apping
ĠGo ing
ĠSh op
Ġambulance s
ĠCo le
ĠCo dy
Sh all
Sh oot
ĠIs abel
Ġlap s
yd ney
Ġjigg le
Ġculture s
Ġstead ily
g ent
r ophones
ĠS er
en ch
ĠB ongo
ob ble
Ġch am
ĠC onnie
bb it
Ġim m
ĠG um
Ġpick le
Ġmum bled
Ġpass er
Ġvill ages
Ġinc ident
Ġmatch box
Ġmic rophones
Ġshoe box
Ġspell ed
Ġarr anging
Aw w
Ġoutsm arted
Ġsplin ter
Ġoverhe ard
Stri ke
Ġ Yuck
a omi
p ing
Ġh uh
er ous
ir cus
ĠM osquito
my ard
ĠF aster
au nt
Ġfar myard
em s
Ġlay ed
Ġpolice men
aff y
Ġrep ay
Ġdisturb ance
Ġbasketball s
Ġped alling
Ġcur ry
Cl uck
Rob o
Sn ake
ĠCro cky
Els ie
Ġvar iety
Ġnug gets
C K
M ic
R ich
S T
d own
h am
Ġf ain
ĠH oop
ĠH appiness
ch ant
Ġbo l
Ġlo lly
ĠSam uel
Ġunder wear
ast ing
Ġhand ker
ĠR ice
Ġey eb
Ġwet ness
Ġarri val
ĠN ikki
Ġfine st
ĠFr isky
Ġpun ched
Ġfaucet s
Ġfest iv
Ġrecogn izing
ĠRo ary
ud ges
ĠMel inda
Ġocc ur
udy ing
Ġroast ed
Ġimm ense
Ġhandker chief
T ick
m it
m aybe
ĠS ign
ic ity
Ġco ax
Th under
Ġeven ly
ĠG inny
Ġspl attered
Ġjoy s
sp icy
Ġfright en
Ġpor cup
ĠMar c
Ġapolog izing
Ġzigzag ging
Ġswallow s
Mo le
Che ers
Sweet ie
ĠSurpr isingly
Ġplum s
Ġprof ession
H ours
T ag
c uff
d isappear
f or
p itched
Ġf les
ĠS aid
ĠS issy
Ġo oh
ĠB aking
Ġsaw ed
Ġcl asp
uc ted
ĠD awn
qu ack
Ġpe ering
ĠE lli
Ġhand cuff
ĠP age
ĠR occo
ipp ee
Ġmad der
Ġpump ed
ĠAn cient
Ġboom s
Ġreply ing
ĠEx ercise
Ġsens ed
Ġprod uce
Ġvar ious
ĠVe ggie
arlet t
Ġfles h
M anny
b aby
t re
Ġt ur
Ġthe rap
Ġto sses
Ġd itch
ĠS af
il ia
ri bbit
ve re
se e
Ġbo b
Ġfr ol
Ġsp arked
Ġnew est
Ġbr im
Ġex ist
ave s
Ġpo ll
Ġfish bowl
ĠK not
ĠP uzz
ĠR everse
ĠG rey
Ġround s
ĠTo e
Ġatt end
Ġrec ently
ĠN ation
isp y
Ġhur ricanes
ĠSn ail
ĠMo llie
An imal
Ġmoo ing
ĠSl ide
Car ol
ĠSte ak
Ġbaa ed
Ġfail ure
ĠLast ly
ĠCe ce
Ġshoelace s
Luc as
Ġconstr uction
ĠBeet le
Ġbrist les
G emma
I gn
J udge
T a
h oo
Ġc ack
Ġp ure
Ġha unt
ot or
ĠB arney
Ġpo sed
ĠC ory
No ah
Ġhas n
ĠLe go
Ġsmooth ie
ork y
Ġter rit
iv id
Ġengine er
per ation
Ġmass ive
ĠY acht
bl ue
aa ah
Ġtodd led
Mon ths
Ġflick ered
Ġbound aries
ĠGeor gie
Ġspir al
Ġkern els
Ġvirt ue
H oo
c are
w ord
Ġt ipping
ĠT en
Ġd art
ĠH am
ĠH onk
Ġr um
ish y
Ġde w
Ġfell ow
Ġcold est
Ġwag gy
Ġbat tles
Ġgentle men
Ġjuice s
Ġsug ary
ĠTr ina
Ġpress ure
ĠSn ip
Ġgolf er
Ġbill boards
Ġreplace ment
Ġtipto e
Ġwadd ling
Ġencount er
yl ie
Ġseatbelt s
Ġsul ked
Ġcowg irls
Ġstrut ted
Ġome let
Ġ `
A A
F le
K ai
O ther
ĠThe o
ll er
ĠS ylvia
ĠS abrina
ĠM ika
ĠF ashion
ap on
Ġv ows
ant ic
Ġsl ope
ĠC orn
ĠP ower
Ġsho ve
ĠGra pe
arm ed
irt een
Ġcollect or
ĠCl ock
Or der
Cl are
ĠCar ty
ĠSte am
ĠBra ndy
ĠPl an
Ġhumming bird
ĠOt ter
ĠChick en
Ġjud ged
ĠKn ives
Ġdash board
A lf
B ingo
H onk
f r
g reen
z el
ill ip
um bo
ag ged
Ġbr ow
ĠJ em
Ġeven ings
owl ed
Ġbutter y
Ġslow ing
Ġcool s
Ġleaf y
ord an
ĠCh air
Ġwhist ler
Ġswings et
Be a
Ġsmooth ness
Ġneigh s
kn ow
Every where
Ġitch ing
Ġfort unate
Ġharb our
Ġcaptain s
Ro ll
ĠSa usage
Ġporcup ine
N avy
T hings
Y ellow
c ling
g a
Ġto urn
Ġn ailed
ĠShe ila
Ġbr at
Ġbed side
ĠR iding
ĠG iggles
Her b
Do ll
Ġsu pper
Ġph ra
Ġlate st
Ġjudge ment
Ġspeak ers
Ġhi ked
ĠJeff rey
the w
Ġcamel s
Mat thew
ĠPl us
irac ulously
Ġill ness
ĠPine y
ĠMag gy
ĠShark s
Ġlim it
ĠEng lish
Ġsmoot hed
Ġuntw ist
Ġtut u
Fore shadowing
Ġcham bers
M ara
t ract
Ġb umble
Ġg ur
ĠS at
ĠS and
Ġbe ings
se l
ĠIt chy
Ġgir ly
iz ation
Ġsqu ashed
He aring
ĠGra b
Ġatt ent
ĠBr ady
Ġfootball s
Ġmath s
Ġveil s
Ġchess board
Ġalarm s
Ġpur ses
Ġhesit ate
Ġdar kest
Ġavoid ing
Sque ak
ĠSwim ming
Ġescap es
ĠSpin ning
Win ter
Ġtink ling
Ġscan ned
sl ap
Ġextingu isher
L ast
M op
Ġb oop
Ġg ig
ĠS ec
am ole
ĠL otion
ĠA iden
Ġman ner
ach ine
ret t
Ġint entions
Ġrain storm
ac amole
Ġgu acamole
ire s
ract ice
Ġmark ings
Ġgrill ed
ĠCl over
Ġappl ied
ĠSm elly
ĠHoot y
ĠSw an
ĠSw ans
ĠSl ippy
Ġscen es
Bo at
Jon athan
Ġcoconut s
Ġterrit ory
D isappear
M erry
T ra
c um
w is
Ġa ward
ĠT y
ĠT ape
ĠS ari
or ay
ir us
ĠL ula
Ġsh ifted
Ġevery time
ĠF air
Ġfl itting
ĠD orothy
ĠP itch
ĠG ab
ĠO ats
Ġpol it
ĠZ ac
ĠCh ildren
Ġcalm ness
Ġweak ly
Ġfear less
Ġpro ven
ĠBoun cing
Ġfurt hest
ĠRock o
Cl oud
Bee f
ĠSte el
Fl ora
Ġsav ored
Ġscowl ing
Sm ile
ĠStri pe
Ash ley
Ġ ident
d i
l ie
p ensive
Ġg inger
ĠS uccess
ĠH en
ut er
ĠB er
Ġlo cket
ĠA corn
Ġre v
Ġtre et
ĠF rench
ĠJ ada
if ic
Ġche m
ĠWh atever
Ġcr op
ier re
ĠBlue berry
Be es
ĠPe bble
Ġrece ption
night mare
ĠRo ll
Ġseesaw s
Ġnood le
ĠPhil ip
Gr umpy
ĠButter flies
Ġinter rupt
ĠFran c
Ġfanc ier
ĠPol ice
Ġkil os
Ġgad gets
know ingly
L ad
P LA
Z ap
Ġt icked
ar ium
im id
ĠS el
ĠH umble
ĠB asketball
Ġdo cum
Ġwh inn
ĠA ly
Ġdog house
Ġint imid
ĠD ependable
ĠSo ld
ĠC urly
Ġspec tac
Ġkeep ers
Ġmight iest
ĠAfter ward
eter ia
Ġstamp ing
Ġcoo ing
Ġrhin ocer
Ġfre es
Ex cellent
ĠTe a
ĠCloud s
ĠWhe at
Ġcaf eteria
ĠOy ster
Lemon ade
ĠScr uffy
Ġfeature s
Ġdisrespect ful
Ġwhinn ied
Ġspectac ular
C r
D oug
J am
V icky
W il
Ġh y
re lease
Ġc av
ĠB ook
ĠB ab
ĠB anana
ĠM oral
Ġsaw s
Ġre se
ĠD es
Ġv irus
âĢ ĵ
ĠC ricket
Mom ents
Ġwatch ful
Ġtail or
Ġje well
amp s
Ġear ring
Ġstorm ed
Ġpin ec
ĠSt reet
Ġstri ve
Ġmedic ines
Ġshort ly
ĠAm ie
ĠSc reen
ĠEl isa
?' '
ĠWoof y
the y
Ġexplo des
Ġwrink les
Ġpound ed
Hmm m
Danger ous
ĠWorm s
ĠNeed les
Ġpy jamas
Ġdescri bed
Jenn ifer
Ġpred ator
Ġparach ute
Ġpolit eness
is itive
ow der
ĠL og
ĠB itty
ĠM itch
ĠF all
ist ic
ĠE le
ĠC auliflower
ĠC ereal
Ġtal ons
Ġqu alities
Ġar cher
Jo Jo
ren ce
Ġschool s
ere sa
ĠLe an
Ġwheel ed
Ġash ore
Ġhaircut ter
Go ld
Al an
Ġashtray s
Ch ild
Ġsting ing
Ġfabric s
?' "
cl oud
ĠTruck o
ĠTruck ie
Ġting ly
ĠDe an
Any thing
ĠSmo oth
ĠMail box
Ġdaydream ing
Ġrelation ships
Ġponder ed
Ġvolunt eer
Ġhairsty le
Ġcann on
Ġsomers aul
Ġinqu isitive
Ġpasser by
Ġ ir
B ro
L u
O scar
ĠS NAP
Ġsl ings
Ġcom ment
Ġnight time
Ġbuild s
Ġmar ches
Ġbreak able
Ġwhe e
ass ionate
Ġmost ly
Ġlast s
Ġchalk board
Ġsent ences
ĠV ictory
ĠY ield
Ġcheek y
rr rr
Ġstrang ely
ĠTe am
Ġaim ing
Ġsoot he
Ġconcer n
Ahh h
Wo nder
ĠLady bug
ĠHonest y
Ġtran sp
Ġpostc ard
Ġic ic
Ġetern ity
Ġprofession al
N ed
P iggy
Y ippee
h ate
l ong
he althy
Ġd ise
Ġp ity
or gan
ĠL azy
Ġsh rie
Ġre eds
ĠF isher
ĠF reckles
ĠJ ed
Ġsn arl
Ġover c
Ġapp oint
Ġad ver
ger y
Ġbright ness
Be aky
Ġsword fish
ĠMar io
ĠSk ipping
Le ft
Ġthreat ening
Ġfasc ination
Ġrefle ctions
ĠLuc a
ĠPar rot
ĠDi amond
ĠNovel s
Ġtrespass ing
ĠTer ri
Ġtit le
G irls
H ug
L ight
Z ack
g h
Ġt ilt
Ġa ah
ou rage
Ġm akers
Ġsa les
ĠH orn
Ġth irteen
ad dy
ht aking
Ġre cy
ĠW ool
ĠF ancy
Ġch ugging
Ġun knowingly
ĠK iss
Ġstrong ly
Ġri pping
Ġdis like
Ġpu bl
ather ine
Ġheart beat
Be have
Ġperson ality
Ġpay ment
Ġsupport s
Ġcomplain ts
Ġow ie
Ġbreat htaking
Ġprice less
uxu ry
ĠQ uit
cl ap
Ġexcept ion
ĠPl ant
ĠBlack y
Sweet heart
ĠBalloon s
Ġrhym es
ĠGun s
Ġbol ts
B ooks
M s
M ild
N icky
T ri
T iger
V ictory
t urn
Ġa choo
Ġb id
ĠS hip
en ched
Ġher mit
st age
Ġwe ave
Ġle aked
ĠW ashing
ĠC am
Ġdra ins
ĠJo se
Ġswim mers
Ġdin ners
Ġpers pect
Ġshr ugging
Ġvan s
ĠSp ace
ĠSp rinkles
Ġeng ulf
Ġed uc
ĠV inny
Ġsteam y
Ġunh armed
Ġsprink ling
ĠMe ena
Ġmer cy
Ġforce s
Ġtransform ation
Ġslurp ed
Wo ah
inc rease
ĠBel inda
whe el
, âĢľ
? !âĢĿ
T ess
W ar
d ough
j usted
r ist
s pe
Ġs ke
Ġd read
Ġp es
se a
Ġne ater
Ġbut cher
Ġro le
um sy
Ġint ense
aut iously
Ġfrog gy
Ġad justed
ĠR ep
Ġreal ising
co ot
Ġyellow s
Ġcool ing
Ġgrow th
Ġsel ves
aw r
ĠSt upid
Ġcarp enter
Ġsuper vision
ĠHel per
Ġaw ait
Ġflood ing
ĠGr uff
Ġrul ers
Ġobe ying
Car rie
Ġgest ured
Ġconvin cing
ĠSal ty
raw berry
ĠDi ane
Ġwhizz ing
Ġtourn ament
Ġgig antic
Ġslings hot
Ġpes ky
O p
w orth
in ated
Ġin tern
ĠB athing
ound s
ĠA round
ĠD ale
ĠP ixie
az ingly
Ġcow ard
ĠCh airy
ĠBl aze
ĠSt inky
Ġhunt ed
Ġstaff s
ĠBee bee
ĠLou is
Co ffee
Ġexpress ing
ĠPen cil
Ġmatey s
Ġtopp led
Cra b
ĠBlack ie
Ġprof essor
Ġblossom s
Ġreflect ing
Rest ore
Spid er
Ġcleve rest
Ġfain ted
Lad ies
K at
v anish
Ġf ang
ĠT ug
ĠT uffy
ĠT alk
ĠT onight
om en
Ġsa m
en e
Ġo ar
Ġst am
st one
Ġwh is
Ġre fe
Ġno is
Ġab s
Ġpe aked
ĠE aster
ĠC arry
Ġgl orious
Ġche ery
em ergency
ĠP u
oy d
oy o
Ġspl at
Jo ke
Ġsea side
Ġpass word
Ġsharp er
Be st
Ġdrum sticks
Ġpool s
Ġret rie
Ġfour teen
Ġraft s
Ch ick
Ġmer rily
Ġdrip s
Ġplank s
Ġpy ram
ĠCon nor
ĠPray ing
ĠJog ging
Fel ix
ĠPige on
Ġstoryt eller
Ġrhinocer oses
Ġrefe ree
B ANG
b reak
f ight
i ya
w ed
Ġd iet
Ġm az
at ience
or my
Ġe ss
ĠB aker
Ġsm udged
Ġwh om
Ġbl oss
Ġlong ing
Ġsn ored
Thank fully
Ġgl int
ĠK ari
ĠP ay
ign orant
art en
Ġpat s
Ġrel uct
ĠCh ug
Ġpin ned
ĠCl uck
Ġmention ing
Jen nie
ĠJul ian
Ġpuck ered
Ġoutsm art
ST OP
Ġmaz es
? !".
G wen
S uper
u a
Ġb ul
Ġh ula
er al
ĠH igher
nt er
st ream
ĠM ist
Ġsh im
ĠA h
ĠA ir
ile ts
Ġpr os
ĠE asy
Ġsl iced
Ġsn out
Ġunt idy
hn ess
Ġhot dog
Ġpat ched
Ġpot ions
Ġsmo ked
Ġtent h
Ġcelebr ations
ĠSn akes
ĠSh aron
Ġobser ves
Ġgrand ad
ĠCar ley
ĠAnt hony
ĠUp on
ĠCarrot s
Pl ant
ĠGeor g
ĠCol ors
Ġtrad ition
Ġsmir k
Ġhambur ger
Ġdemonstr ated
Flop sy
P ink
S end
i us
p ower
y s
y ay
Ġr ap
ĠM iguel
Ġscared y
Ġsw ished
Tim othy
ĠE ar
ĠE ggy
ro lled
Ġrest s
Jo lly
Ġpart ied
St e
Ġba les
Ġpoor ly
Ġfountain s
Ġshut s
Ġfive s
ĠV ict
Ġflood s
Sh ark
ĠGood night
ĠPrin ty
ĠAnt s
Ġty ping
Am i
Ġnuzz le
Sque eze
Ġpleas antly
Ġdiv ide
Per fect
Ġtwitch ing
Ġpest s
Ġgarl ic
Ġeyeb rows
Ġintern et
0 0
A aaah
B uster
C ake
f ty
g ies
k ie
Ġs outh
ir ation
Ġin h
ow ers
ĠB and
ĠB ananas
ĠM ack
Ġsh immer
Ġshe pher
Ġla pped
Ġla unched
ĠD erek
At t
fere nce
Ġdream land
Ġcre vice
Ġcast ing
ĠZ ed
Ġwar s
Ġseat ing
ĠGo at
Ġrat tled
keep ing
Ġglo ssy
Ġcontain ers
Ġaccomplishment s
ĠRun ning
Ġappearance s
Ġtriumph ant
ĠWhist ling
App le
Ġbon fire
Ġhyd rant
Ġjig saw
Ġerra nds
somet imes
Ġpubl ic
Ġshepher d
D ragon
E rnie
G ret
H igher
M aisie
R aven
S ister
d ely
o dies
s u
t aker
in ished
on ica
at ops
or ny
ĠHe ad
st em
all s
ĠL olly
The o
ur ray
Ġback up
ĠW ipe
ĠF er
ĠD is
udd le
Ġsk ated
ĠC amp
Ġfish y
Ġgl are
ĠR ot
ĠG ently
Ġdr ool
Ġflower y
Ġru dely
ila h
Jo dy
ĠBl ow
Ġcho ppy
oc key
Ġsur gery
Ġtrust worth
Ġmel odies
aff od
Sp arky
ĠLuc ie
Ġsoot hed
Ġheaven s
Ġbund led
Woo ly
Ġoper ations
Ġreassuring ly
ĠWhist ler
Ġrumm aged
Ġstab bed
Ġdise ase
Ġoverc ame
Ġfang s
B a
D ream
I nt
v ation
w in
Ġl ure
st ance
Ġwe aving
ĠB est
ĠM art
ĠF ree
ĠF ear
ĠJ azzy
Ġhouse work
Ġun ne
Ġold s
ro l
Ġfi ery
ĠCan ada
Ġper haps
Ġar f
Ġcontin ues
Ġboss ing
Ġlast ing
Ġreturn s
Ġer asing
Ġapolog izes
Ġtug s
ĠFrog s
Ġsting y
ĠWatch ing
Ġsouvenir s
Ġmold s
Ġwhir red
Ġtend er
Ġvig or
Ġshrie ked
Ġeduc ation
Ġretrie ved
C ro
C ircus
D aughter
J emma
M aking
o il
p le
Ġt amb
Ġa qu
Ġto ken
Ġto ns
ĠT est
Ġd affod
Ġc ure
Ġn udge
ri ve
Ġo int
ĠM is
ĠM al
Ġre ve
ur s
Ġcan ary
Ġsp a
Ġun healthy
ĠC acky
ĠWe ar
Ġjust ice
Ġpar cel
ĠP iece
ĠG reed
Ġband ana
ĠLe a
Ġfig uring
ĠMar ry
Ġext ended
ĠQu iz
Ġinstr ucted
ĠAm elie
ĠCra sh
ĠMatt ie
Tweet y
Sun shine
Ġgod s
Ġdandel ions
Po ison
ĠNight mare
Ġdut y
ĠPee king
Ġtherap ist
ĠPlan et
ĠSold ier
Ġappoint ment
Ġtamb our
C aptain
D ora
F ood
H oot
f y
h at
y uck
Ġt us
Ġs id
Ġb i
ar is
Ġy eah
itt ered
ĠM arian
ĠM iraculously
Ġran cher
ump ed
pec ts
Ġen sure
Ġpar lor
It s
ĠR oom
Ġpol ishes
ub s
Ġbrilliant ly
Ġsub tract
Ġrece ip
Ġhung rily
ĠOr gan
Ġzigzag ged
Ġble nder
Bl ast
Ġsatis fying
go ing
ĠSc rew
Pat rick
Ġperformance s
ĠTra cy
ĠKn ife
Ġprotest ed
Ġproduc ed
Ġwoo lly
Gl ad
ĠCraw l
Ġadver t
C olin
D ylan
P ray
f ragile
Ġa a
Ġf al
ĠS ydney
Ġo ily
ck ing
all ory
ĠL emons
ĠA uto
Ġfa bul
ust ing
ĠD eep
Ġun ity
ĠC oop
ĠWe apon
Ġgr ades
ĠP orky
Ġdra ined
ĠJo in
Ġsho pped
Ġcr an
Ġant enn
Ġfight er
Ġarm our
Ġcho ked
Ġhelpful ness
Ġgener ations
Ġstubborn ly
ric ia
Ġrow boat
Ġgaz es
Ġpur s
Ġconf ron
Ġrefle cted
Tweet ie
Ġmoo s
Ġaddress ed
Ġform s
Ġattem pted
Ġdev oured
Che ck
Ġlun ches
Pop corn
Ġadop ted
Ġsauc ers
Ġunscrew ed
Ġoccur red
Ġhandcuff s
Ġoint ment
Ġfabul ous
Ġantenn as
! ?"
L ee
L oop
M an
P et
W ork
b a
b ack
d ened
t r
Ġh ars
Ġf ry
ĠT eresa
Ġn ick
Ġn orth
id ers
ĠS ully
Ġin ner
Ġbe ady
ĠL ili
ĠM arla
Ġlike ly
ĠC asey
ool ish
Ġunt ouched
Ġcr unched
ĠBl ossom
Ġwild est
Ġwash cloth
Ġflag pole
Me et
Ġgum ball
Ġpermit s
ĠSqu ishy
ĠKeep ing
Ġsteep er
Ġcontro ls
Mar ley
ne ck
the less
Ġtweet ing
Ġpuff ing
Ġdisobey ing
Br ad
ĠFel icity
Ġresponsib ly
Cra sh
ĠStu art
ĠOy sters
Ġfer oc
Ġbrief case
Ot to
ĠFisher man
Ġengulf ed
Ġshim m
! !"
R em
r ude
Ġt attered
Ġa ched
Ġg ut
Ġfor mer
al t
Ġsw um
Ġdec rease
ĠD isappointed
ĠSo ary
ĠE ddy
Ġsn oop
Ġsafe keeping
ĠP ierre
Ġboat man
ĠG oo
Ġfair ness
ĠO aty
Ġste als
Jo anna
ĠZ ane
Ġspin ny
Ġhonest ly
Ġstra nded
Ġrelax ation
Ġharsh ly
Ġdisturb s
Ġteleph ones
ĠFl ip
ĠSun flower
Ġcrowd s
ĠPup il
Ġinsp iration
Mat ty
Ġtrot ting
Ġconnect s
Ar thur
Wo lf
ĠEn ormous
Ġadv ised
Ġtac o
ĠLy nn
Ġske pt
Ġreluct ant
Ġunne cessary
Ġconfron ted
Ġ vers
D i
R awr
S ummer
g ged
Ġw ed
Ġb ale
le as
ĠH azel
ĠL ock
ĠL ord
ĠL ead
ĠL yla
ĠM er
Ġsp iciest
op eration
Ġsw iped
Ġshow ered
ĠEvery time
Ġimp atience
Ġdark en
Ġtreat ing
ape st
Ġpre ference
ĠCat y
Ġap olo
Ġreg ard
Ġignor ance
rn old
ĠSh ape
Ġrecogn izes
Ġapolog ise
ĠFl it
ĠY oyo
Ġallow s
Ġunp leas
ĠBubb ly
ĠLu isa
ĠMa jest
Ġslurp ing
Ġperse vered
Ġrasp berries
Ġplun ge
ĠClar issa
Ġorig ami
ĠKe ith
ĠBuck le
Ġjer sey
Ġtrustworth y
Ġapolo getic
C hip
D ead
H alfway
P inch
T iti
h istory
m in
o ken
Ġto pping
ĠT ow
re a
it or
Ġd ipping
im et
ĠS PLA
ĠL aila
Ġdo omed
ind eer
Ġsp ool
Ġsk id
Ġeach other
Ġproud er
Ġdark ened
Ġru bble
Ġlight est
Ġdri er
Ġelse where
ĠLe on
Ġclever ly
Ġkick ball
ĠSt ore
ĠSt ormy
Ġmis beh
Ġcost ly
Ġrag ing
ĠSh awn
ĠKim my
Ġfetch ing
Ġcent imet
ĠEl ena
Ġwadd le
ĠWil son
Ġsav oring
ĠGold y
ĠRa j
ok o
uccess ful
Ġentertain ed
ĠNat alie
ĠGrow ly
ĠReg ret
Ġsixt een
Ġcrad led
Ġreception ist
Ġvigor ously
Ġaqu arium
Ġreceip t
C omp
C ici
J umpy
K yle
M uch
f aced
l ot
t a
v able
Ġto ilets
ĠT ob
Ġbe ck
Ġbe llowed
Ġo inked
Ġst ink
ĠL ana
ĠB ath
ĠM icky
ch ug
ob web
ĠF il
Ġcare taker
ĠC uppy
iz i
Ġgreen est
Ġey el
red ible
Ġdri bble
Ġcre st
Ġdelic ately
Ġel ated
Ġamazing ly
Ġsharp ening
Ġgold fish
iv a
Ġped dled
ĠCl umsy
Ġsew s
Surpr isingly
Ġthro ats
ĠDuck ie
len ess
ĠHold ing
ĠSl im
Ġtuck ing
Ġbomb s
Ġrack et
Ġshortcut s
Ġcluck ing
Ġrect angles
ĠYog urt
Ġfoss ils
Jelly fish
Ġunra vel
Ġfestiv als
ĠSat urn
Ġstam mered
Ġpreference s
Ġunpleas ant
E rin
G illy
G irl
K ick
M us
O il
d ictionary
f ume
m on
p re
Ġb acon
Ġf ame
ĠT id
ĠT anya
Ġm ould
Ġhe ap
ĠL a
Ġpr anced
Ġche apest
ĠP erry
ĠP umpy
ĠP urry
Ġatt aches
Ġmilk shake
ĠLe wis
ĠSp iders
Ġspace ships
Ġrose mary
Ġdepend ing
Ġspeed ed
ĠSh ock
ĠV era
Ġskill ed
Ġappreci ating
Bl inky
Or ange
ĠGreen ie
ĠPr un
ne el
Car oline
Ġargum ents
ĠPinch ing
Ġripp le
ĠComp y
Rel uctantly
Dot ty
Ġfrag rant
ĠDraw ing
Ġimit ate
Ġphra se
Ġbumble bee
Ġsomersaul ts
Ġess ential
ĠMajest y
B on
C ammy
P ear
T ouch
U gh
b ike
d is
ĠT reat
at ers
ĠS orting
il izer
Ġday time
ĠB ucky
Ġre cover
Ġkn itted
Ġcar go
ĠBen ji
ss a
Ġkne ad
ĠD ella
Ġpe gs
aught ers
We ee
ĠG ri
Ġcr ush
Ġslow est
Ġsnow storm
Ġar ch
Ġbrown ies
ĠBl ake
Ġbat ted
St ealing
Ġknowing ly
Ġimprove ment
Ġregret s
ĠSk ye
ĠSw ing
ĠTe acher
Ġsy stem
Ġdep artment
Ġbas ics
ĠBrush y
Rel ax
ĠFranc is
B iggy
B anana
C her
K iss
P ast
g arten
t ails
v is
Ġl ane
Ġd ren
Ġp ulp
Ġg iddy
Ġy olk
Ġon board
ent ed
ĠW ords
ĠF am
Ġpr oc
Ġint ric
Ġv iolet
Wh ale
ro ck
Ġbro ad
ĠG rill
Ġhead band
Ġrace car
Jo in
Ġtower ing
Ġround er
Ġban ners
Ġfat ter
ĠSh ade
Re al
Ġgrill s
stri ke
Ġspoil s
Ġdelay s
Ġfash ions
Ġtwink ly
ud ging
Ro xy
ĠSplash y
Miss ile
Ġunf ro
rest ore
Ġkinder garten
ative ly
Ġposs ibly
Ġflick ering
Ġconcentr ation
Ġprog ram
Ġdroop ing
Ġscree ching
ĠGuard ian
ĠLance lot
ĠDolph in
Ġtus ks
Ġdren ched
Ġintric ate
1 0
B ally
F a
F aye
d ges
t asting
Ġp i
Ġp iling
ĠS coot
ot hes
ĠL uxury
ĠB ri
ĠB ry
ĠA head
ic als
Ġfr amed
ĠF izz
ĠJ ordan
Ġbl ister
ĠE vie
Ġsl umped
ro se
ast ian
Ġfo l
Ġgr ouch
ĠK id
Ġbra ked
ĠP ret
Ġpaint brushes
Ġblack sm
ĠCh ad
Ġbelong ing
eb astian
Ġser ver
to gether
ĠN aomi
Ġstra pped
Ġhospital ity
Ġwallet s
Ġthunder ing
ĠBo ot
ĠChe ap
ĠJu ly
Pat ience
ĠMake up
ĠGl ove
Ġjud ging
ĠCD s
Turn s
ĠComp uter
ĠComp assionate
gra ndpa
Ġcommand s
Ġacc ord
Ġclums iness
ĠFlex i
ĠSnee zy
rop ri
Ġprepar ation
Ġsuperp owers
Ġtreet ops
Ġchem icals
Ġrese arch
Bro ccoli
Ġblacksm ith
Ġ ou
P eep
R es
S il
Z ippy
l iness
o ise
ĠS urrender
ĠS urf
le ct
ĠH ad
Ġth aw
ri ving
Ġbe aches
ĠL ay
ĠB re
ly de
op her
ap le
Ġjump y
ĠE van
Wh atever
Ġover coming
ĠP ort
ĠR ecord
Ġpa using
Ġey ed
ĠG il
der n
Ġsnack ing
Ġpig tails
Ġpre vious
Ġspoon ed
ĠLe ila
Ġspark lers
ĠN O
ĠN icole
ĠBe aver
ĠSt ories
Ġdifficult ies
Ġcro iss
Ġmuff led
Ġtrumpet ed
Ġcamp ers
Ch ar
Rob in
ĠSc arlett
Ġtiss ues
Ġcor als
Cra ck
Ġinvol ve
Del icious
Sal t
Ġcance lled
Ġtambour ine
D raw
E le
S our
a vers
p aper
Ġb alm
ĠT asty
Ġsa p
ot ic
am s
Ġ" '
Ġplay mates
el ines
Ġman t
ight ened
Ġno zzle
ty ard
Ġch or
Ġtr ink
Ġkid n
ĠP uddles
ĠP rice
th ump
ĠR ino
ĠN appy
ĠCat ie
Ġsplash y
Ġpract ise
ĠWith in
ĠSt udying
Ġsaf aris
Ġclass mate
Ġboard ing
Ġham per
Ġrep orter
ĠFr ightened
Ġorder ly
ĠTw ink
ĠJess y
ĠEarth quake
ĠOl af
Car rot
Ġamount s
Ġsill ier
ĠSe aty
Mon ica
ĠPir ates
ĠGen erous
ĠHand le
ĠBald y
athe t
Ġunb uck
Ġreel ed
ĠPengu in
Ġsid elines
, âĢĻ
A v
T urt
Ġl l
Ġp ul
Ġp oodle
Ġm am
Ġu lt
ĠL aug
ĠL ala
Ġfor ked
Ġsh ack
ĠP oint
Ġapp ropri
ĠG arden
Ġhold er
Ġhide away
orm s
app ily
ĠJen kins
unk y
Ġlad le
Ġret ri
ĠSt acey
ĠSp ooky
Ġtravel ers
Ġbookshe lves
Ġcur vy
Ġaw oken
Ġmass aged
ĠPaul ine
Mar ty
Ġswoop ing
ĠHoot ie
Ġunf inished
ĠSc ore
ĠOther s
ĠNear by
ĠPl ane
sol ve
Ġbouquet s
Ġresponsib ilities
ĠPer fect
gr oup
ĠInch y
Ġfluff ed
Ġgrump ier
ĠCact i
Ġcraz ier
Ġbun s
Ġrecy cling
Ġperspect ive
G ray
M oney
M oe
S ounds
T ock
Y ep
Z ebra
g as
o iled
p ool
r id
Ġh ilar
Ġf itted
Ġd un
Ġhe dges
Ġn av
ĠS ix
ĠH air
Ġbe avers
Ġst ooped
Ġsw ore
ĠE gg
ro ve
Ġhand ling
Let s
ĠK itten
ĠP ull
ĠR em
Look ing
Ġdragon flies
Ġcour tyard
ĠLe ft
Ġmotor bike
Ġpres ident
ĠSome how
Ġcab oose
Ġfoolish ness
ĠAl ina
Ġdepend s
Ġsurf boards
Ġclub house
Al ison
ĠSm udge
Ġstraight ened
Ġgri nd
Ġrespond ing
po les
Ġaffect ion
âĢ¦ âĢĿ
Ġjing ling
Ġmold y
Prin t
Mix y
ĠWr ite
ĠDish washer
iped e
ĠYog i
Ġmemor able
Ġreve als
Ġcentimet ers
Ġhilar ious
F uel
N elly
N ellie
Y awn
d ad
f as
l antern
it er
ĠM otor
ic he
Ġsad dened
Ġback stage
ag s
Ġbl ushes
ĠHer bie
ĠK night
Ġapp ly
Sam uel
Ġbar gain
orm al
ourn al
Ġemb ark
sp in
ĠSt ir
ek s
Ġbalance s
Bl ack
ĠKing dom
ĠChe l
ĠMo dest
ĠSc ary
ĠCle ver
Ġill um
Ġfunn el
Care fully
Spark le
Ġsnatch ing
Ġtran qu
Par rot
Ġpod s
Ġbarbers hop
ĠElli ot
Alf ie
Ġjewell ery
Ġdislike s
Op era
A llie
W ine
s pl
w ill
Ġn udges
Ġin it
Ġplay group
pp ort
Ġst uttered
ĠL ori
ĠM or
Ġso b
ch airs
." .
Ġcl ink
ĠJ umbo
Ġv ivid
Ġgra ze
ĠC ool
Ġfo e
ĠP ipe
Ġsqu ishing
ress ive
Ġtri cer
Ġcla im
Ġmar chers
pe w
Ġcont ra
arp er
Ġfil th
ĠSp ud
Ġcareless ness
Ġbump er
ĠFl our
ĠJe wel
bl ock
Grace ful
Ġripe st
ĠRain y
cl ick
Ġpuff s
Ros y
Ġsens itive
Ġunlo ading
Sw ing
Har riet
ĠCol or
Par ty
Ġfoss il
ĠChalk y
Ġtad poles
ĠDen ise
Light ning
Ba iley
Ġtricer atops
C ount
C elery
D iana
F airy
L ady
L ydia
V o
a ac
d ong
g led
p ter
r ont
w ould
Ġs ce
Ġl ink
ĠS afe
ĠH an
oo ch
Ġst uffy
ĠM id
Ġsm udge
Ġre cycle
ĠW ay
ĠF ia
Ġun fort
ĠC ane
ĠP ia
Ġad am
Ġcon stantly
Ġpink y
Ġgent ler
Do lls
Ġtouc an
Ġcou ches
Ġpin ata
ĠBrown y
Ġheal er
aff les
Ġpow ders
ĠFr anny
la im
Ġwre cks
Le af
Ġconf ront
ĠRo ot
ah h
ĠBo ots
Cl ock
ĠJoy ce
ĠEl mo
Ġerase s
ĠDel icious
CRA CK
ĠZe bby
Ġfrag rance
Ġye ast
ĠPri ze
Ġsymp athet
Ġpredator s
Ġsce pter
Ġunfort unate
B illie
G ert
O peration
V ivi
W ear
b ulb
Ġn ook
ing erly
st art
Ġfriend lier
ĠL il
ĠB ump
ĠM u
." ,
Ġafter ward
As k
ĠP alm
Ġperf umes
Ġsoup s
Ġcorn s
ĠN aps
Ġtoast y
Ġscr uffy
Ġpro ving
Ġpost ed
Ġhut s
ĠFl ute
ĠQu iet
Ġmotion less
ib ility
ĠCra ck
Ġentire ly
Ġpartic ip
Ġstrum ming
Ġmarvel ous
Ġgallop ing
ĠRad ish
Ġscut tling
ĠDi ary
Wr ite
Gret a
su pply
Ġskept ical
Ġchor us
B ark
J et
L ayla
M iles
P a
Y up
d s
f un
g usting
Ġt art
Ġa ye
Ġc ert
Ġwe aved
Ġsh atter
Ġbird y
Ġsp an
ĠW ord
ĠW itch
Ġran ge
ĠJ ing
ret ruck
Ġsun r
Ġsun ning
Ġch omp
ĠD O
Ġfi retruck
ĠK angaroo
ĠP ie
ĠR ae
Ġwet ting
Ġcre aky
Ġpig let
ĠZ izi
Ġmarket place
Ġpian os
Ġstream ed
Ġloop ing
Ġcomfort s
Ġwre st
ĠOr der
Sh iver
Ġhesit ating
ud ers
ĠEl mer
ĠAng us
Ġreass ure
ĠAr row
lest e
Ġsnort ing
ĠStri pes
Ġassist ance
Ġtriumph antly
Ġrelation ship
Ġhaunt ed
ĠFer ris
urs day
A d
C all
F ill
F aster
I nd
L unch
M ason
N an
N ope
O U
T est
k ick
m ath
t ap
Ġh ired
ĠT ide
Ġd aughters
Ġc ore
Ġc urb
om ped
Ġsa cked
ce y
ĠL in
Ġwe bbed
ĠB in
ĠA ut
ĠW ire
ĠF ragile
ĠD ead
qu it
Ġfast en
pl er
ine a
Ġclimb ers
Ġgl inted
Ġwr inkle
Ġvo lcan
bo ve
Ġwonder fully
Ġpoin ter
Ġgu inea
Ġspin es
eter red
Ġspark ler
Ġwheel chair
Ġjog gers
Ġpin chers
iff any
isp er
ĠU r
Ġadventur ing
Ġraft ing
Ġtruth ful
ĠMar sh
Ġcliff s
Ġport al
ĠWould n
Ġincrease s
Ġprop osed
ĠJe alous
ĠEl ise
Ġlamb s
Ġraccoon s
Ġ5 0
Ġtin iest
ĠJoke s
ĠAg ent
Ġthump ing
Ġwig s
Cra zy
Che ap
ĠBark ley
Ġgrunt s
Bra ve
Ġsim pler
Per haps
De af
Ho pper
Wheee e
Ġdut ies
Ed ward
Ġmult ip
Ġgalax ies
ĠMis erable
Ġappropri ate
ĠChel sea
Ġadam ant
Ġ ,
' '
A da
A udrey
C act
D one
D isappointed
J ade
N ight
N ap
b ig
k ward
ĠT ower
ĠT axi
or ke
ĠI ggy
ad en
ĠD rag
qu iz
Ġsl ug
ast le
Ġsn orke
ĠTh ursday
Ġover alls
th ud
Ġde jected
ĠFin s
ren e
Ġupset ting
Ġpath ways
ĠN ad
aw are
arl ene
Ġsnee zy
Ġsmoke s
Ġple ad
Ġrecogn ise
ĠUn known
Ġaw kward
Ġintroduce s
ĠRock et
ĠSqu ir
Ġsting er
Fl ick
Fl oppy
Ġtroll ey
Sm all
Ġcourageous ly
Sof ty
Butter flies
Ġ12 3
Ġdia pers
Sl ap
Ġphotog raph
Ġsele ction
Ġflex ibility
ĠHam mer
ĠHen ri
Ġabs or
Ġbloss omed
Ġvers ion
Ġregard less
Ġgrouch y
A ye
C ars
L o
P anda
c aw
t ree
Ġf rench
re p
Ġc al
Ġhe e
ĠHe aring
ri ff
ĠL amp
Ġre new
Ġco als
Th ink
ĠC ard
ĠC ub
ĠC aw
kay la
ĠIn c
ĠR ac
Ġstore owner
ĠG erald
ac ty
Max ine
Ġlight bulb
Ġgent leness
Ġsec ured
Ġmin ers
Ġfoot ing
ĠBu ild
Ġgate keeper
Help ing
Ġtent atively
Ġcomplain s
ĠTw ig
Bu bble
Cl ass
Sp ace
Ġcrumb ly
ĠPo ems
ĠMad ison
ĠSte vie
Ġscri bbling
Che ss
Ġmur al
Ġstrap s
inc lude
Ġsele cted
pers on
Ra ise
Ġprec aut
ĠSPLA SH
Turt le
B ecca
D is
D es
E mer
P oke
T rain
Y et
o vers
t ale
z ens
Ġf rilly
ĠH al
se at
ĠM acy
ill s
ic ier
ec or
Ġle aky
Ġcar ri
op ed
ĠF an
ĠJ ak
Ġfe at
Ġsw ipe
Ġun imp
Ġgra sses
Ġqu ench
aut iful
Ġarm chairs
Ġfur row
St art
ĠBu bby
Ġfeather y
ĠPe aches
Ġgem stone
Ġcompet ed
Ġgum s
Ġspend s
Ġdeliver ies
Ġquestion ing
Ġpinch y
Ġwre ath
!' ,
ĠHop sy
Ġboo ed
ĠStretch y
ĠIm p
ĠTruck s
Ġwealth ier
Im mediately
ĠFluff les
Ang ela
Ġacc ur
Ġaa hed
Ġou chie
Ġnav ig
Emer gency
C ally
C alm
L auren
M irror
P ot
P ress
R ep
S ugar
T axi
W affle
l in
p ay
in ts
ĠT an
ĠT roy
Ġp om
er os
is m
Ġn on
pp o
Ġr age
ĠI an
ĠL oud
ad ise
Ġso fas
ĠA mer
ight ed
ĠW et
ĠW all
ĠF inger
ĠJ ungle
Ġun aware
ĠAnd rea
Wh oosh
Ġstor k
Ġcol ony
iz ard
Ġpar adise
em ory
ĠR oby
Ġcon cl
Ġhair brush
av ailable
Ġcount ers
Jo die
Ġcreat es
ĠSp ell
ser ve
Ġter m
Ġpray s
com es
Ġtoast ed
Ġrep res
Ġresc u
Ġled ge
Ġobser vant
Ġyield s
aud ia
Ġport s
ĠMo del
ha ired
Ġspong es
ĠJosh ua
Ġburst ing
Ġexha ust
Ġ2 5
ĠSe a
Beth any
ĠKay a
Ġprank s
ĠMa ia
Ġsquawk s
Ġremo ves
ĠTuck er
Ġawa iting
Ġrasp berry
Ġcy cle
ĠCom fort
Ġrequ ires
E llen
G inny
N at
O ooh
R avi
S ave
T oni
T aylor
h an
m ock
z o
Ġt arp
Ġa uth
Ġa ching
ĠT igers
Ġg e
ri el
st ay
un ches
ry er
Ġtre k
Ġfa ire
ĠW rap
ĠJ or
ess y
Ġen chant
Ġgr ime
ĠR ico
ĠO mar
Ġdin er
Ġblack bird
ee e
Ġshap ing
Ġlarge st
Ġmap le
Ġham mock
Ġcrawl er
Ġdeliver s
ĠSh ar
ĠCl iff
Ġhon our
Mar riage
Ġcent ipede
Ġopp on
ĠSl ip
Ġcor rid
Ġfocus ing
ĠCro c
ĠPl anes
Bo x
Ġsnug ly
ĠWhe els
Ġboast ful
App les
Sal ad
Ġburp ed
Ġhambur gers
nut s
Animal s
Ġll ama
Ġvolcan os
E arth
E asy
G ently
P urple
S usy
b read
b arrass
f olk
i work
r d
ĠT ino
Ġm il
le gged
ĠB read
Ġdo zens
Ġshe riff
Ġbo ar
ĠA ppy
ĠA rnold
Ġro aming
Ġout comes
Ġsc or
Ġsc ars
ĠW ing
Ġfind ings
Ġbl azing
Ġch art
ĠD ry
ĠD ive
ĠC ami
ro ad
Ġhand iwork
Ġkid do
ĠP addy
ĠWh ose
Ġz eros
av in
Ġbaby ish
rot ect
Ġele g
ass age
col m
ĠMy a
Ġnervous ness
io lets
Ġmeant ime
Ġed ged
Ġpost box
Ġgrill ing
Ġfest ive
Ġlid s
ĠCl othes
Un iversity
ĠAm azingly
Sp aghetti
ĠStitch y
ne igh
Ġwilling ness
the se
Ġmagician s
Mat ches
Ball oon
Ġtowns folk
Any a
Ġalley way
Ġdisagreement s
ĠWhe ther
enn el
Ġmur m
Ġswat ted
Ġsizz ling
Ġclin ked
Phil ip
ĠDish y
Ġsauc er
Ġintr uders
Ġprepar ations
Ġdu o
Ġasse mble
Ġcack led
ĠSec ond
ĠOrgan izing
Res ist
A c
D eer
G iraffe
I NG
M ousy
P ause
W alter
m ond
s que
v i
Ġf ert
Ġp el
ar f
ĠH ours
ld a
se ct
Ġso lem
Ġis s
ĠW avy
ĠF ern
if act
Ġred s
Wh ite
ĠP ing
Ġcook book
Ġcut er
Ġru den
Ġmat es
ĠOn ions
Ġent r
ĠMy stery
Ġjam s
Ġstraw s
Ġexam ines
Ġindependent ly
Ġang les
Ġdust ing
Ġearth worm
Ġrhin os
Ġpractice s
ĠMar go
ĠMar vin
Ġrestaurant s
Ġart ifact
Ġbuzz er
Ġafternoon s
ĠSk ully
Bu y
Cl osed
Sp irit
ĠSpring y
Ġast ound
Co al
Ġtweet ed
ĠStretch ing
Ġdump ing
ĠPh one
Ġslither s
Ġdisc ount
Ġprick les
Ġhaird ryer
Ġinvent ed
Sc issors
Ġroyal ty
che ck
ĠSail or
Ġobl ige
ĠNap kin
Ġproduc ts
Ġwitness ed
Ġclums ily
Ġintr u
Ġobvious ly
Ġimmense ly
Ġclasp ed
Ġsunr ises
Ġauth or
Ġsolem n
Ġruden ess
Ġ Ġ
A ly
A bb
B ibi
D illy
E S
H ome
M ilk
M ighty
R ot
T aking
T ippy
n esses
r ated
y ummy
Ġl ou
Ġl itt
st ore
Ġdo ze
Ġfor b
ul ous
Ġal together
ĠF ay
Ġv en
Ġgra cious
ĠC obweb
ip ing
uff ing
Ġunt ies
ĠP ress
Ġde vel
az ed
Ġcr ime
Ġcr ate
bo ing
Ġmiss ions
Ġem otion
Ġsign ature
ord on
Ġseem ingly
Ġent ry
Ġimpress ion
ĠYour s
iv y
per ate
Al bert
Ġhive s
Ġjunk yard
angu age
Ġfavour ites
Ġinfant s
Ġblood y
act ly
ĠSqu awk
Ġeight een
Ex actly
ĠJu de
Ġachieve ments
ĠSc out
Ġdef ended
Br uce
Ġoverwhel ming
Ġmarve lled
ĠPer haps
Ġdroop ed
Te ach
ĠSurpr ised
Ang ie
Ġwasp s
Tre asure
Ign ore
Ġpul se
F ear
M acy
S id
d rop
f uel
l ist
y our
y ah
Ġa rose
Ġf ried
Ġf erry
re quest
ĠS omeday
Ġit ched
ĠHe al
Ġday care
Ġso cket
Ġso ars
Ġk ennel
ug s
Ġro bbed
Ġman s
ag gy
Ġpret zel
ĠD ar
Ġpe ed
ĠC alm
ĠC astle
Ġte ary
ĠK oko
ĠP ractice
Don ald
Ġleft over
Jo el
ĠCh urch
Ġoven s
Ġreg ain
getable s
ĠWill a
Ġpow ered
Ġcoo s
Go at
ĠDan a
ĠMar riage
Sh rimp
ĠIs land
mm m
ĠTony a
Ġbroom stick
ĠPo kie
Ġplain s
Ġecho es
Ġweekend s
ĠWin ning
Ġincreasing ly
Ġchill i
Ġrebu ilt
Ġgrump ily
Ġtink ering
Ġponyt ails
Cook ies
Ġmoan ed
ĠDinosaur s
tre ating
ĠJem ima
Ġeducation al
ĠCoop er
Ġfurrow ed
C oby
C ircle
G ail
I cy
K aitlyn
M ack
Y o
g le
i kayla
ĠT ink
Ġl ack
er als
on a
Ġha st
am er
ĠH aley
ent ine
ĠM aple
ĠA dd
ĠA bove
Ġse vere
Ġcl ank
if ied
Ġch urn
ĠD enny
Ġeat ers
Ġte en
ĠR ake
ĠR ubby
Ġbre wing
sh irts
Ġclothes p
Ġfairy tale
ĠZ ach
Ġfierce st
Ġang le
Ġelevator s
Ġsepar ately
Ġsub mar
ĠMar gie
Ġregret ting
Ġluxu ries
Ġcontro ller
Mar cus
ĠSc ared
Ġfeast ed
ĠRe ach
Ġdelivery man
ĠLuc ia
ĠRel uctantly
Ġgrandd ad
Squ awk
ĠBun Bun
Ġroo ft
Ġharvest ed
Ġunlike ly
Grand mother
Ġoper ator
Sl ide
ĠSon ia
Ġinspect ion
Ġextingu ished
Step h
Ġswift ly
ĠEag le
ĠLill i
Ġshimm ery
ĠGri zzly
Ġrenew ed
Ġentr anced
B ar
C e
C ut
F old
K neel
L aser
P ony
S is
c led
h onk
l ion
n is
o de
s urpr
z i
Ġh umbly
Ġg ingerly
st ar
ĠL olo
ĠB ush
ĠB rett
Ġsh aved
ime e
Ġcl enched
Ġco y
Ġdown stream
Ġpr oof
if icate
Ġwill ow
Ġch anted
Ġv iolets
Ġun att
Ġstr ate
ĠC y
ĠC row
ĠC lyde
pl oring
Ġfly ers
ĠTh ump
Ġgr ins
Ġgreat ly
ĠP ost
ĠP OP
Ġtra ced
He ather
ĠR acy
ster ious
ĠO k
Ġchild ish
Ġsign als
sw er
oc us
ĠSp r
Ġhero ic
Ġcomb ine
Ġrid dles
Ġquar ter
Ġhall ways
Ġten nis
Ġsoak s
Ġreceive s
ĠGr amps
ĠLou isa
Co coa
Ġplayd ough
Ġbud get
ĠTre asure
ĠSweet heart
Ġass ign
ĠRes ist
ĠStri p
ĠDel ilah
Ġtoothp ick
Ġresource ful
ĠDeaf y
Ġsumm it
Ġradi ating
ĠCass y
Eliz abeth
Ġorig in
Rainbow s
Li bby
ĠMart a
Ġferoc ious
Ġretri eve
Ġcert ificate
Ind eed
ĠUr ge
G eor
H anna
N ia
S ell
f ind
g um
p ol
p iece
Ġw omen
ĠT hing
ĠT ummy
Ġm ending
om a
Ġr oug
ĠL au
ĠB al
ĠB OO
ĠW ren
Ġch omped
Ġred der
Ġpo et
Ġexc laim
our ing
Ġsqu inting
th row
Ġwr iggly
Ġreal istic
Ġfull er
So ap
Ġtreat ment
Ġcont ri
ĠEm mi
Ġign ition
Ġstra ined
Ġbake s
ict able
Ġcrack led
Ġcere als
ĠFr itz
ete en
Ġfreez es
ĠBo ats
Ġhi king
Ġwid en
ĠSquirrel s
Ġconn ecting
Ġuns uccessful
ĠSl iding
ĠSleep ing
Ġcaw ing
ĠFlo ssy
Ġloc ation
ĠFle as
Ġsav annah
Climb ing
Ġinvent ions
Ġlump s
Ġdescri be
ĠFrance s
Cook ie
ĠIgn orant
Through out
ĠSnee ze
Ġsuperp ower
Ġambit ious
Ġcav ities
Ġpinec ones
Ġwhis ked
Ġbi king
Ġproc laimed
Ġeleg ant
B umpy
C omet
G ia
N ut
R R
Z ipper
h y
h old
l by
o ink
w reck
Ġt v
Ġh ull
er ved
Ġn ar
im ately
an or
ĠH ockey
Ġr and
ĠB art
ood les
Ġdog gies
Ġnew er
ob by
ĠJ a
Ġfl aming
ex pensive
ĠK ick
ĠK irsty
Ġunt ying
ac ted
Ġdis p
Ġfull est
Ġmight ier
ĠCh atty
br idge
Ġlast ly
lebr ate
Ġterri fying
ĠTr uth
Ġjack s
Ġsmoke stack
Ġtooth brushes
Ġcharm ed
Ġcompl ied
Is abella
rmomet ers
ĠY arn
Ġinstruct or
Ġgri pped
ĠJump er
Am azing
ĠPh illip
ĠCow s
ĠSe agull
Fl appy
Br uno
Ġoffic ial
eat en
ĠHar vey
Ġcommun ic
Ġcreep ing
ĠGert rude
Ġhoof s
Ġchunk s
Ġuntw isted
Ġlaz iness
Ġwhirl pool
Ġswer ved
Ġintimid ating
Wonder ful
ĠPiece s
ĠTob i
Ġunfro ze
iche ver
Ġprecaut ions
Ġastound ed
Ġrand om
C autiously
E ve
E than
F ragile
F reya
H orsie
f ives
m om
s ides
v ity
w r
w ood
w hen
Ġs ooo
Ġw ick
ĠT ie
Ġd ies
Ġm asc
Ġhe x
Ġbe sides
ĠShe r
ĠB one
ĠB alance
ĠM outh
ĠM achine
ĠM allory
Ġloo ser
Ġlo oming
ic an
Ġsc ents
ĠW ash
Ġex ited
arn ed
ĠJ ared
ĠJ ournal
Ġche ater
ct ing
Ġsto ves
ĠR iver
ng ing
ath a
Ġflower bed
red ictable
Ġcool ers
Ġpink s
art z
Ġspot ting
Ġmail men
My a
Ġmis under
Ġfour s
Ġknot ted
ĠSh oot
ĠY ear
ĠSmith s
Ġdire ctor
Ġdeser ts
Ġswoop s
Zoom ie
Ġsurface s
Ġunp redictable
Quack y
Ġencouraging ly
ĠCare ful
Pen gu
Ġboast ed
ĠDani elle
Inc rease
Ġambit ion
Ġsnoo ze
Ġpoll ut
Ġicic le
Ġcroiss ant
ĠMid night
Ġsubmar ine
A ren
F lowers
F ireworks
L aw
L emons
N athan
T er
s ley
Ġs oo
Ġb ab
ay ed
id ly
Ġg ang
ĠH arper
Ġher on
ĠB ulb
ĠTom i
ter y
ĠW ave
ĠW ish
ĠW izard
ag er
ret s
Ġun rolled
Ġho ard
Ġpar sley
be ing
Ġde b
Hi ppo
Ġright s
Ġve ins
ĠLila h
Ġdes ired
to e
Ġdrum stick
Ġspray er
sp ray
ĠPe bbles
Ġspring y
Ġrid ers
Ġsle ek
ĠSnow fl
Ġsuff ers
ĠHel icopter
ĠOlive s
spec ial
right ened
ĠRo ss
do h
ĠMe et
Un freeze
ĠAm ong
the l
Ġdef ending
ĠAngel ina
Ġloc ated
Jan ice
Ġstray ed
Ġfer ris
Ġsharpen er
Joan ne
ĠAri el
Ġfres hest
ĠSaf ety
ĠPu ss
Ġexhaust ion
surpr ise
Ġ ver
A dd
B el
B ernie
D awn
H or
I vy
K itten
N aughty
S ettle
p om
Ġthe rmometers
ed ge
Ġl ing
Ġd ye
Ġn a
Ġha sty
or o
Ġo ops
ce sses
Ġdo zing
Ġsm ug
Ġwh ipping
ĠA ustr
ong s
ĠF illy
ĠF eed
Ġpr edic
Ġlearn ers
ĠD ress
Ġtow ered
ex am
Ġgr an
Ġunexpected ly
ĠP ins
ĠP oin
ĠP ogo
ĠR en
Ġdri bbling
ĠO b
Do ve
Ġstu nt
app er
Ġdelicious ness
Ġsuc cesses
Ġkick er
Ġlock er
oof y
Ġfoolish ly
Ġanx iety
Ġbase s
Ġsne ered
Ġsub stance
Ġclassroom s
ĠChe ating
ĠKeep er
Ġwid th
Ġconsequ ence
ĠRe indeer
Dan i
ĠElephant s
ĠSw inging
Ġblast ed
Ġcraft ing
ĠFe el
ĠPast els
Ġcirc ling
Ġhoot ing
Ġroast ing
Ġdizz ier
Ġpersu aded
Ġprison ers
Ġgle amed
ĠCe leste
Ġnin eteen
Ġdonut s
ĠRag gy
ĠWor ried
De bbie
Ġsmoot hest
Ġwilder ness
bag s
Se an
ĠBer tha
Ġdocum ent
Ġaccord ing
Ġtrink ets
Ġillum inated
! !
M ac
N ature
R ise
R ead
S ail
\ "
b or
b ra
b itter
e in
e ating
p atter
Ġt ame
Ġh ump
it zy
ĠL ottie
itt ies
ĠA le
Ġback ing
Ġcar ving
Ġal t
Ġbr ooch
Ġex otic
Ġint rig
Ġhand prints
Ġfi zzy
Ġbra gging
Ġmet er
ĠR acing
Ġjo lt
ĠG ino
Ġtri o
Ġbright ening
Ġcr ink
Ġcr aters
ott le
Ġstu bbed
Ġworried ly
ĠCh ubby
Ġstrange st
Ġph ys
sc ore
Ġnut rit
est ival
est roy
Ġweak ness
sp ring
ĠSt amp
ĠTV s
Ġner ves
ym bol
Ġgraceful ness
Ġneighbour ing
ĠChe ster
Ġcontain s
ĠAm os
Ġconfl ic
Ġlower ing
ĠSil ence
ĠAny one
Mo llie
Ġbas king
Sw an
ĠCrocodile s
ĠFa ucet
ooh oo
ĠChar ley
Ġpersu as
Ġpounce s
Ġsevent een
Tre es
Ġquiver ed
Ju an
Ġsmir ked
ĠBarb ara
Ġgalax y
aunt ing
Ġnois ier
Ġdaffod il
Ġfal se
ĠShar key
Ġsolemn ly
Ġlou nging
Ġmans ion
Ġnutrit ious
F ix
H aving
L amp
P ack
S pl
W ash
Y og
d aughter
f ake
i ance
p ow
Ġh arn
ĠT affy
Ġl inked
or ough
am us
Ġth orough
il ings
Ġe w
ĠB room
ch irp
Ġcan oe
Ġsc hed
ĠJ unk
ven ess
ĠTh read
Ġloud spe
ĠK ylie
be known
ĠR ee
Ġcon cept
Ġcold ness
Ġper man
ĠAll en
Ġar ray
Ġrob es
Ġseed ling
Ġcard inal
Ġce ilings
St acy
Ġba wk
Ġhum or
Ġmis ery
Ġunus ually
Ġremind ers
ĠNo se
Ġborrow s
Ġcompetit ors
Ġviolin ist
Ġbubble gum
Ġrag ed
ĠSh oe
Ġsepar ates
Ch rist
Ġcur ling
Ġcrumb ling
Fr an
Ġdeal ing
ĠJon as
ĠTe le
Ġcongratul ate
lo ving
ĠRainbow s
Ġlevel s
Ġmac aw
Ġpurch ased
Ġadv is
Ġah hed
Ġconsid eration
Ġquiver ing
ĠFridge y
fashion ed
Mic helle
Ġfrol icked
Ġarcher y
Ġsnarl s
Ġsales person
Ġawait s
Mus ic
Ġartifact s
Ġunatt ended
Ġhex agon
B erry
E R
G low
G rrr
H orse
J unior
S chool
a iting
b oy
b ones
c ul
h ia
t hen
Ġt amer
Ġw ither
ed al
ĠT aste
le af
ĠH alf
ig ure
Ġpl ight
ri fied
nt hia
Ġup right
Ġlo b
ĠA mb
ill e
Ġre solve
ax ter
ĠW affles
ĠJ ana
Ġch ords
Ġun iqu
pl oy
Ġsn ores
ĠP lace
Ġrem arked
Ġde fl
Ġey ep
Ben jamin
ĠG rr
ĠG iving
Ġwet s
Ġac hes
icy cle
Ġwin ced
Ġcont ract
ĠTo ilet
ass y
arm ing
Ġpin es
Ġexplor ations
Ġstra nds
Ġeag les
Ġind igo
light s
Ġcro c
Ġimprove ments
ĠMar i
Ġgrand mas
ĠCl apping
Ġrecommend s
ĠFl oyd
Ġvac ations
Ġinst alled
Ġactiv ated
ĠToot y
ĠTe asing
Ġantic s
rest ed
Ġchar ging
ĠRing y
Sm o
ĠPer fume
Ar chie
ĠSon ny
Ġdesire s
Ġah old
Ġeffect s
Ġhyd rated
Ġlaz ily
ĠGeorg ia
Ġskid ded
Pear l
Ġmultip le
Ġcarri ers
A Y
A men
E ating
G obble
M oppy
R oy
S eth
t ake
he y
Ġh ints
re ly
Ġm oth
id dled
ll ies
ĠS ebastian
ĠS ymbol
an ch
ĠH oo
ĠH ally
Ġpl iers
ĠHe y
un gry
ch anging
out s
ic ine
Ġal er
ure en
Ġsun hat
Ġch ime
Ġch ap
ĠE st
ĠC orny
Ġlove liest
ĠK ira
Ġkid ding
Ġlisten ers
th rough
az am
Ġfire ball
oom oo
Jo se
Ġem ail
ĠN aughty
Ġprot ein
Ġtrouble maker
Ġmel od
Ġexam ination
Ġmedic al
Ġpit ched
ĠSh y
Ġiron ed
Ġshrink s
med icine
ĠBo ard
Un ite
ĠAm aya
Ġvent uring
Ġyelp ing
ĠRon nie
ĠSl ither
Ġspoonful s
Ġinsp iring
ĠBra iny
Ġsprout s
ĠLu is
ĠMa ureen
ĠBrad ley
mo ving
che ss
Ġviol ence
Woo lly
ĠEn vy
Ġenerg ised
Grand ad
Ġris king
Ron ny
Ġproduct ive
Ġtechn ique
Ġ` `
Real izing
Char les
quit os
F lower
J asper
K ind
L acey
M ud
M ika
P aint
R h
V an
r us
v ings
Â ł
ĠT ock
Ġl imb
Ġm aid
ĠThe rm
id a
Ġy owled
ĠI ris
st aff
Ġdo cks
Ġnam ing
Ġwh oop
Ġre arr
Ġsp lend
Ġag ile
ĠJ un
ĠJ eep
Ġbl ub
as se
Tom ato
Ġor ph
Ġor chest
ess ert
ĠK ite
He el
Ġbus ier
We st
Ġice ber
Ġrest ful
co aster
pe ace
Ġperfect ion
Ġboun c
ons cious
ĠCh ange
ush i
ĠFred a
Ġcross bones
Ġrelax es
Ġpro dded
Al icia
Is la
lu xu
Ġalarm ed
Ġlabel ed
ĠRo ses
ĠGr ant
Or iginal
Sp oon
amb i
?' ,
Ġliqu ids
Jump ing
Ġscamp ering
ĠNut s
Pip er
ĠFriend ly
Ġsav anna
ĠHar sh
ĠCut ting
Sleep y
ĠOp al
gra nd
Hel i
ĠPain ter
ĠWor dy
Har old
ĠCon fused
ĠDolph ins
Ġsnoo zing
fr og
Ġattent ive
ĠTalk y
Ġrap idly
Ġinh ab
ĠNad ia
Ġcoy ote
Ġroug her
ĠBOO M
ĠTherm ie
Ġorph an
Ġorchest ra
luxu ry
Ġ ...
K e
O N
W oohoo
l ophone
n ec
w atch
Ġt ended
nd a
ĠT ail
it ions
Ġn ooks
Ġn arr
Ġg ag
ĠS ia
ĠH ill
end or
Ġwe ary
ĠM Y
Ġk itties
Ġlo ot
ĠA rrr
Ġj aw
Ġcl ump
Ġsc ans
ab ility
ist urb
ĠE nter
Ġsk i
ess on
Ġtw ine
ĠTh ief
ĠK iko
Ġqu artz
ĠP urp
Ġreal ization
Ġdraw bridge
Ġcr ouch
ĠAs king
So ar
Ġbowl ing
Ġspr ite
Ġegg pl
Ġbat ting
Ġcorn ered
ĠBe ans
ĠSt aff
ĠSt ring
Ġmysterious ly
ĠSp iny
Ġsque als
Ġyarn s
ĠSh rink
ĠTweet s
xy lophone
Ġaccept s
Ġworth less
ĠPip o
Ġbrid le
Mar garet
Ġproject or
ĠRich ie
Rock et
Ġplayd ates
Ġexperien cing
Ġstrum s
ĠGrand dad
Sc ott
Ġopt im
ĠRad ishes
ĠKat rina
cha un
ĠDanger ous
Ġsunbeam s
ĠInd ia
Ġomelet te
Ġattent ively
Ġrev ved
Ġpros pect
ĠVict or
Ġglare s
Dream s
Ġbeck oned
Cher ry
Ġmam m
ĠDO NG
Ġabsor bed
Ġfert ilizer
Ġintrig uing
Ġloudspe aker
nec ked
! ?
F ake
L exi
O W
R usty
f o
i veness
l ived
o es
Ġb ased
ĠT ire
re sh
ĠThe a
ld erly
Ġe p
st on
ĠB ite
ĠB iting
ĠM irror
ĠM essy
Ġne ighing
ain ting
Ġman es
Ġcl atter
Ġla pping
Ġco ve
ĠJ aden
us ions
ĠD iving
og raph
ĠC acty
Ġbu ries
imb le
Ġsto ck
be es
Ġcry baby
ĠG ordon
Ġflower pot
Ġcon sc
Ġmon k
sh are
cle an
de ad
Do lph
Ġem ploy
Ġcoll e
Ġsack ing
Jack son
Ġshr ubs
oop y
Ġexp and
St u
Ġeggs he
Ġcompetit ions
Ġdeter red
Ġprun ing
ĠSh oo
Ġmodest ly
old s
Ġgasp ing
ĠSm art
Ġbother s
Ġknowledge able
Shh h
Ġinsp ire
Ġsquir ming
Ġdrown ing
ĠFel icia
Ġvibr ate
ĠAc ross
Ġpoop ed
Ġroller coaster
Ġsizz led
Ġwil ting
Ju ice
Ġrhym ed
Ġfulfill ing
ĠEag er
Ġchant ing
Ġcombination s
Ġsixt h
ĠHopp ie
iqu es
Ġasse mb
ĠPuzz led
ĠFam ily
Ġsympathet ic
Gert ie
ĠAmer ica
Ġenchant ing
Ġeyep iece
Ġ xylophone
! .
C H
F rightened
G u
K ari
M icky
P s
R ad
S afe
Y ee
e ater
w n
Ġs in
Ġf ract
ĠT ar
ĠT ank
Ġp itter
ot y
ĠB owl
Ġsh udd
ul ted
Ġback seat
Ġla ss
ĠJ ug
Ġbl aming
Ġab rupt
ĠC ec
ort ant
Ġbook store
ĠIn sect
Ġsqu iggles
Ġbus ily
Ġjo ker
ĠG em
Ġsong bird
ered ith
Ġcr ed
Ġpaper work
She ep
Ġmar cher
ang o
ĠEm ilia
Just in
ass ie
erest ing
Ġscoot ing
ĠFr isbee
ĠCl audia
Ch uck
Ġdelighted ly
ĠSu ki
ĠDog gie
Ġappreci ative
Ġbalan cer
Ġvict ories
ĠBo xy
ĠAn ny
ĠMo jo
Ġsatis fy
Ġskunk s
ĠEx cept
Ġease l
ĠSay ing
ĠGl itter
ĠTra cey
ĠBert ie
cra cker
Ġaccess ory
od ore
Ġtrad er
Ġplun ged
ĠCray ons
Fle a
Ġpyram id
Ġhars her
ĠLaug hing
Ġintru der
Ġling ered
B ell
B oris
E ar
G lor
H at
H ilda
R ani
V e
l isten
m at
m oon
m ma
p ause
s qu
v als
Ġt imb
Ġa ster
Ġs enses
ĠT ubby
Ġd ile
Ġd ense
Ġg el
ĠS im
ĠS us
et urn
ĠB am
Ġj an
um s
ĠW aste
uc ceed
ĠF ill
ĠF arm
if y
ĠD rew
Ġv owing
ĠC old
ĠC asper
Ġproud est
ĠK erry
ĠP ony
ĠP uddle
Ġtra iling
ĠR ope
uit s
Ġsho ving
Ġpol isher
Ġbor der
Ġmum mies
Ġdinner time
ĠEm i
Ġpast ime
me asure
Ġstart le
ian o
Ġmilk man
Ġslid er
Ġstra nd
aw ai
Ġrough ly
ĠBr idge
Ġbarn yard
ately n
Ġprevent s
ĠV ine
ĠV endor
.. ..
Sh ine
ĠSu pport
Ġconf ess
Ġtwink les
ĠAb ra
Bu ry
Ro ses
sty le
Ġforehead s
Ġleap s
ĠJon ah
ĠJay den
Ġflight s
ĠDina h
Ġchar ges
Ġreun ite
Ġunst able
Ġloos ened
Ġhandy man
Ġdesce nd
Ġvacu umed
ĠWor my
ĠGab e
ĠAcorn s
Ġhy ena
Ġadvert ise
Ġcran nies
Ġforb idden
ĠAustr alia
Ġconflic ts
beknown st
Glor ia
Ġtimb ers
Ġaster o
Ġdile mma
F eed
J em
L ots
P ine
S ylvia
T aste
c ue
f ace
f ix
l i
p ost
p ipe
w hee
Ġf idget
Ġd iversity
Ġm ent
Ġu gl
ĠL es
ĠB it
ĠM au
ĠM ountain
ch ini
Ġsm acked
ĠTom y
al y
Ġlo llies
ur led
Ġcl ack
Ġme wed
op y
ĠW ide
Ġno ble
uc chini
ĠF ro
Ġbl and
Ġsun block
Ġsw ishing
Ġsl oth
pec ial
Ġen s
Ġstor age
Ġgl uing
ĠP ack
Ġsqu int
He e
ĠR oro
Ġcla imed
Ġtop ic
In ky
Ġcomp aring
Ġcomp lex
Ġleg end
ĠCh ase
ub way
ĠN anny
Ġcross road
Ġweird est
Ġadd resses
Ġham sters
Go lf
Ġrot s
lu ded
ĠMar ina
ĠPaul ina
Ġworth while
ĠSpark ly
Ġbroom s
ĠMe at
ĠMo ira
Ġdent ed
ĠMon ty
Alex a
ĠRe ally
ĠJay a
ĠPlay er
Snow man
Ġscamp er
Ġwealth iest
Mon ster
Ġfaith fully
Ġvegg ie
edic ine
Ġdedic ated
Ġcurrent s
Ph illip
Ġinnoc ently
Ġdim med
Ġappet it
Ġquarre lled
sl ide
Din osaur
Ġunra ve
lend a
fight ers
ĠMor ris
Ġtrek ked
Ġsched ule
B ub
B itter
B low
C elia
D uke
G ill
P uff
R atty
R iri
S omeday
S imba
T ap
f riends
Ġh ust
Ġh ire
Ġf rill
Ġd us
ar ty
ar rel
at hed
en us
or ah
ĠH awai
Ġ" .
Ġr asc
ĠL ie
ĠTom a
Ġwh ichever
ĠA ddie
Ġre co
Ġme ander
ĠW alking
Ġbr ont
ĠF olly
Ġfl op
as uring
ump t
ĠWe aring
Ġclean liness
Ġsqu id
ĠR ead
ĠR anger
ĠR azors
ĠG rilly
co al
Ġcr anny
Sam i
Ġlight ening
sh ut
Ġac cused
Ġleft overs
ĠGra ham
Ġpaw n
sc are
arp et
Ġfle e
St arry
Ġship wreck
Ġsol ar
Me i
ĠAl vin
Ġharm onica
ĠNo on
Ġmelt y
Ġdust er
Ġfilm ed
Ġmos quitos
Ġpowder y
Ġaccept ance
ĠCo ll
ĠV iv
ĠSk ippy
ĠGr an
Ġinvestig ated
ĠHo oray
Tr uth
Ġwid ening
Mar cy
Ġcause s
Ġdar ting
ĠChrist opher
ĠNever theless
Ġrely ing
Ġhabit ats
lo Ã©
Ġsav oured
Ant s
Ġexperiment ing
Ph oebe
Ġsuspicious ly
Friend ship
ĠWor ld
Ju les
Ġpassage way
Inc redible
Ġpostc ards
ĠAly ssa
Ġtransp orted
organ ized
Di ane
ĠFil thy
ĠTid dles
Fa ith
Sil ver
lect ure
Cact us
Ġconcl usions
Ġorigin ally
Ġflaming os
ĠSnowfl ake
Ġharn ess
Ġlob ster
Ġjan itor
Ġfrill s
Ġdus k
Ġbront osaurus
A ct
F ar
H ah
P arent
S unday
j our
r ug
r alled
y ards
Ġt ens
Ġs ushi
Ġf iddled
ĠT ami
Ġc un
Ġc oun
Ġm ourn
Ġhe als
on ely
Ġha il
en cer
Ġu dd
ĠB amboo
ĠB reak
ĠB ANG
ĠM oomoo
ard robe
Ġback yards
Ġfa wn
Ġno s
ss ss
Ġwal rus
ĠF igure
ĠJ in
ab lo
ish ment
Ġone self
Ġsk etch
Ġgra vity
pl ing
Ġbook mark
Ġhigh way
He al
self ish
Ġcatch y
ĠG iggle
Ġz ucchini
Ġsand bags
Ġhair band
Ġbar rier
Ġgu ides
Fin ish
ĠGra pes
Ġcho ir
Ġmin us
oph y
Ġmot ivated
Ġtid es
Ġhum ility
Ġgenerous ly
ĠBr idget
Ġtrick ster
Ġcheerful ness
Ġenth ralled
Ġcheck up
ĠCl ass
ĠV i
ĠV er
Ġapplaud s
Sp ell
Mar c
Pat ches
Kim my
Ġtemperature s
Ġchipmunk s
Ġvibr ations
Ġmirac ulous
ĠFind ers
Ġcompanion ship
ĠCher yl
ĠRa ja
ĠFore ver
ĠRound y
ĠZe ke
Ġpier ced
Was n
Ġcoz ier
Rich ard
Ġginger bread
Cr ane
ĠLog an
ĠMal colm
Bel inda
Ġperman ent
Ps st
Ġcun ning
D ar
D ennis
F it
H ang
M elt
P ower
R ecord
T asty
W ipe
f ork
g ot
i bby
p ty
p rice
Ã ±
Ġb ree
Ġto ll
Ġwa ding
Ġd awn
ar ate
et al
Ġy a
ĠB uffy
ĠM unch
ĠM uggy
Ġsh ri
ind er
ill i
ur ance
ĠW alk
Ġco il
ab racadabra
ist a
Ġfeel ers
Ġrock er
urt her
Ġtw ister
Ġtw ittered
Ġover fl
Ġgl aring
ĠP andas
ĠWh ispy
ĠWh isper
iss ie
ĠR ow
Ġbre w
co ffee
Ġdri bbled
ĠO x
Ġmum bling
Ġrel ented
ol iday
Ġpower less
epend ent
Ġval ve
St ars
ĠBu y
Ġgener ation
nic orn
Ġmic rosc
Ġmeasure ment
Ġharm ed
Ġplayground s
ĠCl ick
Ġveterinarian s
ĠV enus
ĠY OU
Ġing en
ĠIs aac
Would n
ĠMe chanic
ĠMo ving
Or gan
Ġann oun
Pe ppa
Ġburst s
cl uck
Co ver
Su pply
Ġsill iness
Ġwhimp ers
ĠMagic al
Ġpeep ing
ĠKay ak
ĠMag n
ĠGrand father
ĠJean nie
ĠFix er
Ġruff ling
OO F
Ġank les
Ġwhir ling
Mix ie
Ġperse vere
ĠPassport s
Ġsunb athe
Ġgloom iness
Ġmid night
Clean ing
ĠThrow ing
ĠCray on
ĠVan essa
Ġaward ed
Ġdocum ents
Ġir ons
Tri angle
Att ention
ĠNightmare s
Ġeyel ids
Ġalt ar
ĠHawai i
Ġoverfl owed
Ġ ut
A gn
C oming
C asey
D ive
E ek
F ast
L ara
P uffy
S even
d are
d ragon
m arry
p ush
p oof
s ister
Ġh arp
ĠT ough
Ġd ome
et te
Ġpl op
Ġbe friend
Ġday light
ĠI ra
ĠShe lby
un ia
ĠL ab
ĠL uggage
ĠB oring
ĠM iki
Ġbo a
Ġwh irr
Ġlo an
ag ious
Ġag g
Ġch ipped
ist ent
ĠD ex
ise y
Ġtake off
Ġgra zed
But ton
ĠC atherine
pl ed
Ġsn ipping
ak azam
ct ic
Ġgreat ness
Ġbra vo
Ġmess en
Ġtrain ers
ĠAll ison
Ġcont agious
Ġpat ter
Ġpat io
Ġju icer
ĠTo d
Ġstart ling
sc ri
Ġrec ite
Ġpart ners
Ġcart wheel
ĠOn i
ĠSp y
Ġhur ries
Ġterri fic
Ġdepend ability
ĠFr ame
ĠSh ut
dest roy
Ġdishwasher s
Em mie
Ġjail er
lex ed
Ġsty list
ĠSu zi
ĠSpark s
Sp idey
ibb le
ĠPeanut s
Ġhealth iest
undred s
Carl os
ĠCle ar
Ġself less
ĠMin eral
Ġsav ings
Fish y
erg us
Ġoccasion ally
Ġcluck s
Mix er
Ġgle am
mar riage
Tre vor
Off icer
ĠDani ella
ĠFruit y
Step hen
ĠPengu ins
ĠSand w
Wil ma
Ġpyram ids
Check mate
Ġwed ged
udging ly
ĠPret ending
Pot ato
Ġven om
Ġuniqu eness
Ġinhab it
B urt
C ee
C ory
G um
G aby
J es
J og
K angaroo
L ions
M ari
N one
P ir
P ow
R eading
T ip
T idy
W ild
c red
c ape
c heese
f oot
j ar
p olog
v ine
w w
Ġs ought
ĠT ee
Ġl ining
Ġd ow
Ġd ab
Ġm owing
er ve
Ġsa cred
id ges
am el
ĠH um
il ts
Ġr ook
Ġst ap
Ġst ale
Ġe ffic
nt own
Ġup wards
ĠB atter
ĠB rick
ĠM ug
ĠM uddy
es cape
ĠTom as
Ġhel ium
ĠA yla
ĠA imee
Ġle pre
ul ance
op ot
Ġbl iss
ĠD aughter
ĠD icky
urp hy
Ġun solved
Ġun bear
Ġsl aves
Ġstr ung
ara h
ase s
Ġtw ee
ff led
Ġgl ancing
ĠK ris
Ġmet res
ĠR olo
Ġjo ey
Ġper p
sh ift
ott a
Ġmouth ful
Ġspin ners
col n
Ġorgan ization
Ġsal ute
Ġba ffled
Ġsol ver
ĠPe a
ĠPe ck
Ġpopular ity
Ġsil very
Ġrestless ness
Ġmill ions
Ġpit ches
Ġscrew ed
Ġhotel s
Ġur gent
Ġshampoo s
Ow en
Ġrequest ing
Ġpitch fork
do or
Cl ick
ĠFor give
ĠMix ing
Ġty ped
Ġdet ailed
Ġev idence
elie ved
Fl ap
Ġcooper ating
ĠPick ing
Ġhabit at
Frog s
Ġ4 0
Ġconsider ing
Che er
ĠPar is
Duck s
Ġharvest ing
ĠPep e
Ar f
Ġtend erly
Ġunc onscious
Ġsunb athing
Ġchann els
Ġdaydream ed
Ġparamed ic
Ġcowg irl
Ġrumm aging
Inc lude
Ġgarl and
Ġswer ve
Ġcoz iest
Ġcomment ed
Ġsnoop ing
Ġinit ial
Vo ice
ĠLin coln
Rep lace
Ġsplend id
Ġiceber g
Ġnarr ower
fo llow
Ġdow ntown
Ġeffic ient
Ġlepre chaun
A rm
D ry
E ast
F am
H onest
K ylie
L azy
M ost
R ud
S ari
Y ES
g osaurus
Ġt u
Ġt ic
Ġm ale
Ġsa cri
Ġg ills
ot ed
ĠH ang
ĠH undreds
ig ade
Ġpl ush
Ġy ank
ck les
ĠB ip
ĠB axter
ĠM mm
ĠM assage
Ġout line
Ġthem e
Ġme ek
Ġfa ctor
Ġbr igade
Ġhome owner
arn ia
Ġfl ung
Ġlot ions
ust in
Ġjump ers
ers on
ĠMom ents
ĠE thel
Ġhand wr
Ġblue st
Ben ji
We eks
ĠG ilda
Ġhot test
Ġcr unches
bo ats
ĠO oh
Ġar ched
Her o
Ġres ume
Ġres pects
Ġatt ended
Ġcho king
Ġpers ons
ĠJen a
Ġselfish ly
St rawberry
ĠSp iky
Ġdest iny
Ġhunt s
Go al
ĠFr own
Ġgolf ers
Ġflour ished
Ġten se
Ġlend s
ĠMar shmallow
Ġins pecting
Ġreef s
Ġrac oon
ĠOw ly
ĠFl ipper
ĠUnder stand
ĠRo llo
do zer
Ġflat t
ĠBo dy
ĠGr ateful
ĠStar fish
ĠHo pping
ĠAm azing
Ġ1 8
Ġcomm it
ĠQuack ie
ĠSc are
Ġmer chant
cl ip
ĠCrab s
Ġsquir ting
Ġlimp s
Ġbas ic
ĠLu ka
des erved
Mel ody
ĠWhe el
Ġexperiment ed
Ġviol ent
Ġsumm oned
Ġlif el
Ġannounce ments
Ġbenef its
ĠLo llipop
Bess y
ĠHopp ity
Pol ice
ĠMosquito es
ĠColor ful
ĠJor ge
Ġpel ican
ĠBal ancing
Ġmessen ger
Ġ ĠĠĠĊ
B ananas
C ora
G oose
G iant
H urray
I T
N eed
N icole
S abrina
V era
W et
W orms
` `
a ult
c idence
f old
h igh
n own
p ut
p ad
s ign
t ra
w ait
z els
Ġwa de
Ġd aunting
Ġm ow
Ġn urt
ĠS av
et he
ĠH edge
ri ze
ĠI g
Ġfriend liest
ĠL en
ĠL ind
ĠM ing
ĠM ask
ĠM orty
Ġk ale
ome o
Ġwh inny
ĠA be
Ġtoy box
Ġsc iss
ĠF ae
ĠF estival
ĠJ ar
ĠJ ello
if ting
Ġpret zels
Ġho ppy
Ġsk ins
Ġhow ls
ĠC oo
ge on
ĠHer by
Ġsqu iggly
ĠR OAR
Ġdis rupt
Ġhill top
Ġcr u
Ġcr im
Ġdream y
Ġmat ure
ons ense
ĠCh ain
Ġeas iest
Ġinc on
Ġband its
Ġcoin cidence
up iter
ĠN er
ĠSt rawberry
ĠSome body
Ġter rain
Ġlab s
Ġflash y
ĠSn ippy
Ġdestroy s
Ġthunder clap
work er
Ġdisappear ance
Ġsew n
Ġgaz elle
Mmm mm
Mar co
ĠWise y
Ġocc up
ĠPl ants
Ġjugg lers
ĠMonkey s
Ġsav or
Ġinter act
Ġconcentr ating
ĠWhite y
ĠKn ob
Lou ie
Ġripp ling
ĠComet s
Ġwicked ly
ĠStu bb
Ġsul k
Ġkiw is
ĠIgn ore
ĠScr atch
ĠCand les
Int rigued
Rem ove
Ġfol ks
Hor sy
ĠPoin ty
Yog urt
Ġaler ted
Agn es
opot amus
Ġperp lexed
Ġsciss or
' ?
A T
A iden
E nter
K arl
L ana
M ai
N ibbles
P ainting
S ign
f ed
g reat
s ided
s alt
t ouch
nd ry
Ġb ask
Ġb ony
ĠT ucky
ĠT iffany
Ġl oun
Ġd aw
im os
ĠB oop
ĠB ambi
ĠM emory
ore y
Ġcl inking
Ġcar vings
Ġla s
ĠBen nie
Ġfe ma
ist s
Ġint act
ĠAnd i
ĠC omb
pl ain
pl op
Ġfi ber
ĠK yla
em ple
ĠP ic
ĠR am
ĠG er
Ġduck y
ĠFin a
ĠDad a
So ft
Ġspl int
ĠThere fore
Ġquiet est
Ġshin ning
Ġboun cer
Ġnut ty
est ruck
ĠBe autiful
sp read
Ġgen ius
Ġrespect fully
Where ver
com fort
Ġcher ishing
ĠAl most
ĠSn iff
Ġthread ed
Ġalert ness
Ġaut ograph
Ġthunder ous
Re veal
Ġrece iver
ĠMar ble
Ġrubber y
Ġrail way
Ġaw estruck
ĠBig ger
Ġpanic s
Ġskill ful
Sh aron
Ġpad ded
ĠBounce y
Ġpra ising
use ly
ĠCra ig
Ġcoup on
ĠShow ing
ĠPl anny
ĠRuth ie
Ġfoam y
Bug s
Ġinvent ing
ĠCurious ly
ĠBeef y
ĠCoal y
Ġbas ked
Eww w
Ġsus pected
ĠGu y
Mel anie
Ne ither
ĠWhe elie
ĠMac Donald
Ġvitam in
ĠEve lyn
che ap
Ġkill ing
Ġprof usely
Ġboast ing
ĠFore shadowing
ĠEng ine
ĠFruit s
ĠShrimp y
Ġcann ons
ĠCand le
Pol ish
Ġtad pole
Ġtechn iques
ĠSaf ari
Ġcav ity
Ġpinec one
Ġicic les
ĠTerri fied
ĠLead er
Carrot s
Ġunbuck led
Ġrescu er
sque eze
Steph anie
Ġphys ical
Ġthorough ly
Ġlass o
Ġconfess ed
ĠAbra ham
Ġmicrosc opes
ĠMagn ets
Ġ iced
Ġ ivy
F unny
G en
L oyal
M achine
R ice
R eddy
R ingo
S ale
T uck
V E
W alk
b ite
b alance
g ently
s me
t oy
nd eterred
Ġc ement
Ġn aught
an king
Ġpl aster
Ġo d
ce st
ĠB at
ĠB ink
ĠM E
al ways
Ġan cest
ur u
Ġmake shift
ĠW reck
ĠJ ase
ĠJ upiter
Ġfl u
as ked
ĠD avy
Ġgre ase
Ġun selfish
Ġtr out
ĠC ott
Ġclean ers
Ġturn ip
ĠP ow
ĠP owder
Ġtra g
Ġmet eor
fore st
uit y
ĠG lenda
Ġgrass land
Ġdri ppy
Ġdry ness
ol ves
Ġmad am
Ġben e
Be an
Ġboss iness
oop s
Ġjelly be
unk nown
fic ial
Ġbitter ness
ĠAl ert
Ġrag ged
Ġlime ade
ĠCarl ie
ĠV ince
ĠHel ga
Qu iet
Ġthreat en
Un i
ĠAm ira
ĠHoot s
ĠChew ing
Paul ine
ĠPr issy
Ġmer rier
Dan cing
ĠRobert a
Ġtodd lers
ĠPl uto
ĠDe bby
Ġboil s
ĠSmo king
Win nie
ĠSoap y
Ġlantern s
Ġhike s
talk ies
Ġpassion ate
Rel iable
ĠZe lda
Ġreflect s
Ġdismay ed
Stand ing
whe els
Kay lee
Ġcance led
aunt ed
Last ly
ĠVict oria
ĠTow el
Ġmisbeh ave
ĠGil bert
Av ailable
Ġdun geon
spl it
Ġchomp ing
ĠDrag ons
ĠRac coon
Ġiss ue
ĠCobweb s
ĠThump er
ĠAmb ulance
Ġdefl ated
Ġingen uity
Ġunbear able
Ġfactor ies
ethe less
C ube
C rystal
C aleb
F air
K ira
L L
P ige
P ractice
T ornado
W ood
W ife
W rap
b uzz
c ial
g ae
h urry
u bb
u ary
u let
Ġa jar
in ion
re veal
Ġm obile
ĠS all
en ced
en zie
or iginal
ĠL imes
ĠB ed
ĠB ern
Ġdo cked
al ed
Ġlo ft
ĠA ce
Ġj azzy
Ġre ch
Ġre pt
Ġman ages
ĠW aiting
ĠF ur
ĠF ile
ĠF awn
ĠJ uggy
Ġsw oosh
Ġch andel
nder son
ĠD estroy
Ġun broken
Ġpe ony
ĠMom s
ven ience
ĠC ind
Ġhand print
Ġcom ments
Ġhard ware
Ġground hog
Ġstill ness
ĠLet s
Ġhear ted
Ġz apped
Ġri bs
Ġsleep ier
Ġpick er
Ġread ers
In stantly
ph one
Ġquiet ed
ren a
ross ed
ier ra
Ġmin es
br is
Ġband aid
Ġlife less
ĠN etty
ĠN ails
Ġpan ted
Ġtid iness
ĠSp it
Ġcrown ed
Me asure
Ġeng rossed
Ġdeaf ening
ĠSh ield
Ġtemp les
Ġhipp opotamus
Ġbathtub s
Ġmuseum s
ĠUn ique
Ġinf ected
Ġgro ans
ĠSm arty
ĠRo lling
ĠRabbit s
Sp inny
ĠMon sters
ĠSc amp
ĠMel vin
ĠPam ela
ĠFly er
ĠAr t
Ġhatch ing
Ġreun ion
reg ret
ĠRes cue
Sc ared
Ġnarrow ed
Ġsparrow s
Con nor
ĠOstri ches
Ġerupt ing
ĠChomp y
Sl inky
Luc ie
Ġprotest s
Ġexhibit s
pass port
ĠBel ow
Swim my
ali yah
Ġcoax ed
tre asure
ĠPuzz les
Ġident ify
ĠFear ful
ĠSlim y
Ele ven
ĠCub ie
Ġunimp ortant
Ġmil king
Abb i
Ġregain ed
Ġstrate gy
ĠEst her
Ġinhabit ants
Ġdaw ned
Ġfema le
B EEP
B arney
C ricket
D erek
E nd
E gg
G or
O M
S her
S ly
S urf
V ict
b ad
d ling
e g
t ry
Ġt urb
he et
Ġs ue
Ġthe rm
Ġto cked
ĠT iggy
Ġc ope
Ġc ured
Ġsa pling
le ad
Ġ" "
ri ch
ri vers
Ġo x
Ġy ipped
oo by
Ġst ress
ĠL ecture
ĠM ammy
ĠM edicine
ĠA way
Ġj ell
Ġcan cel
Ġcl inging
Ġstar light
Ġme ats
ĠW iggle
ĠSam son
Ġbr on
ĠF oolish
ĠJ ac
Ġfl urry
ĠD oris
Ġun cles
Ġun roll
ĠC RA
Ġlist s
Ġdon ation
Ġche ep
ĠIn a
em a
ĠP ond
ĠP rotect
Ġbirds ong
Ġhead lights
Ġz agged
ount ed
co ld
Ġtop ics
Ġdel ive
orm an
Bob bi
Ġres ulted
ĠAt t
Ġpurp les
ĠCh ild
Ġlunch room
Ġwide st
ĠN umbers
ĠN arnia
St acey
Ġzoo s
Ġpan el
Ġperson al
nic ian
imp le
Ġfrustr ating
ĠU s
ĠTr ade
ĠTr ish
Ġtooth ache
Ġthunder cloud
Ġcamp ground
Ġbill owing
Ġshelter s
Ġnetwork s
Le opard
uct ive
Ġexper ts
Ġrelease s
utter ing
ĠAn ita
Ġdot ted
ĠMo dern
Ġcontro lled
ĠAnt on
ĠChrist ine
Ġaff ected
ĠPl ate
Jess y
Joy ce
Cra w
ĠCut ie
Ġruff les
Sm iling
gr own
Ġunwrap s
Ġsoothing ly
Ġinform ed
cra sh
Up on
ĠEn c
Grand father
Per cy
Del iver
En c
Ġdoubt ful
Ġsomers ault
ĠFold ing
ĠSquash y
ĠSpl ish
ĠHay ley
for give
Ġgur gling
Tra cy
Ġintimid ated
Ġsam ple
ĠGeorg ina
Ġcrevice s
ĠSurf ing
Ġult imately
Ġcontra ption
Ġnavig ate
Ġoppon ent
Ġrooft op
Ġassign ment
Ġgran ola
Ġwither ed
Ġep is
Ġemploy ee
ĠMau rice
Ġcrossroad s
Ġreco very
Ġhandwr iting
Ġflatt ened
Ġbene ficial
Ġtherm os
Ġjell ies
Ġ &
Ġ :
B ook
B ath
F oolish
G ab
H ola
H urricane
J ed
K erry
L aila
M ikayla
N ell
P ep
S ock
T abby
W inky
c ups
o pp
p owder
u ries
Ġt un
Ġb zzz
in er
ĠT u
Ġm asse
ĠS ound
ĠS ton
ĠS ubway
le on
ĠH ooks
ĠH ungry
il ary
ĠHe avy
Ġe el
st ood
ĠB urn
ĠM aster
Ġsh akers
ĠIt ch
ame leon
Ġre acted
Ġcl ipped
Ġcl ippers
Ġcar amel
Ġfa iling
Ġal tern
Ġal akazam
ĠJ ail
ĠJ eb
Ġch ameleon
ap i
ap hn
Ġexc uses
ĠSo ccer
Ġpe er
Ġam ulet
ĠC ave
ĠC autiously
Ġspec ially
ort ly
Ġover loo
Ġhigh ly
Ġrain forest
Ġde bris
ĠR unny
ĠCan ny
ĠG irls
Ġmean ness
Ġcon st
ĠJack lyn
ĠO peration
In ch
Ġpat rol
os ing
Ġcow ered
ol i
sw eet
ĠBlue berries
lem entine
Ġdirt iest
ĠMark y
Ġsal iva
Ġfoot print
Ġmis behaved
Ġbarn s
ĠU nicorn
Ġscr umpt
Ġhosp it
Ġpost master
Ġbirdc ages
Ġgrape vine
ĠBow ser
Ġport ion
ĠFl ippy
Sh arp
ĠBee zy
Ġstomach ache
ĠQu arrel
Ġrul ing
ĠSun flowers
An cient
Ġcent uries
Sn akes
Ġdump ster
ĠCr unch
sn ip
lo ad
Ġmirac les
Ġmirac ulously
Ġass umed
ĠMarch ing
Ġsuck ers
Ġdisagre es
Ġtantrum s
ĠPark er
Ġpossib ility
ĠHa iley
ĠBark s
ĠJam al
ann on
Ġtrim ming
Fe ather
Ġrais in
att ach
ĠYay a
Ġponder ing
ĠFour th
Ġrequ ired
Ġneg ative
fr uit
ĠDes k
ĠParrot s
spe ed
Ġjersey s
Pinch y
Ġbroad ly
Ġlink s
ĠWay ne
Ġshatter s
Flick er
Ġclothesp ins
Ġna ive
Ġcred it
Ġugl iest
Ġmourn ed
Ġlifel ong
Ġancest ors
Ġmasse use
aphn e
Ġoverloo ked
Ġscrumpt ious
' ".
A aron
C ody
F anny
G iddy
N ine
W anda
b ing
e off
f le
p art
s ay
w ith
Â ´
Ġb ib
Ġh ing
Ġwa fted
re o
re place
Ġd unes
ĠS ab
ĠS aw
or ance
et itive
ĠH arm
Ġwe ake
ĠM otion
ĠM etal
Ġlo ver
Ġj umbled
Ġre jected
ic iness
Ġfr idges
Ġsad dest
Ġla ir
ĠW arm
ĠW ardrobe
ell ed
Ġal gae
Ġag ent
ile en
ick ered
Ġmy stic
Ġsun n
Ġch irpy
Ġch imp
us al
Ġab und
Ġlot tery
Ġint ention
ĠD andy
ĠD ottie
ĠSo oty
ĠE scape
ĠC live
ase ball
Ġgr ater
Ġgr rr
ĠP ablo
Ġrain cloud
Ġad ap
Ġwarm s
ĠWh ales
Ġde ce
ĠR anch
Ġpa cing
ĠG enny
Ġflo pping
Ġice cream
Ġju icier
Ġje ster
Ġround est
Ġside kick
Ġpig lets
ĠCh loÃ©
Ġdelicious ly
Ġbread s
Ġexp osed
Ġmed it
Ġweak nesses
ĠSt arla
ĠNo la
Ġref usal
ĠSn e
ĠSn ack
Ġanxious ness
Ġtire lessly
Ġdeter gent
ĠSh ane
Ġhut ch
Ġbookcase s
Ġshelter ed
Ġgro ve
Ġexit s
Ġemer ge
Ġgrant ing
Ġwrit ers
ĠDid n
Ġadmiring ly
go ers
Ġscrewd rivers
ĠTurt ley
Ġbully ing
ĠBra vo
ĠRalph ie
Ġglitt ers
ĠFly nn
ĠDoes n
ĠApp reci
ĠApp laud
ĠPeep s
ĠMatch ing
ĠTra ffic
Fly ing
ĠFa ctory
Ar t
Ġcommand ed
Ġdestr uctive
Ġentertain ment
Ġbust le
Ġunb elie
Ġsquirm s
Ġfres hness
ĠRelax ing
ĠSer ious
ĠEle anor
ĠBre nda
Ġfaire r
Ġcorrid or
Ġmurm ured
ĠTink er
Ġmelod ic
Ġcrouch ing
li ked
Ġunrave led
Ġhust le
Hah a
ĠDex ter
Ġweake st
A ddy
C and
C uddles
F izzy
H unt
H aley
H azel
R E
S ack
S uccess
T ears
Z og
c ent
c ircle
c adabra
s our
v iew
y ellow
Ġs ourn
Ġp yth
Ġm im
Ġm amma
is fied
id st
ĠS uit
en ix
an cient
le cted
ĠH mm
ig el
ĠHe ar
ri a
un freeze
ĠL ine
ĠB ottle
ĠM ice
es ame
Ġsm ear
ra il
Ġse ctions
ĠSam mie
ach a
ĠF ergus
ie go
Ġdown wards
Ġpr ance
Ġbl aring
Ġwho a
Ġpo cus
og ram
Ġcle ars
Ġflow s
ĠK icking
Ġqu enched
Ġrem orse
ĠR ef
ĠR iya
Ġsat ell
ĠG O
ĠG ames
Ġcon vey
Ġdis heart
ĠFin ley
âĢĻ ,
Ġcr ushing
Ġste amed
Ġcont act
cle ar
Ġvis ion
Ġsmart ness
ĠTo ad
Ġsail boats
Ġapples auce
Ġteac up
Ġrob ins
Ġrobot ic
ĠLe fty
Ġorgan izer
ĠN ail
ĠBe bo
Ġperson alities
Ġclown fish
Ġpump ing
ĠSp idy
ĠSp oiled
Ġind ivid
ĠU ma
ĠNo isy
eropl ane
Ġmild er
Ġcomplain t
Ġpatch work
Ġshort est
Ġcell ar
Ġattach ment
Ġgas oline
Ġtwir ly
Did n
ĠUn ite
Qu iz
Ġequ ations
ĠSu pply
Ġble ach
Ġbur den
ĠChe f
ĠAb racadabra
Ġwrit ings
ĠSqu ary
Ġfrost y
ĠRay mond
Sp read
Ex ploring
Ġcontro lling
Ġdestination s
Pe w
For give
Ġdisob edience
Ġdesper ation
Ġwrigg les
Ġgroan ing
Bo ing
pr oof
ĠAg atha
ĠWil f
Ġsav ouring
Ġdep ar
Ġposs um
ĠBro c
sa fe
ĠRh ino
Ġscal p
Ġunst opp
ĠCake y
ĠOp inion
Ġoper as
Del ay
Ġadv anced
Ġcleare st
Ġbelief s
Ġunsc athed
ĠIgn oring
Ġmain tain
gl ass
Ġtech nician
Ġflex ed
Ġneg lected
Ġtransp ort
ĠFree zer
Ġfry ing
Ġapologetic ally
Ġpi Ã±
ĠAut omobile
Nut ty
Ġmasc ot
Ġpersuas ive
Ġmamm oth
Ear ly
Ġut ens
Jes se
Ġincon venience
Ġhospit als
Ġsourn ess
Ġpyth on
Ġunstopp able
ĠpiÃ± ata
" ?
A W
B ike
B oop
C oo
C assie
D eep
F urry
F illed
H igh
L og
L esson
M al
M itch
M iguel
N aomi
O y
O ats
O stri
S ec
W arn
Y outh
b ath
g irl
j u
j ail
p ick
t ell
Ġb ount
Ġf ades
ĠT our
ou l
Ġhe irl
ĠS uch
ĠH ig
ĠH atty
ĠH idden
ĠHe althy
Ġst rew
ĠL anguage
ĠB rilliant
Ġdo e
Ġk ibble
Ġat h
Ġse qu
ĠMax i
Ġwor thy
Ġsw elling
ĠD riving
ĠE nt
Ġsl unk
Ġhand made
Ġkind a
ool s
em and
em barrass
rel iable
Ġde gre
ĠR uggy
Ġcra fty
ĠJo di
Ġdis comfort
Don na
Ġcla pper
After ward
Ġfarm ing
ĠThere sa
Ġrel ia
Ġriver side
ĠZ ap
ĠGra cy
Ġpre scri
app ear
Be ary
ĠN ormal
Ġtid iest
Ġpack ets
Ġvan ishes
Ġsur vey
ĠMy sterious
ĠSt icky
ĠSp encer
Ġrat tles
Ġlab or
Ġbull dozer
Ġpro pped
Ġfu zz
Ġur gently
Ġresist s
Ġgym n
Ġstable s
ĠCl oe
Ġspoil er
ĠUn pack
Ġstreng then
ĠOwl s
Ġhon ored
Ġstraight en
ĠBo xie
Ġdam aging
ĠOl ga
ĠPo key
ĠHug e
ĠPl um
Ġposit ions
ĠGl ad
Ġcongratul ations
ĠIce y
Im p
Sc r
Ġcirc um
Ġfluff iest
ĠDel ivery
Ġgloom iest
ĠVe getables
Ġscan ner
Ġbrag ged
ĠAbb ey
ĠPeach y
ĠPee ky
toot hed
ĠPal oma
ĠZebra s
ĠFair ies
ĠBer ty
ĠRep air
ĠBath s
Past a
Ġsnorke l
rep are
Dis play
Des perate
Nat alie
Ġscor p
Ġdevel oped
ĠCy nthia
Geor gie
Ġcommunic ating
Ġbab bling
Ġstunt s
Ġlimb s
Ġeggpl ant
Dolph in
Ġsacri f
Ġloun ge
Ġmystic al
Ġheirl oom
Ġstrew n
Ġdegre es
D ale
F ierce
H ay
K ite
K anga
L illie
M uffy
O oo
P ill
R ina
S eat
W ave
c ite
h ire
i pl
k art
l ia
s ack
v isions
w ind
z ers
Ġb rill
re ach
re ated
Ġl us
Ġc ulp
Ġp ried
Ġp ixie
Ġn onsense
id an
ll ers
at ives
ĠS pecial
ot ty
an ne
Ġin ject
Ġplay thing
Ġo vals
un ken
Ġli ars
ĠM itten
ĠM iley
ĠA ero
um i
Ġme ane
Ġme erk
Ġmake over
ĠW on
Ġbr oth
ĠF og
ĠF lies
ĠF arah
Ġdown hill
Ġfe e
Ġsun ken
us ual
qu oise
Ġho ly
Ġho oray
ĠE sk
Ġsk ipper
Ġhand stand
ĠTh omp
Ġbu ff
Ġgr oo
Ġlove lier
Ġsto cking
Ġmet ho
Ġde als
ĠR iko
Ġpa ced
ĠG ar
ĠG avin
Ġsand paper
Ġnight light
Ġste gosaurus
de le
Ġju ry
Ġblack berry
Ġblack berries
Ġrel ative
Ġfan ned
Ġshr unken
Ġdist ressed
ĠJust ine
Ġcart wheels
to day
St udying
Ġsol ves
we igh
ĠSt ation
ĠSp read
Ġtele visions
Ġsell ers
Ġburn er
ĠPe ering
ĠNo elle
ĠSh out
Ġtear ful
cu ry
Ġinf l
rr rrr
ĠChe ep
ĠAb el
ĠGr owl
Ġshock ing
Ġinvestig ating
Ġhesit ates
Un lock
ĠHo ho
ien na
Ġsting ers
Ġdeser ted
Ġ1 6
Ġslam ming
Ab solutely
Ġflavor ful
ĠUp set
Ġunw anted
Ġexpress ions
erm it
Ġswallow ing
ĠAr ctic
Ġaston ishment
Sc atter
ĠBro dy
Sm ell
ĠMop sy
Te a
ett a
Ġacrob at
ĠHorse y
ĠMilk y
iw i
Min ty
Ġdazz led
ĠClar ice
ĠCom my
Ġsplin ters
ĠRest ing
ĠAdventure s
ĠReg ular
Ġcleve rer
ĠBike s
ĠSer ve
Mic key
Ġtur quoise
Ġhotdog s
Ġparticip ate
Pa ige
ĠJing les
ĠAut umn
ĠBuild ing
Ġaccur ately
ĠBush y
Ġtoothpick s
Ġpredic ted
ĠAle c
Ġshudd ered
Ġastero ids
Ġens uring
Ġod or
ĠCott on
Pige on
ĠAppreci ate
Hunt er
Ġdisheart ened
Ġindivid ual
Ġlus cious
Ġmeane st
ĠThomp son
Ġ ounce
C up
C arry
L ate
M arian
R ow
R are
R oof
Y ucky
a un
b ute
d ance
l it
s ugar
u is
u ki
Ġw its
Ġb um
Ġto ler
ĠT in
ĠT ory
ĠT alking
Ġc ores
er ome
om ino
ar ily
ĠS eed
ir cles
il ant
Ġbe llow
ĠL yle
ĠB ing
ĠM arge
ĠM aze
ĠM alia
Ġsh aded
Ġsm udges
Ġbo p
Ġwh ooped
Ġis la
Ġlo vable
ĠA rnie
ĠA nderson
ore nce
Ġj agged
Ġcl unk
Ġex h
ĠF at
ĠJ ayla
Ġpr am
ick i
Ġsw atter
nder s
Ġdec re
ĠD ra
Ġgre asy
Ġho ll
Ġam using
Ġtr ough
ft en
ine se
Ġsn oot
Ġbug gy
Ġover do
ĠK ey
uff ins
ĠP oo
ĠP arent
ĠP hew
ĠP ants
Ġfell a
ĠR ec
ĠR ough
ĠR uru
Ġfin er
Ġthr ower
Ġbutter cups
Ġsea water
amp ed
Ġcomp artment
Ġquiet ness
Ġwell ed
Ġwelc omes
ĠEm ergency
Ġatt ending
ĠCh inese
Ġliving room
Ġpush y
sc ary
Ġshr ub
Be atrice
Ġexp ired
ĠN ella
ĠN est
St ick
Ġpract ically
Ġlad led
Ġmotor cy
ĠSp ear
Ġlog o
ĠPe ppers
ond a
Me at
Me ena
ĠTr umpet
ĠNo sey
Ġtruth s
Ġsurf aced
Ġfu ssy
Re ggie
ĠLook s
Ġcrib s
ĠPat sy
Sh ampoo
Ġble ating
Bl ocks
Ġtrave ller
ĠHope fully
Ġinstruct ion
ĠMoo ly
An swer
ĠMatt ress
Ab ra
cl ack
ĠUp stairs
rat ive
ĠTe rence
ĠHug h
Rock s
ĠBad ger
Ġattack s
sol ving
Gr an
ĠPig s
Sc arlett
ĠEd gar
Ġgall ery
Ġcaution ed
ĠRace y
Ġcondition er
ĠBar rel
El i
rem ain
Ġgruff ly
ĠStri ke
ĠMill i
Son ia
Ġgn aw
Ġgloom ier
Har vey
Ġentertain ing
Ġconstr uct
Ġadjust ments
Ġkil ogram
Ġpoo rer
Wr iting
Spid ers
Ġerra nd
Ġpoll in
Ign orant
Ġgur gle
Wil bur
ĠTeam work
Hug o
Ġmisbeh aving
dis gusting
ĠTwink ie
Ġaccur ate
Ġterm s
Ġnar rative
ĠSher ry
ĠSlither s
Ġbounc ier
Ġorphan age
Ġadvertise ment
Ġshri ek
Ġagg ressive
Ġoccup ied
Ġutens ils
A g
B etter
C onnie
C auliflower
G ather
J ail
L acy
R rrr
S and
S issy
T anya
Z e
b aked
h is
n ame
s ome
w oman
ed ric
Ġf iddle
ĠT ilda
ĠT alia
Ġwa ft
Ġc asc
ĠThe odore
im agine
on ing
ĠS ink
ĠH iding
Ġth orny
ri ble
ut t
se ll
ĠB oys
ĠM c
Ġsh red
ch ange
Ġne cess
Ġtime out
The a
ĠA x
ĠA ustin
Ġtre mend
Ġsc aven
ĠW olves
ĠBut ch
Ġbr ittle
Ġbr rr
ĠJ ud
as min
Ġint ended
ĠD ick
ĠD ully
ĠD oodle
Ġpic t
Ġsl inked
ĠC one
ĠC oral
Ġdon ated
ĠK o
ĠK el
ĠP le
ĠP ammy
ĠP ushing
ĠP iano
ĠR ap
Ġwork b
ĠG eese
Ġz ag
Ġduck ies
Ġste ers
Ġcount less
Ġspot light
Ġarm ed
Ġglow y
Be be
Ġsal mon
Ġsmooth ies
Ġmot iv
Ġjewel er
Ġemb arked
sp ace
My stery
ĠSt irring
Ġmotor boat
elp iece
Ġspace man
Ġhorn et
ony a
Ġind oor
Ġstri ving
Ġshine y
ĠSh ady
Re g
Ġweep s
Ġweep ed
Ġrever ses
Ġgain s
Did i
Ch air
ĠFl are
All igator
reat ive
Le arn
Ġconf use
do ll
ĠTw iggy
Ġappro ving
ĠDr um
Ġpadd ock
Ġwound ed
Some body
Ġgri ef
Jul iet
ĠEx am
Ġwadd les
ĠHerb s
Ġsou ls
ĠGl immer
Ġcooper ated
Ġdrift wood
Sun flower
ĠMin erals
Ġmischievous ly
Jon ah
ĠGrand son
Ġpriv ile
ĠPot ty
Ġjing ly
Sc ore
Sm oke
Matt ie
Ġlen ses
Ġshuff ling
Cook ing
Ġposition ed
Ġstreak s
Ġdu et
ĠGhost s
Ġrum our
Fle xible
owled ge
Gold ie
turn ed
Shark s
Att ach
Ġdaffod ils
Ġblister ed
Ġmant el
Ġmant elpiece
ĠEarthquake s
ĠSquir my
Ġcal cul
Ac cidents
Ce lebrate
Ġcontri but
Ġhoard ing
ĠBroom y
ĠTele vision
Ġoptim istic
Bub u
Ġrasc als
Rud olph
Ġconvey or
Ġcircum stance
Ġbrill iance
. )
1 2
B ull
E lli
L ock
L ung
M otor
N anny
T ie
W ay
b et
b ump
b anana
c oo
c ers
d ark
g iveness
m ix
n ice
y o
z il
he al
Ġto pped
Ġh ue
Ġh omet
ĠT appy
ĠT igo
Ġn aked
Ġha l
or ation
ĠH anging
ĠH ans
Ġth ickest
ver n
Ġbe ards
Ġy o
Ġr am
ĠI van
ĠShe lls
ĠL amb
Ġup stream
ĠB unnies
Ġdo in
Ġsh ards
Ġne atest
Ġbo sses
al ent
Ġj ung
ic ke
Ġcan ister
Ġfr ayed
ĠW ra
ia h
ĠF etch
ĠD av
ĠD rip
Ġcare ss
ĠE v
Ġmo ats
ĠWe ird
ĠWe althy
ĠTh orn
Ġafter all
ĠK ia
ĠK atelyn
ĠIn ny
ĠP au
Ġsqu irts
Ġtra cing
Ġimp ul
Ġmet ers
Ġde le
ĠR ise
Ġwait ers
Ġdis liked
sh ade
Ġmar sh
Ġcount ert
Ġnest ing
art oon
Ġtight ening
Ġem erald
Ġgi ver
Ġsu ited
Ġdangerous ly
ĠCh imney
Ġpocket ed
ĠN iki
Ġact ress
Ġchocolate y
Ġrough ness
Ġer ror
Ġrep orted
Ġgolf ing
head ed
Ġsub sided
Is abelle
Ġslipp er
ĠCl appy
ĠCl osed
Ġregret fully
Le a
ĠFollow ing
ĠGr ady
ĠAn gry
Un known
Tr ade
ĠAunt y
Fr anny
ĠPrin ter
Ġbegin nings
Ġtractor s
ĠSad ness
Pe bby
Tw enty
ĠBall ie
Ġden y
ĠMel ina
ĠRe lease
ĠRe ward
Ġdet ached
Ġbeeh ives
Ġund id
ĠBra zil
ĠMeg han
Ġspy glass
Fl ash
Ġunz ipping
ĠPet unia
oll i
Squ ash
Sm ith
!âĢĻ .
Ġhost ess
Ġhob bled
Mel inda
ĠBar bie
Pam ela
Ġfluff ier
ĠHat tie
Cow s
ĠGret el
Ġerupt ion
Pr unes
Bree zy
ĠBrave heart
Luc a
Stretch ing
Ġscrunch ing
ĠAlligator s
Ġempt iness
Ġblind ed
Swim ming
Ġmango es
ĠAri a
ĠPal ace
itz i
Ġjer ked
ĠArm chair
Ġir re
Chick en
Ġbul ging
Ġpurs ue
Pet ey
ĠPret end
Ġhast ily
ĠShoot ing
Ġsoo oo
Smo key
ĠPurp y
Ġsin ister
Ġabrupt ly
Act ually
ĠVer onica
Ġstap ler
Ġepis ode
ĠQuarrel ing
Ġhomet own
Ġjung les
Ġ ?"
5 0
C ec
C amp
C ol
C ertain
D ig
D ella
F ork
F urther
H ockey
M ammy
P umpkin
R azor
R upert
S el
T ad
T alk
W alking
c ars
c ont
f ull
j or
n i
o lls
p ink
t ag
v ide
Ġt att
Ġa ck
Ġs ized
Ġh umbled
Ġf iling
ĠT ax
ĠT able
it ual
ou ches
Ġl ame
er ick
Ġhe m
Ġhe ave
ĠH oliday
Ġth rive
ri al
Ġu pper
Ġr itual
se par
ĠB izzy
ĠB iki
ĠM eredith
ch amber
ĠA cting
Ġse af
Ġse ash
Ġout going
Ġsp icier
Ġsp iciness
ĠF ee
ĠF ishing
Ġfl ed
Ġbl ushing
uck oo
Ġch is
Ġlot us
ĠD eb
qu eline
ĠE gy
Ġam idst
Ġtr am
Ġtr olls
Wh ilst
Ġgra vy
ĠWe e
Ġbu rial
expected ly
ild ing
ĠK arla
ĠK iwi
ĠP ops
Ġtra cked
Ġrem edy
Ġsoft en
Ġde lete
ĠR rrrr
ĠG re
Ġtri be
Ġmess iest
Ġsleep iness
Ġsho ppers
She ila
ĠO be
Ġbar ista
Ġdream er
Ġland mark
Ġwoods man
Ġmat ted
Ġspot ty
Ġschool work
br own
ĠN ico
Ġspe cks
Ġfear fully
ĠSt orm
Ġtent acle
Ġfier cer
Ġbreath less
Ġtrick ling
ĠAl right
Ġdesign ers
Ġbull frog
tt a
ellig ent
Ġvine yard
Ġed ible
ĠSh apes
ĠSh oes
Ġfu se
Ġairport s
Ġapolog ising
Ġprepare s
Ġclaw ed
ĠFl ames
ĠY ears
Ġseason ing
Ġlily pad
Ġgust s
Ex ercise
ĠJe anie
ĠAsh y
Ġden ied
ĠMel on
cl imb
Ġburrow ed
Ġchar coal
Ġaim lessly
yl vie
Ġill ustr
Bo ssy
Ġoffic ially
Gr adually
Squ are
Ġnatur ally
Ġflick s
str uck
ĠHor ses
Turn ing
Ġsly ly
cra zy
Ġdistract ing
Ġdoub ted
Del ighted
ĠHipp os
Ġmid st
ĠAv ailable
ĠPol ite
ĠDVD s
ĠCal vin
aterpill ars
ĠWood s
Ġrasp y
Spin ning
Ġcy cled
Ġsunburn ed
Ġkern el
Ġclient s
Ġfestiv ities
Alf red
ĠSel ma
rist a
Ġbul ge
Cro codile
ĠPrun ella
Ġult imate
ĠHair cut
ĠCool er
Count ing
ĠCliff ord
Ġmisunder stood
Ġassemb led
Ġtens ion
Dar ling
Ġcommit ment
Ġdepar ture
Ġbount y
ĠEnt ry
Ġworkb ench
Certain ly
Ġack n
separ ate
Ġseash ore
ĠEgy pt
Ġ !"
F ern
I G
K yla
M ill
P our
P oof
R eturn
S itting
S eal
b ush
b eds
e v
e lephant
e arned
j ay
m elt
m int
p our
p ull
r ito
s end
s ive
t or
t oys
w ild
he el
Ġto nes
Ġh ues
ĠT ricia
Ġwa iling
Ġd immer
Ġm ir
Ġm entions
is it
ar ma
ll ous
ĠS age
ĠS eah
an che
am ble
ĠH ilary
ut ch
Ġr abies
ce rer
un ish
un zel
riend ly
ĠL otta
se en
ĠB ot
ĠM ai
Ġsh ift
Ġsm other
al anche
ill o
ard ed
Ġgo pher
Ġout w
Ġsp uttered
Ġback f
are r
op ards
Ġex pects
ĠJ az
ĠJ ee
as il
ĠD elia
Ġpe ster
Ġam en
Ġsor cerer
ĠC aring
ro lling
pl ow
Ġsn ips
Ġcareful ness
Ġgr ated
Ġgr itted
Ġend anger
uff er
ĠIn chie
Ġmet als
ĠR y
ĠR omeo
Ġhear ty
We igh
ĠG ummy
ĠG ulp
sh ield
ĠAll an
Ġmust y
ĠO ops
ĠO reo
Ġsnow plow
Ġdin o
ower ing
Ġtight ness
Do or
Ġres il
ĠEm il
ĠEm barrass
ĠCh ico
Ġcreat or
Ġbow tie
ian ca
ator y
Ġhorse y
Ġpillow case
Ġboss iest
ĠN oodle
Ġgrateful ness
Ġav alanche
sp oiled
Ġwing ed
Ġgather s
Ġrare st
ĠDon ald
Ġweird er
itter ing
ĠHow ard
Ġlamp shade
com p
met s
Ġdelight ing
Ġweek ly
Ġmodest y
Ġdetermined ly
Ġeye ing
play ing
Ġped dling
ĠV et
ĠV alley
Ġfloat ie
ĠFl orence
Ġbrain storm
Le an
With in
Ġble at
Ġsprink lers
Ġtremb les
Ġbur rito
Bl ake
ĠLiz ards
ĠDr inking
Ġvet s
ĠAn abelle
ĠMo ses
Ġpeas ant
Ġunf riendly
ĠBall s
ĠChrist ina
Ġhedgehog s
ĠSl apping
Am azingly
Ġund eterred
Fl utter
Ġconc luded
Ġvibr ation
Ġgroom ed
ĠFix it
ĠTra p
Sw inging
ĠJet tie
Ġstur d
Pick les
Bra ndy
Cle o
Ġplum met
ĠCe lebr
Ġsevent h
Ġgreed ily
Ġdilig ent
Ġblend ing
Ġmini ature
Ġprec ise
ĠBon o
catch ing
ific ant
Ste ak
Ġkidn apped
ĠRem ain
Ġinit ially
Ġwrest le
ĠWall et
ĠRoby n
Ġhast e
ĠOb edient
ĠRee f
Kind ness
Ġeggshe lls
Ġfract ure
ĠSav annah
Ġcrim inal
ĠNer vous
Ġabund ance
ĠEsk imos
ĠSeah orse
Ġ i
) .
B ab
B ite
B alance
C am
C arpet
D ifferent
F O
F ancy
L and
L olly
L yla
M u
M ag
M art
P u
P aper
R elieved
S a
S orting
S ydney
T iffany
X IT
d emand
l im
m ouse
n osed
p ark
p itch
p retty
u bert
ĠT ur
ĠT emple
re ted
re ate
Ġl ather
Ġc au
Ġha lt
ĠS end
ow el
ri ents
ut u
Ġbe ware
Ġwith stand
ld ron
Ġst ag
ĠL uce
ĠL onely
ĠB etter
ĠM ate
ĠM urphy
Ġfun eral
ra ce
Ġag ility
Ġwal nuts
Ġfl icking
Ġfl ushes
Ġab racadabra
ist ant
ĠD ax
Ġmo de
Wh ist
ĠC or
ĠC uddle
ĠWe bby
ĠHis s
Ġte e
Ġsn acked
Ġgr ad
Ġbra ved
ĠP ause
Ġbed post
ĠWh oosh
ĠJo h
Ġhead set
Ġsand ed
Ġper k
Ġprom pt
sh a
sh h
Ġwall paper
Ġquick ened
oun cing
Ġcour te
llie st
Ġnut rients
ĠBlue bird
ung lasses
ĠJim mie
Be et
Ġsal ut
ont roll
sp ear
Ġcross walk
ĠSt uffing
Ġshadow y
Ġpump s
Ġadm itting
Ġpresent ation
Ġtoast s
Ġsauce pan
Ġaunt s
Ġrid ges
Ġhomes ick
ĠSh annon
ĠSh aun
Ġswitch ing
ĠRose mary
Al arm
Ġsilver ware
Ġfre ckles
ĠPat ricia
Ġunh appiness
Ġglo ss
ah lia
Ġemer ging
Ġunderstanding ly
Ġsneak ily
Blue berry
ĠMe ggie
Ġpeel er
Ġrip en
ĠSc oop
Ġhus k
Ġgross ed
ĠRon ald
Ġwrink ling
Ġpuck s
ĠCr ispy
ĠShadow s
ĠSe ven
Mad eline
Ġchar ger
ĠPl op
Ġcond itions
,' '
Ġexamp les
Ġill eg
ĠMin ute
ĠTre ats
Ġconqu ering
stand ing
str id
Ġripp led
raw berries
ĠWas n
Ġleng ths
ĠDel ighted
Ġswat ting
Ġdistract ion
Ġunc ontroll
ĠVo ice
reak able
Ġtang les
Ġfer ret
Ġunpl ug
ĠIgn orance
New s
Ġunb reakable
ĠFoot ball
ĠHome work
Ġfres her
ĠPige ons
ĠTam ara
Ġglance s
sk ating
AA H
AA AAH
ĠGab riel
ĠRep lied
ĠMist akes
Ġinh aled
Ġfal con
Ġpurs uit
Ġstink s
pre vent
ĠFam ous
ĠScoot er
Ġdun ked
Ġgrind ing
Ġtranqu ilizer
ĠMu seum
ĠMarsh a
ĠHenri etta
ĠCard y
ĠJak ob
Ġfaire st
Ġcorrid ors
Ġlitt e
ĠSpr ite
ĠJa ime
Pengu in
Pengu ins
Ġwets uit
CH OO
ĠLes lie
Ġmeander ed
Ġnos iness
Ġannoun cer
Button s
Ġpatter ned
ĠSandw ich
Ġrech arge
Ġdelive rer
ĠSne aky
Ġsacrif ice
Pill ow
Ġculp rit
Ġwaft ing
Ġtremend ous
Ġchis el
Ġcau ldron
Ġcourte ous
Ġ _
D ory
M or
M iranda
M osquito
M allory
P ia
S NAP
T op
T ank
W OW
Y e
d id
d rink
e very
l oyd
m ake
m ber
m ower
m ilk
o lyn
t w
Ġs cept
Ġs esame
Ġb ison
Ġh ip
ĠT ito
Ġd omino
Ġhe ating
is ht
im ated
ĠS ienna
or ters
ĠHe aven
Ġbe gg
Ġu g
On ions
Ġr im
un ite
ent le
ĠM oose
ĠM elly
Ġso cial
Ġbut t
al ise
Ġj ut
Ġj ag
Ġball room
Ġcl og
Ġsc uff
Ġme ment
ĠW oman
ĠF ribbit
ĠJ uno
Ġbl uffing
Ġsw oos
ank et
Th inking
ĠD irt
ĠD essert
ĠD iego
Ġexc ites
Ġun ear
Ġrun gs
pl ane
Ġsn ickered
Ġcu bby
ip er
ĠP it
ĠP ump
be ef
Ġsoft ens
ock et
Ġhands h
uit ion
Ġthink er
air a
We ird
Ġjo ll
Ġtri ke
Ġflower beds
Ġsleep ily
Ġwood worker
Ġant elope
In k
Ġspl atter
pe e
de af
Ġtight est
Ġblack boards
Ġmum ma
ĠTo ss
ĠZ one
Ġsu pr
Ġchee ses
Ġbat tled
Ġph arma
Ġinc omp
br ary
Ġrec ited
ĠLe ather
Ġspark ing
Ġmist aken
Ġcraw ly
St r
ĠBe have
sp oil
Ġcreative ly
Ġ3 6
Ġfool s
Ġrose bush
Ġmeal time
iv ore
anger ine
Ġwool en
Ġtear fully
Ġmay onna
Ġvaluable s
ĠMar iam
del icious
Ġlawn mower
Ġfort ress
Ġrefrigerator s
ĠV olly
ĠV est
olog y
Ann abel
Ġexpect antly
Sh y
reat he
Le arning
Ġinst all
Ġflat ten
Ġinch ing
Cl over
Ġ1 1
Ġbare foot
Sn ee
Ġunw ind
fly ing
Ġtuck ered
ĠAngel ica
Olive s
Ġform ation
Ġscrub s
Ġsprout ing
,' "
ĠWolf y
Ġloc als
ĠTre spass
Ġtin ier
sn ake
Never theless
Ġcourt room
Ġmarve llous
Cra bs
net work
Ġunfold ing
El ise
Ġinnoc ence
Ġaband on
ĠClare nce
ĠAlexa nder
Ġdoub ts
ĠSack y
ĠSid ney
Ġstump ed
Ġplun ger
Ġspir als
Ġmenacing ly
Ġvig ilant
somet hing
Ġsymp athy
Ġtur rets
Ġadvert ising
Ġnick ered
dis play
Ġpi ec
ĠBry an
Ġblister s
ĠBre aking
ĠEgg s
Ġcontra st
ĠJewel ry
Ġphotograph s
ĠInc redible
eee ase
Earth quake
Ġgracious ly
Ġdevel op
pol ice
Ġexclaim ing
Ġconsc ience
Stu art
fix ed
polog ize
Ġtwee zers
ĠScratch y
Ġtrag ic
Enc ouraged
ĠCelebr ating
isht icated
Ġsupr ised
Ġincomp lete
Ġmayonna ise
ĠTrespass ing
Ġ 0
B umble
F og
F uzz
G O
G erald
H appily
I S
J ared
L ula
M ushroom
M orty
P in
S ully
T V
T alent
a ah
b ooks
f etch
h ome
l ittle
m iss
n ext
n eed
p les
p ress
r inky
r ann
u z
w ake
y et
Ġt angle
Ġb irth
in nie
ĠT ight
ĠT illie
ĠT HE
ĠT ori
Ġd war
Ġp iped
Ġp iping
Ġhe aps
is ure
le ft
et ched
ce lyn
ĠB igg
ĠM it
ĠM ir
ĠM arl
ĠM ention
ĠM iko
Ġsh ivery
Ġbut ts
al ade
ĠA ya
Ġle isure
Ġstar ving
Ġcar av
ĠW ilk
ĠW ags
ia s
Ġco ppers
ĠF i
ĠJ ia
Ġpr ancing
Ġpr ongs
Ġbl aze
ap y
ĠD ipper
ĠD rain
qu ired
qu ipment
Ġho ver
ĠC ity
ĠC orey
Ġte xt
pl aced
Thank you
ĠTh in
Ġspecial ist
Ġgr udgingly
Ġgl um
Ġmor sel
He althy
ĠR ic
ĠR ab
Ġcook er
Ġjo lliest
Ġenjoy ment
ĠFin ish
Ġcr amped
Ġlight en
So l
ĠAll i
Ġant eater
ang ling
Ġrel atives
Ġpurp oses
Ġpet rol
Ġmail s
ĠFred o
irp ort
ĠLe g
Ġhorse sh
Ġexp ense
ĠN essa
Ġspe wed
sp oon
ĠSt ove
Ġreg reted
ĠU FO
Ġfrown y
Ġdeaf ness
Ġengine ers
Ġload er
Ġtap ing
Ġsurf s
Ġpun ct
Ġvend ing
Is aac
ĠMar got
ĠCo ley
Ġgrand baby
Ch ad
Ġskill fully
ĠY ara
Mark y
ĠRu le
Sh awn
Ġsty ling
Ġfashion ed
Ġbur gl
ĠMe w
Cl ar
Fr uit
Mar go
ĠSun set
Sn ip
ĠQ uest
ĠEx pl
Ġarr og
Ġreass urance
Leave s
Ġafford able
Ġodd s
ĠChick ens
Ġjud g
ĠPick le
ĠEric a
ĠAc cept
Ġcreak s
Sc are
Sc ary
Ġcirc ular
ĠMa isey
Ant hony
Sk ipping
Ġlonel ier
Ġblur ted
Ġscut tle
ĠPa o
ĠDream y
Ġcrust s
Ġdiver s
Ġfrant ic
Ġmid air
ĠRag s
Har ley
ĠHot el
Ġclam s
Ġtack led
Ġpluck ing
Ġlaz iest
Ġgrave yard
Gl ue
ĠFold y
ĠFold er
Wr ong
ĠPri ya
ĠBon ny
Ġdrool ing
Cro co
ĠGoo ey
Ġeyel ashes
Ġunbuck le
ĠDrag o
Lo ad
Ġoppon ents
Ġresourceful ness
ĠLau rie
Ġcontri bute
Ter rified
Ġver b
grand father
Ġstock ings
Jem ima
ĠScare crow
Ġnurt ure
ĠBern ard
Ġchandel ier
Ġhing es
Ġscorp ion
Ġisla nders
ĠDra co
Ġpict ured
ĠDeb orah
Ġtram pled
Ġmir age
Ġsturd ier
Ġgrad u
Ġuncontroll ably
rann osaurus
Ġcarav an
. âĢľ
A gent
B zzz
C ream
C ereal
D usty
D orothy
E ddy
F an
G izmo
H uh
J eep
J ada
K irsty
L y
L ie
N emo
P aw
R ara
R ush
S af
U ndeterred
W orry
W hew
b utter
f rom
h ug
j azz
k iss
l an
m ined
t hed
t ear
u ar
v on
v eterinarian
Ġt amed
Ġh umb
Ġf umbled
ĠT rey
Ġl anes
Ġd une
Ġd ashing
Ġp ouncing
Ġn uis
ot i
ĠH ana
Ġth us
il ight
ri ka
pp ings
Ġo vation
Ġr uck
st ones
st retch
un can
ĠL ake
ĠL abel
ĠL issie
ĠB ini
ĠM urray
Ġsh ushed
Ġshe ar
Ġwh ites
ic ation
ic ol
Ġsp ilt
Ġwor ship
ook ie
if ier
Ġbl u
ist an
Ġgot ta
Ġpo x
âĢ Ĭ
ĠSo l
ĠE lderly
Ġtr und
Ġmo cking
Ġsl icing
Ġgra vel
ĠC re
ĠC eline
ĠC lementine
Ġtw ilight
Ġcom ic
Ġgr im
Ġover t
Ġcol ander
ĠK ell
ĠK atherine
ĠP J
ĠP ale
Ġapp re
Ġwo ve
Ġbed ding
ĠR are
uit ar
Ġcra ving
Ġfin ale
ĠG rrr
ac ation
Don ny
ect ar
ign ificant
Ġlight ers
ĠO ften
Ġspl ish
Ġcont em
zz ie
Ġres er
Ġel astic
ĠGra ss
Ġsu ds
ĠCh arming
igg ling
Ġcoll ab
eter mined
Ġhoney moon
Ġadventures ome
ever al
Ġret reated
Ġgener al
ĠDon key
ĠSp ending
Ġstir rer
Ġsco ff
Ġjam med
Ġdull er
Ġwander s
Ġghost ly
Ġdelight fully
Ġstation master
Ġroot ed
Ġoil s
Ġsett ings
ĠMar issa
Ġdistance s
Ġins ignificant
Ġshower ing
Ġmass aging
ĠBee Bee
ĠSk unk
ĠPaul ie
Ġvict im
ĠBo ing
ĠCar ter
go al
cl ose
Ġartist ic
ĠZee bo
Ġunwra pping
ĠSte w
ĠSe ason
ĠTri x
ĠMagic ian
ĠAr f
ĠSal ma
Ġtopp le
Ġding ed
Che ster
Ġdetect or
Ġfurious ly
Curious ly
ĠWhe ely
ĠCell s
ĠDel i
Ġhandleb ar
Pr une
Ġscrap ing
shoot ing
ĠGrow ing
Ġbon us
Ġinqu ired
Fel icity
Ġrequ ire
Ġmult icol
Ġneg oti
ĠPan ic
ĠBike y
ĠSer ving
Aww w
care ful
ĠBab a
Lu isa
ĠAh med
Pray ing
Ġthaw ed
Av ocado
ĠSquir rely
Ġge ode
Bar ber
ĠLau ndry
Ġwhoop ing
Ġcolle ge
ĠBit sy
Ġudd er
Jog ging
ĠStubb orn
ĠAtt ach
Ġounce s
Ġdecre ased
Ġkilogram s
ĠRap unzel
Ġbegg ar
Ġjag uar
Ġunear thed
Ġnuis ance
A riel
B es
C aterpillar
F arm
G oo
H and
L ab
L umber
L illi
O ak
P an
P ippy
R ound
R ug
S ebastian
T y
T all
T igger
U gly
W orm
b orn
d ry
d isturb
e ered
f ine
h or
h awk
l ab
m akers
m iah
r ony
t imes
Ġt act
Ġa ids
Ġh ushed
ĠT H
ĠT ray
ĠT utu
Ġwa re
it ney
Ġl inger
Ġd ime
Ġc urt
Ġp ap
ar se
Ġn ana
Ġsa pp
Ġg aa
ĠS iri
ĠS acha
ĠS onya
ĠH andy
ĠH ula
ĠH appily
Ġth yme
Ġplay set
ĠI D
ĠI rene
ĠL etter
ĠL ate
ĠL ilo
Ġli vel
ĠB ible
ĠB roken
ch ain
Ġwh iff
ter ed
ĠA dele
Ġcl attered
ĠMax well
ĠF ull
ĠJ ob
ab oo
Ġbl inky
Ġint uition
Ġun le
Ġun af
Ġsk im
Ġmo hawk
Ġsor ter
ĠC ircus
Ġus her
Ġspec ific
Ġfo cuss
Ġcol umn
Ġhigh light
ĠP our
ĠP oof
ĠP onies
ĠP inny
Ġbed spread
ĠG olly
ac ious
Ġbutter ed
ign ed
Ġcr ater
Ġcr uise
sh hh
Ġmouth piece
Ġve sse
man ship
Ġkey chain
ance s
Ġrel ied
Ġbutton ed
Ġfur ball
Ġblanket ed
ons ible
ĠCh atter
ĠCh ipper
ere miah
ĠBl ob
Ġbat hes
sw ered
Ġtrou bling
Ġseem ing
Be ans
Ġinv aded
Ġlife style
To ast
ĠN igel
sp onsible
Ġpri or
Ġgen u
Ġrub ies
Ġgigg ly
Ġmis placed
Ġcab ins
Ġind ex
Ġdepend ed
ĠNo a
Ġsniff le
ĠSh irt
ĠMiss ion
Ġflour ish
Ġpal er
Ġspoke s
del ay
Ġobser vation
Ġwinter time
Ġgrape fruit
ĠV anny
Ġaw ed
Ġaw fully
ĠFl ops
ĠY ork
ĠAlex andra
ĠChe er
Ġdire cted
ĠMe asuring
ha usted
ĠAm azed
Ġaccom pan
Ġ1 4
ĠAnt ar
ĠAnt sy
ĠPo ppa
Pe ach
ĠSc ales
ĠFu dge
len e
Ġmer cury
ĠFire fighters
ĠSw ift
ĠWin ston
-- -
Ġcollap sing
ĠOt is
ĠLuc inda
ctric ity
ĠUse ful
âĢ¦ "
Ġrack s
Ġmarve lling
Cra bby
reg ular
Ġbound ing
Ġoccasion al
Ġmold ed
Ġhudd le
con f
ĠSpoon y
ĠMusic ian
cra ft
Ġgrump iest
Ġgrunt ing
Ġlur ked
Ġmound s
ĠPol ish
ĠRag sy
ĠNew s
ĠVe il
ĠCal i
Ġsul king
Ġproduc ing
Ġmoan ing
Ġblind fold
Ġvolunt eered
ĠEag erly
Ġhairsty les
ĠFar ley
Ġgad get
ĠSpl ashing
ĠTrunk y
Ġfrol ic
Ġinterrupt ing
ĠPlant o
Tri xie
Ġsam ples
ĠPu ppies
ĠTid ying
Past el
ĠTwink ly
Ad venture
Call ie
Ġsnorke ls
ecor ating
Ġrepres ented
Ġrescu ers
Balloon s
Ġsevere ly
Ġcrink led
pow ered
Ġadvis or
Ve getables
Ġbree zes
Ġdab bed
Arm chair
Fam ous
ĠLind say
Ġgrassland s
Ġjellybe ans
Cube y
eoff rey
Ġsurvey ed
Ġgymn astic
Ġapproving ly
Ġcircumstance s
icke l
Ġirre sponsible
ĠHaircut s
Ġilleg al
Ġhandsh ake
Ġware house
Ġunaf raid
Ġfocuss ed
Ġaccompan ied
Ġ om
? !",
B ri
B ake
B us
B iff
B atter
C y
C ate
D ish
D rive
F all
I ris
J ing
K aya
L en
L ying
L ori
O xy
O VE
P ret
P edro
S ort
S auce
S erve
T am
Y arn
a inder
b ility
c opes
c ifier
d ings
h ar
l oved
o co
p in
p any
s ucceed
t reat
Ġt aunted
Ġb ac
Ġb asis
Ġf rail
in ous
ĠT angerine
Ġd iction
Ġc owering
er ty
Ġhe aved
ĠS ong
or able
or rect
ir ly
am ents
ĠH ummy
ĠH ose
ce ls
ĠShe p
end s
ĠL orn
ĠL ost
Ġnot ed
ad dle
se ls
ĠB IG
ĠM am
ĠM aker
ĠM ala
Ġsm ears
ter ia
ĠA ggie
ĠA strid
ry ing
ra ined
Ġsc oured
Ġback fire
Ġbr ay
Ġco des
Ġmu cky
uc ting
Ġsw ear
Ġch ubb
ĠD J
ĠD ippy
âĢ ĭ
Ġun co
Ġun int
Ġun icycle
ant i
Ġho g
ĠE ither
ĠE sme
Ġam ends
Ġsl ots
ĠC ourage
ĠC edric
ĠC aterpillars
ro f
ft ime
Ġte ster
Ġwat cher
Mom s
Ġbu oy
Ġfo al
Ġfore ign
Ġover looking
Ġover grown
Ġpeople s
No on
Ġpar cels
Ġbra ided
ĠP apers
ĠP edal
Ġrem ainder
ĠR og
ĠR ats
Ġpa cifier
Ġpain s
ĠG ather
ĠG ator
ĠG len
Ġhill side
Ġcr ates
sh akes
av a
pe rer
Ġarm ful
Ġsmart ly
Ġque ue
ĠCh ant
ĠCh ika
ol t
ĠBl ock
Ġpill ars
Ġteach ings
ian s
ian na
Ġmilk shakes
ĠLe gs
Ġwild flower
Lila h
ĠN ame
Ġfil ming
ĠSt udy
ĠSt orms
Ġpay ed
Ġtrick led
mbre lla
Ġdisappoin ting
Ġmill s
ĠSh h
ĠSh orty
zag ged
Ġobser ver
ĠY uki
ĠMay or
ĠGr own
Ġkeeps ake
Ġrepeated ly
Ġboo ked
Ġrust les
Ġaccom pany
ĠLove ly
bl ack
ĠStay ing
ĠFor giveness
ĠSc arf
Ġburrow s
Ġdet ach
Ġaud ition
Ġdef iant
Ġund ressed
elie ving
Ġmaster ing
Try ing
Liz ard
Ġdisc arded
Ġstroll s
Mouse y
Ġdecl ined
Ġcaw s
Ġconnect ions
ĠLight s
ĠGrand child
ĠPeace ful
ĠHar bor
ĠTra ins
Ġcompan ions
ĠRh onda
ĠOld ie
Ahh hh
ĠCher ries
Win ning
Ġhuff ing
rem ember
ĠStri ker
osp ital
ĠTurn ing
Ġdiv or
ĠGen e
ĠCe iling
Ġsorrow s
En ormous
Ġbun ches
Green y
ĠNat alia
ĠStick s
ĠBes ide
Ġwhirl wind
ĠCee Cee
Ma ia
ĠHoop y
Ġfrol icking
Ġcack ling
Ġphra ses
Ġwhis perer
Ġwed dings
Ġbeck oning
Ġmould ed
ĠLaug h
Ġunimp ressed
Ġnon etheless
Geor g
ON K
squ awk
Ġment al
ĠMunch y
Ġmeek ly
ĠLollipop s
Ġlas ag
ĠFur ball
Gor illa
Surf ing
ĠUs ually
Ġconst ant
Ġunbelie vable
Ġmim ic
Ġrelia bility
Scr uffy
Ġmotiv ation
Ġhal ftime
ĠWra pping
ĠPau ly
Ġscept ical
Ġug lier
Ġjut ting
Ġmement o
Ġpharma cy
need ed
Ġtrund led
Ġappre hen
Ġcontem pl
Ġscoff ed
Ġbac teria
Ġdiction aries
! ,
C atie
D ough
G host
G avin
I N
J etty
J ordan
L ift
M ist
M iki
M isty
M arla
O b
P ie
P urr
R ico
S uit
U mm
W ish
Z ach
b ot
d r
d in
d ot
d ressed
d rip
k o
m us
n ormal
r ison
t ruck
u ate
w arn
Ġw ren
Ġb unk
Ġwa il
it able
Ġd iss
Ġc ider
Ġp ails
Ġp ouches
Ġwas t
Ġn our
ll ey
Ġha ul
Ġha ired
Ġg utter
ĠS T
ing e
ing ale
or ate
ĠH ubert
il ocks
pp et
On ion
ĠShe et
ĠShe lter
Ġst ages
ĠL oggy
ĠB reeze
ĠB ippy
ĠB atty
Ġdo zen
ĠM ead
ĠM ikayla
el i
ĠA aliyah
ur l
um ing
Ġsp ooked
ell ers
ĠBen son
ĠJ erome
Ġsome what
Ġpr on
Ġbl ower
ish op
Ġkne aded
ĠD ahlia
Ġpic n
Ġv ow
Ġsk ater
Ġtr ove
Ġsl ing
Ġsl opes
ĠC udd
Ġhand bag
Ġdan gled
ĠK ola
em pty
ĠP ers
rel and
âĢĿ !
Ġz ippy
ac o
Ġri fle
Ġnight ingale
So ccer
af a
ĠO rn
Ġwag gled
Ġwin es
In fant
Ġarm ad
amp y
Ġele ct
Ġele ments
Ġblank ie
Ġbrown ie
ush ion
arm en
sw ing
Ġhoney bee
Ġrich ness
ĠSp ort
Ġtrick le
Ġoffice s
Ġrep orters
Ġlibr aries
Ġalert ly
Ġyet i
Ġthunder ed
Re indeer
Ġfisher s
ĠMar v
Ġtutor ing
ĠSpe ak
Ġcur ator
ĠHel ena
ĠHel mets
Ġpup s
Ġfre qu
ĠBee bo
Ġble ats
ĠHop ing
Ġgust o
Ġbeat ers
ĠAm ina
wh ite
ĠRemember ing
Paul ina
Ġunf urled
ĠSc arlet
ĠEl vis
yes ha
Ġmesmer izing
Ġpleasure s
Ġnur sed
Am aya
Ġblast ing
ĠPl astic
Ġrout es
Br ady
Br ooke
ĠOt ters
ĠWolf ie
Ġloc ate
ĠFle xy
ĠGold en
Ġshh h
ĠOff ice
ĠTra vel
ĠEd na
ĠRaven s
Ġhost s
Ġreckless ly
Ġjigg ling
Ġblob s
Fe el
che t
Up stairs
Ġgn ar
jack et
De bby
Kn ives
ĠRude y
Ġsele ct
ĠClar abelle
ĠVolcano es
Ġunderest imated
Ra j
Ġfizz ed
Ġcrad ling
ĠInd ependent
Ġneg lect
Ġpleading ly
Ġrum or
Ġtreet op
Ġchem ical
ĠSel ina
ĠDes perate
Ġcoward ly
Ġbloss oming
Ġshimm ied
ĠFil m
ĠScoot y
ĠGlove y
Ġkidn ap
Vo lcano
Ac cept
check mate
Ġclothesp in
Bar b
Ġcommunic ation
Spl it
Ġchap ter
Tomato es
Ġcolle ag
ĠCec ilia
ĠViv ian
Pir ates
Ġefficient ly
Craw l
Ġpollin ate
Ġbackf ired
Mart a
Ġprompt ly
Ġdwar f
Ġleisure ly
Ġgymnastic s
Ġ *
Ġ \"
' '.
B ry
B uck
B ald
C uriosity
D ull
D enny
E scape
E XIT
G rass
H al
H ush
K ippy
L ili
N ikki
O at
O ct
O ctopus
P atient
R onnie
S et
a ia
b es
b oop
c hel
d ink
e ady
g in
l ar
l our
p apa
z a
Ġt ile
Ġto n
Ġf ir
Ġf urn
Ġm ile
ĠS ierra
Ġpl atter
ĠHe e
ĠHe ctor
ri pe
Ġr umbles
ĠL ing
se ye
ĠB ul
ĠB ully
ĠM ak
ĠM iffy
al og
Ġre ap
Ġse rene
Ġcat alog
Ġgo bbling
Ġcl ing
Ġsp utter
Ġsp rain
are th
are well
ĠW arn
ĠW anted
ĠW obble
Ġwal nut
Ġmu dd
ĠF reed
ĠJ r
Ġfl itted
Ġch ats
Ġch imed
ump ty
ĠD ri
ĠD ic
ĠD asher
ĠD aphne
au de
qu iet
Ġun used
ĠE ye
ĠE la
ĠC our
ro cket
ĠTh om
Ġspec t
Ġwind shield
Ġdon ations
Ġgr umbly
Ġgl ade
Ġpar lour
ct ica
Ġqu ilts
Ġunt angles
Ġunt angling
ĠP res
Ġcon co
Ġdis k
Ġfollow er
co at
Ġwood ed
bo ding
ĠAs ha
Ġswing er
Ġcast s
Ġsea hor
ee ase
Ġwell ing
Ġgu ppy
Ġspr inting
Ġpet rified
Ġmail bag
ĠCh ief
ĠCh oco
Ġshop keepers
ol and
Ġforever more
Ġrec ital
Ġsharp ly
Ġring er
St one
ugg le
Ġfil ty
ĠCat rina
ĠJill ian
we ight
Ġmatch sticks
ĠGo ats
Ġfat test
Ġblow hole
Ġ3 8
Ġperform s
Ġcollect ors
Ġcrack les
Ġeng ra
Ġtemp or
Ġfireplace s
Ġwinter s
ĠCl ang
ĠOr anges
ĠHelp ful
ĠRu bbing
Ġtour ist
Le on
Ġdigg ers
Ġlecture r
Ġappreci ates
ĠRock ing
ĠRo ots
Bl ub
ĠChe t
Ġbrid es
ĠDr ake
ĠFrog gie
ĠAn swer
ĠMo ly
Un pack
Un iverse
ĠSqu iggles
Tr ucky
Tr ouble
wh al
ĠChr issy
Mar gie
ĠGet ting
Ab out
ĠPr an
ĠEl oise
Ġty re
Ġty rannosaurus
ho pped
ĠSof ie
Under ground
Ġswir ly
ĠEx pensive
ĠCow ie
Ġwaterfall s
ĠSe rena
Fl our
ĠCro aky
Ġsincere ly
ĠMin ts
Ġmasterpiece s
ĠFix ing
ĠLu igi
Lou is
Ġguardian s
Aw esome
ĠGu ilty
Ġscal ed
Ġunst eady
Ġcompliment ing
Squirrel s
ĠDel icate
ĠGret ta
Ġweed ing
Ġchamp ions
Ġoper ate
Ġsorrow ful
asc inated
Ġpoo ch
grow ing
ĠReal izing
Ġrum ors
ĠYield ing
ĠCam illa
ĠMack enzie
Di amond
ĠImp atient
Ġrepres ent
sque ak
Ġteen y
Ġnar whal
Ġdeb t
ĠFeed ing
ĠRen ee
Ġcrink ly
Ġrearr anged
Wood y
ĠSton es
Ġath lete
Ġprescri bed
Ġlabor atory
Ġinject ion
Ġnecess arily
artoon s
wild ered
ĠEmbarrass ed
Ġplummet ed
lim its
Ġsalut ed
Ġjudg ment
Ġunle ashed
ĠAntar ctica
Ġseahor ses
Ġ irr
3 4
5 5
A CHOO
E van
F ay
H m
H en
H umble
H ocus
I ron
L in
L ay
M ule
M assage
P ing
P rice
P ixie
P repare
R iver
R ae
R rrrr
T urkey
Y AY
a fter
c ine
d ive
d ate
e le
e es
e el
h urt
l ery
m uff
m ama
p ray
p inch
p icking
u able
v ictory
z an
Ġw ispy
Ġf ateful
ĠT al
ĠT ic
ĠT ex
ĠT elly
ĠT ibby
it ated
Ġm utt
ar ant
Ġsa ge
Ġg ushing
or ra
ĠH illy
Ġpl a
ow ered
Ġbe er
Ġbe acon
ith a
ce mber
end ra
ily n
ĠB ly
ĠB unn
Ġk arate
ug ht
Ġwh oo
Ġlo aves
ĠA k
ra s
ra ise
Ġtogether ness
Ġtre m
Ġout age
Ġout number
Ġfr ow
Ġsp ite
Ġsp anked
Ġsp acious
Ġsp rained
ĠSpot s
ĠF ri
ĠF ound
ĠJ one
if ty
ab itha
ĠD am
ĠD ING
Ġcare er
qu el
Ġwater proof
Ġpe g
ĠE lf
ĠE ileen
Ġtr op
og ue
Ġsl ay
Ġsl umber
ĠC reative
Ġclo vers
ĠWe re
ĠWe ight
pl ugs
Ġsky sc
Ġsn agged
Ġtw inge
ĠTh ird
ĠP ap
ĠP iggie
ĠP ocket
Ġsqu ab
He ad
Ġwo ven
ĠR aggie
ĠR ana
Ġtalk er
ĠDo e
ac uate
Ġtell er
Ġcr owed
Ġhair pin
ĠAs lan
sh ot
So ld
ĠO ven
Ġsnow bank
Ġtight ens
Ġwhite board
Ġwell being
Ġgu arant
Ġear muff
Ġear plugs
Ġpast ed
ĠCh op
ĠCh oppy
me g
ass ion
Good ness
ĠLe opards
Ġorgan izes
not iced
Ġca ved
Ġsmooth s
ĠN in
ĠBe ck
ĠBe au
ĠBe ware
Ġhum s
Ġ3 5
ĠBr ay
port ant
Ġhose pipe
Ġdiscover s
com pass
Ġshore s
Ġharm ing
Ġgem stones
Ġref resh
Ġtax es
Ġbull ied
Ġcandle light
Ġtag ging
Ġenvel oped
Ġloop y
Go sh
Ġshield ing
Al as
Ġfreez ers
Ġrail ings
ĠCo ins
Ġart ic
Ch ippy
ĠV icki
ĠFl ag
Ġexpect ations
ĠSm iles
Ġpitch ing
Le wis
rec ogn
ĠRock ets
Ġtrave llers
Ġcontest s
ĠGr umble
Bu d
ĠAm ir
Sp rinkles
ĠFrank y
ĠFrank lin
Fr isky
Mar io
Mar vin
sm all
ĠPo co
Ġgri pping
Ru de
ho oray
ĠFire men
Moo Moo
Jul ian
Ġhawk s
Ġtil ting
Ġlipstick s
Ġanticip ated
Ġcons umed
Ġdisc ourage
Ġsens ing
ĠIm ag
Ġdial ogue
ĠDe cember
ĠSuper hero
bu ry
Ġsav our
Ġunz ips
ĠPet a
ĠLu x
Lou isa
Ġbund les
Ġchatter s
enn eth
ĠThrough out
ĠFork s
rem ove
Ġprogress ed
ĠWr iggly
ĠAfric an
Ġdistract ions
ĠDream ing
Ġunc urled
wo nder
Ġgrandk id
Ġoper ating
Ġpurchase s
Ġshuff le
Ġtink er
ĠRick ie
ĠClown s
Ġacc ount
App laud
ĠHouse s
Ġtrad ers
Ġtwitch y
Ġendless ly
ĠLo ad
Ġstead ied
ĠCup board
Fore ver
Pol ishing
Ġtechn ology
sk ip
Ġtherap y
ĠFranc ine
ĠEle ctricity
Ġnois iest
ĠDis gusting
Ġhars hness
Ġferoc iously
Lady bug
Ġsympathet ically
ecor ate
ĠTan ia
Ġpollut ion
Dani elle
Van illa
ĠJun ie
Ġconsc ious
Gu ard
Rad ishes
ĠTar zan
ĠInsect s
ĠBatter y
Ġtu ft
ĠIg loo
lead er
Ġbron to
ĠAnton io
ĠRef rigerator
Ostri ch
ĠSeed s
Elli ot
Ġlandmark s
Ġendanger ed
uz u
Ġhorsesh oe
Ġvesse l
Ġwren ches
orra ine
Ġoutnumber ed
Ġearmuff s
Ġ !
" '
A D
B art
B ones
D en
F antastic
F irework
H as
K id
K ris
L E
L ottie
R uffy
T rick
U N
W agon
Y ell
b ar
b one
c ause
d ered
d sy
e ww
e quipment
f irst
h ang
h ol
n ose
p oint
s chool
w rap
x anne
Ġt ins
in nies
re ary
Ġd ood
Ġd reary
Ġm ounted
Ġm uttering
er ang
ar pe
ar ison
Ġg oofy
ĠS imi
ĠS ongs
ĠH awk
Ġin ev
il oh
Ġy ummies
Ġr udd
ĠI rony
ĠI reland
ck o
ve ster
ĠL ad
ĠL ip
ĠL olli
ĠM arlene
Ġsh arpe
Ġwh iz
Ġwh innies
ĠA ma
ĠA pologize
ra h
ra it
Ġdid nt
Ġre x
Ġre ar
ur ora
Ġtre ad
Ġgo vern
my stery
Ġout s
Ġout bur
Ġco s
ach ael
ĠF ab
ab in
ep arate
ĠD u
ĠD ig
Ġv amp
Ġv ote
Ġho ots
ĠE iff
Ġrun away
ven e
ĠC ubby
ĠC oming
ĠC AW
ro vide
Ġsn ot
Ġen ab
ĠTh ick
Ġfore boding
Ġover board
Ġoff ended
em my
Ġbra ced
ĠP rick
Ġhat ches
Ġad ject
Ġwhere as
ĠG unny
Ġtalk ative
ĠJo key
Ġtri al
Ġvo ila
Ġmon um
Ġmon arch
Ġmon itor
ater ina
Ġwonder ment
ĠO zzy
Ġcomp arison
Ġrel ated
Just ine
ĠCh rystal
Ġroad side
Ġbuck ling
Ġwings pan
Ġmad ly
ĠLe ster
Ġboss ier
ĠN or
St ore
St udy
mer ged
let te
Ġpract ical
Ġpin wheel
Ġyog i
My sterious
Ġrare r
ĠSp end
Ġhorn ets
ĠPe cky
Ġdull ness
Ġthankful ness
Ġfinger prints
ĠTr ophy
Ġneighbor ing
Ġcro aky
Ġref er
Ġenv ied
Ġcharm s
olin es
Ġattract ions
ĠFr ida
Ġink s
Ġfu ry
Ġresc ues
Ġcomplet es
Ġsucceed s
ĠDan cy
Al ert
Ġsub merged
alend ar
Ch omp
olog ist
Ġport rait
Ġunh ook
Ġunh appily
ĠY o
Ġequ ation
Sh iny
Ġtug boat
Ġweight less
Ġcomf iest
Ġprinter s
Ġappro ve
ĠJul i
Cl ub
Ġwoof ed
Tr ina
Ġcontain ing
Ġboo ger
Ġboom erang
ĠOl iva
ĠJan ine
ĠPo king
ĠSc atter
ĠSc otty
Ġscur vy
ĠPr im
ĠEl ina
ĠTrust ing
Ġtramp olines
Ġearn ing
Am ie
Am elie
ĠTe ase
ĠAli ya
ĠCr own
Ġouch ies
ĠSe wing
Ġbattle field
Br idget
ĠMin i
Ġattempt ing
Ġtrans fixed
Mo dern
Ġwatermel ons
Ġwebs ite
Ġinter vene
Ġdep th
Ġdep arted
ĠYellow y
Ġsuck s
ĠPet s
ĠHar ley
ĠBert a
ĠWonder s
ĠKn ock
Ġbas in
Ġpeak s
eek a
ĠVal entine
El ena
ĠKen zie
Ġplo dded
Ġpersu ading
Ġhoneycom bs
ĠFran nie
ĠGreg ory
Spark les
Pr iscilla
Grand child
ĠBrave ly
Ġnin ja
Whe at
Ġcha otic
Bert ie
Pl anes
Po ems
Ġimagin able
Ho pp
Peanut s
Ġsund own
Ġtrespass ers
ĠRest ore
Ġvolunt eers
Ġrent ed
Ġtut ors
ĠCand ice
Ġcitiz en
ĠSpl it
Ġeyeb row
Ġcoax ing
ĠPolice man
Cr usty
Ġrecy cled
Kat rina
ĠEar ly
ĠMart ina
tr ust
Bon jour
Sil ence
ĠNO T
Ġtranqu il
Ġtranqu ility
ĠDive y
Ġauthor ity
Ġrooft ops
Ġmisunder standing
Ke ith
Ġsketch book
ĠRow an
Ġvenom ous
ĠHum ans
ĠHedge hog
ĠEnc ourage
Ġtun ed
cite ment
Ġcontribut ion
Ġdele ted
Ġcountert op
ĠTax y
Ġillustr ations
ĠJoh anna
Mosquito es
Ġjoll ier
Ġarrog ant
von ne
Ġgenu ine
har sh
rof essor
ĠRog ers
Ġarmad illo
Oct o
Ġfurn ace
Ġengra ved
Ġtempor ary
Ġrudd er
Ġsharpe st
Ġgovern ment
Ġoutbur st
ĠEiff el
A aah
B rett
D ust
D ana
D essert
E lderly
F i
H it
H airy
N ad
P art
P ost
P rize
S keleton
S tyle
T ob
U T
V iv
W itch
a es
c ool
c arry
d oo
k it
l ucky
l asting
m ith
s al
s ave
s and
v ille
y ers
z ee
Ġt an
Ġs ums
Ġb ind
Ġb ash
Ġb ingo
ĠT ig
re al
Ġl orry
Ġd oo
Ġp m
Ġm ul
er ia
Ġn imble
ĠS ting
ĠS outh
ĠS ita
en ne
ig old
Ġpl aid
ut ation
Ġplay times
Ġy owl
Ġst ilts
st ool
st ring
un cher
all ic
ĠL ani
ĠB elly
ĠB iri
ĠB ooky
ĠB ianca
ĠM itt
ĠM isha
ĠM ule
Ġsh aggy
Ġsm ack
Ġbo bs
Ġbird ies
ug ust
ĠA idan
ra cy
ra ught
Ġcan y
Ġout ings
Ġout look
ul ge
Ġstar ter
Ġme rely
ĠF oo
ĠF ight
ĠF ascinated
Ġdown pour
Ġfl aky
Ġsun rays
Ġsw apping
Ġch illed
us ages
ĠD ear
ĠD uncan
Ġun seen
Ġun noticed
ĠE vent
Ġtr owel
ĠC ircles
[...]
