#version: 0.2
Ġ t
Ġ a
h e
i n
r e
Ġt he
o n
e r
Ġ s
Ġ w
a t
Ġ o
e n
Ġ c
i t
i s
a n
o r
Ġ b
e d
e s
Ġ f
in g
Ġ p
o u
Ġa n
Ġt o
a l
a r
Ġ m
Ġ in
Ġo f
Ġ h
Ġ d
â Ģ
a s
Ġan d
i c
Ġt h
l e
o m
i on
l l
en t
Ġ n
Ġ l
Ġ re
s t
v e
Ġ e
l y
Ġb e
r o
Ġ g
i d
u t
a c
o t
Ġ T
Ġth at
Ġ I
Ġ on
a y
Ġ is
Ġ S
i m
e t
a m
o w
a d
Ġf or
s e
i g
âĢ Ļ
Ġ A
v er
c t
l d
u r
Ġ C
Ġ u
Ġs t
Ġ y
Ġ it
Ġ he
i r
at ion
it h
Ġw h
Ġ M
c e
t er
Ġw e
o l
i l
Ġw ith
Ġa s
Ġ B
c h
i ll
n d
Ġw as
Ġy ou
er s
Ġ P
k e
Ġ âĢ
Ġc on
Ġd e
Ġ r
he r
i f
at e
Ġa t
a g
Ġh a
Ġ W
Ġs e
o re
Ġp ro
Ġ H
u l
p p
m ent
Ġa re
r i
Ġ D
Ġ 1
es t
Ġc om
u s
is t
an d
a in
ĠT he
o p
Ġ R
Ġ 2
ig h
r om
en d
Ġ (
or t
t e
o d
Ġn e
Ġ F
Ġe x
u m
u n
re s
âĢ Ŀ
Ġn ot
a b
Ġ v
Ġ N
Ġha ve
es s
it y
ou ld
Ġo r
Ġb y
t h
o s
Ġ G
i ve
Ġf rom
Ġa l
an t
' s
Ġs u
o c
ar t
Ġs h
Ġth is
Ġ L
e l
e m
q u
n t
igh t
p e
u st
Ġ le
i es
Ġ E
Ġc h
Ġs a
Ġa b
T he
ou t
al l
i e
ac k
re d
ĠâĢ ľ
Ġh as
al ly
0 0
Ġp l
Ġ J
Ġg o
ar d
Ġh is
om e
i v
g h
o st
e ar
a p
Ġt r
Ġ O
ou r
Ġ j
a k
u d
as t
Ġd o
Ġthe y
Ġb ut
Ġw or
Ġc an
r ou
Ġw ill
Ġsa id
g e
Ġw he
Ġ U
ic h
Ġ k
Ġa ll
o k
Ġ "
Ġwh o
id e
am e
t her
Ġo ut
i al
an s
Ġthe ir
f f
on g
ic e
p l
u re
Ġm ore
on e
ag e
ion s
Ġu p
ac t
i ke
Ġm e
ou s
Ġa d
in e
e p
Ġab out
at ed
Ġon e
Ġwe re
b er
p t
r a
Ġs o
Ġu s
im e
e ct
o g
Ġh ad
a re
Ġ K
c c
u b
i a
Ġw ould
Ġc l
Ġ2 0
Ġ im
Ġwh ich
a ke
in d
x t
u e
ver y
Ġa g
Ġt e
i z
Ġof f
Ġcom p
Ġbe en
Ġu n
Ġin t
Ġ en
s o
p er
ig n
Ġcon t
ĠT h
a u
ar y
Ġy ear
ac e
i p
Ġl ike
e w
v en
Ġin c
o ok
ay s
Ġm an
Ġp e
ĠI n
o se
r y
Ġre s
Ġp er
ab le
it e
Ġs p
as s
or d
Ġo ther
i re
m er
Ġs ome
i le
en ce
op le
Ġ20 1
ĠS t
i b
ation s
Ġo ver
Ġthe re
k s
ic al
res s
Ġd is
ul t
Ġne w
Ġal so
Ġth an
ow n
Ġbe c
Ġa r
Ġthe m
an ce
ou gh
r u
Ġa pp
p ort
ou nt
Ġp art
Ġyou r
a il
Ġwhe n
re e
Ġwh at
in t
Ġpe ople
f ter
or m
Ġs c
on d
Ġ qu
as e
ĠC h
Ġan y
a v
Ġj ust
Ġit s
Ġ Y
Ġt ime
ct ion
Ġk n
ac h
ĠI t
o f
Ġhe r
Ġ 3
Ġre c
l ic
re at
Ġm y
Ġ if
en s
Ġg et
. âĢĿ
Ġint o
Ġwor k
Ġt w
ir st
ou nd
Ġ V
i an
ve l
Ġn o
d u
ing s
e re
or y
Ġo ur
id ent
it ion
or s
ic k
Ġ -
Ġp re
o ve
Ġpl ay
o b
au se
in k
an g
w n
te xt
am p
h ing
ad e
at es
ar k
Ġ ro
Ġs he
Ġp ol
ver s
Ġc o
Ġa fter
, âĢĿ
Ġf irst
Ġc ould
Ġh ow
Ġ1 9
ĠH e
n e
i ous
Ġa cc
nd er
i ld
Ġh im
' t
Ġp o
on s
| >
end of
endof text
< |
a w
Ġon ly
Ġf e
ic t
he d
Ġp r
Ġtw o
r it
Ġcom m
âĢ ľ
Ġs pe
is h
f orm
Ġa ct
o v
Ġs er
Ġb l
Ġbe t
Ġde c
w e
. "
n ing
Ġb ack
Ġm ost
c es
f t
o od
ĠâĢ ĵ
c k
Ġa m
Ġd id
rou gh
o y
if f
rou nd
at er
Ġag ain
Ġ 4
d ay
u al
Ġu nder
Ġw ant
Ġd es
is e
Ġcon s
se l
ĠâĢ Ķ
u ll
Ġbec ause
Ġn ow
l ud
Ġyear s
ent s
ub lic
Ġne ed
ter n
Ġe ven
Ġ $
m an
Ġin v
Ġat t
Ġkn ow
is s
e c
ĠW e
Ġse e
. .
ment s
Ġad d
c ed
, "
Ġin d
t ing
o ld
Ġse c
f ore
Ġe very
u ch
ur n
Ġ 5
Ġsu pp
Ġm ake
pe ct
Ġthe se
Ġe m
ĠU n
Ġwhe re
o ll
oc k
j ect
I n
ver n
ation al
Ġb u
Ġl ook
ĠA nd
Ġd on
T h
os s
Ġe v
Ġw ay
at ing
um p
Ġbe ing
Ġre m
Ġm ay
i ly
Ġthe n
Ġr ight
Ġman y
le ct
ro w
Ġ [
Ġd iff
ie w
n g
Ġde f
as on
Ġc all
Ġre l
ĠB ut
as ed
Ġinc lud
Ġth ink
ĠT r
i ed
ak ing
Ġre g
l es
) .
mer ic
Ġth rough
Ġim p
it ed
ri b
Ġsh ould
Ġs y
Ġs ay
Ġp res
on t
at h
ur ing
Ġl ast
Ġth ose
Ġf l
Ġ very
ow er
ot her
t y
Ġm uch
Ġst ate
it ies
ĠTh is
if ic
Ġsh ow
at ive
t le
Ġb r
he n
Ġwe ll
ar g
s s
v ed
ĠW h
ot h
Ġp h
Ġdo es
Ġc ount
Ġ2 00
Ġd own
Ġo wn
ar ly
al s
Ġ end
Ġas s
Ġu se
Ġbe l
u nd
ic s
an ge
Ġl ong
ĠA meric
in ce
ter s
Ġbe fore
t s
om et
Ġm on
w ard
Ġgo vern
g r
Ġst art
Ġre port
ib le
Ġ ke
u es
ĠN ew
u p
Ġf in
ou n
Ġte am
Ġm ade
b le
if e
) ,
Ġsu ch
ol og
en er
re n
ers on
c om
Ġs m
re st
Ġgo ing
l p
Ġwor ld
il ity
f ul
u ally
Ġst ud
i x
Ġgo od
Ġa c
e k
m s
t ain
âĢ Ķ
ist s
Ġe ff
Ġsu b
Ġagain st
Ġs ur
Ġg ame
I t
Ġs et
Ġg u
Ġpo int
it s
Ġ ent
Ġ 6
or k
g an
st em
Ġst ill
00 0
rou p
ar s
Ġwh ile
y s
ill ion
Ġhe lp
Ġle ad
l i
we en
. <|
Ġm in
v ing
Ġs ays
im es
- -
is m
Ġpro du
Ġo b
al k
e ll
an k
a x
Ġin te
c y
Ġin st
Ġin ter
Ġg r
Ġst r
Ġs im
c ess
sel f
Ġcon f
e f
Ġc ol
Ġt ake
u res
Ġs ame
Ġbet ween
Ġth ough
Ġoff ic
oll ow
ar ch
Ġdiff ere
e ver
Ġc r
Ġpro v
ut ion
Ġdis c
us s
l and
Ġh igh
o ol
Ġ ed
i o
Ġo p
Ġl aw
Ġn um
Ġs ign
a ir
re ad
Ġgovern ment
w ay
l ed
h ip
n er
g g
ĠR e
at ch
am es
Ġs omet
an y
Ġt er
he s
vel op
c ent
t ed
t en
Ġre f
Ġtr ans
Ġin s
Ġr un
W e
Ġf ound
Ġth ree
Ġa round
Ġm em
Ġhe re
iv es
a h
at her
Ġm ed
a ve
Ġus ed
Ġre al
Ġex p
Ġ1 0
ou se
Ġsy stem
ĠY ou
ce pt
Ġre ally
v es
o ot
ĠA r
Ġm od
Ġg roup
Ġsupp ort
c er
c i
c on
Ġc our
Ġ 7
Ġc ar
et s
Ġh and
Ġre t
Ġp ublic
a z
Ġspe c
al e
y ing
Ġg reat
ĠL e
in s
p r
Ġex t
en se
. [
ire ct
Ġf am
Ġc ur
al th
ĠC om
t on
Ġha pp
p h
Ġf act
Ġex per
ĠThe y
ĠTr ump
Ġw om
Ġf r
Ġc ap
ĠI s
Ġb oth
Ġd ay
Ġf ind
Ġre ad
ul ar
Ġd et
Ġl it
ic es
in es
Ġre p
Ġs l
ĠA l
ut h
Ġd uring
o h
Ġmon th
ĠA s
Ġde velop
Ġb ig
is ion
Ġ 0
Ġp erson
Ġf ollow
ak es
m in
Ġc re
Ġis s
ĠS h
Ġ 8
Ġto ld
ĠC l
Ġs ince
t he
a red
Ġwe ek
ic ally
m ed
ag es
i vers
Ġf ew
Ġw ar
e x
ord ing
Ġc ent
ort h
Ġle g
Ġpol it
g et
Ġex pl
Ġl ot
e red
Ġbel ie
Ġg ener
Ġto o
a j
r ic
Ġo pp
Ġre qu
as h
Ġcont in
re nt
d er
Ġ 9
W h
b ers
Ġf il
ent ion
i et
Ġc le
Ġres p
Ġp ut
at a
ĠI f
an c
Ġan other
iz ed
ch ool
Ġsomet hing
Ġin f
n ess
Ġdiffere nt
Ġc or
Ġl oc
Ġinv est
Ġs oc
ut e
Ġp ower
Ġc he
ĠD e
Ġ '
Ġcomm un
Ġp ass
Ġl ife
Ġpl an
Ġre le
Ġth ings
Ġhe ad
i ence
ĠF r
Ġf ar
od y
Ġp oss
Ġar t
2 0
n ed
th ing
Ġm et
u c
Ġc amp
Ġv ot
ar ge
Ġb o
ro ss
Ġch ild
Th is
Ġas k
Ġm ight
Ġe ach
v iew
ant s
Ġde p
Ġ .
Ġne ver
in ess
iz e
Ġne xt
Ġsec ond
Ġqu est
Ġm ark
Ġb us
Ġad v
i er
Ġcom e
Ġde m
ĠF or
Ġg ot
ie ld
ĠA n
ĠâĢ ĺ
Ġop en
Ġb est
Ġall ow
i ent
it al
ĠTh at
re t
Ġse em
Ġp ost
Ġfe el
n ce
ĠU S
p le
r at
Ġp ri
Ġper cent
gr am
ĠP ro
te m
Ġh ome
Ġd irect
Ġd ist
i red
Ġinc re
Ġcont ro
ĠR ep
u g
os ed
l ing
l ess
i k
s on
Ġres ult
er v
Ġh ard
Ġc are
Ġm illion
or n
ate ly
Ġcomp le
Ġpl ace
Ġwith out
Ġin form
Ġinclud ing
Ġim port
ch n
Ġa v
con om
Ġh um
Ġpro ble
Ġ ide
Ġbu ild
Ġto p
Ġnum ber
Ġcount ry
one y
a im
am a
g y
Ġst and
ab ly
Ġf our
ĠB l
is hed
Ġe l
r al
ri end
Ġg l
Ġpart ic
Ġbet ter
Ġle t
w ays
u ro
Ġrec ent
Ġt ri
Ġinte rest
B ut
Ġm ov
r ation
Ġse ason
Ġl ess
Ġt urn
Ġlit tle
Ġbe h
Ġm il
Ġapp ro
t t
Ġb ro
c o
Ġcall ed
r act
l ine
is ed
Ġc ase
e ad
c l
Ġle ft
Ġd r
Ġre st
Ġp op
ĠI nd
Ġan n
Ġm ove
a pp
Ġatt ack
en cy
ĠThe re
Ġke ep
Ġf ull
Ġdid n
Ġser v
er ing
od e
Ġm ain
Ġf un
aj or
in a
Ġeff ect
Ġpro gram
Ġpre v
Ġus ing
in al
Ġt est
le g
Ġp ay
1 0
Ġe ar
t o
at ure
Ġv al
Ġpol ice
re m
Ġ Z
Ġw rit
b e
Ġfor m
Ġe conom
Ġd ata
Ġnew s
Ġp os
Ġw in
Ġch ar
ĠAmeric an
Ġle vel
Ġs it
iv ing
Ġsm all
ain s
read y
in ed
Ġs chool
Ġl ist
H e
olog y
id ed
' re
u ck
pl oy
Ġe as
m it
Ġpro cess
Ġch ange
Ġwom en
r ap
ir d
Ġcur rent
Ġre ce
Ġh ist
Ġp rom
Ġd ri
Ġ =
Ġpres ident
g er
Ġcomp any
us ed
re en
Ġal ready
i ans
Ġm at
ĠUn ited
ru ct
oh n
Ġwh y
Ġt y
w it
Ġb re
Ġu nt
Ġm oney
Ġal ways
Ġl ater
Ġex pect
Ġbus iness
Ġte chn
Ġoffic ial
Ġs ol
ĠH ow
ĠS o
ivers ity
Ġb ook
st and
ĠO b
Ġth ing
a ign
Ġcl ass
Ġpro ject
Ġcl aim
Ġj ob
Ġinform ation
as es
Ġor gan
Ġt alk
ĠP h
_ _
Ġdes ign
ĠS he
Ġst ory
Ġch ang
Ġm ajor
Ġab le
ard s
a ff
Ġ- -
Ġ Q
Ġpro f
r on
er tain
Ġre se
Ġhe alth
le ction
ĠB e
iv en
Ġv is
Ġf ree
Ġo per
ou th
Ġa way
he re
ur s
ĠA d
Ġm ust
ĠC an
i or
Ġc ity
amp le
Ġhapp en
uth or
Ġimport ant
ur al
Ġk ill
Ġ1 8
ur ity
.. .
Ġo ld
Ġp ast
u red
r ist
Ġ est
pt ion
ac y
Ġp at
Ġdoes n
Ġs k
end ing
ur y
Ġle ast
iss ion
Ġg row
ĠS e
Ġed it
ain ed
Ġv ar
Ġc ost
ĠG o
s c
Ġd ays
Ġte ll
Ġcamp aign
Ġh op
Ġc ame
ne y
Ġst re
s ide
Ġm en
Ġa ff
id es
Ġcon st
id er
Ġen ough
res ident
Ġ1 2
Ġv iew
Ġk ind
ĠM ar
cc ess
Ġm aking
Ġl arge
Ġrec ord
o x
Ġfam ily
Ġf riend
Ġm ar
ĠS p
Ġe lect
o ad
Ġpol ic
el s
er al
er n
Ġt ax
Ġ1 5
pp ed
al ity
is ing
us h
le y
iv ed
Ġunt il
if ied
Ġpolit ical
Ġde al
âĢ ¦
are nt
Ġv ide
ion al
r or
Ġwork ing
ri es
b y
ĠRep ublic
al f
au gh
Ġ ve
A s
u ed
Ġto ok
at or
Ġde b
Ġl ine
I f
ĠJ ohn
ain ing
Ġa ir
is ter
Ġin tern
Ġf ore
Ġbec ome
Ġact ually
b s
oc rat
Ġ es
i ol
Ġme an
Ġf und
ap s
Ġfor mer
w are
Ġof ten
on y
w ork
ĠE uro
Ġhum an
ĠS c
Ġw on
Ġg ive
ĠP l
Ġacc ording
Ġe ver
y ear
m ost
Ġpro te
ar ing
Ġg ames
an e
Ġwor d
Ġb as
ot t
Ġret urn
is on
Ġt imes
Ġor der
w h
ĠR uss
en g
Ġn ame
Ġb it
Ġse ver
ĠD em
iz ation
Ġde v
g in
ĠA ll
ic le
an n
it her
o int
ut ure
ĠC on
1 9
Ġ19 9
Ġp ar
Ġw r
Ġper form
Ġs ing
ĠA t
Ġmark et
Ġchar ac
Ġf ac
The re
i qu
Ġdo ing
Ġapp ear
ra ft
ĠM c
Ġr a
ĠM ay
ĠS y
Ġplay ers
f or
c hed
Ġle ar
id d
Ġn ight
ĠO r
Ġl a
ak en
m ber
Ġto day
Ġe arly
Ġse en
Ġha ving
Ġchild ren
Ġ ,
Ġp ot
Ġmed ia
Ġev ent
S t
Ġsoc ial
Ġc rit
ĠP resident
Ġwhe ther
Ġsever al
Ġcontro l
id ence
ro p
Ġme et
Ġmil it
Ġw ent
at s
Ġp ress
art ment
Ġf ive
Ġyou ng
or ies
Ġsu re
/ /
ious ly
Ġpro p
Ġquest ion
Ġe qu
Ġo cc
Ġlike ly
Ġmem bers
Ġc ertain
Ġ1 1
en e
Ġen g
ĠY ork
Ġw ater
Ġex ample
ver t
un e
and s
5 0
Ġs ide
Ġd one
Ġar g
Ġ vers
Ġinv ol
ĠC ol
ot s
ĠSt ates
ĠEuro pe
ĠM r
Ġal ong
end ed
Ġsh ort
Ġsu ccess
Ġan t
Ġmonth s
i um
ent ial
Ġh our
b r
i ally
Ġse x
en n
Ġwith in
b all
i ver
ĠS te
Ġdes c
1 1
l f
Ġcour se
le t
A nd
Ġf ight
im ate
Ġam ong
Ġact iv
Ġon ce
ur ch
ag ue
s h
ub l
Ġf uture
Ġinvest ig
Ġposs ible
ĠOb ama
Ġch o
Ġunder stand
ul ation
Ġcon cer
E R
Ġ ]
it ing
ort un
Ġproble m
n ect
Ġme ans
ĠO n
Ġv iol
Ġpri v
ĠC ar
st er
Ġa uthor
gg est
re w
u ff
it ive
on es
Ġav ail
e e
Ġkn own
ĠN o
Ġprodu ct
oc i
âĢ ĵ
Ġthough t
iv id
our n
Ġy et
ĠB r
Ġac ross
Ġloc al
Ġh old
g ress
Ġf ail
ĠW hen
ĠSt ate
Ġcommun ity
Ġn on
Ġre ason
Ġor ig
Ġsu ggest
Ġ &
Ġm akes
ver age
Ġ201 6
ĠT e
m y
in c
al d
Ġask ed
-- --
ed eral
Ġreport ed
p or
n ot
Ġg iven
ens ive
b ack
b ook
ag ed
Y ou
Ġstr ong
Ġpro b
Ġother s
l er
Ġ i
Ġm us
Ġbelie ve
Ġvide o
or ld
Ġget ting
ĠH ouse
Ġann oun
Ġb en
i ber
an ces
Ġl ight
ĠUn iversity
ore d
o ber
Ġ ident
Ġ3 0
Ġc ut
it ions
Ġs ent
Ġl im
Ġc a
ir on
ĠCh rist
iet y
ur ther
ĠC o
Ġs our
Ġc reat
Ġcon d
1 2
' ve
Ġn et
as hing
Ġb at
Ġn ational
Ġcl ose
. ,
Ġstart ed
Ġsa f
Ġde ath
Ġavail able
Ġh ig
Ġb ased
Ġiss ue
am ent
am s
Ġind ust
ĠDem ocrat
Ġfollow ing
Ġl ow
Ġacc ount
Ġl and
m ing
Ġem ploy
res ent
ĠM in
Ġl ove
Ġ201 5
as ter
Ġ X
ĠC ent
Ġhist ory
Ġag o
sel ves
Ġm om
Ġ #
ort s
F or
Ġpart y
u se
Ġser ies
Ġcom es
Ġtr ying
Ġal most
get her
u ly
Ġto gether
ut es
ĠAmeric a
ab ility
Ġide a
in ation
Ġacc ess
u ment
3 0
Ġf oc
ĠA m
ie f
il ar
her s
Ġcomm it
Ġis n
re ed
ition al
ail s
Ġcle ar
ĠS en
Ġtr ad
ĠO ne
th ough
ĠWh at
Ġadd ed
Ġpr act
ĠF l
Ġimp ro
Ġexper ience
Ġ1 6
Ġh alf
ere nce
ro du
Ġh it
ust om
wit ter
Ġan al
r ict
g ed
e b
Ġ201 4
Ġpro t
Ġr ul
int on
ĠB ro
r ing
Ġlook ing
ivid ual
Ġs ix
Ġl ive
Ġany thing
Ġare a
Ġcomple te
un ch
min ist
Ġm iss
ra el
og rap
Ġf av
tem pt
ĠCom m
Ġr is
er man
Ġpres ent
ĠE x
Ġsay ing
n es
ru g
ĠCan ad
Ġv ict
ci ally
Ġt aken
Ġb ad
u ge
Ġent ire
ro te
A T
ot e
Ġcomp et
Ġb ill
ra w
a id
Ġbeh ind
Ġph ot
ĠW ar
' m
ĠE ng
Ġcour t
Ġm or
at ors
Ġmilit ary
Ġtr y
Ġne ar
ward s
ĠT o
Ġf ace
Ġsec urity
Wh at
ĠP r
ow s
1 5
Ġa ut
Ġm ult
os p
Ġpro per
pl ay
Ġdisc uss
Ġ er
ĠP ol
Ġfil m
Ġth reat
a f
Ġ1 4
Ġstud y
Ġr ather
Ġsing le
Ġind ividual
i en
er t
ĠB rit
Ġqu ick
ĠA f
Ġto t
ir c
Ġ Â
Ġs w
Ġm ind
ĠD on
ĠN orth
Ġp ubl
ĠS ec
Ġpolic y
tt p
am ed
Ġm ess
Ġwant ed
le ment
Ġf all
s y
Ġbl ack
ap er
a i
al es
Ġf ood
Ġsome one
Ġs um
at ic
ll ing
Ġ z
ĠD ep
Ġc ult
Ġspec ial
Ġcom b
Ġke y
Ġ /
p ar
Ġplay er
Ġre du
Ġbr ing
ar m
Ġcomp an
ĠM an
r is
Ġ |
p ly
Ġat tempt
id s
A n
o ff
ĠN ational
Ġ1 7
Ġt aking
O n
Ġ1 3
e v
W hen
ĠG r
ĠB ar
Ġf oot
Ġ :
v iron
: //
ol ution
Ġel se
Ġb ody
Ġpre t
Ġsp ace
if y
ĠC al
Ġprob ably
Ġc oun
Ġfr ont
ic ult
Ġnot hing
. )
Ġc ou
ashing ton
Ġcon nect
Ġrese arch
ĠCl inton
ĠW orld
ĠC ity
Ġcom ing
el t
o ver
c hes
Ġpoint s
ĠI m
ĠIs rael
Ġhow ever
Ġdesc rib
Ġj o
Ġsim ilar
Ġsign ific
I N
li er
Ġben ef
rem e
Ġdec ision
c ing
Ġe ither
ĠA ust
d d
Ġim m
Ġm ass
ac es
Ġt arg
Ġfe at
Ġs us
Th at
Ġex ist
ĠH ar
ull y
Ġcon v
a ult
Ġ201 3
g o
Ġen c
Ġright s
Ġserv ice
as ing
Ġw rote
Ġf urther
Ġd oc
Ġh ouse
Ġf ire
Ġch all
Ġth ird
Ġprote ct
ir l
Ġf ig
Ġb an
Ġst op
Ġw a
Ġcre ate
Ġf ield
Ġp ick
s w
Ġme as
ive ly
Ġiss ues
Ġre pl
Ġcom pl
ĠW ith
w w
Ġbe gin
S o
Ġst ep
ĠS u
Ġwho le
Ġrel ations
pp ing
Ġseem s
m b
ent ly
ri ed
Ġcompan ies
pe cially
n ow
Ġd ue
Ġ )
Ġevery thing
Ġex ec
Ġsu per
Ġc and
a pe
Ġt em
an a
Ġf ederal
y n
Ġst ates
Ġro om
Ġe y
Ġw atch
Ġtr a
1 6
Ġlead ers
ĠHow ever
Ġc ustom
p ite
am er
ĠW ashington
u ation
O N
Ġro le
ĠJ an
Ġse lf
e al
Ġs ound
Ġofficial s
Ġl ab
Ġd am
Ġ201 2
Ġst ri
R E
iv il
Ġinf l
Ġrele ased
ĠG u
a ul
id ay
Ġt re
Ġbe gan
ĠG e
il t
ib ility
ĠIn st
1 4
ĠD av
ĠS outh
Ġo pt
Ġstud ents
ĠA pp
Ġt reat
Ġfin al
Ġcharac ter
Ġpos ition
Ġmat ter
* *
o on
he ad
ob al
Ġen er
un g
Ġout side
Ġdevelop ment
Ġd ou
Ġhim self
Ġstate ment
viron ment
r an
Ġ201 7
Ġab ove
Ġst at
Ġbre ak
Ġam ount
Ġprov ide
I S
Ġin it
Ġ1 00
ad es
se c
end er
Ġhour s
l im
Ġit self
l ike
Ġthem selves
Ġoff ice
Ġrep resent
Ġa ction
Ġbec ame
Ġ19 8
Ġcontin ue
Ġcount ries
Ġgener al
ĠIn tern
er y
ĠP art
Ġadd ress
i od
Ġne g
Ġg un
Ġtr ue
te e
ac ed
Ġspec ific
Ġ2 5
Ġd i
Ġl arg
Ġsignific ant
Ġsim ply
p ro
ar ter
l ish
Ġwas n
' ll
ĠA ss
Ġinter view
ograp h
ace book
Ġg round
Ġdiff icult
ĠR es
Ġr ad
Ġrun ning
Ġev idence
um b
ĠJ ust
Ġad minist
og n
re g
as k
1 3
Ġvers ion
Ġd rug
Ġc op
Ġag ree
og le
Ġl at
o id
Ġbuild ing
ĠCh ina
Ġb ar
Ġneed s
e ks
Ġgroup s
Ġprof ess
idd le
C h
Ġty p
ĠE d
Ġshow s
Ġcomm on
Ġresp ons
il i
Ġevery one
ang u
Ġneed ed
Ġd om
Ġwom an
Ġb all
Ġd est
ĠG erman
B C
re am
Ġbel ow
l am
at t
Ġmus ic
ĠS ep
A N
Ġrele ase
Ġex c
ourn al
Ġin j
Ġpret ty
r ight
rib ut
Ġinclud e
Ġsa w
Ġde ep
l ight
ĠM ed
if t
Ġplay ed
b ody
Ġqu ite
Ġindust ry
Ġch arg
Ġener gy
Ġplay ing
Ġm ot
Ġa p
Ġcand id
Ġs ense
Ġ5 0
ĠA b
Ġl ate
Ġal leg
Ġph ys
Ġwh ite
Ġm ag
ĠH is
Ġfriend s
Ġleg al
Ġg en
Ġan im
ĠA fter
iv al
Ġinst ead
H ow
w here
Ġb illion
Ġab s
Ġl ost
at ur
Ġes pecially
s er
y le
Ġval ue
Ġre d
ĠW est
Ġh ost
os ing
ĠM us
le v
Ġh om
or ing
Ġp le
Ġwe eks
t ime
ĠNew s
cc ording
Ġfor ward
ĠN ot
ep end
1 7
Ġrecent ly
Ġe lection
Ġdet er
om m
ist ic
Ġj ud
Ġtr ack
Ġvot e
Ġsu ff
ĠT witter
Ġob ject
is c
ag er
iqu e
Ġchang es
Ġper iod
Ġopp ortun
med i
ĠWh ite
Ġlong er
ĠO ct
b o
Ġp ain
Ġso on
Ġs ite
Ġ {
Ġac cept
Ġe p
ac hed
ĠC ong
Ġeconom ic
Ġsh oot
Ġhop e
Ã ©
ir t
o ke
Ġmom ent
Ġdec l
Ġcons um
Ġp ie
ir m
Ġc irc
h od
le ge
ĠW ill
Ġche ck
Ġt it
ri pt
l t
ar c
Ġpot ential
ĠM arch
Ġwr ong
1 8
Ġbl ock
ĠDep artment
Ġhig her
Ġc red
Ġon line
Ġfoc us
Ġcons ider
Ġed uc
n ers
anc ial
on se
Ġwor ks
Ġsh are
Ġrel ig
Ġp arent
id ing
Ġhe ld
Ġ2 4
Ġw alk
Ġwe bs
Ġl ed
A S
ul arly
Ġp red
c ial
Ġre ve
o e
ĠThe se
Ġst ay
Ġl o
A R
ove red
Ġst ru
Ġgo al
ĠRepublic an
Ġris k
Ġword s
ĠM y
Ġso ld
ĠA ug
ĠD r
Ġre view
le ar
Ġcont ract
ke y
Ġresult s
Ġserv ices
Ġlaw s
Ġre v
The y
Ġc ode
o le
Ġfun ction
ĠM ich
Ġw ind
op h
ĠSy ri
c il
Ġa ud
Ġtot al
n s
Ġart icle
Ġc e
Ġa ge
m e
Ġapp lic
Ġmin utes
f ect
Ġperson al
Ġany one
il ities
u ary
ĠJ une
i ents
as ons
it ution
ic ro
ur d
Ġtarg et
Ġear lier
Ġpr im
Ġfav or
Ġexp ress
h aps
ate g
Ġd en
Ġan sw
Ġde ad
p ut
Ġpop ular
Ġcomp ut
ang er
Ġne cess
pr il
Ġup d
Ġr ate
Ġtechn ology
Ġv ol
a ut
Ġres pect
ag ing
Ġen vironment
Ġ201 1
ap an
Ġrece ived
ĠM e
Ġexpect ed
i j
Ġcre ated
em ber
Ġsur pr
u le
end s
Ġb ase
f er
Ġant i
ĠJ uly
Ġproble ms
A d
ĠP e
Ġw ays
Ġh y
Ġpriv ate
Ġp ort
Ġincre ase
ip le
Ġsc ient
ud e
Ġannoun ced
Ġcom ment
Ġcan not
ct or
Ġeas y
ĠP ar
v al
ĠS m
Ġsh ot
re et
u el
Ġquest ions
ĠCong ress
act ion
ĠD o
h am
Ġfor ce
is l
ĠN e
Ġimp act
ater ial
ĠM ond
Ġp ack
pl es
ĠF acebook
her n
P h
Ġl angu
Ġe t
2 5
Ġp ur
al t
at ives
et er
Ġinvol ved
Ġ +
ĠG od
ĠE n
av ing
r ay
b it
ĠAust ral
ill s
h ood
Ġd iv
ues day
Ġexec ut
c he
Ġmod el
Ġspe ak
Ġst aff
Ġex act
Ġs en
Ġc ivil
Ġne arly
A l
on st
it iz
Ġty pe
Ġc ases
le x
Ġorig inal
i res
Ġcont ent
Ġrelations hip
ok es
our t
Ġ19 7
om b
Ġter ror
ĠGo ogle
Ġle ave
ĠFr iday
Ġresp onse
Ġins ide
Ġcap t
Ġ <
Ġf ans
ĠA pril
__ __
ll ed
Ġintern ational
ll ig
Ġa verage
Ġhe art
Ġco ll
Ġar rest
Ġbro ad
du ct
Ġus ers
ĠC ount
ĠR ed
Ġw orth
Ġc ell
Ġl iving
Ġso ft
Ġkill ed
n a
Ġn ation
Ġreport s
Ġ201 0
Ġbec om
Ġc al
ĠMond ay
Ġsour ce
A t
ot o
ĠT uesday
Ġ ur
Ġsub ject
Ġwork ed
Ġim medi
Ġest ab
g ing
E S
Ġresp ond
ĠE m
at ural
Ġass oci
c ast
Ġgl obal
re l
ip s
ĠAmeric ans
tem ber
Ġcl ub
j oy
est s
Ġch ance
T o
Ġo il
b or
Ġab ility
Ġt akes
ĠA ct
rough t
Ġde l
Ġwe ap
Ġpr ice
Ġdirect or
ĠJ apan
ĠP al
Ġwork ers
= =
Ġter ms
a el
Ġpubl ished
Ġro ad
Ġt ou
ĠP er
ĠWh ile
e ch
op s
Ġph one
olog ical
Ġcol lect
Ġfin ancial
Ġdec ided
ĠRuss ia
it es
Ġm id
ĠS ome
Ġm other
ĠW ed
6 0
Ġl ack
Ġdef in
ove mber
os ition
Ġs qu
Ġg irl
Ġst ore
Ġg ave
iz ing
is es
Ġ4 0
Ġbu y
Ġinfl u
r ain
Ġhappen ed
ĠCal if
he l
Ġrequ ire
Ġe mer
ĠN ow
Ġl og
Ġf em
Ġcap ital
m on
Ġfore ign
Ġcurrent ly
cl us
b ased
Ġgo es
ĠS an
ĠO ff
Ġsit uation
vert ise
Ġoff er
Ġind ic
ĠGe or
Ġwho se
ov ed
Ġm aterial
Ġl ives
ĠB y
Ġ @
Ġt al
Ġaff ect
Ġpl ans
nes day
ough t
Ġar ri
Ġmem ber
ĠF eb
Ġp ict
urs day
Ġpartic ip
Ġturn ed
Ġrec ogn
Ġev ents
Ġmet hod
ĠJan uary
ro wn
Ġnet work
ru ction
ĠH ill
Ġteam s
Ġmeet ing
Ġb ank
" .
ĠS und
ct ions
k y
Ġint rodu
f ully
Ġsim ple
Ġn orm
ĠIs lam
Ġh uge
ĠSep tember
es e
Ġreg ard
Ġare as
in o
Ġ ill
O ne
Ġcou ple
Ġappro ach
ĠT V
Ġcare er
ord er
ĠAf ric
un t
ĠA g
Ġde li
Ġr ace
Ġperform ance
ĠC or
Ġc y
Ġp age
ĠN ovember
Ġto ol
ĠDav id
Ġf elt
Ġquick ly
Ġnum bers
Ġem ail
Ġ2 1
" ,
et y
Ġor d
l oad
Ġadminist ration
ĠG l
ĠWed nesday
Ġvict im
Ġm is
ou d
Ġimpro ve
Ġv ia
Ġh on
e es
Ġeng ine
ĠP aul
ist an
Ġte xt
a ily
E N
Ġp ull
Ġr ound
Ġbu ilt
ap t
ch ie
ĠEurope an
Ġf re
ĠTh ursday
Ġf ather
Ġp ers
Ġl oss
o or
ĠE l
Ġth ous
orn ia
ĠA ng
Ġprodu ction
Ġh ttp
Ġd ig
ruct ure
Ġb oy
a ur
Ġ2 2
av y
O R
Â Ń
Ġhe ard
en ed
Ġeconom y
Ġen joy
Ġtr ade
ĠAug ust
Ġwebs ite
Ġreve al
Ġco ver
Ġw ide
Ġsec ret
um e
Ġbo ard
Ġm atch
Ġallow ed
Ġsp ent
Ġhand s
ĠC ourt
Ġtra vel
d own
l in
Ġl ower
Ġre pe
Ġinclud ed
Ġst e
Ġpo ll
ce mber
ĠOct ober
Ġleg isl
Ġne igh
or ters
im ent
Ġbeh av
f ace
Ġkn ew
at ory
Ġwant s
Ġb i
e ed
Ġto wn
ict ion
us es
ĠBrit ish
Ġse par
âĢĿ .
es tern
Ġvis it
ĠCanad a
en ces
ight s
Ġget s
Ġper fect
Ġmove ment
re ct
Ġtri ed
Ġc ause
an ks
Ġfor ces
age ment
is hing
ĠSund ay
? âĢĿ
ess ion
g est
Ġ }
Ġen s
g round
ĠS ch
ce ed
A fter
4 0
for ce
Ġatt ention
Ġpartic ular
W ith
] [
Ġve h
Ġpop ulation
Ġf ear
Ġvar ious
Ġb ud
ra z
Ġre ach
b l
Ġlook s
ĠCalif ornia
Ġb rought
ĠU K
en ing
ĠK ore
Ġl ink
Ġv o
ib ly
ur ning
Ġprev ious
ar ily
Ġ2 3
Ġm ention
ĠRuss ian
Ġmor ning
ide red
ĠI S
' d
Ġgrow th
Ġf air
und red
Ġpro gress
Ġfe ll
se qu
y ond
) ;
Ġs ong
Ġtr aining
all ed
Ġs ize
ĠDe cember
ident s
c le
Ġcont act
Ġdem and
ĠS w
led ge
c ies
Ġim age
Wh ile
Ġlead er
Ġr ac
Ġrul es
ĠBl ack
Ġpre p
Ġh or
h old
ec ause
Ġl iber
Ġse arch
2 00
Ġ ess
Ġh ot
ak er
ĠH er
Ġc itiz
ĠQ u
ĠSt reet
Ġup on
ĠP ost
Ġstru gg
i am
Ġlat est
ific ation
Ġind epend
f ield
c ome
u ments
Ġfeat ures
Ġco ach
Ġtalk ing
ĠP ark
Ġf ast
in ks
ond on
ĠJ ew
S h
Ġadd ition
ĠSen ate
Ġw ond
Ġst ar
m a
Ġcons idered
ĠC ont
Ġex am
p s
Ġspe ed
ra q
ar th
ic les
Ġre b
sy ch
Ġlevel s
ĠP at
ar ies
ĠCount y
ĠT imes
g es
s et
Ġinvestig ation
i ant
Ġsl ow
llig ence
z e
ĠPart y
Ġmed ical
im ately
Ġm ach
Ġa chie
A L
ĠK ing
Ġlangu age
b ed
atur day
Ġc ard
Ġcrit ic
Ġs ort
ĠCent er
ĠT ex
ĠInd ia
Ġp aper
Ġp en
Ġ200 8
Ġparent s
Ġsex ual
Ġs n
ys is
Ġsystem s
Ġpri or
Ġu nd
w o
Ġwrit ten
Ġdo ll
Ġsaf e
im in
Ġcon duct
Ġsp okes
Ġbo x
Ġsee k
ap h
R e
Ġdoc ument
op e
Ġincre asing
Ġs ens
e ared
f l
Ġhe ar
E D
om p
p ir
Ġse ven
O S
v ent
ĠMus lim
Ġeff ort
Ġd raw
ru ary
ig r
Ġjob s
at form
Ġs on
ĠI ran
u it
Ġext reme
Ġcons erv
Ġprev ent
Ġlear n
un k
Ġser ious
id ge
T r
Ġreg ul
Ġr ange
Ġviol ence
in ing
d e
ĠI raq
he t
Ġcomplete ly
Ġsur ve
as c
U S
Ġ200 9
our ces
il le
r ast
Ġ ...
et h
Ġmess age
ĠM ark
Ġin n
Ġcon c
ro om
Ġinterest ing
Ġob v
Ġopportun ity
Ġsc reen
A C
ĠCh ar
reed om
Ġcl imate
Ġmajor ity
Ġpartic ularly
Ġdou b
Ġdes pite
ab or
Ġj ournal
Ġclaim s
u f
an ced
Ġansw er
it ch
Ġsoc iety
ĠL ondon
ĠR om
S he
Ġdef ense
Ġcar ry
ent ially
Ġgu y
u k
e ff
ĠDon ald
Ġattack s
Ġrequ ired
Ġext ra
Ġbig gest
is ions
vertise ment
Ġexact ly
Ġp aid
am ing
ĠK e
ren ch
ĠE ast
ic o
ill ed
Ġexper ien
Ġare n
9 9
ens ion
ĠM ore
Ġmod ern
ly ing
Ġrem ain
ines e
uc lear
Ġqu arter
I T
Ġoffic ers
Ġh undred
Ġex cept
Ġpract ice
Ġc ross
Ġt able
Ġn atural
Ġm iddle
in ally
ut ions
Ġcertain ly
i ers
ib r
ĠS aturday
Ġst ories
Ġd ro
---- ----
Ġproduct s
Ġlook ed
Ġsomet imes
Ġhist or
Ġg as
Ġsur v
ĠN et
Ġ â
os es
Ġ2 8
n ces
Ġ2 7
Ġst uff
Ġsc ience
Ġfin ally
Ġsum mer
Ġmov ie
Ġus er
Ġcommun ic
Ġbl ood
O P
Ġchang ed
m p
osp ital
Ġon es
Ġlead ing
Ġdescrib ed
Ġl ay
an i
Ġe ight
Ġim ag
ĠFeb ruary
Ġter m
Ġa w
2 2
er c
Ġpr ison
Ġcon vers
Ġdet ails
av es
ous ly
Ġstart ing
Ġqu ality
Ġocc ur
ĠS and
h a
Ġshow ed
t r
Ġn amed
Ġg iving
Ġrem ains
Ġreg ion
Ġp an
Ġprov ided
u ing
Ġcost s
h ib
u x
I C
Ġu lt
ic ks
ĠS pe
Ġdam age
ĠMc C
ĠS oc
Ġd anger
Ġch ief
Ġpo or
Ġf it
Ġm ob
augh t
Ġeduc ation
Ġp ath
Ġmult iple
ak ers
Ġcontin ued
Ġgrow ing
Ġdem onst
Ġpart s
ĠT ur
pp er
en ge
Ġwrit ing
Ġcom ments
Ġ *
Ġm ent
ĠM or
Ġmain tain
o o
Ġass ist
Ġthink ing
ĠT H
Ġ2 6
ĠRepublic ans
ĠE ven
Ġpur p
ad d
Ġrequ est
Ġp urch
ĠDemocrat ic
Ġwr ite
Ġf ix
Ġd ied
in ary
ar r
Ġit em
Ġread y
ĠC oun
Ġwould n
Ġincre ased
Ġimp lement
Ġcult ure
ĠC he
N o
Ġeff orts
Ġvot ers
ĠD es
Ġc amer
Ġread ing
mit ted
Ġus ually
Ġcall s
Ġm ill
f ort
Ġsp ot
Ġeffect s
im inal
n y
ag o
Ġf ile
2 4
ab les
Ġper haps
co in
Ġal one
ĠG ener
ĠS er
Ġal though
Ġto wards
id a
ĠF irst
ĠLe ague
Ġcons ist
op er
ar i
Ġgu ys
ĠTex as
Ġstand ard
Ġse lect
ĠB ill
Ġdirect ly
ĠMich ael
Ġbe yond
ĠCh inese
Ġpl atform
Ġ( @
Ġce le
Ġh ous
Ġsub st
F L
Ġspe ech
Ġreal ity
it ute
Ġk ids
us ing
Ġav oid
Ġthrough out
ĠJ ames
te red
ic ated
ar ian
Ġfoot ball
Ġstud ent
p re
al y
Ġcould n
b an
ĠM on
Ġimmedi ately
et t
Ġinclud es
il es
row d
Ġun f
Ġcho ice
Ġcon cept
Ġcent er
Ġsc ene
Ġadd itional
Ġcomple x
Ġro b
Ġchall eng
Ġw ife
Ġc at
Ġcl os
Ġrese arc
Ġrec omm
A M
ĠC ons
I m
Ġep is
ĠMin ister
f ord
Ġt ro
Ġdesign ed
Ġcor por
he st
Ġrem ember
Ġsaf ety
Ġs le
Ġsoft ware
ĠInd ian
Ġg one
ĠâĢ ¦
y l
an ch
Ġto ward
Ġse ll
Ġag ency
Ġoffic er
Ġfig ure
Ġpie ce
Ġ il
ur t
Ġt en
w ise
B I
Ġbr ain
ac hes
Ġbat tle
Ġdeb ate
ĠJ ack
Ġthous ands
Ġop in
Ġcoun ter
Ġa head
8 0
air s
ast ic
it or
Ġrel ative
ress ion
ic ient
Ġlet ter
ru pt
Ġrece ive
ou l
Ġpress ure
im um
ag on
ad em
Ġ ver
Ġbl og
il ies
ir th
amp ions
Ġmov ed
om en
st on
Ġappear s
Ġla unch
N ow
z z
Ġ >
Ġpass ed
port s
A ll
Ġo ption
Ġcle an
Ġst age
Ġs il
Ġpre c
ĠPl ay
ate ver
ol ute
Ġproper ty
Ġhelp ed
ĠI I
Ġ6 0
ur g
Ġdri ve
Ġalleg ed
o es
ĠApp le
Ġ ut
Ġdis app
Ġtw e
Ġmean ing
Ġt our
ro y
Ġcr is
Ġro ck
ĠG reen
Ġdo g
ĠAss oci
Ġsus pect
Ġd ate
ĠB o
ĠDemocrat s
Ġmov ing
Ġsc ore
Ġorgan ization
ĠR ich
Ġcond itions
augh ter
it ation
j ust
Ġtou ch
Ġcomm and
Ġd ark
ĠThe n
ar a
Ġre asons
Ġbud get
s p
Ġs at
m en
Ġp ark
Ġ ign
Ġn uclear
Ġmy self
? "
Ġhapp y
Ġdev ice
Ġdiffere nce
Ġde g
Ġbegin ning
Ġn om
Ġmay be
2 3
Ġn ature
Ġfail ed
Ġcharac ters
ri ef
Ġcop y
Ġcomput er
Ġenc our
Ġc ast
Ġf an
Ġa im
ĠS erv
Ġtit le
Ġcomp ared
Ġle ague
m ore
Ġw all
Ġest im
ch an
Ġcol lege
ock ed
ĠS im
Ġey es
Ġsh own
Ġcent ury
Ġpower ful
ĠEng lish
Ġ x
er ve
ber g
ĠSt ar
n ew
ĠD ay
Ġlim ited
iv ity
Ġy es
Ġcont ribut
Ġpos itive
Ġfor ced
Ġnecess ary
ĠV al
Ġb al
ĠSu per
le ase
w ood
Ġb and
Ġcandid ate
Ġsc he
Ġref er
Ġbook s
y an
Ġst ra
Ġlarg est
Ġtr ust
ĠF rench
am b
Ġdis p
ain t
Ġconf erence
ĠH ere
Ġnot e
Ġanal ysis
ĠR ober
Ġsp ending
ent y
Ġpresident ial
ci ent
Ġar ch
Ġcitiz ens
uf act
ĠO f
Ġschool s
Ġs al
ĠSyri a
ig ration
Ġth row
Ġa ware
Ġme ant
Ġh ar
Ġexecut ive
Ġevent ually
ven ue
Ġfollow ed
ĠM art
Ġphys ical
our ce
Ġfe ature
O T
Ġtreat ment
Ġf irm
Ġc rowd
Ġstre ng
Ġconf ir
Ġm ix
Ġb ott
or ney
Ġrelig ious
Ġeas ily
ĠB en
Ġgr ad
ĠW ind
ĠA ir
Ġp us
or ks
Ġaut om
Ġco ol
Ġfam ilies
Ġil leg
Ġ19 6
ĠT or
Ġ2 9
a ud
Ġact ions
Ġes c
Ġover all
.. ..
Ġallow s
r ated
ĠM ex
Ġg ives
ress ed
ĠÂ £
Ġfe ed
ĠD is
Ġyour self
a res
Ġsus p
b and
Ġd raft
Ġapp eared
Ġdet ail
Ġinc ome
c raft
) :
Ġsm art
bo ard
Ġsign ed
b um
Ġanal y
ir ing
Ġide as
Ġcent ral
en cies
Ġsen ior
M y
ĠGo vern
c ul
Ad vertisement
Ġweap ons
Ġfre qu
et ro
Ġdis play
Ġn ice
Ġprom ot
Ġcred it
Ġdec ades
Ġpolit ics
ub e
Ġan g
er o
ĠB el
Ġcr ime
Ġus es
Ġp sych
A D
Ġdis e
Ġdo or
Ġun ique
ĠIntern ational
A ccording
Ġs ales
Ġal tern
Ġd rop
Ġdevelop ed
Ġcustom ers
k en
Ġs we
Ġl if
2 7
Ġbenef its
ut y
Ġconf lic
B e
D on
Ġrel ated
I s
Ġcris is
ur ance
ĠS chool
B y
Ġpred ict
Ġnot ed
Ġm ist
ĠAustral ia
Ġtr uth
i able
Ġgo als
ĠE U
Ġindividual s
res h
Ġch arge
Ġcontin ues
Ġbe aut
ĠUn ion
er ry
on ents
ĠC ap
ĠAr ab
Ġchall enge
ĠE arth
Ġr ap
Ġapp arent
A P
Ġst o
ĠSm ith
ite ly
ĠAng el
Ġproject s
Ġpe ace
n own
Ġmeas ure
Ġl ic
ĠPol ice
N ew
Ġcor rect
Ġinte lligence
Ġprev iously
ĠGerman y
Ġfull y
Ġr ule
ĠChrist ian
Ġman ager
in y
Ġr ates
Ġadv ant
Ġbro ther
p art
Ġcle arly
Ġexp and
Ġl ines
Ġsuccess ful
Ġre form
Ġhigh ly
ri age
ot i
Ġlarg er
Ġtr aff
Ġseem ed
Ġsp read
ĠCoun cil
Ġstra ight
ch ange
in n
Ġcr iminal
m ar
b ox
Ġprogram s
Ġmin or
ĠGeor ge
i ance
ound s
Ġinc ident
S ome
Ġres ources
Ġgreat er
Ġprim ary
Ġem b
ĠFr anc
ic ed
Ġknow ledge
Ġstud ies
ĠCom p
3 5
ow ers
r s
wh ile
Ġke pt
Ġatt ract
in ated
ant ly
Ġsa ve
Ġem ot
ĠFl or
ĠT om
Ġsp ir
or ter
Ġfe et
at tle
ate gy
Ġre ached
Ġcol or
Ġr are
Ġwe b
sec ut
lev ision
ĠIntern et
4 5
Ġar m
ĠBro wn
ĠH igh
Ġfavor ite
Ġpl aces
Ġreg ular
2 6
Ġman ufact
Ġla un
id ers
d om
w ide
e an
od ay
se y
2 1
Ġs end
Ġknow s
ĠC r
Ġshoot ing
ol ic
Ġpre m
Ġactiv ity
Ġsour ces
E C
ĠR ec
Ġnorm al
ĠD ef
Ġp un
Ġfight ing
I D
Ġr ise
ic ago
Ġstat us
Ġvo ice
ic it
Ġown ers
Ġf ine
Ġca used
Ġclaim ed
Ġen em
ot a
n et
ĠH am
Ġlit er
ter m
O M
ĠGener al
Ġopt ions
Ġ200 7
Ġinte gr
Ġsp end
Ġc ities
on ent
a ith
lic k
Ġend ed
Ġorgan iz
I A
ĠR ob
Ġresearc hers
eng th
Ġcall ing
ĠG old
ĠU p
b on
Ġsh ut
us ion
Ġref lect
oc ks
ĠA nt
m iss
Ġpr ices
U n
il ed
Ġal bum
âĢĿ ,
ĠE very
Ġemploy ees
Ġfem ale
ĠEng land
m ission
ĠF rom
Ġwill ing
qu e
ĠM ac
E O
Ġha ven
E T
Ġv irt
Ġra ised
mit tee
Ġsupp osed
ww w
Ġj ump
Ġhapp ens
if ying
Ġadd ing
Ġpolic ies
u ana
Ġn ames
Ġe le
Ġcharg es
it ness
ol es
ro ll
ro id
Ġtr ou
Ġbas ic
Ġpro s
Ġconcer ns
v ille
Ġtrad itional
rib ution
Ġwa it
Ġabs olute
iver se
ĠL a
Ġh ospital
Ġac qu
Ġpl ant
Ġfund ing
Ġsl ight
Ġpat ients
Ġauthor ities
Ġcom mer
1 00
Ġmin ister
os h
Ġcreat ing
Ġpr int
Ġf reedom
m ark
or g
ĠB ay
ĠB re
Ġme chan
Ġsc en
Ġsee ing
Ġst yle
2 8
um an
ve re
Ġbe at
Ġgr and
. âĢĻ
ĠA P
2 9
Ġl ik
Ġst ation
ĠSc ott
ad o
ĠM ag
Ġbehav ior
Ġle aving
Ġp ush
ij uana
Ġb irth
Ġbe g
ro l
ing er
Ġact ual
Ġens ure
Ġoff ered
Ġim pl
Ġagree ment
ĠFlor ida
N ot
se e
Ġe th
Ġc ry
ĠHill ary
Ġpost ed
Ġweek end
ri an
Ġob ser
Ġgo ld
Ġ ir
ĠM ost
Ġwe ight
Ġg reen
ĠM o
Ġey e
ac ing
al se
Ġreveal ed
Ġdeter min
Ġmost ly
Ġval ues
Ġapplic ation
Ġv ac
Ġprop os
so ft
ĠWe ll
Ġr ank
H ere
ĠA ccording
ĠA lex
Ġad ult
Ġad op
on a
. '
Ġestab l
it ude
ĠS un
ĠRe g
Ġrecord s
A r
ĠB er
Ġen force
Ġbelie ved
Ġpict ure
Ġb rief
Ġlear ned
Ġstr ategy
ear ch
Ġapp l
Ġinst all
Ġcho ose
ing ly
ĠL et
ab y
ĠL aw
r am
Ġwond er
Ġmass ive
ign ed
Ġd ire
Ġm er
Ġqu al
Ġdev ices
Ġbenef it
Ġpart ies
ic a
ist ry
Ġlaw y
ĠCh icago
Ġw ild
Ġc ars
ĠPe ople
h ttp
p ri
Ġarrest ed
p en
Ġwh atever
ĠFr ance
Ġm ount
Ġprov ides
Ġw at
5 00
Ġwh om
ĠP ort
Ġstre et
Ġass ault
ĠPh il
Ġun s
Ġask ing
Ġinflu ence
Ġjud ge
Ġ ;
ĠO h
Ġl ose
Ġfeel ing
li ament
Ġoper ations
Ġprodu ced
Ġcrit ical
Ġtem per
Ġf at
Ġneg oti
ĠSec ret
Ġm ission
t ies
ĠTr ans
Ġim ages
Ġconfir med
ĠB ush
Ġshow ing
Ġent er
ĠL ou
Ġdist rict
u ild
IN G
ĠSt ud
ĠM at
Ġrun s
Ġpat tern
Ġt end
Ġb order
Ġres idents
y a
c her
Ġdeb t
ri ption
How ever
Ġte ac
ĠCom mittee
Ġopp osition
k i
Ġc ru
Ġcele br
S A
p oint
or ial
Ġse ction
Ġdef end
Ġprodu ce
Ġet c
S c
ak ed
m ine
ĠComm ission
ĠHe alth
est ic
Ġindepend ent
Ġdr ink
ĠW all
c ont
ĠWh y
P ro
Ġbr and
ent ed
ĠIn te
Ġadv oc
Ġc ore
Ġdig ital
Ġt ick
ĠP ress
Ġhe ro
O U
Ġdoll ars
u gg
g en
Ġeffect ive
ic ial
Ġsol ution
7 0
Ġinterest ed
ĠKore a
ĠM od
Ġv ill
Ġhig hest
r ont
Ġopen ing
Ġwor se
Ġmem ory
ce ll
ri al
Ġlear ning
Ġrespons ible
ĠB it
Ġtri al
Ġthe ory
Ġoff ers
Ġd aily
Ġk ick
ĠPal est
ĠO ther
Ġrepl ace
oc r
Ġrest rict
Ġag reed
ud d
Ġte levision
ĠOff ice
ĠB ecause
ĠFranc is
Ġocc as
ag s
Ġm ur
3 3
Ġinvest ment
Ġdet ect
Ġtyp es
Ġtr ain
ĠW estern
icro soft
Ġv s
Ġmill ions
Ġmil es
Ġch air
ĠS am
st e
ic ians
ra v
ur ies
ill ing
ĠJust ice
Ġgener ally
Ġbas is
et ty
ord s
Ġprop osed
i ation
ĠM al
Ġche m
ĠM ike
ĠC up
The se
Ġhe avy
Ġexpl ained
ci ence
ĠO ur
Ġ8 0
Ġpart ners
Ġopin ion
Ġm ap
Ġdef e
Ġon to
Ġassoci ated
Ġprot est
Ġb ur
ĠM il
ĠN FL
Ġd er
Ġm ale
ĠF ound
Ġbecom es
Ġre ject
az ing
as te
ĠAd d
Ġl oad
ĠD el
ĠSec urity
Ġob tain
Ġco al
out hern
Ġdest roy
Ġadvant age
i pe
n o
Ġass um
Ġannoun ce
Ġhundred s
Ġcond ition
Ġachie ve
Ġopen ed
Ġunderstand ing
ĠL iber
ad ing
ĠJohn son
Ġsur round
E L
ak s
r ate
B A
ort hern
com ing
Ġinit ial
Ġsle ep
ic ip
Ġmar riage
el ine
Ġman agement
Ġth us
Ġsh ip
Ġb orn
Ġbecom ing
ĠWind ows
L e
Ġeas ier
Ġlim it
and er
w in
Ġlegisl ation
k nown
v est
Ġcontro vers
Ġun like
ĠB ig
ĠG reat
Ġelect ric
ĠM any
F C
Ġcamer a
Ġacc used
Ġr at
Ġphot o
E x
Ġneigh bor
Ġspec ies
Ġ ice
Ġdou ble
Ġsh ared
Ġjo in
r ig
Ġs pl
Ġilleg al
Ġ3 1
Ġ200 6
Ġmach ine
Ġser ved
C l
Ġextreme ly
Ġdoc uments
Ġact ive
Ġser ve
ber t
ĠIslam ic
od es
o om
wit ch
Ġstri k
Ġfr ame
we ll
Ġaud ience
Ġloc ation
Ġscient ists
ĠJ er
Ġvictim s
Ġbott om
ĠL ab
Ġwe alth
Ġprofess ional
o ly
Ġbelie f
Ġredu ce
ĠD ist
Ġres ist
Ġn ine
Ġwin ning
Ġmar ijuana
re y
le vel
Ġneg ative
Ġcommun ities
Ġsol id
Ġreturn ed
or row
a e
Ġ3 5
ortun ately
M r
ĠInst itute
r ad
ĠU k
Ġinc red
if ul
I L
Ġdep artment
Ġch urch
âĢ ¢
ĠSand ers
Ġvict ory
u pp
Ġpurp ose
Ġb ed
ĠA M
l ant
ĠP M
Ġr an
Ġveh icle
Ġleaders hip
ĠComm un
ir gin
Ġintern et
ear s
Ġmob ile
Ġb omb
B S
Ġ9 0
Ġam b
Ġinst ance
land s
ist ics
Ġsepar ate
ĠH all
Ġnot ice
Ġhe aring
Ġexist ing
9 0
G B
i pped
Ġexpl ain
Ġdoub t
gh an
Ġf aith
Ġd ie
Ġte ach
Ġepis ode
Ġwatch ing
Ġcom fort
ĠCanad ian
ĠY our
at ically
Ġnot es
3 2
ĠB ank
Ġf resh
Ġ Ã
Ġput ting
Ġview s
Ġrad io
Ġsupp orters
ol f
Ġconserv ative
ĠF in
Ġp urs
ĠIn c
Ġarg ument
ĠA tt
Ġlaun ched
Ġun c
Ġapp eal
ĠF ox
P A
Ġitem s
Ġcommit tee
ili ar
ac ity
Ġdefin itely
sc rib
Ġdanger ous
Ġco verage
ĠE v
Ġdire ction
Ġcharg ed
Ġfl oor
wh ich
om as
C C
ĠS l
Ġiss ued
h ouse
Ġdrug s
ĠCh urch
ĠCar ol
C on
res p
Ġcompet ition
Ġback ground
Ġs un
Ġt ask
ar io
Ġst ated
ĠAr t
Ġtre nd
Ġ Ð
w orks
Ġtraff ic
ĠF BI
Ġm ax
Ġcommer cial
as y
ar an
ĠO ver
P S
v ention
Ġsp oke
Ġsuggest ed
ĠD irect
Ġst ructure
Ġh arm
ĠM ad
Ġsit es
Ġtrans fer
Ġset t
m et
ĠS ince
Ġdec ade
Ġh us
Ġm icro
ct ors
ĠL ike
Ġn orth
ograph y
Ġrepe ated
Ġrest aur
ampions hip
Ġlab or
in ct
Ġanim als
Ġc ards
Ġre act
ill er
Ġno vel
go ing
Ġd aughter
i os
Im age
Ġdri ving
Ġcl osed
Ġentire ly
Ġwor st
and om
Ġcont ain
ĠBrit ain
ĠG ame
ant ed
Ġd ed
Ġdri ver
g ency
Ġdise ase
rib ute
Ġtell ing
Ġsmall er
z a
ur b
Ġdisc overed
ak istan
z en
Ġn or
ĠL os
ĠW il
Ġf alse
Ġconcer ned
S T
Ġc ash
Ġh ack
Ġsur face
Ġpl ays
il ing
ad y
Ġsupport ed
Ġtool s
f erence
ĠQ ue
! âĢĿ
Ġcomp ar
Ġtrans port
Ġfind ing
Ġexper iment
ĠP ri
Ġc ateg
ĠCh ris
Ġas pect
Ġbusiness es
om an
oy al
b ut
A meric
ul ated
i pp
se mb
Ġple ase
Ġold er
Ġfar m
Ġactiv ities
Ġrequ ires
ĠJ ones
e qu
Ġg ay
Ġstreng th
s erv
N A
Ġins urance
ann el
Ġwe l
Ġcon sequ
ph one
Ġlarge ly
Ġ7 0
az on
ul f
Ġg e
Ġc aught
Ġmur der
Ġcandid ates
Ġex erc
ĠIsrael i
Ġallow ing
n ight
Ġann ual
l a
and on
Ġtest ing
Ġbl ue
ibr ary
s pe
Ġstr ateg
Ġra ise
ĠA re
oss ible
h ow
ĠRober t
Ġdec isions
o very
Ġacc ur
Ġst ock
Ġf uel
Ġcon text
ic y
ĠK en
ĠUk rain
Ġconcer n
Ġbelie ves
Ġaff ord
ĠU N
ĠS up
os ure
4 4
Ġconst ruction
Ġtr uly
k ins
Ġun it
Ġjust ice
ic i
Ġgener ation
Ġhigh light
igr ants
he m
Ġpres ence
ĠJew ish
Ġt im
ĠM iss
____ ____
ĠAfric a
Ġgu ess
iz es
ang ing
Ġhold ing
Ġw itness
i h
Ġestab lish
Ġplan ning
Ġl ength
ĠA c
ĠG ree
3 6
it able
Ġpl aced
ĠAfric an
Ġref uge
ĠAf ghan
ck now
Ġc atch
ĠAssoci ation
Ġtell s
Ġspokes man
Ġse qu
Ġsc ale
ad a
d o
ter y
r ick
g u
Ġr ough
Ġatt end
Ġcell s
Ġjo ined
E M
an cy
Ġinterest s
Ġmention ed
a it
ĠT re
Ġab use
Ġs an
ĠP C
g a
Ġhas n
ĠT y
pect ive
ĠS il
Ġenforce ment
Ġinit i
ĠJ im
Ġintrodu ced
== ==
Ġdeli ver
Ġconflic t
ĠG OP
âĢ ĺ
Ġk id
Ġr out
ĠM icrosoft
Ġmiss ing
N N
Ġprov iding
Ġwa iting
cept ion
n el
M ore
Ġcan cer
l or
oll y
Ġrecomm end
Ġph il
Ġupd ate
Ġestabl ished
Ġe at
ĠAngel es
i us
Ġocc up
Ġrem oved
Ġ200 5
ĠJ eff
Ġoff ensive
ĠY es
ĠInst ead
Ġinj ury
ĠFr ank
Ġdiscuss ion
ocr acy
Ġsp orts
Ġoper ation
Ġdown load
Ġuse ful
Ġconvers ation
ru it
Ġhom es
Ġtrans l
ĠF ore
Ġnews p
r im
ĠC EO
Ġf ant
Ġass ess
3 8
Ġs outh
Ġc ook
ĠM er
b our
Ġban ks
ĠG roup
Ġsto pped
Ġobv ious
Ġmeas ures
Ġmod els
ĠP re
Ġfour th
b re
7 5
B l
ron ic
ic ations
se ason
ĠCon st
O L
av a
Ġgirl s
Ġ201 8
Ġfil es
S P
ĠLou is
ont o
form ation
Ġst ick
in ter
O ur
Ġb ul
ĠV er
Ġman aged
ĠPalest in
wh at
Ġfig ures
ic on
Ġident ified
3 4
v ant
ot ed
app ed
Ġfin ished
Ġfund s
Ġgr aph
ĠP akistan
Ġset ting
Ġconc lud
Ġcommit ted
ĠMex ico
is ation
Ġsk ills
Ġha ir
Ġpre fer
Ġappro pri
Ġfoc used
az ine
Ġarri ved
Ġspir it
Ġhous ing
c ks
um n
Ġve ter
ĠJ ud
Ġkeep ing
Ġthere fore
ĠV irgin
Ġa cknow
D A
Ġpart ner
ĠT im
Ġex clus
ĠAnd roid
m ail
om s
l ig
ĠTH E
Ġt ough
Ġear th
ĠLe g
ul a
ens es
ĠR ock
ĠJapan ese
Ġrelative ly
Ġ200 0
ĠSup reme
ig an
ul ate
Ġfeel s
Ġident ity
Ġother wise
and a
Ġsurve y
ĠR yan
up s
g ers
Ġprote ction
Ġex change
re al
pl ace
Ġown er
Ġstep s
itution al
Ġhus band
out s
Ġtri p
Ġtwe et
ow l
ĠM P
Ġslight ly
w ing
ĠS al
ĠAr my
Ġconnect ion
ĠGovern ment
Ġwe ak
ere nces
ro s
ĠPro f
Ġele ments
is f
Tr ump
ic ation
Ġstri ke
ĠRich ard
e ah
Ġdef ensive
Ġcirc um
Ġcl ick
Ġphot os
Ġme re
" :
dd en
Ġg ain
ĠIn ter
Ġcol lection
Ġdep end
ver se
Ġkill ing
Ġf le
D es
C H
Ġcor ner
Ġro ll
it z
ĠK h
5 5
ĠM et
Ġsuggest s
Ġag gress
ĠMart in
oc al
uck y
ĠAl though
im b
Ġcomm ission
igh ter
Ġg ender
Ġgu ard
ĠCol lege
od ies
anc ing
u ct
ony m
ag n
hen s
Ġam azing
Ġment al
m akers
Ph oto
Ġbig ger
e y
Ġplan et
Ġfail ure
Ġp it
Ġsupp ly
3 7
pro f
ic ide
Ġd at
r ange
Ġstart s
ren cy
4 8
Ġrem ind
Ġfam iliar
ĠJ ose
Ġs ides
g ar
k in
ĠTe am
hed ul
Wh y
Ġspe aking
Ġtal ks
Ġhappen ing
ĠI r
Ġsu st
Ġspe ct
Ġorganiz ations
Ġar my
re es
Ġh ate
ĠS ur
u ate
Ġwind ow
ĠD ec
ĠO ut
Ġtax es
Ġplan ned
Ġthan ks
Ġn one
ĠJ oe
gy pt
Ġdec ide
Ġsu dden
Ġst ruct
Ġw ish
it er
! !
Ġcar ried
ĠN or
Ġcre w
ĠM ary
ĠG ood
r d
ag ues
Ġhelp ing
id ering
Ġreg ist
Ġa ward
Ġstand ards
ost on
Ġmult i
Ġenvironment al
u ke
ĠS ub
an ia
Ġrev olution
w ith
Ġ3 2
ĠTh omas
Ġsecond s
ĠRes earch
Ġscient ific
am m
Ġimm igration
Ġsc ript
Ġstand ing
ĠThe ir
ĠM ont
Ġdom estic
L ast
is er
yn am
ĠF ire
Ġbe er
Ġqu e
ĠAl so
Ġp air
ĠSecret ary
G o
ĠB ern
ad ium
Ġac adem
it t
il s
ut ers
Ġvar iety
Ġmark ets
Ġco ld
Ġdro pped
oc ol
Ġter rit
Ġaccount s
st ream
Ġfil ed
ĠWe b
Ġ4 5
m as
ars h
Ġbal ance
] .
Ġimp ossible
er ous
P l
a wn
Ġt ack
Ġneighbor hood
Ġinter act
p m
Ġdeg ree
ĠU s
! "
Ġr ou
Ġturn s
ĠAt lant
Ġposs ibly
im al
Ġoper ating
# #
Ġaltern ative
Ġapp re
Ġun ion
Ġvot es
Ġpr inc
a ven
Ġprofess or
Ġincreasing ly
R A
3 9
it ect
4 7
Ġfell ow
Ġv ul
el ess
Ġcut s
ĠServ ice
Ġapp ly
Ġdevelop ers
Ġhon est
Ġapparent ly
ĠSyri an
ĠPr ime
Ġl ived
Ġun ivers
Ġser ver
Ġchang ing
r un
Ġwor ry
ĠCarol ina
rast ructure
Ġtest s
Ġun its
ĠT wo
Ġr ich
Ġhum ans
ĠFound ation
g n
ict ed
Ġs ch
ol it
Ġag encies
c ious
H L
Ġsound s
Ġtw ice
Ġult imately
Ġl osing
Ġauthor ity
Ġsold iers
ar ks
ad ed
Ġphil os
are n
Ġset tle
ĠIm ages
ĠT er
Ġsc hedul
Ġanim al
ack s
Ġcorpor ate
Ġhealth y
Ġpay ing
Ġabsolute ly
as hed
T C
Ġcol le
Ġat h
R ead
Ġequ ip
Ġdevelop ing
Ġse a
Ġclos er
ĠM os
Ġinn ov
Ġregard ing
Ġseek ing
ob by
Ġexp ensive
rel ated
Ġm ut
y m
4 9
Ġposs ibility
ĠPl an
ad er
Ġsk in
Ġbeaut iful
Ġrelig ion
h i
ol a
i ams
Ġexper ts
ĠCent ral
ĠT ime
Ġy ards
Ġap art
c oh
Ġfund ament
Ġsol ar
Ġwrit er
Ġfl ight
ans ion
ĠDist rict
ill a
ore s
rou d
Ġv ast
Ġde ploy
ste in
Ġad just
ĠD en
ĠP et
Ġintern al
ĠL ast
Ġimag ine
ĠP eter
ĠUS A
ay er
Ġapplic ations
v is
ap ers
ab b
F rom
Ġv ision
ĠU nder
ĠFrancis co
ĠJ on
ĠL at
Ġsit ting
ĠTor onto
olog ies
Ġun less
Ġtr ail
l o
Ġ200 4
f e
Ġhe at
Ġrespons ibility
l ook
Ġcap acity
ĠJ es
E ven
ĠM iddle
Ġer ror
ist ed
os en
st ate
Ġc overed
Ġar ms
Ġsy mb
Ġg ar
at ures
Ġapp oint
ĠD an
Ġfam ous
Ġfor ms
Ġf ol
Ġp il
Ġun iversity
Ġt ight
p ire
Ġpresent ed
idd en
ĠC amp
Ġear n
ĠE gypt
** **
Ġconv ention
en ced
ort ion
Ġsurpr ise
Ġatt orney
Ġelect ions
Ġestim ated
ov ing
Ġf if
ĠP ublic
an o
ĠP ut
Ġte en
Ġveh icles
i ot
Ġint ended
ĠB ur
ĠAm azon
rib le
ain e
.âĢĿ <|
Ġhelp s
Ġoccur red
Ġinst it
Ġstre ets
Ġo dd
ĠA ri
Ġ= >
ĠB oston
3 1
Ġr id
Ġdeter mine
Ġexper t
Ġsp ort
ress ive
ĠBit coin
J ust
Ġbro ken
Ġcons ult
Ġgu aran
Ġf ired
d en
p erson
Ġfl ow
Ġdom in
= "
Ġt on
Ġsh all
Ġtro ops
por ary
t op
ĠTh ose
ĠM ur
ro ad
o ch
L et
Ġpie ces
ust er
ter day
Ġprep ared
âĢĶ âĢĶ
ĠCh ief
O f
u zz
ur ation
Ġrap id
Ġloc ated
le ts
u nder
Ġp et
Ġn ar
ĠC ath
all s
Ġcon clus
Ġbring ing
ĠS ol
ĠSoc ial
Ġb aby
Ġpro ve
Ġspecific ally
ed er
Ġpot entially
4 6
Ġse ctor
Ġhy p
Ġse lling
Ġgovern ments
ĠO nce
Ġj ail
ĠS T
ĠG al
ĠM ass
Ġequ al
Ġr andom
w ar
ĠAn y
Ġf aster
Ġhe av
or age
ĠJ o
Ġbo ost
C A
Ġsc r
h and
Ġpropos al
Ġfact ors
i as
Ġpl enty
Ġcl in
Ġequip ment
in te
Ġcoun cil
anc he
I V
Ġer a
Ġinf rastructure
Ġst ress
Ġst ars
ĠVirgin ia
ĠJ ournal
end ment
Ġvot ed
Ġpro secut
ph as
Ġoff ering
Ġb reat
use um
Ġexpress ed
Ġcar bon
ĠS pr
ĠA N
Ġbro ke
Ġcomb at
k a
Ġvul ner
ĠPar is
Ġcl ot
Ġrul ing
Ġref used
ĠF ederal
Ġelect ed
Ġret ail
ve y
cl ass
I M
ure au
Ġse asons
Ġdr am
Ġconduct ed
ĠGu ard
Ġsec ure
in ent
ĠR ub
Ġchalleng es
ĠV e
ĠR iver
ot y
Ġmethod s
Ġpoint ed
Ġrem ained
Ġweap on
ĠAustral ian
ĠIs land
n oon
E very
Ġrem ove
Ġpr ime
Ġm aster
Ġpos itions
Ġ3 6
Ġinf ect
ce an
Ġtr ig
ri e
ĠP lease
ĠMed ic
, '
Ġd in
ĠC ru
is her
Ġs ale
i pping
Ġcult ural
Ġwere n
Ġsignificant ly
( )
our s
Ġorig inally
Ġb row
ol ved
ĠD uring
ock ing
ĠO pen
Ġaffect ed
Ġappear ance
Ġst ret
Ġfac ing
Ġgreat est
Ġt ourn
Ġfin ish
Ġyou th
D o
Ġpercent age
ĠLe e
Ġdetermin ed
Ġsign s
Ġinvol ve
ĠWh o
Ġc as
F irst
Ġthan k
Ġb ought
I P
ĠPh oto
Ġchem ical
U p
ĠS ant
Ġ5 00
ĠM el
Ġsh ape
Ġreg ime
stand ing
Ġg rew
Ã ¡
th at
Ġte le
Ġrem aining
ĠF e
ash ion
ĠC ur
t ion
Ġind eed
p ired
ĠSte ve
Ġmin imum
g l
ĠS aud
ĠS ing
et ic
Ġv ir
Ġd ream
on om
ĠB oth
ly mp
S ince
Ġher self
Ġvot ing
Ġmod e
Ġm arg
Ġobv iously
Ġredu ced
ĠFor ce
Ġrecord ed
Ġarg ued
Ġ199 0
Ġre venue
ĠCol or
A b
Ġwe aring
Ġt act
re ens
ro g
Ġlead s
ĠI N
Ġpolit icians
Ġw ood
ri er
Ġpl us
Ġcont rast
Ġpurch ase
Ġh un
ce l
al ing
Ġs witch
igh ters
ord in
C L
Ġcon cent
Ġth r
Ġag ent
Ġpro ced
N e
Ġappre ci
I ON
ĠWill iams
Ġexperien ced
Ġexc ited
Ġhand le
ly n
Ġh urt
Ġhttp s
Ġvide os
Ġsupport ing
ĠN ov
D P
coh ol
Ġsurpr ising
g ment
Ġmin ute
in i
s en
Ġident ify
Ġconsum ers
Ġbel ong
Ġcons idering
Ġexpl os
h t
ĠR em
Ġair craft
Ġpull ed
Ġdiffere nces
Ġbas ically
Ġa id
ĠR o
ĠH aw
ĠCons erv
Ġre nt
Ġafter noon
ow nt
Ġgl ass
Ġend s
Ġt urning
Ġsh ift
ĠP ac
Ġb ound
Ġfil ms
EN T
Ġpros pect
Ġdep art
ed s
ess ions
ĠF ree
ru ption
Ġsp ring
ĠB ook
Ġtre ated
Ġacc ident
ĠChar l
Ġlist en
Ġm ort
Ġse at
S te
Ġcomb ined
og ue
Ġser iously
Ġpriv acy
Ġmot iv
Ġeven ing
Ġopportun ities
Ġconst ruct
, [
ap ter
Ġstrugg le
0 1
O W
Ġlot s
Ġpan el
Ġenem y
Ġcomple ted
Ġ19 5
Ġtalk ed
Ġvis ual
Ġhop es
he red
Ġpass ing
ll er
ĠD aily
c ol
Ġapp s
H is
od d
pt ed
os ite
Ġi Ph
Ġwide ly
> >
ĠP ower
Ġemer gency
app ing
y r
Ġcal cul
ĠSte p
Ġsu it
An other
Ġe lement
ed ia
T H
Ġp owers
ens ions
ĠR ad
l ife
ĠB BC
Ġpl ants
Ġdisc l
ĠO lymp
Ġb urn
ĠSh ow
Ġliber al
Ġfl at
Ġsub s
Ġopp osed
or al
Ġ id
k et
Ġpro ceed
Ġcopy right
Ġadv ance
Ġ200 3
ar p
Ġfact or
ĠSp ace
Ġdist ance
ive red
Ġattempt s
Ġdis miss
u ous
al ed
Ġa st
ok ing
ang ed
ĠPro ject
ĠR el
om pl
h ab
Ġtrou ble
ra ud
Ġcoll abor
Ġenc oun
Ġz one
ĠH ol
pl om
W ell
ribut ed
Ġt un
ĠJack son
ab ilities
Ġup gr
Ġrep orters
uc ks
ĠR oad
Ġre action
0 5
Ġwrit es
Ġfr ust
Ġdef ault
Ġst orm
ra wn
m osp
as p
Ġtyp ically
Ġh ol
ĠT oday
Ġp ages
Ġinst ruct
ain ts
Ġref erence
Ġb odies
Ġpack age
Ġmat ters
resp ond
ob e
id el
ut s
Ġden ied
ĠM em
Ġdisapp oint
er ved
I G
Ġqu ant
Ġexpl o
p et
P e
Ġqu iet
l ines
Ġent ertain
Ġrespond ed
m ond
Ġopt im
Ġappro ved
ĠN AS
ĠTur key
Ġbroad cast
Ġsat isf
Ġinstit utions
Ġstand s
st s
Ġset s
Ġad vert
ĠDirect or
Ġdis s
tern al
y th
un ction
ap ed
es ters
P D
Ġel imin
ĠG et
Ġre new
ne ll
ĠOh io
Ġse vere
Ġcap able
Ġ200 1
ĠWill iam
Ġval id
Ġspl it
Ġcapt ion
Ġp itch
is ters
c are
Ġl oved
ad ow
ĠP enn
Ġtechn ical
Ġs ac
Ġg iant
Ġse m
f ree
est ival
Ġcl oud
I nd
Ġtrad ition
raz y
Ġ //
Ġconf ident
Ġconf idence
Ġnum erous
m m
Ġreported ly
Ġfac es
Ġcan n
ĠM att
et te
Ġm al
Ġb ull
Ġtrans ition
ĠAfghan istan
Ġwe ather
Ġcre ation
Ġwas te
ab in
Ġpers pective
Ġun able
ĠLab our
ed d
ani el
Ġfor get
." <|
ĠY et
Ġf ly
4 2
ĠSy stem
Ġco oper
Ġsuff ered
Ġsubst ant
un te
as tern
Ġviol ent
Ġco ast
em ploy
Ġc raft
Ġexperien ces
Ġpict ures
] ,
ell y
Ġrou te
Ġappro x
Ġadv ice
amp ion
Ġdecl ared
ang ers
ĠS qu
ĠMed ia
ĠAnd rew
Ġord ered
Ġcr imes
Ġp roud
Ġfl ag
h ost
Ġreport ing
S p
Ġmess ages
Ġm and
Ġco ff
ĠH uman
w ater
raz il
Ġfind ings
Ġcircum st
w rit
Ġdecl ined
Ġex cell
Ġexpl ains
T V
Ġev al
Ġdel ay
p ass
A m
Ġnewsp aper
Ġshould n
ĠF ollow
Ġconnect ed
ul ations
Ġon going
is hes
ound ed
Ġmov ies
L E
Ġpick ed
ab led
ĠW al
us iness
Ġad mitted
il ty
du le
Ġdel ivered
res ents
Ġgun s
9 5
D uring
r ant
Ġv an
ĠL in
Ġwalk ing
Ġag ents
ev in
ion ally
Ġthough ts
Ġmar ried
Ġpr in
z er
Ġedit or
ĠSc ot
c alled
Ġem ails
Ġappropri ate
ĠM L
6 4
Ġem phas
x ual
ok en
Ġg ra
Ġarch itect
Ġle aves
ov es
Ġupd ates
Ġacc ompl
R ep
at o
Ġed ge
Ġa uth
Ġg ather
ĠMuslim s
u ations
il it
Ġquarter back
Ġfor g
Ġs ession
Ġinj ured
ans as
Ġpo ol
Ġpublic ly
Ġ \
Ġstate ments
P R
ĠGr and
ĠS cience
Ġper man
ac he
Ġour selves
r id
ĠS ov
Ġconf irm
Ġreal ize
Ġleg it
Ġdri vers
ĠM a
6 5
ĠL ake
A pp
Ġar med
ĠW ood
ĠTe chn
O ver
it a
U T
, âĢĻ
Ġlawy er
Ġread ers
o oth
ner gy
Ġro t
O ther
S S
m ates
ĠT ra
Ġr ail
re land
Ġd ial
ell ow
ess or
Ġarg ue
Ġcont ains
Ġf illed
Ġtal ent
our ney
Ġalleg ations
Ġactiv ists
ĠChrist mas
Ġ198 0
ĠMich igan
Ġs ad
Ġbuild ings
Ġd ynam
ĠD ou
Ġcr ack
Ġwe ar
Ġtrans form
Ġterror ist
Ġexerc ise
Ġeffect ively
Ġpract ices
M any
Ġlab el
T ube
Ġt ree
c os
ĠRe ad
ĠR on
Ġsub sequ
ĠRe v
Ġexam ples
Ġcritic ism
Ġpat ient
Ġf ish
Ġsh op
ĠB ack
Ġobject s
ĠSe attle
Ġsecret ary
Ġfl o
ĠA T
ent ure
Ġmiss ed
ĠJ ul
ĠSe e
Ġca uses
ĠI ll
Ġdeb ut
Ġess entially
ĠS um
Ġr ain
Ġmor al
Ġte ch
ĠUkrain e
ĠS her
Ġcent re
end a
ĠA v
ord ers
Ġinj uries
as ure
ar ters
ĠiPh one
ĠV ict
Ġart ist
Ġth inks
l ong
-------- --------
ĠW ork
F ollow
g ia
Ġmot or
Ġb ond
ĠSt an
4 1
ic ing
c ons
Ġcl ient
Ġs am
ĠSaud i
Ġfact s
c an
ĠR od
Ġdes ire
Ġp ure
Ġlink ed
4 3
Al though
Ġgovern or
ĠT O
O h
Ġmaterial s
Ġperform ed
ou ston
Ġfr anch
ĠPh ot
Ġinit ially
ĠG en
Ġphilos oph
or ry
Ġnecess arily
ĠI D
Ġs ke
Ġsu c
Ġhe ll
ag ers
Ġexp ansion
Ġschedul ed
Ġwar ned
Ġadv anced
Ġexpl an
Ġevery body
Ġdi plom
Ġj oint
Ġres olution
Ġincre ases
ĠS ign
Ġaccept ed
Ġdec re
C ont
Ġvar i
ul s
es ome
Ġfac ed
Ġmy ster
d ate
Ġannounce ment
Ġfollow s
or se
ill y
Ġinc or
Ġn ations
Ġb are
ac ter
Ġplay off
ill ance
Ð ¾
Ġne ither
D e
Ġab andon
Ġath let
Ġyes terday
Ġrad ical
Ġnear by
en ger
Ġdist ribution
ĠM ount
ĠSec ond
Y es
Ġappl ied
Ġdat ab
ĠG M
Ġmag azine
Ġconsequ ences
Ġ ing
Ġlist ed
ar l
ĠB at
Ġdo ctor
d ef
Ġsurpr ised
Ġat mosp
Ġoff ense
ĠCol umb
ĠL ife
M ost
az a
Ĥ ¬
ad or
ĠC NN
Ġbeg ins
ĠF er
am in
Ġthreat s
Ġsp ons
Ġrep resents
Ġm ir
ĠJew s
ĠWe ek
ĠF ar
I I
Ġfor t
w ord
ir ty
Americ an
Ġmov es
it ors
Ġen h
Ġrem ark
Ġsong s
Ġbehav i
Ġadd s
Ġr ide
g ent
semb ly
Ġimpro ved
Ġwith d
ĠA ff
Ġal cohol
ath an
Ġfl ood
Ġwar m
ĠB et
ĠDe velop
Ġout put
ot ic
Ġsh ots
w hel
Ġst ood
Ġp ra
Ġbr ings
ed y
r um
Ġpus hed
b ur
Ġp hen
i at
Ġf ill
Ġgu ilty
Ġb ot
Ġsub scrib
ĠRom ney
R es
Ġent ry
Ġdem ocracy
Ġboy s
ĠB razil
ĠH y
ĠBl ue
ĠSw ed
ĠN BA
ocrat ic
M A
Ġlaws uit
ĠH en
ĠI reland
Ġmanufact ure
Ġrece iving
Ġal t
Ġro w
i est
Ġconf ig
ĠBar ack
Ġtot ally
Ġdiscuss ed
Ġs ought
Ġa f
Ġr ising
Ġent ered
Ġrestaur ant
ĠK im
ĠIS IS
ĠOn ly
Ġ3 3
Ġ3 8
Ġconsist ent
Ġhistor ical
ĠBo ard
Ġre in
Ġt rib
The n
t witter
Ġst orage
Ġcor respond
Ġplan e
Ġ3 00
Ġcomb ination
om in
Ġsc ored
r ich
ac le
Ġbr ight
Ġsuc ceed
Ġinvest ors
Ġsymb ol
Ġ200 2
Ġart icles
ĠR E
Ġcreat ive
st ood
Ġin put
Ġis land
T A
Ġbut ton
S pe
Ġsqu are
Ġdeath s
Ġnet works
Ġclass es
Ġfun ctions
Ġunlike ly
Ġhead s
Ġn ative
Ġb oss
Ġrough ly
ĠV ol
Ġconsum er
Ġ3 7
al ty
f ortunately
ĠDe v
Ġl ie
Ġheav ily
ĠMay be
Ġfair ly
ĠP rem
Ġtemper ature
l aw
ĠAn other
ird s
Ġexist ence
ĠW alk
ĠAs ia
Ġsa v
Ġcont est
Ġres ident
Ġtarg ets
k ay
Ġpl ot
Ġstr ing
ĠIt s
ĠM s
iss ions
ĠG ar
ic ian
ĠKore an
C an
Ġk it
ĠW he
Ġyoung er
pt y
Ġres c
Ġcolle agues
ic ious
ĠC ub
Ġl ock
us al
Ġl ibrary
ĠL ib
Ġr ally
Ġpar liament
Ġprot ests
Ġany where
ri p
ide o
Ġbre aking
ĠB ob
Ġb ike
Ġstore s
Ġexpress ion
z ona
Ġimport ance
Ġwar ning
Ġdef ined
Ġbu ying
Ġgr ab
Ġbl ow
Ġman age
ok ed
Ġch ain
ĠS ports
Ġch art
Ġadult s
Ġpro hib
ard en
Ġsy m
Ġclass ic
ĠE ach
Ġmarket ing
Ġill ust
ĠSt r
Ġc ere
Ġl inks
Ġsh if
' ,
Ġs now
Ġf raud
Ġfac ility
ic an
ĠCl ub
S ee
Ġhard ware
Ġto w
Ġalleged ly
Ġregul ations
m es
Ġsch ol
Ġdo ctors
g reg
ĠH ist
Ġhouse hold
Ġcur rency
ĠColor ado
Ġrepl aced
Ġess ential
Ġ4 8
and al
olly wood
Ġsome what
Ġprom ise
Ġfav our
Ġb on
ĠS ky
Ġl augh
p ret
ĠR ights
ER S
Ġhold s
du c
Ġopp osite
T e
Ġmom ents
iqu es
Ġopp onent
b orn
on na
Ġcamp us
Ġact s
ĠD iv
ĠB oy
Ġh at
Ġvers ions
Ġbu g
Ġmot ion
Ġev olution
Ġn av
omet imes
Ġv ice
Ġse es
Ġmet al
Ġrele vant
Ġr um
Ġindust rial
etro it
Ġclose ly
Ġz ero
ter ing
Ġemot ional
an ish
ĠEx p
Ġs ick
Ġfew er
ĠYou Tube
Ġdiv ision
ĠY ear
O D
Ġb ag
Ġhard er
ĠIm age
Ġhop ing
Ġcustom er
Ġd ownt
P U
p ower
Ġref ere
ĠD C
ĠVal ley
Ġad m
het ic
ĠBro ok
w est
ĠH ouston
Don ald
Ġreturn s
T S
Ġh ur
Ġvol unte
A dd
Ġparticip ants
hip s
ag an
Ġext ent
Ġto m
al a
ĠR am
Ġint ention
u y
ol ve
ĠAn n
Ġexcell ent
Ġacknow led
ĠSov iet
d is
0 8
P ol
er ves
Ġcircumst ances
Ġsqu ad
Ġf ashion
l lect
Ġsuff ering
Ġimmedi ate
Ġis ol
ĠG ames
ate ll
ĠE lect
Ġauth ors
ĠE ric
Ġl ies
ock et
om ing
op y
Ġt iny
Ġg rown
ul ous
al ian
ĠG ra
Ġbat t
Ġimm igrants
Ġkind s
ĠW atch
it tle
g ame
Ġche ap
Ġdetail ed
ch o
Ġm ine
Ġsy n
Ġfeat ured
olog ist
Ġcompet itive
Ġun us
Ġdescrib e
Ġfor med
Ġme at
Ġcarry ing
Q u
ĠD ie
Ġtourn ament
Ġrelationship s
r ac
in em
Ġtr ick
Ġfundament al
cer tain
Ġcy cle
Ġsign ing
Ġw ave
Ġc razy
Ġter min
ord an
ĠM ot
Ġgu ide
Ġear ned
Ġdec line
ef ully
Ġ4 9
Ġw ins
ĠCath olic
Ġreg ional
ut ch
is ms
Ġem br
ĠH ome
ĠPalestin ian
Ġstr ange
ay ers
om a
ĠJes us
Ġfrequ ently
ens us
Ġan cient
ĠI P
Ġact ing
ĠW ik
Ġeff icient
Ġob serv
Ġman ner
ĠPut in
Ġpus hing
Ġcomfort able
ĠW ay
ĠC IA
ot al
Ġsh aring
Ġp ip
Ġown ed
f riend
Ġsk ill
ĠE conom
ĠS ar
st yle
Ġcommit ment
Ġalong side
g as
Ġw ire
pr int
Ġinst ru
ĠDav is
Ġrefer red
Ġcontrovers ial
Ġart ists
u ated
ĠH el
Ġrepeated ly
rom e
ĠL ord
en a
ĠC ard
Ġm outh
n ame
Ġe gg
Ġattempt ed
r ison
Ġc art
c hen
ĠL ong
ĠE ll
Ġupd ated
Ġfem in
we ight
Ġpre gn
c hers
Ġsche dule
O b
ĠO F
ob b
Ġded icated
Ġsent ence
M an
Ġ3 4
oc key
Ġc ert
Ġup coming
n am
Ġdep th
Ġcol umn
Ġpl ed
ig er
n ic
Ġj ourney
Ġstru ck
m l
Ġreal ized
Ġstud io
0 6
Ġvirt ual
u able
Des pite
Ġdes k
Ġser ving
ĠO ld
Ġwalk ed
ĠD own
ĠE nergy
Ġmed ic
% )
Ġrep ut
ce ived
es c
ĠT op
F A
Ġk ing
Ġtarget ed
ĠChar les
Ġur ban
ĠP S
Ġass ets
iam i
Ġr ing
Ġins pired
ĠA ut
Ġch annel
ĠAri zona
Ġnews let
ĠN Y
Ġag enda
Ġhot el
Ġun iverse
Ġpost s
lud ing
Ġt ort
Ġca using
Ġwat ched
Ġsu icide
ograph ic
Ġover whel
Ġsurve illance
p an
Ġus ual
ad el
am ily
G et
Ġchair man
Ġopp onents
Ġs ister
Ġint ent
Ġstre am
ĠSu pp
Ġmain stream
Ġlat ter
ĠCru z
ĠW ild
ĠE r
ĠW ars
O RE
Ġsurround ing
Ġl iqu
L ike
h us
an es
Ġknow ing
Ġord ers
Ġfol ks
f oot
ĠC y
ĠC le
iven ess
Ġobser ved
Ġliter ally
ĠAg ain
Pe ople
Ġh all
Ġrem ote
F P
T wo
Ġsubs id
ĠDef ense
Ġappro val
ĠJ ava
u gh
Ġteac hers
ĠR ight
Ġbas ket
ke l
ĠA L
ph y
im ents
Ġexc iting
Ġwin ter
ici ency
g or
so le
Ġd u
Ġs and
Ġprotect ed
r ations
Ġnot iced
Ġcon gress
Ġdeal ing
ri ve
0 7
Ġprec ise
Ġform at
ar n
ĠM en
Ġdeep ly
ren ce
Ġcommunic ation
E n
i pl
Ġsim pl
Ġs ending
Ġ7 5
or a
ĠJ r
ĠCh ild
Ġfor th
um ber
Ġbat tery
ĠYou ng
Ġas ide
0 9
Ġg ang
Ġrequire ments
Ġfix ed
Ġn arr
x y
D S
Ġf asc
v in
Ġproper ties
av or
ay lor
Ġw al
Ġal ive
Ġnar row
Ġw ake
aw a
Ġe ating
Ġpass ion
y ou
Ġmist ake
Ġexpl ore
Ġcoff ee
Ġsk y
Ġ197 0
ens ity
ab is
r ors
Ġra pe
onym ous
Ġprom ised
az i
Ġvol ume
Ġris ks
Ġd iet
ĠL u
ĠT al
all as
P er
Ġex hib
Ġinvol ving
Ġw age
ĠV an
Ġtest ed
Ġswe et
Ġn orthern
Ġdefe at
Ġse lection
Ġre ward
Ġwel come
ing u
Ġext ended
Ġterrit ory
Ġput s
Ġrefuge es
Ġun employ
Ġphen omen
Ġne ut
Ġapprox imately
Ġhe ight
Ġs ample
Ġun p
w oman
Ġbl ame
ĠEn ter
ĠK evin
7 7
6 6
ĠF ort
ĠPol it
Ġany way
v a
Ġdestroy ed
ĠAr ch
Ġfl u
ĠD etroit
ĠD i
w art
Ġimp ressive
ĠStep hen
Ġpro of
Ġg ap
az e
Ġloc ations
Ġun known
ĠBr ad
Ġcr ash
Ġattack ed
Ġd ry
Ġselect ed
b el
as ks
Ġmax imum
ĠM iller
ĠWil son
Ġw est
Ġprom ote
ĠP an
ĠW at
Ġmere ly
ap se
Ġfranch ise
al le
Ġrequ ests
ack ing
Ġshe l
ger y
Ġret ire
Ġsudden ly
I R
Ġg od
Ġslow ly
Ġprot esters
ult ure
Ġdis ag
Ġteac her
Ġtyp ical
et her
âĢĻ .
ĠM ax
ĠW omen
Ġch ose
8 8
Ġsh o
Ġcon ver
Ġmat ches
Ġproper ly
Ġlic ense
O C
Ġass ume
M ay
ang es
Ġdisc over
se x
ĠC amer
ĠT it
Ġwor ried
b ar
ĠCl ass
Ġab ortion
m un
Ġall ies
Ġw id
Ġterror ism
Ġsupport s
Ġmod er
b urg
or ation
Ġarg uments
i xt
ver ty
Ġthem e
Ġob lig
Ġfac ilities
og an
Ġconf ront
Ġsust ain
Ġrecogn ize
ow ered
Ġad apt
0 4
ĠIn s
ĠF il
Ġe ast
ob ile
b oy
p ost
Ġequ ival
g ender
Ġobtain ed
uild ing
ar ry
Ġpo verty
Ġf uck
ac c
ĠIt aly
Ġnom ine
Ġde als
Ġfe es
a ire
ig ure
Ġcontro lled
Ġunder stood
um s
Ġtop ic
ins on
ĠM ic
as er
Ġcrit ics
ĠH ollywood
st one
ĠSoc iety
ĠAg ency
0 2
Ġvill age
ĠJer sey
it arian
ĠF ord
Ġso le
l ies
ĠAd minist
R el
Ġdi agn
Ġr ub
Ġlik es
ĠB est
Ġpun ish
l v
0 3
ĠGeor gia
ax y
Ġb unch
Ġd ress
Ġev il
Ġjournal ists
ĠComp any
Ġexp osed
Ġreg ions
Ġcommunic ations
Ġsche me
ra id
ĠF our
Ġlim its
Ġsome how
Ġtrans p
S e
Ġstrong ly
iz z
c ers
Ġst im
ĠCar l
Ġresist ance
Ġp al
Ġhon or
F r
ar ity
ce ler
ĠD am
Ġch ampion
ĠNAS A
Ġph ase
ĠL abor
i ro
Ġdr ag
Ġperson ally
Ġconst ant
Ġesc ape
Ġtr uck
Ġprof it
Ġcond em
f ire
st r
Ġp ed
ĠP R
rim ination
ĠN HL
ast s
Ġfall ing
st ers
Ġdec k
l ist
Ġb id
nes ota
Ġvac c
Ġsome where
Ġhar ass
Ġemploy ee
red it
Ġbe ar
Ġcompar ison
c ript
ĠNet work
Ġpoll s
ĠSt and
ci ples
GB T
os is
ĠN ight
Ġs outhern
Ġem issions
ĠSp anish
Ġencour age
Ġdec ent
ll s
ĠM iami
Ġin qu
ig g
Ġdefin ition
Ġh its
Ġem pty
p ool
Ġdirect ed
pect ed
ĠD un
ĠC D
Ġmeet ings
ĠL ove
Ġwin ner
oc ation
Ġgot ten
Ġcomp rom
ĠV iew
ort ed
Ġf lex
J ohn
ĠD aniel
Ġelectric ity
O r
d ro
z ens
Ġoffic ially
end ers
Ġch osen
c ow
Ġp ic
ĠDes pite
ĠTur k
Ġstret ch
Ġdatab ase
ĠL and
Ġstrong er
Ġben ch
5 9
int end
Ġinte llect
Ġpurp oses
u a
Ġcut ting
au g
ĠD NA
Ã Ń
Ġ3 9
or ic
Ġamount s
Ġext ensive
Ġde leg
al o
Ġsp in
Ġtre es
Ġan x
ĠB ell
ow a
Ġdes per
Ġf old
ĠAs ian
Ġfif th
Ġide al
r ary
V ER
ick en
ĠT urn
ost er
ĠC am
Ġth read
if orm
Ġgood s
Ġdevelop er
Ġclaim ing
ig ation
ĠE nd
te en
Ġre tain
Ġcapt ured
Ġfind s
Ġcol on
Ġdri ven
ĠTh ough
Ġpay ments
Ġt ies
ĠJ ordan
Ġreason able
ĠK n
Ġsome body
Ġend ing
Ġdog s
Ġs oul
ĠN ations
Ġcho ices
ret t
Ġse ats
ĠServ ices
Ġeng age
Ġd rawn
ĠO k
Ġinc l
ĠTh ank
Ġs ight
Ġthreat ened
Ġrul ed
6 8
ĠAtt orney
Ġb le
un ning
Ġprim arily
Ġtrad ing
ĠIr ish
Ī Ĵ
p es
Ġaspect s
Ġf ighters
Ġansw ers
ad s
Ġperfect ly
Ġpar am
Ġpark ing
Ġreject ed
An y
Ġr ival
ir ms
ĠAc adem
Ġconst antly
at i
ĠSe a
Ġpay ment
Ġdist inct
Ġtechn ologies
ep ing
in er
Ġf lying
N C
as ters
a o
Ġcomp onents
ow ed
ĠScot land
Ġelse where
Ġad mit
Ġany more
Ġestim ates
Ġfield s
Ġsol utions
Ġresult ing
Ġr ig
p o
Ġprov ince
Ġaw esome
Ġreg ularly
Ġworld wide
Ġ icon
Ġconst it
Ġact or
Ġcour ts
ĠG all
Ġnarr ative
ĠMo ore
Ġenem ies
ĠH un
Ġmix ed
Pol ice
ĠD ar
Ġhous es
Ġp od
Ġno body
ĠDis ney
O nce
reg on
ĠRe al
Ġcontrol s
ĠU t
w an
Ġlet ters
f ast
Ġt ur
Ġb oot
se a
Ġout come
6 7
Ġmay or
i i
ĠC ast
ĠD ark
in ations
Ġm urd
ĠB ru
m o
ĠW ater
ĠO S
Ġcon tem
Ġap artment
a un
ĠIn f
Ġcoal ition
Ġcontribut ed
ĠC at
Ġ4 2
k o
ld er
ĠSte ven
Ġconclud ed
ĠB rian
Ġex ists
Ġfound er
ic er
Ġatmosp here
< /
Ġsit uations
Ġprof ile
Ġt ank
ĠCh ampionship
Ġbre w
Ġlo an
ĠAd am
Ġincred ible
ĠConst itution
Ġaccur ate
ag ram
ĠA uthor
Ġemploy ment
ĠM S
s hip
ĠVict or
Ġsign al
Ġcl ients
ĠW here
ĠS outhern
Ġkeep s
Ġcontin uing
Ġinform ed
ĠL ew
." [
Ġbase ball
00 00
Ð µ
Ġt aste
Ġtick et
ĠL ight
r ates
Ã ³
ear ing
Ġwe ird
Ġcon ven
ot ten
Ġ5 5
Ġgener ate
Ġcateg ory
il arly
Ġrout ine
ap es
Ġt ied
Ġang ry
Ġra ising
ĠR og
Ġmach ines
Ġregist ered
Al so
is an
Ġdem ands
Ġpro ved
adel ph
Ġincred ibly
ĠC ivil
Ġg aming
Ġcru cial
Ġst uck
ĠIt alian
ĠT em
ĠD allas
Ġter rible
Ġfeed back
ĠOr gan
Ġnew ly
ĠB as
in ity
Ġpl astic
Ġu pper
Ġconsum ption
Ġest ate
ĠJose ph
Ġdo zen
se ll
Ġbill s
Ġent hus
Ġcons cious
Ġk il
Ġinn oc
ĠSp ain
Ġwrit ers
ï ¿
Ġaggress ive
Ġex cess
ĠI d
the re
Ġman ip
Ġim per
Ġrep orter
ack ed
ĠT w
Ġret urning
Ġprogram ming
Ġcomp ens
Ġst ead
Ġconclus ion
Ġrepresent ed
ot es
ĠTh anks
Ġassist ant
ĠB owl
ĠS C
ol t
Ġro ster
8 5
Ġorgan ized
ĠMin nesota
ian a
Ġpen alty
Ġorig in
Ġdrink ing
r age
adelph ia
ific ations
T oday
Ġr us
im p
ĠC ross
Ġs atell
Ġpain t
Ġcapt ure
Ġexplan ation
ĠPro gram
Ġcount y
Ġcons pir
ĠCon f
Ġinter pret
isc al
v y
C om
Ġassist ance
Ġcompl aint
ons in
ind ing
M L
ess ed
isc onsin
Ġgr anted
on ic
ĠRom an
Ġmag ic
Ġg ro
ĠPar liament
gor ith
Ġt all
Ġcompl icated
B ecause
ĠCont in
Ġch ances
if er
Ġaud io
Ġ %
ĠO per
3 00
Ġn ut
Ġ199 9
Ġext ract
Ġsh ares
Ġsuccess fully
m od
ep t
ĠE duc
r as
Ġ6 5
l ock
Ġpil ot
S ec
Ġr u
Ġtechn iques
Ġrec overy
Ġscen es
ĠZ eal
Ġveter an
Ġmy th
Ġdeg rees
Ġhe l
ann y
Ġ iron
Ġlaw makers
Ġsym pt
Ġ( $
Ġoper ate
Ġw estern
ĠC are
Ġaim ed
ar on
es y
em en
l ers
Ġad s
E W
re p
Ġph r
ĠI T
Ġha bit
re te
C S
Ġeng aged
id ency
m ont
anche ster
ĠA R
act ions
r ating
ur a
of t
Ġr ating
Ġteach ing
Ġacadem ic
Ġpriv ile
Ġpass es
Ġthe rap
Ġautom atically
Ġdoll ar
! <|
ĠG i
ĠPac ific
Ġatt ended
Ġbl ocks
C E
Ġsurv ive
Ġmon it
Ġperman ent
ĠFore ign
Ġmark ed
Ġant icip
ab ama
ĠS k
Ġh idden
Ġtit les
Ġext rem
Ġt aught
ĠH ot
ĠSen ator
ĠT est
ĠN BC
ĠL ook
Ġacc omp
Ġch at
Ġen able
the w
Ġb om
it als
k ed
Ġel ite
ever al
Ġdep ending
Ġlawy ers
Ġval uable
Ġch ampionship
Ġinst alled
ĠW in
ĠLin ux
ib ilities
Ġind ex
Ġdownt own
Ġequival ent
ĠE p
Ġsol ve
Ġcomp re
Ġd uty
ĠO s
Ġp ace
Ġover se
Ġro ot
ï¿ ½
Ġreput ation
Ġun certain
Ġph ones
ĠSpe cial
ri a
ĠF re
Ġperson nel
ĠB usiness
Ġvis ited
Ġwar ming
Ġsuff icient
ĠT aylor
8 6
Ġprin ciples
Ġvulner able
Ġenjoy ed
atur ally
r ific
ĠB ull
Ġnegoti ations
Ġexp osure
u ine
Ġadv is
Ġgener ated
Ġrec ording
st ar
Ġf ake
Ġregard less
Ġcollect ed
Ġ6 4
ch ain
l s
ĠK elly
Ġpattern s
ĠN ick
Ġbit coin
G etty
Ð °
Ġd ict
% .
Ġe lev
ĠA venue
Ġdis aster
it ar
19 9
Ġmain ly
Ġc up
Ġc able
Ġwork er
Ġrac ial
Ġp ounds
rap h
Ġport ion
ĠJ osh
Ġaf raid
ĠCo ast
re ams
ĠT ake
qu arters
Ġdef ence
Ġp in
ĠE astern
ĠV iet
Ġint ense
Ġtrack s
Ġbus y
he nt
ĠSer ies
5 7
ĠT ony
ĠAn th
Ġins pir
s m
mon th
a ed
Ġsur gery
ĠL GBT
k er
Ġfun ny
O ff
Ġposs ession
ĠMos cow
Ġap olog
ĠSt ill
Ġprom inent
Ã ¼
Ġcom ic
Ġengine ering
Ġth in
M P
Ġsh it
Ġtrou b
Ġprocess es
ĠN ation
act ive
Ġunus ual
Ã ¶
ĠK urd
ĠC ome
Ġdescrib es
Ġent it
ĠC all
D r
ĠM ars
Ġresult ed
Ġ âĢĻ
Ġemer ged
as hes
ĠK ent
Ġtax p
et ary
e z
ĠI owa
Ġcor ruption
In st
Ġst ations
ĠO regon
ĠC oll
Ġbl ind
Ġf ought
Ġco ordin
Ġadop ted
Ġext ension
Ġprop ag
ĠG er
Ġcompet e
or ne
ĠZeal and
f rom
Ġhad n
b al
Ġgr ant
Ġevery where
Ġg all
Ġbr ut
Ġb es
ĠIn vest
pr ise
Ġcontract s
ĠR ay
ath y
Ġfeel ings
Ġf irms
he rent
Ġm ail
Ġ4 00
Ġminor ity
ĠB alt
Ġd im
M ean
idel ines
Ġrare ly
Ġadvert ising
il er
ĠA h
Ġdisc ipl
ĠR ick
Ġ Î
M S
Ġsan ctions
ĠS n
th is
m al
ĠN orthern
ĠPhil adelphia
âĢĻ ,
Ġcamer as
Ġexpl icit
Ġc ited
Ġfin ance
Ġen orm
Ġshort ly
Ġstr ict
Ġexpect ations
v iously
ĠDe ad
Ġsp r
ĠBe fore
ĠPol icy
Ġimplement ation
ĠA li
ul es
u an
Ġcry pt
E d
f all
c les
up id
ic ate
Ġthous and
ĠGree k
Ġrec ip
Ġth ick
m aking
ĠA D
Ġl oud
Ġaff ili
ĠN avy
y e
Ġin ev
Ġphot ograph
Ġmed ium
f ront
or ough
if ies
sc ape
Ġscen ario
ĠW isconsin
im a
Ġne uro
Ġvis ible
Ġve get
Ġpl ug
Ġprior ity
Ġcreat es
Ġlight s
ist ent
H S
ind er
Ġbr idge
Ġper mission
ĠI nt
Ġag ric
ã Ģ
ĠF ood
Ġparticip ate
Ġal gorith
A A
Ġob st
Ġbrow ser
ant ic
il ton
Ġdo zens
ĠL ive
Ġac celer
Ġcomput ers
Ġw ing
Ġloss es
Ġbasket ball
Ġla id
Ġhistor ic
ĠKing dom
ĠF oot
er a
Ġsu p
ĠAm endment
ĠPro te
Ġstrik es
Ġprinc iple
Ġv en
iz on
Ġun w
ink ing
ĠDevelop ment
Ġt ag
ĠGl obal
Ġ4 7
Ġsc oring
az z
ĠH om
Ġcoun sel
at hered
as ion
Ġform al
Ġh o
ask a
Ġwonder ful
t es
Ġbeh alf
og ether
Ġsh ock
c us
g un
prof it
5 6
Ġestablish ment
ll a
wh o
Ġinter face
ĠHen ry
E A
al i
Ġg ained
ĠTh us
Ġun com
Ġfound ed
Ġto ler
ĠM ajor
Ġm el
Ġfound ation
Ġfe e
Ġclub s
ĠG reg
Ġ4 4
Ġcann abis
U R
L A
Ġair port
Ġb orrow
t est
Ġ15 0
Ġt or
Ġmanufact uring
ĠE SP
Ġre ly
ĠAs h
et ime
c r
ĠS af
Ġgen uine
ĠAl abama
ĠR oyal
ĠH as
ur rent
ili pp
Ġrel ief
Ġcomp onent
Ġjournal ist
Ġrid ic
re f
Ġwhe el
Ġsa ved
w orld
am ber
Ġhead ed
r ative
Ġh ole
rat ors
Ġy ield
em s
Ġindic ate
Ġf ault
Ġwithd raw
Ġg ift
ĠO ak
Ġdraw ing
Ġj u
ĠH it
Be fore
Ġsh ips
b ro
Ġun iform
Ġban ned
Ġ- >
Ġst able
ar lier
Ġfoot age
ose xual
Mean while
epend ent
ent h
man n
Ġrecogn ized
Ġdo ors
e lect
5 8
Ġcont aining
Ġmag n
ĠP ay
Ġ19 60
ĠM u
Ġstrugg ling
R ec
) )
ĠKe y
ĠR and
Ġachie ved
Ġwall s
ĠAcadem y
p read
Ġneigh b
Ġed ition
Ġr iver
Ġpl ate
Ġmove ments
Ġsp ark
L C
ĠO l
oun ced
ĠF C
port ion
Ġdeli ber
an ing
AT E
Ġsh arp
Ġrec ru
Ġepis odes
le te
ĠPrem ier
ĠTh ree
t a
ĠM oh
7 8
Ġneut ral
Ġexcept ion
Ġcy ber
Ġprodu cer
Ġdest ruction
Ġ199 8
Ġbelief s
d a
op her
Ġback ed
rou s
ĠM id
ĠH T
Ġh ired
Ġlik ed
ĠRe view
ides pread
: <|
b ell
Ġp ump
ul ating
ĠF und
Ġleg end
Ġro les
Ġlangu ages
Ġent ering
ĠS P
Ġprofess ion
et ts
Ġinterview s
ou red
ĠV is
Ġphilosoph y
ĠS now
ĠAdminist ration
Ġar range
ĠF red
Ġfl aw
m ate
u ce
Ġh ang
Th ose
Ġst adium
ĠAtlant a
5 1
Ġto x
og en
Ġredu ction
Ġdin ner
P r
sy lv
ĠTurk ish
5 2
ol is
Ġb ath
inte rest
ĠCon ference
ĠV R
Ġtack le
Ġg onna
ig en
we et
ĠRep ort
ĠDie go
ĠN ote
Ġa ver
c ription
Ġfarm ers
Ġnomine e
Ġc rop
ĠN ob
ĠM anchester
ĠCent re
ĠMc G
Ġbare ly
Ġ4 1
Ġf inger
im ore
y stem
ĠR et
Ġstruct ures
ĠA S
Ġcont ained
ĠJ ason
um er
Ġdeli very
Ġch a
Ġprocess ing
Ġdisc rimination
s he
Ġconv in
ĠJ ac
Ġinc ent
l og
% ,
bur gh
Ġsy nt
5 4
ach ing
ri ers
ĠO tt
M ar
Ġintellect ual
Ã ¤
ab s
AT O
M e
abin et
U s
ĠF air
ams ung
um in
rodu ct
Ġup set
ĠPer haps
c ar
ĠK ir
a us
C ol
ĠEduc ation
z y
ĠF ield
o en
ĠRad io
Ġchalleng ing
sylv ania
Ġrestrict ions
Ġpro ven
ĠAr m
ĠD id
Ġfore ver
ĠO K
ĠD ata
Ġelect ronic
Ġhit ting
u er
P resident
Ġreview s
ĠChrist ians
Ġconv icted
t hen
P ost
Ġill ness
ĠB ry
Ġindic ated
Ġret ired
Ġsm ooth
Ġprodu cing
l an
Ġun ex
Ġrapid ly
ĠAb out
ĠHar ry
Ġ4 6
Ġcorpor ations
Ġro se
us ive
Ġlist ening
ĠRe uters
Ġo cean
Ġtechn ique
ĠU FC
Ġ4 3
Ġe uro
Ġh ide
Ġl oyal
Ġnot ion
Ġcl imb
Ġbeg un
Ġrecogn ition
ĠP oint
ol en
ĠF ed
em an
ĠH ay
Ġassoci ation
Ġrob ot
Ġas ks
eng ers
Ġwebs ites
Ġtick ets
Ġper pet
Ġdesc ription
Ġmil k
Ġsuggest ing
==== ====
Ġut il
Ġexclus ive
ĠJud ge
Ġreach ing
ow ing
sel s
y ard
ĠL o
ĠR os
B O
g ener
aw ay
ĠK ansas
S ub
less ly
ĠR us
http s
ou ver
ay ing
4 00
Ġfl ash
Ġprep are
Ġprogress ive
ĠM ir
ach us
ĠP ack
Ġb ail
Ġb urd
Ġequ ally
Ġex ceed
Ġhard ly
is p
ĠN ic
Ġw idespread
Ġcampaign s
Ġcont ribute
ĠMay or
ĠH or
p age
Ġfr ag
Ġiniti ative
ĠA BC
Ġbr anch
Ġb ra
Ġeth nic
b a
Ġgr ass
Ġex ternal
Ġsens itive
Ġpract ical
Ġnorm ally
Ġunc lear
Ġre n
Ġrepresent ative
am i
ĠMark et
Wh o
ĠC irc
E P
Ġredu cing
Ġwe lf
Ġcare fully
ĠArab ia
Ġfriend ly
ĠS at
Ñ Ĥ
ĠR ose
Ġrac ist
Ġm o
Ġrespect ively
ĠH ard
D av
ust ed
Ġex em
U L
ud es
8 9
Ġoverwhel ming
Ġinv ent
Ġview ers
ĠMcC ain
Ġwelf are
j o
ĠF urther
ĠBern ie
Ġconvin ced
ĠF ull
Ġinvolve ment
Ġcoll apse
L ook
ĠP en
Ġsm oke
Ġth rown
5 3
Ġconnect ions
Ġterror ists
anc ouver
arr ass
ĠBe ach
enn y
f ound
Ġstrateg ic
Ġt ail
ri ent
r ical
Ġrec over
6 9
he ast
ĠLat in
Ġh ook
ĠESP N
Ġsettle ment
Ġmind s
Ġstat istics
n i
Ġl ists
um es
Ġv ary
Ġw ine
ĠL uc
ob s
C o
Ġfeat uring
Ġv ital
rat or
ĠO nt
St ar
Ġbehavi our
Ġindepend ence
ino is
f are
achus etts
ĠB attle
c ling
olog ists
igr ant
Ġfant asy
ri k
ik es
ro lled
ĠL ind
ĠMus ic
b ec
Ġdev ast
Ġcompl aints
Ġinv ited
Ġjo ining
ut ies
Ġscore s
ĠNe xt
Ġdeep er
Ġf iscal
ĠPenn sylvania
ĠR ef
R S
app y
Ġdep uty
Ġst eal
ned y
Ġan ger
i el
ĠC O
Ġel ig
omet hing
Ġinvestig ate
Ġw ars
ĠSqu are
pl oad
Ġschol ars
Ġconst itutional
Ġany body
Ġsubject s
ĠII I
Ġi OS
Ġsu gar
ec ut
ĠT enn
Ġowners hip
Ġunemploy ment
Ġframe work
8 7
ĠT own
Ġal ien
Ġtrans gender
Ġar ray
Ġc os
Ġl obby
ĠDiv ision
Ġimprove ments
Ġpe ak
Ġt asks
Ġmen u
Ġdem ocratic
Ġdef ine
Ġl uck
Ġsc reens
ĠX box
Ġin ject
Ġsc andal
ivers ary
Ġj ury
ĠG ov
ĠS ir
ĠMin istry
Ġcompre hens
Ġdisc overy
Ġcas ual
Ġcitiz en
st ract
ĠL y
es ter
Ġrem em
if est
ĠP it
um a
Ġroad s
Ġdisag ree
ĠAnt on
Ġfail ing
: :
ĠD ig
.... ....
Ġser ves
un ior
ĠAN D
c a
Ġg athered
ih ad
ĠCamer on
Ġreg ister
Ġdynam ic
Ġtest im
Ġimplement ed
Ġcontrovers y
ĠIn formation
Ġcollect ive
ĠBro ther
Ġtr ained
Ġfear s
ĠN ever
Ġguaran te
ĠN SA
Ġsam ples
Ġneigh bour
ick ing
Ġpro sec
im m
Ġf iction
ĠL ittle
Ġest imate
Ġs oph
level and
Ġf ab
ĠCommun ity
U N
Ġrefer ring
ĠMed ical
Ġ199 7
ĠS S
Ġ199 6
P M
ĠPh ilipp
l ad
Ġcap tain
ĠSt one
Ġsp aces
Ġvers us
Ġleg s
ĠWalk er
ĠSep t
Ġtem porary
ĠSant a
R ef
u per
Ġno ise
Ġcivil ians
Ġincor por
Ġvisit ors
Ġw ages
Ġt one
ion e
P G
Ġt ip
w orth
Ġrem arks
Ġt rem
Ġre ven
Ġaware ness
Ġrecomm ended
ĠU lt
Ġhyp ot
Ġhead ing
Ġhand ful
Ġst upid
Ġ 00
Ġover t
Ġreg ulation
ĠAll en
ĠI ce
od ing
Ġplatform s
c ore
h y
ĠAnth ony
ĠJ ay
Ġaff airs
c ific
Ġacc us
Ġtouch down
ĠH D
Ġattack ing
Ġr ural
Ġult imate
Ġatt ached
ou ch
Ġext end
ĠA ction
Ġdiscuss ions
Ġattempt ing
U nder
Ġexpand ed
Ġgen etic
ĠSpr ing
ĠO N
ĠVe gas
Ġr aces
ab il
ast y
ĠMat thew
Ġs in
ĠColumb ia
inc luding
Ġign ore
Ġsympt oms
it i
Ġhor se
ĠQue en
Ġsuff er
ĠGuard ian
ĠPat rick
Ġsett ings
ition ally
ph ones
Ġsal ary
Ġg ear
ĠC ore
ĠK at
Ġlic ens
el and
Ġtweet ed
ĠC ook
Ġr aw
ĠB rew
Ġro of
Ġpublic ation
Ġsuspect ed
Ġpurch ased
Ġrec all
Ġi P
Ġinter vention
Ġfact ory
os it
ick et
Ġeas tern
Ġbr ill
h our
Ġhol iday
b n
I F
ĠE s
Ġprom pt
ĠM ake
d em
Ġdis pl
Ġrank ed
ĠAust in
Ġthe at
ĠConserv ative
p at
ĠM useum
ĠP ent
Ġenorm ous
Ġne ck
W ill
Ġimprove ment
Ġview ed
Ġentertain ment
Ġlegit imate
Ġlog ic
Ġing red
ĠAP I
ir y
ĠProf essor
ĠMass achusetts
ĠB udd
Ġ201 9
Ġpres um
ĠAl bert
intend o
ict ions
Ġw ww
ĠR oy
Ab out
Ġc ogn
omm od
Ġact ors
Ġhuman ity
Ġinvol ves
Ġsubstant ial
ac on
m ary
c ase
Ġbrother s
ann a
Ġres ource
Ġseem ingly
yth on
Ġs orry
ult ural
Ġr ational
Ġlo ans
Ġinvestig ating
Ġabs ence
Ġlay er
Ġprov iders
Ġro ok
Ġfall en
Ġground s
Ġco aches
Ġtom orrow
' .
Ġb ureau
Ġliqu id
B ack
Ġadvoc ates
Ġst ake
Ġc ro
Ġres ign
Ġinvestig ators
Ġâ Ĥ¬
Ġconspir acy
Ġmedic ine
Ġdram atic
Ġf ulf
Ġch apter
are t
Ġout s
ty pe
ĠSe ason
Ġmon itor
Ġactiv ist
ĠCh air
Ġsusp ended
Ġp apers
Ġbo at
ĠGree ce
Ġmiss ile
Ġopin ions
Ġstay ed
ĠB all
Ġd iversity
re pre
ĠM ah
ĠCont rol
Ġco vers
ĠRev olution
iver pool
20 14
W here
Ġover s
Ġb ars
ar ms
Ġemb arrass
Ġoffic es
Ġcele b
Ġj ur
ĠS uch
ĠGold en
ĠIran ian
S en
Ġc oc
Ġdis rupt
Ġcare ful
ĠChe ck
Ġpre ced
we red
. -
Ġam id
ĠR oss
Ġfore st
m ad
ĠH ospital
oty pe
________ ________
ĠHist ory
ĠIll inois
ov al
ĠC BS
repre ne
ĠHe ad
ĠS ony
am med
Ġaut hent
ang el
Ġtransport ation
x it
ĠG aza
ĠV ancouver
Ġhand ed
" )
Ġj e
Rel ated
Ġconsist ently
cl aim
Ġread s
Ġg am
Ġatt itude
Ġprot ocol
R uss
Ġclot hes
Ġmount ain
ple te
ĠKen nedy
our se
Ġdep ends
re ts
Ġmin ing
v ard
ag g
Ġnot ing
i ability
Ġ5 2
Ġpet ition
ist ing
ĠF reedom
ĠW W
Ġprinc ip
Ġlow est
Ġcol ors
ĠAnd erson
Ġaddress ed
Ġwar rant
h o
Ġh am
u ction
Ġsh r
Ġp orn
ĠA cc
l ah
ĠSh are
Ġpre f
Ġcon ce
ĠF amily
ge on
Ġthrow ing
co ver
Ġent r
ĠSt adium
Ġvirt ually
Ġguaran tee
Ġspeak s
Ġrefere nd
Ġf oss
ĠBalt imore
ĠMe an
Ġf ruit
ĠP ot
ĠSt at
Ġcl osing
ĠA le
Ġst one
7 9
Ġste el
Ġread er
Ġperson ality
Ġin ner
B oth
Ġappreci ate
d it
A ss
ĠIraq i
ect ion
20 16
ĠEn vironment
Sc ript
Ġprof its
Ġhand ling
M c
Ġbu ff
7 6
h ot
un es
Ġtri es
Ġsur f
Ġmar ks
ien ces
C he
Ġcontribut ions
P C
Ġk m
Ġconvers ations
! )
Ġfant astic
Ġspirit ual
ĠEng ine
Ġcover ing
Ġcon sole
Ġg ains
Ġhor ror
Ġm os
Ġte a
it ting
Ġl ands
sen al
Ġshould er
ĠHar ris
Ġh int
ĠBro ad
" .[
Ġacc ommod
Ġg rav
R I
Ġdep ression
Ġgu est
Ġencour aged
Ġw rest
iv als
Ġjud ges
ĠLew is
Ġast ron
Ġinc idents
Ġl ucky
ĠC leveland
Ġsubsequ ent
7 2
Ġd rew
ord on
S m
Ġsp oken
ĠA p
ĠHow ard
Ġpo ly
d ri
rop ri
G O
Ġr anks
ĠH o
fl ix
sc ale
pt on
ĠG etty
Ġr het
Ġphot ograp
Ġb acter
P art
Ġinfl ation
Ġbro wn
ĠS H
ĠInte lligence
pt ions
ut ed
ann els
am ac
Ġm aps
u its
Ġ _
P lease
ĠT ri
Ġdiv ided
ĠB ang
Ġ199 5
ĠN ATO
j a
ij ing
ĠPat ri
z ed
Ġdist ributed
ĠE xt
in ch
Ġdr ama
ĠMex ican
Ġinnov ation
ed ing
ĠUn fortunately
Ġprem ium
ic ity
Ġvot er
ke ep
Ġpar alle
Ġsw ing
m aker
ab eth
Ġd ance
ĠInd eed
pp ers
Ġper mit
Ġprom ises
Ġeff iciency
Ġre vel
ĠP o
Ġc ust
ĠR a
un icip
port ed
ĠC H
Ġcl im
ĠT ro
ĠWh ich
Ġball ot
Ġtemper atures
Ġspokes person
Ġ5 1
Ġport ray
ĠC re
Ġl ying
Ġl ocked
Ġimpro ving
ĠS amsung
av al
Ġth rew
ix ed
ĠK ong
ĠC A
Ġmist akes
Ġmus ical
pl ed
Ġj oy
Ġd ump
7 4
Ġhom eless
Ġreplace ment
Ġsh out
ĠAd v
ĠWith out
Ġcom edy
Ġche cks
Ġacknowled ged
re c
ĠL as
Ġrespons es
Ġbar rel
ĠR en
Ġprotect ing
N ote
Ġinstru ment
R C
ĠB ad
Ġcop ies
Ġg al
Ġbreak s
Ġcommon ly
d ated
Ġleg acy
Ġle ts
New s
ĠPl us
Ġsil ver
Ġprote in
ĠCon nect
Ġjo ke
Ġpass engers
amac are
Ġd ad
er ted
Ġn aturally
Ġmat hem
ĠMar vel
Ġl es
Ġnom ination
Â Ĵ
Ġy ellow
Ġmeas ured
it age
Ġabandon ed
ĠB uff
ES T
ĠM oon
ĠSt art
ĠS cient
oun ce
d es
Ġstud ied
Ġd iverse
Ġre ar
H er
ĠPr ince
ĠFoot ball
ĠD et
Ġacqu ired
hel sea
Ġdemonst rated
pl ate
Ġso il
Ġfund ed
iet ies
es h
Ġhead quarters
Ġst olen
ĠU se
in f
Ġcount s
Ġpartners hip
er ies
ap ing
Ġmid field
Ġt ape
Ġupgr ade
G E
od ed
Ġbl ast
ĠM arsh
back s
ĠAtlant ic
Ġord inary
Ġsc an
Ġliter ature
Ġst ages
Ġ199 4
20 15
Ġ( âĢľ
ĠL yn
Ġhelp ful
Ġpl ain
Ġarri ve
Ġfall s
Ġm arch
arg o
Ġsc ope
qu est
Ġr om
Ġign ored
ĠA C
hes is
Ġ ?
ĠâĢ ¢
Ġtw enty
Ġex it
Ġm ad
ĠN OT
Ġass ert
l ow
Ġreferend um
Ġvir us
ĠC ost
ĠB a
est y
Ġun ions
Ġcom pe
Ġcl ock
ĠN ev
Ġin equ
Ġconserv atives
ĠA I
ĠDo es
in ction
ass ador
aw are
Ġsho pping
Ġcap abilities
Ġf estival
ĠAb b
Ġwat ers
rodu ction
Ġus age
Ġsy mp
Ġa x
Ġgr id
lah oma
Ġtrans actions
ĠIndian a
Ġhop ed
ĠEm pire
ĠM aster
y o
aed a
Ġr if
Ġdist ract
Ġmechan ism
Ġassess ment
Ġunivers ities
ĠT rib
Ġgu itar
Ġmonit oring
Ġrepresent ing
ak a
Y our
Ġrat io
Ġr amp
Ġconvention al
ĠD ave
al ia
Ġtrack ing
ĠH ind
ĠE ag
Ġtr ave
Ġst y
ugh t
h igh
en cing
Ġf ro
ĠS ometimes
Ġm oon
com es
ĠB ron
8 00
Ġrel iable
Ġpropos als
F acebook
ĠA ud
Ġrepl ied
h op
Ġh ung
Ġcritic ized
Ġske pt
Ġappear ances
ct ic
nt il
Ġt ie
et ers
Ġins isted
Ġintrodu ction
Ġrac ism
Ġappoint ed
ĠPro v
ĠB ureau
ecut ive
Ġ20 20
C ons
Ġconc rete
Ġsupp lies
Ġbeaut y
Ġperform ing
Ġrece iver
d oor
ĠDe ath
Ġex ch
m at
Ġvis iting
sh ire
z ing
ile y
ĠDen ver
ĠTechn ology
ĠG un
S ource
d ney
Ġlet ting
con f
the less
Ġdef icit
Ġclass ified
i ate
on ly
ĠL ine
Ġaccompl ish
Ġb ub
ĠGal axy
ack et
Ġpres idency
Ġprogram me
b i
ĠS us
ĠP op
Ġblock ed
he im
ĠC apt
Ġsw im
Ġabs or
ĠSwed en
r imin
ol ph
Ġdro ve
Ġland scape
ĠUt ah
Ġdismiss ed
Ġcan ce
ĠOr ig
ĠPort land
Ġab road
m ade
Ġbon us
Ð ¸
Ġd ust
h an
Ġpredict ed
Ġsequ ence
Ġsen ator
6 1
ĠAssoci ated
Ġre nder
Ġm useum
Ġwar n
orm al
Ġdom ain
Ġpers ons
il a
ĠP ass
ĠA ge
Ġaut o
Ġrequest ed
ie ce
or ge
ĠOnt ario
br idge
Ġd ates
Ġtestim ony
Ġcent ers
Ġtrig ger
Ġh ockey
c rib
ĠF all
Ar t
Ġcongress ional
d og
Ġart ific
ĠA st
Ġspokes woman
y er
ĠT our
Ġentit led
Ġtrans it
Ġrock et
ult ane
ĠCor por
ĠAlex ander
Ġresc ue
ĠN intendo
arch y
Ġd ub
Ġequ ality
Ġur ged
f und
m ony
ĠCo oper
Ġass ign
ĠOlymp ic
Ġveter ans
ĠHe ll
Ġdocument ary
ĠC ode
Ġp atch
Ġb read
P P
Ġv es
6 2
Ġpop ulations
ĠFr ont
Ġcl ar
Ġe c
US T
Ġbreat h
ac co
ĠâĢ Ŀ
ir a
Ġwhen ever
Ġviol ation
pl us
Ġtact ics
ag ic
ĠU r
Ġtarget ing
6 3
Ġw ider
oc ument
Ġpurs ue
Ġf iring
St ill
or gan
ĠS et
ound ing
Ġrestaur ants
ĠJ am
Y et
ir ts
om es
Ġemploy ed
Ġm ole
B M
ĠL A
room s
Ġac id
Ġw edd
iz abeth
Ġpolit ically
+ +
Ġcomp are
ĠRober ts
ĠL ow
ĠB ible
K e
Â °
Ġs alt
Ġsatell ite
Ġphr ase
Ġcont rad
Ġretire ment
Ġsurv ival
Ġbank ing
in ating
Ġob s
Ġch annels
th rough
Ġbrill iant
Ġser vers
ĠBe ijing
ect ive
is ons
Ġsoc cer
Ġintrodu ce
Ġexper iments
Ġprison ers
c ut
ĠJust in
ing ton
ĠG irl
Ġf ighter
Ġscient ist
Ġappro ached
Ġc ig
ĠB on
Ġmonth ly
ĠA ward
ĠL iverpool
enn is
usal em
Ġrepresent atives
or ous
Ġsub mit
Ġdesign s
ra pped
er g
Ġpopular ity
Ġab ilities
a ver
Ġtit led
Ġqu ote
Ġmembers hip
ord inary
ct r
Ġinvestig ations
the y
Ġfocus ing
ĠM ill
p ress
ĠMary land
ene z
Ġsa ving
ĠGovern or
Ġh osp
Ġr ush
ĠY OU
Ġobject ive
ĠBr idge
Th ough
Ġt ips
Ġenc ry
Ġpip eline
ĠF orm
Ġchild hood
Ġc ul
Ġrat ings
Ġth orough
ol ves
eder ation
Ġpre par
Ġent reprene
i y
r ite
ĠL ist
Ġact ively
Ġ9 9
ĠD utch
Ġdemand ing
R L
ĠW H
Ġlo ose
ĠS el
ĠHar vard
ĠT ed
Ġunex pected
Ġsh adow
ĠC ro
ĠP D
Ġhy per
Ġsm oking
" >
Ġden y
Ġarg ues
Ġsm ell
V E
Ġphenomen on
oen ix
Ġfore cast
f ol
ian o
Ġoverse as
Ġb ab
Ġunivers al
A re
Ġsett led
Ġgener ations
## ##
Ġprep aring
Ġweek ly
em ed
Ġsmart phone
Ġch icken
ĠH ur
Ġprodu cers
Ġlegisl ative
ĠM ach
Ġanx iety
Ġp ig
Ġcelebr ate
Ġdist urb
Ġinnoc ent
Ġmort g
ĠB ase
ĠW as
7 1
ĠH ave
Ġprov ision
min ute
Ġrec ruit
Ġarg uing
ĠBe ck
Ġsh ame
Ġke ys
Ġquestion ed
Ġfor cing
Ġm it
er ts
Ġbroad er
Ġencoun ter
Ġfl ags
Ġbut t
ĠC lick
Ġdead ly
Ġf ool
ĠV ill
ĠAm ong
Ġwe igh
Ġwealth y
ĠEd ward
Ġre verse
ĠOb amacare
Ġmaintain ed
Ġsure ly
Ġ9 5
ĠDes ign
ou ri
Ġt ens
he ld
j ud
Ġsecond ary
Ġun pre
Ġsav ings
omp son
Ġsh ield
Ġst ability
at ar
ĠC ow
F F
Ġcivil ian
old s
k ing
Ġreve als
6 00
ocol ate
ĠCar ter
bre ak
Ġann iversary
Ġs orts
Ġ5 3
ir lf
Ġrele ases
ĠD O
Ġton ight
Dav id
Ġroom s
Ġprosecut ors
Ġout rage
ĠH op
Ġdis order
Ġthreat ening
irlf riend
Ġdifferent ly
Ġharass ment
ĠG ulf
Ġhealth care
Ġqu oted
Ġsub mitted
Ġmin i
Ġf ur
Ġwind ows
Ġex ha
el a
Ġrel ax
Ġreform s
Ġtort ure
Ġl unch
ĠPro p
ar re
Ġst ored
Ġ ~
b ow
d ed
Ġf ate
Ġpropag anda
Ġo kay
p ed
Ġsp ots
Ġinstruct ions
ĠLe ft
Ġ199 2
Ġodd s
Ġround s
or ious
Ġar bit
ĠViet nam
Ġse vent
in als
ĠBel g
el son
Ġer rors
m ers
ĠOk lahoma
ĠP A
ag a
vern ment
Ġsil ence
ten ance
re ction
Ġgrad uate
af e
ĠLiber al
ĠGra ham
Ġafford able
ĠWar ren
Ġcooper ation
av ed
Ġde lic
Ġp icks
Ġcirc le
Ġse ar
ore t
Ġstrik ing
ber ry
ĠSar ah
Ġt ab
7 3
Ġstre aming
Ġcomprehens ive
Ġimportant ly
Ġp uzz
Ġpers u
ĠBl oom
Ġposs ess
Ġstrugg led
Ġexec ution
ĠH on
it ary
ht ml
tr ans
ĠLe ader
Ġa er
Ġf ing
Ġass ass
d on
ĠJer usalem
Ġdes erve
Ġland ing
Ġcere mony
Ġassum ed
Ġcal m
Ġint im
Ġdemonst rate
ors hip
ĠPr ice
Ġdifficult y
Re uters
ĠRub y
l ined
Ġag es
ĠEx pl
Ġd ying
Ġc ow
Ġal ter
m ans
ĠH a
Ġm ac
Ġste pped
Ġb orders
ail ed
Ġdist ingu
Ġg ent
ent er
ish op
as ury
ĠB ra
Ġpoint ing
ĠP erson
ĠR un
Ġadv enture
Ġw aves
Ġprecise ly
Ġarchitect ure
Ġgreat ly
se ct
ĠC ry
ĠL t
Ġprom ising
Ġhy dro
Ġche st
ĠNet flix
Ġkil omet
Ġconsider ation
Ġdri ves
Ġdial ogue
es see
Ġnewslet ter
Ġtrem end
Ġrook ie
a is
e als
ĠSil ver
Ġaut onom
m ind
Ġcons ent
ĠMean while
Ġaward ed
Ġcont ribution
Ġb urning
w alk
ĠScott ish
Ġpr on
Ġrepe at
Ġsim ultane
w as
Ġdon ations
ier ce
ĠV ice
Ġvo ices
Ġanaly st
ĠBru ce
st ep
Ġwant ing
Ġfrequ ency
Ġproced ure
Ġexecut ives
as ant
Ġplayoff s
Ġinter f
ut en
Ġg if
ĠInd ust
Ġstay ing
ĠSt ory
om ed
Ġb irds
act s
Ġh al
Ġbi as
cept ions
Ġtr illion
Ġinc hes
ĠMag ic
S E
âĢĶâĢĶ âĢĶâĢĶ
Ġhighlight s
ĠM ain
ĠComm on
C O
row s
Ġremark able
ĠPalestin ians
Ġwhere as
ĠW olf
ater n
Ġimpl ications
ĠJon athan
o is
it ter
Ġkn ee
Ġform ation
Ġstrateg ies
ap olis
Ġsuper ior
D em
Ġsem i
ĠBer lin
ĠSy dney
it ol
part y
ĠH ong
ĠS ab
ĠDe b
Ġcateg ories
Ġfollow ers
hold ers
Ġcontact ed
ah u
AN D
Ġjud gment
ĠM ORE
Ġemer ging
ic ism
Ġsm ile
Ġcre am
port ation
ĠB ud
scrib e
all ing
Ġinf o
Ġaccess ible
vertise ments
Ġphys ically
a fter
Ġass igned
Ġgu idelines
Ġcr imin
Ġdefe ated
Ġan s
b ered
ig ious
S L
ĠP res
rib utes
Ġw ounded
it ual
Ġtri als
Ġman aging
Ġmin istry
Ġr iding
Ġgr ade
Ġindic ates
Ġcent uries
W atch
ĠL ink
H T
et he
ĠAff airs
b ury
Ġst em
Ġmeaning ful
ĠT en
Ġco inc
Ġop ens
Ġspe ll
Ġf et
Ġt iss
ĠMr s
Ġclot hing
Ġe ase
ĠE ff
Ġ5 4
Ġmarg in
St ory
iff s
Ġparticip ation
ĠTe le
ced ented
Ġâ ĪĴ
ĠK ar
C omp
ĠAr k
e le
Ġre vers
ĠTe ch
ĠCap ital
Ġpo ison
ĠBre xit
Ġph arm
ĠSt ore
ĠY emen
Ġcompet ing
S im
Ġmem ories
Ġl apt
h ar
c est
Ġthe ories
ra ig
is a
Ġpass age
Ġrec ipe
h att
Ġag ed
ĠS ix
Ġg ross
Ġdr one
Ġdisp ute
d iv
Ġdam aged
Ġ199 3
Ġbl ank
ik i
ĠC redit
Ġhost ed
Ġsubst ance
ĠHam ilton
ann on
Ġpromot ing
Ġopen ly
ĠC helsea
ĠInst agram
Ġ19 50
p a
Ġclin ical
ĠChild ren
ĠT es
Ġfac ilit
Ġinvest ments
st al
Ġcons ensus
ĠCr ime
8 4
y es
Ġeduc ational
Ġb in
ĠG T
ĠS om
Ġcust ody
a uthor
Ġelig ible
v ision
ĠH old
Ġleg ally
Ġend orse
Ġmiss ions
ĠA k
Ġ1 20
Ñ ģ
ie v
- >
Ġdis h
Ġstud ying
ĠV ik
ĠHaw ai
Ġmem o
Ġchar ity
Ġaddress es
Ġt ables
Ġg ate
r if
Ġn ic
Ġdisc ount
Ġins pect
Ġathlet es
ĠLe on
Ġbatt les
o ice
e ven
ere my
Ġman ifest
Go ogle
ĠAs sembly
Ch rist
Ġsuspect s
Ġfoss il
ig ate
Ġenthus i
Ġt ired
ĠP ict
Ġcounter part
um ble
ĠMan agement
Ġn in
Ġd ating
Ġspect rum
Ġ2 50
Ġhe lic
Ġpresent ation
ĠTr ade
ar ation
ĠSt ation
V D
j i
ag h
Ġbot tle
Ġfund ra
b its
Ġenh ance
Ġtherap y
te l
Ġl ux
ch ild
Ġper ceived
ĠW ales
op en
O K
ĠA z
ĠSe an
Ġback ing
ge red
Ġdef ending
Ġdiscuss ing
Ġunder lying
Ġrac ing
Ġburd en
ĠTh rough
ĠF estival
Ġexpand ing
Ġstop s
Ġmus cle
Ġdomin ant
Ġbe ings
s es
ond er
8 3
ĠF al
ri ors
Ġtrans action
Ġpick ing
ĠEx per
Ġv ig
ĠMar x
er ia
ĠL am
Ġm ood
ĠM etro
ater al
ĠG ary
Ġman agers
con st
ere nt
Ġgather ing
H z
Ġt ap
Ġhop efully
ĠE th
le ft
yl um
ĠLib ya
it udes
Ġcr us
le e
ass y
Ġimp ression
Ġinst itution
Ġproced ures
is k
ĠBat man
Ġscr ut
igen ous
Ġcreat ures
Ġarri val
Ġro y
Ġp ocket
we ek
ac hel
Ġe ager
Ġmem or
ĠU ber
Ġpoll ution
ĠV ideo
E l
se ction
Ġfood s
Ġkit chen
m ath
ĠE qu
Ġcomp at
land o
Ġrec re
Ġh ip
Ġorgan ic
ĠPent agon
Ġsh ipping
ĠT ai
Ġsurv iv
Ġrequire ment
ĠMor gan
Ġtim ing
ĠB oe
ik a
Ġn a
ĠAnd re
Ġunf air
Ġcapital ism
Ġst ere
Ġm ice
ĠAss ad
Ġins ult
Ġgl ad
M s
Ġdise ases
ĠEl izabeth
ĠT ok
Ġindust ries
ĠRep resent
b ase
ĠOak land
h ard
Ġb owl
Ġhelic op
ĠMur ray
8 1
om y
it ure
al ysis
Ġpunish ment
v an
Ġdiv or
mark et
ĠO p
Ġhosp itals
Ġfl ed
F O
Ġbe ach
iz er
od ox
ĠCome y
ĠM it
ĠD er
Ġengine ers
ĠC reat
Ġh ire
Ġshe ll
Ġter r
ĠC S
Ġse ed
Ġstat ist
Ġcoach ing
play er
Ġans wered
Ġt ons
Ġregul atory
Ġmod ule
Ġgraph ics
M us
Ġst ance
Ġso vere
Ġob sc
ang le
Ġn erv
miss ions
Ġexpl aining
Ġrhet oric
Ġbe ating
opy right
Ġs ed
ad ers
alt ies
Ġ5 6
8 2
ĠK ick
Ġacknow ledge
ĠY eah
ative ly
â ĸ
ĠM ess
ĠEm ail
Ġb ow
ĠKe ep
Ġpull ing
Ġprincip al
Ġsign ature
T P
am ous
ĠF riend
Ġconv ince
ĠMic hel
Ġint r
cos ystem
G A
Ġsearch ing
Ġvar iable
ab et
Ġover come
ĠS on
Ġsix th
Ġadv iser
Ġtrend s
Ġprefer red
ĠTenn essee
ĠRus sell
ol n
Ġreb els
Ġd ies
ĠML S
Ġperiod s
Ġinter action
ag ger
ol ving
ĠTh ompson
Ġmer ch
Ġpsych ological
Ġp ill
b ing
I nt
Ġt ut
ar ia
Ġeconom ics
Ġout lets
ĠUs ing
Ġsign als
Ġbill ions
ĠEx ecutive
ĠCharl ie
Ġline up
Ġe cho
ĠKent ucky
ac her
Ġ( "
f r
u h
Ġ199 1
ĠS ure
**** ****
ĠR oll
og y
ri x
Ġbad ly
Ġegg s
F inally
Ġsent enced
Ġse gment
i ac
Ġtem por
Ġcommand er
Ġevery day
j s
ĠO x
** *
ak h
Ġ5 9
Ġl oves
Ġset up
os a
Ġgen es
Ġrequ iring
Ġm ath
Ġre nd
oc a
Ġinv asion
Ġpart ly
N S
ĠJ ean
br id
Ġb old
unicip al
Ġbul let
Ġrem oval
net ic
oc ial
em ic
ĠB al
ol ar
Ġtop ics
Ġesc al
ri or
Ġinqu iry
Ġar ts
Ġam endment
ĠInte l
Ġconcept s
Ġweak ness
ĠR ather
Ġar r
Ġunder t
Ġg ene
Ġu pload
Ġsh oes
Ġinst ant
enez uel
ĠDel hi
e en
ĠY an
E arlier
P re
Ġse ctions
Ġfab ric
C lick
Ġocc urs
ĠH art
Ġfrequ ent
Ġcompens ation
Ġm igrants
ĠG il
20 13
ĠF inally
Ġengine er
ĠH oll
Ġattract ive
ĠDr agon
li est
ts burgh
ĠB i
ĠE T
Ġc iting
Ġun ve
Ġtwe ets
ĠI ron
Ġut ility
w atch
Ġr h
Ġ ).
Ġpost ing
Ġridic ulous
A ct
Ġspeak er
Ġ !
Ġblock chain
aren cy
N BC
ĠCl ark
Ġtal ented
ro ph
Ġl ad
Ġcor rupt
Ġcl er
ĠThere fore
Ġnot able
Ġdead line
Ġe lder
Ġcar ries
Ġgen re
in stein
Ġcoll aps
Ġro lling
Ġle ct
Ġelimin ate
Ġappro aches
Ġg ig
ĠB ox
Ġanaly sts
ke e
Ġs its
Ġdi am
M ich
ne cess
gr ade
Ġinst ances
Ġm ask
Ġpubl ishing
Ġunpre cedented
ĠF inal
ak i
Ġro ots
R em
Ġcollabor ation
O ut
ĠS ound
Ġc ens
âĢ Ĳ
Ġcol our
ĠPh oenix
Ġinequ ality
Ġtox ic
C al
Ġf o
Ġneighb ors
Ġdram atically
Ġb ene
iz za
ĠSim on
Ġpri ze
Ġins ight
Ġextra ordinary
Ġtown s
ĠL i
Ġhom osexual
Ġper ception
ĠWhe ther
ĠHar per
ĠMc K
ĠG ordon
Ġc ock
Ġar c
Ġmain tenance
g us
Ġche aper
Ġassoci ate
v ia
ĠPri v
ĠPh ill
ĠB M
sc reen
ĠBel ow
Ġcou p
ĠHe art
Ġshe et
Ġencour aging
Ġcogn itive
Ġse ized
s l
ĠZ e
Ġinterview ed
Ġdeploy ed
Ġd reams
Ġviol ations
ent al
D ef
Ġcamp s
Ġcom ics
Ġpar ad
p g
Ġemploy ers
is dom
Ġres erved
Ġaim s
ĠCap tain
ĠRe agan
Ġmyster y
Ġfunction al
Ġdisplay ed
row ing
Ġconstit u
A F
Ġg est
ĠS a
Ġde light
Ġsp an
ĠP sych
Ġoccas ionally
Ġbu ck
ĠEconom ic
Ġtr aged
ĠE vent
T ER
ĠB ow
Ġbirth day
Ġlo op
Ġhero es
d y
ric ane
ixt ure
est ed
Ġcorrect ly
Ġfat al
Ġex port
ap ore
Ġprom pted
est yle
Ġv end
Ġcontem porary
Ġin du
Ġst amp
Ġprospect s
che ck
Ġrecommend ations
Ġdiplom atic
Ġdisappoint ed
Ġmanufacture rs
Ġconst itution
Ġexc lud
Ġmoder ate
ib an
ĠP ers
en ess
Ġparalle l
Ġad equ
ĠCo le
AL L
Ġe cosystem
ĠJ enn
ĠG O
Ġaccomp an
Ġdemand ed
it o
ĠG DP
ĠMont real
ĠA ccess
Ġ5 7
ĠSt aff
Ġple ased
ĠPhot os
s a
Ġinter pre
Ġlif etime
Ġlab our
ĠBrook lyn
Ġn ose
Ġcommunic ate
Ġfight s
ĠRes erve
Ġmod ified
igh th
Ġs essions
w ill
Ġwedd ing
Ġbi ological
ĠS av
Ġexplos ion
ĠD ick
m ic
E X
ĠE PA
Ġland ed
Ġdr unk
Ġkn ock
ĠAuthor ity
Ġrepresent ation
Ġrep air
ot ing
ĠL ibrary
ĠG iven
ll y
o z
Ġartific ial
P aul
ĠO cean
Ġown s
Ġsub sc
ĠAnton io
Ġrel ation
s ub
ĠE ver
Ġ8 5
Ġdesign er
T op
Ġconscious ness
ĠT ax
Ġkick ed
le ans
Ġh anging
ĠD og
Ġless ons
Ġl ift
Ġimp osed
Ġdef ender
Ġgu ests
Ġconcer ning
Ġan onymous
Ġpregn ant
Ġmaintain ing
ĠOr der
ail able
Ġunder ground
ix on
ĠDig ital
A Y
Ġadop t
ĠKh an
Ġingred ients
end ar
Ġass et
ĠG ro
Ġsh irt
Ġche ese
Ġ5 8
T y
ĠF ive
ĠR ome
Ġp unch
ĠAl an
V P
Ġemot ions
Ġpod cast
ĠCon vention
inc oln
ĠCh annel
Ġinter ior
Ġcou ples
Ġs li
Ġinte llig
Ġp a
Ġless on
Ġcreat ure
Ġsh ocked
Ġopp ose
p ack
Th anks
Ġperform ances
x x
ĠAr gent
Ġvolunte ers
Ġsum mit
Ġem p
Ġsold ier
Ġrec on
Ġres olve
is ition
Re g
": "
Ġlog o
Ġstim ul
ĠProte ction
ac re
Ġg irlfriend
Ġv ocal
) <|
Ġjump ed
Ġann oy
Ġacc um
arg et
bour ne
Ġmilit ants
app ropri
re ll
el ing
Ġn urs
on z
Ġj ihad
Ġm ile
ĠB urn
Ã ±
Ġprofession als
Ġab stract
ult y
ĠMiss ouri
ĠB ol
th rop
Inst ead
og a
Ġref ers
Ġtravel ing
Ġir re
ĠAn na
Ġs wit
Ġdesk top
Ġgu id
20 17
ĠE st
ist ant
Ġisol ated
ĠP age
} }
ĠL ear
Ġexist ed
Ġadvoc ate
m ir
Ġrec alled
Ġopp osing
Ġbut ter
ac les
C omm
ch ing
Ġintegr ation
Ġfor um
ĠCo al
Ġdescrib ing
Ġl ibr
Ġbox es
ov a
d s
ĠOr leans
ĠJava Script
T ON
ĠB ul
ĠC ase
? ?
h as
Ġconf used
w ed
Ġ6 00
Ġpeace ful
Ġmin imal
2 50
Ġin herent
Is rael
Ġsurround ed
f it
h uman
W he
ĠCap itol
ear ly
Ġh oles
tain ment
V iew
F i
Ġ198 9
Ġintegr ity
s ome
own ed
Ġme al
9 6
ast ing
Ġst ro
G e
Ġinspir ation
hatt an
St ation
Ġexp ense
Ġconfig uration
Ġcred its
Ġide ology
g ets
Ġelect oral
ĠD ur
ĠF ant
Ġsub ur
ĠR s
ĠM ail
Ġbur ied
Ġsil ent
Ġsusp ic
Ġy ell
ĠNev ada
Ġdesper ate
ĠMar ine
ĠK now
ial s
Ġcho osing
ĠPlay er
Ġs ne
Ġp m
Ġd ual
Ġbom bs
ĠDo ctor
Ġsc ream
M ark
Ġteam mates
ĠL im
Ġb ands
ĠC ustom
Ġst ack
ump h
ol i
S C
ĠTr ust
ĠS D
Ġfle et
Ġcl ip
od ge
new s
Ġaccept able
ĠOr lando
c re
Ġ vert
c or
Ġregist ration
st arter
gr aph
Up date
im ize
ĠBar b
ĠW right
Ġstrugg les
Ð¾ Ð
ĠPort ug
ĠHit ler
h ist
Ġbrut al
Ġsubscrib e
Ġan cest
Ġmoment um
ĠAll iance
Ġpromot ion
ĠLe ban
Ġkey board
Ġcon vert
ĠAre a
e lection
ĠE ve
ĠAr senal
Ġev ident
Ġwond ering
Ġorgan isation
Ġclos est
ĠInd ones
Ġembr ace
ĠFollow ing
ĠOn line
Ġj er
Ġrefuge e
ĠO cc
Ġsc ar
Ġte eth
Ġqu it
Ġut ter
Ġpro be
ĠM ove
Ġat he
Ġoccas ional
P L
9 8
ĠC B
Spe aking
Ġref erences
Ġbank rupt
Ġas sembly
i ens
Ġexp enses
Ġjournal ism
ĠH amp
Ġsubsequ ently
St ate
m its
Ste p
ro ck
Ġmon ster
Ġpr ide
w ind
Ġgu ards
Ġinterpret ation
ĠV enezuel
M od
ĠH an
Ġrem oving
ĠSte el
aw ks
Ne xt
Ġy eah
to o
Ġprof ound
ĠInd ependent
Ġor bit
Ġcomprom ise
Ġdistrict s
g al
ĠPit tsburgh
f ather
Ġconsider able
Ġsurv ived
Ġexclus ively
Ġst ating
com mun
Ġkn ife
Ġeng aging
Ġth ro
G ener
Ġref use
Ġcharacter istics
ĠC ould
Ġmathem at
ĠW ord
at us
Ġdom inated
str ong
ĠB u
Ġjust ify
Ġbrief ly
Ġl obb
ĠW rit
ows ki
ĠN azi
ĠS U
ĠMount ain
Ġmin isters
ad i
che ll
ik h
ol s
he ro
Ġb ird
ip edia
Ġtremend ous
Ġ7 2
ĠS ource
Ġcont rary
âĢ¦ .
T R
Ġsustain able
ib l
Ġelect ron
Ġdisapp ear
ĠB an
Ġnerv ous
ĠH al
us er
Ġload ed
Ġch ip
Ġrout es
h ire
ĠH u
Ġfl our
Ġexecut ed
orne ys
Ġsoph istic
Ġpro portion
Ġsex ually
Ġas ylum
Ġpro st
Ġgame play
ĠEvery one
b in
Ġdon ors
Ġconf usion
Ġrevolution ary
ĠH and
ĠD uke
( "
is d
at tered
Ġl in
ĠA aron
1 50
Ġg ri
ĠP y
oc ated
Ġcur ious
ĠAnd y
20 12
ĠTre asury
Ġh arsh
Ġatt ending
C D
ĠN on
Ġspeak ers
gr ad
ĠAd ams
Ġc abinet
inc ome
Th ank
Ġnow here
ars on
ag en
ĠV en
li hood
Ġprint ed
Ġfle e
ir ates
Ġbr ands
Ġch ronic
Ġcharg ing
ĠTes la
Ġeng ines
ĠH aving
Ġphys ics
ok er
Ġ8 00
ĠR est
Ġv oid
Ġout comes
lim ited
ĠSher iff
He y
Ġconcer t
el ve
ĠOff icer
ast ed
Ġstreng then
Ġfail s
Ġmir ror
st op
book s
Ġpass enger
e xt
Ġcrimin als
ĠA ren
Ġcha os
ĠiP ad
Ġstead y
b ound
th ood
ĠRob inson
ĠD ream
ĠSh ort
Ġrob ust
ĠÂ ±
ubl ished
Ġo rient
ĠMan hattan
Ġspec ulation
Ġend ors
ĠM un
Sh are
ĠF A
ĠCur rent
ĠNet her
Ġde emed
g ate
Ġh iring
Ġdro pping
ĠTal iban
f unction
sec urity
Ġintegr ated
ĠGi ants
ĠSing apore
Ġsp o
ĠG ib
ur se
Ġcert ific
Ġpres ents
ĠPer ry
sc ar
Ġguarante ed
Ġle aked
Ġav o
mer ce
Ġpack ages
Ġple asure
ĠCh ange
Ġsusp ension
Ġchalleng ed
Ġpack ed
ĠR aj
Ġf ert
Ġcheck ing
Ġf el
Ġeng agement
Ġep ic
Ġrad iation
Ġbomb ing
t ra
im mer
ing e
Ġsl ot
ĠSp ir
ĠN orm
Ġb its
ĠS E
Ġhun ting
. ]
Ġwitness es
Ġprodu ces
ot te
ree k
ĠK ings
Ġal ert
res hold
Ġdef ended
D is
m ble
Ġedit orial
Ġrec overed
Ġdevelop ments
ĠUS B
ĠA lp
ab e
Ġsimultane ously
Ġbacter ia
Ġw et
ĠI M
Ġblock ing
Ġattract ed
Ġpat ri
Ġfig ured
ĠC raig
ĠT el
ĠL ater
Ġall iance
Ġresearc her
ĠH oly
Ġbo om
ĠR ou
ĠJ un
Ġtaxp ayers
Ġcor rel
re ck
Ġhost s
ut ter
ĠEnter tainment
ĠRuss ians
ĠJ eremy
Ġexam ine
ĠN one
iz arre
am ine
ist le
Ġvari ables
Ġcap s
ĠH ung
Ġv it
Ġpat ent
ĠL incoln
T ime
Ġc inem
wh ite
ment ed
ĠChair man
ĠB and
Ġem bed
Ġj unior
ol id
ate ful
9 2
ĠO pp
Ġpubl ish
c al
Ġt ear
ĠT ower
ĠPol and
ĠUkrain ian
ĠStud ies
Ġo xy
i ated
Ġen act
Ġfl ights
Ġaccur acy
ĠF uture
Ġimpact s
H P
Ġsurprising ly
Ġra ises
Ġburn ed
Ġ6 6
Ġd a
ĠP ant
Ġsol o
G u
Ġdist ribut
Ġ6 2
ĠK it
an im
ĠV lad
secut ive
ĠW ould
ades h
Ñ Ģ
Ġqual ified
Ġdecre ase
Ġang le
Ġbre ast
Ġev olved
ĠSte wart
Ġl os
Ġfl av
app er
Ġun necess
Ġev ac
Ġfl avor
ĠC PU
T E
Ġcourt esy
ĠMP s
lyn n
Ġproduct ive
Ġv ent
l u
Ġbl amed
Ġfing ers
A B
Ġintim id
Ġas semb
Ġexpect ing
ethe less
Ġtransfer red
Ġdepend ent
Ġexpect s
Ġvis its
gg ed
Ġident ical
le ep
Ġen abled
ĠR angers
ĠH IV
ĠD ak
Ġl ane
Ġmet h
ress ing
Ġign or
7 00
Ġv enture
AR T
ĠL es
Ġdepart ure
ĠS ci
Ġsh ops
Ġacc ord
Ġmotiv ated
Q L
Ġrepe al
AT CH
Ġkill er
Ġagree ments
ĠGr iff
Ġconflic ts
Ġb arg
Ġr ic
Ġforg otten
Ġsc ared
r ition
Ġv oc
ĠC ON
Ġrest ore
ĠMiss iss
on ed
r ics
9 3
Ġnation wide
Ġinflu enced
Ġcrit eria
Ġstri p
th odox
Ġoccup ied
ou b
ĠT otal
B N
ĠM ult
v ation
Ġrank ing
ĠE b
ĠEd ition
Ġtrail er
Ġtele phone
Ġin her
olit ical
is hers
ĠP ope
Ġorgan is
g ly
ĠTh ings
im ir
ĠComm and
Ġoccas ion
Ġfunction ality
Ġcheck ed
Ġback s
ĠG ill
d ict
Ġconcent ration
ter ror
Ġanim ation
Ġhousehold s
ĠSh ould
Ġanal ys
g ood
ĠL og
Ġcour age
Ġalgorith m
Ġpromot ed
ĠRed dit
Ġimp rison
Ġexplicit ly
look ing
Ġres erv
Ġbab ies
Ġre ass
ern and
re nd
ard o
Ġbat ter
Ġt anks
le ted
Ġo ught
Ġrele asing
ut er
ĠMod el
ĠTh ink
Ġsub tle
ah oo
ĠSupp ort
ĠU b
Ġb ases
ĠMore over
Ġprivile ge
am ents
Ġst atic
Ġentr ance
w ich
ĠWar ner
Ġmet ers
ĠJ erry
For mer
ĠW i
Ġant ib
om ic
Ġinvestig ated
ar o
ĠPl ace
Ġcy cl
ĠH ug
ond uct
Ġsen ators
ick ed
Ġst ats
ĠO R
l arge
c ap
u ating
Ġtow er
oph ob
ĠCanad ians
b ian
Ġappl ies
Ġw ise
Ġform ula
ipp i
ĠPro duct
Ġuncertain ty
ĠC C
Ġinev itable
ĠChrist opher
ĠEgypt ian
Ġdes p
Ġinflu ential
Ġprov ider
Ġpain ting
K E
if ier
Ġh ub
ag ine
Ġover l
Ġmod est
Ġch ips
Ġinfect ion
Ġall y
R ight
J P
ĠQue ens
d ep
Ġl ens
un ity
ER E
ĠStand ard
Ġdest ination
Ġsole ly
ĠC old
ul se
Ġcontin u
Th ree
P al
Ġthe ft
le ading
Ġbel t
ĠN iger
Ġinvest ed
ĠAl aska
Ġimm une
Ġtransp arency
Ġpolit ician
Ġd imin
Ġins ist
Ġprov isions
ĠOtt awa
ĠPlay Station
Ġsc rew
9 7
ĠB C
bre aking
Ġin aug
Ġsing er
op t
Ġ `
Ġhand led
ĠR h
ĠOlymp ics
Ġm art
Y eah
ĠN i
Ġuncom fort
Ġimp ressed
s uch
ĠLouis iana
Ġin box
Ġoper ator
ĠNether lands
in st
ĠB or
Ġball s
be ing
ĠJ ane
ĠUn ivers
Ġsim ilarly
for ward
Ġhead lines
Ġlif estyle
art ed
Ġbo ards
Ġ6 3
Ġcol leg
rif ice
ĠO il
oll ar
v as
" ,"
m ay
Ġdis abled
Ġoper ated
ĠStan ley
Ġregard ed
ĠN O
S U
Ġlaunch ing
Ġrel uct
ĠD u
el le
Ġphotograph s
ab out
ĠTre k
Ġsa ke
Ġcon secutive
Ġke en
Ġdet ention
ri ke
c itation
Ġkid n
d r
ĠSt ock
ĠUn like
Ġt ent
Ġvol unt
unt u
ĠM other
Tr ans
Ġprosecut or
amp a
Ġprosec ution
ach ment
il ation
ĠD rug
Ġconv iction
9 4
ĠM arg
u ccess
Ġearth qu
Ġro lled
m illion
b en
Ġb ol
Ġle an
Ġg ym
th ur
ĠM ap
ĠG h
off s
ĠMod i
Ġsu ck
ĠCapt ion
). [
ĠTy pe
Ġk iss
Ġfil ter
t own
w a
iz ations
ĠHamp shire
Bl ack
Ġm ales
? âĢĻ
o vers
ke ley
bit ious
Ġbul k
Ob ama
Ġtraged y
Ġt ears
ĠCorpor ation
Ġch ocolate
Ġguid ance
ie re
z one
Ġpres erve
ĠPhilipp ines
ĠCor p
ĠBe ing
ar med
Ġpo et
ĠF ather
ou p
ĠS N
ĠT able
t arian
Ġle ak
Ġb ags
ĠS everal
R ed
A g
Ġexam ined
ur ches
Ġaccept ing
ll or
N et
Ġmiss iles
Ġrec k
Ġbene ath
l ink
Ġparticip ating
Ġm ouse
act or
Ġdest ro
F urther
Ġneighborhood s
Ġin ex
id al
viron ments
eral d
ĠFore st
Ġreflect s
Ġcompe lling
G r
Ġel abor
Ġabs urd
Ġcompl ained
in ite
ĠStan ford
Ġlux ury
Ġj et
Ġb other
Ġsy nd
tr ack
h r
ist ance
ass ion
ĠVictor ia
on ing
Ġcontro ller
M AN
S upp
Ġad ap
Ġun re
Ġthe ater
ol as
u z
id en
ut her
ĠN elson
ĠMar io
Ġshel ter
Ġne ur
Ġen for
ĠMedic are
Ġ1 000
Ġf its
ĠMedic aid
G ood
n an
B ook
n ie
ĠBl ood
Ġ< /
ĠEd it
Ġn u
Ġcons ists
angu age
Ġjur isd
ĠF O
ĠM orm
g ov
Ġsignific ance
Ġpo lling
ĠH ans
Ġoccas ions
Ġsto pping
ĠGr ant
ĠRub io
ĠTok yo
l aim
Ġpost er
CA A
Ġexc use
Ġreal istic
Ġwire less
ĠT s
Ġb one
ry ing
Am ong
Ġaccompan ied
ĠK night
Ġsee ks
Ġt ension
I E
? )
Ġp ose
F l
Ġback up
Ġrese mb
Ġmand ate
Ġass ists
Ġposs ibilities
c ard
ĠContin ue
D R
Ġaccus ations
friend ly
Ġthe oret
ust ing
G l
ĠMar c
Ġcook ing
Ġbet a
k es
Ġsupposed ly
C ar
ĠCh ampions
Ġemphas is
Ġfin ishing
ĠSnow den
Ġsust ained
m ons
Ġadv ent
E ach
Ġbeat en
Per haps
C or
ĠMal ays
ĠB ir
Ġin hab
ac o
Ġa wards
Ġd ressed
Ġproject ed
Ġinnov ative
ĠFil m
ĠG ard
ĠNot hing
Ġaffect s
ite ment
amb ling
Ġb ump
ĠQu est
ĠEvery thing
ĠL ocal
spe ed
or ate
Ġprevent ing
Ġconstruct ed
ĠAb u
Ġlong time
ix el
b at
i per
f irst
ĠCl oud
Ġt orn
Ġfuck ing
ĠS ection
ĠP ear
Ġer u
boy s
Follow ing
ĠOrgan ization
Ġg arden
ĠIm m
Ġpol ar
Ġoper ators
Ġspeed s
âĢĿ )
ĠS EC
ĠP a
Ġout standing
ĠW inter
Ġmortg age
ĠFin ancial
Ġman ual
ĠSc he
Ġrec ession
ĠHam as
Ġf ed
uck er
ous es
ĠCh ron
Ġw isdom
Ġdocument ed
Ġent ity
Ġf er
Ġpass word
Ġtrad ed
Ġ3 60
9 1
ĠT R
Ġdr um
Ġint rig
Ġoccup ation
ĠP ython
Ġold est
Ġg ut
ĠKurd ish
Ġdocument ation
Ġfavour ite
Ġg olf
pp y
Ġpra ised
f ish
ĠJim my
Ġresident ial
Ġspot ted
ĠN ature
Ġcop s
ĠW y
il st
ĠV in
Ã³ n
v ol
Ġreven ues
ber y
Ġlay ers
i ar
Ġinteract ions
Ġwal ks
inc ial
ĠPatri ots
cent ury
ĠComm ons
Ġsur ge
ĠFl ash
Ġaw ful
Ġb icy
ĠN ich
ĠTh ird
Ġcalcul ated
Ġpan els
B el
ĠS port
ĠSte am
Ġexperiment al
ĠI V
Ġrenew able
Ġcirc uit
Ġmyster ious
Ġautom atic
Ġtr ains
ra h
Ġth reshold
ne g
Ġinf ant
à ¤
U C
ĠOther s
w all
any ahu
Ġt ale
ĠN S
d f
Ġdeal t
ug by
olit an
Ġd irty
Ġreview ed
bl ock
Ġpain ful
Ġgl obe
ĠC as
Ġf ut
io x
D own
Ġ6 1
ĠH ad
Ġtri ps
ĠAir port
Ġcle ared
ĠWay ne
Ġearn ings
ĠT am
ĠC itiz
Ġadminist rative
Ġcross ed
L ist
Ġconven ient
Ġr iders
Ġr anging
ĠM ind
Ġgraph ic
ĠN ash
ot ion
Ġb izarre
Ġliber ty
com p
ch arg
ĠD al
Ġdispl ays
Ġen vironments
Ġicon ic
Ġrob ots
Ġmother s
p ing
ĠK r
Ġhost ing
ĠD E
Ġam bitious
Ġ198 8
ĠD a
Ġco in
Ġ6 7
Ġp our
l ied
b es
T O
Ġres erve
Ġit er
Ġhe s
ĠE mer
r ons
Ġl ady
Ġsec ular
â Ĥ¬
Ġsent iment
ĠMc Donald
Ġdes ert
Ġ6 8
Ġconver ted
Ġpred ec
Ġdo ctr
ĠS oft
c ular
Ġtiss ue
M B
ĠTr ue
J o
th al
ĠL ad
ĠMur phy
sel ess
is ive
Ġthe r
ĠA FP
n on
Ġdrop s
ĠL arry
Ä ĥ
ect s
ĠDe an
N ame
ard ed
Ġcreat or
? <|
Ġaddress ing
ĠCl imate
Ġexplo it
Ġres ort
Ġh iding
Ġsafe ly
c ott
Ġatt orneys
ĠRed s
Ġs ons
Ch ina
Ġdevast ating
IL L
ĠK l
Ġsleep ing
Ġcross ing
Ġarrest s
Ġrestrict ed
u ably
Ġw ore
Ġscrut iny
j amin
Ġsp ray
r c
Ġan ch
ow der
Ġunf ortunately
sh ore
Ġlibr aries
Ġbur st
ĠC R
Ġdepart ments
for mer
Ġp ension
Ġmurd ered
Ġcompet itors
ĠSum mer
Ġavail ability
Ġnewslet ters
Ġal ign
Ġfil ing
st ra
ĠAb d
ĠF le
Ġt um
Ġadop tion
Ġwh is
Ġnewsp apers
re qu
Ġcontain er
Ġproduct ivity
Ġpregn ancy
Ġbuild s
Ġre ign
Ġover night
ĠSing h
ll i
Ġappear ing
Ġindic ation
t wo
k ward
Ġto ss
Ġear ning
Ġdisc rimin
ĠD rive
Ġpubl isher
Ġview ing
cel ona
ĠDe ep
Ġd uties
Ġcomb ine
Ġf ishing
Ġreflect ed
qu es
ĠMan ning
Ġuncomfort able
B r
ĠFurther more
ĠF OR
Ã §
ĠMag azine
D id
Ġreg ret
v ar
Ġm isc
Ġm unicipal
ĠB ah
er r
E m
Ġhor rible
ĠN ik
Ġchemical s
EM ENT
ĠN ative
w ords
Ġsepar ated
ail ing
is ode
be at
On ly
Ġrel ie
Ġsophistic ated
Ġre wards
Ġv iable
Ġr ivals
Ġdes erves
Ġan onym
ĠC L
n amed
Ġpr icing
ĠWh it
ĠS ac
go vernment
b ably
Ġact ed
Ġc ave
Ġrel atives
Ġwin ners
Ġprepar ation
g ence
Ġequ ipped
ĠMad rid
Ġlimit ations
May be
Ġamong st
Ġcomplex ity
Ġ198 4
Ġmechan isms
Ġr itual
Ġfire arms
Ġre cept
ĠCh rome
Ġparam eters
ĠF ederation
put er
ĠRon ald
Ġ= =
ia h
Ġcar rier
Ġsl ide
ac cept
Ġpe er
Ġcomm od
u els
Ġm m
Ġsuggest ions
ĠF ig
Ġexpl oring
ĠK a
Ġme ets
ph an
oy d
Ġdelay ed
Ġtou g
Ġ198 6
v i
ĠTai wan
Ð ½
Ġlight ing
ight ing
Ġcelebr ated
ĠMississ ippi
ell o
ĠWik i
Ġcur ve
Ġintellig ent
Ġce ase
ĠColl ins
k ind
Ġco ord
Ġstart up
win ning
Un fortunately
Ġens uring
Ġquiet ly
om er
IC E
ĠPh ys
ĠS in
Ġb ip
Ġab und
ari os
Ġto b
ĠHT ML
ĠM A
Ġnight s
Ġcollect ing
Ġreb el
Ġinter ven
ig e
ĠL uke
i ors
Ġdet ained
te ch
Ġworld s
Ġtransl ation
Ġemploy er
ĠBl u
Ġg host
ar ians
H A
Ġor ange
ĠMcC on
ĠD omin
Ġbe ef
Ġrad ar
Ġinstall ation
Ġdeliver ing
s ize
Ġdesign ated
Ġdeb ates
Ġm igration
ĠD VD
Ġt u
ï ¼
em it
Ġpled ge
Ġco ins
ĠLe vel
M art
ĠMel bourne
Ġgr ants
a very
Ġoff season
Ġca ution
prof ile
Ġnot ably
Ġ) ;
ĠT an
Ġthem es
B ar
Ġbug s
ern el
Ġdeleg ates
Ad vertisements
Ġcat ast
Ġtable t
Ġcour ses
Ġcount less
Ġgrad ually
Ġwitness ed
ĠEag les
ĠP oll
ĠQue bec
ĠCoal ition
Ġcomm ands
Ġgold en
ĠCub a
P I
Ġw rap
ir s
Ġt ends
u ates
Ġmean while
Ġviol ated
Ġdemonst ration
ĠN az
Ġpsych iat
Ġcomment ary
vers ion
ĠSwed ish
Ġann ually
un a
S D
Ġdem o
les h
Ġobserv ations
Ġp ending
wit zer
Ġremem bered
Ġquestion ing
âĢ ³
Ġimp ose
20 11
Ġf ires
Ġhighlight ed
Ġlapt op
n atural
arent ly
ĠS aint
Ã ¢
Ġfor b
ĠHe at
Ġrepl acing
Ã ¨
Ġse eds
P s
are r
Ġcont ents
Ġfrust ration
ĠIn n
DA Y
ren cies
ĠBl ock
ĠC rit
Ġdiscipl ine
Ġver ify
Ġh unt
Ġpoor ly
Ġpre view
ĠMarsh all
Ġpat rol
ĠS ex
Ġsupp lement
Ġbath room
Ġpra ise
Ġcom ed
ell er
N D
ude au
Ġact ress
Ġgra ve
Ġhapp iness
d ata
Ġexpl oration
op les
Ġcru el
ag u
ĠE C
ĠD isc
Ġprevent ed
Ġcor n
B en
Ġst arter
Ġch amber
Ġf urn
ĠL ions
Ġas pir
form ance
ĠBl ake
qu er
ist a
ĠPro gress
Ġgent le
ĠPe ace
ĠE nt
Mich ael
Ġpr ayer
ĠO w
Ġper mitted
Ġinst antly
ĠL ady
ĠHun ter
Ġven ue
Ġalt ogether
Ġoxy gen
ĠAr ts
Ġbond s
Ġamb assador
ĠExp ress
Ġcult iv
or ical
Ġare na
ĠR ound
Ġdisapp eared
. ),
Ġtechn ological
ur ities
ĠBer keley
Ġplan es
roduct ive
ĠT oy
el come
ĠE D
ĠN ap
Ġsuggest ion
at al
Ġagric ulture
Ġcon ced
Ġpart ially
AT ED
ut o
v o
Ġdr inks
ĠRog er
ĠM and
TH E
Ġs izes
c ount
Ġprotect ions
ĠCamp bell
ĠFer gus
Ġfasc inating
om ach
ĠH uff
ĠW ard
Ġincor rect
out ing
ĠEnvironment al
ĠChristian ity
or ia
ĠAdd itionally
Ġvacc ine
anc hes
/ .
ĠHawai i
Wh ite
Rep ublic
Ġlog ical
Ġpar ks
AS H
Ġhonest ly
ĠMot or
Ġsty les
Ġsupp orter
at ter
Ġal ike
Ġtob acco
ĠBe at
Sec ond
appropri ate
Ġfle w
ĠN CAA
Ġsum mary
Ġadv ised
p in
ĠP el
ĠKick starter
Ġsing ing
Ġheart s
Ġappoint ment
Ġun l
ĠCongress ional
Ġeth ics
Ġto ll
ĠK al
ĠFor ces
Ġmarg inal
Ġw ound
Ġst unning
au cus
ier re
ĠM uch
ra it
es ides
Ġcap ability
The ir
ĠF I
Ġenter prise
Ġtrans mission
Ġcomp r
ĠMit chell
o op
oc ur
ĠVlad imir
Ġad j
ath on
ĠSt orm
Ġp owered
Ġ7 6
Ġd il
Ġpro l
ĠH ann
ĠSpe aker
Ġreact ions
AT ION
Ġelect rical
Ġpros per
en cer
Ġmet aph
ĠB ab
Ġess ay
ĠL aur
Ġst ressed
ĠG ene
ĠL en
ĠMan ager
Ġfac ulty
Ġc ous
Ġm akers
ĠEd itor
ĠCor ps
Ġce iling
Le aks
Ġder ived
ĠAren a
ĠQ ual
ĠT odd
Ġsevent h
Che ck
b urn
ĠP od
Ġceleb ration
Ġdraft ed
Ġpress ing
Ġarg uably
ond a
Ġmount ains
ĠRe id
em in
ĠSm art
u i
Ġha z
T witter
Ġdep os
Ġsk et
Ġr ice
Ġc rown
g ments
st ring
d ev
Ġra id
arm a
Ġtravel ed
Ġdam n
Ġend less
ĠF R
Ġdr ones
ĠS essions
Ġcompl ain
ĠCommission er
Ġs od
ĠOx ford
ĠJ en
pl ing
ĠAm b
Ġaw kward
Ġaccompl ished
Ġapp lying
olog ically
Ġsac rifice
b et
witzer land
ĠWat son
Ġshoot er
Ġwe aken
ĠN ame
ĠOr ange
Ġin eff
ĠJ ess
Ġmechan ics
ĠF lynn
ĠU I
Ġassum ption
ĠB enn
Ġbub ble
Ġadvoc acy
Ġhost ile
tt es
Ġbu nd
ay a
Ġreveal ing
Ġbre ach
Ġep id
Ġc ats
Ġrespect ive
augh ters
Ġg reet
ĠBr us
al id
Ġexpert ise
Ġdev oted
Ġas h
med ia
ug s
ĠDak ota
S everal
ĠR T
ĠInd ians
Ġscr atch
ĠPark er
fl ow
ĠN a
Ġcirc les
Ġstrong est
Ġfocus es
ers ion
ĠB aker
Ġfr act
ĠIm p
Ġsh ocking
Ġt ar
ĠG ab
at oes
Ġcal endar
m id
Ġaud iences
r in
Ġcitizens hip
c ode
ĠMod ern
ĠR ow
Ġbuy ers
Ġconfirm ation
Ġan arch
Ġtr ucks
Ġpartic les
Ġl one
Ġconclus ions
hand ed
Ġacqu isition
writ ten
ĠMedic ine
ru p
ĠCh all
Ġcomput ing
Ġl ung
T IS
Ġsw ord
Ġsa uce
ĠLaw rence
Ġunnecess ary
W ar
Ġdirect ors
uer to
ĠK u
g ary
H ave
---------------- ----------------
Ġl yr
Ġpen alties
Ġline back
Ġrespond ing
Ġsp y
Ġlong est
ĠA y
Ġfr ank
T ake
ag raph
um ing
lect ed
W orld
P at
Ġhistor ically
Ġent ities
Ġdec or
Ġad vertisement
ĠTem ple
Ġbit ter
ĠMor ris
ĠV ar
Ġadd iction
Ġpl acing
Ġinter rupt
Ġbe ars
Ġst ir
Ġcontribut ing
Ġbound aries
g roup
Ġunderstand s
ĠD ate
Ġqual ify
D E
ĠFergus on
m are
Ġd uration
M edia
Ġcomp osition
form ed
Ġy ard
Ġquant um
Ġfrust rated
it ivity
ĠR ap
ore r
Ġconvers ion
Ġoper ates
Ġcoordin ator
ĠG re
ĠM as
ĠLeg isl
Ġhack ing
h ill
Ġorient ation
Ġsh ake
ue z
li ver
by n
ĠBar celona
c at
M on
ĠHot el
ĠSaf ety
p iece
ult s
ĠK y
ĠRes p
ip her
ĠRec ords
Ġpri est
h alf
ond s
Ġ198 7
ch ron
iv an
Ġmotiv ation
G iven
Ġdist ant
Ġfemin ist
Ġgro cer
Ġfast est
Ġpain ted
ĠHis pan
Ġst un
and ed
sh ot
ĠNet anyahu
p ot
m ap
Ġexperien cing
lim inary
Ġovers ight
Ġd ensity
ĠY ang
Ġcontro lling
ĠF CC
Ġcount ies
ĠJac ob
Ġped est
ĠH us
Ġsaf er
v ious
out heast
ĠI an
Ġ197 9
Ġtun nel
f i
Ġv ague
Ġm ild
mind ed
PD ATE
Ġdiv ide
Ġtrans formation
Ġrece ives
Ġdirect ions
20 10
Ġsent ences
bor ne
ĠF ind
Ġilleg ally
Ġu gly
Ġpop ul
st art
ĠD or
Ġint ensity
Ġimper ial
ab ling
Ġenjoy ing
Ġn ode
Ġprob ability
st orm
Ġcomp osed
F igure
ĠF if
im s
ĠAbb ott
Ġmand atory
Ġsup rem
w id
ĠH end
m atic
b ie
Ġconserv ation
Ġhe aven
Ġg aining
Ġachieve ment
ac ular
d am
com ed
Ġm ic
ĠR oc
? '
ĠSw iss
Ġins ane
Ġagric ultural
ĠBloom berg
Ġbal anced
ĠU C
ĠRem ember
ĠAgain st
Ġcondem ned
spe cific
Ġd ign
am an
Ġres idence
Ġ198 5
le ments
Ġst omach
ĠMc M
at re
Ġdist inction
Ġprint ing
Ġemer ge
Ġprot otype
Ġp ione
ĠB E
Ġt ill
Ġspace craft
o ard
Ġinvest ing
w estern
Ġw ings
Ġaccept ance
ĠK as
Ġtou ched
ĠR ain
ac ies
it ate
Ġiniti atives
ro t
Ġto ile
ĠS ong
Ġover d
Ġexch anges
ĠS ide
on ia
Ġt une
Ġ6 9
ĠR ice
Ġsc ary
t it
ĠB uilding
Ġide ological
ĠP rom
Ġp ays
Ġscen arios
Ġf illing
Ġmanufacture r
ĠTe a
ĠB eng
Ġc am
H ist
Ġz omb
ĠT ampa
ĠS ud
oc us
ĠEv ans
Ġrespect ed
Ġinf ring
Ġrot ation
Ġconst rain
ĠE lection
ĠBen jamin
oty pes
Ġp ink
Ġpress ed
Ġnon profit
Ġpe ers
st an
Ġal arm
Ġcrop s
Ġacqu ire
idd ing
Ġoper ational
m other
Ġser ial
Ġl anes
ĠD J
bo ards
Ġc ake
Ġtreat ing
ĠBl og
Ġprior ities
Ġhigh way
Ġcomple tion
Ġsubsid ies
Ġexplos ive
ĠD raft
Ġres igned
UT ERS
Ġanim ated
abet es
D C
in itely
Ġe ars
Ġsl avery
Ġdifficult ies
] <|
n or
er ving
abb ing
Ġinc omp
ĠAr ctic
ortun ate
at in
Ġis lands
ĠL ie
F S
umb led
Ġfree ly
Ġch urches
ĠCo hen
f ile
or ient
s upp
Ġform ally
ĠC os
Ġsh orter
ĠÂ ©
Ġres erves
Ġfr ight
Ġappro ve
Ġ7 7
ĠCh ance
Ġqu otes
Ġdes ired
ĠLa ure
ĠBe h
ĠSte in
Ġrespond ents
Ġparticip ated
Ġp or
b ecause
Ġrif le
Ġdiscl osure
ay ed
ĠBr andon
Â ·
Ġb ones
con nect
Ġcrowd s
Ġhuman itarian
Ġworth y
ĠR io
ĠF igure
ĠA wards
Ġvolunte er
Ġ19 30
z es
Ġmechan ical
d ing
b rew
Ġsec ured
Ġtut orial
Ġatt ributed
Ġcle ver
Â Ķ
Ġrum ors
ock ets
Ġjud icial
le ton
Ġcr ude
s ur
E ng
Ġmon etary
Ġdeliber ately
ĠS aints
ĠCent ury
Ġcult ures
ac er
ic ut
b u
M in
Ġanticip ated
E uro
Ġeconom ies
Ġflex ible
ow ell
Ġro cks
ĠR ail
B re
Ġin hib
Ġm amm
k m
Ġs her
ĠMcCon nell
ĠM obile
ĠTe xt
w hen
â Ħ
Ġelder ly
Ġgr ateful
Ġconsequ ence
i ary
Ġj okes
Ġher itage
Ġh ier
ĠK yle
ict s
ĠÃ Ĺ
s ized
Ġteen ager
Ġinc ons
Ġpan ic
Ġspread ing
Ġcon j
ec onom
Ġexp ed
m art
Ġflex ibility
ĠR aid
Ġaff air
( );
cont rolled
Ġaltern atives
Ġb ass
Ġt el
ust ers
j an
Ġz ones
m ain
at ile
Ġn aked
Ġdecl are
ĠC a
ch arge
st ory
ici ary
Ġattend ance
Ġinter rog
Ġadvant ages
B ig
ĠCirc uit
Ġtrig gered
Ġdisp os
Ġvir al
Ġabs ent
um m
ĠK erry
Ġdis par
im ens
( '
ĠAlbert a
Wh ich
Ġtechn ically
Ġre aches
Ġt ensions
ĠT erry
ĠS witzerland
gu ard
Ġp osed
Ġto ken
ock er
Ġdetect ed
Ġkn ocked
Ġinst inct
Ġch ap
and y
Ġdesign ers
Ġdisturb ing
au c
Ġbu zz
VER TIS
Ġpled ged
th ink
G M
Ġprev al
Ġfin an
ĠBrus sels
r ane
ĠE arly
ĠArt icle
Ġinstru ments
b les
ĠT alk
Ġs ends
ĠT reat
Ġsatisf ied
W S
ud ge
ĠSm all
o ons
Ġprocess or
Ġt urb
ĠPost s
F e
Ġw rapped
N T
he alth
c rat
Ġexc itement
Ġgreen house
ll ers
Ġshif ted
Ġequ ity
ĠR y
are ttes
Ġbreak fast
b art
h ol
r idge
Ġremind ed
Ġflo ating
gl as
Ġharm ful
ĠP uerto
val id
Ġf are
Ġflu id
Ġtr apped
Ġdo se
ĠPart ners
il ateral
ĠCh ap
Ġwel comed
Ġapp eals
ĠB uck
Ġrep ly
Ġsu itable
ĠFrank lin
Ġres olved
Ġhar vest
ĠCamp aign
Ġlegend ary
Ġref using
Ġmag ical
inc inn
ĠPro t
Ġavo ided
Ġtransp arent
Ġfit ness
ĠG a
Ġbr ains
Ġgr asp
Ġident ifying
Ġport fol
ĠB art
Ġannoun cing
ĠS M
Ġ7 00
pr ising
Ġdecl aration
ĠKir k
Ġinn ings
Ġl un
ĠF ro
l as
urn ed
Ġprov incial
ĠP ok
ĠCommun ist
ĠBuff alo
Ġab ol
Ġha bits
Ġn ull
Ġrus hed
ĠT un
Ġcondem n
Ġrec y
ĠLyn ch
w he
it ably
Ġste ep
Ġh orm
Ġimm igrant
Ġhat red
Ġmut ual
M en
Ġem pire
ation ally
ne ver
found er
ro c
Ġminor ities
I d
ĠM aine
Ġhope ful
Ġassum ing
Ġindic ating
Ġoptim istic
M ed
ĠBar ry
Ġexcess ive
ĠM ov
Ġ7 3
val ue
ĠAnt i
Ġedit ors
Ġfro zen
Ġhy brid
Ġbel oved
âĦ ¢
Ġconduct ing
Ġtempor arily
Ġbrow s
ĠD om
ver ning
B est
or i
ĠGr ay
Ġpresum ably
d rop
iz ard
Ġtrust ed
or ig
Ġimag ination
Ġwh ites
Ġdeploy ment
d ec
Ġedit ing
ĠPhil ip
ĠI ss
incinn ati
Ġear liest
A ust
Ġsupp ose
Ġass ured
ĠChrist ie
Ġ7 4
est one
Ġtend ency
ĠV ery
Ġst ocks
Ġimm ense
ĠDou g
Ġbar riers
ut t
ĠRog ers
Ġtour ists
Ġdec iding
H ar
Ġhead line
Ġthrow s
ĠG PU
ĠPr in
ĠN atural
Ġpen et
Ġcast ing
o j
Ġinfect ed
Ġm ixture
N orth
ĠB ears
Ġwor ship
ĠTr udeau
ĠM D
ĠI C
Ġspark ed
az y
U D
Ġsocial ist
Ġr all
H aving
Ġdam aging
Ġwa ited
Ġbutt ons
Ġcomp os
ĠJ ets
Ġsh ar
Ġgrab bed
ĠWar riors
Ġdefend ers
Ġstruct ural
oc ate
Ġcolle ague
p owered
Ġcolleg es
ed ed
Ġve gan
Ġg rip
Ġathlet ic
Ġun ity
act ory
Th rough
Ġcrypt ocur
C urrent
Ġplan ets
Ġarm or
ĠO scar
ank ing
Ġcart oon
Ġparliament ary
Ġre hab
Ġd iver
Ġf est
ĠOcc up
v als
ĠJeff erson
Ġcompl iance
Ġsc rap
Ġgar b
ĠBr ady
Ġsoc ieties
z b
Ġtr ash
ne red
ra ham
qu ality
au kee
greg ation
per or
ĠM itt
Ġpurs uit
ĠG arden
Ġl ake
Ġwh istle
Ġclick ing
ĠCh uck
g t
Ġtradition ally
Ġa uction
Ġatt itudes
ar ound
ĠH P
Ġdis g
Ġapproach ing
Ġsurviv ors
ig hed
Ġex ports
Ġf ru
Ġwid th
N ever
ors es
ĠLiber ty
ĠColumb us
Ġhum or
ĠTurn er
ĠM om
ĠGu ide
Ġlegisl ature
Ġres on
ot ton
ĠIs lands
ĠWik ipedia
Ġbar rier
Ġdec ides
Ġpurch ases
âĢ ĭ
Ġch ampions
ĠF ried
ĠKe ith
ig ers
e or
Ġlif ted
Ġpure ly
iff erent
Ġess ence
ous ing
Ġdet ain
Ġsec rets
keep er
Ġpurs uing
Ġn ick
ĠCor byn
Ġ0 1
Ġtext s
per ial
ĠU ntil
point s
ĠH ide
Ġobserv ation
ĠHar vey
Cl inton
Ġthere by
b est
R O
on er
Ġeth ical
Ġrec ount
Ġunder mine
Ġw ishes
ĠMor ning
Ġur ge
Ġbl ess
Ġgrow s
ruct ive
Ġin sect
Ġh oney
e u
Ġregul ators
Ġm asc
AD VERTIS
not e
Ġmeant ime
Ġdon ated
force ment
ĠC rown
ĠB und
Ġoff set
ĠY ahoo
Ġeconom ists
Ġliber als
Ġ7 1
Ġtreat y
f s
E E
Ġremind er
P ress
ac ent
AC K
Ġsucceed ed
Ġf ont
f ox
ĠP ed
Ġl aser
Ġpassion ate
Ġbott les
Ġ7 8
ĠNor way
L a
w aukee
Ġt ong
arent s
Ġfail ures
Ġt ang
Ġhack ers
Ġrom antic
I O
ĠCh o
ur red
Ġsqu ee
ĠWW E
Ġa est
is en
ĠJ u
ĠB ou
st ock
Ġemot ion
Ġp ir
ĠF un
ĠUn iverse
Ġmet ab
Ġbreak down
ĠSh an
Ġf t
be it
aren thood
ĠA th
Ġident ification
ĠF DA
Ġfl ip
ĠFant asy
Ġp ist
s ign
Ġout er
ĠW orks
Ġadm its
ĠMad ison
ĠT a
Ġfr action
r ust
ĠCam bridge
Ġdivor ce
Ġper mits
icial s
Ġdecre ased
ĠA w
IS T
Ġafter math
ĠD NC
V ideo
Ġgener ous
Ġsac rific
back ed
Ġcomp ly
Ġdraw s
Ġsens or
og g
Ġsu ed
Ġcomp aring
Ġexec ute
d ale
Ġwal let
Ġunf ortunate
Ġarri ving
Ġfin ancing
enn a
N EW
ĠC orn
Ġret reat
Ġdis orders
s chool
Ġvar iation
own ers
Ġstr ain
ĠArk ansas
r ained
ĠP ur
Ġt rop
Ġ( )
Ġenh anced
ĠWiki Leaks
ĠMil itary
Ġ8 2
Ġfeed ing
g ree
Ġfem ales
Ġwind s
Ġaccount able
Ġver dict
Ġsl ave
Ġconclud e
Ġhelicop ter
ĠK arl
z o
t ics
ĠM oney
ĠDep uty
ĠRod rig
ĠR aven
ĠRE UTERS
Ã ¥
p ublic
Ġtreat ments
rop olitan
Ġbatter ies
Ġche er
Ġpre ference
ĠConnect icut
ĠMem orial
ĠRob in
] :
ĠF isher
Ġcontact s
g ian
Ġlast ed
ĠJ e
ab l
Ġmass es
Ġs illy
Ġretail ers
Ġcre ep
ad vant
sec ond
Ġcomp ound
Ġcorrespond ing
ĠNe il
af i
Ġembed ded
ĠPol ish
Ġdestro ying
ĠCommun ications
Ġlack ing
ĠJ ake
ing ing
Ġd aughters
ol k
Ġsequ el
ĠAl t
Ġrec onst
Ġwond ered
ĠGu y
ĠN ort
Ġn ons
ĠU RL
Ġcapital ist
Ġencoun tered
ĠTy ler
Ġ vel
-- -
ĠE V
ĠD ub
Ġeconom ist
ĠM ission
Ġt at
Ġlicens ed
ĠE li
ĠE ss
Ġwar fare
aw s
C NN
Ġfound ing
Ġun h
Ġag ing
ĠVenezuel a
Ġvert ical
S et
ĠI RS
Ġstatist ical
Ġgif ts
Ġsm ugg
Ġre un
ch i
Ġsl ower
Ġadv ances
ĠPakistan i
ĠMar ia
ir able
ĠG host
ĠConserv atives
Ġgrav ity
ĠR oom
Ġf ierce
Ġcare ers
Ġ198 3
Ġvill ages
accept able
Ġam pl
s ource
A tt
Ġintent ions
Ġund ers
m n
Ġorganis ations
st ore
Ġauthor ized
g iving
Ġsepar ation
f ive
Ġking dom
Ġh ill
un ct
Ġgo verning
Ġcount ing
ĠM M
Ġwarn ings
ig ma
Ġ198 2
B L
Ġtr agic
Ġaw a
Ġdiagn osed
Ġins urg
Ġfar ms
or ph
ĠLuc as
ĠStud ios
ĠPlay ers
Ġcommission er
Ġlobb ying
Ġdis pro
Ġtaxp ayer
Ġed ited
vis or
n ormal
is ers
ĠSus an
Ġclean ing
ĠDown load
Ġtransform ed
Ġd ys
ĠMer kel
Ġsuspic ion
R T
Ġst abil
Ġstre ak
Ġcontin uous
iz able
it bart
Ġdem ol
t ail
Ġb oring
ĠAd vent
Ġc ub
ĠPri ze
Ġcons iders
Ġscreen ing
te es
Ġele ph
ĠHoll and
In ter
op es
ĠK rist
ĠSci ences
Ġgam ers
Ġmill enn
are st
Ġc odes
Ġdam ages
Ġcont am
m aster
Ġten ure
Us ing
h aul
ĠSpir it
p ace
crib ed
Ġincl usion
d i
Ġfun eral
Ġa ired
Ġinst ruction
ĠTh under
it ative
ĠE mb
Ġf ence
ear chers
Ġfe ared
Ġtraff icking
m outh
ard less
S outh
Ġal ph
Ġdon ation
ut ical
b ig
ĠP interest
ple x
Ġwork place
T om
se ud
ĠSt ars
Ġcred ibility
T ION
Ġinv ite
ĠS alt
Ġte ens
Ġmon sters
ĠE X
Ġinst itutional
F our
ĠSc ar
F ig
Ġde ce
d irect
Ġcollaps ed
ĠD anny
Ġcl uster
Ġjust ified
Ġhe nce
Ġhypot hesis
id ays
Ġl ip
Ġf ib
Ġsusp icious
Ġorgan izing
Ġden ial
Ġisol ation
Ġgr ace
ĠSpe ed
ĠWith in
ĠP ap
IV E
ĠThe atre
her ic
iv a
al og
claim ed
ĠH ub
Ġboy friend
Ġcivil ization
Ġnovel s
Ġur ging
Ġinter ference
ĠIslam ist
N G
ĠMorm on
Ġwrest ling
ham mad
Ġdoub led
h ave
Ġ' '
Ġsp awn
Ġth irty
Ġbelie ving
Ġmag netic
ank ed
Ġreal m
Ġexp end
Ġout right
Ġsoon er
uss ion
air y
pl an
Ġbr anches
Ġbenef icial
Ġste am
ĠInte rest
Ġcry ing
Ġdec ks
Ġmed ian
L ink
Ġcomp iled
Ġrecru iting
ĠPet ers
Ġind ict
Ġen ables
Ġeduc ated
Ġinv ented
Ġle verage
Ġrus hing
Ġelimin ated
Ġev angel
Ġspons ored
ĠC z
. âĢľ
ĠTh or
es is
Ġtra its
Ġrh yth
Ġunve iled
ĠB os
Ġc ort
r int
Ġroutine ly
Ġbe ers
Ġple aded
ad ows
ĠC incinnati
ĠUb untu
ĠCharl otte
ue ller
ĠBr and
ADVERTIS EMENT
Ġp izza
Ġag rees
Ġsolid arity
Ġlab els
Ġeval uate
Ġbreat hing
Ġalbum s
ĠLt d
Ġtem plate
writ er
â ĪĴ
elt a
Ġm ock
Ġtem ple
ace utical
ĠFor mer
ĠStud io
Whe ther
Ref erences
in ance
ĠBrad ley
Ġdisc our
p ath
th an
op ard
Ġincent ive
Ġshif ts
In te
F ree
Ġd umb
ĠH ills
Ġr ib
Ġlay out
ĠD est
oll ah
Ġentreprene urs
Ġdirect ory
ĠC arson
ĠP i
Ġmagn itude
ol er
Ġjump ing
ĠHind u
d ig
Ġsmart phones
ĠPr inc
ur able
Ġv ibr
Ġcompar able
Ġl au
Ġclimb ing
Ġult ra
ol ine
ĠIndones ia
Ġarrange ment
ĠO liver
im age
ĠT D
Ġwhe els
Ġpath s
ank a
ĠLe af
Ġpil ots
Ġtermin al
Ġincent ives
ast ically
. :
Ġmidfield er
Ġspec ified
Ġexcept ions
Ġadequ ate
ll o
Ġcoc aine
ĠB h
w al
dri ven
Ġpsych ology
Ġl ib
Ġpre liminary
Ġsn aps
Ġc ents
Ġd irt
D ata
Ġpe oples
th a
ĠVer izon
ĠB ash
ord able
ĠGl ass
ĠSen ior
Ġscream ing
ĠVer mont
ĠP ence
Ġvis a
Ġpart ial
Ġlyr ics
Ġfirm ly
en c
ĠB JP
Ġtransl ated
Ġ8 8
st age
Gener al
Ġo x
X X
ĠTrib une
Ġintrodu cing
ĠPro du
ĠB uy
ĠC ut
Ġconnect ing
Ġreg ards
Ġcounterpart s
ĠSol ar
ĠL ED
Ġch ains
Ġac res
Ġcr icket
Ġappeal ing
O rig
Ġme als
Ġmon op
Ġgen et
Ġam end
ĠF arm
Ġwild life
ere r
arth y
ĠK le
wid th
ĠN av
ur i
co ins
ĠFriend s
Is lam
Ġtrad itions
Ġthreat en
ch ar
Ġun rest
Ġb ust
ĠG onz
Ġsc ul
re nder
Ġcreat ors
Ġsens ors
ĠCount ry
ĠSo x
Ġlike lihood
Ġcomment ed
200 9
Ġdetermin ation
Ġvac ation
ess ional
Ġfire f
ĠC ass
Ã© mon
Ġan ime
Ġconv inc
Ġmatch ing
ĠBook s
Ġbet ray
Ġcount ed
Ġgl ob
ĠMc L
Ġprec ious
ĠBelg ium
Ġpl aint
roll er
Ġtri ple
Ġpar agraph
Ġp upp
Ġmotor cy
an ium
Ġshe er
ĠProf ile
Ġtr ace
s k
ĠLeban on
Ġendors ed
Ġinvest or
Ġle agues
Ġ: :
Ġlicens ing
Ġkill s
g i
Ġd ivers
Ġaccur ately
umb ling
Ġshif ting
ĠF el
W ork
ĠAr thur
Ġto y
ĠN ixon
ĠCow boys
Ġtw ist
ĠJ oy
p op
ĠAM D
Ġdisappoint ing
Ġavoid ing
Ġfold er
Ġcomp assion
H ill
Ġun st
Ġprohib ited
Ġdis m
A V
Ġ19 20
Ġtrans f
ĠBrazil ian
ĠP AC
ĠArgent ina
Ġwork force
Ġaccount ing
ul ative
iv ic
Ġgr ain
h ome
Ġproceed ings
Russ ia
J an
Ġsp are
Ġlength y
ias m
ĠEb ola
Ġsl aves
res a
S ign
amp s
i ots
ĠG arc
Ġdub bed
U PDATE
s ky
Ġin mates
ĠA B
Ġment ally
Ġr iot
ĠPolit ical
ugg ed
ĠQ B
Ġfundra ising
Ġsh aped
ĠUnivers al
Ġtouchdown s
Ġover look
Ġj ew
Ġ198 1
J ames
ĠT ob
Ġcelebr ity
Ġwilling ness
t able
Ġf ict
Ġmar ine
Ġsevere ly
ĠR ams
Ġestabl ishing
G ame
Ġgener ating
ri ving
Ġind irect
K ey
Ġnegoti ate
Ġshould ers
Ġshe d
ĠF ab
Ġimplement ing
Ġrenew ed
Ġint u
ĠWe iss
Â £
Ġor g
Ġconsum ed
ĠBro s
Ġm erc
ĠN in
Ġd ivid
ĠFin ance
Ġswim ming
ĠQ aeda
Ġcreat ivity
l ive
ĠSer ge
Ġrel ating
Ġp owder
ĠB Y
Ġse ctors
ate ur
Ġb ite
Ġn an
c end
agh d
Ġassum ptions
A lex
Ġcertific ate
ke es
ĠR osen
Ġinteract ive
ck er
Ġobser ve
ĠGl enn
Ġaccomp any
Ġaver aged
Ġtrad em
ĠO d
S ometimes
l ib
St ud
ĠG ates
M ake
Ġref lection
if ting
Ġbra ve
iox ide
Ġn it
ri en
f old
Ġaffect ing
Ġroy al
j ar
ĠB L
ios ity
ĠH unt
ĠZ h
b ull
Ġwor n
A nt
red ict
Ġfil ming
Ġsa il
rodu ced
P ar
Ġh ij
ĠL ane
ĠPh one
Ġind igenous
Euro pe
Ġearthqu ake
ubl in
lud e
B et
Ġblack s
ĠN ex
Ġmount ed
Ġadapt ation
U E
Ġconsult ant
Ġdetect ion
ĠT ell
Ġsubsc ription
US A
r ament
Ġclin ic
out ube
Ġcompat ible
ĠMil waukee
u ced
ull ivan
cc a
Ġrec alls
ĠMar co
Ġf uels
ip h
it ated
ĠAr men
Ġcor ners
Ġdi abetes
G od
Ġspecial ist
Ġesc aped
ĠHigh way
ĠM ort
Ġ196 7
olph ins
Ġrep ublic
Ġpredict ions
Ġwood en
ale y
Ġadjust ed
f ly
Ġless er
Ġad mission
Ġliter ary
ĠAn ne
Ġfar ming
Ġfol k
Ġdis k
Ġproblem atic
Ġtri umph
Ġimp ress
Ġlaws uits
Ġtrans cript
St art
Ġaggress ion
Ġ7 9
ĠM ason
Ġmar ry
Ġorig ins
Ġsl ip
ul um
Ġhe aling
Ġm aker
ĠC reek
A h
ĠC elt
ĠCol omb
O ct
ĠA ve
ĠGer mans
Ã Ĺ
ah l
S y
ĠBull s
ĠB ond
RE AD
Ġwhere ver
Ġcontin ent
Ġt ub
ul ent
ĠDou glas
Ġdesc ript
Ġmusic ians
on i
l ash
aff e
Ġaud it
ool s
ĠCl ar
ĠAn im
ĠGold man
ĠM ust
Ġunder way
ĠE dd
ĠBl ues
E G
o a
Ġh oly
Ġmort ality
Ġtr ap
ec hes
Ġeval uation
c s
ĠRe ading
o pp
Ġab used
ant o
is ible
ĠT ar
ĠSt re
Ġvulner ability
Ġbankrupt cy
Ġdel ays
ĠP arenthood
ĠM O
Ġv on
ac ious
Ġp ub
Ġsuper hero
ugg ing
ne ath
G erman
ĠGall ery
Ġindepend ently
Ġp ants
oc aly
Ġve to
Ġsk illed
mun ition
d ays
R ober
>> >>
ir k
Ġsh ore
ĠK am
eng u
Ġle ather
p se
ĠV A
Ġtim eline
Ġle aks
ol utions
Ġy e
ĠB B
cl osure
re r
Ġres et
Ġresign ation
p y
Ġsu its
Ġle af
ĠBron cos
ĠP L
Ġdark ness
Ġorgan ize
Ġcy cling
ur l
Ġinter cept
Ġsher iff
Ġw reck
oot ing
ĠSuper man
Russ ian
ro se
Ġsw ift
i ology
Ġafter wards
N ET
ol o
Ġsupport ive
ĠR C
Ġres ume
ili ation
Ġ1 30
oca ust
Ġin ch
fe ld
Ġshoot ings
Ġ] <|
Ġse iz
pr ing
ig nt
oc c
ĠBern ard
Ġin appropriate
D B
ail and
Ġform ing
ĠSp ider
Ġbehavi ors
Ġlaugh ing
ĠS omething
ather ine
R ich
Ġtest ified
Ġ18 0
Ġaltern ate
ĠC her
pe ople
Ġ196 8
Ġ19 40
es ity
Ġpract ically
W est
Ġun anim
Ġreb ell
lev ant
ĠE c
Ġthorough ly
Ġins ists
B rit
Ġcr ashed
ĠIs a
Ġbroad band
Ġlabor atory
Mus lim
Ġteen age
Ġdis advant
ĠBud get
Ġc od
ill o
Ġdoctr ine
se lling
Ġencry ption
ab ul
ĠEx change
Ġloc ally
Ġout break
C ap
ĠH um
ĠVik ings
Ġsound ed
Ġoff shore
Ġap ology
Ġexp ose
Ġout fit
Ġautonom ous
Ġcost ly
pe red
Ġk ernel
Ġcorpor ation
ĠD M
iss ance
Ġcons olid
Ġexha ust
M al
qu al
Ġanalys es
ĠJohn ny
Ġphotograp her
Ġne at
Ġkill ings
ĠSp encer
Americ ans
J ack
Ġcolon ial
Ġ1 10
T unes
ĠRe ed
Ġdemonst rations
Ġun e
RE L
Ġs ie
Ġchart s
ĠM ember
Ġreason ing
Ġclass ical
orn s
ĠPalest ine
Ġed ges
he w
ĠG ate
Ġattack er
Ġveget ables
OS T
ble m
Ġpro x
Ġemb assy
Ġgr ay
Ġlect ure
at on
Ġmat ched
Ġpurch asing
umb l
u j
Ġswit ched
al ph
Ġint end
ĠAg ree
Ġb ind
Ch ris
Ġloc als
ĠSe ah
Ġoblig ation
ð Ł
act ic
ĠL iving
H igh
ĠT ry
ill ery
p ur
Ġr ated
et ing
ss on
erv ation
fund ed
1 10
Ġstat ue
ĠWal ter
Ġgarb age
Ġstraight forward
Ġbus es
Ġelabor ate
lement ary
row th
epend ence
ĠJ oh
Ġinf er
ra pe
ah a
O s
Ġterrit ories
ĠSystem s
Ġ197 6
S er
ĠL ock
Ġfl owers
Ġportfol io
Ġ10 1
Ġmob il
mar ks
Ġgod s
ĠB ased
ĠBet ween
Ġdem on
Ġpre st
Ġtra uma
dis play
Ġinf amous
ĠN C
ocument ed
Ġunf old
U I
l ie
ĠMichel le
Ġhe d
Ġair line
Ġes p
ĠS W
at ers
Ġspot light
Ġpriv ately
Ġor che
oub ted
cul es
ĠM MA
Ġh alt
ĠK och
Ġs isters
Ġbes ides
Ġdeal ers
ĠHom eland
ar ming
G reen
Ġaccommod ate
Ġfrust rating
ĠT ory
ĠAl f
ignt y
ĠL ess
S ON
Ġmed ication
Ġath lete
Ġl oving
Ġl ap
ĠD iam
Ġfor ums
â Ķ
be an
Ġ197 5
ĠMu hammad
Ġf ame
Ġatt ributes
ĠEm ploy
Every one
f il
au x
N Y
ĠDen mark
Ġn uts
Ġpe pper
As ked
ch a
Ġp y
Ġpred omin
ĠS or
Ġrank ings
Ġ8 1
Ġclos ure
ian g
Ġlim iting
ĠCom ics
f our
Ġmod es
ĠV eter
Ġstrik er
Ġsear ches
Ġc m
Ġimag ined
ĠCal gary
Ġd ated
ort ions
.. ."
ĠW R
Ġb urg
Ġwithdraw al
m i
ri el
Ġeffect iveness
S uch
Ġe ighth
Ġst ays
h is
ion ed
ĠIn v
pe lled
Ġobser vers
Ġint ake
Ġd ioxide
Ġcar riers
az ed
ĠUn it
ĠSub scribe
Ġenthus iasm
Ġs ink
oc ity
n esty
Ġm ph
Ġwh ilst
ph p
Ġ197 3
Ġmis leading
Ġpubl ishers
Ġcon vey
Ġmeasure ments
re ach
k g
Ġnom inated
ĠM erc
Ġsp ill
ĠRel ations
Ġsubstant ially
ID S
ĠW ATCH
ĠMove ment
u um
Ġhistor ian
ĠG ear
ack er
ĠC u
======== ========
ĠHar rison
ĠL uck
ect or
au er
op ing
Ġunc ons
ĠK ind
Ġlist ing
ĠL oad
Ġqual ities
W rit
Ġstr ings
Ġrespons ibilities
ro lling
ĠConf eder
Ġdelic ious
Ġd angers
Ġexam ination
Ġdiagn osis
ĠF at
Ġlock er
ĠN umber
ĠG PS
Ġhung ry
Ġple a
2 000
Ġqu ery
ĠS oul
ĠBr un
ke ys
Ġdiscl ose
Ġo h
Ġd rought
sh irt
g ro
n ames
Ġrev ised
ĠPal in
ĠB uild
Ġrel ies
Ġex agger
Ġgr at
L Y
Ġinev itably
writ ing
Ġvol umes
Ġh ood
resp ons
Ġign oring
ĠA CL
Ġblood y
ĠG B
v iol
ĠR ico
add y
Ġmem orial
Ġloyal ty
Ġvari ations
Ġmaintain s
S emit
Ġent ries
D ec
Ġ197 2
Ġsymbol s
Ġdiff er
Ġam munition
Ġshut down
ik ing
ĠS ad
ĠCarl os
Ġd ash
ĠP ere
V al
Ġw and
Ġfriends hip
ro ots
ap y
Ġp orts
Ġyour s
Ġal tered
U M
pro of
Ġdem ographic
Ġclass room
ĠW oman
Ġoccur ring
ĠBl air
Look ing
ins ula
Ġphot ography
ĠI l
ĠSoft ware
Ġp ile
oth y
Ġst ab
iss a
ĠD ennis
) (
Ġformer ly
Ġfundament ally
Ġalgorith ms
Ġredu ces
Ġbrief ing
ĠVill age
Ġtrib al
Art icle
ĠPlan ned
D oes
Ġh orses
ett a
Ġfulf ill
ĠR ace
Ġcelebr ating
Ġrap ed
Ġag greg
D ay
Ġhe ter
ĠB uzz
Ġhero in
min ation
Ġdesper ately
Ġves sel
m ines
Ġmet res
ĠP T
Ġinhab it
ĠBrook s
Ġ9 8
ĠWall ace
s ki
Ġmid st
ĠTrans portation
Ġgall ery
ĠH ud
Ġc her
ĠTe h
ĠL isa
in os
Ġrein for
art isan
ĠGM T
ĠA my
Â ®
Ġb ikes
H D
g el
âĢ¦ âĢĿ
Ġ8 4
Ġde leted
Ġ197 8
Ġun limited
Ġsk ull
ĠSun ni
Ġsac red
Ġdecl ining
Ġout door
Ġ8 3
Ġnew est
i op
Ġbelong s
Ġexerc ises
Ġexpress ing
Ġdisp ens
ĠS A
ĠSh adow
Ġpres cription
Ġaccount ability
Ġins ure
Ġmod ules
S M
ĠUp date
ĠLiber als
Ġspect acular
Ġsh y
Ġsche mes
Q aeda
ĠH at
ĠRaid ers
Ġju ice
Ġgovern ance
Ġgar age
Ġt ribute
id ges
T or
Ġconsum e
iz ont
Ġ ^
ĠH ockey
Ġf iber
1 20
Ġpresident s
Ind eed
ĠK el
ab ad
ĠEd wards
P N
Ġarch ae
Ġarr anged
Ġf lesh
ING TON
Ġlineback er
Ġp ipe
Ġfil med
Ġsh apes
ential s
Ġw ip
Ġbed room
Ġch ase
W A
ĠA qu
n ational
Ġrub ber
Ġsol ved
ĠPok Ã©mon
Ag ain
ĠSeah awks
Ġa ide
ĠM ueller
Ġconf using
Ġre ception
Ġplay back
Ġaccident ally
Ġn odes
Ġbillion aire
we alth
ĠCh apter
oubted ly
ĠTer ror
Ġl oses
ĠJenn ifer
rep resent
ur ring
rem lin
Ġperman ently
put ed
Ġb inding
aret te
Ġto ys
Ġtw in
ĠG it
Ġexhib ition
Ġr age
C opyright
M ike
Ġmisc onduct
Ġun le
Ġspir its
Ġw ounds
p rom
an te
Ġbo ats
S ep
ĠH em
ĠSil icon
Ã £
oc ide
Ġqu ad
Ġsell s
Ġconsider ably
Ġmed al
ĠR ah
uls ion
Ġdemonst rates
ĠPhot ograph
h ner
Ġfresh man
Ġman ages
Ġstrict ly
Ġsh ipped
Ġlast ing
al so
Ġchem istry
ĠP ick
ĠF ame
ĠCo ach
ĠD ublin
Ġsan ct
ell ar
Ġregul ate
bl ack
Ġlabel ed
Ġfin als
Ġth umb
Ġmilit ant
pt s
ĠShe l
ĠP as
Ġtoler ance
Ġvig il
Ġfin es
Ġpre jud
Ġskept ical
Ġsp ite
200 8
ĠN PR
ĠL ost
Ġexcept ional
ĠMalays ia
ane ous
let ter
de gree
he lp
pp o
Ġpro c
Ġg rey
Ġfan cy
ĠN A
ft en
Ġstre ams
Ġt ier
ag ging
ĠA gr
se mble
Ġreason ably
Ġtack les
Ġpuzz le
ĠW onder
Ġ8 6
h ole
Ġcance lled
Ġden ying
ol an
w ear
ch air
Ġlin ear
run ner
osit ory
ĠCh ile
C ity
ĠSer ver
App le
in ate
Ġpit cher
t or
ĠD R
Ġprocess ed
ĠZ ion
ie val
ĠA ld
Ġlove ly
b ul
ak u
ĠTr uth
Ġsp ends
ĠFor um
th irds
Ġmid night
Ġorganiz ers
Ġrest ored
Ġun acceptable
ĠJ uan
ĠRes ources
ĠY ears
ĠM C
Ġsub mar
Ġtun ed
Ġgenuine ly
Ġteen agers
Ġret rie
heim er
Ġ9 6
as m
9 00
ĠPal ace
Ġfacilit ate
Ã© s
Ġmon ument
Ġf art
ĠOper ation
ur u
Ġqu o
Ġl uc
S ch
Ġd ancing
ĠRepresent atives
Ġm ature
Ġrel ate
ĠHer o
Ġout lined
olute ly
ĠD od
Ġautom ated
Ġoblig ations
ĠJ a
Ġf oul
work ing
Ġdiv isions
Ġsexual ity
ĠUr ban
B ay
Ġext ends
man uel
C OM
Ġsurve ys
p it
Ġtour ism
IT Y
ĠR oth
re ated
ĠV iol
ung le
l en
ĠMcC arthy
ard ing
Ġsuccess or
ĠTh ailand
Ġi Tunes
com m
Ġ8 7
Ġle ap
ĠBill y
Ġad vers
it is
ĠBenn ett
Ġanonym ity
Ġin ability
Ġdefin ing
ĠJ ar
Ð »
Ġab oard
E arly
ĠT ill
ĠN DP
ĠCh arg
Ġdr illing
Ġrecommend ation
Ġunder neath
Ġ Ø
ĠSt ring
!! !
ret ion
ĠÂ ĵ
ĠR ush
ĠB us
ĠF ly
ĠSp urs
ĠRich mond
Ġsubject ed
Ġhear ings
Ġbe ll
Ġbattle field
light s
ĠG and
ĠSh ield
form ing
Ġinc umb
Ġp ound
Ġspe eches
Ġgener ic
ĠGriff in
Ġconsist ency
S uper
ĠOb viously
Ġvict ories
A ug
Ġp seud
ĠR ic
W H
in ery
ow een
ell a
O G
ĠM i
ĠCz ech
ĠBang l
Ġcontract ors
ĠIn valid
Ġcor rid
Ġris en
Ġsn ap
ĠChron icle
D ep
Ġl ined
Ġover haul
IT H
ĠCh amber
Ġad verse
Ġtong ue
Ġgu ilt
Ġinc oming
Ġsal aries
Ġprem iere
ĠCom merce
Ġpar ade
Ġp iv
ĠH ope
Ġtrave lling
ĠEl sa
ĠV irt
ĠBre itbart
ĠRet urn
on ge
Ġste pping
Ġembr aced
Ġfrank ly
ĠL LC
Ġname ly
Ġse ct
clus ion
rane an
Ġrender ing
ĠBet ter
Ġn ort
ĠZ ero
ĠM ack
cl osed
Ġconfident ial
ĠC ond
Ġcon cess
ĠSo on
Ġpl ates
Ġtransl ate
Ġconfront ed
ai ro
ĠBe yond
ĠSe ven
le m
Ġexhib it
Ġ196 9
el f
A uthor
ĠQ atar
Ġanaly zed
as i
Ġtact ical
ĠTit le
Ġl iability
Ġm elt
âĢĿ âĢĶ
Ġdisc on
ĠRec ord
ĠWork ers
Ġdef ic
bl og
ĠSoc cer
Ġem power
Pro f
ĠPack ers
ĠHur ricane
Ġfunction ing
Ġbureau crat
h al
Ġart if
Ġb inary
Ġd ive
ĠAcc ount
M et
Ġun ited
ĠAr n
Ġarri ves
s is
Ġlic enses
ĠSur vey
M I
Ġstro ke
Ġm as
ĠF ile
ĠElect ric
Ġback lash
Ġred e
ul u
pro v
Ġvend ors
Ġdoub ts
Ġpart isan
Ġr ings
Ġdon ate
ĠAut o
ĠCub an
ĠBry ant
Ġsign atures
Ġsteal ing
Ġc argo
uster ity
Ġfel ony
ĠC ape
m ile
al in
bor ough
ĠS i
acc ur
Ġgrocer y
Ġ0 2
ĠM VP
head ed
Ġcloud s
ic ers
Ġpublic ations
ĠF itz
Ġcasual ties
Ph ot
Ġnegoti ating
ĠSh ar
Ġg ard
ist ically
Ġcoast al
Ġaut ism
it ial
ĠML B
Ġobject ives
Ġment ions
th s
Ġ9 11
Ġdefend ants
Ġm ate
L ife
ri pp
Ġsovere ignty
OR T
ming ham
ig a
Ġelectron ics
ĠStud y
Ġgl ory
ier ra
ĠG ay
ĠG reens
ĠH BO
Ġliber tarian
c ill
sc he
Ġprem ier
Ġarrange ments
sp ace
un s
ĠIce land
Ġv ib
p x
ĠR at
Ġves sels
Ġac ute
Ġhon our
Ġdiscl osed
bs ite
Ty pe
Ġfl ows
Ġ> >
ĠDef ence
ĠNe ed
hold er
Ġsport ing
ĠReg ional
Ġlack s
Ġscul pt
ĠP ad
ĠH alf
Ġnecess ity
Ġpre season
Ġind ef
ap or
Ġ{ \
Ġfort un
Ġu seless
ĠBrother s
Ġout let
Ġ197 7
Ġconvinc ing
Ġcl arity
Ġlegisl ators
Ġd ot
ĠB obby
Ġcatch ing
ling ton
= âĢĿ
Ġdign ity
ĠG as
Ġ9 3
Ġint ens
ĠMet hod
ĠTit an
ĠBarb ara
Ġdetermin ing
Ġpret end
B it
Ġart ic
ãĢ Ĥ
Ġj ack
Ġutter ly
Ġprotect ive
or ity
w rite
orient ed
Ġme g
ĠR AM
ĠS ay
ed ge
Ġstimul us
Ġhe al
Ġtw elve
Ġcharacter ized
ĠPr int
Ġbl own
c ost
Ġmarket place
Ġd ense
ent ions
Ġc ute
ai res
there um
Ġprop ri
Down load
Ġn od
ab el
ĠP un
ex p
Ġspons ors
Ġt ube
az ines
Ġtheoret ical
R et
ĠNob ody
Ġs lic
uk i
ag ged
A v
ĠM all
Ġl ighter
Ġim pe
r ong
ĠI v
Ġspe lls
ĠSim ilarly
Ġhun ger
Ġflood ing
Ġadap ted
ĠAL L
ĠEvent ually
ter ior
ĠPhill ips
ĠS F
Ġret ro
Ġ Ï
ocrat s
Post ed
ut ing
u ity
aug hed
Ġprev ention
S an
ĠS earch
ĠBrown s
Ġgen ius
Ġlegit im
n ik
Ġc ure
Ġp ale
ĠAtt ack
Ġswitch ing
ov ic
Ġevolution ary
Ġfore sts
RE S
ĠC M
ĠSh ah
ĠBe ast
pl ess
ĠS L
ick ets
uff icient
Ġen abling
Ġmus cles
a a
ĠM aj
ĠBut ler
Ġcomple ting
Ġglass es
ĠB P
Ġ197 4
Ġqu arters
Ġsens itivity
Ġse am
const itutional
ĠT igers
ĠS ent
Ġantib iot
ron es
R ob
w er
Ġ9 2
ĠCol on
ĠBry an
Ġca res
Ġ ),
Ġbarrel s
ĠT ib
Ġair pl
atic an
Ġachie ving
Ġread ily
Ġmal ware
Ġexplo itation
ĠK ill
Ġtable ts
Ġmist aken
ĠM ode
W ashington
Ġaffili ate
us hing
Ġmurd ers
lick r
Ġw are
um ns
M er
Ġm all
Ġun ch
ĠSand y
ĠAl tern
Ġco at
Ġha ul
Fr ank
Ġlist ened
d isc
w ick
Ġequ ation
Ġastron aut
Ġjurisd iction
uten ant
te am
Ġdeb ris
Ġsubscrib ers
ĠB ishop
ĠM IT
Ġhas h
Ġmet a
T ur
ĠNever theless
ou st
ĠPant hers
Ġreb uild
Ġhe m
ĠM B
Ġ9 7
Ġr am
Ġhold ers
P oint
Ġdr ill
Ġtrib e
ĠCl ay
Ġl aughed
Ġad min
Ġext ending
Ġsubscrib ing
Ġspec ify
Ġrefere n
Ġinfl amm
ul ator
Ġbip artisan
Ġspons or
Ġcool ing
Ġpredec essor
Ġins ights
a ired
Ġsomet ime
Ġ197 1
Ġref usal
Ã£ o
raw l
ant ing
Ġelect ro
Ġbe aring
Ġred ist
A FP
ĠArab ic
A ng
ĠCast le
Ġfinan cially
Ġfr ames
Ġcous in
Ġroll s
ri ages
Ġup side
Ġr ats
IN E
out ed
ĠO wn
Ġsynd rome
Ġh ind
ĠSh i
ĠIm perial
Ġnot orious
ĠFr an
Ġnight mare
Ġp airs
Ġfire arm
Ġswe eping
Ġw it
Ġswe ep
Ġbusiness man
ĠSel f
ĠTo o
ĠPlan et
Ġdu o
ĠJam ie
Ġend e
ah n
Ġcred ible
ĠIn side
min ed
ĠOr thodox
ĠAust ria
Ġarbit rary
k ens
Ġpers ist
Ġattack ers
Ġsur pass
Ġpro port
Ġf ond
Ġhard est
Ġa ston
em ail
cast le
H ouse
Ġmob ility
Ġcan cel
vel t
Ġexpect ation
Ġassoci ations
ĠOb ject
Ġneur ons
Ġdomin ate
Ġglob ally
ĠW ii
om atic
Ġreview ing
Ġor al
) |
ĠJ av
ĠI b
b uilding
rote ct
V A
d el
Ġviol ating
Ġnew er
Ġe leg
le tt
Ġportray ed
ĠEd ge
Ġhydro gen
Ġl ately
Ġsepar ately
Ġtre asure
Ġchar ter
Ġm igr
ĠTO DAY
re amed
Ġendorse ment
ASH INGTON
Ġter rain
Ġv owed
ĠNew ton
Ġtour ist
Ġtroub led
Ġtr icks
ĠSt op
Ġrevel ation
Ġdis ability
Ġa ides
ĠF ast
at ched
Ġ3 50
ĠI BM
ĠSud an
Ġc ab
ĠR achel
or able
Ġapolog ize
ĠInd ex
ĠL E
Ġre iter
Ġdeter ior
Ġnation ally
Ġsp at
ser ver
ĠD awn
Ġrel ied
ir i
k ill
Ġbi ology
amp ed
Ġnav igate
ang o
Ġpos es
ĠB aghd
Ġdesc end
agon ist
Ġsettle ments
cont rol
or us
Ġp ockets
res pect
ĠJul ian
osp el
ĠMar cus
ĠTeh ran
Ġprov in
Ġart istic
Ġcommit ting
ĠWell s
ĠSp ot
li ent
Ġre ct
ĠQu inn
os i
Ġtourn aments
os ures
m el
Ġphys ician
Ġelev ated
Ġ14 0
ĠB ird
ĠContin ued
L D
Ġpro ving
Ġshort age
S ur
iz ards
ĠLaur a
Ġdecl aring
Ġb atch
ĠDou ble
Ġwas h
Ġg au
Ġident ities
Ġpers istent
ĠSw ift
es pecially
Ġbl end
Ġinter im
ĠB order
Ġst raw
Ġc ache
C le
ĠGl obe
ade qu
g reen
f eed
umbl r
ak y
Ġpr ay
Ġst ark
ott om
ar cer
im port
Ġviol ate
Ġvill ain
M obile
Ġinv isible
Ġdistingu ish
{ \
Ġgrad uated
Ġgal axy
ian ces
ic he
ĠAss istant
Ġles bian
Ġart work
Ġexclud ed
Ġvar ied
ith ub
ĠA x
pt ic
Ġal iens
ĠC SS
Ġover time
ant i
Ġtem pt
Ġdefin itive
F I
ĠD aw
Ġd rown
Ġover see
Ġpron ounced
Ġinter section
Ġinc on
ĠPr im
ĠMach ine
C R
aus ible
p df
Ġa ster
Ġkick ing
S and
Ġrun ner
ĠC OM
Ġacc using
ĠD ue
th ree
Ġassemb led
Ġc u
ĠL ang
Ġrel ent
ĠN ancy
Ġinflu ences
M em
AR D
ĠV i
ĠLeg end
ĠCard inals
IG HT
Ġpref erences
Ġpre y
ĠBre ak
Ġsub way
Ġob esity
EC T
Ġrevel ations
ĠNex us
Ġ8 9
P ut
Ġlay ing
Ġanal og
Ġfort une
Ġb io
Ġbul lets
Ġren ov
ĠLad en
art s
ĠN E
Ġal umin
ĠE S
Ġbes ide
fr ame
Ġhel met
ĠCl ose
ne x
Ġrisk y
ĠNe ither
V ID
Ġuns uccess
ĠW ade
Ġwar r
col or
Ġimpl ies
Ġvary ing
ĠLe v
ĠAff ordable
f ar
Ġrent al
Ġhand y
Ġtrib es
Ġtoile t
Ġkilomet ers
ĠCle an
C r
Ġre lying
ĠB iden
Ġsh ower
Ġbreak through
mont on
ernand ez
Ġban ner
Ġse al
Ġfavor able
ĠB annon
U ntil
ĠM itch
Ġm ush
Ġne ural
Ġd read
B uy
Ġn urse
alth ough
Ġtax i
ĠB ed
Ġdiss ent
Ġauthent ic
ĠMem bers
Ġrecip es
ĠL uther
ĠWh atever
ose velt
it utes
ĠJ ong
Ġreluct ant
Ġaim ing
C are
ĠN ag
ĠJo ined
Ġcred ited
Ġanaly ze
Ġfam ously
Ġassass ination
Ġk icks
Ġpat ience
ĠF ish
rament o
Ġa qu
B R
Ġback ers
Ġun aware
Ġur gent
b ad
rib ly
d ie
Ġcl ause
Ġprof itable
ĠClass ic
ul ates
Ġins pire
Ġvolunt ary
Ġfact ories
Ġsubst itute
d b
Ġmass acre
Ġmeas uring
Ġp p
ĠE rd
Ġrecre ational
un ks
ĠJ obs
ĠSe lect
Ġsum mar
ĠSt ra
Ġve t
ĠTra vel
Ġpr ayers
Ġexpress ions
B ER
ĠFl ight
Ġtrick y
Ġmag azines
? !
E v
ĠT arget
ine z
Ġdisc ourse
Ġca ut
Ġcy cles
Ġpass ive
ĠUS S
ĠCol lect
G reat
ĠYan kees
c ry
Ġsoc ially
Ġal beit
ĠV atican
Ġp sy
ĠC BC
id o
omet own
P ublic
Ġund oubtedly
M at
r one
Ġg i
ĠR ud
Ġstar ring
br aska
ĠHispan ic
ĠGarc ia
ĠK remlin
th ird
Ġp ause
ĠE ither
Ġb out
Ġatt ribute
Ġp uck
ro gen
ĠC ab
Ġp etro
econom ic
ĠW ire
ah o
Ġtext ure
Ġf isher
Ġp up
ĠM ul
ĠH orn
Ġmos que
II I
Ġrece ivers
Ġcrew s
Ġhe ated
sy stem
Ġprovin ces
so ever
Ġst icks
Ġwor ries
ĠH R
Ġcontract or
ĠFour th
Ġdefend ant
Ġintention ally
âĶ Ģ
am as
l arg
ĠS O
Ġmemor able
m os
s cience
Ġman eu
N ational
Ġpreced ent
ĠAgr icult
Ġbroad ly
Ġfit ting
S ports
ĠB R
ĠHol ocaust
G S
ĠF L
Ġsatisf action
âĸ Ī
Ġload ing
in ho
Ġf oster
ac hers
Ġour s
ĠPolit ics
Ġdynam ics
Ġblog s
rit ical
ĠPet e
ĠP ast
ĠW inn
C ong
B ased
Ġmin im
Ġfac ial
Ġsum mon
he astern
as ma
ĠInvest ig
Ġse min
Ġval ued
Ġmulti player
er ting
ĠNob el
ĠAgree ment
Ġiniti ated
ĠPh D
Ġsupp lied
ĠC ou
CL A
#### ####
ĠH ait
ul k
ab a
Ġstr anger
Ġattract ion
Ġbuff er
p ic
y ang
ĠAl ong
us ions
et e
Ġdisappoint ment
ĠPro test
Americ a
atern al
ĠDr ag
ĠC row
Ġstick ing
Ġteam mate
Ġ9 1
u cc
b one
om o
ĠHall oween
n ut
Ġprov es
ĠAl ice
ĠSam uel
Ġsear ched
h um
p ound
ĠEnter prise
ĠD ra
Ġinc omes
u v
t alk
Ġsw ept
ĠDe al
ĠWork ing
ĠBir mingham
Ġmart ial
IM E
Ġepid emic
Ġdim ensions
ĠNash ville
ĠGirl s
Ġun lock
H ub
ĠChief s
Ġfict ional
Ġentreprene ur
REL ATED
Ġbroad c
l ay
ĠBrew ing
Ġmis under
" ;
Ġgrand father
e very
app ro
T im
ĠIsrael is
J apan
Ġinterpre ted
Ġtheat ers
Ġne o
With out
ĠEngine ering
ĠG rey
l ast
ant le
ĠAr c
uc le
ĠTra il
Ġachieve ments
im ated
Ġp ars
Ġdomin ance
Ġhy d
Ġflaw s
ĠP il
Ġst er
ĠRe form
Ġworry ing
b uild
Ġyoung est
Ġcontribut or
te lling
Ġparam eter
Ġ ðŁ
ĠT her
Ġevent ual
Ġl iv
Ġint act
ĠFer r
Ġconven ience
ĠN at
ĠG R
Ġar ise
ĠSn ap
ĠC our
Ġmod ify
off icial
Ġsub mission
he tt
Ġdef ines
c ulation
ĠM ans
Ġfin ale
Ġpred iction
Ġobst acles
terror ism
Ġo d
ĠL ot
Ġsur render
Ġarch ive
Ġtact ic
am ation
ĠD ays
Ġpo le
Ġphilosoph ical
ain ted
de velop
ĠCom puter
Ġmed i
ĠN EW
ĠJ oint
Ġbicy cle
in is
Ġpr isons
ĠBase ball
ort ing
Ġ9 4
Ġinf lic
Ġen roll
ĠAl most
A c
Ġdisc ont
Ġban ning
Ġmal icious
Ġw ard
ĠF inn
v ised
Ġtr ump
Ġ ic
Ġreven ge
ced es
ĠW el
Un like
Ġwhat soever
B ill
Ġnav al
ĠN ep
ĠC hen
em ale
Ġentertain ing
ange red
Ġnational ist
ĠG A
Ġdiv ine
Ġbas eline
Can ada
Ġcorrel ation
ir med
ES S
Ġnetwork ing
un ique
Ġneighbour hood
D irect
op ular
am y
Ġshe ets
ĠA bs
z i
Ġneutral ity
ost al
Ġignor ance
Ġg aps
RE E
P H
ful ness
Ġorgan ised
ell ing
V R
Ġtouch ing
ĠN HS
Ġconcent rated
Ġsk ip
am bers
Ġconsult ing
Ġregul ated
Ġassault ed
L ater
cul us
ĠCh and
Ġopp ression
ĠK ate
Ġm aj
ĠPortug al
Ġle thal
S l
ĠDiam ond
t ic
Ġinter medi
in formation
Ġthe or
ĠL em
ĠK ash
Ġover r
Ġev olve
int age
ĠS old
Ġdu pl
Ġinvent ory
L aw
ĠT ru
ĠS ach
Ġn est
Ġris es
Ġan k
Ġdesign ing
Ġconfront ation
roph ic
Ġsa ves
Ġeuro s
Ġc yn
ĠK ath
ĠPict ures
t ake
ast rous
ĠP ath
Rem ember
Ġhor izont
ĠHol mes
Ġimport s
Ġtw itter
Ġn asty
ĠS pect
ur as
umb ai
ĠC ox
ĠMo z
Ġcur s
Ġdr ain
ĠAn imal
Ġcrowd ed
Ġquant ity
Ġover ly
ĠRo osevelt
Ġsk i
Ġadminist rators
ĠB ear
sp oken
ĠMat ter
ĠD A
Ġscript s
ĠMot ors
Ġinv itation
Ġc ra
k h
Ġtrans mit
Ġoff enders
Ġres ur
ĠCar ib
Ġto oth
Ġh ated
Ġse aled
irl ines
Ġdon or
Ġmer it
Ġcommit ments
us cript
ĠFire fox
ment ation
ul in
ne apolis
Ġvar iant
ĠHug hes
ĠK or
Ġremem bers
M arch
ĠC ant
Ġ196 5
gener ation
Cal if
ĠUS D
rav is
Ġfix es
Ġcost ume
ĠAngel a
Ġmac ro
ĠEp isode
on ies
all ow
am o
W ind
s im
Ġ196 4
ĠG ive
f in
Ġbr ick
Over all
Ġr ab
ĠPD F
ĠRodrig uez
M M
Ġp add
Ġcomprom ised
ĠN athan
Ġc um
ĠR PG
Ġw rist
Ġinc arcer
ĠSur v
m und
Ġstar ters
Ġnav igation
igh te
IC K
li ers
ĠFin land
ĠL G
h ots
Ġfree ze
Ġreject ion
Ġmathemat ical
ĠAl b
he nd
Ġprec ision
Ġflaw ed
ĠPal mer
Ġcur rencies
as ures
col m
G old
L ong
inf o
Ġbelong ing
Ġn er
ĠBe er
In tern
le ased
f ull
Ġt ire
Ġembarrass ing
Ġpitch ing
Ġover th
Ġrob bery
Ġcomm em
Ġhol idays
Ġcl ash
ĠD ise
Ġab uses
Ġquestion able
l ation
ĠBroad way
im eter
ĠM es
Ġpresent ing
âĢ¦ âĢ¦
Ġble w
ĠHe y
ĠE le
Ġcur ric
ĠQueens land
Ġn erve
Ġupgr ades
Ġconstrain ts
ĠF oster
c lick
ĠS ullivan
Ġpro xy
ment ioned
Ġapp et
ĠIndian apolis
ch ief
Ġdispro portion
Ġinfect ions
ĠOccup y
Ġstead ily
Ġremind s
ĠBoe ing
Ġrend ered
Ġun cle
Ġunc overed
Ġc ord
T ex
gg le
Ġpharm aceutical
ĠDun can
our ge
bel iev
Ġball ots
Ġbase ment
Ġtradem ark
ĠRod gers
Ġb ay
Ġad oles
ĠCh ase
ere k
F ox
ĠE RA
ob i
Ġcont ing
ĠMont ana
ĠR aw
Ġopt ed
ĠG P
Ġb ats
anc ies
Ġbeh ave
Ġn arc
Ġdist ribute
ic ating
Ġout look
W ASHINGTON
Ġmanufact ured
are z
Ġgrand mother
g rav
Ġo st
A f
an ne
lic ation
as ive
Ġpack s
Ġst iff
Ġtu ition
Ġboot s
Ġa pt
ĠR acing
Ġa usterity
Ġback wards
us hed
Ġsu ited
ri ved
' '
ĠP ubl
ĠR ing
rit ies
Ġdig it
Ġevangel ical
Ġund ere
ĠMoh ammed
ed uc
Ġlink ing
sc ript
ilit ary
Ġnons ense
ĠP oly
Ġprison er
Ġdownload ed
Ġoff ence
Ġcontain ers
Ġmake up
Ġj am
ĠI L
ĠSh aw
Ġcomple ment
ĠT C
Cl ass
ĠC abinet
Ġint imate
Ġextrem ist
Ġthro at
Ġshar ply
ĠM icro
Ġat e
Ġprote ins
Ġcred entials
Ġcorrespond ent
g s
ide os
Ġen v
ĠW ol
Ġm im
Ġsecret ly
ĠM I
ĠC ris
l on
ĠF an
Ġcol umns
Ġhot els
ĠL an
Ġtrack ed
ĠAth let
om i
Ġinj ust
A K
Ġpress ures
AS T
ĠIn iti
r aged
serv ice
ic ides
Ġsatell ites
ĠAss ange
Ġbud gets
ĠY e
Ġqual ifying
F R
Ġhack ed
ĠK az
Ġland l
orig inal
Ġper ce
Ġcomp ounds
ĠBaghd ad
the m
Ġto kens
ĠM E
Ġins ert
Ġpun ished
min ster
se en
Ġwho ever
Ġemot ionally
Ġover head
Ġoption al
do ing
Ġsurv iving
ĠA ven
ĠL ore
Ġsol ving
' :
D et
Ġr ivers
Ġc ups
Ġinject ion
Ġinv alid
Ġelimin ating
Ġaggress ively
ĠChance llor
E vent
ĠNiger ia
Ġan throp
Ġmanip ulation
Ñ ĥ
Ġlif ting
Ġlaun ches
ĠK os
ect ed
Ġhor izon
Ġo ven
Ġcat tle
Ġham mer
Ġres id
ĠS ierra
Ġl as
Ch ar
t w
Ġbo oth
Ġmet ric
ĠS ens
esc ope
ĠCl in
Ġsubur ban
Ġswe at
Â ©
ĠAle ppo
ibl ical
Ġpl ag
U lt
ĠStud ents
Ġnice ly
AN T
Ġhor rific
ĠPet erson
Ġextrem ists
ĠBrother hood
Ġch ron
Ġconclud es
ĠJes se
Ġbrew ery
ĠC op
Pl ay
Ġmess aging
ĠA G
Ġpublic ity
ĠFI FA
ĠSac ramento
Ġjo ins
ĠCitiz ens
ĠPresident ial
P erson
ar u
et ition
Ġh ilar
Ġcompl aining
Ġprev ents
ĠBangl adesh
er als
pr ises
Ġprem ise
Aust ral
zb ollah
Ke ep
Ġr ides
Ġrecon c
Ġvac uum
ĠH erald
F T
ĠP ink
ah an
Ġadvis ers
Ġamb ul
Hill ary
Ġbr ush
c m
com pass
Ġhaz ard
Ġjust ification
ĠZ immer
Ġunder go
ĠBr ig
child ren
J une
Ġdest ructive
Ġde lete
ĠM ine
co very
Ã¼ r
ĠL l
Sm ith
Ġneighb oring
J on
Ġanch or
N one
Ġent ers
ĠAlp ha
un ge
Ġtrad es
Ġpict ured
ĠA round
ĠHer itage
ĠCom b
Ġtroub ling
Ġvirt ue
Ġtransf ers
Ġacc idents
Ġref und
ĠOver all
Ġrecord ings
Ġannoy ing
Ġk g
ĠCol in
ĠCat al
Ġsovere ign
Ġcor ps
Ġfe as
Ġo un
Ġtroub les
Ġnon etheless
iter ranean
Ġun constitutional
Ġsle e
ĠEd monton
ĠCr iminal
ertain ly
s ocial
se in
Ġpur ple
Ġle ase
Ġflo at
Ġdis astrous
Ġ19 45
Ġcommission ed
ĠLeg al
ĠB elt
ĠJess ica
Ġby pass
Ġcommit tees
ĠMS NBC
Ġam ateur
.âĢĻ âĢĿ
T er
Ġplug in
Ġdim ension
Ġg reed
ĠCost a
Ġs ab
Ġte aches
less ness
Ġden ies
Ġcompan ion
iction ary
ĠH TC
atern ity
Up dated
ĠAn aly
OM E
ĠRe ally
Ġl iver
Ġj acket
Ġir rit
ĠC ell
ind ex
Ġsince re
ĠP red
pl ant
Ġin accur
sp ons
ĠAll ah
l iter
k now
est a
Ġexam ining
Ġmed itation
ash i
M ac
Be ing
Ġcens orship
Ob viously
i ological
B E
ĠCh ip
Ġlegal ization
ĠZ one
Ġdeli vers
ĠAnt ar
Sc ott
ĠPot ter
Ġin adequ
ĠPict ure
at isf
Ġprom in
ĠQu ick
00 1
Ġrandom ly
ĠM urd
Ġop io
ĠD rew
ĠR ivers
Ġimpl icit
eal ous
pri v
ĠAh med
ĠOb serv
Ġboss es
Ġintern ationally
g om
Ġexpl ored
Ġforeign ers
Ġunemploy ed
um atic
ĠChall enge
Ġg re
ĠWhe el
Ġgrad uates
ĠBre nd
S O
Ġh ike
Ġhand gun
ĠE arlier
ip se
ĠInc re
ĠD ri
clus ive
Ġintegr ate
ĠR O
In vest
Ġcat ches
Ġcl ashes
ĠAr med
ĠA irlines
ĠNe braska
ens on
s qu
ĠG ot
Ġdisp utes
ĠM ong
ov o
Ġcalcul ate
ĠAct iv
U P
O pen
Ġirre levant
if ully
Ġb ans
ĠIm agine
ĠG round
Ġaccord ance
ĠS ave
st ick
ĠL ic
ĠFO X
Ġ0 3
w ould
ĠTele graph
Ġretain ed
b ot
at hetic
Ġdef enses
Ġl azy
Ġcig arettes
ĠÂ °
P ort
vent ions
ĠL ives
Ġd war
ĠP ir
Ġadj acent
augh s
l ocal
if iable
E mail
oun cing
se arch
Ġland mark
Ġencour ages
ĠClar ke
D I
ific ant
Ġfor k
ĠG ore
Ġnin th
ĠCurrent ly
Ġstri pped
Ġprop ose
Ġterr ifying
ur ious
Ġint ends
leg al
Ġpriv at
ĠPrin cess
min ent
ĠComm ander
Ġcomp act
Ġmole cules
worth y
Ġreal ised
Ġp ad
Ġcalcul ations
Ġstud ios
ĠSh in
Ġlight ning
Ġp el
ve t
ĠCub s
Ġdiscon nect
Ġcampaign ing
Ġenact ed
ĠNaz is
v ial
Ġch unk
Ġfar mer
Ġtoug her
av ailable
Ġcal ories
Ġintrig uing
Ġrecru ited
Ġkn ees
y d
ĠC av
Ġhyp oc
Ġclar ify
ust ain
Ġconf erences
play ing
OR K
Ġsan ction
ag ain
Ġinvestig ative
Ġeconom ically
Ġsubst ances
ĠC T
Ġdep ict
ĠBar n
F ire
Ġaff irm
V er
l ength
Ġsc are
uff ed
M uch
Ġprof iles
Ġmor ality
Ġcrit ique
if iers
Ġsocial ism
Ġr ugby
Ġsymb olic
ver ted
Ġcent res
Ġgu ided
undred s
Ġhomosexual ity
Ġflow ing
ĠF ac
head s
g reat
ĠWeek ly
Ġpro long
Con f
Ġpres erved
ĠEv il
Ġshe ep
ĠR af
b oth
Ġatt ach
Ġco pper
Ġplace ment
ĠZ ach
Ġload s
ĠP owell
Ġassess ed
Ġst ones
ĠBoe hner
Ġunw illing
Ġb er
Ġcoll ision
Ġnorm s
Ġprosper ity
Ġproceed s
Ġcou pled
Ġfurn iture
Ġn aming
Ġ16 0
Ġsl ice
Ġspecial ized
imp se
Ġnot ified
ĠP H
d esc
Ġgl impse
St ring
ĠSen ators
Ġimag ery
ĠB ald
ok o
ie ve
Ġrelig ions
Ġâ Ĩ
ĠTib et
Ġsubur bs
Ġple asant
S um
sh ow
Ġsequ ences
Ġsimpl er
yl an
Ġdeliber ate
Ġhed ge
Ġcrit ically
Ġfav ored
[ /
Ġexpl oded
Ġsub t
Ġfif ty
ĠTr aining
F ull
o ven
Ġporn ography
Ġch airs
ĠI G
uff y
ĠCarib bean
ĠM aur
pe ction
ĠSteven s
ĠEff ect
N AS
ĠT ogether
ĠPro cess
Ġdrag ged
ur ry
ĠHung ary
Ġcryptocur rency
Ġmind set
Ġref uses
Ġoffer ings
Ġencoun ters
anche z
Ġdr agon
ig ue
Ġl ending
Ġtri o
Ġh ometown
ĠW ing
oot s
ĠAny one
Ġinc om
ĠMed iterranean
ĠJo el
Ġhe y
Ġind ie
ok ia
Ġpack aging
Ġemphas ized
Ġrevers ed
Ġinfring e
ĠV oice
ov ich
ĠD ynam
Ġincorpor ated
Ġa ug
ident ified
Ġreal ise
ograph ical
ĠO z
ĠWe ather
Ġgl ance
âĢĿ :
|> âĢľ
Ġen velop
Ġor b
ĠC ulture
L ear
Ġgest ure
Ġsket ch
it ations
os ity
ĠO P
ĠAlex and
Ġst ole
Ġdisc retion
Ġcur b
ĠBe aut
Ġpot ent
i ably
Ġo k
ass es
ĠF ight
ĠMil an
B ron
Ġtravel s
Ġdis gr
Ġtal ents
Ġbre ed
Ġfl ower
ĠPro s
y our
Ġthr illed
J uly
izz ard
ograp her
op ic
Ġturn out
ĠErd ogan
ues e
Ġcop e
Ġcontin ually
ĠI de
qu ire
Ġrep rodu
ĠMin neapolis
ĠC art
c all
lin ing
Ġcance led
iz ers
Ġany time
Ġindict ment
ul ously
a ic
Ġstrength s
z h
Ġa irst
Ġmin ers
imens ional
U se
Ġsc roll
by e
Ġ12 5
ĠImm igration
ĠCons ider
Ġ q
Ġv ag
Hist ory
] )
ĠF am
Ġfather s
Ġshare holders
] ;
Ġcommun ist
F eb
ĠEdd ie
ed In
Ġcontrad ict
am pton
M C
ĠC and
ĠLu is
Ġaccount ed
Ġe rect
ĠM umbai
ri ans
Ġflee ing
Ġcon tempt
gh ai
Ġrest rain
m us
Ġdes ires
ĠS em
ous ands
av i
ĠEurope ans
Ġha un
r ams
Ġapplic able
A pril
p ay
Ġm old
Ġtow ers
p her
Ġder iv
Ġthread s
Ġres il
Ġg ambling
ĠP in
J im
Ġvo iced
ĠH E
ĠMus k
Ġreb ounds
asc us
ĠChe m
Ġdecent ral
ĠPriv acy
ĠH ig
Ġlack ed
om ers
Ġpract icing
fl u
K K
on est
Ġhas ht
Ġs add
c d
Ġorder ing
........ ........
Ġfact ions
R eal
B rien
Ġimport ed
Ġoverwhelming ly
ost ic
ond e
Ġdict ators
ĠD ian
ed e
Ġhabit at
ĠLook ing
ĠGO OD
Ġcritic ised
Ġd airy
. ).
Ġind ivid
Ġel ites
Ġscholars hip
Ġins pection
as a
ĠU ser
Ġnot ification
Ġman uscript
v or
Ġdep icted
per t
Ġref res
Ð º
mer cial
> <
Ġhead er
ĠÃ ł
ĠE thereum
Ġfru its
ĠCh an
rik es
Ġpredict able
iber al
ĠMart inez
ĠM ull
ia z
Ġconv ictions
ĠStr ong
ĠTh ai
Ġte lev
ĠGib son
Un ited
p ol
ĠM aking
sh aped
Ġmeasure ment
Ġcollect ions
ĠJ ared
Ġsur plus
Ġra ids
ĠCast ro
ĠPal m
Ġfemin ism
et on
Ġwas ted
Ġactiv ated
an ies
at able
Ġ9 00
Ġsc al
Ġdist ress
Ġsu ite
m ill
Ġsw ap
Ġab ortions
Ġcolumn ist
Ġfe ver
ophob ia
it ted
Ġpoet ry
Ġprec ip
ĠP ic
oll o
ĠLat ino
charg ed
Ġiss uing
Ġdepos its
Ġfinger print
Ġorg ans
re cy
O kay
ĠHel p
Ġforth coming
ĠL akers
Ġbe ans
ĠT ouch
ny der
ĠZ en
M icrosoft
Ġun law
Ġl ips
ĠT ask
Ġactiv ation
Ġappreci ated
ĠWood s
ew s
n ia
ĠB esides
Ġpurs ued
sec ution
omet er
ĠHT TP
Ġsatisf y
Ġrall ies
on ut
Ġconst itute
Ġoff s
Ġwe aker
Ġj ets
Ġwhe at
gr at
gh azi
ĠN ar
ĠUn ity
Ġprogress ion
ol ics
Ġlit igation
T able
Ġsup reme
cont ent
u art
ĠCh ad
Ġfin ances
Ġcons cience
Ġle ver
Ġsu cc
Ġ0 7
S am
Ġh urd
Ġ: )
j e
Ġcomp iler
ĠTex ans
Ġt ender
K ing
Ġcrack down
and ing
EL L
ĠDem ocracy
ĠMer cedes
Ġru in
ig s
m em
ĠAdv anced
ĠN ine
Ġpost ers
Ġefficient ly
ĠLight ning
us c
Ġschol ar
ĠMc D
Ġamb ig
ĠJeff rey
ĠB aby
s ight
Â Ģ
ens en
otten ham
Ġfre el
Ġkilomet res
Ġwh oles
Ġch ick
E xt
m ember
Ġd awn
c urrent
ĠCo ff
Ġcont rac
tr ue
Ġguarante es
ĠNorm an
ab lo
Ġcar ing
Ġj unk
ain er
ĠAn a
Ġtr im
ĠJ ed
Ġsh oe
Ġobsc ure
U K
Ġuncons cious
gom ery
ĠAdd ed
Ġhel m
ĠLabor atory
Ġbe ast
Ġstart ups
ab i
Ġactiv ism
ĠSum mit
ĠY ellow
Ġneed ing
ĠToy ota
em et
ĠC urt
Ġconfir ms
Ġmo ist
Ġliber ties
OS E
Ġinf inite
ĠPoint s
Ġdes cent
Ġconcent rations
Ġparad ig
Ġt ast
Ġneg lig
ĠK ay
ce ans
Ġsc attered
Ġthreat ens
ĠTra ff
ĠK er
Ġaccording ly
Ġinstall ing
s omething
p resident
Ġb ored
ĠT u
Ġrock ets
ĠR u
Ġsec uring
ĠM ade
Ġro oted
ĠPro per
F eed
ĠW es
Ġdis hes
Ġinstruct ed
Ġport rait
Ġgot ta
Ġwood s
Ġir ony
ĠHud son
Ġm g
Ġpass port
ĠStud ent
Ġtransport ed
Ġunh appy
ĠGand hi
ĠVis it
Ġassert ion
k n
J eff
Ġun int
Ġfix ing
ask et
Ġwat ches
ĠCreat ive
Ġd ining
Ġman ually
Ġcustom s
ĠE P
Ġint ensive
G en
he ll
f an
~ ~
ug ar
ch ant
Ġpat ents
Ġprofess ors
ĠStat istics
200 7
Ġs id
ĠK an
ĠCan cer
Rober t
P ac
Ġassign ment
Ġcry stal
um my
ĠMarg aret
ĠK enn
Ġinf ilt
Ġund ocumented
p os
ãĢ ģ
Ġremain der
ĠNY C
Ġsp here
ĠA ub
ĠMos ul
ĠAh mad
Ġhy pe
ĠHe zbollah
Ġ196 6
ĠB ak
ĠD w
Ġshout ing
ĠFred er
Ġhe ating
ĠSpr ings
ac cess
p aid
Ġceleb rities
iment al
raw ling
Ġr abb
ĠBoy s
ĠInter ior
on al
Ã¡ n
k ers
Ġsurvey ed
oc y
ys on
Ġtra ject
Ġproject ions
ĠH S
Ġpost season
ĠD im
ĠB apt
Ġreact or
H ello
Ġen vision
T w
ar in
Ġj azz
Ġch im
Ġmarg ins
ĠW alt
ĠYou th
Ġsl ated
Ġbull ying
Ġc abin
Ġdis gu
am mar
Ġmix ing
Ġeas iest
Ġbackground s
Ġsystem atic
Ġt ennis
Ġvacc ines
Ġ0 9
A G
Ġcommod ity
Ġsound track
ĠMag n
Ġfavor ites
Ġment ality
Ġmin es
Ġconce aled
Ġacadem ics
Ġapart ments
Ġaer ial
E r
v oc
Ġsh ark
Ġge omet
ĠL arge
Ġbe ats
AM E
Ġadvent ures
ĠSqu ad
Ġbatt ling
ĠB anks
Ġg ly
Ġpr one
ĠS ri
own er
ĠS au
b b
Ġsu e
Ġdress ing
ĠBM W
Ġtou ches
ĠM ath
ĠCom cast
ĠC it
Ġdig est
Ġforg ot
Ġgrass roots
Ġm apping
Ġcome back
M att
ĠB omb
Ġdis puted
Ġgr im
ĠG am
ĠL ion
ĠD I
Ġbl ade
uck ed
ĠL ower
Ġw ra
le ague
ĠW a
ib les
ere n
emet ery
Ġpromot ional
Ġc aucus
Ġhe els
Ġpark ed
Ġ( Â£
E U
ĠPri or
Ġfl ies
Ġshout ed
Ġd ug
Ġsm iling
ĠW ang
Sh ort
Ġc ables
Ġappreci ation
ĠH onda
Ġcontinu ously
ĠMon ster
ĠB att
Ġl ing
ĠMal colm
ke ll
ris k
ĠY ale
Ġl ied
ĠG aming
Ġflags hip
Ġgas oline
Ġindic ator
Ġmet eor
els h
Ġble eding
Te am
ĠId ent
Ġdispl aced
ĠOper ations
Ġnut rition
ĠCom ic
ĠMov ie
Ġhand les
Ġdep uties
Ġremote ly
ateg ory
.' "
Ġmathemat ics
r us
os ph
ĠForm ula
j pg
agg ering
Ġin k
Ġsc ales
Ġsl aughter
ĠTe levision
d eb
ĠKen ya
ĠT ree
r ising
g ue
Ġcol ony
Ġrhyth m
ĠInd ependence
Ġstr angers
Ġtrop ical
Ġse gments
ĠAb raham
at ility
Ġan om
ĠF alls
Ġstaff ers
Ġmount ing
Ġgen ocide
Ġw ield
ĠDam ascus
Ġ Å
ã ģ
Ġpolic ing
ĠBelg ian
Ġ0 4
ĠC P
Ġsc i
Ġacc laim
ĠD rop
ro d
ĠBen ghazi
Ġimm unity
ens ed
Ġfl ames
Ġill usion
Ġver bal
h ad
es ville
ĠÂ »
Ġstat ute
Ġcle aring
J oe
Ġca f
ĠFin als
Ġl inem
ĠCol lection
Ġpull s
or ically
Ġsh ook
Ġdis reg
ĠP ract
Ġprompt ing
Ġdig ging
ã ĥ
est on
Ġm ud
Ġport ions
y on
Ġcompet itor
ĠSome one
Ġinherent ly
_ {
ĠVin cent
ĠC ool
Ġcharacter istic
Ġcompar isons
ad ian
Ġ( -
Ġbr idges
Ġic ons
F ive
et a
Ġconnect ivity
Ġg orge
Ġunp redict
Ġ196 3
Ġaffili ated
ĠSt rip
Ġd ough
ĠWal mart
Ġbench mark
s i
ys ical
Ġamb itions
est e
Ġch rom
id ity
at ics
H el
Ġto pped
Ġmulti pl
ab lish
Ġsh aking
' )
l isted
ĠH im
C ount
Ġcertain ty
ĠSim p
ph is
Ġcent ered
w age
ĠI R
ĠCry stal
Ġsmall est
ad itional
Ind ia
ipe g
Ġbehavior al
ud a
b ra
Ġcro re
ĠRaven s
Ġbl unt
ĠMajor ity
ĠNew castle
Ġdispos al
il ia
ĠHop efully
Ġ0 8
Ġapplic ants
ĠIniti ative
Ġfortun ate
ĠN ad
Ġw ished
ĠWe ap
Ġpit ched
âĢĶâĢĶâĢĶâĢĶ âĢĶâĢĶâĢĶâĢĶ
Ġup hold
Ġsynt ax
ix els
ĠO pt
Ġmusic ian
cific ally
H ead
M o
ĠUp on
ĠWh ats
Ġwild ly
ĠD elta
Ġimpact ed
Ġd are
th reat
Ġrep roductive
Ġmed ieval
Ù Ħ
ĠTom my
ĠM ons
ĠK um
ĠCar r
V M
Ġstorm s
Ġdis ruption
Ġpit ches
ĠSch olar
Ġwe ighed
yn asty
ogen ic
Ġcontribut ors
Ġview er
ĠS id
Ġur anium
Ġst ap
Ġm ol
atch ing
UL L
ĠPortug uese
Ġanx ious
Ġat op
ĠApp arently
Ġcook ed
Ġamend ments
Ġfoot print
mid t
h or
ig ion
ĠC opyright
ĠSat an
he y
Ġbe es
ĠP etro
Ġaest hetic
ĠW ITH
ĠA K
ud ed
ing le
|> (
ĠCoun ter
Ġcar n
________________ ________________
ĠNor we
ĠCont ent
Ġaver aging
Ġeat en
Ġl i
Ġst int
Ġadjust ments
Christ ian
ĠH ERE
V I
Ġas leep
Ġst akes
Ġgl ac
ean or
ĠBr ight
sh aring
Ġindivid ually
ĠTH IS
ok u
Ġtheat re
s un
Ġim minent
ĠEm peror
Ġfaith ful
Ġpat ches
Ġrep ository
Ġr ipped
ĠW ings
ĠC ash
lud ed
Ġcinem a
Ġadvis ory
ĠArch itect
Ġst ub
Ġdes erved
on gh
Ġsh adows
ong yang
Ġattend ees
Ġst aring
Ġem pir
ĠOther wise
ĠB ren
run ning
Ġfound ations
ĠR ank
ĠX i
Ġdemonst rators
sh it
Ġr anges
Ġm i
ĠRe yn
ĠIndust ry
Ġcru ise
Ġprior it
ĠLegisl ature
Ġd ent
ĠDan ish
P ower
en z
ĠM end
ĠR ule
Ġphys ic
Ġcon grat
Ġrecover ing
j u
Ġve ctor
ĠSt alin
âĢĿ ).
Ġe go
Ġp und
Ġsufficient ly
Ġmy st
ĠBr ain
Ġ| |
Ġfe ather
Ġdistinct ive
r ise
ĠCar roll
S H
ĠW ere
Ġlegitim acy
ĠCrime a
igg s
Ġinspir ing
W omen
ĠB ills
ur ally
Ġh ipp
ot ive
ĠK aren
Ġbon uses
Ġjail ed
g on
Ġcl ue
Ġcand y
r ace
G R
en ly
d ollar
im g
Ġju ven
Ġrail way
Ġcert ified
Ġsp ont
akes pe
Ġhier archy
Ġque ue
M ax
ĠVal ent
ĠB ody
Ġclim bed
Ġhistor ians
ĠReds kins
Ġdep osit
ĠCo in
Ġundere st
Ġincumb ent
ĠS K
tit le
p ical
Ġal erts
ĠG raph
ĠColomb ia
Every thing
oul os
Ġpl ausible
Â »
m ount
Ġadjust ment
et ooth
Ġun believ
Ġmetab ol
Ġab usive
ĠA CC
Ġcr ashes
ĠIm pro
Ġrein force
Ġsupp ress
Ġsuprem ac
Ġ0 5
Ġphys icians
ĠLe ave
Ġcook ies
Ph il
Ġcr ap
Ġn ail
Ġc age
Ġexplan ations
w ait
,' '
Ġt ide
el ed
Ġmin imize
ĠUlt imate
Ġque en
Ġcont ender
Ġut ilities
ĠGener ation
ĠCons umer
Ġimprison ment
Ġn ucle
Ġblow ing
pect ives
Ġcar b
ĠK urt
Ġa fore
ope z
Ġposition ed
Ġamb ition
Ġresc ued
Ġfound ers
Ed itor
Ġoff enses
Ġneg lect
% ),
Ġconsult ation
Ġlight ly
ĠM ann
Ġshe lf
Ġe cl
ĠS QL
Ġdirect ing
ĠS ale
Ġcig arette
Ġelect orate
Ġdeleg ation
ĠId aho
s ite
Ġflav ors
ĠShan ghai
Ġzomb ie
Ġvel ocity
ult z
Ġgi ants
Ġmotorcy cle
ĠD ame
Ġro d
Ġansw ering
ĠWest minster
ĠCommon wealth
ĠSimp son
Ġpar as
Ste ve
ĠV M
Ġboy cott
Ġde ar
h u
Ġeduc ate
Any one
Ġhuge ly
Ġsc am
ĠSh a
Ġincorpor ate
Ġbox ing
ĠCh ampion
ĠPer formance
Ġsie ge
cl ub
Ġpersu ade
ould er
Ġpromot ions
h art
om ore
Ġexplo ited
le en
Ġv icious
Ġmet er
ĠNe uro
ĠThe ory
E nd
ĠCol ts
Ġhalf way
H C
Ġal igned
ĠLim ited
ĠÐ ½
os aur
AS E
Ġrun ners
ĠS anchez
ĠLeon ard
uter te
ĠU A
Ä ģ
Ġab rupt
Ġcollect ively
Ġrow s
Qu est
Ġby tes
ĠM is
ĠArm strong
Å į
Ġch asing
ing rich
prising ly
Ġ( +
Ġsim ulation
gg ing
p ie
Ġoff line
Ġluc rative
Ġlad der
Ġgener ates
Ġrecogn ised
ĠM asters
Ġapp ar
ĠÐ ²
P eter
min ing
Ġconsist ing
N E
Ġshow case
orth y
ad ata
Ġintegr al
s ay
ant ine
Ġaccess ed
Ġautonom y
Ġplant ed
ĠEs pecially
Ġelement ary
Ġdies el
S ure
Ġsli pped
ĠGr an
ĠB ent
ason able
âĢĿ ?
Ġf reed
Ġassoci ates
1 30
Ġfif teen
ĠK i
ĠMet al
Ġp ork
chn ology
B o
AC E
Not es
ĠU CLA
Ġcurric ulum
ĠP orter
ĠO culus
Ġabsor b
ĠSteel ers
ĠSocial ist
Ġmilit ia
N on
Ġp iano
Ġlow ered
Ġâ ĸ
Ġmar riages
ĠConfeder ate
Ġopt imal
L ab
ĠY u
Ġjer sey
g ow
ĠAn alysis
akespe are
ĠS witch
n els
Ġsp ike
Ġmor ph
Ġcere mon
B ro
Ġadv ancing
ĠA er
erv ative
Ġancest ors
Ġop ener
Ġnegoti ated
ĠK ane
Ġman a
er ness
ĠW ant
ĠE ight
c ourt
f ix
ĠF ix
Ġappeal ed
ad ays
Ass ad
ot er
em pt
Ġpo em
Ġauthor itarian
Ġrecruit ment
Ġmatch up
um per
ĠM ob
ĠK end
ĠX L
Ġacc ent
ĠL oc
Ġquant ities
Ġslow ed
Ġs oup
ĠG N
Ġimp osing
Ġsatisf ying
Ġinhabit ants
Ġport able
Ġmanip ulate
Ġquarterback s
Ġpist ol
ĠM add
p roduct
Ġunp opular
ĠPriv ate
Ġbl at
Ġprotect s
ĠM oss
Ù İ
ĠInte gr
ĠStr ateg
Ġillust rate
Ġalumin um
we b
Ġt ales
Ġeff ic
als h
Ġloc ate
Ġclass ification
Ġconsist ed
Ġhon ored
il itation
am iliar
ĠâĢľ [
Ġw itch
ĠT ravis
Ġpay roll
Ġemb ark
Ġwe ed
I ran
Ġhom icide
Ġtreat s
ĠH ousing
Ġper ipher
Ġfact ion
Ġdelight ed
Ġbl oc
T Y
ĠR A
ĠI Q
ĠS add
t ax
ĠÂ Ń
ĠEn forcement
Ġprem ature
ĠMon th
asc ript
Ġtrave lled
ĠJ ama
Ġo we
Ġar rog
Ġd orm
Ġcrus hed
G L
Ġconsum ing
ĠQ ur
Ġprotest ing
Ġblog ger
Ġres ent
Ġdiam eter
Ġp estic
Ġadminist rator
im ity
Ġhapp ily
def ense
} ,
add afi
Ġbr on
Ġlog s
ĠGreat er
Ġfert il
Ġb ru
al one
Ġche ss
m ax
ĠM ills
AC T
ow itz
ĠH az
ĠD olphins
ĠS outheast
re ctions
Ġinv ention
Ġacadem y
Ġmet rics
h at
Ġdec isive
12 5
Ġt ended
ar se
ĠAmb assador
an as
Ġp iss
ĠS nyder
ir ies
ew ay
Ġart illery
v ance
reg ular
Ġ __
Ġpost p
ĠW E
Ġover view
Ġy oga
ĠLe x
Ġup s
ra vel
Ġsent encing
ĠN GO
ON E
Ġprol ifer
Ġat omic
and o
Ġp ond
Ġg ates
ĠPr ison
ale z
Ġuns upp
Not hing
Ġsimilar ities
ĠW or
Ġinstrument al
Ġno ble
ĠDar win
Ġo w
Ġclin ics
Ġt a
um ed
Ġrecogn ise
ĠOrig inal
M D
ĠCath olics
Ġdetect ive
g irl
C AR
Ġdri ed
ibl ings
st ation
Ġpat ron
ĠCase y
ĠD erek
Ġex cer
ĠN ut
Ġsl ammed
ĠDel aware
Ġinc ap
ĠTer min
S il
ĠS B
Ġconstitu ents
Tex as
Ġal arming
ĠH ence
Ġliv est
ĠS ie
Ġrest oration
OU R
ĠS eth
Ġdat as
Ġprob ation
ĠRichard son
Ġyield s
Ġupgr aded
a que
road s
Ġincl ined
ĠMin i
he art
Ġven ues
il ight
B as
M E
ĠO ften
Ġcontem pl
Ġlad ies
c amp
el ines
ator ial
ell ed
Ġrif les
Ġmark ing
Ġprohib ition
att ack
Ġd ude
Ġsp ying
Ġseek ers
Ġcomb o
el ong
P ass
ke eping
Ġgen ome
ĠGl as
ĠB rett
ĠLouis ville
Ġenthusi astic
Ġincons istent
ĠK o
ĠNich olas
it ous
Ġfart her
Ġmasc ul
occ up
Ġbreat he
Ġv ic
Ġshow c
Ġ196 2
Ġqu ot
Ġu b
Cont act
Ġsl ides
ĠWe bsite
ĠHus sein
3 50
Ġr ider
Ġinvestig ator
Ġbi ased
Ġfrag ile
Ġappl aud
met ic
Ġcat alog
ĠGene va
ĠDise ase
Ã º
ĠA F
Cont in
ĠV ent
ourn ament
Ġâ Ī
Ġn odd
ĠW elsh
Ġapp le
ĠHop kins
O H
Ġlic ence
ĠN okia
Ġpr iced
Ġremark ably
Ġh ref
Ġthr ust
W ould
ĠL ate
Ġexp ans
ĠNo ah
F il
ĠF ace
ĠSal v
F ore
ĠRepresent ative
per m
Ġcor rection
Ġmis er
ret ty
Ġhum ble
Ġvari ants
op oulos
ant om
ĠMont gomery
Ġadvis or
R yan
Ġc ad
ĠMatthew s
ĠPar ks
connect ed
Ġl ion
And rew
Ġrecip ients
Ġdep ressed
Ġsynt hetic
ĠLoad ing
ĠCre ate
M ENT
ns ic
Ġshel ves
******** ********
Ġbail out
Ġun related
Ġweakness es
Ġend angered
Ġcl ips
Ġcatast rophic
dep th
Ġt ires
in ner
ĠM ol
ĠHuff ington
m ph
Ġtro phy
Ġtight ly
ĠNorth west
S cient
ĠF o
Ġjud ged
S I
r ational
ĠSc reen
ĠP ierre
Ġspe ar
lev ard
C onst
ĠC rew
ĠCan n
Ġc otton
ĠC airo
Ġnic he
ĠEll is
ĠR ut
C ome
S N
ll ah
ment al
ur bed
Ġev olving
Ġn ostal
ĠE t
ach t
Ġo ath
ĠLeaf s
s ix
OR D
ĠLear n
1 000
Ġalleg es
Ġst aggering
Ġcon form
Ġgang s
og yn
Ġair ports
Ġutil ize
Ġp oured
Ġcol ored
Ġnurs es
Ġup ward
ef e
Ġbre wing
Ġpract iced
Ġsec urities
Ġmon itors
or um
Ġcooper ate
names e
it ially
Ġinterven e
Ġp ul
ĠW rest
Ġfor ty
ĠG or
Ġr iots
Ġl ingu
ob a
ĠVeter ans
Ġcoinc idence
N ob
Ġcamp uses
Ġg ren
ik o
Ġpros pective
Ġbook ed
Ġextensive ly
Ġrel iability
ĠV ideos
ĠT on
Ġencry pted
asc ular
Ġchap ters
and als
Ġinterf ere
he ster
Ġjew el
ĠK il
Ġecho ed
Ġsl im
ĠAn onymous
Ġmonit ored
ess age
Ġdown s
ourn als
Ġank le
ĠSt ories
Ġhor r
s u
Ġrem inis
ĠMe g
Ġoptim ism
ĠEag le
Re view
Ġpredomin antly
M ad
ĠSur face
ĠThanks giving
amp ire
Ġprop osition
Ġwar ns
yn c
C all
ĠCD C
uff le
bro ok
Ġflo ors
ro v
Ġsymp athy
ĠT rip
ĠMun ich
Le g
olit ics
ĠIS BN
Ġang les
Ġtask ed
ash a
ĠK ids
n ar
ĠUS C
Ġinsect s
Ġdefic its
ĠM ut
Ġgenet ically
ĠN ord
ĠO m
Ġun con
ĠA br
Ġsepar at
Ġwe ars
is le
Ġm igrant
Ġre nown
ĠW ait
ans om
Ġwell s
Ġenfor ced
ĠTun is
Ġint oler
Ġfore most
Ġw ives
Ġbound ary
reat ing
Ġste ering
" ).
ĠA FL
p ically
ĠACL U
ĠV illa
Ġpract ition
ĠSom alia
Ġr ip
Ġfil ters
D el
ĠP ew
Ġne arest
Ġwhistle bl
Ġcoord ination
e ree
ĠArn old
ĠG az
ĠH appy
ĠPr ide
Ġext inction
ĠHe brew
Ġinher ited
od a
b ling
Ġbre eding
he arted
ĠGr ace
Ġpositive ly
ĠA pr
ĠKurd s
Ġcomb ining
ĠJ ays
w ent
Ġincl usive
ĠBudd hist
am on
ĠAct ually
iat ric
Ġfor wards
d imensional
ĠAs k
Ġs acks
ĠAg ent
Ġnav ig
Ġcl iff
ĠVis ual
Ġpartic le
Ġsh ine
Ġscar ce
Ġpri ests
Ġassist ed
Ġreward ed
ĠB ach
Ã© e
Ġd oses
Ġemer gence
Ġhand ing
Ġatmosp heric
Ġdescript ions
l iv
l ance
ball s
ĠV I
ĠFor bes
Ġfe ud
st ated
d est
ir ation
ĠB eth
Ġcul p
Ġad ul
ĠB O
Ġt ense
ot ics
ĠGet ting
ĠSchool s
Ġobtain ing
Ġimm un
Ġafore mentioned
Ġsens ible
Ġinput s
Ġrelax ed
f inal
Ġver b
ĠP engu
ĠWinn ipeg
ĠS pl
Ġkind a
Ġw oke
ĠTri ple
ĠMem phis
i ott
Ġg rief
Ġbo asts
ĠReg ion
Ġins ufficient
ĠHend erson
Ġcaut ious
Ġcandid acy
Ġcommer ce
z el
Ġche f
ĠD oc
Ġimpro per
Ġrespect s
Ġdeb ts
Ġillust rated
y outube
Ġconv entions
acer b
g ay
Ġther mal
Ġdys function
Ġuncom mon
ĠK enny
Ġpersonal ities
Ġc oding
Ġreal ities
Ġst airs
Ġslow ing
b ane
Ġbelong ed
Ġreal izing
Ġlight weight
ĠFl a
Ġoverlook ed
p ose
In f
ĠSw an
il ers
ĠCl int
Don nell
Ġe ld
H ome
Ġupload ed
ĠR alph
Ġexp osing
Ġp aste
ey ed
Ġcycl ists
Ġnurs ing
display style
Ġc ensus
Ġth rive
V is
Ġintu itive
ator ies
oy le
Ġz oom
Ġadd ict
Ġtest ify
b ucks
Ġperform s
ann ers
De velop
os l
Ġadd itions
Ġautom ation
Ġpo ised
Ġunsupp orted
Ġquick er
ĠD j
ĠCur ry
Ġenjoy s
Ġord inance
Ġtour s
Ġcirc ulation
Ġoutrage ous
ĠPy ongyang
P age
Ġbo o
ĠBash ar
cons cious
ich t
Ġadm ire
ĠK ap
Ġblank et
ĠC amb
ĠK ush
het ical
ĠBar nes
ĠF ixed
Ġbas ics
que z
Ġse ize
r ays
Ġc ripp
Ġass erted
ĠP ub
Ġtat too
ent ry
ĠS ter
Ġorig inated
ĠH ass
Ġsubject ive
Aug ust
Ġt ags
Ġpaint ings
in ers
ĠPre vention
Ġred es
Ġag grav
Ġ10 5
T otal
Ġ196 1
Ġener g
ĠT X
Ġpl um
ĠJ in
ĠP HP
Europe an
ĠN uclear
ĠSt rike
AS S
Ġcas ino
Ġje opard
Ġcomb inations
Ġrecip ient
Ġvibr ant
a uth
Ġcoord inated
Ġwond ers
f illed
Ġgu ides
ĠSil va
ĠUn less
ĠS r
am ount
Ġredu ctions
Ġno on
Ġgr ades
Ġrepe ating
200 6
osh i
ĠWild life
Ġawa iting
s an
Re illy
ĠV a
ek ing
Ġg em
ĠSh akespeare
Ġmonop oly
l anguage
Ġfl own
ĠK iev
ĠKas ich
Ġparticip ant
Ġliqu or
ĠRe act
Ġeval uated
Ġwh ales
Ġimm ers
ĠD ust
b ast
ĠWord Press
ĠSte phan
Ġim aging
Ġb ent
ĠU P
ĠNorwe gian
Inte rest
Ġdeal er
C re
Ġcl ues
ĠRe lease
ĠFal cons
Ġspr int
Ġd ip
ĠTit ans
g rown
Ġhilar ious
Ġa in
iet h
Ġmention ing
Ġreflect ing
Ġs way
ĠMon te
ĠReg ister
ĠAd rian
Ġtrad ers
ĠHold er
Ġdetain ees
Ġtast es
s n
Ġty r
Ġabund ance
ĠEmer gency
ĠY am
ĠDod gers
Spe cial
M ain
Ġnever theless
ĠVal ue
Ġ12 8
o ir
Ġsc iences
Ġbuy er
ĠKle in
ĠC raw
Ġvol t
Ġmerch and
Ġh obby
Ġred irect
Ġsoul s
Wh atever
Ġpick up
Ġl oot
ik er
ĠE aster
il ogy
Ġwh ale
ĠCom plete
ĠRand y
He alth
ĠH off
play ed
itz er
ĠT ories
ĠP aper
{ "
Ġc ared
Ġb od
ĠJ unior
AR K
Ġbot hered
Ġinher it
ĠBudd h
Ġform ats
ĠAt hens
ĠR ules
ĠE sp
.' '
Ġwatch dog
ĠAgricult ure
Ġtri vial
ĠEm ily
ĠIsa ac
Ġopt ical
Ġan ten
ĠW AR
Ġdatab ases
up iter
ile m
om on
ĠGab riel
ĠH ook
Ġlit eral
Ġdist ances
ĠBa iley
Ġunder grad
Ġdev il
Ġsam pling
ĠPear l
N O
ĠNov a
Ġfl uct
Ġman ga
Sp ace
c ond
Ġc ivic
Ġaston ishing
Ġdark er
Ġrece i
Ġdemonst rating
Ġobs essed
ĠT ottenham
Ġsl ogan
ĠF aith
Ġhur ting
Ġgr ams
M or
Ġins isting
ĠMet ropolitan
oun ter
ĠSch ne
Ġinadequ ate
ĠAbd ul
Ġexha usted
Ġwrit ings
Ġsun light
I ts
ec d
ĠC I
ĠB ark
b ach
ĠM atch
Ġemp athy
Ġunder water
iz oph
ĠFerr ari
b illion
Ġlobby ists
l it
ĠAl z
\ \
b as
ĠTh rones
Ġfin est
Ġoverwhel med
Ġorgan isms
ĠH A
ĠJosh ua
Ġs iblings
st airs
ĠL O
ĠE A
is co
ĠE ye
sh adow
ĠB ec
Ġvast ly
ener ation
Ġserv ants
Ġdiplom ats
ĠPere z
ĠAustral ians
id i
Rich ard
ruct ed
Ġe ternal
Ġcou ch
ĠG oth
Ġprotocol s
b us
ĠJen kins
Ch ild
Ġsm iled
ĠÎ ¼
an throp
ĠL um
ĠDep ression
Ġst agn
B rown
Ġcon gest
Ġpremium s
Ġassault s
Ġde portation
Ġpus hes
pro cess
10 1
ĠH ack
ber ger
it ime
Ġex acerb
ĠSt uart
Ġmole cular
Ġu mb
ĠM UST
Ġprox imity
Ġunderstand able
Ġconj unction
un al
W elcome
Ġen compass
Ġcraft ed
Ġhorizont al
Ġspin ning
c ock
h aw
ĠA IDS
Ge orge
ĠLe aders
ep rint
ine a
Ġmicro sc
ĠEv an
Ġpay load
S ources
ĠHer oes
dri ving
xt on
Ġbl u
Ġbank ers
Ġproceed ed
Ġbarg aining
ĠS ite
Ġcapt uring
ĠC ort
Ġwork out
ĠS gt
ĠBer g
d ist
Ġp unk
Ġsn ake
ĠEr n
am ples
Ġprim aries
Ġadv ise
Ġinaug uration
Ġg ases
cl ock
ĠSy n
Ġver ified
p ict
ĠH ob
Ġmed ications
Ġ19 48
ĠR ust
Ġapolog ized
an cer
ĠT win
Ġ0 6
Ġen light
Ġshall ow
Ġb ounce
ĠH ost
ut ton
Ġst aged
Ġaccompany ing
ĠHe avy
ĠPro bably
ĠProp het
Ġsec recy
im ination
RE D
Ġsurf aces
Current ly
Ġimprison ed
ĠMc N
Ġactiv ate
Ġinjust ice
os ion
" ),
f air
Ġpromot es
Ġw olf
ĠD ylan
Ġimpl ied
ĠViet namese
er ie
Ġax is
ĠSach s
ĠKash mir
q a
Ġsupp liers
ener gy
gg y
Bl ue
p ers
Ġrebell ion
ĠR ot
Ã© t
rop he
ĠNot es
A ir
Ġsus cept
im edia
ĠC ob
Ġun named
ĠSt range
ĠK id
Ġnational ism
ĠT ab
ĠAp ollo
Ġfiref ighters
ig o
ĠT iger
ach i
is i
m ake
ĠG ingrich
Ġstate wide
Ġind ul
Ġwho lly
ĠT ak
inent al
Ġin ning
Ġlo oph
Ġdisapp ro
Ġadminist ered
izoph ren
eng ine
Ġalph a
Ġs i
ad h
ane y
f amily
Ġtr ails
b ank
Ġincom plete
Ġdr astically
Ġgener ator
Ġretail er
ĠG ang
Ġtra it
Ġassum es
ĠEconom ics
az or
Ġpast or
es ar
ir us
ĠHe aven
Ġen rolled
Ġrele g
k ar
Ġb aking
ĠS weet
Ġshot gun
Ġnot or
Ġbe am
Ġcompl iment
Ġsl ots
Ġcont ention
Ġpop ulated
Ġhur ts
ĠAb du
alk ing
Ġhint s
Ġsp am
ĠCro at
Ġj ar
Ġfit ted
Ġcomp ile
Ġborrow ing
Ġpa ired
le um
oke mon
ĠF ew
Ġb rib
Ġhighlight ing
Ġbat ting
Ġstab bed
D ear
ĠR B
ard i
Ġeleph ant
ÂĢ Â
Ġb og
Ġnew com
ophob ic
Ġmet ro
Ġvit amin
Ġ **
Ġp ets
ise xual
Con clusion
Ġl enses
Ġlot tery
osa urs
Ġam ended
M iss
ĠCy ber
the ning
ID E
Ġplaint iffs
Sand ers
Ġobject ions
Ġathe ist
ĠJ ob
Ġcontest ed
ĠIns ider
ĠU l
ĠW ag
ighte ous
ĠF uk
ĠMar ie
Ġcomed ian
Ġu m
Ġext ensions
Ġback ward
ĠSc ript
Ġgra pp
ĠT PP
Ġk et
Ġaffect ion
Ġphenomen a
Ġto ggle
Ġso y
ĠRe x
se xual
Ġprob able
ĠIndust rial
ĠInd y
Th us
sh ine
p res
Ġf lick
ĠB our
Ġout line
id y
Ġc ites
ĠArab s
intend ent
Ġm asters
ĠFl int
author ized
Ġint ro
Ġpar a
Ġar row
Ġl amb
Ġpen is
ĠShe ll
ĠB in
av ia
ĠCole man
Ġgorge ous
ĠD ow
Ġd uck
Ġrespond s
ro e
ens itive
Ġsub urb
Ġro pe
Ġmot ive
ĠAsh ley
W as
Ġtort ured
ĠIM F
ere rs
Ġmain land
ov an
Ġinter ventions
Ġhelicop ters
Ġpass words
Ġadmit ting
Ġg ently
inte gr
act iv
Ġself ish
Ġanaly tics
ĠM ix
Ġobs ession
Ġun equ
ĠEll iott
Ġp ills
ĠSh op
Ġstand point
S ocial
ÃŃ a
Ġan them
Ġc ater
D ou
ĠApp eals
Ġcontro llers
ourge ois
ĠA j
ĠE ug
Ġpopul ist
Ġcat aly
Ġj aw
Ġsum s
ch at
ie ves
Ġrev is
f un
Ġmat rix
Ġexplos ives
Ġth y
uss ions
ĠTH AT
Ġemb ry
Ġware house
ĠH alo
Pl us
ĠBur ke
ig el
c iously
ĠPat rol
Ġhur ricane
Ġun ified
Ġcast le
Ġterrit orial
ĠGT X
in burgh
g one
Ġb ang
ĠA ur
Ġconf isc
Ġconcent rate
Ġfig uring
Ġco h
âĶĢ âĶĢ
us p
step s
Ġcol ours
iet al
Ñ ı
st rom
ĠInd igenous
D ate
ĠS ask
rig er
Ġlog ged
Ġens ures
h ouses
ot ine
Ġcry st
Ġsymp athetic
Ġmin ors
nd ra
Ġprot agonist
k it
s ic
Ġo wed
ĠOff icial
Ġprivile ged
Ġlog ging
ĠN um
u ber
Ġsyn chron
ag le
Ġeru pted
ear th
Ġval ley
Ġcons oles
L ocal
ci ation
Sh ould
Ġide als
o at
ĠTreat y
ĠN aval
Ġprosecut ed
Ġdes irable
Ġsurf aced
Ġpsychiat ric
it ational
Ġse as
Ġsad ly
ĠM our
ĠDra ke
Ġemphas ize
Ġpl ots
Ġan ecd
Ġwel coming
OC K
ĠSC P
Ġfeed s
Ġs atur
Ġweek ends
ĠApp ro
ĠEm ma
Ġstret ched
R ad
other apy
D isc
Ġm es
Ġrev ision
ĠQu arter
ĠPel osi
Ġcal culation
Ä ĩ
Off icials
Ġmos qu
Ġsoph omore
Ġun b
ĠU FO
Ġdistingu ished
Ġ* /
Ġdef er
Ġsand wich
r ina
à ¸
ĠGo ing
AM Y
P ri
Ġconstit utes
Sub scribe
B erry
Ġconf ined
igg ins
amer a
âĸĪ âĸĪ
Ġintern ally
ĠRoberts on
Ġcorrid or
Q ue
re lla
Ġselect ing
ĠL anc
en es
ar ious
Ġpool s
ĠW alsh
ĠF ocus
Ġcorrect ed
200 5
ĠC AN
ĠP ul
oint ed
Ġgreet ed
Ġincomp et
ĠJ os
Ġm a
ĠN RA
Ġen rich
p ad
Ġinform al
Ġto pp
h all
Ġd ice
Ġpartners hips
EN D
ĠBapt ist
ĠGu ild
Ġcool er
Ġreact ed
Ġat roc
Ġprocess ors
Ġdefin itions
ĠVirt ual
Ġunder cover
Ġsens ation
ĠD ad
Ġtraject ory
Ġcan on
Ġhack er
Ġhome owners
mit t
Ġgau ge
ĠJ agu
ĠSim ply
commun ications
Ġflood ed
Ġcompl ications
ĠâĢ ĭ
oc used
ĠGl en
Ġjump s
ĠL anguage
Ġcont ests
ĠKn ights
at tering
Ġcur iosity
ĠL opez
ĠL av
Ġvend or
year s
). <|
Ġass ure
Ġfin ed
Ġconced ed
F ixed
Ġup rising
Ġhom eland
p olitical
ind ust
Ġpedest rian
ĠV ersion
ĠCirc le
ract ed
Ġcompe lled
Ġo ceans
Ġliber ation
ĠCon cer
L ove
S QL
sec ret
Ġcommand ers
ĠO mar
if le
ut ral
ĠR idge
Ġla wn
ĠLl oyd
Ġprop osing
Ġmach inery
Ġdeb ated
Ġpropri etary
ĠIn g
Ġfair ness
ĠW end
Ġball oon
Ob ject
ch t
Ġsk ate
Ġall ocated
stan bul
ĠC el
Ġc el
ĠD ale
Ġsh irts
Ġreck less
ind uced
Ġh ills
ĠSt ream
ut ic
Ġl od
Ġarm ies
â Ļ
Oct ober
ĠDub ai
Ġcompr ised
Ġpres cribed
ĠEth iop
if a
Ġprov oc
Ġsuccess es
ĠHe ights
Ġhar ness
Ġbuck et
Ġunlaw ful
ĠAlz heimer
ĠAdvent ure
g mail
Ġcolor ful
ela ide
Ġpur ported
Ġdelic ate
ĠN early
bu ilt
Ġ Ñģ
Ġsex y
Ġmax im
Ġ ..
ump s
Ġc ried
Ġwas hed
Ġvar ies
Ġstere otypes
Ġairpl ane
pe ace
Ġcho oses
Ġcell ular
Ã ł
man y
ĠGu ant
h it
ĠNS W
x on
ib al
You ng
Ġmag net
ĠN am
Ġnick name
ĠThe resa
ĠWe instein
osp here
ĠC ensus
ĠSt ay
Ġsuff ers
âĢĿ ),
Ġemb od
ĠR ab
Ġparadig m
ĠOr d
ĠP or
Ġment or
Ġprompt ly
Ġstory telling
Ġnot ifications
ĠMar ines
ĠTrans it
Ġfemin ists
Ġqu eries
Ġsl am
ĠD iet
is ite
Ġsing ular
ĠGreg ory
F ile
Ġdebut ed
aze era
I ES
ĠM t
Ġproject ion
Ġambul ance
ĠD at
Ġconnect s
Ġub iqu
ĠP and
Ġbroadcast ing
Ġrecru its
Ġten ants
Ġstrateg ist
Ġafter ward
ĠSh o
Ġsyn c
Ġmor ally
ĠAlf red
ĠC e
Ġ19 00
Ġcompet itions
E s
Ġvar ieties
Th ink
ĠCon n
me ga
ĠH od
f its
Res earchers
Ġpot atoes
Ġtrans mitted
ĠSch umer
ĠInn ov
do ors
hed ral
Ġvis ibility
Ġstun ned
R ub
Ġbe e
Ġgri ev
Ġg ru
respons ible
os oph
Ġprest igious
Ġsen iors
Ġpl ural
Ġmethod ology
v id
ĠD uterte
ĠPolit ico
Ġcl oth
Ġexem pl
Ġcomment ators
Ġmaneu ver
Ġperce ive
Ġparad ox
ne ys
com mon
T est
ĠHar bor
ĠFal con
ĠRe b
set t
Ġgl oves
Ġvoc als
S ix
ĠN FC
ĠF ine
Ġout reach
Ġmil estone
Ġobst acle
rist ol
Ġmis dem
cr acy
Ġstruct ured
Ġeleg ant
Ġth a
Ġpit chers
Ġcolon ies
sp an
Ġburg l
S w
Ġsystem ic
Ġunpredict able
Ġco vert
f a
de ep
ĠH ood
ĠChampionship s
yl on
os c
Ġfool ish
Ġweigh ing
|> "
Ġsw orn
ĠC inem
im er
ĠE sc
Ġmax imize
Ġyell ing
ant on
Ġhost age
Ġg odd
Ġhasht ag
Ġexclus ion
ĠLib yan
conf ig
ri um
. (
ĠMcC l
ustain able
16 0
ĠC li
Ġbless ing
C BS
Ġinsure rs
us k
Ġrom ance
Ġrenown ed
aun ting
c ision
With in
ĠPost ed
Ġver se
Ġignor ant
Ġlo vers
load ed
Ġb acon
ĠU T
af ort
ĠF ortunately
Ġhe ck
ĠR BI
Ġconsider ations
Ġinterrupt ed
Ġcr ush
ook ie
e i
ĠOr acle
in ian
ĠE arl
Ġsm ok
Ġteach ings
Ġimp ly
S aturday
asp berry
Ġimpro ves
Ġgar lic
Ġrel ates
Al ong
Ġl ining
Ġtime ly
Ġhold er
Ġbrut ality
Ġunsuccess ful
L ine
Add ed
ĠCh a
Ġdest inations
G C
Ġprem ises
ĠK ell
are a
Ġacceler ate
Ġbarg ain
AT H
Ġha w
ĠW A
ĠCharg ers
be cca
Ġpreval ence
Ġfin ishes
7 50
c ue
ĠBou levard
ic ans
Ġe Bay
Ġhum ili
Ġvulner abilities
M arc
R P
ĠImp act
Ġcr ises
Ġan nex
Ġmin us
Ġneighbour s
Ġinfer ior
ĠC F
Te xt
Ġbund le
Ġincon ven
Ġdiscover ing
ri ents
Ġworks hop
ĠSol id
Ġbr acket
S un
Ġuniform s
od er
Ġk its
ans on
Ġout law
Ġs ore
Ġmer ger
AR Y
cy cl
o qu
ĠT ol
Ġexceed ed
ĠT at
ĠC able
Ġdown ward
ĠL amb
ĠE L
ine ment
ĠTh om
he res
ĠM aterial
ri ad
Ġdiscuss es
ĠWin ston
M ass
ov ak
Ġprivile ges
ĠLear ning
Ġl ament
vert ising
it ches
op ath
ract ion
ĠB ever
Ġembarrass ed
hol m
Ġexc av
Ġphr ases
Ġappet ite
se at
ĠMor rison
ĠGlas gow
s uper
Ġel imination
Ġball istic
ĠGonz alez
Ġp ixel
ĠB rent
ant a
Ġtoler ate
ĠJ upiter
M ORE
re a
m ajor
Ġav iation
ĠT roy
Ġgrad uation
ĠLGBT Q
Ġunw anted
Republic an
in v
Ġbrows ers
W ant
ĠF u
ĠBlu etooth
In s
Ġl ur
Ġmar ched
Ġst ew
at ivity
Ġcle arer
ĠSt age
uff s
Ġchampionship s
Ġenjoy able
M ap
Cl oud
et z
Ġaccept s
r ill
Ġtw isted
Ġrecogn izing
ĠBro ck
ownt own
Ġper secution
ou x
Ġgun man
ĠAven gers
Ġspecific s
Ġbl aming
iv ia
Ġa kin
Ġwrong doing
Ġbed s
al iation
ĠF ear
Ġresist ant
Ġo ct
em ption
Ġsol ic
ĠE M
ĠC ele
ĠB ot
Ġmis ogyn
Ġappropri ately
b ps
Ġcon ceived
az ar
F orm
ĠThe ater
Ġtyp ing
ĠGOOD MAN
ĠPri x
ĠM oto
Ġgr an
s um
Ġdis respect
ĠReyn olds
red ited
Ġshut tle
f ood
Ġ" [
Ġl end
ĠF ighter
Ġvac ant
id av
! ).
it ives
Ġdis abilities
Col or
ĠA verage
Ġvol can
Ġric hest
O p
Ġ10 80
ĠSer b
Ġdesp air
ĠSpr int
" [
ĠI van
Ġr ust
In c
Ġextrem ism
ĠU pper
Sep tember
Ġcul min
ĠBe gin
iff e
Ġnomine es
ĠH app
Th ings
Ġthought ful
ĠPar ad
Ġnotice able
ĠV el
Ġded ication
ĠW ake
ang led
ĠIns urance
com fort
l at
Ġpip es
Ġingred ient
Ġright ly
n is
Ġcorner back
ĠE rik
Ġperform ers
Ġ> >>
Ġadvoc ating
n ull
Ġb ore
Ġcondition ing
Ġthr one
Ġtun nels
Ġprohib it
Ġre per
ĠT weet
ld a
Ġtw ent
Ġfuel ed
Ġdiam ond
W W
f ax
ĠSat urn
Ġrep ay
Ġmeth ane
T L
ĠD ana
re ra
ĠAut om
ric anes
Ġthe sis
ĠM aps
ĠJ eb
Ġfr acking
Ġsens es
ĠTurn bull
Ġg ad
oci ated
Ġ} ,
Ġcritic ize
âĢĿ ;
ĠFil ip
Ġex otic
ĠM ets
Ġentire ty
Ġdetail ing
Ġpl asma
Ġdisplay ing
Ġexem pt
c ur
IC O
ish a
Ġartif acts
Ñ ĭ
Ġid iot
Ġout field
Ġl over
Ġwar rior
ĠL ogan
Ġste alth
ĠN y
Ġnum er
Republic ans
Ġrecogn izes
ĠRep orts
Ġun just
Ġkn ocking
ĠX P
udd enly
Ġpr ag
Ġbar red
ĠFre eman
ĠScient ology
ĠT E
ĠBas ically
Ġloc ks
ĠAd vis
ĠT i
Ġdis asters
Ġsing les
ĠTrans port
Ġprejud ice
ag ne
Ġinflu x
Ġhead set
ĠN ode
ĠLeg ends
Ġadop ting
or p
Ġmer its
th ouse
ex cept
Ġmet adata
achel or
ĠL ux
m and
gu ided
ĠL iqu
S al
V C
r ab
ĠÂ «
Ġacknowled ges
Ġan at
Ġfur ious
st ud
Ġmar athon
Ġg rit
Ġa u
nder ing
ĠN as
Ġstory line
Cong ress
ĠSadd am
g em
ĠPC s
Ġtr aces
Ġw ary
an ity
aw i
Ġmer cy
B ox
ins ki
Ġcort ex
U TC
ĠEd inburgh
Ġwip ed
C ent
Ġband width
Jo in
Ġp ixels
Ġinaccur ate
Ġrest art
Ġinst itute
ion age
Ġoff ences
Ġalt itude
Ġillust ration
ĠPers ian
ocaly pse
ic ularly
Ġdil ig
B ob
Ġman kind
b ard
Ġv ivid
\ /
Ġsur g
C ourt
Ġatt ain
vas ive
ĠS ak
Ġpreval ent
ĠStart ing
Ġprolong ed
Ġc ows
Ġoccup y
sh irts
ĠSH A
ard on
ĠDec l
Ġround ed
az er
isp here
Ġbl essed
ĠCont act
ĠKn icks
Ġexem ption
Ġdet r
Ġsett lers
ĠP le
Ġinaug ural
with out
St op
Ġfreedom s
Ġseason al
Ġcoc onut
R edd
ic able
Ġde er
ev al
re view
im en
ick er
ĠBurn s
Ġpun ct
ĠL ag
Ġsm arter
d id
Ġf ren
IT E
Ġwarr ants
ĠPr adesh
Ġp ap
Ġindu ced
Ġcap ita
ĠMill enn
Ġp ave
Ġref eree
Ġunst able
ĠSU V
Ġb ourgeois
Ġmot ives
U G
ar ak
ĠSing le
Ġfact o
ish ment
in yl
Ġprogram mes
Ġexped ition
Get ting
ĠEmb assy
ol ith
Ġaccommod ation
Ġcar pet
w ald
Ġaggreg ate
at ism
Ġcomb ines
al ion
ĠFR OM
Ġer ad
Al most
ĠN L
b ird
ĠFif th
ĠSpe aking
Ġst ems
Ġlisten ers
J ul
Ġc raz
We b
che m
ĠSN P
Ġdiet ary
Ġt apped
Ġ19 44
ci pl
ch anging
Ġdefe ating
i Ã³n
Ġc ite
A round
Ġbenef ited
Ġmir acle
red dit
Ġgr ind
Ġenthusi asts
ĠM ak
Ġprogram mers
viol ent
Ġf ist
Ġcoun cill
Ġab st
ĠHait i
ĠDev il
ĠI gn
Ġrecomm ends
Ġre dd
d et
Pac ific
work ers
ĠL ith
t i
ĠR ange
ĠU g
Ġgr in
Ġbureau cracy
ĠW izards
ram id
Ġcritic isms
Ġsanct uary
200 4
E p
ĠC aval
Ġrig orous
Ġgl uc
Ġhous ed
ĠR ift
Ġconcess ions
k ov
g rowing
Ġt il
Ġh over
Ġpaper work
atin um
b led
L ead
Ġprost itution
H op
Ġupd ating
Ġbom ber
Rec ently
Ġstatist ically
Ġorche st
O k
Ġunf amiliar
Ġdef ect
Ġlength s
ĠP OL
Ġpred ators
Ġcr ust
sequ ently
Ġsne ak
ĠFrank en
Ġreb oot
Ġru ined
ab we
Ã¶ r
ĠPer l
ĠProgress ive
Ġcon qu
ĠSt o
t ag
Ġun a
uk a
Ġsymp ath
Ġchar itable
Ġhost ility
ĠI CE
Ġheav ier
ĠA RE
ĠB uc
Ġfor fe
Ġl ag
ĠStar bucks
Ġd ilem
op hers
q l
omed ay
Ġsl og
Ġposition ing
Ġphilos opher
ĠElect ronic
ĠH ab
ren ched
Ġcoordin ate
ĠI stanbul
ĠSch midt
Ġreb uilding
imb abwe
Ġden ounced
Ġst yl
Ġdet on
is se
ĠEver ton
ĠJul ia
Ġter rific
Ġacqu iring
N or
C ON
Ġter ribly
Ġins ider
Ġv est
Ġpers pectives
> </
c ourse
Ġthere after
Ġcrack ed
Ġsimpl icity
ĠRoll ing
B ern
Ġme ga
V ery
it an
com plete
Ġuns afe
c ot
ĠE isen
he ed
ĠR hod
Ġforb idden
Ġst unt
ĠSe oul
Nob ody
Ġsuper visor
spe aking
ĠPartners hip
Ġillust rates
Ġph osph
ĠTim othy
! âĢĻ
ĠGit Hub
Ġreferen ced
ĠF a
Ġj ournals
Pro ject
ĠWH O
ĠS ales
ĠC ork
Ġobject ion
ĠAng els
Ð ¼
n ings
ess ors
Ġoff ended
Ġport al
Ġinfringe ment
ĠR uth
ĠRom ania
ĠE N
Ġbig ot
Ġanaly zing
14 0
Ġl aps
ĠT ournament
Ġsh ade
ĠMor oc
ĠT ap
Ġintrodu ces
ĠO kay
Ġsch izophren
ĠB uch
Ġrequest ing
Ġantibiot ics
ĠA A
Ġtr action
c ig
Ġf usion
ixt y
ĠOw en
Ġident ifies
p arent
Th omas
Ġj ungle
ĠL P
Ġun m
ĠH orse
Ġdiplom acy
ĠAud io
ĠBas ic
Ġsoc io
ĠSher man
ched el
Ġborrow ed
ĠNot re
ĠSpace X
ĠPrinc eton
ĠK on
av in
Ġcert ification
D am
Ġintention al
ĠSe bast
Ġs perm
ĠLe Bron
Ġ20 30
S erv
port ing
Ġaff idav
ing ham
Ġvol atile
ĠCitiz en
Ġfright ening
Add itionally
U ser
Ġbro ker
Ġskept icism
ĠVictor ian
ĠLind a
Ġunch anged
ish ops
rest rial
rat ives
ĠScient ists
k ara
p aper
ĠV o
Be yond
Ġton nes
ĠMoh amed
Ġreg ain
Ġrec laim
Ġfat igue
Ġdetect ives
int o
Ġend ured
place ment
Ġbet ting
ic ates
Bel ow
D aniel
Ġshe lls
ĠB io
Ġindic ators
l ived
Ex per
ĠAub urn
ĠSu z
Ġvis as
Ġterr ified
D an
ist ical
ĠP okemon
ĠN J
Ġch ill
f light
so ver
ĠAl ways
Ġhealth ier
Ġfav ors
Fr iday
ograph ics
ĠMa o
Ġabsor bed
ĠExper ience
F ar
ĠO ri
ĠAust rian
Ġvir uses
ĠCourt esy
Ġcooper ative
Ġwh it
ters on
ĠD ash
Ġrestrict ion
ĠÐ ¿
R un
ĠJ ill
Phot os
ĠC ities
Ġso ap
ipp le
Ġclean er
v ity
Ġsh red
Ġlower ing
Ġv ine
) -
an ed
Ġmir rors
Ġd y
Ġsuper b
ĠS ame
ra f
ĠMurd och
C rit
in el
Ġcirc ular
og s
Ġmult ip
fund ing
itness es
ĠIS IL
Ġrec ons
Ġche ating
Ġinterrog ation
% ).
ĠR are
m ut
ĠV ince
ĠBet a
ĠE ST
ian i
Ġbron ze
lic t
Ġsh aping
b usiness
ount ain
âĢ ²
li ber
O per
Ġv intage
Ġ19 41
Ġas c
oles ter
Ġsubmar ine
Ġback yard
ĠAbdu llah
Ġunus ually
Ġaccess ories
Ġph ases
Ġref riger
w ere
spons ored
Ġpe cul
__ _
Ġcap ac
Ġnort heast
Ġunder going
Ġtack ling
Ġar che
Ġfree zing
Ġexclud e
Ġemail ed
Ġnational s
Ġtake over
Ġhorm one
Ġcell phone
ĠChe v
b ial
ĠD ani
Ġend uring
ĠCl are
ry s
Ġdevast ated
ĠLet ter
ĠL ed
ĠS tern
ĠL iter
F ind
Ġsquee ze
Ġtro op
Ġfilm maker
ĠDay ton
Ġsub po
ĠRich ards
ĠP ist
Ġgoal keeper
i ov
Ġbrand ed
est ine
c in
ĠM iles
Ġadvoc ated
ĠSask at
Ġstr ains
im ag
ĠM ik
Ġbe ard
Ġcommunic ating
Ġbeaut ifully
U RE
Ġun real
ĠBr is
Ġce ment
om ical
Ġund is
ĠKum ar
ĠPerson al
Ġinv iting
Ġpsych ologist
ĠD h
keep ers
ight y
M ex
Ġproud ly
ices ter
Ġpos ing
ĠAnn ual
P T
Ġmin eral
ĠFried man
Ġtour ing
Ġn avy
ĠR ugby
Ġgovern ors
gg ie
Ġcy l
Ġint ric
ĠJul ie
Ġpl at
ĠCelt ics
Ġref ined
Ġenter prises
Ġalleg ation
Ġback drop
Ġdo i
Ġg le
Ġmodel ing
ĠC ad
ĠU nd
Ġhapp ier
Ġswit ches
u ador
Ġ- --
Ġ17 0
An n
p ark
Ġmet als
Ġcourt room
af ia
ĠNY PD
ĠSim mons
Ġhy ster
Ġimper ative
Ġ11 5
ĠN ice
ins pired
Ġsc aling
Ġinterf aces
Ġsn apped
Ġannounce ments
ĠCore y
Ġrespons ive
Ġins ulin
Ġdeter mines
ĠK ob
ĠEvery body
on so
Ġarch ives
ng th
Ġstretch ing
Ġmark er
ĠPl ant
Ġbal ancing
Ġcontam ination
Ġhand c
Ġreiter ated
ĠE instein
Ġret aliation
gu ards
Ġrival ry
Ġa rose
Ġundert aken
et ed
Ġexp on
Ġdevelop s
Ġaut op
Im agine
oss ibly
cast ing
Ġrecept or
Ġ} );
Ġst ip
us ers
Ġwa ist
Ġsod a
ĠP os
Ġdepend ence
sh ould
ĠMe yer
act ed
Ġar senal
Ġ19 47
ĠDO J
ra ve
p atch
Ġp ulse
f act
ĠC oc
ĠEl ite
s ided
Ġtravel ers
Ġinf ants
ĠHaw ks
Ġengine ered
Ġcha otic
Ġmerchand ise
Ġf ost
Ġattract ing
Ġhard core
T T
Ġpal m
or ie
For ce
Ġst ellar
ĠSp art
Pr int
US E
re v
in qu
Ġobser ving
Ġauthent ication
Brit ish
Ġimp air
Ġshort s
Ġconfir ming
Ġdece ased
ĠC atherine
Ġje ans
Ġcritic izing
ĠBah rain
ot ers
Ġagree ing
Ġcompens ate
Ġgall ons
Ġh orn
Ġpredict ing
Ġappar atus
ĠC lear
Ġwas hing
Ġrev ival
Ġb ast
Ġspecial ists
Ġinnov ations
ĠC G
et c
Ġvis ually
Ġanticip ate
Ġposs essed
Ġwor s
Ġ24 0
ĠON E
ĠPan ama
Ð ´
ĠM ig
bal ance
ĠR abb
AN S
g ie
19 90
Ġre ef
Ġl aughter
\ -
ĠC raft
it as
ĠTill erson
Ġp ine
ire ction
Ġele ven
ĠA V
Ġdeleg ate
ink le
L ive
Ġopio id
or o
ĠUlt imately
ern ame
br and
ĠWalk ing
ress es
Ġdistract ion
Ġrest ing
Ġd od
Ġcore s
Ġth under
Ġpot ato
Ġbroadc aster
Ġwar mer
Ġey eb
Ġstar red
Ġfl ame
ĠIns pect
ax ies
Ġw ipe
ign ment
C amp
ed in
ĠN ak
Ġclear ance
IN T
Ġkidn apped
Q U
p al
ĠGil bert
Ġpen al
Ġwar riors
Ġaut umn
Ġpri zes
Ġs idelines
Ġburn s
Ġreg imes
Ġdump ed
ĠB urg
Ġur gency
Ġl av
ĠVal ve
Ġdom ains
Ġec ological
ĠH arm
Ġep it
M ult
ĠCent ers
Ġhypot hes
ĠMap le
Ġconcept ion
Ġend ure
pr im
ĠMan afort
Ġnegative ly
E lect
OU T
ĠExpl orer
Ġcontract ed
av ior
Other s
duct ed
ster dam
Ġbull shit
] ]
oy s
squ are
ĠV ision
Ġo live
ĠUs ers
Ġcapt ures
Ġvisit or
Ġtheir s
Ġselect ive
Ġradio active
Ġdub ious
Ġ( .
ond o
ick y
B Y
p rodu
Ġb ilateral
Ġp and
ill es
Ġbl ows
pl ates
Ġreact ors
ĠBrend an
N OT
anc ers
ĠSc ore
Ġpr inter
mod ern
Ġnodd ed
ĠG L
ind a
Ġrad ically
Add itional
Ġrep airs
ĠPen insula
ĠHay es
Ġinst ability
ĠCo ver
Ġseiz ure
T urn
Ġunbeliev able
ĠGr ad
Ġvan illa
ump ing
Ġsever ity
ĠH i
ĠH ogan
Ġvolunt arily
Ġro de
Ġexplos ions
Ġdepend ency
Ġ Ñ
ick ers
ĠMerc ury
Ġastronaut s
Ġill icit
Ġshel ters
ĠProdu ction
ĠCraw ford
A ut
Ġcateg or
Sh ow
mo il
ĠJ azz
m g
ĠD ot
ĠR apt
ĠDam age
Ġcontam inated
ĠH erman
ĠG y
ĠR iley
ĠDet ails
Ġs ights
Ġscreens hot
Ġgood ness
et itive
ort ium
Ġpe an
Ġt ant
gg er
D en
Ġprogram mer
Ġth wart
ĠT B
Mc C
Ġassess ments
Ñ Į
Ġacc use
ĠEm irates
Ġque er
Ġm arsh
Ġobser ver
Ġsubsid iary
ien cies
Ġlone ly
as se
Ġcontent ious
y ers
Ġside walk
ĠLeg acy
verse ly
abl ished
ĠCris is
ie u
it us
ĠC ards
ĠB ristol
Ġcrypt o
ount y
ĠPl aza
Ġstret ches
Ġpal ace
Ġpath way
Ġthe rape
ĠCon way
Ġd well
oster one
Ġb isexual
if ted
Up on
Ġst al
Ġcr unch
Ġdisadvant age
Ġdem ise
Ġpour ing
Ġprop he
ĠH ernandez
Ġshut ting
ĠâĨ Ĵ
pl aced
Ġh ollow
Ġlog in
ĠCh i
Ġcompet ent
ans ing
Ġrob otic
Ġdirect ive
More over
F in
ĠL ay
ĠSp icer
Ġhun ter
ĠSch ultz
Ġj ealous
ĠCom ment
Ġrese mble
am el
Ġaw aken
amm ad
ff iti
ĠBru ins
Ġtransl ates
Ġempir ical
Ġru ins
Ġd iving
G P
ĠVi enna
cent er
Ġwithd rew
Ġrig id
Ch ief
Ġredu nd
Ġsurpr ises
p arents
rec ord
ĠHon or
Ġmetaph or
Ġsell er
Ġren amed
ev ent
in ters
ĠGr ass
ad os
Ġre he
Ġfre ak
o ids
Ġchar ities
Ġcook ie
Ġcost ing
ĠAndre a
ĠLe o
we ather
Ġto e
bl ood
p c
Ġr anged
Ġex terior
Ġrelent less
b uster
Ġineff ective
ĠVe h
Ġs ack
ple asant
Ġdo omed
Ġple as
Ġlau nd
P ict
Ġins erted
ĠBl izzard
ott esville
N ovember
o an
ĠSh ane
ĠRou te
ĠJed i
Ġtr aced
health y
ĠBren nan
W il
ĠRe play
Ġreminis cent
Ġr im
Ġd ull
ĠAP Is
Ġf og
Ġdig its
I X
E ric
Ġv om
ins ky
ĠInvest ment
ĠInvest igation
ĠG ross
ĠAd elaide
ĠSu ccess
Ġle aking
Ġown ing
Ġpo pped
ĠReg ardless
ĠHy per
ĠM az
Ġacceler ated
Ġrem ed
Redd it
M el
Ġmod ifications
ĠF lickr
ĠFr ame
Ġ ï¿½
Ġpres ervation
Ġall ocation
Ġviol ates
Ġinto x
ĠChe ney
200 1
Ġjuven ile
Ġchar m
ĠS hip
Ġâ ī
Ġdownload s
Ġdict ator
Ġrepl icate
20 18
c led
Ġp ensions
Ġpres erving
Ġdepend encies
Ġnot ices
Ġher b
200 3
Ø §
Ġb end
Ġpar an
Ġreward ing
ĠFood s
Ġmerch ants
ĠResp ons
K evin
Ġa ven
Ġle mon
Ġfeas ible
ed u
Ġappoint ments
Ġcont end
Ġpig s
John son
abul ary
Ġpen cil
fol k
elect ed
Ġacceler ation
ĠT W
Ġrad ius
ĠO t
P ublished
Ġm asks
ore st
K im
Ġlaugh s
Ġatt achment
Ġout dated
ur st
Ġtw ins
10 5
B esides
ĠP ain
Ġprosec ute
Ġup held
Ġbr ig
bl ue
Ġye ast
Ġr apper
ĠWeb b
Ġsp ouse
Ġposs essions
ĠObserv atory
le ys
Wind ows
Le ague
ĠBeh ind
Ġdiscont in
Ġs rc
,âĢĻ âĢĿ
Ġpo inter
s il
ĠJud iciary
Ġ195 9
Ġiron ic
e ur
let te
ĠL ance
ident ally
" ]
Ġup wards
Ġat oms
ĠW u
De cember
ĠR S
Ġn urt
Ġde af
Ġf ra
Ġenroll ment
ĠP irates
ĠF F
ĠKush ner
w ave
Ġret ros
Ġnegoti ation
er m
ĠC rist
Ġembr acing
Ġveget able
Ġv andal
ĠT aking
Ġcont ributes
! '
Ġtrain er
Ġfert ility
ant ry
Ġprim itive
Ġtoss ed
ĠP TS
Ġl ou
Ġres olutions
Ġmicro phone
Ġfest ivals
ar ium
ĠD ell
rah im
w ife
Ġbomb ings
Am azon
ĠBeat les
Ġneed le
Ġha iled
Ġle aning
We ek
Ġspir al
Ġcongress man
ĠSim ple
ĠE lementary
Ch inese
Ġshoot s
Ġhun ters
Ġshr ink
ĠP E
Ġdwar f
er k
Ġte asp
at ured
Bit coin
Ġcop ied
Ġcost umes
ĠSpe cifically
ĠS oph
H i
Ġforecast s
Ġall ied
Ġwithd rawn
Ġmod ification
Ġiter ation
Ġal lev
ĠBr anch
ĠAr row
Ġv inyl
ia o
ill on
Ġoper a
Ġ& &
Ġin ad
Ġv apor
Ġstamp s
Ġmyth s
Ġre jo
ĠD S
ĠT M
Ġ18 00
Ġdimin ished
Pl an
H uman
ĠT rent
Ġmechan ic
ĠDev ils
ĠConserv ation
oun ge
Ġhop eless
Ġdiscover ies
Ġdisappear ance
ĠS ett
st atic
ĠF act
ĠE gg
Ġdis se
ĠProte ct
any on
ĠS end
in ational
ĠDis covery
Ġ10 2
ĠZ ucker
Ġinspect or
Ġper tain
,âĢĻ âĢĻ
ĠMan uel
Ġm ast
Ġanticip ation
ĠG ir
Ġaccess ing
Ġt ally
Ġvolt age
ĠCom edy
ĠC opy
all ah
Ġcos mic
Ġsmooth ly
Ġuns ure
ĠVol ume
m ails
Ġdoub les
Ġtur moil
Ġout spoken
AN K
ĠProf essional
K en
or ian
Ġr uth
Ġgif ted
ĠNe g
ĠRock ets
Ġg aze
Ġmamm als
Ġv ault
Ġsal ad
ĠSter ling
Ġmer ge
Ġmy riad
IS A
ĠR F
Ġfr amed
Ġch uck
land er
Ġathe ists
R ock
Ġoccur rence
en berg
Ġalleg ing
Ġairst rikes
Ġch amp
Ġfore front
Ġpod ium
ĠA be
aw ays
Ġoffs pring
Ġextract ed
ĠTh an
Y ear
Ġvalid ity
ĠZ imbabwe
Ġfore nsic
Ġmilit ias
Ġadequ ately
Ġt outed
ĠMe et
ĠUs ually
ĠWhats App
ven ant
iv able
Bet ween
larg est
Ġp ier
le aning
ĠNational s
Ġrad i
h ops
Ġsex ist
Ġnar ratives
Ġe man
ĠSouth west
Ġtrig gers
Ġcompat ibility
ile aks
ĠB orn
Ġt am
ĠAd obe
Ġcelebr ations
D O
Ġinter val
ac s
ĠD L
ĠGe off
Ġl b
ĠS kin
ĠMount ains
c ould
av an
ĠMon ica
ĠTw enty
ĠMir ror
Ġjud ging
Ġper ceptions
be h
Ġstim ulation
f alls
ĠCry pt
ĠD uty
Ġneuro log
Ġna ive
ĠBeng als
Ġintr ins
f alse
Ġground ed
ĠTro phy
Ġr ansom
ĠS aw
Ġcr ashing
Ġ10 4
ĠB A
Ġpret ending
ĠRec ently
S omething
ĠQual ity
ĠSim ilar
Ġhe ft
as is
Ġche ek
Ġelev ator
ĠAli en
Ġcreep y
Ad am
Ġsle pt
Ġcan cell
sec ure
Ġap ost
ĠCle arly
Ġexch anged
ĠK iss
Ġw ires
Ġd un
Ġnarrow ly
ent e
OW N
Ġext rad
Dem ocrats
J ones
Ġimm ort
Ġaster oid
L og
c ified
Ġmark ers
Ġcollabor ative
ĠM ead
Ġun ite
Ġadoles c
Ġwholes ale
m ass
he e
Ġsuccess ion
s rc
ĠMem ory
Semit ism
C T
ĠJo in
Ġstreng thening
op ed
Ġjust ices
Ġclean ed
ĠAl ger
OL L
Ġacknowled ging
Ġbol ster
ĠBald win
f ired
Ġun armed
Ġplace bo
Ult imately
ĠTer rit
ĠAct ive
ĠD LC
part isan
Ġtop s
Ġnorth west
ĠB irth
Ġemploy s
ĠLeban ese
t z
Ġsuper vision
t ier
ĠScient ific
J S
ustom ed
ĠEx cept
ĠKenn eth
h n
ĠFl ag
Ġsustain ability
0000 0000
Ġind oor
iss an
Islam ic
) ?
l ins
Ġretrie ve
st atus
Ġe cc
Ġs om
own s
ĠBudd ha
Ġe ject
Ġcomp ares
w ic
Ġperfect ion
over ty
ĠF M
Ġ19 39
Ġspe cially
Ġnut rients
Ġrefres hing
Ġmeaning less
Through out
Ġdom ination
Ġdepth s
Ġash amed
ĠG rowth
Ġevac uated
12 3
ret urn
Ġcur se
Ġo lig
Ġrel iance
p rotect
H y
Ġb idding
Ġdec ay
ĠCom ing
Ġdisg usting
Ġhypot hetical
Ġpredict s
Ġlun ar
Ġdis charge
ĠSky pe
Ġh alls
Ġind o
Ġcan s
ĠFl oyd
ĠCurt is
Ġdecentral ized
ĠB oss
ĠH ond
Ġoverl ap
l ings
ĠTr ack
a ft
Ġhonest y
H as
^ {
ĠBeng al
S ave
ĠB un
Ġvers atile
ari at
Ġblast ed
Ġsect arian
m atch
Ġdefe ats
Ġleft ist
E ver
ay an
Ġm s
Ġsc andals
is ure
Ġresearch ing
Ġperpet rators
Ġpo orest
ĠCoff ee
Ġbe aches
Ġsuper st
ĠS ah
Ġfrequ encies
Ġho ax
Ġregul ator
Ġgrant ing
our ing
t imes
Ġexp ired
ĠA part
Ġde ported
ĠKurd istan
P ay
ĠTr ain
ĠMons anto
ĠC ord
ry pt
S W
ors che
Ġconcept ual
ĠJackson ville
R ay
Ġso ber
Ġcl o
Ġsusp end
ĠBuzz Feed
Ġfirm ware
C ode
H ard
Ġpr ince
Ġanarch ist
F inal
Ġnight club
OR Y
ĠP ars
Ġfut ures
ĠN ike
ĠMy ster
read ing
ĠYOU R
ĠZimmer man
I ll
Ġgovern ed
Ġparent al
Ġr ack
Ġlo oming
D ev
J ew
m ult
S und
V ict
he id
Ġsign aling
Ġtang ible
Ġrele vance
ĠO val
Ġ4 50
Ġramp ant
List en
ĠAn cient
Ġturn over
ĠTechn ologies
Ġdecl ines
Ġeval uating
ĠB TC
ĠEv olution
Ġlivest ock
Ġcruel ty
Ġrecy cling
P o
bor o
Ġun cover
Ġjudge ment
ors i
H and
Ġextract ion
it em
Ġembarrass ment
Ġdism ant
L ou
ĠBris bane
f ight
ĠP v
.. .<|
Ġbit coins
v ideo
ĠJ SON
Ġrelie ved
W ow
Ġaccum ulated
M aking
Ġf rog
Ġbi ography
Ġfalse ly
( $
os er
ĠRe ce
ĠAbb as
Ġsp ine
AC A
ĠCamb od
ent ric
ĠF ernand
ĠAny thing
ĠE lder
Ġfilm makers
Ġcorrespond ence
ĠZ oo
Ġst ing
ĠCh oice
Ġstake holders
ĠÂ ·
ĠEc uador
ĠC ros
Ġtax ation
Ġgl orious
. ;
Ġunder went
Ġfrag ments
Supp ort
Ġto dd
Yes terday
ĠCh arter
ĠBlack Berry
Ġair lines
Ġreinfor ced
Ġ2 20
Ġsex ism
ĠMid west
Ġwe ights
Ġreal ization
d oes
he ard
Ġyell ed
in vest
Ġdistract ed
ĠCan ucks
Ġid ol
Ġw anna
ĠRes ults
Ġhook ed
I AL
S ar
Ġstat istic
Ġre print
b ands
ĠViol ence
Ġrep s
isc her
Ġresemb les
Ġsuper market
ĠHel en
Ġanal ogy
Ġpart ition
ĠG ul
ĠEv ents
ĠB ass
Ġconstitu ency
Ġsound ing
Ġstuff ed
Ġdivor ced
Ġthe ology
am ic
Ġdiplom at
Jan uary
Ġbom bers
ĠIr ving
Ġout raged
ĠUp dated
is ans
ĠC ertainly
ĠR ew
ĠJ et
ve red
Ġj oked
Ġindirect ly
an ol
Ġnom inations
Ġbur ial
Ġtr ilogy
ĠIS Ps
C raft
Ġsh iny
Ġg room
secut ors
p sy
ĠCan on
W estern
Ġbu ys
ĠCharl ottesville
Ġfundra iser
ĠCr us
ob ject
Ġs outheast
ate l
ucc i
ĠSalv ador
ĠF resh
ĠHe ath
be fore
18 0
Ġ 000
Ġmem br
oust ic
are ndra
ĠInd ividual
Ġheight ened
Res p
ĠV P
Ġoverth row
um i
Ġdest abil
ĠT L
Ġillness es
ĠPlan ning
F rench
Ġg it
Ġbr ass
Ġkidn apping
Ġsell ers
Ġgl oss
Ġfraud ulent
Ġutil ized
Ġer r
Ġbelie vers
Ġdr ums
B P
Ġ19 42
,' "
ĠB ert
Un iversity
En large
Se ason
ass is
Ġcho pped
Ġindef initely
Ġcomp uls
Ġs ung
Ġsuscept ible
Ġreconst ruction
Ġac ids
reg or
Ġgoal t
ĠLe ad
Ġmel ting
ĠB T
ĠÐ ¸
ul atory
ĠAnd ers
Ġsurround ings
Ġcease fire
L ittle
ĠDar ren
els en
Ġmiser able
Ġlike wise
Ġir rational
Ġt apes
Ġcur tain
ĠÃ ®
whe el
Ġst acked
Further more
Ġmiss es
Ġur ine
L ess
ĠB ened
c ulture
Ġd os
A BC
Ġpop e
Ġgl ow
ĠK oh
ĠF ans
Top ics
Ġk in
ĠIn qu
Ġcatast rophe
Ġh ats
vention al
Ar ch
id able
Ġst oring
ĠPer fect
C redit
h l
Ġobs ess
En ter
Sub ject
Ġunique ly
Ġpro claim
Scient ists
Ġremark ed
w en
Ġlapt ops
g age
Ġâ Ķ
V e
the med
ĠSh ot
open h
Ġcouncil s
ĠLa unch
dog s
Ġhe ights
ĠCon c
Ġinqu iries
ĠRh ode
Ġrec urring
Ġd ess
k owski
Ġex ile
Ġf aint
Ġchar ism
Ġ195 8
Ġcom r
ĠL ud
ot on
Ġcomment ator
ro ot
count ry
c ro
ĠGen esis
ĠJ azeera
Ġshr inking
Ġspat ial
s cient
Ġsur geon
ĠAng ular
ĠF S
ĠUlt ra
met ry
Ġdis like
Ġsuper natural
Ġende av
ĠPan el
Ġm ant
Ġun pleasant
Pr ime
olester ol
it ating
Ġcr acks
ĠAR M
Ġtub es
P rior
ĠN est
Ġdest ined
em ade
Ġlif elong
Ġoper atives
ĠLike wise
ul ed
ĠD ucks
rict ed
Ġdisagree ment
board ing
ĠDes ert
ĠSchne ider
ĠMot ion
Ġelig ibility
ĠJohn s
Ġauthor ization
ĠProtest ant
ĠK in
Ġgal axies
Ġs ang
Ġwith hold
Ġoff ender
Ġdifferent ial
Ġ Ù
Ġcont enders
Ġovert urned
r h
ĠEx xon
Feb ruary
Ġphotograp hed
Ġmit igate
a verage
ĠT ier
ph oto
ĠWy oming
F ederal
ac ial
Ġvalid ation
Ġj ugg
Ġreg ression
r ance
Ġdesign ation
Ġdisp ers
ĠAd mir
N ick
ud s
Ġpund its
Ġmad ness
J osh
Ġsurviv or
ĠKind le
ĠK em
ĠC anyon
ĠG iant
Ġweaken ed
ĠB row
pl aces
lud es
Ġ195 6
ĠD owntown
ĠCustom s
200 2
ĠIll ust
ĠAm sterdam
K it
Ġintermedi ate
Th ird
ob ic
ring ton
Ġch ambers
mark ed
Ġprop onents
Ġsh arks
g ae
st y
Ġsc oop
Ġrev olt
Ġb unk
ush ima
Ġinter ceptions
Ġmilit ar
Ġhon ors
ĠGall up
ĠDav ies
Ġpun ched
Ġded uct
ĠFort une
Ġhint ed
a unch
Ġprepar ations
ĠN ate
qu arter
Ġheter osexual
ĠIm port
import ant
Ġb ounds
ĠBl ade
ĠDian e
Ġgr abbing
ĠLi u
Ġsl ap
ĠPart icip
ir teen
ĠEconom y
ĠTre vor
Ġconver ting
Ġpl ague
ĠE asy
Ġcan vas
ĠBre aking
Ġhero ic
lant ic
Ġsab ot
Ġe ch
l ain
Ġworth while
Ġunp aid
ĠN an
ĠSh ia
Ġrehab ilitation
ig ators
right s
ĠH ugh
Ġhel pless
ĠRhod es
Ġ\ (
ĠThrough out
arr ison
qual ified
ĠF REE
ĠBar rett
um bs
ĠProv ince
ĠRest aur
ĠJ ur
Ġcrus hing
Ġcompos er
Ġfair y
ĠN ear
Ġclos et
en ment
ot le
pro ject
ott est
Ġt enth
Ġdiscipl inary
ĠAr s
ĠQuest ion
Ġre op
Ġon set
Ġfranch ises
ĠE ston
ĠM illion
Ġpo orer
Ġrum or
Ã ª
ĠCl iff
Ġw olves
ĠB erry
Ġforg ive
Ġspec ulate
Cons ider
S orry
art en
Ġlung s
Ġlaw maker
Ġmar vel
Ġdraw ings
Ġconting ent
Ġun authorized
Ġreject ing
B uild
id ate
ĠAm anda
ĠBay ern
ĠAdd itional
it ures
ul ators
Ġto mb
Ġab normal
Ġsh am
Ġt in
Ġprint s
st ru
ĠP ierce
Ġpedest rians
Ġan th
Ġp ent
M ur
Ġaspir ations
ĠKit chen
Ġcoll ar
ĠG ri
ok a
Ġsc outing
f rac
ific ent
Ġsu ing
Ġad vertisements
AT A
ĠNort heast
ĠColon el
ood y
Ġkid ney
ush i
ĠB le
Ġedit ions
Ġabund ant
Ġret ention
ĠS V
Ġzomb ies
per ing
Ġgluc ose
ĠPir ate
W R
i u
Ġsm oked
Ġfore see
Ġland sc
Ġinfant ry
ĠMy ers
ĠL il
t urn
d ue
Å ¡
Ġmin erals
Ġg ays
âĢ¦ ]
ĠW orth
t v
Ġinstall ment
be e
ang ular
Ġsuprem acy
Ġreconc iliation
IS S
Ġreb ound
Donald Trump
Ġfall out
Ġ10 3
pir acy
Ġw inger
ĠÂ §
ac a
ig ger
Ġl bs
Ġg y
Ch icago
Ġch lor
Ġdi agram
ĠH ag
Ġtel escope
ra red
ĠCh in
Ġver ification
Ġalign ment
ic idal
ĠRe becca
Ġchance llor
Ġtelev ised
ris y
Ġplay ground
ĠIntern al
ĠGu inea
T ech
te chn
ol ia
n umber
ĠC E
Ġex h
Ġspl ash
st ill
Ġcl one
ern ick
ĠHass an
Ġeffic acy
Ġ195 4
affe ine
Ġcomp ilation
L ee
ĠO L
d oc
ĠStand ing
or f
ĠV ita
ol ation
PD F
Ġexc uses
Ġdraft ing
Ġv oy
Ġco herent
Ġmortg ages
ĠH aven
c ule
Ġro gue
Ġco erc
Ġsupp ression
C ould
b ag
ĠP rest
ave z
R ather
D ue
ump ed
ex per
ĠW id
Ġorganiz er
Ġcl usters
Ġsm ashed
Ġby te
c ross
Ġz oo
ĠL akes
Ġt sun
ĠB og
Israel i
Ġsouth west
Ġblu eprint
Ġs aga
ĠC oy
Ġcock tail
Ġst umbled
Ġstri ve
ĠSaf e
ĠD iff
B B
W in
il ib
Ġplag ued
Ġdictators hip
ĠK ot
ĠJud a
ĠTest ament
ĠR ating
ĠR SS
Ġsuper star
lin er
ĠW it
Ġapp les
Ġdisag reed
ess a
Ġcirc ulated
Ġcountry side
ĠT ah
f ocused
Ġunanim ously
Ð ²
Ġpro claimed
ĠAt las
Ġumb rella
ĠM oses
Ġch orus
Ġaccus ation
Ġres h
Ġgl uten
Ġimag in
sm all
Ġunders c
ĠM int
f ill
h ig
v able
Ġsc out
Ġmon arch
ĠPR O
ĠCoun sel
Ġfant as
Ġmanip ulated
Ġmer ged
Ġpecul iar
ĠLe icester
Le vel
Ġdismiss al
Ġpersu aded
Ġaccomplish ments
Ġstaff er
ĠD iaz
ĠGu jar
ĠD ance
Ġrecept ors
- $
A ri
ĠS ig
ĠRock y
Ġprohib its
s afe
ĠF X
ex pl
Ġroll er
B rian
Ġaffidav it
L ondon
Ġs omeday
Ġt iles
Ġmult inational
ĠPrem ium
Ġintimid ation
omet ric
ĠIs is
Ġost ens
Ġinstruct or
pl er
Ġlear ns
Ġdis able
ĠF ell
Mart in
ĠJack ie
ĠCom plex
Ġcomp ression
ĠM ate
ĠComp anies
Ġprem ie
Ġprotest ed
Ġd ots
H R
Ġl akes
t arians
Ġbrew eries
Ġunl ocked
em a
Ġcontin uation
stand ard
ĠWag ner
Ġmess y
p i
Ġdr astic
ĠP ine
ĠHug o
L in
eff icient
umn i
ĠNep al
o it
Ġinnoc ence
Ġb iblical
ĠOs borne
Ġener get
Ġcraft ing
Ġrational e
art z
ĠM oy
educ ated
Ä į
ĠRe venue
osp ace
ĠLyn n
Ġbrows ing
C ustom
ĠS hen
ĠWar rior
Ġtherape utic
Ġhead phones
B rad
Ġ19 17
Ġstap le
og ene
Calif ornia
c oll
Ġm aid
ĠIndust ries
ass ed
ĠP am
Ġmarch ing
c irc
Ġsqu at
ĠV ote
Ġmaj ors
Ġbe lly
Ġcommod ities
Ġfr inge
re z
Ġcler k
ĠF argo
Ġtor rent
Ġst air
ĠN arendra
Ġprogress ives
ĠW ine
Ġest e
N early
em y
he avy
ĠPl atform
w ire
Ġdial og
ĠYork er
Ġf ade
Ġtele com
Ġswift ly
Ġsh attered
real DonaldTrump
Ġinteract ing
Ġse gregation
person al
Ġfreel ance
c ity
Ġd ock
ĠRef uge
cre ate
ĠRep ly
c od
Ġre imb
Ġacc ustomed
Ġkill ers
Ġadjust ing
ot he
c ano
Ġresist ed
bel ief
Ġubiqu itous
Ġprop oses
Ġbad ge
ĠD B
ĠMan ufact
J UST
ĠT as
Ġrep roduction
al ong
Ġcar ved
em er
ĠIS O
O ld
Ġl id
Ġneg lected
kins on
Ġind icted
Ġpol ite
Ġ ion
Ġdest iny
Ġund en
us ra
Ġox id
ĠV ers
Ġsett ling
F OR
gl ass
d eter
ĠN OW
Ġopp oses
Ġb ark
Ġp anc
iv ism
Ġscan ning
Ġsk ies
ĠT IME
Ġl ob
ĠR unning
ĠFe el
Ġdilem ma
d in
Ġm esh
Ġadvert isers
b ons
Ġsol itary
ĠKore ans
Ġdecor ated
if ax
od s
ĠMan it
Author ities
ĠBur ton
Austral ia
Ġharm ony
Ġpoison ing
lling ton
Ġdisreg ard
Ġco hes
ĠMe ga
ĠA zer
Ġback pack
Ġg ospel
od ore
ĠLuck ily
Ġc ros
f iction
ĠWat ers
reat ment
tr ade
ed ience
Ġunt o
icult ural
de ath
O pp
ĠEuro pa
Ġshoot ers
ĠOff icials
Ġaccident al
ĠQu ant
Ġthank ful
Ġl iable
Ġcross es
ĠInter view
ablish ment
ĠR ise
ĠStr ategy
Ġl ith
Ġadvert ised
bour g
ĠW er
Ġemer ges
Every body
ĠLink edIn
Prof essor
g io
w s
ĠA WS
rel igious
Ġrep ression
ĠMour inho
Ġm int
Ġmisdem eanor
qu et
Ġrepl ies
ĠH our
Ġp uls
ĠBor is
Ġw aking
Ġge ographic
ĠG addafi
ĠEug ene
Ġmight y
ĠK ub
ĠChurch ill
Ġ10 6
re ne
ol iberal
ĠE R
ĠArmen ian
Ġcollect or
ĠLen in
NAS A
pher d
R om
ĠH uck
ĠCl aire
ĠP ep
Ġst alled
ĠH amb
" );
ĠAng lo
Ġg el
Ġgovernment al
ĠOrig inally
ĠPun j
Ġne oc
Ġw ax
ve ment
ĠS ugar
Ġdoub ling
Ġwild erness
Ġthank ed
ĠRel igious
ĠAv iv
Ġ7 50
ĠSerb ia
ĠW on
ĠMarx ist
Ġ195 7
ĠO g
ĠP ra
ĠNew man
Ġsub missions
Ġstation ed
wart z
ĠR ol
Ġang el
Ġcyn ical
Ġrem ake
Ġric her
Ġant it
Ġreprodu ce
V ol
ĠSh awn
c am
ĠAmeric as
ĠPer u
u ilt
ĠB il
ĠN W
o il
ger ald
ĠG ur
Ġ195 3
ba um
Ġb un
Ġschedul es
ĠN PC
ett i
Ġdownload ing
ĠV ern
Ġweigh s
Ġver ge
Ġtr aps
Ġbr ace
Ġpar ole
Ġexist ential
ĠR ising
enz ie
Ġa ka
G ov
ĠF ury
ĠHung arian
ĠLab s
f acebook
j ah
ĠC AP
im ation
th y
Ġpir acy
Ġspecific ations
Ġm ansion
Ġsp ider
F ort
ĠH av
te enth
Ġconcer ts
in as
Ġsystem atically
r anking
Ġgar nered
Ġunanim ous
coh olic
yr us
Ġscreens hots
ĠDem s
Ġveget arian
C ard
G H
Ġgard ens
J es
Ġsurg ical
Ġtrans plant
Ġproc ure
Ġant agon
Ġpolicy makers
J ose
Ġth riving
Ġdiv isive
Ġl akh
Ġtum or
In side
ĠConst itutional
Ġearn est
Ġl enders
Ġcomment ing
ĠM ist
ĠSt ark
ĠP RE
Ġmedic ines
Ġlog istics
Ġcl utch
ĠRes earchers
Ġcertific ates
ĠD ocker
Ġv ow
ÑĤ Ð¾
Ġexagger ated
Ġpsy chedel
Ġrem edy
Ġrest ruct
Ġbrand ing
l ate
Ġdown side
D ist
ĠB ast
Ġchar ming
ĠHam mond
Ġwas ting
Ġsent iments
Ġenfor cing
ĠCON T
ci um
ĠZ omb
Ġ} ;
ĠG em
io let
On line
n c
Val ue
ĠC W
Ġmyth ology
ĠS orry
Ġst igma
ĠHe ather
ĠPer iod
Ġir regular
Ġdin osaurs
Ġf ried
ĠOut side
ĠC er
Ġspons orship
cho ice
Ġs ized
rat t
Ġarchitect ural
ĠCongress man
Ġblog gers
gener al
ĠS R
ĠW ave
Ġdem ocrat
Ġign ores
F oot
or ously
Ġcommun al
ĠAn s
ĠV as
ĠAn kara
ĠFle et
Ġam ple
Ġshort ages
Eng lish
Ġinc arn
Ġserv ant
ĠÂ Ĺ
ĠRap ids
Ġdepict ing
p ensive
ĠâĢ ķ
ur ations
Ġtweet ing
Ġarchitect s
P O
Ġ19 43
Ġform idable
ĠSyri ans
ĠSh ut
ĠNob le
Ġcl oses
ĠSt yle
Ġret iring
ĠLe h
Ġcongest ion
f ashion
Ġse ated
Ġeven ly
cript ions
Ġp ads
Ġanim ations
Ġcrack ing
f aced
Ġpat rons
ĠFreder ick
Ġconce al
the ir
Mem bers
Ġ< <
Ġloud ly
ĠT ag
com b
Ġsoc ietal
ĠRay mond
art icle
he rence
ĠFor ward
Ġacclaim ed
ĠJ ak
ĠRe y
spe cial
Ġar ises
Ġpath ways
Ġdr ills
Ġaggrav ated
ĠHig her
Ġ19 55
Any way
ĠWheel er
are l
Ġmass ively
Ġhe x
ĠCong o
ĠM ale
Ġd amp
r ine
Ġincap able
Ġbod ily
G ET
Î ±
ag netic
Ġ( #
ast ics
Ġinject ed
Ġbu cks
Ġimp art
Ġa rom
J ournal
Con nor
ĠA FC
ĠWrit ing
Ġenvelop e
Ġseiz ures
at ri
ĠCons ult
she et
st ad
ĠGard ner
W ater
10 2
Pr ice
ĠLeg ion
Ġo mn
Ġplum met
ĠKat ie
Ġdesc ended
11 5
Ġgoal ie
s or
ĠZe lda
h ash
Ġy a
Ġimp ending
Ġdeep est
Ġske let
Ġsupp lier
Ġevac uation
ĠSy nd
Ġfire works
m ove
Ġper imeter
Ġref rain
anger ous
ĠRE AD
Start ing
Ġmerch ant
d ies
ĠM aid
ĠL enn
Ġcann on
Ġgrad ual
ĠNe igh
Ġjurisd ictions
ĠV ic
D eb
gr and
Ġwhere by
Ġiniti ate
ĠB oot
ĠBuddh ism
Ġlast s
Ne ill
ĠO C
Ġsc ans
Ġref resh
ĠVen us
B at
Ġm um
hen ko
Ġanten na
ĠP owers
be y
ĠI F
ĠW ald
ĠRC MP
ĠL anka
udd y
Ġwho pping
sole te
Ġun identified
ace y
Ġaver ages
Ġmon key
Sund ay
b ishop
Ġc ough
Ġpup ils
Ġcompan ions
Ġover c
Ġreserv ations
Ġindu ce
ĠV ir
ĠOff icers
old own
Ġcounsel ing
Ġproport ions
ist ence
m or
Ġp act
wh y
P E
ĠF eed
ĠRel igion
e g
r ice
Ġfor ged
ĠL TE
Ġpredec essors
ĠJoy ce
ĠHans en
Ġplay able
ON D
ĠRock et
Ġspect acle
Ġexplo its
d ependent
12 8
Ġaffili ation
Ġt apping
Ġrul ers
Ġir responsible
Ġd itch
Ġtruth s
Ġann ot
Ġnit rogen
R on
Ġrent ed
ĠS ikh
ĠO UT
Ġrenew al
ĠSex ual
Ġmed d
Ġopp ressed
ĠPh ase
ĠP orsche
ef ined
ruct ions
G roup
iv o
ĠL SU
ĠF ri
H am
Ġbr akes
Ġmed als
ĠLaure n
Ne ither
Ġsw all
ĠEll en
Go vern
Ġsens ory
ĠAp ache
Ġcirc ulating
in th
Ġn as
ĠIn come
Ġ11 1
Ġphotograp hers
ĠMin ority
ĠAndrew s
ĠF ighting
ĠVict ory
Ġp ac
Ġreg istry
ĠT ool
Ġeleph ants
Ġprolifer ation
Ġfasc ist
Ġatroc ities
Ġsw ear
ĠCard inal
Ġun in
ĠCom bat
Sec ret
M a
ĠS onic
ĠN olan
oc hem
ĠSant os
ĠL ar
Ġphil anthrop
Ġtransform ing
ĺ ħ
Ġde gr
Ġgest ures
ĠB rief
Ġdem ons
ep ernick
Ġstub born
Ġ19 49
ĠKu wait
um en
Ġca fe
ĠG E
Ġbur ger
orm an
Ġstr ongh
pr us
Ġbre asts
Ġcl an
ĠT umblr
ĠA ce
Ġund o
Ġhigh s
Ġb ree
ET A
Ġn g
me aning
ĠE manuel
Ġdisrupt ive
Ġculp rit
ub s
Ġspeed ing
ub a
Ġflood s
Ġch unks
De ath
ĠC ert
Ġgood bye
Ġsuccess ive
à ¥
ĠC ous
ik ed
oh yd
Ġlim bs
Ġaw ake
Semit ic
ĠBra ves
Ġal ley
Ġstri ps
ĠProduct ions
ĠT ay
Ch arl
Ġrun time
Ġhal ted
Ġmem e
ĠMed al
Ġmut ations
Ġcon du
Ġalleg iance
uff er
Ġlau ndering
enc ia
Ġd op
un ion
priv ate
f ires
Ġhe mp
Ġinad vert
t ical
Ġf ier
ĠS it
Ġgrat itude
ĠInspect or
ĠN iet
ĠRoy als
ĠC ultural
Ġpo pping
se ys
ĠSm ash
ĠSav age
Ġexpend iture
al ine
Ġ Ã©
Ġr ude
Ġsl ope
ĠSuper ior
Ġrev ive
ĠM T
ĠRe ality
ĠHe in
Ġmut ation
ĠR aspberry
ad ic
ari us
Ġs or
ed a
Ġrem n
Ġgrab s
Ġf al
D ig
p hew
ĠD ifferent
ab ee
ĠCelt ic
openh agen
ĠMah m
ĠElect oral
ĠJuda ism
Ġm ans
Ġen cl
Ġrespect ful
Ġc it
Ġcomfort ably
C BC
Ġlim itation
Ġplanet ary
ĠGar rett
ĠB ag
ĠEn joy
as io
Ġv ou
ord e
ĠCor nell
4 50
M ary
Ġrest oring
t ar
com pet
Ġsafe guard
Ġmemo ir
Ġst all
Ġvill ains
Ġon ion
Ġand roid
sc ill
Ġcontinu ity
Cre ate
pict ured
ĠRel ated
C y
Ġsur real
Ġsad ness
ĠI o
Ġcor related
Ġdepart ed
D F
Ġundergrad uate
ĠW enger
VID IA
Ġchick ens
ĠGree ks
Ġrob bed
y et
Ġsp ur
Ġharass ed
ĠPeters burg
ĠG ET
ih il
ĠCharl eston
ĠP ip
Ġtri angle
h ou
Ġworld view
Ġpiv otal
Ġincorrect ly
Ġp oker
st ro
ĠRe ich
Ġexcept ionally
10 4
ĠM R
a qu
Ġs ir
ĠRes istance
is man
Ġauthent icity
= '
ĠG olf
ĠBel fast
Ġsu cks
com mittee
Ġprofound ly
B ur
ĠP resent
Ġtempor al
Ġinter ception
Ġgr ains
Ġmicro bi
ru gged
ĠMed ium
w ild
edd y
Ġdi ets
com merce
Ġsl ate
Ġbud dy
Ġsimpl est
ass ing
F und
Ġcommer cially
Ġel bow
id ad
Ġdisc rep
Ġ11 2
Ġgener als
Ġinc ub
Ġsl iding
Ġcamp ing
Ġun official
Ġassess ing
ĠE cho
D i
W all
Ġh ug
.âĢĿ )
Ġper former
Ġ10 7
ill ions
ĠS ans
Ġhit ter
I r
Ġdisc ern
IL E
Ġfor c
J ason
ĠSp ark
A cc
Ġrem oves
Ġincarcer ation
ĠFro st
Ġpseud o
ĠG ent
ĠD NS
Ġdis comfort
ĠMarket ing
C ore
Ġs ins
ĠM AR
ĠHar old
Ġimpe achment
at ical
Ġess ays
Ġne phew
Ġske leton
Reg ardless
ĠPod esta
Ġl ure
ill as
ĠS leep
ex isting
ody nam
ĠCamer a
ĠB om
ld on
Ġst d
Ġexecut ing
Ġhypoc risy
Ġspec s
ĠT ucker
Ġinc idence
ĠT SA
ĠWe ight
Ġ10 8
A ud
S ad
Ġall erg
Ġequ als
ĠAl ban
ĠRep orter
Intern ational
en za
c f
Ġwork load
I ron
ut ory
ov y
Ġo z
Ġmis ery
ic us
osh op
Ġconf essed
00 3
Ġspec ulated
ĠChrist ine
ĠJo an
ĠTechn ical
Ġ19 46
Step hen
Ġdr ift
ĠRevolution ary
ĠJ ail
Ġresp ir
idel ity
Ġge op
) [
Ġsynt hes
p rop
Ġtiss ues
Ġinj unction
Ġrain fall
. /
Ġgra ffiti
Ġprovoc ative
ĠC aucus
ew orthy
Ġtest osterone
Ġdecre ases
10 3
ak is
Ġem pt
ep tion
s ince
r ue
Ġpil gr
ĠMoh ammad
Ġse af
Ġsit uated
ĠNic ole
M ond
Ġe lic
ĠEth ics
Ġprep ares
Ġbigot ry
ĠCol bert
ĠPop ular
ĠSebast ian
Ġcampaign ed
Ġver te
Ġbl oom
Ġtot als
N P
Ġdev ote
Ġinflamm ation
ver ts
t arget
ĠD uck
Ġcoll usion
Ġc ove
Ġsy rup
Ġrul er
Ġboard ing
Ġrail road
ĠG ut
Ġinv aded
ĠM TV
ĠMar athon
Ġtend encies
p resent
re lease
Ġpuzz les
im an
Ġhall uc
ott i
Ġsh ining
ĠPre p
ĠPed ro
ĠBl ocked
ĠAm nesty
ĠFl ore
Ġb aked
Ġinter vals
ĠExt ra
ĠStrateg ic
ĠFull er
threat ening
ĠDur ant
ĠList en
Â Ĺ
Ġge ek
m oon
Ġpharm ac
Ġnot ions
asket ball
W ed
ĠPatri ot
z ip
B usiness
Ġz ip
Ġam en
Ġschizophren ia
b ai
11 1
ĠRec ent
act ly
ĠSh ore
y ll
Ġvill agers
l ia
Ġdict ate
Ġtheoret ically
ĠR ole
IS IS
just ed
it ant
Ġn ud
Ġnew born
Ġst ain
ĠNe o
ĠL I
ĠL iz
Ġper il
Ġ ï
s kin
Ġt abs
Ġdec omp
inc re
ab ase
Ġpreced ing
B T
ĠTe en
r itional
ĠC OU
ĠD EA
Can adian
ub arak
ĠP u
Ġspecial ty
Ġprol ific
Ġbo il
d ain
Ġconflic ting
l n
Ġun aff
ĠCom put
Ġout we
Ġtoug hest
ĠFly ers
ĠM Y
AC H
b order
Ġb aff
cent ric
Ġpair ing
utter stock
Ġfil ib
ĠTH C
Ġre play
ĠP O
ĠD HS
any e
ĠCar p
ar us
ĠD y
ĠF actory
ĠArch ives
f ig
Ġqu ir
Ġpref ers
m ia
ĠLe eds
Ġsal mon
ĠUA E
Ġper t
ass er
C ast
g ithub
ik ers
ĠDrag ons
ĠSe vent
ic ular
iss ue
ĠSt ur
Ġk ings
Ġneighbour ing
Ġinex pensive
ĠD re
u ously
ĠPat terson
Ġl ocking
Ġsm ash
auc as
Ġinv asive
ĠZ ika
Ġf ills
Ġyear ly
Ġsm iles
Ġ-- >
ĠNot ice
Never theless
N umber
W al
Ġex pelled
ĠP oor
ĠTh ing
Ġbra ke
ĠD uc
ĠLie utenant
Ġsur rog
ott a
Ġpl ight
Ġur ges
ĠLam ar
ĠS ize
ĠZh ang
gress ive
ĠBul gar
ĠP retty
Ġsim ulations
Ġrot ating
H en
Ġexpl ode
og ram
r aining
Qu ery
Ġpro w
Ġins iders
ĠAud i
ĠS aid
Ġrestrict ive
Ġem ission
p roduction
ĠIndones ian
Ġadmin ister
ĠBrad ford
Ġmail ing
t aking
ĠCal vin
ĠApp lication
Ġexpl ores
Ġcoun ters
ĠMel issa
char acter
Ġwh ip
Ġgig antic
ĠFe atures
Ġvoc abulary
ĠLic ense
Ã± o
ĠCu omo
Ġguess ing
z an
ĠMe chan
Ġunivers ally
ĠGujar at
L ight
ĠHe b
c reat
l ass
ĠN R
Ġpack ing
Ġste er
Ġinstall ations
ir ling
Ġche at
Ġc ues
Ġpass er
het ics
ron ics
ĠF en
Ġscore r
Ġal erted
Ġnow adays
Go ing
Ġch olesterol
ĠMy an
Ġcondemn ation
ri o
ĠR i
Ġam azed
Ġgr ammar
Ġaccum ulation
Ġimp aired
ĠAv ailable
Ġvacc ination
C ru
Ġperson a
Ġcl ay
ĠP itt
th ose
at ra
Ġh ottest
German y
Ġrab bit
ĠBut ter
ĠWh ole
st ant
ĠBill board
Ġimper fect
Gl obal
Ġh ates
Ġcommercial s
ĠS ara
Ġappl ause
ĠG erald
Will iams
ĠGro ve
rain e
h un
Ġdevelopment al
ĠWi Fi
ĠFitz gerald
Le ft
Ġcelebr ates
Ġlect ures
ĠV oy
Ġrat ios
ĠGod s
ĠCh avez
Ġconfig ure
ĠIss ue
Ġcommun ism
Ġpost ure
Ġbr ink
Ġdisproportion ately
ĠAr ist
Ġjihad ists
Ġ10 9
Ġdefense man
Ġlaw ful
et ics
Tr ue
ĠP ale
Ġlif es
Ġritual s
ong o
Ġde port
Ġstr at
ĠBay lor
Ġsmugg ling
g ering
Ġx en
ĠÃ ¢
E st
ĠA id
Ex pl
Ġdist urbed
Ġsubsid y
Ġinsult ing
Ġr app
Fr ance
D ark
Ġo v
Ġd ictionary
ĠKey stone
Ġdescend ants
L ocation
Ġexp ire
Ġremember ing
ĠSol utions
Ġco ached
hib ition
Ġ2 30
B er
Ġpl ac
Ġunder mining
ĠNAS CAR
Ġapp end
ĠChap man
Ġat om
v on
ĠEp ic
Ġa we
IN D
Ġcris p
Ġgl am
ĠMyan mar
ĠGu ate
ĠL B
ĠSor os
d uty
Ġch illing
Ġinfect ious
Ġexpend itures
rent ice
Ġinsurg ents
ĠMar ijuana
Ġoil s
S u
c amera
f ounded
Ġpolit ic
Ġgl owing
Ġrum ored
ĠU E
ous se
ĠLiber tarian
Ġhorm ones
Ġexperiment ing
ĠLind sey
ĠW itch
Ġdiscrimin atory
Ġspecific ation
ĠE z
Ġair ing
ĠSett ings
rend ered
Ġpractition ers
ct ica
ĠJoh ann
Ġconstruct ive
ĠNic olas
ĠPhilipp ine
Sen ator
ran ch
Ġfo am
Ġ/ *
oot er
Ġtra umatic
!! !!
ĠTw ilight
ĠStephan ie
Ġfam ed
et r
Ġsle w
ym es
Sen ate
Ġext inct
Ġcler gy
its u
che wan
Ġdecre asing
ĠJ S
Orig inally
Ġdefin ite
ĠSt am
Ġs ou
Ġconfig ured
U r
ĠShe ikh
F un
Ġfr iction
l ove
op ia
Sim ilarly
en ame
ĠZion ist
alk er
Ġc emetery
Ġhands ome
Ġrest s
cr ime
IC S
not es
Ġmot ors
ĠFuk ushima
Ġd ynasty
man ned
ĠH oney
ĠOrig in
h awks
r ath
oc ating
ĠC oul
Go vernment
och ond
y en
Ġimp uls
Ġtrans cend
Ġpol ished
ext reme
ĠCom ments
Ġmunicipal ities
c ounter
Ġp etty
Ġpe as
ric ks
nt on
Ġm ocked
Ġqu ar
Ġexhib ited
Ġsal v
li able
Ex p
Ġnic otine
Will iam
k top
ĠW yn
T aking
Ġb apt
Ġpatri ot
Ġ) :
Ġconsult ed
Ġtsun ami
Ġfort unes
ĠLes lie
ĠA W
Ġunre asonable
Ġt ipped
ra its
ĠC openhagen
ĠW ong
AN G
ĠOpp osition
but ton
ĠStand ards
ĠFred die
Ġrestrain t
Ġjud iciary
ĠInf o
ĠJ ab
cap ital
ĠD ocument
UC K
ĠResp onse
P an
ĠA CA
Ġconf ess
e ast
Ġcontrad iction
Ġhist ories
Ġrevers al
ĠM ental
ur istic
Ġpro se
Des ign
ĠPsych ology
ĠT yson
ĠK re
Ġf ox
ri ented
Ġphenomen al
Ġcyber security
ĠC ain
ĠL ac
ĠP izza
ĠSol omon
Ġout doors
ĠUnder ground
Ã ¸
Ġf aded
ĠSS D
Ġbub bles
ĠMult i
Ã Ĥ
Ġdisp atched
Ġsand wic
ign ant
Ġrecons ider
M ont
Ġr av
Ġschedul ing
W ait
Ġinterpret ations
ĠI PA
en ary
ĠR ash
Ġle v
M ic
hard t
Ġemploy ing
! ),
Ġther m
Ġ195 2
ĠHas kell
j ava
Ġt earing
ĠOs ama
OU ND
Ġins ign
oh an
M ajor
ĠX ia
IN K
19 99
ĠTe ams
sp ot
S ky
iv or
st re
ĠG amer
ĠFr aser
ĠCy prus
ĠCh ang
E V
Ġinstinct s
Ġmon uments
Ġplug ins
ĠJ as
ĠDe V
iov ascular
ĠConst ruction
Ġmush rooms
au f
uper t
D D
Ġtr act
av ier
Ä ±
ĠBened ict
C arl
ĠTr inity
Ġtr unk
reg ulated
Ġgeomet ry
vid ia
Ġdistribut ing
ĠOb server
ĠDis play
Ġprin cess
Ġcommem or
ĠBrig ade
Ġra ided
Ġrent s
Ġp ains
Ġesp ionage
K now
f inals
ĠG C
Ġmillenn ials
our cing
Ġge ography
Ġboost ing
OS S
Ġgrand parents
ĠOper a
Ġpart nered
ĠShort ly
Pal est
Ġcher ry
E nt
Ġfulf illing
ĠN issan
ms on
ĠAst ros
Ġouts iders
ag ent
ĠV it
Ġpenet ration
Ġpass ages
ĠNon etheless
Ġsh ale
Ġcollect ors
Ġmand ated
Ġ15 00
Ġfemin ine
Ġblat ant
j ournal
im o
Ġkind ness
ĠDog s
ĠB ug
ĠW ash
Ġdrag ging
sw er
.âĢĻ âĢĻ
ĠW AS
an amo
od us
ĠW S
ĠValent ine
Ġconc ussion
ĠV ander
Ġsupp lements
T em
en h
Ġ13 5
ĠN om
Ġobst ruction
ĠW ILL
Ġdiscour age
Ġecl ipse
Ġstart ling
com pl
am oto
tt a
ket ch
Ġoptim ization
ĠDet ective
Ġs inking
ĠAss ass
w on
Ġp ins
ĠUn block
Ġlong standing
Ġpres crib
Ġrac ially
ĠC ed
ĠSh arks
ĠRoc hester
ĠP av
ĠChar acter
Ġstrengthen ed
az ingly
Ġclar ified
ĠInnov ation
Ġhome work
Ġregul ating
ĠM AN
Ġread ings
Ġs acked
Ġin mate
ne eded
ĠInterest ingly
ĠH os
Ġfront s
ĠFranc o
ar ations
Ġl amp
Ġuns pe
at hing
Ġecosystem s
bro ken
ĠAs ked
Ġhe ars
a ude
Ġfin anced
Ġmanifest o
Ġexcell ence
l ang
ĠFront ier
ĠL un
Ġgun fire
Ġr ighteous
Ġsl ash
ĠPh arm
medi ately
ĠUn known
Ġconc urrent
c ats
es que
Ġmar itime
LA Y
ĠR id
ett es
ĠS ke
l aughs
Ġsub set
Ġgu iding
Ġstat ues
ĠMig uel
Ġeth ic
Ġheavy weight
Ġgen res
ĠW rite
ĠBe e
Ġcompet ed
Ġoptim ized
Ġs arc
ess im
ĠL L
all ic
Ġm aternal
ber ries
ĠHell o
ĠMotor ola
t xt
ar is
Ã¡ s
ĠArch ive
ail ure
r anked
Ġfat ally
Ġ19 33
Pl ayer
Ġjewel ry
Ġs ulf
orn ings
Ġfront ier
Ġindic ations
ĠTre nd
Ġyouth s
ich i
Ġleg ends
Ġoun ce
Ġch ased
ĠDecl aration
c ritical
Ġout going
ĠM alt
tle ment
Ġfulf illed
ĠJav ascript
ĠEx pect
ĠL ords
ĠAv iation
Ġethnic ity
m oney
Ġsort ed
Ġproceed ing
i very
ĠArt icles
ĠKir by
ĠSpot ify
Ġrun way
n om
Ġinflamm atory
Ġd wind
Ġgate way
Ġarc ade
iv ities
Mus ic
. âĢĶ
ĠSt rat
Â ½
bo at
Ġcart oons
ĠSh arp
ĠJohn ston
Ġinv oked
Ġreal izes
gl obal
Ġpestic ides
ĠE VER
Com ment
h ma
Ġopen ness
Ġtrail ing
ĠAll ied
Ġdeploy ing
Ġpump ing
Ġworks hops
Ġunle ashed
Ġpen insula
est ablished
Ġexplo iting
Ġimpl ication
Ġoblig ed
ĠPubl ishing
E conom
Ġun available
Orig inal
ĠFr ances
uc ing
T en
Ġmis represent
Ġb ully
ĠPay Pal
ĠJac obs
Ġdef ects
ĠAny way
Ġorganiz ational
w agen
Ġsp un
ĠIs n
Ġs unk
k ick
Ġh amm
Ġrock y
c uts
k ish
Ġpr aying
Ġunexpected ly
am my
Ġastron omers
Ġabrupt ly
Ġbl ues
ĠMon roe
Ġoversee ing
Ġkn ives
Ġhold ings
if ts
ĠAfric ans
n as
ĠPre vious
10 9
Ġmoist ure
Ġcoh ort
Ġoverr ide
ĠBar on
Mat thew
Ġpe aks
Ġframe works
f ell
Ġparent ing
Ġob ese
ĠArt ist
Ġhes itate
Ġbur nt
Ġyield ed
ld om
man agement
Ġchall enger
ĠAst ron
Ġf erry
ĠE ld
Con nect
Ġpar cel
R ev
ĠIb rahim
Ġad missions
Ġvisual s
Ġsplit ting
Pre vious
Ġvib e
Ġnarc iss
ĠSh annon
Sec urity
Ġtermin ation
3 60
m aid
Ġw ishing
Ġmod ular
Ġphilos ophers
ĠCh icken
el o
ĠCon nor
J udge
Ġch assis
Ġun ins
17 0
Ġnotor iously
ĠOtt oman
Ġch ord
ĠY ug
ĠAthlet ic
Ġplant ing
Ġlabel ing
ĠStock holm
ĠWATCH ED
Ġsummon ed
Ġ iv
umb les
Ġf eder
ĠV PN
ĠM K
ĠAr ms
i ating
Cle arly
sh ort
Bre aking
l ich
P ER
ĠCy cling
ĠCustom er
Ġbl ur
Ġas semble
ĠJan et
Ġh iking
ent on
ĠSh ir
Ġk idding
ov able
Ġspont aneous
Ġret ali
Ġdecl ares
udd le
Ġenerget ic
q qa
ment ia
Ġceremon ies
Ġwor m
Ġad am
ĠInt o
Ġwith stand
Ġ25 6
f ed
Ġens l
Ġgrand children
ĠB end
Ġbroadcast s
us ually
Ġbacter ial
Ġslog ans
Ġfl ipped
St r
ĠKa epernick
Ġsn ipp
re b
Ġto re
Ġt ac
Ġbl ink
Ġp enny
Ġcontrac eption
her ty
ĠH ers
Ġunder mined
Ġhom emade
cept ive
Ġgener ators
oy a
Ã± a
ĠSch war
Ġwand ering
ĠCom mercial
cl ose
25 6
Ġm und
Ġbl onde
Ġcentral ized
Ġper vasive
vis ors
osoph y
ĠC V
att led
Ġf ixture
Ġbe verage
Ġhand ler
Ġill umin
Ä Ł
Ġdemol ition
Ġexc luding
Ġsil icon
Ġtrig gering
ĠSc out
Ġmotiv ations
Ġmic row
ĠSol o
Ġmod s
Ġescal ation
Pro v
Event ually
Ġstr anded
Ġbi om
ij i
C ost
Ġe ve
Ġcon ve
Ġbeh old
ĠGold berg
act ivity
ĠOpp ortun
oss ip
Ġtom atoes
p ires
IG N
Ġnot ify
Ġprogress ed
Ġretain ing
EM A
pat rick
Ġsoc ks
ĠTown s
ig ated
ut sche
Jew ish
Ġb ids
ĠO dd
ĠK abul
ing es
Ġfil ings
ĠSec urities
l ide
Ġw izard
OL D
mans hip
ĠS ally
Ġsp rawling
ĠAl bum
Ġd ental
F ast
Ġs lick
ĠR um
ĠO T
ĠAN Y
ĠField s
ĠX in
ĠPengu ins
ĠAur ora
Ġproced ural
Ġob solete
uck land
Ġhe ap
ap i
ĠT ank
ĠÂ ĸ
Ġrespect able
ĠMac ron
Ġlos ers
Ġor thodox
Ġev id
ĠHann ity
Ġbureaucrat ic
g ard
ĠN igel
Ġblock ade
Ġcar te
ĠA AA
Ġmet ropolitan
Ġsid eline
ĠP P
ĠF ry
x imately
ch in
Ġsod ium
Ġresist ing
ĠG IF
ĠDo om
ĠTor res
reg ulation
IC A
ĠSant orum
bet ween
ĠM Hz
Ġmis guided
Ġpione er
Ġ17 5
Ġdiss atisf
lu ent
Ġcon quer
ĠNew ark
Ġsuper f
Ġ19 14
g all
Ġd urable
Ġhigh ways
Oh io
Ġreject s
Ġsat ir
Ġstat utory
Ġsqu ares
Ġdatas et
w omen
Ġrese ar
Ġcancell ation
Ġa isle
Ġgl ue
Ġdom est
ĠHor izon
ĠM W
Ġmat urity
... ]
ĠBur ger
Pri v
ĠGuant anamo
get own
Ġc ant
ĠRut gers
h on
ĠReg ist
Ġrestrict ing
def ault
ĠMoz illa
Ġsynt hesis
M rs
Ġc affeine
od o
ĠSte ele
ĠMad uro
F lor
c orn
Ġcor ro
aid a
ĠPer th
m is
Ġimag inary
Ġmetab olic
Ù Ĩ
ĠA ber
ĠG ren
ĠK ris
ON G
Ġl ent
Ġvan ished
ocaly ptic
Ġbal ances
Ġassist ing
em on
ĠO ption
ĠHar b
Ġrespir atory
: [
ĠH iro
ar ray
ĠV on
Ġmon keys
ĠLu cy
Ġse ating
v ine
if ty
Ġlab s
Ġtest ament
Ġche ering
Ġsmok ers
reat h
ys ics
ĠLaw s
ĠAdvis ory
p ng
Ġstress ful
N ov
ĠK ur
ĠSw ord
Ġcos m
Ġle isure
Ġutil izing
ĠBlack s
Ġmagn ificent
Ġcan cers
Ġdisc arded
Ġcub ic
Ġar rows
Ġprev ailing
Ġvis ions
Ġconsult ants
ĠPTS D
ĠSc and
Ġarm ored
Ġrum ours
B ad
Ġdem ographics
Ġl ord
Ġimp over
Ġsin ister
Ġth ieves
ĠC ec
Ġce ased
Ġc av
Ġvers a
Ġobject ed
ĠRes cue
Ġs igh
ic ially
Ġre write
ang a
z ero
Ġ( (
Ġstandard ized
Ġalph abet
ro b
am bo
Ġab using
Ġelect rons
iol a
Ġlik ing
l ists
dig it
ip al
Ġinsist ence
onge vity
j ury
Ġcirc uits
i ago
l ated
Ġexp ands
Ġlive lihood
og rams
ĠZucker berg
Ġlaund ry
Ġarbit ration
and ro
To o
" ?
it ious
ĠAl v
Ġimpress ions
ĠB ath
Ġbus h
rec ogn
T B
Ġaw ait
Ġ195 1
ĠPod cast
E AR
Ġtele communications
ĠQuest ions
iv ist
E ast
ĠL is
ĠBoy d
Ġjud gments
at ible
Ġa ided
Ġrel iably
ĠJoe y
he ne
Ġund ec
ĠH B
Ġac oustic
not hing
rac use
Ġpump ed
Ġstim ulate
Ġpromin ence
Ġun for
L uc
Ġass im
ev il
Ġde ception
Ġad here
Ġ19 18
ĠDani els
Ġne oliberal
Ġswing ing
ĠWe ber
Ġrehe ars
Ġsc aled
Ġ19 38
ows hip
ĠAg es
ĠCre ated
ĠSad ly
Ġaut obi
Ġfear ful
ĠGreen e
ĠW ool
are th
is y
Ġincons ist
Ġcondem ning
n ick
ĠL ok
Ġdiff ers
ĠM ubarak
Ġsacrific es
ĠAntar ctica
v s
ĠF usion
H appy
ĠS ark
CL OSE
ĠWhe never
Ġgrad uating
ã Ĥ
ĠS ina
Ġteasp oon
ĠT witch
Th ursday
Ġprov oked
ron ting
avor ite
al most
sh are
ĠHoff man
C ase
ĠAC T
ĠAna heim
il ot
Ġdisrupt ed
M R
r t
V ia
ĠMar riage
ĠN I
10 6
ĠMon itor
Ġjihad ist
Ġpro let
ess ment
ĠSub ject
Ġrou ter
is ine
Ġf uzz
ĠWol ver
Ġdisgr ace
z illa
Ġtermin ated
Ġelev ation
ob il
Ġbull pen
ĠL uk
Ġtext ures
Ġnostal gia
Ġst ared
Ġext r
Ġcollabor ate
ĠFinn ish
Ġn ause
ĠMart y
ĠPhys ics
ĠManit oba
Ġo riented
Ġhur ry
Short ly
R B
Ġconf ession
ĠHann ah
ĠTon ight
Ġres umed
ord ered
Ġheft y
ĠCrit ics
Ġpir ate
Ġun sett
ĠV II
ĠAl leg
Ġpresum ed
Ġp irates
Ġconserv atism
ĠHist orical
Ġsky rock
Ġmel ted
Ġpossess es
ilib rium
Ġtheat rical
/ -
Ġdownt urn
oc re
ĠWik ileaks
Ġburd ens
raft ed
Ġwheel chair
c hens
Ġpack et
E arth
ack ers
Ġend urance
j son
Ġtro lls
W orks
h h
Ġc apped
ĠD raw
ĠSch wartz
Ġb olt
Ġre written
Ġoverse es
11 2
ĠElect ions
ĠR andom
Mond ay
f at
Ġostens ibly
Ġtem pted
m ort
ĠL inks
Ġl ays
Ġconf inement
ve illance
acc ount
C oll
go ers
Ġpun ches
Ġmim ic
ĠR NA
go ogle
fashion ed
Ġunfair ly
Ġsc outs
ĠR iot
Ġw aving
ĠCom pl
ĠP ool
T it
Ġinsult s
ĠOri oles
Ġkey word
Ġth igh
N F
Ġ[ âĢ¦]
Ġchrom os
uck ing
ĠWill ie
ĠP ixel
ĠV C
Ġfold ed
Ġgun shot
ĠMic key
ĠID F
Ġentit lement
ĠD as
Ġviol ently
ĠÐ ¾
Ġt ones
ud get
Ġharm less
St and
ĠStat us
Ġout ward
Ã ¯
Ġn ap
ks wagen
Ġlegal ized
re ally
ĠS uff
cl air
Japan ese
ĠUg anda
S ean
Ġguess ed
let ion
Ġban ana
R a
l aughter
Ġsubst it
oper ation
ĠBook er
aw k
ĠKaz akh
ĠH il
Ġgrav itational
ĠY ORK
Ġdr ank
Pro t
t im
ĠH ang
Ġpip elines
in ness
Ġex ert
Ġthink ers
Ġmon st
S n
Ġcomp ute
Ġtransfer ring
Act ually
Ġcommand ing
Ġter med
Ġmut ually
Ġsal vation
Ġmetabol ism
Ġfun nel
Ġjoint ly
att a
ĠSaskat chewan
ĠIran ians
h m
Ġer osion
Ġexerc ising
ir rel
Ġrec ap
ĠR anch
Ġsp ies
ff ield
ĠHard y
ĠA U
ĠD ew
Com ments
ĠDI Y
Ġun used
13 5
Ġpol es
Ġteam ed
ang ling
ĠRe ason
Ġrot ate
Ġing en
Ġbo ast
ĠL imb
Writ ten
Ġclass ics
ĠKn ox
ĠSy racuse
U MP
Ġrig ged
ĠD iana
Ġfil tering
Ġresent ment
ĠG ru
M il
out heastern
Ġb ishops
ĠA gg
Ġesc aping
ĠDevelop er
Ġbe gging
Ġbet s
ĠPer kins
ĠCroat ia
z man
ĠE y
Ġmarket ed
Ġ11 4
Ġwarm th
ĠR OM
Ġundert ake
ĠI X
ĠWorld s
per cent
he a
an an
e on
yr r
Ġp as
Ġspe lling
on el
ĠG ust
ĠF it
Ġdeb ating
Ġmis con
P akistan
ĠLiber ation
ĠM H
ĠH ours
Ġa rous
ĠP G
Ġve in
Ġguitar ist
uss y
Res earch
ĠRom ans
ĠHer bert
id as
ĠP ure
state ment
Tur key
E ff
Ġpe aked
ALL Y
Ġspec ulative
I tem
o os
ble ms
be ck
ĠL DS
Ġwid ow
ĠB oulder
ĠF ul
ru ce
inn amon
Ġs ands
ĠSouth ampton
ĠRe ader
ĠJ P
on ial
Ġmarginal ized
Ġant iqu
Ġmelt down
ĠPro blem
Ġ12 3
Ġfright ened
Ġacqu aint
sm ith
Ġinspect ors
bet ter
ixt ures
ĠC ory
Ġdiscount s
Ġreserv ation
ĠC lement
Ġy en
ier i
Ġcock pit
Ġg ast
Ġcum ulative
indust rial
per fect
Ġboost ed
it imate
st own
Ġsepar ating
ĠAzer bai
ow ler
St ay
Ġm og
ĠA HL
Ġcontext s
s aving
Ġam p
L ate
Ġtrans itions
Ġrev ol
at ts
Ġovert urn
ĠS inger
Ġdist orted
ĠRiver a
U t
o in
ĠW elcome
mod el
ĠMin utes
Ġoverd ose
ĠFernand o
Ġp ne
Ġdeb unk
Ġens ured
Ne il
Ġpled ges
Ġt sp
Ġpack aged
ĠM au
ĠAr ray
Ġdep icts
M O
Ġthr ill
ĠP ull
Ġbar bar
Ġexecut ions
ĠRaf ael
or st
ĠEm my
Ġhazard ous
Ġam nesty
Ġencour agement
Ġout lines
[...]
