#version: 0.2
t h
i n
Ġ \
Ġ $
o n
Ġ a
Ġ th
t i
r e
Ġth e
e n
a l
e r
_ {
Ġ s
Ġ o
Ġ Ġ
m a
i s
l e
o r
Ġ c
ti on
t e
t a
b e
Ġ f
r a
Ġ w
Ġo f
n d
i g
l a
r o
^ {
d e
Ġ p
Ġ in
Ġ t
e s
a r
e q
a t
Ġ is
( \
Ġa nd
s e
{ \
s i
in g
m e
v e
i c
h a
Ġ b
) $
h e
Ġt o
Ġ e
ma th
o l
en d
i t
Ġth at
Ġ n
s u
Ġ (
c e
Ġ d
Ġ Ċ
} \
o t
ra c
ĠĠ ĠĠ
m p
re f
g in
Ġf or
be gin
u a
f t
l y
, \
a n
Ġw e
_{ \
ig h
_ 1
f rac
v er
l o
Ġ re
\ end
\ begin
Ġc on
Ġ g
en t
Ġ T
s t
m b
l l
c al
} {
i te
Ġ =
c t
o u
e d
Ġ be
Ġ u
1 }
c tion
r igh
} $
Ġ &
Ġ on
c h
i th
g a
) \
Ġ i
r i
m ma
e t
p h
h o
\ in
Ġp ro
m u
Ġs u
ua tion
Ġ\ c
\end {
\begin {
Ġ de
righ t
Ġa n
eq uation
le ft
Ġc o
d ot
Ġb y
} }
Ġa s
_ 2
Ġw ith
d a
be l
_ 0
o re
) }
Ġ m
la bel
in e
g e
^ 2
p ha
p p
Ġ ha
Ġ\ in
al pha
Ġ ma
e ta
_ i
i m
Ġ I
= \
t o
Ġ -
Ġ 1
^{ \
_ \
Ġe x
math b
mb da
b le
math cal
Ġ S
Ġ 0
Ġa re
te d
Ġ L
Ġ +
- \
i r
p si
} ,
} )
Ġ v
lo w
$ $
ti m
i v
o m
t er
re s
ĠĠ Ġ
Ġ A
p ro
l ine
\ c
o f
ĠT he
d u
equation }
te x
l ta
p a
t s
la mbda
u r
o me
u s
p er
_ n
ig n
le q
u n
* }
i f
ph i
Ġ C
Ġw h
eq u
e c
tim es
Ġa l
} .
^ \
Ġ it
ig ma
Ġ F
Ġth is
he re
dot s
it y
^{ -
a s
la r
ti al
Ġ h
W e
q ua
t r
ti ve
T he
} (
\ b
l on
su m
tion s
ft y
ra n
+ \
mp le
f in
Ġc an
Ġ\c ite
Ġp o
ti c
al ign
Ġha ve
} _
d s
su b
mathb b
en ce
ĠĠĠĠ ĠĠĠĠ
u p
i l
Ġ B
ro m
ic h
ti l
u t
Ġ 2
Ġ H
f or
2 }
Ġ\ frac
p i
tex t
ore m
Ġ\ ref
Ġ (\
d i
\ label
v ar
t ri
Ġ x
eq ref
til de
ol low
Ġo r
o w
\ }
Ġs e
x i
~ \
ta r
se t
\ n
in t
be ta
ĠT h
si on
Ġi f
p ar
d er
Ġ P
Ġ\ \
m ent
Ġf ollow
o te
s igma
a b
psi lon
i de
Ġ M
| \
r m
a tion
ga mma
i z
u re
Ġf rom
th eta
_{ i
ta u
ro w
) ,
_ k
i d
un ction
Ġa t
Ġs a
Ġ le
r ho
a te
qua d
} _{
g le
n t
Ġ me
en er
p o
} {\
Ġa ll
_ j
)$ .
de lta
h at
c o
Ġwh ich
th e
a se
Ġ\ b
\ \
\ left
\ right
Ġ [
i e
^ *
Ġsu ch
) .
\ |
e ll
Ġthe n
D e
Ġ R
Ġs et
th er
Ġ\ eqref
o ver
Ġ k
Ġ l
Ġf unction
ou nd
) =
s o
q u
\ {
i es
a ct
s s
par tial
Ġco mp
Ġ N
ta in
m s
o de
Ġp a
c k
p e
pa ce
Ġ y
ite m
al l
p l
Ġ {\
in fty
u m
Ġu n
Ġn ot
G a
ho w
Ġd is
ra y
Ġsu b
o d
n e
Ġo b
c es
Ġ E
a p
e x
)$ ,
\begin{ equation}
\ mathcal
i a
^{ (
p s
a nd
a ch
ome ga
\end{ equation}
i ll
g eq
pro of
0 0
mathb f
\ ,
mb er
s ta
ar ray
Ġthe re
t y
i al
me ga
se ction
O mega
or m
- 1}
Ġs ta
m in
_{ n
} ^
Ġ G
Ġan y
Ġ We
Ġde fin
f f
Ġa pp
_ t
tar row
b f
u mber
i an
c on
Ġg ener
Ġ\ n
Ġon e
y s
0 }
si tion
Ga mma
in ce
Ġp ar
ro up
Ġ {
a re
e re
r u
proof }
Ġ\ left
Ġ D
T h
l u
h i
Ġf in
u lar
r t
g ra
l d
Ġha s
ol u
m o
ĉ ĉ
tri x
Ġw here
b ra
w o
ou s
d ing
Ġb ound
Ġg iv
Ġ\ leq
] {
or ph
s q
s c
L et
s f
De lta
Ġu s
+ 1}
Ġ X
se d
righ tarrow
Ġ\ right
if f
^{- 1}
Ġ }
tr ic
u l
var phi
ĠI n
su l
_ 3
w ide
Ġs how
} (\
\ frac
Ġ r
I n
^ n
\ [
) ^
Ġc ase
al ly
align *}
sq rt
re e
k e
e psilon
Ġfollow ing
Ġre sul
Ġn e
at or
ct or
ir c
_{ k
Ġs ome
l dots
Ġ equ
Ġn on
} ^{
ta tion
u nd
\ sub
t ing
Ġd en
Ġt wo
) )
p ec
Ġ z
b o
o times
& \
align }
a pp
}$ .
en sion
f ig
\ leq
Ġ\ ,
ir st
Ġ lo
Ġw ill
B ig
\ alpha
over line
Ġ ra
] $
Ġ K
Ġcon t
ver y
j }
eq n
Ġex is
o g
w here
= 1}
e mp
[ \
w e
Ġal so
a d
Ġin te
la n
re d
Ġ 3
math rm
Ġe ach
Ġn o
\ item
al u
\ ]
p res
c c
Ġ\ label
ge bra
Ġon ly
2 0
ab la
mp l
Ġs o
Ġd o
o se
^ 1
Ġ\ sum
ol ds
Ġ V
_{ 1}
ĠThe orem
v are
Ġ W
l im
Ġfollow s
e mma
i p
po sition
vare psilon
Ġgiv en
\ d
Ġd iff
a m
\b ig
p on
ĠTh en
b ar
Ġa r
Ġc la
\ pi
\ P
equation *}
) =\
L a
Ġ mu
}$ ,
Ġ U
si der
orph is
ĠL et
Ġm o
Ġs pace
_ s
Ġco mple
i tion
Ġ |
\ mathbb
p t
Ġ :
a st
b ig
Ġ j
c lu
Ġob tain
Ġn umber
Ġg roup
i x
Ġa d
f ra
a u
j e
\ mu
di tion
Ġpro of
Ġc or
o th
ic al
ar y
es s
Ġc ha
Ġre s
g or
ĠĠ Ċ
Ġle t
al ity
Ġ ver
ti sf
a mple
Ġ\ end
\ lambda
lo g
n u
Ġ\ to
_ m
) (
Ġf irst
_ p
per ator
Ġas su
Ġ equation
Ġin ter
line ar
Ġ O
on g
- -
Ġ\ begin
Ġg ra
} _{\
ran gle
Ġs olu
im ension
1 0
\ to
v es
n ce
fra k
du ce
is e
Ġ\ mathcal
La mbda
Ġe le
Ġsa tisf
Ġfor m
ĠF or
. .
Ġv ar
Ġo ver
Ġ la
Ġs i
y n
it s
Ġ\ text
Ġ ta
ti es
th m
' s
ve ctor
p end
ch i
ĠTh is
Ġfin ite
) ^{
Ġ <
o p
ar d
} }\
Ġ\b ig
lan gle
g h
app a
Ġt ran
Ġ\ Ġ
ys te
le mma
k appa
Ġf act
Ġp er
F or
Ġ\in t
1 2
Ġse e
Ġ\ {
Ġpro ve
ĠL emma
Ġpo int
de f
Ġ\ |
eqn array
c dot
r k
Ġre la
ma trix
Ġe very
Ġdefin ed
emp h
_{ 1
Ġdiff ere
Ġpro ble
Ġs t
$ \
ra w
ma in
il ity
st ru
' $
Ġ es
Ġt er
ff ic
le m
\ sigma
Ġs tr
} [
S igma
orphis m
Ġ\ mathbb
um er
p la
s si
b u
\ Ġ
Ġo ther
iz e
\ times
Ġor der
g es
pe ct
Ġ 4
wide tilde
ode l
ti me
s pace
z eta
mu la
le d
o x
_ r
_{ 0}
m all
\ phi
ote s
ĠĠĠĠ ĠĠĠ
g er
\ s
n }
Ġal gebra
math frak
ou ld
\in fty
equ ence
\ p
_{ j
n ow
ent s
ment s
nd er
Ġwh en
s er
Ġcon sider
ti ma
Ġgener al
Ġ\end {
or k
Ġit s
) ;
Ġu se
ol d
si m
ĠĠĠĠ Ġ
Ġpro per
le s
\ text
Ġma p
Ġs yste
res pon
\begin{ proof}
Ġ\begin {
te s
Ġo p
e ps
er t
, -
\ gamma
Ġ Y
t en
Ġsa me
ĠP ro
f ine
ĠĠĠĠĠĠĠĠ ĠĠĠĠĠĠĠĠ
ra me
er o
\end{ proof}
a y
Ġun i
Ġexis ts
Ġ\ d
a su
igh t
ĠI f
r al
in ts
\ geq
c ite
Ġ ,
se c
Ġ vector
Ġus ing
ou t
Ġo ur
bo ve
Ġo perator
_{ 2
c re
ri me
ol og
Ġa bove
ou r
^ 3
ti cal
a k
Ġ\ emph
array }
_{ 2}
Ġv alu
y m
ma n
ct ure
' '
Ġ\ le
| ^
as es
i re
in u
} ,\
l ti
ma rk
iv al
clu de
v i
d en
k }
Ġcor respon
ffic i
c or
\ beta
Ġ q
\ rho
Ġtran s
Ġb ut
Ġapp ro
Ġthe se
Ġ\ times
_ x
Ġresul t
ref ore
\ sum
l i
Ġ en
}) .
Ġp re
Ġin de
in d
gra ph
Ġproble m
the orem
Ġ\ quad
pro p
\ tau
Ġpar tic
Ġ\ geq
Ġ >
co mp
( -
Ġu nder
\ theta
Ġp ol
ent er
} ;
v en
Ġbe t
^{ 2}
q quad
si tive
Ġre pres
Ġgra ph
Ġma n
on d
Ġ qu
Ġcon sta
3 }
\ tilde
Ġ J
Ġm odel
\in t
Ġ ho
or d
tri bu
Ġ time
Ġ$ $
^ k
ti t
a ted
sc ri
ver t
ve c
Ġc lo
Ġre g
\ delta
Ġma trix
_ c
w h
m m
id th
/ \
Ġme asu
\ le
] \
Ġu p
Ġsolu tion
) -
_{i }
\c dot
Ġes tima
Ġs ince
om ial
Ġ\ sub
Ġfunction s
Ġc ho
Ġc ur
Ġ\c dot
) }\
s ing
Ġi mpl
we en
Ġ Q
\begin{ align*}
Ġ\ alpha
. ,
\end{ align*}
Ġassu me
i ve
P ro
Ġde fine
Ġ linear
P hi
Ġm ore
lemma }
. }
Ġs h
] :
fig ure
Ġcon tain
Ġcon dition
Ġc al
for ma
ie ld
1 1
_ d
\ R
Ġ Z
Ġse ction
e ction
var ian
Ġthe orem
\ e
\ Gamma
T I
Ġex ample
iz ation
} ^{\
Ġp res
Ġbet ween
\begin{ align}
\c ap
& =
wide hat
1 9
i i
a ble
Ġden ote
\ lim
Ġex t
\end{ align}
a tions
y mb
_ a
Ġequ ival
Ġg et
\infty }
e m
Ġ ro
Ġan al
Ġcon stru
Ġresul ts
t }
_ 4
ymb ol
\ m
ma x
m }
r y
s h
} =
pl it
Ġma y
\sub section
Ġk now
Ġt ri
Ġ\ lambda
\ section
de d
g u
_{n }
mb ox
Ġmu lti
_ l
du ct
) }{
ĠI t
orm al
Ġcla ss
i lar
) ,\
Ġsyste m
Ġs equence
\ !
pl us
pp ose
\ h
te q
tive ly
e ver
Ġcon ver
fin ition
Ġpartic ular
u b
on e
Ġlo cal
Ġcont inu
ic ation
Ġth an
Ġcomp u
Th is
ic s
{ (
ta b
\ psi
\ varphi
umer ate
Ġpo ints
Ġfor mula
a c
. \
r f
Ġsta te
) |
v ing
^ +
or y
Ġn ow
en umerate
se e
I f
Ġm in
matrix }
Ġpo sitive
r ic
V ert
Ġt y
Ġimpl ies
c m
) +
se teq
Ġstr u
^{ 1
lon g
Ġconsta nt
n abla
enumerate }
) ]
Ġc ol
Ġ qua
su p
ym me
w idth
im ilar
\ omega
\ mathbf
}) ,
Ġ\ mu
< \
gor ith
ec ond
duce d
\ Omega
p rime
i b
\ Delta
om orphism
min us
Ġin to
is t
} )$
yn omial
k ip
\ C
Ġcomple x
und er
Ġe d
o plus
en tial
Ġi den
i on
^ 0
Ġrepres en
v al
\ rangle
Ġi mp
le t
on umber
u d
or s
a me
set minus
ia ble
Ġh olds
\ v
_ N
Ġ "
w ith
Ġ\ R
\b ar
ĠA s
p }
Th en
Ġme an
Ġ& =
\ xi
Ġ- -
Ġf ix
Ġ& \
Ġme th
Ġa b
\ eta
ĉ Ċ
\ hat
ec tive
1 5
Ġwe ll
qu e
b ab
Ġ lar
o s
Ġd imension
Ġd er
c he
ta ble
iz ed
theorem }
Ġo ut
\begin{ equation*}
c i
Ġ 5
Ġre al
t ro
\end{ equation*}
Ġw r
o v
i ed
; \
Ġw as
for m
\ f
pro d
_{i =1}
rame ter
ma p
Ġin equ
st ra
ent ly
Ġbe c
Ġdis tribu
ĠPro position
is h
ol lar
er s
Ġd ire
^{ n
Ġ ref
Ġbound ed
Ġ\ <
Ġh y
ollar y
ĠS ince
ed ge
Ġdefin ition
y c
Ġpa per
1 3
A s
\ otimes
Ġpol ynomial
an t
{ -
Ġcon s
Ġb oth
st o
Ġs econd
Ġ\ h
c u
) _{
\ l
Ġdo es
Ġde g
ĠS ection
a ck
_ h
mo oth
Ġ te
ĠB y
fin ite
Ġ .
Ġ\c ap
\d raw
ex t
Ġco m
c irc
be d
ate gor
Ġ `
^{ 2
Ġz ero
Ġd u
_ +
: \
rac ter
st y
Ġpro duct
c ha
1 6
\n u
n g
Ġpro bab
R e
Ġiden ti
olog y
B y
sty le
Ġcorrespon ding
Ġu sed
Ġ\ m
ces s
i }
im al
^ i
Ġf ield
Ġ )
nd om
^{ -\
la tion
\ partial
Ġ\ (
Ġ\in fty
C on
ol on
: =
\ ell
d imension
Ġexis t
Ġ- \
Ġw ork
~ $
1 4
ne l
p m
en g
au se
v alu
Ġvar iable
Ġ\ otimes
Ġter ms
Ġl im
ur ther
gorith m
ex p
a si
o k
b it
l ic
Ġ right
Ġs mall
Ġa u
in c
olds ymbol
Ġd ia
Ġn ode
_{ (
_ e
pa ces
\ overline
Ġmeasu re
Ġsatisf y
di tions
Ġ\ Big
c us
^ d
= 0}
Ġ\ ar
c ia
Ġ\ phi
ig en
j ective
n ot
je ct
) ^{\
: =\
d is
w edge
equ iv
}\ \
\n o
sc r
I t
g roup
ou gh
Ġ: =
Ġstru cture
Ġpa ir
Ġs ing
Ġcontinu ous
_ f
Ġ\ delta
Ġne ed
du ction
wh ich
e w
s plit
} =\
Ġpa rameter
Ġde pend
Ġ\ beta
\P hi
Ġ\ s
_ *
1 )}
Ġde scri
Ġi de
Ġra ndom
\ S
g ral
Ġ\ pi
varian t
Ġ\ ldots
p ut
a ce
Ġ he
p ic
orph ic
S ince
Ġ\ sigma
Ġdiffere nt
b b
_ b
Ġmo du
cal l
Ġas so
Ġ\ }
n ec
xi ma
/ 2}
g y
_{k }
w ise
s }
Ġcha racter
\ <
Ġty pe
te p
u ll
Ġinequ ality
} -
Ġele ment
^* $
) {
Ġbound ary
_ T
tion al
\ Big
item ize
ind ent
Ġy ou
or t
in ate
u ppose
eng th
_ X
Ġres pect
Ġcon ditions
R E
Ġ\ tilde
pl ic
itemize }
om orphic
ie l
2 5
z e
ĠTh us
Ġin tro
Ġs ymme
d ic
at ur
Ġs ol
v ial
si ty
forma tion
Ġde ter
Ġs pec
d d
\ langle
. $
o int
^ m
) ^{-
Ġfin d
Ġcomp act
} )\
n er
_ A
Ġ 6
pec tively
l f
Ġcha n
a ta
vi ous
Ġs mooth
Ġthe ory
map sto
Ġclo sed
ti ce
Ġsatisf ies
Ġ\ ;
c dots
Ġprobab ility
Ġinte ger
Ġ\ P
a g
ore over
Ġele ments
in k
Ġw ould
for all
Ġcomp on
' (
Ġp la
Ġ\ gamma
en s
\sub set
d x
Ġh ence
1 8
Ġequ al
Ġ\sub set
Ġ( -
ve d
The orem
Ġ |\
Ġ\ rightarrow
^ s
\ ge
Ġex act
L E
_{i j}
The ta
Ġ how
Ġ\ rho
} }$
\ be
i ly
ic e
Ġg e
c ol
w er
ĠR e
i o
Ġl i
iel ds
Ġop tim
Ġre st
Ġvalu e
u gh
\ rightarrow
tic es
Ġe igen
alpha }
Ġs imilar
Ġho m
' \
if orm
on al
split }
Ġ left
cia ted
Ġpo ssi
Ġobtain ed
Ġob ser
n i
pend ent
} +
Ġsi mple
g ence
re mark
Ġfix ed
pla y
ĠC on
^ 4
Ġto p
Ġlar ge
Ġassu mp
dimension al
\ ;
p re
Ġ\ C
ord inate
| _{
ta tions
Ġ\ tau
si de
mo du
nec ted
Ġ end
\ r
Ġthe ir
Ġuni que
Ġpro cess
_ q
n ti
m i
mu m
2 00
v ide
Ġ\ theta
Ġgiv es
pa ra
\no indent
e ffici
_ v
4 }
\ epsilon
} +\
Ġinte gral
at ure
Ġapp ly
a tive
le ar
Ġ\ tex
= (
e e
^{ \infty}
c enter
c ap
O N
Ġdeg ree
Ġw ho
Ġpar t
ve x
\ Lambda
_{ j}
b m
^ -
b y
Ġar gu
er r
Ġs p
math scr
Ġg o
)\ ,
ase d
} _\
E S
de finition
Ġappro xima
1 7
Ġa ction
Ġmeth od
c up
je ction
Ġequation s
' _
Ġproper ty
\lim its
Ġlim it
Ġ ran
s tar
Ġw ay
as is
Ġme tric
Ġd ata
Ġter m
Ġcal led
Ġthe y
if old
Ġ\c dots
Ġop en
Ġequival ent
_ g
Ġc ategor
Ġc ou
Ġn atur
s la
Ġha nd
pro position
Ġ\b ar
N ow
Ġ\ partial
Ġsu pp
_ R
Ġ` `
)\ \
Ġm on
ro ugh
r }
) {\
graph ics
)} {\
} }{
^ p
n s
_{ m
clude graphics
Ġset s
Ġres pectively
\ mathrm
\n abla
tr y
Ġ\ psi
\ g
Ġre qu
Ġvalu es
bo x
)$ -
T o
Ġ\ mathbf
Ġth us
} ]
t ure
P L
Ġmo st
w ork
Ġe ven
Ġsta nd
Ġ }\
Ġs paces
Ġf am
to m
Ġ\ l
ow ever
Ġbe en
} -\
o sition
\ E
emp ty
c ases
Ġcom mu
Ġasso ciated
Ġbec ause
Ġ\ sqrt
Ġn ormal
Ġs ign
) )$
^ t
Ġex pres
Ġsu m
\p ut
ti v
al gebra
\ widetilde
ver se
at ing
Ġ low
Ġle mma
^ T
he d
Ġmu st
Ġ\ hat
is tic
mb in
Ġsolu tions
Ġpro vide
Ġ De
\ Sigma
\ sqrt
g en
Ġdistribu tion
Ġ\ dots
e l
Ġpa th
Ġta k
Ġco effici
Ġma in
\c irc
under line
h en
ve l
Ġ\ S
c y
) -\
Ġ\ rangle
& &
n ess
^ N
x }
Ġed ge
Ġt ra
i tial
ĠF ig
\ vert
Ġver tex
Ġproper ties
. $$
ĠH ence
rac t
Ġ\ eta
} |
Ġh igh
Ġ\ xi
Ġ\ omega
Ġwr ite
Ġ line
Ġver tices
Ġ\ v
Ġ\ Omega
' ,
Ġcomple te
\begin{ lemma}
Ġc irc
Ġa cc
_{i ,
\ B
Ġshow s
Ġ\ qquad
Ġ\n abla
, $
Ġdeter min
Ġcla ssi
Ġ\ Delta
ul let
\ chi
align ed
\end{ lemma}
Ġ\ overline
Ġs ide
Ġ\ item
Ġsu rf
Ġhy per
\ mathfrak
Ġv otes
t t
y mp
Ġrest ric
Ġder iv
ic k
[ (
Ġre c
man n
PL Y
RE PLY
b ility
i le
u st
u res
l }
Ġsa y
N ote
Ġvar i
TI ON
Ġun iform
s kip
olu tion
Q U
Ġth ree
ver s
Ġle ast
\end{ array}
th at
Ġ here
Ġs cal
) +\
Ġinde pendent
) )\
Ġd iv
b ound
Ġ+ \
al s
Ġa ct
ith er
Ġb i
) _
Ġ\ ge
d t
}\ ,
Ġb asis
\ )
gra m
} ^\
n tial
+ }
Ġal gorithm
Ġl ength
Ġma x
e ar
Ġs che
TI T
ĠThe refore
Ġman y
Ġcon nected
Ġla t
_ u
ener gy
ES TION
ing s
QU ESTION
TIT LE
v otes
Ġup votes
Ġs er
ĠS o
de g
}} (
l t
Ġ\ varphi
Ġrepresen tation
Ġsub set
Ġwe ak
pp er
h y
Ġi ma
Ġpossi ble
Ġconstru ction
^{ n}
Ġappro ach
Ġs tar
j oint
) /
Ġsub group
ho m
_ S
Ġin finite
Ġgener ated
_{ -
Ġdo main
Ġestima te
Ġstand ard
\ Z
c ted
c l
\n eq
e ct
ta n
Ġg ive
Ġgroup s
m on
o b
Ġma ps
ud y
_ M
la t
f ill
he ck
Ġ\ Gamma
Ġnatur al
p matrix}
f ul
an gle
e f
n o
to p
ta nce
Ġab out
\ kappa
] ,
Ġ\c irc
Ġst ra
su me
ĠĠĠĠ ĠĠ
ie w
Ġin itial
aligned }
Ġco ordinate
N }
\ Vert
es tion
Ġshow n
Ġb und
Ġn ote
ga tive
ĠT o
Ġreg ular
n ote
a ge
\ A
Ġc ases
^ j
Ġc yc
_ L
Ġdis cus
Ġ= \
Ġle a
is ts
iv en
Ġcont ra
~ $\
Ġ\ r
_{j =1}
\ H
~ ~
]$ .
Ġdire ct
s te
E x
Ġth rough
w a
ome tric
Ġ\ log
\ varepsilon
Ġa m
Ġt ru
\ t
lo or
Ġde comp
ga in
( (
mma nd
o ot
le ss
Ġst udy
Ġ err
, 1}
ft er
\ quad
t al
Ġta ke
Ġis omorphism
bit ra
sta ck
k s
re st
m is
Ġcontain s
Ġknow n
_{ t
^{ k
z ero
orphis ms
Ġli ke
un ctor
,\ ,
x y
Ġext ension
cases }
Ġne w
Ġvariable s
Ġs pect
ĠN ote
Ġsu ffici
i ties
Ġcon vex
_ 5
Ġre main
n ing
t on
ve lo
yn am
_ G
t in
Ġex p
d f
Ġ\ langle
Ġmean s
Ġoperator s
Ġwho se
Ġsi mpl
\ G
( {\
ymp to
lo ck
Ġob ject
re m
Ġs en
igh b
Ġp ri
_ o
tric es
Ġconver gence
q }
c ise
or ollary
s p
Ġbe low
c om
es t
la ck
Ġ\ ]
\begin{ theorem}
_ K
ta g
Ġla st
Ġ\ mbox
Ġar bitra
mo st
Ġf ree
ro und
in ally
_ -
ic ally
qua re
Ġcategor y
\end{ enumerate}
) }$
cre te
} ^{(
\end{ theorem}
Ġe m
si ze
Ġno tation
Ġad dition
Ġfam ily
Ġstr ong
} :
\ F
7 5
Ġcont ro
o ted
\begin{ enumerate}
}} {\
k er
ab s
L emma
ter n
Ġ 8
Ġ energy
\ L
clu sion
^* \
Th us
\ '
Ġ\n u
b oldsymbol
]$ ,
Ġtru e
ĠM oreover
d o
ti k
Ġcur ve
Ġ1 0
Ġsymme tric
Ġinte gra
ĠA l
,\ \
Ġsub s
3 0
Ġfact or
Ġcon clude
Ġeigen valu
n ame
ve e
Ġassump tion
en ted
Ġin cre
2 4
s mall
Ġ\ f
Ġs ize
\ "
\cap tion
| $
p r
a ti
plic it
Ġe v
Ġbe ing
play style
Ġe ither
p le
\ D
\ setminus
s on
\c ite
\n ode
E E
si an
\n ew
Ġ\n eq
Ġprove d
Ġpre vious
Ġwh at
e ed
Ġ\tex tit
en ces
ĠH owever
Ġ ent
Ġ _{
Ġro ot
o perator
Pro of
io ta
math sf
' }
tar y
lo b
s ign
Ġrela tion
col or
Ġnumber s
w ard
i od
Ġ\ t
Ġin variant
Ġn orm
k et
\begin{ array}
ys is
\ widehat
r r
Ġsatisfy ing
^{ *}
_{n -1}
Ġanal y
_ B
tik z
al le
_ y
as ing
Ġ 7
o id
ĠL ie
I I
P si
Ġ\ mathrm
C o
= -
Ġs tep
\ zeta
ly ing
Ġco mbin
Ġi r
Ġtri vial
st ract
Ġcal cu
Ġinter val
\ log
Ġal low
Ġa c
^ r
Ġpo wer
ar row
Ġma trices
le ction
t ra
Ġ\ epsilon
an g
Ġlow er
Ġsh ould
& =\
ig in
) --
Ġ very
d }
m ore
t or
Ġj ust
s tic
Ġin v
e p
oot note
ĉĉ ĉĉ
Ġargu ment
Ġ\ ell
Ġ\sub seteq
olog ical
es e
Ġ\c up
s cal
Ġn et
Ġqu estion
_{ 0
re du
_{ t}
Ġc lear
' )
pic ture
n orm
[ -
o ther
t ur
Ġthe refore
Ġwh ile
Ġcontro l
Ġ /
' t
Ġman ifold
Ġran k
Ġun it
Ġn ec
empty set
{ }
Ġw a
Ġidenti ty
}{ (
\c up
{ $
ci ble
Ġne ighb
| ^{
Ġerr or
^* (
Ġ\n onumber
Ġsurf ace
si c
Ġf unctor
Ġed ges
Ġdiffere ntial
_{n +1}
Ġser ies
modu le
ta tive
if ied
tr m
c la
Ġset ting
Ġu pper
um n
Ġsen se
Ġw or
o ds
Ġinde x
Ġcoeffici ents
Ġthe m
Ġc h
Ġra te
Ġden otes
inc ip
s in
re g
Ġ\ Phi
u ra
su re
it er
en tation
2 2
b ullet
Ġ\ g
\ M
{ {\
b ol
nt um
Ġcirc le
Ġem bed
ro p
Ġcor re
\ N
Ġf a
\ T
Ġcon ne
\P si
a }
Ġidenti f
Ġ\ Z
Ġn ext
Ġex pon
S uppose
Ġoptim al
Ġb ased
. ~
Ġal ong
9 9
Ġt or
Ġspec ial
\h line
co mmand
Ġpro jection
Ġexpres sion
, ..
du ces
00 0
Ġcon stra
Ġas ympto
sub set
Ġen ough
\c olon
Ġcho ice
2 3
Ġex plicit
, n}
Ġnec ess
Ġ{ $
Ġsyste ms
Ġarbitra ry
pp ing
Ġbund le
Ġpar ti
l in
Ġexist ence
D E
de t
\e e
Ġp r
Ġpro po
an ish
Ġde ta
_ I
Ġcompon ent
Ġe mp
Ġco de
m it
Ġor igin
th es
Ġ\ E
or ding
Ġit er
b s
me ds
n ts
j u
Ġc heck
ow n
w t
Ġf urther
tical ly
Ġder ive
Ġdis tance
Ġ\text bf
long rightarrow
as y
}} }
c ing
+ (
re l
in om
Ġin sta
me d
ex ample
ĠĠĠĠĠĠĠĠ ĠĠĠ
- 2}
Ġn umer
er tain
meds kip
0 5
tab ular
) ^\
r on
) :
ro ss
_ z
if y
Ġre pla
Ġconstru ct
Ġy ields
n on
f unction
Ġpre cise
Ġcho ose
redu cible
Ġr ing
ĠS uppose
Ġanal ysis
ru le
Ġqua nti
er nel
on ical
Ġima ge
Ġ\d raw
4 5
ens or
il s
2 1
_ F
enter ing
Ġth ose
ĠFig ure
] }
Ġnet work
Ġcla im
Ġparameter s
Ġclassi cal
tiv ity
Ġor th
bol ic
H ence
9 0
Ġ\ [
Ġwith out
ot ential
Ġsi mp
Ġide al
Ġmax imal
\sub seteq
ot op
Ġ( $
^{n -1}
je cture
Ġd ynam
Ġcontra dic
_ w
Ġ\ N
th or
me di
The refore
s en
Ġdia gram
ad y
Ġ *
s k
_{ p
Ġa gain
it ten
Ġ quad
an ce
si ve
ge ther
_{ 3}
Ġle vel
a ction
Ġgraph s
m es
app ro
in f
Ġcompon ents
Ġh old
_ P
ĠN ow
nd eed
^{ (\
A l
mo gen
l er
Ġ\ Lambda
\ ref
Ġrela tions
Ġsu r
_{\ alpha}
Ġstate ment
Ġequival ence
_{\ ell
wa ys
_ H
bra ce
la ri
Ġrequ i
Ġpres ent
Ġsche me
Ġmin imal
_ C
da g
3 5
^{( 1)}
operator name
Ġin duced
o is
or der
2 )}
Ġd x
T }
tab l
Ġe asi
A n
ta nt
Ġk ernel
c a
Ġv ia
cor ollary
th en
Ġm orphism
o ti
Ġf low
4 0
Ġsing ular
Ġdu e
\ cal
^{ i
Ġcompu te
infty }
lob al
Ġe asy
ĠThe re
c }
\end{ itemize}
er g
ma tic
} )}
, k}
Ġcompu tation
Ġext end
\begin{ itemize}
se ts
ĠM a
if ic
| |
Ġdecomp osition
u ally
ab stract
Ġchan nel
_{k =1}
medi ate
Ġproble ms
Ġe ff
qu en
Ġre call
Ġalgebra ic
_{i +1}
u e
sim eq
Ġdu al
Ġpro ce
Ġin formation
Ga us
Ġdire ction
d iv
^{\ prime
Ġden sity
ne w
Ġ[ \
Ġsu per
Ġ\ lim
side red
Ġv iew
Ġpr incip
tric t
b matrix}
b }
g ener
_{ r
6 0
ĠE q
_{k +1}
\ mbox
_ 6
) (\
Ġma ke
Ġf ib
con t
Ġse para
Ġlocal ly
il b
\in cludegraphics
Ġimp or
scal e
Ġvector s
_{ s
Ġdiv is
d im
Ġc ould
Ġ\ widetilde
^{ 1}
la ted
Ġc ertain
ĠC orollary
n )}
Ġexact ly
sla nt
Ġal ways
urther more
ere nce
hi ft
, 2}
d iff
Ġa ff
Ġes tabl
tabular }
( -\
Ġ\ chi
Ġanal og
b lack
Ġmeth ods
lambda }
Ġ\ setminus
Ġwe re
Ġinte rest
Ġwe ight
Ġco ver
mu lt
Ġir reducible
] (
m od
Ġqua ntum
3 2
\ medskip
Ġb lock
Ġo dd
Ġin dic
ti f
Ġsu ppose
ĉĉ ĉ
Ġte ch
=\ {
ar t
\ def
bel ian
H ere
Ġclass es
Ġs equ
Ġpolynomial s
de fin
{ |
mogen e
_{1 2}
Ġver sion
al f
c ity
Ġden oted
ome try
an sion
E q
Ġbound s
Ġcon sidered
Ġdis crete
( [
Ġsing le
) >
Ġlo g
in ter
Ġs trict
i or
Ġal most
Ġsta tes
he a
co mple
Ġf ound
n onumber
Ġ\ B
Ġt ur
S o
_{ 3
Ġcou n
co s
ĠĠĠĠ Ċ
b ack
Ġo per
_ E
z ation
scri pt
ju ga
Ġestima tes
. ~\
}$ -
Ġalgebra s
Ġis omorphic
Ġrela ted
ĠA n
h }
Pro position
ri tical
al g
asi c
Ġ\ varepsilon
ĠĠĠĠĠĠĠĠĠĠĠĠĠĠĠĠ ĠĠĠĠĠĠĠĠĠĠĠĠĠĠĠĠ
ĠĠ ĠĊ
\c dots
3 3
^ c
Ġmodel s
c ou
su mp
}} _{
du al
} ^{-
Ġv al
Ġra di
ate s
ti ll
\ var
}} ,
Ġre a
Ġper iod
Ġa fter
_{ l
- $
Ġ\ prod
P i
Ġt ensor
Ġp otential
Ġpar tial
tit le
corollary }
F rom
Ġto tal
Ġp rime
p tion
Ġcan onical
po int
Ġ1 2
5 0
i mum
Ġapp ear
\ wedge
Ġ\ sup
tri vial
ri er
ĠĠĠĠĠĠĠĠ Ġ
_ D
Ġapproxima tion
)-- (
Ġ\ forall
\ qquad
re es
Ġcan not
le v
Ġ row
or ted
Ġv anish
Ġqua si
sta nd
\v space
Ġchan ge
Ġan s
ĠE x
| _
i er
t ran
si ble
ĠC o
Ġintro duce
Ġm om
Ġst u
A C
Ġ\big g
it z
ie mann
Ġasympto tic
po thes
\ vec
in ary
Ġbe ha
Ġsh all
Ġbe long
big g
\begin{ split}
\ I
Ġu su
Ġ\begin{ equation}
Ġinter section
\ over
ĠL e
Ġdescri bed
d y
Ġgener ator
Ġm od
et y
Ġ 9
\end{ split}
Ġ\ e
ment al
mogene ous
er n
}} (\
&= &
\text bf
beta }
Ġcoordinate s
res s
ar ch
| _{\
ste ad
b i
Ġf rame
Ġ\ oplus
Ġcontain ed
st er
2 7
om in
Ġequ ality
xi mum
Ġ\m id
per p
n ormal
end ix
Ġc all
Ġcharacter istic
Ġ\h line
^{\prime }
Ġ\ mapsto
Ġparti tion
Ġto gether
re at
Ġo cc
Ġimpor tant
in es
ma ke
Ġ\c olon
Ġwe igh
cha n
Ġdia g
Ġeasi ly
if olds
\n ot
c lo
Ġexample s
text bf
Ġ\end{ equation}
Ġcha in
Ġreg ion
Ġex pec
\P i
\ O
Ġra tional
} )$.
}} _
Ġf ields
ilb ert
ĠB ut
hom ology
Ġs te
tikz picture
Ġte st
ri d
is playstyle
Ġ\ Sigma
su ch
i ver
lu e
oti ent
ho od
e y
Ġcur ves
,.. .,
il ton
og onal
^{ k}
Ġcon c
Con sider
Ġconne ction
Ġuniform ly
n eq
)} ,
Ġi m
velo p
Ġc a
Ġ\ L
und a
def n
Ġf our
Ġ\ p
as on
Ġ Gaus
\ oplus
sub section
}$ $
. \\
0 1
Ġs till
Ġref er
sla sh
Ġge ometric
Ġs to
r ing
c yc
m id
\n onumber
ll ip
Ġmin im
mu }
/ (
di ent
R }
ra tic
\ ps
, 0}
Ġex ce
ch o
Ġtak ing
\new command
Ġobser v
Ġo ri
U sing
lo cal
\ forall
s a
Ġpol y
otop y
ast }
ha n
ar p
k ov
Ġs quare
k es
Ġ\ kappa
\ mathscr
c d
Ġf ull
Ġsuffici ently
O n
Ġ\ H
mathrm {
la tions
Ġb ack
M oreover
Ġ\ x
Ġc ent
ma t
p ri
Ġin verse
ch ie
mult line
res p
se ct
k )}
l p
Ġ ..
ne gative
Ġrepla ce
\ mapsto
2 8
re nt
ra ble
Ġab s
Ġan other
l n
Ġpres er
_{\ infty}
ar is
Ġintro duced
Ġcon ven
unda mental
Ġ\ !
T here
I nt
Ġ\c ong
\ eps
vers al
Ġnumer ical
Ġembed ding
' _{
\big g
f ore
Ġsub space
Ġfor ms
Ġ\ wedge
Ġ\ exp
C C
imilar ly
)$ $
Ġsta ble
ĠH ere
Ġneighb or
Ġexp ansion
en tion
v ature
ol omorphic
Ġpropo sed
\ equiv
_{ [
Ġstu di
_ Y
\ Theta
)= (
Ġin f
\ la
in de
\text width
Ġinv ol
Ġmulti pl
a x
u al
Ġma ximum
Ġb ase
Ġdiag onal
_{ m}
\ X
alle l
ri es
am ilton
ga ther
Ġ times
pec ial
Ġapp l
Ġconver ges
Ġse m
Ġa chie
\ sup
) _{\
uation s
c ur
ĠO n
Ġdescri be
\b m
_{i, j}
c f
Ġs plit
F ig
appro x
Ġ\ mathfrak
_{k -1}
\ ar
Ġim mediate
Ġlat tice
Ġsimp ly
k now
Ġ\ zeta
tex trm
ess ential
_{ x
Ġad d
pa ge
^{ m
Ġre ason
)} (
Ġ\ widehat
. )
Ġsupp ort
Ġ\ over
) |\
ct ures
\m id
Ġwor ds
Ġgeneral ized
Ġa ver
Ġ\ D
Ġfinite ly
Ġeigenvalu es
Ġma t
ĠA pp
Ġtop ology
Ġsa mple
^{1 /2}
Ġ\c ref
igh tarrow
Ġf il
Ġprecise ly
Ġ }{
li ed
Ġ\ equiv
Ġde c
Ġper mu
Ġwr itten
Ġinsta nce
Ġderiv ative
re ady
S S
Ġn ame
Ġs ymbol
^ q
Ġb all
Ġpro jective
in variant
Ġhy pothes
p df
\ x
Ġcon juga
Ġp ha
Ġcons equence
Ġt ree
in ed
{ $\
Ġcho sen
Ġtop ological
9 8
circ le
te ly
Ġbeha vi
par t
Ġinteger s
ut ing
] ^
Ġcontradic tion
z ed
ble m
| =
A T
, i}
Ġdetermin ed
iz ing
ĠR iemann
i )}
Ġl ink
a ces
al e
Ġde si
Ġcorrespon d
as s
ou ble
- (
Ġspect ral
Ġ\ max
] {\
Ġ\n orm
ten ded
Ġclo se
tit u
+ 2}
F inally
Ġdiffere nce
dag ger
Ġs ha
Ġdis tin
ĠL i
cu ment
Ġconsta nts
Ġlo ss
w r
f ree
9 5
Ġ\n ode
] .
Ġt w
Ġrestric tion
Ġg lobal
). $$
o si
Ġse lf
ii i
Ġal ready
Ġre duced
m c
> \
5 }
Ġobser ve
Ġpla ne
Ġocc ur
ic ity
Ġ ,\
cha stic
e v
Ġlo ok
'$ .
Ġcorrespon ds
ĠI ndeed
_{ s}
S E
Ġs c
se lf
^ a
| }
Ġqu otient
Ġassump tions
Ġc ell
un c
}{ |
Ġ â
Ġbe fore
Ġaff ine
^{( n)}
Ġ\ F
\ dot
on t
stack rel
ch ing
Ġdepend s
Ġde velop
G L
Ġ\ vert
ode sic
is ion
om orphisms
2 6
Ġin duction
con g
la te
ide s
Ġco mm
do cument
Ġtri angle
ce il
Ġexpon ential
\ Q
n ces
\ a
ĉĉ Ċ
{ {
Ġw ant
c tic
sump tion
^{- 2}
ver al
Ġuni on
A }
ian t
Ġle ss
p ol
Ġsatisf ied
Ġse mi
S ection
ĠF rom
Ġrela tive
ĠS ch
se ud
ĠH ilbert
Ġ\ A
^{n +1}
rop y
Ġc ar
Ġsu ffic
M }
Ġne gative
Ġcur vature
y mple
\b b
Ġe llip
Ġau tom
know n
p es
_{1 1}
Ġ\n ot
ĠAs sume
Ġsol ve
Ġhigh er
is hed
As sume
m en
g et
Ġsupp orted
Ġquad ratic
Ġans wer
^+ $
\c entering
8 0
d raw
Ġorth ogonal
^{( 2)}
ad d
Ġdistin ct
Ġf re
_{i -1}
Ġa g
Ġrequ ire
Ġf undamental
Ġ essential
Ġin clude
ul t
Ġmin imum
Ġse en
Ġobject s
Ġ&= &
) :=\
a i
le ct
Ġad j
Ġla w
Ġtrans form
Ġsequ ences
a in
) }}
Ġc ritical
Ġa v
Ġmulti plic
om es
Ġse veral
amilton ian
Ġde duce
l ot
^{- 1
rf loor
ti ble
\d im
Ġacc ording
valu ed
t frac
Ġco homology
Ġfunction al
Re call
c ri
Ġmu ch
Ġanaly tic
defin ed
Ġma pping
Ġnecess ary
9 6
u lari
ng ent
in te
c an
: }
v }
G iven
de l
ĠGaus sian
Ġdesi red
{ (\
Ġre mark
ni ver
r um
forma nce
_{n ,
^* _
varian ce
^{ p
ĠU sing
he ther
ĠDe finition
f ootnote
} )$,
Ġin stead
\ eqref
6 }
Ġa belian
Ġpair s
ĠN o
ou nt
] =
pa th
su pp
E N
\b oldsymbol
ha nd
ĠCon sider
fig ura
0 )}
Ġ\ pm
i j
st r
\big l
Ġb asic
) !
Ġin ner
Ġbec omes
g n
00 00
\sub subsection
Ġtrans formation
3 4
or i
Ġm ention
Ġno tion
ou rier
Ġpha se
Ġcon jecture
ĠTh ese
ro duction
Ġdis joint
y ing
Ġco inc
ĠM ar
_ V
ss sim
text {
Ġapp lied
Ġl ines
m its
Ġdimension al
Ġdeta ils
3 6
sub seteq
A pp
ir d
Ġmeasu res
r d
Ġstar t
h space
Ġ\end{ array}
) )$.
Ġpa ra
A B
Ġscal ar
Ġpro position
_{ x}
delta }
Ġin ver
N o
)} .
on s
Ġ& &
, $$
Ġmom ent
P P
Ġd one
Ġ\ T
Ġe val
Ġsymme try
di ag
^ b
Ġstrict ly
rac tion
ymple ctic
Ġincre asing
ex ists
li ke
+ 1
Ġlat ter
,\ ,\
Ġstudi ed
0 4
ul er
Ġ long
Ġrequi red
_{ N
Ġs it
ty pe
Ġvari ety
Ġsuffic es
d frac
= {
Ġw idth
Ġ ~
Ġs hea
Ġremain s
olu me
c r
F irst
Ġp hy
ch itz
Ġmodu le
f ect
our ce
Ġunder stand
Ġcontain ing
Ġf e
Ġestabl ish
Ġapp lic
\end{ aligned}
Ġw hether
Ġwa ve
= (\
Ġho mogeneous
s ymme
Ġhe lp
k ing
da te
pp ed
b il
ps chitz
Ġcomm on
Ġrepresen tations
Ġ\P si
9 7
\m c
\begin{ aligned}
) |^
Ġob vious
Ġ2 0
con d
\n orm
\ par
Ġ\ I
Ġm y
b x
Ġorigin al
Ġcyc le
gamma }
re al
^{\ ast}
f rom
equ ently
Ġcons ists
\ K
Ġ\n o
c ategor
u sion
rac ket
w ar
for ward
ĠRe mark
Ġgo od
'$ ,
Ġapply ing
varepsilon }
Ġcol lection
il d
0 2
^ 5
Ġhom omorphism
Ġallow s
cre asing
q ed
th ing
Ġtech ni
i tions
ran ge
\ u
} &
Ġh olomorphic
Ġ\b m
Ġ math
Ġge odesic
stru ction
O ne
\ w
1 00
ĠO ne
Ġmulti ple
Ġusu al
) :=
Ġ\ Vert
iz es
_{\ lambda}
Ġ\ M
Ġimp ro
_{ a
Ġne ar
Ġre co
^ l
Ġsuffici ent
ar mon
Ġ ]
Ġdiscus sion
4 8
y }
\be q
} /
al ities
- 1
Ġnode s
Ġcomp are
Ġi ll
Ġconstru cted
Ġ\ )
Ġex tended
Ġsub sets
\ U
ĠW hen
sub stack
Ġex pla
Ġ _{\
nu }
ack slash
> \<
^{ +}
g o
De finition
^{( k)}
Ġha ving
Ġin clusion
_{ X
\s in
a v
ran g
Ġper formance
ois son
Ġuse ful
\ prod
ta te
Ġsu mma
Ġdirect ly
Ġma ss
ic es
_{ {\
ĠF urthermore
Ġform al
Ġco st
y l
Ġrec ur
ati ves
' )$
ĠH amiltonian
Ġpar ts
modu les
Ġderive d
Ġ\begin{ array}
ix ed
ĠF irst
big r
Ġ\ sim
Ġcent ral
Ġar c
_{ p}
e g
\b f
lo c
M R
Ġhom otopy
th is
Ġc ross
, j}
epsilon }
^{ [
\s mall
Ġeigenvalu e
var theta
Ġcoeffici ent
* \
u stra
Ġclassi f
in s
Ġcon text
Ġneighbor hood
tau }
0 3
Ġaddition al
6 5
Ġ\ vec
ran k
du c
au thor
i mpl
cont inu
Ġprovide d
under set
A L
M P
Ġ\ min
Ġstra te
c ase
Ġ{ $\
Ġinter pre
ĠH a
en ote
* {
tur b
Ġpres ented
^ *}
Ġproce du
& &\
da p
Ġoptim ization
Ġcon figura
] ^{
Ġsto chastic
_{\ alpha
Ġgra dient
th ick
re en
b its
Ġdynam ics
Ġ label
or iz
Ġcommu tative
_{ r}
cc cc
p u
Ġstra ight
\d isplaystyle
0 7
Ġin ves
) [
u }
l ight
_{ g
Ġg row
Ġcorre ct
be s
\ ra
Ġhyper bolic
K }
per im
ĠU niver
Ġ\s in
S T
Ġ{ };
8 5
\end{ cases}
Ġa round
sta ble
Ġact s
0 6
^* (\
Ġstru ctures
Ġaver age
\ set
} '
Ġ ;
\ V
ĠF inally
gorith ms
L }
Ġellip tic
N ext
Ġlea ds
Ġdiffere nti
Ġor bit
}\ ,\
_{ d
h t
Ġhypothes is
Ġ\ G
( |
_{\ mathrm{
Ġsu i
Ġ begin
b re
Ġad mits
_{\ell }
] _{
I N
S ch
Ġother wise
Ġden se
ti ga
the re
ak ing
) )=
hi le
Ġhow ever
Ġon to
\p m
Ġy our
\to \infty}
mu lti
R R
ĠG iven
Ġide a
end s
w ay
cou n
Ġth ink
form al
th ough
Ġre ce
}} .
). $
g l
ot ent
Ġcon tribu
Ġan gle
Ġnon linear
m ine
Ġman ifolds
Ġc u
ol umn
a h
^ x
tan gle
Ġabs olu
Ġcon e
b l
Ġsp an
te in
Ġent ries
Ġd ouble
Ġge ometry
W hen
Ġf lat
ap la
ener ate
_{k =0}
Ġg en
} [\
Ġin duces
_ 7
Ġspect rum
Ġinterest ing
Ġb ran
ĠĠĠĠĠĠĠĠ ĠĠĠĠĠĠĠ
_ J
O ur
t wo
un i
seud o
Ġ\h space
bound ed
Ġal tern
Ġh alf
S et
Ġradi us
Ġname ly
Ġsi mula
} |\
Ġli ft
Ġcompu ted
Ġgener ic
\ underline
Ġno ise
la y
s es
if ication
te red
5 5
0 8
\ sim
Ġf o
Ġcol umn
^{( i)}
l tic
armon ic
i me
o sing
b ly
n a
Ġimp ly
Ġde sign
u ch
Ġroot s
fin ity
xy matrix
tion ary
reg ular
}} ^{
aris on
Int roduction
-- --
ar ily
\end{ pmatrix}
ar iant
L i
is ting
Ġsa id
z z
man ifold
Ġperiod ic
Ġdepend ing
Ġfact ors
3 7
Ġtur n
qu es
Ġran ge
H owever
Ġf lu
tran s
B }
Ġta ngent
! \
Ġste ps
Ġdefin es
\ k
Ġe t
^{ d
_ Q
red ic
Ġ\ dot
Ġb o
a co
Ġsh ort
Ġill ustra
^ 6
Ġd t
Ġval id
mis sible
Ġpo sition
Ġth ird
f act
o graph
Ġvari ation
+ |
sigma }
_+ $
W ith
forma tions
max }
u cl
ĠF ourier
ua ran
\c os
op en
Ġ ?
Ġs ymplectic
M S
theta }
Ġ rule
Ġmon ot
i bra
Ġmath e
b a
men tary
\ o
con dition
uaran te
ges t
is ted
ĠC h
) <
de red
b ser
\c o
Ġuni versal
), (
_ U
sum ing
^{ 3}
Ġwith in
oriz on
ro b
Ġn or
ĠL ag
ab ility
Ġprovide s
' (\
Ġpro ves
Ġ\cap tion
Ġlar ger
ic ial
ma il
Ġit self
Ġcyc lic
\ make
Ġdefin itions
ch y
Ġargu ments
\ ldots
je ctor
Ġb u
Ġprocedu re
n ode
Ġ\ O
ĠC ar
Ġdescri ption
min i
^{1 /
^{\ alpha}
Ġresul ting
Ġrepres ent
Ġappl ication
Ġeff ect
_{1 ,
] ^{\
\ exp
3 8
si cal
Ġconstra ints
S p
Ġ\ la
ore l
}\ |
Ġre duction
Ġv olume
Ġas ser
\ /
dis play
matic s
lear ly
com mu
Ġinequ alities
Ġ\ eps
Ġal gorithms
for ms
Ġ\in cludegraphics
}} ^
Ġcomp osition
Th m
ĠMa the
P S
Ġinves tiga
d r
9 4
iz er
su rf
] _
Ġg reat
Ġau to
= .
ig roup
)} ^
Ġgenerator s
Ġdiff ic
Ġcon f
\ emph
} }$.
Ġpath s
' m
au chy
a a
}) =
ten s
Ġsmall er
Ġderiv atives
Ġcomplex ity
Ġmultipl ication
Ġdeter mine
Ġ\c os
H om
Ġ\ cal
^{ m}
_{ (\
^{ i}
yste m
\f ootnote
_{i =0}
Ġbehavi or
our se
Ġsta bility
Ġstrong ly
Ġs pe
Ġfib er
cho ose
tex tit
Ġ @
Ġapplic ations
er m
Ġ\d frac
re c
Ġvari ous
Ġth ough
is ed
s ince
Ġ\b b
ĠAl so
line width
Ġsui table
tri angle
p m}
Ġcur rent
it ing
Ġg uarante
ti s
Ġt r
6 4
Ġconstra int
Ġin jective
Ġe ffici
b erg
3 1
an ach
ous ly
_{ |
Ġsurf aces
cla ss
ucl ide
Ġprincip le
quen ess
Ġc enter
tin y
ĠW ith
\ author
uclide an
Ġsu re
_{n =1}
Ġtak es
\ iota
Ġev ent
Ġimmediate ly
led ge
in ing
j )}
Ġtra ce
Ġsu g
ce ll
L e
Ġre si
. \]
&= &\
Ġm ight
Ġra ther
en cy
clu ding
dis playstyle
Ġ1 6
Ġr un
v iew
){ $
Ġdistribu tions
\ max
g r
gener al
Ġ\ emptyset
i k
i ds
Ġtak en
2 9
il i
Ġgra ded
Ġp lan
Ġbelong s
th ors
l ength
o ve
rang ian
pha n
Ġc lu
Ġla ter
Ġp ut
or th
Ġnon zero
H }
s ol
ĠP oisson
tic le
Ġexpec ted
m f
Ġma rk
' }\
.. .
Ġrea der
Ġsit uation
\e eq
o du
Ġinter sect
Ġvar ian
\make title
Ġc ard
, (
t w
i ma
ran t
Ġd own
var rho
Ġnecess arily
Ġk ey
^{ s
Ġin put
ell }
Ġma de
B C
b lue
par ti
phan tom
Ġp at
S }
A R
EE E
Ġframe work
^{ 3
Ġstar ting
Ġdivis or
M M
Omega }
Ġof f
ĠMar kov
Ġin finity
pa city
for med
Ġgener ating
Ġele ct
Ġmodu les
Ġgener ality
l us
Ġact ually
Ġ\big l
, .
, t}
= -\
Ġex perim
_ 8
ĠUniver sity
ĠRe call
Ġc ourse
Ġwork s
Ġinde ed
\ re
be q
Ġver ify
Ġp ur
au to
ĠS ub
si tions
ĠE uler
Ġf ace
ite d
Ġappro pri
Ġf ar
ĠO ur
\ dots
Ġle ar
Ġent ropy
Ġsection s
e ded
se l
_{ -1}
Ġappropri ate
Ġf ul
Ġma kes
^ h
mini page
sh arp
display math
' =
Ġprocess es
^{ N
\ al
Ġconven i
^{k +1}
Ġa ble
) ).
ma tical
Ġre mo
Ġ\P i
, q}
' ,\
da sh
^{( 0)}
4 4
b inom
* *
e u
) )}
v an
Ġclo sure
Ġsp in
6 7
ĠTh at
of f
_ W
) ),
ollow ing
)\ |_{
Ġ\b oldsymbol
con ver
u de
Ġassume d
Ġr ig
Ġproof s
L S
Ġau thors
_{\ mu}
cc ording
il ib
ter s
ĠEx ample
Ġper turb
ĠM ore
Ġemp ty
Ġp ure
s equently
ce pt
( (\
z }
\ mathsf
Ġ\ put
Co mp
Ġtor us
\begin{ corollary}
\big r
^{k -1}
Ġ\ ra
symme tric
Ġ( $\
Ġty pes
ltic olumn
Ġpla ce
re n
Ġ\le sssim
X i
ilib ri
Ġregular ity
ha p
Ġre wr
Ġsign al
pro duct
Ġl iter
Ġsp here
Ġcomplete ly
var i
Ġp redic
Ġhom ology
- 1)}
Ġau thor
algebra s
Ġd on
Ġ\ ne
o sed
con vex
Ġcol or
Ġ\begin{ align*}
S O
\end{ corollary}
p or
\n e
Ġpar allel
osi te
categor y
Ġweigh ts
' )\
_{ 4}
, p}
re pres
ĠĠĠĠĠĠĠĠ ĠĠ
lf loor
Ġd raw
comp act
s is
impl ies
Ġdimension s
Ġstraight forward
bser ve
x t
Ġpla y
Ġl ies
Ġproduct s
] )
equ ival
_{j +1}
Ġcomp ati
~ (\
ĠLi pschitz
e }
0 9
Ġprincip al
m odel
Ġpermu tation
Ġ '
int ro
Ġexplicit ly
Ġdiscus sed
_{\ text{
Ġuni tary
Ġstrate gy
d z
ti o
Ġ velo
pre c
Ġd s
{ .
\ %
Ġ ti
sub figure
^{ 0}
comple x
I T
Ġta ble
( {
Ġs hift
ph er
Ġcontinu ity
_{ f
Ġsimilar ly
Ġi mple
t u
Ġcon clusion
Ġf ew
Ġas sign
Ġclear ly
Ġmo tion
Ġam ong
s l
Ġwhen ever
Ġmention ed
\small skip
}) ^
_{ +}
Ġch ar
varian ts
Ġspec ific
C D
G }
cyc le
Ġ\end{ align*}
et s
H EN
Ġv is
\ add
_{ l}
ĠL apla
sub sec
Ġfo cus
g ing
Ġcategor ies
Ġmeasu rable
_{ N}
\h space
Ġrepresen ted
)\ ,\
function s
S L
Ġh orizon
Ġfre quen
Ġconsider ing
gu e
j ec
Ġ\ar @
v able
or ds
Ġne eded
\big skip
Ġse g
8 8
Ġsche mes
ow er
sta te
Ġs ource
Ġg au
id ing
ho ok
Ġlo c
che d
Ġinver tible
}. $$
) )$,
Ġproce ed
\c ong
Ġautom orphism
ĠPro of
i mp
Ġd y
Ġ\c o
Ġ }$
it ude
6 6
+ 1)}
4 7
Ġm ode
Ġwh y
Ġintegra tion
la ble
ab ove
Ġ\tex trm
gather *}
L L
_{j =0}
' }$
xi om
Ġbet ter
} ^*
C }
r iter
ve ct
^{ t}
ĠB orel
Ġof ten
in v
is ing
} }$,
De f
Ġcommu n
\ math
is m
ie ties
it t
ar ith
Ġm orphisms
Ġor d
Ġweak ly
al k
Ġsol ving
_{\ Omega}
^{ N}
Ġp seudo
i ble
F F
ĠY ou
Ġscal e
Ġinter f
ĠB anach
B ut
] [
Ġd omin
res sion
] }\
Ġ\ simeq
_{\ {
C orollary
Ġfin al
Ġdiscus s
^{- }
Ġp rac
Ġsu c
clo se
Ġliter ature
Ġa dap
_{ {
Ġpa rame
Ġ\ Theta
Ġcard in
we ak
p f
Ġs pa
Ġremain ing
Ġl ist
Ġobserv ation
Ġinter ior
er mi
_{\ b
Ġdefin ing
multline *}
po se
ĠC auchy
ti an
gra ms
q q
g s
Ġon es
ar ies
_{ 4
Ġiter ation
Ġsee ms
Ġbe st
ha s
pla ne
Ġunder lying
Ġd iver
Ġele mentary
Ġth ick
po ints
rho }
me asu
x x
_{ q
\ operatorname
Ġ }}
Ġrequi res
Pro p
ting u
row n
Ġapproxima te
Ġter min
ta ge
& -
Ġin side
iz ations
be low
l m
Ġformula s
ul us
ĠRiemann ian
H S
Ġper fect
che ck
Ġsur jective
Ġ\t frac
Ġadj ac
m alle
Ġsta ted
du cing
Ġho me
ĠS imilarly
a ra
Ġk not
pa nd
c ial
8 7
cal led
Ġgen us
Ġ }{\
Ġgau ge
f il
u mp
) }$.
D P
Ġte mp
al gorithm
9 3
tri es
te mp
^{ p}
in cludegraphics
C T
b ased
\ wt
& $
ke y
Ġ\ abs
ad ic
\ min
malle st
sc he
\end{ tabular}
ĠLag rangian
Ġdistribu ted
Ġside s
sk i
c ent
res h
Ġmo tiv
S U
Ġare a
con nected
less sim
Ġf ig
C h
co ding
ĠDe fine
ib li
ĠG al
Ġ\no tag
Ġtran sition
Ġre pe
Ġsta tionary
Ġre con
l ing
) /\
Ġtrans mit
inde x
s mooth
lev ant
S imilarly
multline }
ec ause
Ġ\ w
^ u
) _\
D }
Ġf rac
Ġ )$
mis sion
_{2 1}
u c
Ġs light
Ġ\ longrightarrow
Ġde al
the o
Ġexpres sed
Ġw ord
k k
ĠE uclidean
Ġlo op
Ġsem igroup
ograph y
Ġshea f
Ġformula tion
Ġcode s
20 17
, {\
| }{
_{2 2}
\ xymatrix
is ation
^{ t
Ġsubgroup s
Ġ\ mathscr
ist ent
Ġt ry
Ġan ti
Ġse p
Ġto o
Ġidentif y
Ġequal s
^{ j
diff ere
m er
, m}
Ġh is
Ġvelo city
Ġha pp
di tive
S ub
Ġoper ation
ra ph
Ġus es
Ġro le
sa tisf
Ġphy sical
k in
ĠApp endix
Ġdis cre
tima te
20 18
script style
ser v
20 19
ĠT able
Ġbund les
stru cture
Ġmon oid
Ġequ ilibri
^{-1 /2}
ĠI s
own arrow
w }
] \\
ĠR es
A d
n ed
F urthermore
Ġweigh ted
R S
Ġsign ific
Ġb inary
ĠS et
ĠP o
T r
Ġestima tion
\R R
Ġcomple tes
b d
k a
\begin{ cases}
7 0
I M
^{ r
g f
Ġequ i
Ġref erence
Ġ\ V
c at
Ġcalcu late
Ġtra jector
}} _{\
di am
20 16
Ġinde pend
le y
ĠAl gorithm
ste in
d ist
m y
\begin{ tabular}
od y
Ġc riter
Ġdiff e
Ġc ut
Ġconfigura tion
Ġ1 1
Ġad missible
Ġuni queness
Ġ\big r
w ers
Ġen ti
ĠT HEN
Ġessential ly
ed u
ta ct
^ M
Ġs mallest
hi p
g ent
Ġsub section
n n
ibli ography
f tarrow
_ Z
Ġno tice
Ġeval ua
Ġsug ges
script size
tar get
Ġintegral s
s pec
Ġp ull
_{ a}
Ġexce pt
Ex ample
] ;
l s
f ield
war ds
e ff
$ .
Ġ ^{\
hook rightarrow
Ġ1 5
Ġre se
Ġde v
le ment
Ġa x
b r
o mp
> >
ir ich
res ted
m ic
Ġappear s
c s
Ġhe ight
t )}
8 }
Ġgener ally
Ġad joint
Ġcover ing
Ġ\C ref
ar i
ad joint
gra d
A A
Ġreplace d
Ġpro ving
Ġcalcu lation
Ġobser ved
irich let
\b ackslash
Ġ1 3
Ġmax im
Ġp lot
k i
di re
Ġcombin ator
] _{\
pro per
Ġacc ount
Ġ1 4
b ut
20 14
ur ing
Ġanalog ous
a ke
Ġvarian ce
min }
Ġ\ar row
Ġexp lo
~~ ~~
Ġcombin ation
o o
si mple
Th ese
Ġev olution
ulari ties
here nt
es h
F }
' }(
Ġ\b f
Ġmodu li
Ġvanish es
Ġ\c entering
Ġbi jection
pl ing
op f
ce p
re sul
\P P
ri ly
Ġlinear ly
C P
Ġf ast
Ġcoun table
Ġrestric ted
b old
l ie
be t
| ^{\
mi tive
s co
eq q
Ġon ce
op tim
) )^
De fine
Ġindic es
an y
ĠĠĠĠĠĠĠĠ ĠĠĠĠĠ
),\ \
Ġacc u
i us
continu ous
c olon
Ġcons isting
Ġver tical
wh en
ĠCo mp
ĠC la
um ns
Ġ\v dots
_{ h}
Ġinte rested
ermi tian
Ġor dered
Ġnetwork s
Ġclu ster
an gu
Ġs qua
] ]
9 2
F ix
Ġrepres ents
Ġ\ Q
\ ot
tens or
Ġla y
M A
C S
), $
Ġthe ore
^* ,
Ġe ar
Ġmon omial
F T
ist ence
deg enerate
C ase
20 15
il ies
Ġm is
Ġtechni ques
ot tom
s tep
w ords
â Ģ
mpl ing
tri ang
ore d
s ch
\ mb
su beq
Ġgeneral ization
g ne
al y
t rac
L o
par se
th an
Ġeff ective
\C C
}} ^{\
Ġ\big cup
Ġenti re
Ġpartic le
20 13
Ġqu ite
Ġcom es
ck now
Ġy ield
lim in
)$ ;
B bb
ĠĠĠĠĠĠĠĠ ĠĠĠĠ
Ġtech n
Ġmodu lo
Ġcomp arison
il p
Ġ\m c
s hift
Ġestabl ished
Ġ\ math
Ġis o
\ pa
Ġmo ve
f r
C H
ĠJ aco
Ġdevelop ed
M a
_{\ beta}
g m
ar ing
ra tion
m )}
\end{ bmatrix}
7 7
_{ h
{ |\
\ps line
\begin{ pmatrix}
ra tional
Ġo pp
\not in
\s pecial
ver tex
Ġgo al
4 3
ibra tion
bo lev
Ġwho le
ai lable
ide d
Ġnon negative
under brace
Ġ[ -
Ġconjuga te
Ġ\l n
Ġdu ality
Ġ\d d
Ġintegra ble
g }
Ġscal ing
20 10
pa rameter
Ġfor ce
ĠMathe matics
4 2
R es
pro b
Ġsta bil
| }\
ere nces
Ġextend s
_{n =0}
us ing
> ]
\l n
us h
C M
Ġb low
mon stra
Ġ\begin{ equation*}
Re mark
Ġdis tingu
co de
per iod
\ abs
Ġsimpl icial
f a
sta nt
Ġ\end{ pmatrix}
Ġor bits
Ġ\ underline
un iform
Ġar row
ti stic
mbin ing
t ors
con v
Ġcoinc ides
Y }
\ para
^{ s}
}) =\
end ing
pro blem
si mp
Ġgrow th
E R
^*$ .
in ner
o pt
tra tion
I EEE
Ġidentif ied
pher ical
Ġk ind
Ġtrans formations
\H om
ir t
N R
Ġ\cite p
) <\
Ġ )\
I m
pro j
\ q
Ġunique ly
}} }\
^ L
Ġde te
Ġspa tial
i led
^{ T}
Ġinter action
Ġus er
u ter
\! \!
i mple
he ight
big cup
Ġnatur ally
Ġcol umns
Ġcor ollary
gather }
Ġh armonic
subeq uations
Ġestima tor
Ġsu ms
Ġ\begin{ pmatrix}
) *
Ġbran ch
h ol
Ġ\in f
Ġabsolu te
S P
Ġsha pe
\b ibliography
Ġsplit ting
Ġcon formal
Ġcorrespond ence
al ance
Ġ\ K
Ġsignific ant
is es
Ġcomp uting
Ġtor sion
Ġvar ieties
Ġlim its
se p
O P
Ġif f
4 9
) &
\v skip
Ġper form
I ndeed
Ġin variants
ĠS ee
ur al
)} (\
Ġ\b inom
) "
^{ *
8 6
Ġdifferenti able
Ġprobab il
S ee
Ġ\ U
_{n -
al se
\ -
Ġdec ay
Ġde sc
B B
Ġrec tangle
Ġori ented
Ġshow ed
_{ -\
Ġconver ge
! }
Ġra tio
^+ (
Ġgreat er
cla im
\ title
Ġme chan
Ġdeg rees
sq cup
Ġout put
bes gue
g an
Ġhorizon tal
\ #
eta }
ve red
Ġ\d im
Ġj oint
Ġcomple ment
Ġde creasing
r b
Ġgo ing
Ġde monstra
_{k ,
ĠH ow
7 }
Ġ\ ll
o h
Ġ ru
P }
Ġinter po
\ det
Ġg ap
Ġ\ u
L em
ro pic
Ġ\end{ equation*}
chan ge
c ian
Ġcompati ble
Ġoper ations
^{( j)}
Ġ\ var
)\ |
b c
I d
Ġinterval s
O O
Ġcomputation al
rac k
t z
_{j -1}
Ġar ticle
^ e
footnote size
wh ite
Ġto ol
Ġcou nt
Ġb ig
Ġ\R R
d or
Ġfin ding
Ġd i
if ically
\c C
lan g
Ġnon trivial
Ġgo es
Ġre levant
Ġsing ularities
B S
] }$
ĠW hat
Ġres olution
Ġrese arch
Ġn ull
Ġav ailable
f irst
O m
up le
Ġexpec tation
4 6
\b inom
v ity
\ W
Ġtur ns
Ġc re
_{\ varepsilon}
ran s
Ġequilibri um
Ġh ard
titu te
}} )
Ġb ox
' -
_{\ max}
No tice
_{\ c
Ġj ump
Ġst re
du e
s quare
D F
Ġshow ing
ĠC ase
Ġimpro ve
ĠI I
bu st
}{ {\
Ġs w
Ġpara bolic
} &\
I }
A P
y pe
gh t
Ġfrequen cy
Ġori entation
ct ing
Ġa im
res pectively
}$ }
big l
cor respon
po sitive
Ġextension s
Ġclassif ication
Ġ( (
ĠEq uation
g re
^{- 2
Ġre duce
g round
surf ace
sc il
Ġspe ed
Ġcondition al
Ġro tation
20 20
\ rfloor
Ġlar gest
) ]{
xi }
Ġ\ a
ĠA nd
$ ,
ter min
p th
ĠD enote
Ġrec ent
Ġfam ilies
^{ j}
Ġwa ys
omega }
pol y
Ġar ri
N N
lar ge
b und
Ġide als
| -
b p
_{X }
)$ }
Ġadjac ent
i rac
Ġfig ure
Ġg rid
_{1 3}
ke w
R ightarrow
Ġin s
_{- }
Ġcyc les
coun ter
U n
at ures
pi es
Ġsimpl icity
Ġbo ok
Ġd ig
Ġmathe matical
Ġblock s
_{\ tau}
} ~
L ie
duc tive
ie ce
Ġlear ning
(\ {
rm k
Ġ target
rac y
Ġasser tion
Ġembed ded
\ deg
te st
dor ff
}. $
ĠS ci
Ġl ie
7 8
|\ ,
A nd
d v
Ġtri ple
{ [
lo y
id ent
Ġca pacity
Ġdiffic ult
\b s
\para graph
Ġconc ent
Ġob jective
Ġdynam ical
- (\
Ġlea ding
_* \
_{ A}
us dorff
h bar
Ġin cluding
ut ure
is o
Ġt reat
Ġdetermin ant
Ġ\ :
Ġde formation
5 6
)} _{
l or
Ġtrans mission
, s}
bre ak
low er
c er
Ġ }(
7 6
\l f
olu tions
Ġequi pped
b er
Ġslight ly
I S
Ġpartic les
part ment
po s
V }
|$ .
Ġ ^2
20 12
Ġ( {\
C or
Ġcont rac
un it
Ġt rees
u se
Ġvanish ing
as so
O R
\c A
, }
Ġnormal ized
gne tic
Ġdomain s
Ġreg ar
Ġtheorem s
^ H
a ve
eu mann
_* (
de comp
^ A
Ġas suming
im odu
sic s
^*$ ,
f e
^{ +
at ter
Ġ ~\
la m
}. \
Ġcombinator ial
pi }
sing ular
_{\ gamma}
is k
ĠD irichlet
Ġequival ently
for mula
4 1
Ġout side
Ġsub graph
der iv
pa ir
n al
9 1
Ġcompare d
ri ef
Ġb racket
Ġapproach es
Ġrow s
_{- \infty}
^ G
ĠThe y
p ical
ĠAs sumption
){ $\
\add ress
itt le
Ġpreser ves
ra m
H H
tex ts
tain ed
_{\ nu}
Ġre duces
Ġp iece
Ġm esh
Ġimpl ic
f lat
hap ter
\ z
_{ u
}) ^{
di a
) }$,
Ġexpon ent
'' (
\B bb
Ġc ap
Ġpa ck
Ġ\not in
\d frac
Ġmultiplic ity
ĠL a
_{2 n}
ĠA t
Ġlog arith
Ġdia grams
ul le
str ong
Ġat ta
la ting
Ġd om
M o
Ġcon tact
Ġre tur
rt ing
h d
I s
Ġb ra
Ġsubs equence
\ ast
}^ +
bo ok
b ase
Ġfrac tional
hy per
le cted
f g
ti ves
clo sed
Ġ\begin{ align}
Ġ\begin{ cases}
}\ |\
Ġad ditive
star }
Ġtrans lation
_{\ theta}
Ġmean ing
Ġin div
Ġexpla in
,\ ;
Ġexpression s
Ġf ol
Ġsa ys
s pect
ee p
\ (
ilp otent
Ġp en
Ġra tes
20 11
Ġtri angu
^{ 0
t x
erg od
^* )
^{n -
Ġsol ved
Ġcon cept
p matrix
Ġdiff usion
S h
Ġcon v
8 4
Ġmodu lar
c ulus
Ġdiscre ti
Ġincre ases
\ i
Ġsymbol s
A t
= [
Ġb it
Ġquanti ty
T T
Ġdefin ite
,\ alpha}
Q }
_{ q}
ab }
}( {\
Ġpri mitive
Ġa xiom
;\ ;
Ġp as
g g
Ġgener ate
X X
_{1 0}
Ġact ing
Ġfil tration
Ġoccur s
Ġ\ approx
)$ )
ub ic
Al so
}} ,\
ener al
ĠLe besgue
), $$
)^{ -\
rob en
lang ua
Ġno tations
b ot
\ textrm
comple te
| <
id ence
8 9
ulle t}
Ġ\mu lticolumn
Ġfunctor s
Ġmulti p
}( -
)) =\
E }
Ġchan ges
w w
Ġs ec
_{\ epsilon}
ot ropic
u te
Ġsub ject
ĠH e
[ {\
Ġinfinite ly
new command
roben ius
^*$ -
| ,
Ġ\ def
Ġmetric s
Ġ\ stackrel
pl ot
\ textit
de scri
sive ly
Ġindiv i
p c
Ġl ight
Ġ\ mb
rown ian
Ġsubs paces
3 9
ter m
- }
^{ 4}
Ġsc en
Z Z
Ġis su
^ K
do main
}} =
Ġdis k
Ġo mit
ive d
}\ ;
et er
p ng
\ ll
commu tative
)} =
ll i
s ystem
Ġimple m
v v
r g
Ġcho ices
Ġ\b ullet
_{2 ,
ing er
S ec
)( -
Ġ\d isplaystyle
^{ d}
c A
Ġd id
tikz cd
Ġzero s
n um
Ġeigen vector
ch ar
om en
Ex t
Ġstate ments
ĠS tep
\ linewidth
Ġre d
ra d
Ġref lection
Ġreg ulari
Ġv irt
_{2 3}
Ġas k
Ġd ri
H a
la nd
)} ]
Ġ{ }
w ell
+ |\
ul ti
>\< ^
Ġb rief
Ġ\end{ align}
n +1}
a th
Ġful ly
p ort
Ġse mis
Ġ ^{2}
Ġthan k
su per
verse ly
Ġ\ re
). \
con s
b t
\f ill
id en
r gin
| |\
k o
\Z Z
es tions
\ :
\ >
C A
at er
Ġstr ing
Ġusu ally
Ġsingular ity
Ġtechn ical
Ġle ad
tif ication
me an
_{\ mu
Ġneed s
p y
sf er
ha ve
equiv ariant
Ġdire cted
ga tion
] ,\
Ġde cre
Ġcontribu tion
Ġp ass
ĠNo tice
im its
Ġth resh
me tic
G r
_{ *}
Ġcharacter ization
V ar
Ġcho osing
l se
Ġb and
Ġax is
) ^*
r s
}. }
Ġfin ally
S u
D D
Ġrela tively
asi ble
Ġequ iv
Ġ[ [
\c M
Ġdepend ence
f l
\ eq
Ġj o
7 2
Ġr ings
f ol
^* _{
Ġmonot on
or ies
Ġrewr ite
ĠA ll
Ġparti tions
( |\
s hed
Ġex pect
Ġcompu tations
Ġpol ic
ĠH opf
Ġex pand
S I
la p
, ~
_{m -1}
la g
Ġcriter ion
n umber
li er
: :
Ġg u
cc c
c ar
Ġcoinc ide
han ks
Ġ\ be
Ġ\leq slant
^{ r}
Ġaltern ative
Ġb lack
Ġcommun ication
Ġcomplex es
d le
}= (
P o
su cc
Ġco variance
\X i
no ther
Ġappl ies
in eq
Ġp ref
A M
make box
Ġcou pling
Ġm ess
ĠC learly
eps }
Ġc ru
ma ry
\ ve
Ġ _
D enote
Ġo scil
)+ (
Ġre view
Ġaction s
_{ R}
Ġbec ome
Ġmore over
pla ce
Ġasso ci
c C
con j
Ġsa mpling
ĠN ew
O f
)}{ (
Ġext ra
P r
Ġrepla cing
_{\ delta}
} ]\
Ġsu mmand
g ray
re nce
equ ality
Ġsub algebra
j or
Ġ\ o
Ġg round
Ġb re
Ġad mit
f old
rest ric
ma tically
Ġad ding
_{\ sigma}
ol or
N S
_{ c
Ġtechni que
Ġf ill
on ormal
M e
ot ing
Ġa way
^{\ alpha
lic e
period ic
}_{ (
Ġ\ i
ch or
Ġf uture
le vel
ay lor
en tered
5 2
Ġrig id
Ġr ise
Ġaccu racy
3 )}
Ġp ick
D S
^{2 n}
Ġsample s
Ġderiv ation
ou rho
)- (
Ġiter ations
i ec
Ġse arch
the ory
Ġin c
_{ b
= 2}
8 3
ra di
l b
Ġco me
Ġparame tri
lin der
Ġpri mes
] =\
L P
, b}
v ol
b v
' +
a f
ong rightarrow
po sed
su res
Ġg ain
, r}
cri pt
& +
ia tions
de x
v x
^{m -1}
Ġm ix
s paces
Ġpro ven
Ġqu estions
Ġconc er
. }\
os able
Ġknow ledge
\ ker
ĠGal ois
ĠWe yl
/ /
Ġ| |
Ġseg ment
Ġmoment um
Ġm ixed
Ġperturb ation
r )}
Ġcons istent
Ġw alk
Ġd uring
in ted
O p
_{j k}
| ^{-
re t
_{ T}
5 7
for d
s ha
Ġk eep
[ $
Ġ langua
od ge
Ġ\ set
ĠE ach
}_ +
tab ly
bound ary
Ġcoun ter
Ġ\ q
ra te
\ om
- 2
Ġmonot one
par allel
Ġ\ ee
M ore
ĠF ix
si tivity
ĠTheorem s
ng ing
}- -\
Fig ure
fra g
_{ c}
ĠSo bolev
parti te
in i
) &=
Ġinvol ving
Ġpro f
o ch
tit uting
Ġ\h box
Ġus ers
S tep
s m
Ġrela x
)$ :
ĠB e
g iven
mu lta
\in d
Ġwhere as
B ound
200 9
)= -
ĠD o
Ġg ame
ah ler
Ġachie ve
tis tical
ĠU n
man ifolds
ho mogeneous
b lock
multa ne
Ġmod ified
Ġord inary
| (
Ġ\ operatorname
Ġav oid
\ ga
re me
},\ \
Ġsuc ces
\ de
Ġcardin ality
s ym
Ġpur pose
tern al
ar se
Ġ\x rightarrow
Ġcontra st
Ġbu il
)}\ \
A S
ĉ Ġ
\ frak
C F
ĠN eumann
( $
Ġcontrol s
Ġcell s
Ġ\H om
o ids
_{ M}
M ain
Ġ\big oplus
_{\ rho}
ha m
Ġsepara ble
^{\ pm}
\ longrightarrow
Ġquanti ties
^ g
ĠB rownian
inc ar
I nd
t ree
au x
\p rec
Ġdeta iled
^ R
Ġar ith
M ar
v a
rting ale
Ġtr unc
ith ful
tistic s
8 2
f ont
atur al
Ġ ergod
\e p
in stein
co ver
se mb
ĠC al
Ġis omorphisms
Ġ\ X
Ġp ic
-- -
it ch
ation al
5 3
u k
e ther
Ġref erences
Ġs pherical
Ġto t
I P
,- .
Ġerr ors
D M
] ^-
J }
ĠLapla cian
S t
Ġde f
Ġd ot
mm er
Ġintro duction
a ff
ĠĠĠĠĠĠĠĠ ĠĠĠĠĠĠ
Ġma king
ĠHa usdorff
Ġshea ves
be c
Ġpo wers
v ent
---- ----
r n
Ġad van
Ġtheore tical
optim al
ter ial
Ġpat tern
ĠCon sequently
than ks
T M
p d
a ma
con stant
7 3
h alf
ns tein
Ġre ach
Ġsimpl ify
Ġinterpre tation
cor re
def i
deg ree
up arrow
s ome
\R e
Ġo uter
ho ose
cha racter
)} =\
as sumption
X }
Ġcon serv
P re
Ġre ally
Ġconver gent
}{ $
E s
ĠB S
c M
B M
Ġachie ved
" ,
Ġincre ase
, x}
Ġ+ (
Ġlea ves
ĠM e
n -1}
Ġfact s
Ġco dimension
O bserve
} >
D is
n et
^ +\
}} =\
l ink
\leq slant
Ġrec ently
\var theta
^{\ mathrm{
Ġexce p
text up
a ds
v ir
Ġconveni ent
re la
\beta }
r ite
} /\
U nder
ssi ble
ĠS uch
er ing
Ġbi linear
' '$
^{( m)}
Ġp e
> ,
\e mail
\lf loor
\c F
\alpha }
_{n \to\infty}
Ġhe at
8 1
Ġmat ching
Ġlo cus
_{1 ,1}
ssi cal
e ven
Ġasympto tically
\ emptyset
u v
I C
ĠD irac
Ġcru cial
G G
Ġ( .
~ (
Ġobserv ations
Ġ #
in al
Ġ\text tt
Ġ Î
le x
_{\ sigma
^{- (
]{ $
Ġmultiplic ative
}) )
Ġ\Z Z
Ġinvestiga te
^{\ b
O r
g ies
Ġgiv ing
B F
_{ L
\ simeq
mm ing
}}\ \
pol ynomial
Ġcomp lic
ten cy
k +1}
b ing
_{ d}
Ġet c
Ġeffici ent
m n
bund le
mula tion
B e
Ġorth onormal
5 4
da shed
Ġpro por
Ġha d
Ġent ry
] )$
Ġ lon
en ess
ĠR ic
Gamma }
Ġpro pa
Ġcirc u
Ġreco ver
Ġregion s
Ġn ilpotent
Ġ\b ackslash
Ġsome thing
Ġball s
Ġarbitra rily
e igen
\c H
S pec
Ġu til
h n
tr u
g on
Ġ{ {\
lin es
ĠP DE
me tric
Ġ\ rfloor
Ġprojection s
)\ }$
18 0
^{- n}
re p
Ġ\ eq
Ġsumma ri
ex act
Ġ\ mathsf
Ġequiv ariant
Ġres ol
7 4
c O
g ru
C L
A N
7 9
Ġun known
Ġun til
C la
Ġopp osite
Ġima ges
Ġthe sis
\big cup
valu e
le xi
Ġpres entation
he ad
Ġc y
Ġt rac
Ġsqua res
Ġima gin
II I
)=\ {
de c
^ 7
umer ical
_{\ min}
< -
u u
^ f
Ġcorre lation
Ġm id
Ġdirection s
Ġdetermin istic
ot t
Ġtot ally
_{m +1}
). \]
Ġ ^{
ir ical
Ġtw isted
dis tribu
Ġend ow
Ġsta ck
Ġ\ iota
Ġexperim ent
Ġs kew
Ġ( -\
> }[
6 3
c F
Ġidenti ties
Ġide as
M at
j o
Ġanalog ue
_{ B}
Ġthe ories
Ġ1 00
Ġdeta il
Ġb ottom
s )}
co der
Ġte ll
Ġiden tical
5 1
Ġ\ choose
h ence
ourho od
Ġorder ing
Ġen sure
AT E
Ġ.. .
ri ed
Ġp hen
ĠPro blem
Ġru les
n or
Ġt re
s w
ord an
per p}
\d d
\ rm
Ġsimula tion
ge ometric
Ġemp loy
ar c
) &\
: //
Ġexperim ents
M od
mathbf {
ĠM o
w hile
Ġcommu ta
g ular
Ġun bounded
_{ |\
ol der
Ġmat ter
u x
} <
Ġmonoid al
_{ v}
1 20
iff ere
Ġimplic it
Ġa mpl
' _{\
Ġv ary
C learly
bec ause
other wise
\c heck
Ġ\begin{ bmatrix}
Ġ\ #
Ġconver se
_+ (
var iable
Ġ\ pa
^ 8
auto ref
Ġt ends
\ qed
tro l
ili ary
\b ullet
ot o
er re
Ġc ubic
Ġlangua ge
ha ng
Ġs he
Ġcon gru
P a
\c L
ĠR E
Ġview ed
Ġinvol ved
triang leq
p q
Ġrestric t
la b
[ [
ten tion
Ġcalcu lations
Ġdetermin es
Ġpair wise
Ġ\c r
)= -\
Co mbining
equ ences
\in f
/ 3}
Ġfor ward
Ġre l
Ġcal culus
\R ightarrow
o per
Ġfactor ization
d ge
\h box
` `
6 8
}{ (\
,\ ]
Ġc entered
Ġpoint wise
sco pe
Ġexpla ined
if ies
^{ 4
= &
over set
}) _{
Ġ\R ightarrow
) &=\
^{d -1}
o ps
_{ T
m al
ympto tic
\ tr
Ġ< \
M C
Ġphen omen
ther wise
= {\
le an
{ (-
Ġc us
Ġne ver
ef ore
qua si
_{ A
p led
en berg
ac y
Ġ\ prec
e ch
200 8
Ġco herent
Ġ eq
Ġsi multane
Ġf ibration
6 2
phi }
) ^{(
ol y
Ġma terial
Ġco pies
Ġplan ar
Ġcommu tes
Ġnon empty
w ord
Ġpri or
Ġfin ish
Ġs lo
, -\
}; \
en tations
fact or
in omial
Ġ& =\
to pe
Ġ\end{ cases}
\begin{ bmatrix}
Ġpartial ly
}) (
Ġin tu
ĠAn y
il le
}} ;
p lan
Ġs yn
Ġabsolu tely
Ġ\P P
V V
Ġro bust
inte gral
D u
ĠF robenius
Ġtran sfer
Ġprobabil ities
Ġ\cite t
p an
d l
Ġthresh old
Ġ ray
Ġexcep tional
}) :
,\ infty}
c S
ĠB ecause
ĠN ext
Ġarith metic
Ġ\pm od
Ġdoes n
Ġ\ wt
Ġfa ces
Ġpropo se
Ġremain der
ver gence
Ġear lier
ten ess
oth ing
'' ,
a tively
b ro
C ar
}, $
Ġpermu tations
ĠM or
rough out
f }
^+ _
Ġestima ted
Ġ\ tr
Ġpro duce
se para
A cknow
Ġsh arp
1 ,
diag onal
. (
}{ |\
Ġnor ms
K K
\ vee
h u
, +\
A G
^{( n
t ot
pres er
Ġinterpo lation
ir r
al so
ra ndom
_{t +1}
Ġtran sitive
Ġpossi bly
' =\
^{\ text{
Ġbehavi our
ĠF urther
al most
A ll
Ġget s
s olution
appro xima
Ġb alance
the less
Ġinter nal
U N
sto od
Ġs parse
inte gra
Ġti ght
ĉĉ ĉĊ
Ġhapp ens
be led
f ib
)= (\
or n
as h
s how
_* $
kappa }
at z
to kes
Ġsure ly
- |
Ġin variance
Ġfa ithful
Ġfe asible
Ġstrong er
Ġm er
Ġ\ ast
Ġmark ed
er ature
Ġpull back
repres entation
_{0 ,
Ġcan ce
Ġal though
\B ox
)} _
se cond
\ y
c ritical
^{\ star}
\c O
l ip
ad j
Ġ\ det
b asis
conver gence
Ġb lue
|$ ,
Ġlay er
ĠT aylor
A ut
hed ral
i da
Ġtra ining
ame ly
Ġinv olution
_{ K
,\ beta}
pu ts
ll ing
)} )
Ġmu t
\no tag
Ġchar ge
su s
te sian
)\ )
Ġsh or
no tag
ĠCla im
gra ded
_{\ lambda
Ġbe lie
\H H
g end
p )}
Ġâ Ī
ter ior
z ing
App lying
ine ar
Ġasso cia
Ġchannel s
ĠH ermitian
comp on
n othing
Ġvariation al
Ġfil ter
\le sssim
! ]
Ġ\end{ bmatrix}
_ 9
Ġ\v space
Ġcy linder
Z }
u pper
)) _{
;\ ;\
b ian
| +
ĠH odge
Ġag ree
Ġ1 9
Ġis ometric
H e
Ġc f
Ġtor ic
\ en
Ġidentif ication
= }
_{g }
Ġor gan
Ġcomplic ated
t ract
r ig
Ġis ometry
Ġpolic y
Ġ ĉ
Ġs ite
_{ b}
Ġ\ rm
Big r
^{N -1}
}) }\
Ġapp e
Ġn ice
a ges
_{ K}
Ġreg ime
Ġmat ch
,\ {
a mp
A r
T ATE
differe ntial
v p
if ted
Ġau x
I R
pi d
)} ^{
}\ }$
x ample
Ġcomple tion
Ġe lse
\ wh
200 0
Ġpo pu
p ts
Ġ< =
^{ l
on ly
err or
] }(
Ġam ount
Ġdepend ent
Ġlook ing
ĠG e
* $
^- $
Ġext reme
\c S
ĠQ u
the ore
an ts
Ġevery where
+ (\
^{ q
m om
Ġ\ id
Ġ\end{ proof}
S i
ear ch
Ġab stract
Ġ text
w hat
Ġpas sing
Ġi mmer
diam ond
e le
Ġautom orphisms
Ġpic ture
Ġ\ ker
ĠĠĠĠĠĠĠĠĠĠĠĠĠĠĠĠ ĠĠĠ
su r
Ġsee m
sche me
^{p -1}
Ġthan ks
}\ |_{
lim it
ca ve
= =
ima ge
ĠA d
f p
_ +\
_{\ pm}
\be a
_{ ab}
M y
Ġtrajector y
Ġfib ers
k l
c H
Ġcont raction
^ I
Ġ(\ <
_{ G}
S A
our ces
left rightarrow
Ġergod ic
Ġex hi
=\ {\
e ft
Ġy ear
Ġmom ents
' ve
}} +
Ġty pical
Ġpres sure
Ġindepend ently
Ġsta tistical
{ -\
_{ u}
com ment
eed back
osi tions
ul ts
Ġpro gram
f low
Ġpreser ving
limin aries
Ġdiver gence
\s tar
\var rho
Ġpres ence
ar io
Ġun its
r is
Ġ\tex ts
_{i j
Ġma ch
\theta }
h olds
for t
Ġrelations hip
Ġu pon
ere d
} :\
S M
ce ler
7 1
vi ation
} :=\
_{1 ,2}
\h fill
ĠU nder
\ ol
Ġse lection
Ġpo st
}^{ (\
Ġallow ed
small matrix}
Ġeval uation
Ġinterf erence
a cc
Ġ& $
Ġapproxima tions
A ccording
d own
}$ )
pecial ly
Ġb ases
an chor
h igh
correspon ding
9 }
ĠO bserve
Ġphy sics
Ġdiffe omorphism
L R
Ġunderstand ing
ĠO r
_{f }
pec tive
Ġme mber
ax is
p en
Ġ\Big l
Ġneighb ourhood
\ ov
_{ y
_{\ xi}
inde pendent
our s
C R
Ġspec ified
pic ally
Ġresi due
C O
A D
a z
Ġiso lated
f am
measu re
Ġme m
ĠNew ton
de pendent
al og
200 7
Ġlimit ing
ĠPo incar
Ġ" \<
Ġ\ vee
E D
vir on
Ġ1 8
Ġconfigura tions
Ġper formed
Ġ- --
big oplus
Ġevalua te
ker nel
Ġconven tion
)\ ;
Ġw ide
\Big l
og en
, [
Ġat tention
ang ular
stru ct
c n
| >
Ġpro ject
T hat
de termin
f ollowing
Ġ\over set
^ B
Ġac ross
Ġlemma s
\new theorem
Ġmo ves
Ġpo inted
Ġno tions
Ġ },
k y
Ġflu id
ĠM on
Ġcontradic ts
Ġconveni ence
ĠA ccording
mple x
Ġro und
Ġcalcu lated
Ġdec ision
Ġhigh est
] +
dire ct
B G
Ġdiffic ul
" ;
v anish
Ġguarante e
5 8
Ġtry ing
\ path
d om
Ġmo ving
Ġy et
cal e
\nu }
k -1}
aly tic
Ġ\ al
An y
Ġanaly ze
Ġend s
P ar
descri ption
war z
}) ^{\
Ġun ity
\ _
lo v
Ġhyper plane
)\ |^
al ysis
sp an
f ication
an o
od rom
P R
Ġconnection s
Ġfa il
at ch
6 1
ĠA fter
Ġexpres s
rem al
ate ly
_{x ,
ĠB es
Ġunder stood
b racket
Ġ\ k
\l brace
c ies
ma nd
Ġma gn
Ġ /\
200 6
\begin{ gather*}
Ġpiece wise
Ġdivis ors
Ġ\b s
cha in
Ġcombin ing
x p
c L
\c P
Ġ2 00
Ġback ground
ry st
ion s
loc ation
\ stackrel
Ġ{ {
E M
Ġappear ing
O I
}}\ ,
_{n ,k}
as ymp
{ #
Ġl ittle
_{ y}
Ġto wards
_* (\
yc lic
Q Q
E qu
O S
ow ski
Ġthrough out
group s
^- (
l en
equival ent
Ġp ush
ĠC an
ro ot
* (
let on
Ġlink s
Ġma gnetic
Ġpaper s
^{\ beta}
Ġpri ori
W hat
\c D
Ġu nd
_{j ,
la st
Ġ _1
Ġbrief ly
Ġman ner
Ġun less
Ġhypothes es
_{l =1}
ĠĠĠĠĠĠĠĠ Ċ
h box
_{\ omega}
Ġb ro
Ġacc ura
Ġres pon
e very
Ġu lt
atter ing
D G
W }
g ed
otop ic
Ġaux iliary
s equence
Ġinvol ves
to p}
Ġemp irical
we igh
+ 2
Ġprac tice
T wo
Ġtriangle s
vious ly
G al
o }
Ġad v
Ġsubs titu
de s
Ġhome omorphism
la s
con ne
Ġtrivial ly
im it
var pi
Ġb ody
S F
ĠG ra
Ġsimula tions
Ġarc s
Ġillustra te
Ġb ar
b all
ng ed
Ġat temp
om ic
Ġindivi dual
Ġwork ing
Ġf raction
_{ H}
Ġorder s
Ġco py
tab ility
Ġref ine
Ġse lect
] &
ĠCon jecture
hed ron
te re
\ J
\G L
^{i j}
ens ors
\ thanks
back slash
\begin{ multline*}
ab ly
Ġ\C C
Ġcharacter ized
Ġco ding
ic ations
\p rime
c ross
ĠS e
E Q
Ġreal ization
Ġrefer red
_{ B
Ġ\ ot
}} }{
Ġp h
ext ension
Ġre du
\m f
Ġma jor
Ġvalu ed
U }
6 9
c tive
c E
new line
\end{ gather*}
Ġn ature
) ]\
er cise
Ġsub category
Ġreg ard
L M
Ġup date
ator s
Ġta sk
at ura
Ġobvious ly
Ġ\ autoref
,\ ell}
_{ 5}
ĠLapla ce
)} +\
radi us
G e
^ D
\c E
Ġre ad
Ġsta ge
c p
Ġar ise
b k
sim ilar
Ġ }_{
)} }\
Ġ\ underset
Ġprac tical
^{\ ell}
es timate
od d
^{- 3}
lat or
circ }
in finite
lo op
Ġconne cting
B P
le ase
en table
Ġ\ &
5 9
^{ q}
am es
Ġen sures
Ġf it
}} +\
1 2}
ho se
able s
om y
s titute
Ġconstruction s
ar g
Ġguarante es
Ġtemp erature
iv es
\A ut
}} )$
| |_{
Ġj us
Ġinclude s
Ġgroup oid
con stra
stand ard
ĠB er
Ġprevious ly
Ġlon ger
Ġflu x
Ġgener ates
ty le
} ]$
^{\ perp}
rid ge
un ov
Ġcharacter s
H M
Ġretur n
tan ces
sum es
_{ M
Ġ _{1}
Ġ\ de
Ġma rgin
Ġhyper surface
Ġ3 0
P er
Ġgeneral ize
_{ 5
co ordinate
Ġsub manifold
_{i, j
Ġc li
Ġampl itude
E nd
Ġpa ge
- {\
{- }
lat tice
app endix
\ choose
\begin{ multline}
se mi
}\ !
c ome
Ġan n
Ġ1 7
y ap
is omorphism
_{\ Gamma}
ol imits
Q u
w are
ro s
Ġdeg enerate
Ġo w
si ties
\end{ multline*}
Ġconcer ning
ĠCh ern
Ġa mb
_{\ mathbf{
da ta
Ġs low
\mu lti
la tes
Ġrece ived
) ]$
at ern
\O m
E T
_{ R
Ġ\ qed
Ġde coding
\bibliography style
\ supp
Ġ\begin{ enumerate}
Ġflow s
)} ,\
)) )
ri x
d V
pro vide
scri pts
\ si
\end{ multline}
\c at
Ġs ix
Ġsimpl er
&& &&
Ġ til
}\ {
ĠL o
Ġother s
Ġconv olution
mo ve
Ġdistingu ish
I V
Ġsymme tries
^ X
Ġfe atures
se m
= &\
Ġdivis ible
Ġb en
Ġspan ned
f ollow
Ġdescribe s
,.. .
Ġdesc ent
Ġthough t
bab ility
ou n
D o
ir ing
Ġd z
_{x x}
h armonic
Ġendow ed
\b x
/ .
ec ke
S C
\c l
Ġver ified
\c r
ĠO DE
Ġpoly tope
Ġr isk
Ġimagin ary
\section *
Ġobtain s
Ġpopu lation
_{m ,n}
}$ ;
Ġcommu te
Ġcombin ed
Ġs ends
hea f
' )$.
Ġlea f
0 ,
O F
T aking
^{( 3)}
sim al
si mpl
Ġide mp
li hood
\ee a
we ight
Ġcom ments
O b
a fter
o ssible
de pend
P T
he res
Ġsumma tion
_{n -2}
Ġno ted
bil ities
@ {
th od
Ġrepresent ing
L T
[- >]
a ding
Ġtrajector ies
Ġexponential ly
pa rame
Ġissu e
_{m =1}
Ġas s
e ach
} <\
Ġres pective
me ter
) :\
Ġp ric
^{\ mu}
B ecause
Ġmeasure ment
Ġpo lar
_{ L}
Ġro ugh
d g
ĠLemma s
O M
Ġne ither
Ġan ten
ne ighb
an s
: \,
C al
Ġad ded
dis crete
Ġunit al
_{ v
Ġrea ds
sp here
Ġrepe ated
Ġconclude s
cri min
Ġde pth
Ġ\end{ split}
tr in
ron t
Ġintersect s
Ġdis c
m ing
Ġmeasure ments
a vi
h s
\p r
Ġ\end{ enumerate}
a o
resul t
_{i k}
_{t -1}
Ġcu be
\ op
l )}
De partment
Ġrece iver
Ġadvan tage
b matrix
ide al
S ym
\rightarrow \infty}
p mb
)/ (
- k}
Ġ\ tag
Ġs tri
uni que
ic ro
w ill
\ps frag
Ġsemis imple
ome tries
d ynam
p in
Ex p
\ `
Ġconjuga cy
^ v
^{ l}
ay es
n es
ĉĉĉĉ ĉĉĉĉ
Ġtri angular
Ġ[ (
\r brace
Ġg lu
min imal
dia gram
ĠA r
Ġlevel s
Ġcontinuous ly
}) ^{-
} |^
Ġreg ression
le ftarrow
, N}
Ġcount ing
ĠIn te
Ġbi partite
" ]
in a
Ġdiv ide
Ġfib re
- $\
Ġinclude d
ĠSci ence
ti ty
tif ied
Ġin ser
ket ch
Ġ\colon eqq
B o
equival ence
Ġsol ves
int y
ier arch
Ġun stable
f ixed
Ġf ive
ĠG reen
Ġar ises
ĠRic ci
Ġpair ing
n atural
m d
v s
S e
Ġ\ exists
Ġarri ve
^{i -1}
Ġex ternal
comp osable
( x
)) ^{
Ġcross ing
Ġrecon struction
Ġ\ W
valu es
M ac
ster ior
ĠT ake
Ġca us
Ġtrans port
Ġg a
! }\
Ġdiscreti zation
go od
ĠYou ng
Ġa tom
Ġcance l
In te
ĠS econd
S ome
p ower
}, $$
Ġ{ (
C G
}[ !
L ongrightarrow
_{n +
00 }
iz able
}{ $\
ĠR o
^{( k
: $
varphi }
ĠS pec
po sitions
N )}
^* )$
thes is
_{ S}
at op
ex istence
tain s
Con sequently
)| ^{
dagger }
200 5
Ġtw ist
\ exists
Ġ\Big g
h ar
Ġ\R e
Ġfe ature
Ġwr ong
^{+ \infty}
sec u
ether ian
Ġpre ce
Ġbegin ning
f lo
Ġadap ted
ed om
df n
Ġqu iver
\F F
Ġlet ting
ĠApp lying
B R
Ġchain s
Ġscen ario
Ġinf er
IM O
K L
Ġindepend ence
Ġsc attering
graph s
Ġ\ z
)\, .
\c B
Ġclose ly
} ~\
res sed
Ġimp ossible
Ġquanti zation
: (
: [
i ation
Ġco vers
ĠS ome
n ers
}{ -
Ġadd ress
Delta }
Ġsta tistics
no tation
I D
gin e
Ġf eedback
b asic
Ġradi al
ĠĠĠĠĠĠĠĠĠĠĠĠĠĠĠĠ Ġ
Ġstre ng
resul ts
es tima
Ġdynam ic
| {\
ĠSch r
. ]
' }}
Ġinterpre ted
- i}
RE AL
N on
iz ers
_{ S
^{ a
are d
Ġ= &
" .
Ġalgebra ically
in ite
vari ety
i y
Ġimpro ved
^ z
th ree
ta inty
Ġch all
ĠW hile
Ġconvex ity
K S
Ġarrow s
\ approx
Ġ2 4
\v dots
Ġrig or
Ġindic ates
Ġrestric tions
lob ally
\p mod
ont inu
th in
Ġlocal ization
Ġelect ron
yap unov
y y
Ġfa ils
\re newcommand
Ġw ish
Ġlog ic
\ ss
Ġnot ing
Ġsu pre
Ġen viron
Ġult ra
f ace
B r
g reen
\E E
ma sh
Ġ\d dots
Ġimplem entation
Ġar ray
_{\ eta}
Ġexis ting
^ y
^{\ vee
Ġcomp osite
Ġc m
ĠGaus s
Ġtri ed
Ġdeg ener
Ġden omin
Ġma rtingale
Ġv ol
h olomorphic
\ underset
f n
Ġlogarith mic
G D
^{\ lambda}
or bit
\ar @
| ^\
con st
ĠM at
} :=
Ġstudy ing
ĠĠĠĠ ĠĠĊ
ĠĠĠĠ ĠĊ
Ġ\begin{ split}
' })
Ġcompact ness
key words
ve y
(\ |
f i
Ġkernel s
ĠE n
Ġ\m od
d p
sel ves
{ }{
h er
dots c
^{ a}
ĠE lement
Ġla beled
Ġ\ '
^{- k}
Ġform ally
Ġpure ly
F S
^{( t)}
| .
Ġme et
_{2 k}
l vec
con e
F urther
( [\
Ġrequire ment
odrom y
' }{
Ġmagn itude
Ġiden tically
Ġstand s
Ġwr iting
Ġac celer
Ġ\ ac
Ġw ire
^{3 /2}
dition al
/ 4}
si t
preser ving
Ġwa ves
_{i =
Ġde lay
Ġdemonstra te
Ġas sumes
^{( r)}
A fter
R o
E C
^ S
Ġsol id
Ġbe am
Ġ\Big r
Ġrepresen tative
Ġ\lim its
h m
ĠJaco bian
e b
Ġ\ ve
}} }}
Ġb its
tation al
odel s
Ġform er
p n
Ġsem ic
'' \
Ġslo pe
ĠS U
Ġlo ops
on es
B A
an k
R IT
f unctor
}, {\
sion s
Ġ\ hookrightarrow
-\ !
ĠRes earch
c D
G S
^{ {\
_{p ,q}
Ġset up
Ġpo les
ĠO therwise
ĠH om
Ġi d
\lim sup
Ġra m
ĠJ ordan
Ġtop olog
hy p
Ġdiv ides
\set counter
Ġno thing
Ġpro g
Ġ5 0
& +\
ĠCar tan
). }
Ġf alse
ĠC he
od al
ĠSub section
Ġin ductive
Ġbound aries
si ded
Ġre p
Ġwh ite
Ġnormal ization
_{j ,k}
' }(\
fra me
Ġa f
Ġ\B bb
Ġsimultane ously
r c
T hanks
da y
Ġf ore
Big g
Ġse lected
La g
Ġsign als
Ġhapp en
si pa
\over set
ĠJaco bi
v ille
\t frac
Ġ\ scriptstyle
Ġregulari zation
tra ce
^{\vee }
A nother
Ġeffect s
f s
' _\
ĠF unction
Ġre ver
C E
c G
Ġs ent
\r put
{ }^
20 21
Ġh ierarch
Ġal pha
jec tivity
fin al
ar k
)\ ]
Ġ\h fill
Ġcontinu e
Ġco variant
an n
ou th
ref ul
ĠN amely
âĢ Ļ
\geq slant
m r
Ġco arse
for ce
\ @
Ġac tive
long mapsto
| )
Ġindex ed
as hi
v y
Ġco re
** **
ch ron
}} -
Ġmess age
en um
Ġtw ice
_{\ beta
Ġar range
ymme tric
Ġconc ern
| <\
Ġfre edom
tic s
\co ordinate
Ġpo sitions
yste ms
secu tive
os es
\ Ga
Ġemp ha
Ġconserv ation
ĠI nt
h tt
ore ach
Ġcirc les
T R
Ġeffici ency
c ro
Ġconjuga tion
ction s
Ġcharacter ize
Ġdia meter
Ġinc ident
â Ī
B efore
y per
u ge
Ġthere in
ĠA gain
^{\b ullet}
ot on
Ġminim izer
R ec
\ ket
Ġm icro
{ }\
or ts
ĠS u
Ġwor th
Ġval uation
Ġtri p
Al g
)\ |_
Ġdiffere nces
Ġmem ory
v is
Ġindic ate
it al
_{ G
T ake
Ġlat tices
}}{ (
ĠW h
Y ou
^{\ circ}
\c G
Ġas pect
\begin{ gather}
d if
\ proof
form ing
st ring
tere xample
so v
}} ]
=\ ,
text normal
Ġevalua ted
Ġw on
' .
Ã ©
ob s
Ġ )}
bet ween
Ġde pic
\fill draw
Ġrun s
Ġfor med
Ġproper ly
s pecial
Ġinter mediate
comp u
Ġpossi bility
Ġtrans forms
\ id
f ull
200 4
algebra ic
Ġthe rm
rt in
= $
D ec
[ -\
C l
Ġsignificant ly
o c
Ġangle s
Ġfor ces
| =\
ac u
F P
U psilon
ĠS ta
un ately
, 3}
Ġ\no indent
a belian
psi }
)\ |_{\
ser ies
Ġlaw s
Ġv on
Ġ.. .,
Ġend points
Ġty pically
Ġta il
^{\ dagger}
Ġyear s
parti tion
_{i i}
Ġtool s
g lobal
Ġcom ing
f un
es sian
\end{ gather}
Ġsome times
Ġlength s
\subsection *
Ġsepara ted
n p
Ġeasi er
}_{ +
oti ents
Ġse ctor
surf aces
} '$
v space
Pro b
Ġ\s tar
ces sing
Ġdiscussion s
z y
id den
art z
Ġ\ par
con jecture
^{ c}
_{r -1}
Ġde mand
Ġcar ry
\ Y
Ġact ual
}$ };
Ġext remal
Ġcomple teness
Ġrecur rence
ro th
i ra
inter val
k en
d ro
Ġg re
Ġcombin ations
\L L
Ġ. =
Ġbounded ness
v dots
Ġaxiom s
Ġhand le
S econd
Ġes pecially
pon ential
i med
ĠCon dition
Ġvirt ual
Ġ- (
Lambda }
, h}
Ġgu ess
follow s
ern ou
ti le
Ġfour th
u sed
rr or
Ġcha nging
)| $
Ġpotential s
Ġpropor tional
Ġk ine
\ del
ĠI ts
imodu le
Ġ\ Xi
nt z
D R
Ġcou pled
up les
O T
Ġnumer ically
Ġ\ ps
\s quare
Ġhelp ful
Ġen semb
Ġth ings
Ġex terior
:=\ {
Ġev ents
Ġdo ing
Ġsupre mum
ale ph
}$ \
_{ z}
Ġassocia tive
\ sf
q )}
Ġasymptotic s
b ic
satisf ies
Ġ\s mall
Ġ2 5
Ġdis crimin
Ġsugges ts
- j}
^{m +1}
Ġcont in
text style
ĠL ore
ge bro
Ġeigenvector s
+ {\
> [
Ġg rant
Ġsign ature
}\ ]
Ġca reful
App endix
Ġres cal
v t
Ġcomp ac
Ġresi dual
^ o
) ~
cyc les
)}\ ,
1 10
Ġ\N N
Ġs izes
Ġtre ated
Ġd ou
a ms
\E nd
Ġinfinite simal
Ġde viation
Ġassoci ate
}_{ -
Ġsimple x
\end{ matrix}
Ġevent ually
Ġstudi es
\in dex
Ġinde composable
Ġloc ation
i ta
ĠP a
fol ding
A x
Ġapproxima ted
Ġcompact ly
M L
et ale
^{1 ,2}
\ ds
[ ]
de creasing
Ġrel ies
enter line
_+ ^
Eq uation
Ġpo le
Ġembedding s
\l b
]{ $\
Ġc and
j k
}{ }
Ġspace time
Ġparticular ly
eft rightarrow
ernou lli
an alytic
A b
Ġapp re
Ġ\ lfloor
)\ }
Ġinvestiga ted
equ al
R a
z a
P C
C hapter
categor ies
ĠT ype
sta bility
ar ge
at o
Ġsepara tely
def ine
ox times
'' _
); \
\in put
Ġlea ve
Ġaff ect
in }
ma r
Ġg lobally
Q ua
Ġin ten
Ġpro duces
_- $
_{ I
)\ }_{
( 1)}
la stic
Ġregar ding
Ġne ural
ell ip
er y
di ents
Ġweak er
\ up
_{ F}
)$ ]
ha ps
cer tainty
b z
Ġ\ EE
N T
Ġfol iation
ĠE very
Ġ\ ol
Ġillustra ted
po ses
pl its
Ġw all
Ġformula ted
\g g
Ġpo set
\N N
ĉ ĠĠĠ
( .
ss ess
Li pschitz
G eneral
Ġ\ deg
Ġconstruct ing
re lation
_{\ tau
^{\ top}
c ut
ger s
Ġ\ vartheta
Ġfunction als
_{\ ast}
Ġd im
Ġh ull
u i
Ġsto pping
Ġsa dd
_{1 4}
Ġmid dle
Ġaccura te
( t)}
w hose
or dered
Ġmode s
Ġar ising
C at
Ġ} ^{
ta ng
^ J
Ġcol l
Ġqu atern
d m
con struction
_{a ,b}
)| =
or g
\r ceil
sk y
}\ )
Ġis otropic
- >
a )}
pp ings
\Big r
Ġexpon ents
Ġl ot
Ġmonoton icity
Ġ\end{ aligned}
Ġf ra
ta ngent
di ly
Ġpen al
s g
Ġ3 2
Ġ| ^
rom ov
200 3
)$ ).
con juga
\ date
e lement
ll l
Ġelect ric
ou nts
ne g
W hile
Ġme di
M T
fig ures
â Ĥ
z ier
Ġoptim ality
proper ty
Ġow n
Ġre verse
lu g
r ical
Ġre pro
c P
t b
irr or
^* _{\
Ġremark s
, l}
Ġseg ments
ink owski
Ġtell s
Ġdistingu ished
ll er
Ġcontribu tions
l ist
gra mming
Ġgra ding
v c
Ġorgan ized
math op
lim its
Ġ\ ep
E G
| +|
Ġmonomial s
ĠO b
Ġequival ences
Ġbelie ve
\S TATE
Ġde le
Ġtermin ology
bed ding
\text up
Ġmeasu red
ro v
sump tions
Ġaltern ating
'' .
Ġcon secutive
s eq
C an
y ond
Ġpla ys
n r
Ġpreser ve
Ġdomin ant
Ġtriangu lation
vanish ing
F ollowing
- 3}
\m od
Ġdomin ated
}) ,\
b ur
Ġlabel s
s tituting
le in
\ arrow
al ks
Ġminim ization
Ġgeodesic s
^{ b}
al es
l r
ran ce
f re
Th roughout
on v
Ġdiff er
^{- 4}
ryst al
^{\ ell
Ġ\begin{ aligned}
small matrix
Ġdete ction
pro jective
Ġhom omorphisms
ĠC P
R iemann
Ġb if
Ġaver ag
li ft
c X
decomp osition
Ġma tro
Ġlift ing
theore tic
S ol
ard y
Ġm ind
Ġdev oted
_{ >
12 5
cyc lic
s ig
_ O
Ġ& :=
cep ts
Ġ6 0
fin ed
m orphism
cla ssical
Ġsa ke
\U psilon
M ulti
\r vert
co sity
Ġversion s
_{ max}
\ tag
ĠD is
Ġpo lari
Ġst ress
Ġho pe
leq slant
aris ki
Ġrandom ly
ĠC hoose
in ding
p gf
ig u
ni hi
i +1}
12 3
om mu
E P
Ġprece ding
Ġreal ized
Ġ\ y
\s h
Con clusion
co ded
ĠI nd
Ġcheck ed
Ġco mb
sin h
ĠP ol
f unc
,\ mu}
ĠSch ur
b R
\b a
in verse
_{\ phi}
K er
,\ lambda}
as ymptotic
op }
Ġ+ +(
i ent
Ġ\c heck
cur ve
F G
{\ |
compon ent
^{1 -\
vari ate
^{\ nu}
ĠL yapunov
h h
Ġ\c A
S D
Ġapproxima tely
Ġpo sterior
^{\ varepsilon}
align at
or o
Ġan gular
Ġover all
_{j =
ur c
H ow
xy }
)) -
C ha
Ġpar ity
Ġagain st
is omorphic
Ġlim ited
Ġintegra ting
\c T
i date
_{2 ,1}
la ter
Ġminim izing
Ġ\c O
Ġ Ga
Ġdecre ases
\d ownarrow
^{1 0}
}. \]
Ġpri mary
Ġsol vable
] )\
il de
Ġcompu ter
^{\ gamma}
flo at
' },
st ric
r ink
Ġrewr itten
ul i
ĠĠĠĠĠĠĠĠĠĠĠĠĠĠĠĠĠĠĠĠĠĠĠĠĠĠĠĠĠĠĠĠ ĠĠĠĠĠĠĠĠĠĠĠĠĠĠĠĠĠĠĠĠĠĠĠĠĠĠĠĠĠĠĠĠ
Ġ& &\
^ F
ĠG L
+\ |
Ġcon crete
_{j i}
ĠS t
}^{ +
^{n -2}
Ġbu ild
lo c}
ever theless
\v p
Ġac cess
g ree
E ach
Ġb inomial
_- (
ledge ments
and er
R C
iec k
M on
b end
Ġspect ra
_{\ f
Ġstrate gies
Ġden sities
Ġper spec
\l vert
Ġmod ification
as hed
0000 00
\ La
measu rable
c il
Ġp un
}=\ {
Ġ\ del
Ġinf lu
Ġz eta
ĠI II
Ġmodu lus
_{ D}
)\, ,
Sigma }
B D
f y
ssi fication
Ġlet ters
Ġrea dily
200 2
c le
Ġe p
Ġ item
al low
]$ -
Ġestima tors
s d
b ran
Ġpreser ved
c N
ĠE instein
Ġintro ducing
d ownarrow
ib ility
' |
math tt
ĠT aking
ph y
B ox
tr ue
Ġ\co ordinate
j j
Ġremo ve
}$ :
_{k l}
Ġpres cri
Ġmach ine
og on
Ġapp endix
)\ |\
alpha )}
lim inary
Ġpro v
ibra tions
ĠLe gend
\ st
ri e
Ġd r
, +
pha se
! (
ma ps
trin sic
h fill
^{ x}
ĠSpec ifically
\prime }
Ġmechan ics
B V
Ġun certainty
Ġre ac
)} _{\
ver age
Ġth ing
Ġcon es
^ w
Ġextend ing
ĠO f
Ġtermin al
)) (
\h bar
A gain
l if
Ġintersection s
) )\\
\ ex
Ġbalance d
re call
Ġknot s
div is
B L
g t
}_{ {\
ion ic
Ġdescri bing
continu ity
}} }{\
equ ent
M in
_{ e}
an ge
Ġeigen functions
Ġvar iant
times }
S um
is otropic
Ġf lag
\l Vert
}} )\
_{ +
Ġformula te
Ġpo ssess
Ġdraw n
( *
Ġregar ded
)} }{
scripts cript
per ty
ĠWith out
to col
Ġsubstitu tion
Ġtrans verse
sha pe
_{\ nu
text width
co sh
Ġmix ing
ch er
Ġnon e
R ic
roth end
R T
Ġd a
Ġcar ried
en able
tur bed
\ scr
Ġ\ implies
Ġexpansion s
_{ E}
P D
Ġ _{2}
th }
b w
Ġconne ct
.~ (\
Ġadv ance
^+ }
Ġcla imed
Ġargu e
it eness
\Big g
Ġsadd le
b X
ul k
Ġre ady
n orth
}) -
ro matic
con trol
Ġmon odromy
/ 2
_{n, m}
rothend ieck
) &=&
Ġinterf ace
)| _{
Ġ4 0
satisf ying
\l ceil
Ġ\ wh
in itial
tor sion
, &
Ġdiv ided
Ġdenomin ator
Ġh olon
ant or
here nce
K M
\c X
proper ties
Ġtreat ment
)} +
Ġ\text up
Ġma ppings
[ (\
Ġend omorphism
] ^\
m t
Ġiter ative
en tary
^* )\
^ -\
u be
Ġmultipl ier
Ġspe aking
p ter
sf ul
Ġ _2
ĠAl though
Ġsequ el
con sider
\n olimits
den sity
M ax
Ġ\big cap
Ġreco very
! \!
^{ |
Ġ\ fill
Ġex ten
c B
Ġsimpl ified
b ody
po ssi
ill ing
ric k
re duced
Ġbe yond
Ġg ot
inter section
15 0
Ġrecur sive
\big oplus
\var pi
ĠIn stitute
Ġp lus
mb f
cou nt
Ġ\n n
, ~\
Ġmin or
w as
Ġdis tances
b is
Ġeff ec
n m
scriptscript style
S tr
N ew
div ision
Ġpossi bilities
{ .}
ĠV er
Ġstar ts
V er
orth ogonal
_{ z
Ġste ady
ĠMa x
fam ily
ech n
W RIT
Ġprof ile
in to
Ġachie vable
rop ical
WRIT E
symme try
Con t
Ġsmooth ness
Ġsepara te
Ġfollow ed
\b u
\ell }
_{ F
_{ 6
)$ \
_{0 1}
asso ciated
Ġreason ing
Ġtest ing
Ġd rop
Ġvary ing
Ġreason able
OI U
\r Vert
Ġco vered
Ġfast er
^+ (\
ĠP ar
Ġ. $$
_{r +1}
bo th
^{2 k}
ĠLore ntz
mom ent
man y
Ġconf ir
Ġbre ak
Ġassign ment
Ġcons ist
_{ w}
\S tate
[ $\
ur istic
Ġadap tive
Ġphenomen on
Ġd ashed
Ġ\ underbrace
can onical
h l
Ġbra id
Ġmis sing
Ġv io
Ġde ep
f lu
Ġen umer
\new line
S R
\in v
Ġ( {
Ġth in
Ġsetting s
_{\ pi}
Ġpa st
Ġsit uations
Ġ( [
igh ts
Ġor b
Ġspec ify
\ind ent
Ġ3 5
\f i
_{( 1)}
Ġt ensors
| }{\
acu um
Ġdifficul ty
Ġper s
\E xt
is tency
Ġs atura
ific ations
d ow
_{ 6}
^{( N)}
Ġimpl ication
ĠC or
Ġpat ter
Ġinsta nces
ĠF ind
oid al
Ġspec ifically
, (\
\ th
on o
Ġun folding
_{t =1}
_{ [\
Ġpro jec
gener ic
Ġ\c C
|\ \
r p
] -
Ġfa ir
D er
G M
f o
Ġconcent ration
Ġv or
Ġconstra ined
in creasing
/ (\
S a
ĠC ox
\sub figure
Ġref or
Ġpatter ns
ar po
Ġcoun terexample
ĠK o
})\ \
ta il
red }
Ġexp lan
Ġcor ners
_{\ s
ge l
Ġcons equently
1 000
d ouble
stric t
plan es
Ġcolor ing
ab i
th us
200 1
+ $
^* =
E very
,\ delta}
ĠB ayes
restric tion
cal ly
O ut
and om
Ġauto matically
ĠĠĠĠĠĠĠĠĠĠĠĠĠĠĠĠ ĠĠĠĠĠĠĠ
Ġcompu table
_{d -1}
Ġhome omorphic
Ġqu ick
big cap
_{ Y}
Ġre ve
}. )
Ġlike ly
ĠT wo
Ġformula e
Ġsepara tion
c ore
_{ I}
Ġpur poses
ra ce
Ġcont ent
Ġspan ning
W h
+ 3}
algorithm ic
^- _
Ġin gre
\n n
qu estion
dition ally
_+ ,
+ (-
Ġhigh ly
ma trices
gener ated
( n)}
Ġcontrol led
Ġreason s
Ġâ Ĩ
. \,
P ut
Ġrefine ment
b rid
m k
^{* *}
ĠH ar
' )}
\c N
fort unately
ĉĉĉĉ ĉ
sta b
ĠThe ory
E L
Ġinteraction s
Ġca pa
{ }_
Ġa mple
Ġdis play
C B
| _\
Ġsuc cess
' re
Ġlift s
Con versely
ma y
de cor
Ġfor cing
_{\ eps}
Ġsimple st
^{\ epsilon}
Ġpropa gation
Ġrespon se
t ures
] _\
Ġra d
]^- {\
Re g
Ġbi jective
Ġ\c F
^{\ sigma}
com ing
c T
Ġscal es
Ġpoly gon
M F
Ġ\g g
, "
Ġex change
Al though
^+ _{
Ġ ),
t uple
Ġup da
Ġde lta
Ġref lect
Ġco cycle
m l
Ġsome what
c K
ĠE qu
G P
ĠW i
Ġf erm
Ġobtain ing
Ġdri ft
Ġs par
}{ *
^* ,\
Ġ ri
, v}
l ication
_ *}
00 1
g al
^{1 2}
Ġperturb ations
Ġsp heres
Ġta ng
be zier
co effici
local ly
. },
or b
\right )}
}) }{
par tic
ou ville
}} ^{(
ĠR ec
' )=
^{\ times}
lem entary
Ġcon cave
ĠS NR
Ġ\bigg l
l ceil
Ġob struction
Ġres p
lay er
co v
' )$,
ir al
a da
s y
Ġw ater
Ġanaly tical
it on
Ġcons istency
D iff
Ġremo ved
Ġelect ro
Ġconsider ation
Ġin duce
Ġdis sipa
ĠMa th
\P r
Ġp ub
in label
\ ts
al th
Ġmod ify
Ġpro gramming
, {
ĠZ ariski
_{\ gamma
od inger
comp ati
Ġf ine
Ġdecomp ose
Ġch ild
& $\
ĠB ra
ĠP r
\ ms
a ult
er c
^{r -1}
b C
Ġg ave
Ġ ign
G F
Ġbuil ding
Ġ )^
Ġcongru ence
ĠP art
a mb
Ġpara graph
Y au
aff ine
Ġcar rier
\r times
E n
ss s
Big l
Ġre cor
Ġ\ up
Ġ\ path
I F
cor ner
Ġcol ors
Ġ\r times
ig gs
Ġimmer sion
re cur
Ġ\r vert
Â ł
\ pp
Ġh ist
M SE
s he
led g
N P
te o
_{ xy}
,... ,\
B er
ob ject
u psilon
Ġimpor tance
^{\ delta}
Ġexhi bit
un g
den ote
Ġperspec tive
Ġ _0
gine ering
:= (
^ C
ĠC R
Ġ\in d
lexi ve
Ġ\ ga
Ġf la
ke l
}^{ *
Ġmut ually
Ġcont our
pro jection
)) }\
Ġrea ding
pi red
gra dient
Ġlike lihood
p g
Ġglu ing
r l
Ġs ources
d B
Ġsub t
Ġconcent ra
ss mann
Ġsequ ential
) /2}
\ triangle
Ġin t
; \\
H o
^{- s}
(\ |\
ure nt
' ]
Ġqu otients
T able
M ap
Ġ\begin{ proof}
Ġfix es
Ġâ Ģ
\ ma
Ġd g
Ġs plits
' ll
pla in
F L
Ġt ropical
Ġal location
n f
uniform ly
g i
ĠH ecke
Ġma pped
th ese
^{( l)}
ad missible
_{ w
Ġremo ving
} )}{\
Ġan nihi
\S L
b A
cor o
Ġ\ om
res sible
wa ve
lic ations
' d
line color
}) +
er ies
tain ing
ne y
Ġ _{0}
Ġgener ation
\pi }
B ar
N D
Ġstru ct
Ġ- >
}} -\
v u
Ġenviron ment
= |
Ġflu ct
Ġ2 3
5 00
Ġtest s
ram ified
ti er
Ġsha re
u ff
Ġ ve
Ġcomple ted
Ġde formations
t p
Ġlook s
te l
Ġ\ pr
i ers
ore nstein
Ġintegra nd
ĠC hapter
distribu tion
Ġ} }\
la x
~~ ~
general ized
ĠW rite
Ġcontin uation
possi bly
s ys
+\ !
d w
Ġat trac
] \,
Ġ\ op
ĠB oth
Ġrelax ation
weigh ted
Ġs lice
Ġsucces sful
ip otent
Ġrun ning
K o
25 0
Ġ\l b
D ia
cu be
Ġidemp otent
\c R
^+ ,
t d
Ġattemp t
Ġmotiv ated
ĠS h
b ord
cha nged
Ġmathe matics
arpo on
Ġcomp aring
ay ley
Ġrecall ing
Ġpla ces
re ve
, n
Ġ\l ra
z en
)-- (-
Ġcoll ision
D C
Ġt uple
y p
Ġ ).
Ġimplem ented
T S
Ġsome one
cho ol
ht bp
Ġs ketch
Ġpro tocol
he v
ĠLe vi
ner gy
\ ch
Ġvis cosity
Ġ: :
{ =
Ġimp ose
nu ll
Ġ lying
Ġcon cepts
_{0 ,1}
}{ .
ĠF ollowing
+ n}
Ġrecur sion
_{s ,t}
p otential
ĠMor se
Ġp seud
el low
& -\
frac 12}
hol m
w p
or al
an ti
ention ed
& (
ĠS ec
^{( 2
^ V
^{\ tau}
In ter
to ms
}) ;
\x rightarrow
ĠPro ve
ĠS tein
J aco
}\, .
to ff
ĠG r
Pre liminaries
Ġsign s
llip tic
\c enterline
Re f
Sch warz
Ġf all
con ditions
_{N -1}
es ted
act ing
ĠSection s
c R
}) _
b Z
^+$ .
ha us
}, {
Ġ\geq slant
Ġtrunc ated
Ġinvol ve
ker n
Ġ !
ĠM IMO
c ast
z er
pr incip
V ol
^{i +1}
Ġpredic tion
Ġmargin al
Ġch art
Ġconver ging
Ġdiv iding
Ġ\r ceil
pr ising
ro u
Ġbif urc
Ġ\ ov
Ġ\c H
us sian
Ġjo in
Ġcus p
Ġ\ar g
\f g
Ġau gm
C N
spect ral
s ample
Ġg reen
^{( s)}
)> \
Ġres on
s ame
a rable
k m
Ġcor ner
Ġdiscrimin ant
ĠS how
op le
place ment
' }$.
Ġre action
Ġinver sion
v b
Ġdivis ion
Ġ\c L
Ġv s
}( (
ĠD ue
Ġatta ched
Ġ\c M
ĠDe partment
Ġde coder
^{1 -
qu i
Ġmer omorphic
ogon ality
iden tity
X Y
ti tion
Ġe limin
Ġmain ly
ev y
Ġguarante ed
S pace
)! }
Ġsubs equent
Ġestablish es
Ġequal ities
et ti
qua ntum
ĠM odel
sh ar
ex pec
A V
Ġdecre ase
Ġpri v
o ck
Ġdefin able
c ision
ser ved
Ġrepe at
F C
\big cap
Ġcontra ry
L ip
Ġ\bigg r
S ta
Ġplay er
+ k}
ĠQ ua
ĠM inkowski
Ġstreng th
_{ P}
v in
st ers
Pro blem
Ġimp act
lem m
ur l
du als
Ġgrow s
' :
Ġlet ter
ĠH essian
Ġdis tor
_{ e
}$ ).
v m
\b r
Ġrigor ous
^+$ ,
@ {-
Ġgra vity
ĠCo hen
' /
asu re
dis tance
Ġsche du
ĠB ernoulli
Gaus sian
v r
Ġ\r Vert
ari os
in duced
}^{ *}
_{\ Lambda}
Ġre normal
Ġcol our
+ {
v ia
h ard
Ġ\ GL
. }}
_{k =
Ġqu e
pothes is
_{ C
pl ication
Ġs l
\m y
i les
ĠW hy
to gether
sol id
Ġnon commutative
}} |
in equality
ĠLag range
_{\ Sigma}
\L T
Ġcommuta tor
yn kin
}= (\
n c
with out
{- .
H P
c ard
G C
Ġbran ching
Ġintu ition
at en
Ġcomb ine
& \\
u le
st }
, d}
S tokes
eqn o
neighb or
ĠĠĠĠĠĠĠĠĠĠĠĠĠĠĠĠ ĠĠ
ri an
chi }
Ġcommu ting
me mber
, a}
Ġco hom
Ġ\ J
_{3 1}
P oisson
sp in
\multi put
ĠP ic
alg o
Ġ\ en
Ġ($ (
' ^
ib bs
max imal
\ ti
(x )}
Ġ )$.
as ser
^{\prime \prime}
h r
_{m =0}
top es
text tt
Ġdecomp ositions
s gn
P ri
] (\
deriv ative
l g
Ġex am
pro bability
Ġsummari ze
ĠP er
a dap
ir th
Ġcircu it
Ġpric e
avi er
succ eq
ĠP ut
ga te
Ġs lot
Ġ\texts c
u ck
\bigg l
Ġemploy ed
ros sed
Ġindic ated
_{\ varphi}
Ġl isted
Ġmotiv ation
ta ke
ĠCon versely
)} -
ontinu ous
ma s
\b old
den se
ma gnetic
T V
b n
form ally
Ġcharacteristic s
dot ted
Ġintegra te
ur ve
+\ |\
tor us
Ġback ward
) [\
ĠC ol
Ġo be
exp ansion
ed ges
Ġcap ture
Ġn uc
Ġcol ored
oo lean
is s
Ġtra vel
_{\ R}
}) -(\
4 )}
_{ V}
Ġsug gest
te ful
Ġdetermin ing
)) +
Ġplan es
pro cess
\Q Q
Ġcol lect
posed ness
Ġal gebro
_{ H
G raph
Ġstabil izer
it ting
Ġv acuum
\s p
ĠY ang
^ 9
Ġmultip lying
Ġconcern ed
Ġgeneral izes
Ġ2 1
\lim inf
_{2 4}
Ġredu cible
Ġwon der
x b
it ching
( n
19 99
Ġneighb ors
t n
}} }$
z es
h ic
Ġcom ment
ec ted
Ġpa y
Ġb ad
Ġt end
not in
Ġre ly
\ ^
re a
G ra
bound s
ta tives
P ic
Ġensemb le
is enberg
^{1 ,1}
IEEE eqnarray
_{ 12
ell )}
r v
g p
Ġor ig
Ġwire less
_{1 ,0}
Ġs ending
\v v
Ġde ca
Ġinflu ence
Ġno vel
un ion
go ing
Ġ\begin{ itemize}
n as
ĠAl gebra
^* _\
Ġ(- .
du ctor
_{( 2)}
en o
Ġ\b x
Ġat tract
Ġw ind
M or
Ġ& -
Ġ\ varrho
dis c
ĠA nother
tif y
S im
sco pic
R P
Ġmember s
Ġmultip ly
min im
Ġin puts
vers ality
Ġassign ed
Ġ ^\
ies z
\mu lticolumn
^ P
m ond
)) ^{-
l der
in ation
Ġ\c at
}^{ -\
\G G
, 2
ĠG rothendieck
Ġde fect
Ġcirc ular
Ġrequire ments
Ġrela y
Ġrela te
Ġpref er
es p
)) ,\
Ġg over
Ġimprove ment
Ġ ^{-1}
,\ nu}
P art
H ilbert
ĠF e
i -1}
Ġp iec
\T T
_{ 00}
\I m
[- >,
Ġconsider ations
Ġf usion
ise box
19 98
Ġtr ig
Ġag rees
ellip tic
Ġtrans formed
D ue
Ġgra teful
ĠT hanks
)} ^{\
Ġ\c D
Ġlow est
k h
^{1 ,p}
Ġ\end{ itemize}
Ġcriter ia
st s
c b
[$ (
}^{ [
ib n
^{j -1}
/ [
ct ually
S V
Ġso ft
_{\ rho
-------- --------
' )^
g b
cent ral
te ch
Ġcons equences
_{l +1}
om m
^{ x
\T r
e ctor
11 1
bl ing
ĠR a
w s
Ġscen arios
or ing
Ġmo le
^{s -1}
Ġpiec es
Ġbi as
\O O
( i)}
H K
3 00
S c
Ġp or
re v
_{\ {\
col umn
Ġag ent
var sigma
shar p}
Ġ\ ket
Ġcompati bility
ver b
Ġen coding
Ġ\r brace
Ġcre ate
- )
S m
as sume
Ġbi rational
Ġ\ xymatrix
ak a
, c}
Ġ\le ftarrow
ble ms
UN CT
i ous
Ġre ductive
}_{ [
N umerical
^{\ left
^{- t}
Ġ\l vert
Ġsubs tituting
S uch
^ E
Ġh ar
T H
ĠCo mbining
ma ss
Ġprov iding
m +1}
ĠS O
E X
Ġ }.
au lay
),\ ,
Ġexce ed
Ġkine tic
Ġb ic
Ġa toms
Eq n
Ġben ef
\ implies
x rightarrow
Ġsugges ted
k u
Ġcorre ction
Ġal ign
B i
Ġestima ting
Ġlogarith m
_{ C}
w artz
C ol
Ġmo der
] }{
t ty
Ġ\ prime
ga p
vector s
_{i, k}
are nt
ig ible
red holm
Ġminim ize
Ġcardin al
us s
ĠCox eter
min imum
Ġfrequen cies
\end{ smallmatrix}
P h
^{ b
ĠRe f
Ġex clude
chan nel
Ġro oted
sta tes
al }
y z
12 8
ound ation
\ hookrightarrow
\ ph
ĠM ulti
Ġ _\
\b v
Ġ\T r
coun table
Ġ\ triangleq
Lo cal
Ġm irror
bigg r
h ind
e val
conne ction
Ġjump s
L apla
ed y
^{ M}
u pp
Ġ: =\
Ġdepic ted
t f
Ġstruct ural
Ġprobabil istic
Ġbuil t
Ġbound ing
Ġdig raph
Ġentire ly
}\ }
D A
T e
Ġabs or
ell er
Ġapplic able
Ġpo sitivity
\ iff
Ġdis per
\ j
~~~~ ~~~~
com es
\ De
Ġw alks
*$ -
la ss
Ġ\ frak
\b A
ĠIn stead
Ġass ms
c ref
cor por
O V
Ġam ounts
Ġdevelop ment
G H
\g cd
Ġ\begin{ tabular}
Ġwor st
ti g
ver tices
zeta }
]{ .
bold math
cell s
_{l -1}
Ġsummand s
)$. }
Ġ: \
s n
Ġiter ated
Ġthe ta
^{( p)}
Ġparametri zed
^{1/ 3}
C hoose
)} -\
P I
center ing
O U
ssi ve
pa ck
x shift
^{ |\
Ġquad ra
t um
\d ist
ili ar
re ly
Ġ\P r
Ġbelong ing
o od
Ġfil tered
Ġadj unction
Ġen tangle
}} ^\
B K
] |
\g r
k n
)\ }$.
ĠG romov
Ġ2 2
> "
ma tion
> =
'' )
g cd
Ġ" (
nec ess
us er
Ġex ercise
is y
Ġ\E nd
Ġdot ted
v or
Ġhe uristic
13 5
Ġpe ople
qu otient
U niver
\ un
ur n
Ġinterpre t
it }
Ġans wers
ĠA rtin
B E
Ġg as
Le ft
_{ E
Ġis otopy
Ġachie ves
ĠC ha
Ġ\ sqcup
Ġ\ 1
\ mat
d b
Ġ\c l
U M
Ġ _{n}
Ġindic ator
ĠT echn
in j
) '
t l
Ġvar iations
mathbb m
m ix
Ġte tra
Ġprobab ly
n b
Ġser v
lab or
| |^
sub group
tot al
_{ij k}
qua nti
Ġgeometric ally
\c a
\mu }
da ma
Ġ\lim sup
# #
Ġexplan ation
U p
Ġ} ^{\
G E
Ġl en
sch ild
Ġempha size
Ġla ck
Ġ _i
al t
\S pec
h line
AB }
Ġintu i
per ties
F D
_{2 ,2}
equation s
ĠĠĠĠĠĠĠĠĠĠĠĠĠĠĠĠ ĠĠĠĠĠ
}. \\
ar ds
| /
)) }{
i u
ec ker
)) ^{\
Ġex per
K a
regular ity
Ġev ol
Ġdeal ing
Ġsay ing
tw isted
^{i \theta}
Ġ} (\
n at
=\ !
ign e
ec k
fl align
Ġ\A ut
Ġimple ment
, b
\b R
ro of
ĠC ou
act or
.. ..
S W
C a
Acknow ledgements
C I
tribu tion
Ġ\m y
Ġs pre
ĉ ĠĠ
T P
mid t
_{p -1}
stru ctures
Ġend point
ob tained
Ġ ^
Ġbro ad
Ġ\ne g
ele ments
\ im
O D
Ġ\end{ tabular}
Ġformal ism
ima ges
L u
Ġu l
_{\ Delta}
i ,
j +1}
\ sqcup
G u
do es
ex pres
_+ (\
parame tric
Ġsub module
f c
- |\
Ġcar ries
g rid
) }}{\
ĠD G
Ġse min
Ġ\c S
Ġloc ated
Ġf ront
su ffici
ys hift
nec tivity
Ġstar ted
rb racket
A u
qu ote
chi me
{ ,
R em
Ġag ents
] },
Ġanalog y
iffere ntial
){ };
d h
Ġ\ ud
ur st
du ality
Ġlay ers
Ġ= (
Ġbe hind
Ġcertain ly
E uler
Ġac yclic
con tra
^{p ,q}
ĠS P
ĠHa ar
ro xima
}= "
} ^*$
_{1 ,n}
Ġomit ted
ir reducible
Ġpre cision
Ġfix ing
Ġconsider s
_{ D
h ler
_{ Q}
dis joint
ibn iz
dire ction
p seudo
ĠS te
ĠE s
_{\ell =1}
integra ble
\ ul
z s
Ġmechan ism
Ġmatro id
Ġc he
Ġ( |
valu ating
ger y
Ġ. $
Ġref ined
Ġfree ly
Ġrepresen tatives
k not
d ri
ĠDo es
\p inlabel
Ġcomp osed
Ġfin ds
( $\
Ġtrip les
ter ms
de an
Ġ\mu lti
Ġ& +
\vspace *
' }^
^{ 5
B H
ĠA lex
Ġmodel ing
o tic
ent al
o la
Al gorithm
cccc cccc
Ġcross ings
te m
ĠN umber
or igin
\gamma }
Ġcons titu
strong ly
)}$ $
Ġissu es
Ġcha pter
b and
Ġd v
Ġresol vent
Ġinten sity
be red
Ġden oting
Ġa bu
n v
}\ |_
_{\ kappa}
ĠS ol
Ġun ramified
ju mp
Ġto pic
Ġcand idate
Ġin jection
Ġc rystal
\c c
ĠPro positions
Ġ\c E
Ġ\O m
}} _\
Ġ\H H
Ġpro cessing
ĠN evertheless
Ġ\b R
Ġexpand ing
tr al
ĠH y
Ġallow ing
r un
p tim
Ġaspect s
G R
Ġs ci
Ġpro duced
Ġ\v dash
re duction
over rightarrow
\c olor
Ġco set
ĠD u
Ġpre liminary
gl igible
Ġalpha bet
b P
Ġin er
Ġre ci
Ġro ta
Ġcou ple
. (\
Ġinf imum
approxima tion
Ġfa ding
G N
C K
Ġinf erence
ĠGra ssmann
stru cted
_ -\
_{ P
ĠG er
Ġon line
texts c
Ġis ometries
! }{
n ice
B a
mu l
Ġidentif ying
ide finite
^* }\
Ġfor get
\ ff
rela tive
\prec eq
ĠC ho
con formal
Ġd ro
bra kk
ex plicit
\lambda }
G K
ĠF oundation
+ j}
duc tively
With out
>> >
ival ently
Ġappre ciated
_{\ psi}
a min
),\ ]
Ġ\sup set
Ġhierarch y
_{k j}
Ġwh ence
Ġinclusion s
}) (\
ĠR ad
Ġrestric ts
^{-\ alpha}
Ġhyper surfaces
D iv
inate s
Ġintegra bility
os z
|\ ,\
co mbin
ro tate
c z
B es
Ġho le
modu lar
Ġmin us
- s}
Ġne u
Ġdecomp osed
\b P
Ġqu ar
c ertain
27 0
\ se
^\ #
u zz
no ise
w all
\b Z
Ġsub sta
Ġde duced
p b
Ġnon degenerate
H L
fil led
ot ropy
Ġorb ifold
chime dean
| +\
ĠĠĠĠĠĠĠĠĠĠĠĠĠĠĠĠ ĠĠĠĠ
ex ponential
Ġcomple mentary
Ġscal ed
^{\ ,
\set length
Ġin corpor
ot al
_{3 4}
s outh
ĠM in
ĠSci ences
\ keywords
l ra
di es
_{\alpha \beta}
ĠB oolean
{ }_{
Ġ )^{
la w
ĠF r
Ġeffici ently
co mpl
texts f
_{ min}
s ymbol
Ġ\l Vert
Ġholon omy
)$ };
Ġs ort
\M od
differe nt
vers es
Ġam enable
b ys
10 1
DE s
Ġde st
al i
d ig
p x
hyper bolic
^{1 1}
Ġdata set
Ġe lastic
Ġfra mes
_+ }
el s
ke leton
^{ th}
"; "
Ġch ord
Ġsyn chron
Ġper haps
ound s
Ġk e
Ġqu ality
Ġstr ings
Ġep im
) &=&\
tima tely
v ation
par ticle
Ġrecur sively
Ġre ar
Ġnear ly
ga the
multi plic
T op
Ġspar sity
^* \|
Re l
Ġexam ine
|| _
Ġprescri bed
^* -
Ġin trinsic
Ġ\prec eq
example s
Ġparame tric
ĠLa urent
H D
Ġhyper planes
Ġsol ver
hom omorphism
Ġrecon sider
ĠP e
G en
Ġsh rink
Ġdesign ed
f m
Ġis n
Ġver sus
Ġtor i
Ġcomp ression
Ġfurther more
}) )$
Ġpres ents
ĠF lo
iv ing
para m
ĠI m
n l
,\ gamma}
Ġrough ly
S imilar
sing le
P E
Ġg ames
Ġ\ supp
] _-
ve p
_{x, y}
t v
^{ K}
ĠT r
z i
Ġref ers
D en
Mac aulay
Ġclu sters
Ġtransmit ted
ĠP hy
Ġbox es
\r r
sc end
Ġmin i
ent ropy
Ġco s
Ġ\ st
Ġan tic
Ġ\la nd
Ġconjecture d
Ġac cep
E d
tan h
}) +\
rr rr
Ġconc aten
_{\ pi
=\ {(
ĠS tokes
Ġmess ages
d ir
\S p
r cl
Ġstri p
Ġp lease
ĠCal abi
s qua
Ġun ipotent
Ġcell ular
class es
_{l =0}
Ġ\b u
F M
h f
Ġvis ual
= >
Ġhom otopic
Ġfinish es
Ġ\d ownarrow
\f oreach
iv ari
Ġappe ared
Ġcli que
Ġ\ iff
on ically
Ġsupp orts
Ġ\c P
_+$ ,
sta tionary
Ġdistor tion
ĠC ayley
\ vect
Ġsur vey
Ġ2 6
or bits
Ġ&= &\
! $
al a
stra p
)= {\
co vered
Ġsub division
, T}
ĠMathe matical
al an
Ġsumma ry
L O
\new page
ho ff
dama rd
\ mm
^{ L}
|= |
Ġin comp
Ġray s
inte ger
_{k ,n}
\B B
o st
N e
_{3 2}
Ġtrunc ation
}) -\
Ġob sta
Ġdis ks
Ġshift s
Ġt rack
Ġpro x
^{ '
ial gebra
Example s
Sub stituting
ga m
Ġ> =
IN R
Ġsmooth ing
N C
S ha
ong leftrightarrow
j an
W rite
Ġper turbed
Ġabu se
F A
ĠH ardy
Ġin her
ashi on
ho ods
h skip
i vers
Ġanten nas
mu ra
quad ratic
b h
}{\ |
Ġ1 99
Ġsign ed
_{ loc}
ode s
ĠCh ina
ba tim
Ġ2 7
Ġsqua red
Ġ\ Y
def ault
ot one
Ġany thing
ĠP re
provide d
, |
ĠS imilar
n one
\la m
Ġlabel led
Re p
a ut
g ives
ivari ate
Ġpoly topes
_{\ delta
,\ tau}
_{\b ullet}
Ġcompac tification
, k
Ġlo ad
g d
Ġra pid
Ġapproxima ting
Ġsh ifted
Ġt un
er kin
ha nce
Ġdifferential s
io ds
Ġn odal
in put
re nts
ho ck
){ {\
Ġbracket s
\b C
Ġany one
Con dition
, *}
ne ar
}\, ,
Ġparametri zation
s olutions
Ġord inal
Ġad opt
Ġcoun tably
} '(
d )}
v f
j i
Ġbranch es
19 96
e fined
' ),
Ġm m
Ġreco vered
U E
righ th
v ability
con f
\c on
\ ad
F unction
ĠI V
ĠCar tesian
N orm
Ġ\m f
ro x
'$ -
Ġat tained
I L
N et
}\ {\
c x
ledg ments
Ġb ulk
_{1 5}
\c V
han k
M D
The y
ch ite
\d om
Ġd B
v g
], [
\ sc
j class
co herent
L arge
Ġpha ses
Ġ2 8
Ġann ulus
lo ss
Ġimp osed
h ou
math it
Ġsur prising
Ġreco gn
}= -\
^{1 +\
IEEE proof
Ġatta ck
Ġ" \
^{(\ alpha)}
\b d
^{\ mu
Ġta me
)}{ |
Ġcontrac tible
_{\mu \nu}
) ^*\
ĠM y
: \\
] +\
ma rgin
) )\,
ver sion
ynam ic
Ġcost s
Ġchall en
row th
rig id
* -
Ġsub variety
p ed
Ġcon ject
olog ies
\tau }
Ġ\math op
n x
00 000
Ġask ed
s parse
te ct
Ġtopolog ically
ĠA P
v ich
Ġperform ing
osz ul
in o
operator s
cr it
Ġta n
S ing
Ġevery thing
^{\ pi}
Ġlinear ized
c en
t raction
u es
ha ble
ĠA belian
tr unc
Ġpenal ty
K u
Ġare as
ww w
ĠN ational
Ġm ild
^{( q)}
at um
compati ble
Ġeigen function
ic z
Ġ\c B
ht b
Ġsummari zed
is ter
Ġshor test
bf x
var nothing
are st
Ġme ta
f d
l k
Ġsw itch
asi cally
v olume
Ġori entable
ti zation
Ġ\ th
Ġanaly zed
Ġp i
^{1/ 4}
}( [
Ġpe ak
L A
e ld
y i
i math
> )
Ġgeneral ised
hed ra
constra ined
Ġhe ter
\d is
tern atively
r ich
qu et
S NR
)^ +
75 0
Ġfunctor ial
Ġwor ld
the refore
math ds
_+$ .
later al
Ġcontinu um
Ġget ting
Ġintersect ing
Ġwide ly
P A
Ġco prime
Ġ| |\
Ġconclusion s
Ġdiffe omorphisms
ĠBes sel
repres entations
Ġin ductively
ar b
)) -\
u er
Ġmulti variate
si bility
Ġfam iliar
f our
hom otopy
_{p +1}
}{ {
,\ varepsilon}
ding er
Ġtransmit ter
Ġque ue
} ^*\
Ġcounter part
ĠÎ ±
Ġmut ual
Ġpri mal
ĠPic ard
G A
Ġ\h bar
da ble
variable s
sure math
Ġe f
ĠK illing
z ations
y a
Ġcorrect ly
po le
ot s
dec ay
lug ging
P ol
,\ ,\,
ron ecker
Ġ ĉĊ
s ay
sh ort
> (
I ST
Ġtrans versal
partic ular
Ġâ ī
K P
M N
T rans
ĠRes ults
s b
code s
co cycle
\D D
gathe red}
Ġpre condition
Ġrad ical
Ġad op
en e
de finite
Ġma ssive
is om
} |_{
re lated
Ġb os
Ġma cro
ĠAn alysis
\r b
oh n
ce d
Ġadjac ency
]^- {
model s
Ġ er
be ll
ic ular
a w
m rm
_{ 7}
ĠC a
simple x
L C
Ġe lim
- n}
erm ite
Ġvalid ity
_{k, l}
a e
ci ties
^{2 \pi}
ĠĠĠĠĠĠĠĠĠĠĠĠĠĠĠĠ ĠĠĠĠĠĠĠĠ
Ġins pired
Ġtra de
Ġve hic
Ġsemigroup s
ogen e
Ġf lexi
bb on
Ġsur jection
K T
Ġref lexive
= {(
Ġhe l
Ġpoly g
c I
Ġag gre
Sp in
Ġpo p
- {
ch es
ĠPro p
G reen
d n
ĠS V
weak ly
}) _{\
b alance
_{3 3}
pend icular
Ġcla ri
imodu lar
top ology
pid al
M odel
rg b
lif ford
base line
L B
ĠPro perty
}\ }$.
cont ents
sto chastic
ĠDe l
Re al
diff erence
Ġeffec tively
ĠHe isenberg
=\ ;
par ts
ĠG roup
Ġsw itching
Ġ\ im
Ġout line
tiv ation
Ġcontro ller
Ġexperiment al
Ġspec ies
Ġamb ient
b q
Int ro
Ġconcentra ted
Ġ\text normal
4 00
Ã ¶
)} ;
ĠS ti
ĠR HS
ĠC M
ta ne
h or
Ġreal izations
Ġ\def eq
19 97
' ))
ĠA D
z able
ire cted
^{ c
Ġop tion
\ if
Ġf ashion
is ms
ĠĠĠĠĠĠĠĠĠĠĠĠĠĠĠĠ ĠĠĠĠĠĠ
s est
tr sim
Ġtrans lations
^{\ sharp}
M an
Ġclo ser
Ġ 90
ĠEx t
on ic
Ġconven tional
ĠâĨ Ĵ
Ġp an
Ġjo ining
\b q
in ds
Ġorth ogonality
^{ h}
ve ps
^* )^
H z
d c
v o
la ps
ĠMon te
Ġgra vi
_{\ la
\c K
}+ (
Ġc are
}_ *
Ġcompu tes
Ġmultiplic ities
Ġ )$,
Ġre ducing
Ġ\text color
m v
,\ epsilon}
Cla im
\f r
Ġf an
note q
d omin
k t
tiv istic
}} [
m -1}
| (\
pect ral
SE Q
Ġanaly tically
[- ]
Ġpack et
{\ '
li que
ĠS tate
Ġq ed
ĠRe al
tif ic
\k k
ĠS L
ĠIn ter
wo od
Ġpun cture
ĠG orenstein
ian s
Ġen ables
ir s
'' }
\sub jclass
Ġband width
Ġdig its
Ġsem idefinite
s sec
j -1}
or age
^{\left (
Ġsta tic
Ġnon local
lim sup
on ds
Ġco herence
ĠC lifford
main thm
\n eg
T or
ĠM AT
Ġran ges
de pth
ĠI N
corre ct
Ġco bord
Ġ ~~
F R
v w
ro t
^{ L
De l
) )}{\
D f
ĠN on
orem entioned
_{2 i}
Ġanalog ously
^{t -1}
Ġsucces sive
P e
comp are
co st
ĠQu estion
^{ 6}
, u}
ed ia
ĠE ven
Ġun like
_{ W}
Ġtriangu lated
ol l
k r
Ġcon served
ce ed
bre ve
Ġme ets
E A
Ġres ource
c V
Ġout puts
No tation
Ġco product
U ni
in jective
+1 /2}
\c olumn
ĠN avier
Ġcalcu lating
Ġsimilar ity
f ix
Ġ\v p
colon eqq
up s
,- }
Ġ tes
Ġsubs titute
id is
ec omp
\S ym
Ġsen sing
Ġ\math ds
Pro j
Ġcaus al
d k
Ġclaim s
)_{ (
Ġaddition ally
ma rtingale
ĠOb viously
\begin{ matrix}
Ġlocal ized
ĠN e
Ġar chite
Ġcontinu ed
ens en
cur l
S K
Ġvar ies
Ġsub manifolds
)\ !
me thod
\n c
^{- j}
_{m n}
Ġapp arent
Ġtru th
Ġanten na
ĠBayes ian
T C
Ġsite s
Ġthem selves
Ġcontradic ting
w i
L inear
\sup set
)] ^
Ġg er
Ġ( (\
^{( 4)}
B ased
Ġful fill
l vert
n ov
fil ter
,\ theta}
M O
ip u
Ġh idden
ab c
ru e
em bedding
\b p
Ġ\ j
top ological
wr ite
Ġdifferenti ation
\xymatrix @
s pa
_{ AB}
Ġhy pe
B T
W itten
Ġ\ La
){ .
Ġ\lim inf
R M
lin ed
ok ing
ta ils
> $
Riemann ian
P M
_{\alpha ,\beta}
Ġimpl ied
text color
R F
cross ing
Ġcomp arable
\ on
the y
T ri
ategor y
^{2 m}
re lations
rac le
\n i
Ġ\I m
Ġbifurc ation
d W
pr p
Ġacceler ation
_{0 ,0}
Op tim
en ti
bys hev
' }$,
Ġarrange ment
ĠG eneral
H I
\l ra
d S
^{(\ ell)}
ĠN SF
Ġmode led
Ġarri val
ĠT op
Ġn a
ch en
^{ T
ier stra
b theta
_{- 2}
Ġinsta nt
Ġ _{i}
Ġamb igu
o dot
Ġutil ity
Ġ )=
Ġc rossed
Ġf ac
Ġ\ ex
a q
nd s
e p}
.. .,
Ġno isy
}^ -
,\ sigma}
in ct
Ġaf orementioned
\G r
Ġgeneral izations
\over rightarrow
tang ular
Jaco bi
Ġloc ations
_{ in}
f teq
D i
\sub float
\g l
] ^{-
\o dot
Ġ\b v
^{ 5}
Ġ\l brace
Ġs ti
\column width
name ly
Fig ures
th rough
B W
Ġ\d x
\c line
_{s =1}
Ġdiff ers
htt p
n te
Ġ ],
b imodule
â Ł
^{2 n
ĠB a
} '\
Ġx y
f ast
ish er
s r
Ġaverag ing
_{i, 1}
Ġresi du
v phi
Ġcan onically
Ġphenomen a
\subsubsection *
serv ation
\in \
^{ u}
ĠRE AL
H amiltonian
} '_
d R
equ i
Ġquad r
pa ss
{\ {
ĠCar lo
{ +}
parameter s
ĠD en
14 0
_{s -1}
Ġ\ vect
, +}
or ting
Ġ\S pec
Ġatom ic
Ġsc ore
Ġimplicit ly
Ġhy brid
Ġpoly hedral
Ġ enter
2 10
ĠF redholm
Ġ\b Z
^{n +
determin ed
: .
j a
ĠP h
ĠR iesz
Ġrefor mula
^ Y
O pt
uni versal
Ġ\c line
Ġexplo it
C V
Ġsample d
C ho
depend ing
,\ eta}
^{\ theta}
Ġir rational
mid way
Ġ\ one
ra tio
Con vergence
ĠC S
Ġnon singular
Ġinitial ly
ĠT rans
Ġabs ence
O L
coeffici ents
ou ter
B oth
Ġd atum
Ġex ec
^* =\
r ings
ĠAs sumptions
\ phantom
Ġ\L eftrightarrow
clu ster
}_{\ {
Phi }
on om
it ness
H C
V I
Ġne gligible
\v dash
^{2 /3}
re y
Ġquadra ture
@ {\
ob j
}) )\
Ġquick ly
co homology
Ġuni verse
Ġfre qu
D L
Ġthrough put
ul tra
se y
m or
G roup
M I
_{ *
ĠM ac
S te
a ves
ĠV ar
Ġ\ >
Ġconf usion
Ġimp lying
po lation
pa per
ĠPDE s
R G
c v
Ġstra tum
Ġcu bes
Su pp
tru cture
_{s +1}
ent ral
_{ J}
Ġrep orted
yn man
ĠNo etherian
{\ |\
_ _
Ġper pendicular
Ġful filled
ĠAs suming
Ġoper ad
Ġinvestiga tion
_{ 8}
Ġobserv able
Ġsubsta ntial
tur ns
app ear
Ġd ra
normal ized
ound ed
}}$ $
lo sed
Ġdis placement
scal ar
Ġle d
R A
ĠA SM
^{ {
ir k
ĠRad on
_{\ infty
Ġbig ger
Ġcha mber
Ġ\ tensor
ĠH iggs
ra t
w itz
Ġn ested
19 95
H F
j unction
Ġhyper geometric
Ġdis continuous
_{1 /2}
ð Ŀ
W ang
Ġspin or
3 60
kip edia
Ġmix ture
x z
ps picture
F orm
arpoon up
ĠB ol
24 0
ey words
Ġmark et
cite p
Ob viously
ĠG rant
_{ U}
i ti
Ġrequ iring
ind rical
~$ (
Ġobserv ables
g ment
Ġestablish ing
Ġgener ically
Ġev idence
^{\ #
Ġst orage
Ġclo ck
per turb
Ġserv ice
+ +(
\ uparrow
ĠThe ir
Ġdemonstra ted
cho ice
tran sitive
\e a
Ġ\end{ matrix}
* }\
_{2 0}
Ġreplace ment
Ġpop ular
\ di
ĠH amilton
ss on
au tom
c g
)| _{\
\delta }
S tar
la sh
ĠR ham
Ġd ic
s mash
trans form
ĠT e
po lar
As suming
princip al
Ġquanti f
1 12
Ġpro jector
)\ }\
Ġ ener
Ġ& \\
Ġcent re
n k
ta ges
\c I
ĠG ibbs
16 0
_{i =2}
^{- i}
ill i
ĠU SA
Ġorig inally
Ġ }^
Ġ\ phantom
Ġwind ow
' \|
Ġadj ust
cover ing
Ġso on
c of
t m
Ġnumer ator
H T
ian ce
^{j +1}
B OO
su mma
^{- 3
Ġclassif ied
( k)}
_{1 6}
al d
}/ {
Ġcon ic
Ġw est
_{n +2}
Ġ\d iff
T x
Ġ4 5
}, ~\
W W
= (-
ĠS eg
Ġderiv ations
ite ms
_- ,
_{i,j =1}
el se
ori ented
Ġp ul
_{\ t
Ġ\F F
enum i
Ġ3 6
= [\
Ġmultipl iers
)} |
_{\ theta
}) ^\
}[ {\
Comp arison
N A
ĠH el
app ly
U B
bi ased
\sigma }
^{ h
Ġh tt
Ġcommu tation
ĠM ori
ur ity
> -
Ġpre image
deg ener
gor ov
Ġobser ving
Ġdy adic
Ġf i
ra nd
x s
Ġout come
L in
ĠM an
^{\ beta
Ġdis connected
supp ort
r it
Ġ\ beq
ĠLe ibniz
s ymplectic
] )$.
ĠC antor
Ġextreme ly
Ġab bre
sem igroup
eng ing
^{d +1}
ti a
Ġillustra tes
Ġ\U psilon
. -
Ġ\ ds
}} ^{-
diff usion
+ +
ha se
Ġear ly
Ġsp ir
Ġ\d ist
se mis
velo pe
Ġocc up
p ure
ĠO nce
sw ap
ĠK lein
, 4}
Ġw in
)) +\
Ġmod ifications
\ rank
Ġpoint ing
Ġretur ns
] }(\
Ġhyper graph
is er
Ġexplo re
ierstra ss
' }{\
pro ve
Ġ\b mod
G T
ua te
^{( m
Ġ6 4
\ ii
var ieties
_{N +1}
Ġpropor tion
= |\
_{2 m}
Ġreci pro
Ġvarian ts
n umerical
} *{
_{\ R
Ġjoint ly
Ġtherm od
ĠB ob
Ġconserv ative
-1 ,
We yl
Ġplot s
} "
_{t t}
k ind
Ġaugm ented
Ġco oper
@ {}
Ġ3 4
im es
Ġ\L L
Ġver ifies
_{2 n
condition al
f ile
Ġyield ing
Ġ\ se
\s b
| ^{-\
_{r =1}
Ġf ee
{- }\
Ġsub algebras
ĠA m
Ġour selves
Ġcu mula
^{ M
\bigg r
Ġprog ress
Ġ\l ceil
\ 1
Ġvirt ue
G W
T ype
] -\
_{i 1}
prop to
w est
\text tt
Ġram ified
Ġ\c on
Ġro tations
] /(
ĠRe g
] }$.
ĠM L
^ W
conver ges
ĠF ano
f u
b g
}\ ;\
cus sion
ĠN P
pla cing
Ġa da
\C P
\K K
Ġredu nd
F I
Ġs end
_{\ell -1}
\b oxtimes
color ing
cur ves
Ġcou nts
Ġman ipu
D T
\ move
la nt
Ġ\multi row
Ġsepara ting
; $
,\ beta
ĠB ased
gree k
] }{\
av y
Ġinter tw
^ !
Ġpass es
per mu
Ġcode word
Ġchar ges
Ġt rick
F r
== ==
k x
iffere nti
ĠLi ouville
Ġsu mming
\ tt
\b ra
_{p ,
Ġs tyle
ust om
\mb f
ĠS p
ĠFlo er
Ġp il
]= [
Ġcontribu te
Ġ\ medskip
^{- m}
Ġa xi
par r
an e
)| _
ormal size
Ġ\r d
Q P
plit z
ara bic
f ields
Ġsta tistic
b F
x ag
Ġc yl
alu e
Ġgravi tational
_{ Y
ge odesic
Ġ, $
Ġlear n
Ġthere by
Ġover lap
_{ J
k p
})$ -
Ġp ort
Ġneighbor hoods
F ourier
Ġconcer ns
\b t
As sumption
_{ o}
it ney
Ġse es
O C
in variants
ret ch
character istic
}\ !\
Ġequ ally
quen cy
cha nging
Ġsub scheme
# \
Ġper iods
righth arpoonup
in er
Ġst ud
ull back
H ar
o y
H J
H opf
Ġgra dients
b G
ol mo
\M M
coordinate s
19 94
reg ion
_{ 8
et o
Ġsol iton
IN SEQ
differe nti
Ġrestric ting
Ġmole cu
\hspace *
alog ously
pro tect
la bility
ill en
pres entation
Ġsupp osed
Ġmon ic
Ġa cknow
\c U
ne xt
R W
Ġ }\\
when ever
, y}
Ġreac hed
ch mark
Ġtheore tic
s ks
Ġsimpl ifies
Ġdis t
Ġillustra tion
gu lari
Ġho mogen
Ġhist ory
Ġtemp oral
_{k +
tri zation
Ġstre am
}} }(
^{- x}
ĠWe il
ran e
\in ter
\S i
\u psilon
O DE
_{ <
Ġrecur rent
Ġ\ mat
Ġasser tions
trac ting
Ġtran sitions
Ġ\c X
L og
Ġri bbon
Ġf ibrations
ival ent
/ {\
Ġstu ck
Ġfrac tions
Ġrescal ing
Ġchall enging
\!\! \!\!
dynam ics
R N
f erence
ill s
ĠB ar
Ġ[ ]
s al
s F
C om
Ġext ract
Ġalgebro id
su it
Ġ\ un
ĠL inear
Ġen hance
l Vert
Ġauto ma
ĠS tr
25 6
polynomial s
net work
U U
ing ly
hea ves
asso cia
r up
con clusion
^{2 n+1}
ke wise
Ġfluct uations
ex a
S H
Ġ\f ootnote
multi plication
Ġiter ates
ub ert
Ġellip se
^ U
T ime
G o
Ġtran scend
> *
Ġmost ly
Ġo u
b or
,\ ;\
och schild
s hip
^- _{
ĉĉĉĉ ĉĉ
Res ults
al p
ĠA lice
ĠA ut
\b X
Ġcorre lations
non linear
Ġe valuating
^{( a)}
Mar kov
. }.
\d dot
Ġplay ers
head rightarrow
e plitz
_{\ell +1}
ub ini
Ġattract or
ynam ics
^{- i
com m
nd ard
ĠTechn ology
^{ [\
Ġcon nectivity
\math ds
U T
ua n
Ġ{ -
Ġb oot
Ġco f
che t
an ces
Ġtra ffic
Ġlink ed
lat ors
ax ter
Ġne arest
' "
Ġen coded
_{q +1}
ma ge
r x
prec eq
E dge
th ods
an cy
)^{ |
i ence
\ ord
Ġs igma
Ġgroup oids
Ġ\S ym
Ġconf idence
_{i, n}
ĠĠĠĠ ĉ
Ġ1 000
_{d +1}
ad ditive
, #
l c
] ]$
Ġcluster ing
Ġiter ate
Ġfail ure
ta rily
Ġv ice
Ġtra ditional
ll ll
\ appendix
ar gu
\q bezier
)\ }$,
ua ng
Ġi i
e ither
Ġd amp
}\ |^
ho le
},\ ,
ol lari
text greek
T F
in cluding
den oted
co lation
omin us
sub ject
ap s
con tains
]{ }
Ġ\o dot
comp arison
Ġ\b C
B u
Ġpolari zation
Ġsubgraph s
ex ist
Ġ@ >>>
Ġcur ved
mogene ity
N L
\s m
Ġhom ological
Ġepim orphism
d dots
ide l
ff er
res olution
\b H
me as
bb R
\p f
Ġscalar s
p lying
E F
\ &
Ġ\g ls
10 5
b Q
)$ ),
ign er
K R
F e
Ġintro duces
_{A ,
&= -\
BOO LE
cale box
m ixed
ot ents
r iting
}) }$
] (-
u su
Ġ\ ms
Ġplace d
tal e
r ceil
^{p +1}
onom ous
) _+
) ^*$
ak i
l ished
ver batim
act s
Ġtrans pose
Ġincre ased
}} ]\
Qu estion
\ table
Ġcur rents
ho p
Ġc ustom
T a
Ġ\ newcommand
con cave
, [\
ou x
cl ip
ĠEq uations
Ġtang ential
Ġagree ment
\p gf
Ġsatura ted
Ġsur gery
ĠK ronecker
Ġun changed
+1 ,
Ġkeep ing
Ġhe ad
f b
Ġlinear ity
^+ _{\
\math tt
**** ****
_{2 n+1}
^- (\
Ġ\O O
b H
O ver
Inte gra
Ġans atz
al ing
\c Z
Mat rix
co h
{- }[
out put
Ġcomputation ally
v )}
neighbor hood
N a
h )}
cont rac
Ġface ts
Ġ\b oxtimes
app ing
'' (\
b low
Ġindivi duals
13 0
Ġemp lo
olmo gorov
Ġde li
ollari es
_{n ,i}
action s
Ġrigid ity
y low
s lo
Ġul timately
Ġ\dots c
Ġins ight
tri m
Ġthink ing
sche tz
Ġregulari zed
Ġcommuta tivity
| ~
il nor
split ting
Ġ .\
Ġre min
)$ ?
cou pling
' -\
ĠSch warz
Ġspir it
| )\
' >
_* ,
r times
conjuga te
A F
\colon eqq
Ġse man
Ġ`` $
}= [
ces sible
A H
e z
Ġcurrent ly
/ ^
Ġcha nged
ob tain
on ometric
err ing
Ġta ut
Con jecture
R ed
compon ents
] )=
tiv ated
lus h
[ {
Ġquanti tative
_{\ C}
high er
asser stein
a gain
ub ble
p at
Ġpossess es
Ġ\ ul
Ġb ridge
uni tary
}= {\
ve ction
' )=\
Ġpower ful
htt ps
ote q
cons istent
Ġb last
an a
Ġw i
Ġ= -
ac tive
R L
ĠC SI
_{t =0}
ograph ic
_{i +2}
ĠEn gineering
' +\
Ġ\ pre
Ġada pt
Ġex amin
Ġan isotropic
lap se
clo sure
Ġingre dient
if e
( k
Ġsimpl ices
B O
Ġto wer
Ġ\n i
restric ted
; \,
O MA
ĠP oint
SE T
Ġfin iteness
gra ding
Ġ3 7
b ib
Ġ\ atop
ĠS um
er iv
Ġasser ts
Ġir re
Ġ\ scr
Ġcu ts
per fect
cur vature
) `
Ġcon sumption
Ġ1 98
Ġno etherian
ĠLegend re
Ġf ract
Ġ items
B Z
^* }$
ĠRE WRITE
c Z
q n
in duction
Ġev ident
_{g ,n}
Ġan om
)\ <
) *{
N E
Ġtrans late
o cal
| }$
Ġcommon ly
bund les
r inf
Ġga mma
\b en
\ tan
A m
Ġ} =
\S et
Ġ _n
In f
h p
are a
Ġ\d om
e ast
(\ {\
ed a
ĠS a
lf and
Ġmedi um
col ored
en ing
^- ,
in variance
decor ate
Ġrec tangular
^{-1 /
Ġle x
))$ $
\b G
ĠMa in
R D
ar ding
Ġ _k
{ ,}
Ġs ensor
Ġstructure d
T E
V E
})\ ,
H u
Ġentangle ment
Ġto ler
Ġput ting
j pg
Ġpropa g
han nel
f undamental
\A A
str ut
A E
Ġremark able
s P
\ alg
h dots
Ġclassif y
Ġcondition ed
C W
Ġover view
Ġver sa
Ġcre ated
f la
Ġx s
cur rent
Ġdifficul ties
Ġout per
tri v
lo ch
Ġsa w
}= -
ti os
\b k
' }_{
ĠG raph
Con v
Ġsu p
O nce
is tance
n ter
ĠN at
Ġrepresen table
ur witz
u ri
la tive
pro x
Ġcover age
_{n, j}
ĠEq s
)} )$
c ot
G ener
ef schetz
tz mann
ro se
pro blems
ian g
Ma the
Ex istence
Ġidentif ies
t uples
Ġs hock
Ġoscil lator
Ġo racle
)} )\
Ġ\ sc
In v
Ġ\mathbb m
, w}
Ġ\ di
Ġs y
co pe
is c
)$ \\
Ġun imodular
S Y
_{ U
ate st
ĠN AT
ull er
land s
+ s}
Ġtil ing
d A
m g
effici ent
L G
spect rum
Theorem s
b T
C he
\ rk
Ġsta tion
Ġr ich
Ġtable au
fig s
Ġpotential ly
_{k ,j}
_ !
en suremath
Ġvol tage
re si
}- (
Ġco tangent
asi bility
Ġfair ly
Ġ\ ss
Ġh ermitian
ĠAd ditionally
Ġpositive ly
Ġf lo
^{- (\
ĠA b
}\ |_{\
^{q -1}
ĠWi ener
Ġc ause
^{ A}
ic it
an alysis
Ġ\c G
\S O
^*} (
Ġtrac es
_{n \rightarrow\infty}
ittle wood
ĠMax well
ĠS erre
Ġpref ix
val id
l ies
ĠExample s
Ġsubt le
Ġrecor d
y er
)} .$$
Ġf ile
{} &
ĠHa damard
Ġcohom ological
Sch midt
balance d
D I
ven ess
19 93
Ġrescal ed
Ġrece ive
for th
Ġdiffe omorphic
fib er
Ġ\sub section
de sc
n y
sche mes
er ve
ĠPhy sics
Ġp hi
Ġde cor
al ong
ĠR ob
res pect
function al
the tic
.. .\
}{ }{
ĠB etti
\L eftrightarrow
+ [
_{\ e}
\X X
min ation
vers ally
Ġtra in
}\ \[
' }^{
T A
: {\
) ?
Ġla nd
Ġen su
Ġ4 8
} ]$.
ĠTh roughout
pdf string
Ġg erm
star t
So bolev
redu c
R O
Ġcorre lated
Ġbeha ves
et }
or pdfstring
po st
Ġ\var nothing
b B
pe ed
st retch
ni k
Ġexten sively
Ġfib res
Ġrelax ed
lo mb
Ġsha dow
Ġme rely
ĠT M
)) _
Ġref ere
Ġ\ Ext
00 5
Ġdete ct
Ġconject ures
Ġ2 9
fteq n
H E
Co h
Ġlabel ing
Ġstra ta
Ġsui tably
Ġ\var pi
pan cy
rela x
t g
re cy
-\ {
Ġa ir
Ġnonlinear ity
Ġ\bb R
Ġin d
Ġcategor ical
in y
an ted
et al
S ystem
Ġcar tesian
}| ^{
Ġparameter ized
| }{|
}} },
Z hang
am ming
Ġ ,\\
Lag range
P oint
} &=\
&& &
ss }
}}\ ,\
an ov
sta bil
Ġover come
Ġbran ched
ĠChe byshev
Ġreal ize
d q
os en
Ġ\e ref
^{( -
comp osition
Ġgeometric al
. "
ens tein
ca de
Set ting
\ tikz
ĠK oszul
r w
con tained
_{2 j}
Ġis otropy
Ġk inds
of contents
ar bitra
Ġper forms
Al gebra
}\ }_{
Ġ\c N
b S
Ġv an
Ġrela tes
Cont inu
_{\ xi
Ġbeam forming
Ġho mo
^{ g
ĠK u
Ġshor ten
w or
Ġa part
path s
b ul
A ss
divis or
^{t +1}
and au
Q R
} ^*(
ri ds
Ġop tions
ĠO ptim
Ġ\h skip
be ha
L U
ĠD es
C ov
Ġin jectivity
Ġelectron s
Ġc au
Ġsmooth ly
\b S
Ġmaxim ize
Ġfrequ ently
Ġpoly hedron
Ġface t
_{1 :
'' _{
Ġstack s
ator ial
inc are
ough ly
W here
b j
tabular newline
Ġ\v v
C ond
d X
Ġ\S tate
be ds
Ġ\sup seteq
der s
an }
ĠĠĠĠĠĠĠĠĠĠĠĠĠĠĠĠ ĠĠĠĠĠĠĠĠĠ
\ underbrace
tane ous
Ġ\ Ga
Ġintegra ted
lines kip
y e
in formation
ĠS hi
ĠH an
Ġn otes
|\ ;
z c
Acknow ledgments
[ ]{
Ġram ification
~\ (
_{\ m
re ma
Ġ\ ts
ĠF act
\l ie
^{- 5}
^{2 d}
ĠDe f
}) ).
n h
s v
) ~\
Ġsee k
Ġimpro ves
C hen
Ġdev ices
ĠĠĠĠĠĠ ĠĊ
\math op
Ġ\ newline
set up
Ġ\l t
^{( i
ĉĉĉĉ Ċ
Ġcheck s
lat ory
ful ly
complex ity
Ġres ources
^{\ frac
bigg l
it o
Ġmultipl ied
ĠP lan
show s
\b lack
)) "
ti ght
), (\
unit length
\d t
Ġminim izers
0 10
ĠD MS
set ting
b )}
Ġex position
Ġcheck ing
le ctive
co mb
tw ist
Ġformula tions
S tate
D B
ni kov
Ġ\ if
Ġintui tive
ĠM ay
Ġ\pa ren
or ms
st u
R I
f olds
ĠA u
Ġreach es
me tis
Ġhy dro
f ront
}} |\
Ġadd ressed
rec tangle
Ġb asically
\n a
to chastic
Ġser ver
Ġ\ sf
aa a
_{\ epsilon
eff ective
ro man
Ġ\ ch
_{ V
\p mb
Ġnor med
w d
ex tended
order ing
triang ler
}} }^{
E ven
] }$,
Ġinter acting
Ġsing leton
cl in
] $$
Ġcomp e
M U
if ert
sis tency
E V
Ġ\I d
^{\ gamma
} &=
ĠG u
*} [
Ġnuc lear
Ġ\d t
Ġwe dge
ĠPro f
^ Q
ĠI d
\v c
_{0 ,\
Ġ\S TATE
den s
_* ^
{ +
Ġ= -\
_{n- k}
}$ ),
Ġ\hspace *
}\ ,\,
Ġfore st
D es
Ġsub script
ol ding
Ġ= >
ĠSub set
\v ol
Ġtrans lates
ĠU p
Ġrela ting
correspon d
ga uge
^{0 ,1}
cise ly
v atures
Ġmonoton ically
N F
Ġener gies
+ i}
m orphisms
Ġne f
\n mid
ĠP ri
\p d
Ġy es
M u
Ġr ng
_{\ v
Ġas king
ach ing
ĠFe ynman
Ġinc idence
c Y
âŁ ©
turns tile
}{ #
res ol
b ad
}) --
Ġsh aring
Ġ\B ox
) ).$$
h orizon
P f
č Ċ
E instein
ro d
Ġreflection s
\in\ N}
ro bust
Ġconf used
Ġ\ si
as sump
il }
inter pre
Ġprocedu res
Ġcongru ent
ator y
\Omega }
h g
, 1
y x
le ma
st re
tic ity
tri zable
in ver
S G
Ġsugges tions
_{1, 3}
Ġp in
he at
ĠD ynkin
Ġc ame
ver ag
Ġc s
_{0 2}
sta ge
L p
}{* }{
Co mplex
Ġen jo
lot omic
Ġcenter s
Ġun countable
P F
\big wedge
ogene ous
ĠS ha
us z
)$. \\
m ical
}) /
estima tes
section s
ĠB V
ho st
, &\
hi ps
al tern
_{\ g
\f p
el t
Ġimplic ations
Ġconven tions
Ġ\sin h
E v
s ystems
imodu les
le igh
Ġobsta cle
}$ \\
\bb R
\P ic
ĠB efore
Ġboot strap
Ġexpla ins
Ġund irected
Ġupda tes
or tant
c lock
m ode
Ġminim ality
ĠDel igne
O }
Ġsent ence
Ġexhi bits
Ġmini max
sta t
Ġmu ltic
Ġhe xag
ol s
ĠC W
ĠK ac
ĠS tar
[- ,
a de
_{ 7
Ġser ve
\S S
Ġadmit ting
ar ity
Ġtan gle
ac ute
ord in
b ottom
Ġen velop
Ġe ight
ĠF ubini
b in
infty )}
Ġlim i
fin t
ime ter
] /
Ġ\ ie
Ġ= :
Ġ\c T
Ġper colation
Ġref lected
Ġ\c olor
bur g
\ sq
un if
necess ary
c lear
_{k ,i}
Ġequilibri a
Ġfill ing
ĠCon t
cap tion
finite ly
_{( 1,
ga ard
triangler ight
Ġpack ing
Ġin homogeneous
\ mp
Ġfew er
Ġcareful ly
Ġdi lation
S ur
ĠUniver sit
B ra
Ġ\ and
^{ K
ĠGal erkin
}| _{\
Ġdec ide
Ġdou bly
ĠAlex ander
\table ofcontents
)| $.
Ġappropriate ly
ĠLegend rian
e k
at s
Ġde formed
adj ac
_{k -2}
\C al
Ġgain s
cor r
Ġincomp ressible
di tivity
ak er
dis tingu
\add plot
ab or
Ġcomp r
Ġfam ous
Ġquatern ion
out }
inter sect
\ long
a mma
Ġ\ triangle
}} :
Ġhel ps
] &\
^* +
um ford
n z
re lliptic
g )}
19 92
Ġ\left rightarrow
_{p q}
Ġ\b a
Ġsyste matic
ctor s
Ġgraph ical
cccc c
\ map
^{ op}
Ġ3 1
_{j ,i}
he t
ci ate
tic k
Ġori entations
\! \
S eg
Ġcol imits
_{\ chi}
Ġtherm al
ex am
ĠHy pothesis
Ġ8 0
an alog
f aces
\b reve
side s
Ġt en
Ġ\B B
Ġautom orphic
^{\ nu
- m}
Ġo ld
uni queness
Ġcomp ositions
_{i +
_{X ,
geq slant
Ġh int
Ġcon ductor
Ġ= \{
Ġa de
Ġ\b P
small skip
O therwise
Ġch iral
ĠV ol
( 1
a ir
M V
^{r +1}
=\ |
Ġ\ map
S ect
Ġ }$.
Ġw itness
Ġelim inate
11 5
\l t
x v
Es tima
~ ~\
\m odels
) ]$.
mb rane
Ġ\in dex
T L
Ġ[ -\
Ġmay be
] }}
Ġcancel lation
Ġdisper sion
B ack
ol i
_{\ !
Ġpriv acy
til ity
Ġ\t wo
Ġâ Ł
f er
Ġ\ rf
Ġdev iations
Ġsection al
Ġ\ on
Ġpredic ted
han non
Or der
simpl icial
ĠTh m
ord on
nor ms
ĠL P
Ġlinear ization
N LS
_{\ star}
olog ically
Ġspre ad
f h
Ġf li
Ġ\c R
Ġco sets
_{1 ,\
pr int
s ource
ĠFig ures
satisf y
Ġ\ parallel
con n
mo s
log arith
C olor
Ġh er
Ġb imodule
Ġ\co sh
Proof s
Ġprojec ted
r ling
\par allel
B asic
Ġcyl indrical
S em
Ġt uples
Ġmodu lation
Ġt ube
Ġna ive
para tion
g rowth
_{\ a
ex cept
ĠBer nstein
H A
âĢ ĵ
Ġsemis table
Ġpers istence
O A
Ġ\ pp
Ġde l
rr r
qq qq
}^+ $
s yn
Ġ3 3
Ġoccur ring
Ġign ore
, *
Ġs ink
& {\
Ġ| _{
Ġadj o
Ġde als
Ġre v
in it
igh ted
\b z
^{\ omega}
Ġ\b ra
Ġenumer ation
\v phi
cer ning
Ġ\i int
^{- 6}
lo ad
Ġ\end{ lemma}
Ġclo sest
Ġsha red
> _
, 1)}
> .
sub s
Ġpor tion
]{. /
[ |
rou ble
scal ing
Ġsta y
ĠB ur
' ;
^* )$.
ĠR F
Ġsta ting
he l
Ġelectro magnetic
Ġ\f oreach
c tible
matic a
Ġtrig onometric
Ġminim izes
Ġfig ures
Ġpolic ies
Ġgre atest
ĠH ochschild
ĠR ay
00 2
mon otone
Ġadop ted
Ġcobord ism
T f
T W
il son
stra nd
e lementary
De fin
^{N +1}
Ġ\ add
Ġupda ted
&= (
\multi row
f lush
the ir
\math ring
Ġext rac
ĠSch wartz
Ġ\ eqn
^+ }\
ri p
ĠC how
Ġsimultane ous
33 3
ĠFor mula
Ġclassif ying
\P ro
For mula
T X
ĠL ax
ĠC hen
Ġexec u
Ġben chmark
Ġschedu ling
ok er
Ġtext book
et work
ever al
Ġelimin ation
Ġ\mb f
\le ftarrow
\v x
ymme try
C s
^{ u
=- \infty}
Ġ\h dots
_{\ varepsilon
un iv
und efined
\d iv
r row
Ġgreat ly
c U
^{\ rho}
Ġdev ice
I mp
sub module
_{n ,1}
P lan
] ].
b en
^{l -1}
Ġ\fill draw
Ġal one
R edu
}$. }
\a ff
ĠInt roduction
\ +
h k
^{1 ,0}
\text normal
\h skip
separa ble
ub set
in sta
Ġ\ ma
tic ing
B I
}\ \\
ste alth
\u u
Ġf lip
P DE
co inc
ut ine
New ton
: -
Ġsecond ary
Ġbo dies
di tary
Ġch romatic
R n
rinf eld
Ġde t
cc ur
Ġrapid ly
\d iff
Ġho les
Ġ\b old
ho mo
Ġcode words
, z}
col sep
Ġtran si
Ġperfect ly
Ġexp en
Ġsimula ted
so c
Ġ\g ets
\b ox
jo in
Ġcombinator ics
ent ry
19 91
Ġreal s
Ġaverag ed
= ~
is enstein
vi ate
ĠHamiltonian s
ida tion
mes h
)= [
box times
Cla ss
Ġen able
_- (\
}\ }\
om ent
ĠM as
Ġcon duc
Ġ }_
\c W
&& +\
_{k i}
Ġrandom ness
int roduction
)! }\
z u
\w p
Ġchar ts
ĠMe an
ti mum
Ġdomin ating
, M}
Ġtable aux
O W
ance l
Ġdecomp oses
Ġmesh es
Ġpack ets
,\ b
\ ta
Ġrectangle s
| +|\
Ġdissipa tion
Con struction
ĠH all
H ol
h b
Univer sity
P oly
Ġl ifted
{$ (
Dec omp
Ġs top
ĠA cknow
ĠĠĠĠĠĠĠĠĠĠĠĠĠĠĠĠ ĠĠĠĠĠĠĠĠĠĠĠ
multi ple
Ġt rouble
Ġra tios
Ġ\d if
e an
proj lim
Ġs ound
array stretch
Ġem beds
Ġ\ mp
Ġrobust ness
OIU Y
Ġgap s
, g}
lo s
fre quency
Ġ\ section
sub space
ĠSet ting
An n
res sing
Ġa ut
Ġcol imit
Ġtopolog ies
\c d
_{0 ,n}
Car tan
] }_{
\mathbb m
Ġ\ longmapsto
Ġambigu ity
ĠA re
e a
pa ren
}} )$.
Ġ\ ri
ĠCla ssification
- r}
0 11
[ .
d P
q s
F K
Ġcur vatures
em bed
Ġplot ted
S tein
sta tic
ĠBes ides
_{ _{
Ġfor th
big wedge
Ġ\r r
imp ro
Ġ Ã
D irac
res sive
ĠComp ute
tri ple
tri zed
Ġrepeated ly
Ġdri ven
& :=
R u
re main
Ġmotiv ic
Ġs in
Ġ\m odels
Ġmoder n
b E
)= (-
Ġpen cil
+ \infty}
ĠB ound
\ar g
}) ]
Ġexpand ed
D ata
Ġis otopic
Ġprincip les
" )
B axter
ĠH ermite
Ġtable s
) _*
Ġ`` $\
ob ius
Ġconcaten ation
ĠA ctually
a wa
w u
}\ ;\;
\I nd
pha nt
\b E
Ġexten sive
}\ }$,
ĠMori ta
< <
Ġp t
Ġreve al
Ġb ubble
Ġ\c a
Ġse ed
ho me
\e en
alignat *}
a verage
ĠA B
Ġcomp ens
}( -\
Ġw anted
Ġta sks
cdot }
Ġanalog ues
Ġbeha ve
^{- n
table au
dynam ic
qu oted
Ġzero es
\to p
pre lim
Ġsuffic e
Ġmatch es
lim inf
no sov
_{2, 3}
}) |
ric hed
Ġexpec tations
F robenius
\b y
us es
^{( 1,
Ġend ing
weigh ts
Ġdistribu tional
u ts
B N
ic o
la tex
} *
_{\ d
Ed it
Ġs n
S tab
Ġstabil ization
Ġpan el
' }_
ĠB ru
Ġregard less
)= |
Ġ ''
Ġver ification
ĠUn fortunately
~ }
con ven
ĠP et
)) |
Ġ\Q Q
}( |
S tra
Ġgrow ing
ĠU E
)$ );
T ate
ĠĠĠĠĠĠĠĠĠĠĠĠĠĠĠĠ ĠĠĠĠĠĠĠĠĠĠĠĠ
T ran
dag }
^{n- k}
Ġdisplay ed
Ġarchite cture
ĠW ang
19 90
\G al
Ġ\e eq
ĠS DE
\rho }
v z
] .$$
Ġ\b r
Ġslow ly
i tary
cou pled
B anach
o pp
\P rob
round ed
\ tensor
{ }^{
_{2 n-1}
Ġ\ grad
Ġlog ical
Ġ\ sh
F un
}\, (
var ying
M odu
po ch
Ġbre vity
Ġs lic
mer sion
degener acy
)| }
Ġen coder
Ġlea ving
uff le
s O
ĠWe ierstrass
Ġ _j
Ġef fort
i h
Ġ@ >
m x
Ġ\ Prob
Ġcus pidal
ou red
p tions
}_{ (\
V ec
Ġax es
pgf xy
\C M
C auchy
\C at
~ {\
I ts
_{( 0,
Ġamplitude s
)\ ).
Ġmon o
A K
ou se
Ġdeca ys
, L}
roxima tion
me m
Ġcho se
ab a
Ġdis covered
dis k
_{ Q
Ġph oton
clin ic
Ġmo tions
Ġreg ret
Ġend omorphisms
Y M
w an
thin space
Ġmu lt
s z
ov ich
ĠEqu ivalently
}{ =}
dx dy
ĠMe thod
Ġpay off
u )}
ĠDe hn
\h h
\f a
< |
Ġ} ;
, R}
\ su
X iv
Ġ( #
ĠI RS
f an
ti bility
para bolic
ĠPol ish
Ġar tif
Ġ\ tan
< +\
Ġex haus
constra int
_{ _
ar s
ĠS ing
i ro
Ġe ast
ins ler
alignat }
Ġlex ic
Ġ\ real
_{ Z}
Ġout comes
Ġrestric tive
\ real
17 0
E rror
a ger
p v
equ alities
Ġem er
ify ing
] )$,
Ġrandom ized
Ġaver ages
Î »
cha ins
\ angle
ĠF in
Ġ\big wedge
a ccording
Ġre plic
size box
})-- (\
Ġd ay
Ġme t
quoted bl
F inite
ĠL ang
Ġreve als
l brace
en ta
Ġnotice d
de v
commu ta
ĠGrassmann ian
an cial
Ġquar tic
ilibri um
hap ed
Ġ+ (-
B en
_{\ C
ĠJ ensen
Ġcommun ications
f loor
Ġcumula tive
Ġ\v c
z )}
co eff
\ atop
sup set
si te
Ġinde termin
Ġidemp otents
Ġpropo sitions
Ġsuccessful ly
Ġrever sible
c )}
Ġsha pes
_{j =2}
10 2
\b F
ĠH ee
:= (\
Ġ4 7
Ġoccur rence
W ave
cal cu
}| $
Ġ1 97
di an
Ġexce ption
Ġbra ided
A v
Ġprox imal
ĠY es
p ing
Ġmaxim ization
Ġ 75
u g
^{s +1}
\C c
Ġ= =>
' }=
)-- ++(
14 4
y )}
ic i
). \\
Ġ\ alg
Ġa ware
av g
)=\ {\
Ġplay ed
)] =
defin es
in son
^{(k +1)}
Ġoptim ized
Ġdig it
Ġl ens
2 25
\co sh
_{\ eta
Ġre port
Ġdesi rable
Ġpo sed
ĠT ho
ĠP ick
Ġ\d iv
Ġdraw ing
Ġdi hedral
Ġ\sub figure
g c
+ q}
Ġex pl
Ġtw ists
Ġmechan ical
_{n ,\
Ġequ ip
eter min
_{j ,n}
math ring
Ġma ster
Ġalgorithm ic
Bo ok
J o
,\,\ ,\,\
fib rant
Ġ& $\
L ower
Ġquad ric
hol tz
P G
Ġ\ps frag
c Q
mat ch
\ ed
incip le
F u
Ġ\ asymp
ess or
H igh
me l
ha in
Ġ& (
})$ $
h old
trans formation
Ġmass es
urst on
J J
tribu ted
Ġc ub
ĠF ock
p ow
U pper
\ one
_{t ,x}
dire cted
Ġgre edy
ĠS pace
_{n +1
q t
Ġsen sitivity
Let ting
Ġobser ver
Ġ5 3
bel ong
Ġcu toff
|, |
R H
s kew
_{r ,s}
^{ ab}
ic a
ca vity
ĠB i
b L
Ġ\ref f
Ġsuper algebra
Ġradi ation
Ġpartition ed
Ġsec recy
ĠM SE
Ġ })
L ine
f alse
/ _
ĠM any
Ġan chor
fin d
F in
d F
\m r
Ġingre dients
ĠâĪ Ī
Ġval ua
p ush
\left rightarrow
ĠE nd
Ġf its
ge om
con cent
Ġmin ima
_{\sigma (
nice frac
z ag
Ġb irth
Ġ> \
Ġrear range
Ġname d
D ual
ac he
\ ran
Ġper son
_{2 k+1}
ival ence
Ġbro ken
mu lticolumn
Ġ. \]
})} .
b ow
Ġreg u
Ġde p
0 12
^{( 1
Ġjus tified
Ġ\ /
ĠC A
ire ct
Ġderiv ing
\sin h
\b B
Es timate
âĤ ģ
le a
^{\ {
Ġat tains
_{1 ,i}
Ġstra tification
Ġsur v
ĠS C
pp rox
Ġen velope
convex ity
\ eqn
N amely
ĠCo mplex
ge ometry
Ġne ur
tif ying
respon ding
\x x
o mplex
let ter
( t
lambda )}
con figura
fact ors
pla ys
h v
to day
ĠN ash
Ġmon oids
Ġge ometries
\r d
mean s
\I EEE
sta ction
Ġlo st
Ġnotation al
y ields
Ġ4 2
ĠS I
Ġinsta bility
Ġb ary
Ġdou bling
Ġhe avy
H ermitian
U C
^{ R}
_{\ ,
^- }
Ġdiscre pancy
ui tively
suffici ent
_{k +2}
den tity
dis cre
s x
^+ )
Ġprof iles
_{\ B
mu st
ĠU ni
ma pping
D a
},\ ]
10 8
ĠH o
mat ter
We ak
re qu
_{t \to\infty}
R V
ĠQua ntum
Ġprog ression
i int
y ah
}}\ |
0000 0000
ĠSe ifert
A c
Ġc er
Ġanaly zing
_{- 1
l pha
ĠS m
\E x
C hap
i red
Ġcha nce
Ġ _{k}
Ġmin ors
Ġquanti zed
] .$
} ]$,
mon o
),\ ;
ns on
strict ly
V al
ib on
product s
_{\ cal
Ġsub matrix
pend ence
, s
Ġo pacity
N M
Ġ\ ii
Ġal loc
Ġaccording ly
}} .$$
tri b
ie gel
)) ^\
Ġco kernel
\cal C
Ġdom inates
\C H
ĠSch ubert
Ġsymbol ic
Ġmu tation
che me
Ġsc at
Ġeval uations
^{ H}
\c Q
clock wise
Ġclassi c
ĠTo eplitz
Ha usdorff
Ġ| (
13 2
Ġne gle
ob ser
e lect
Ġcollection s
/ {
Ġas ymmetric
)+ (\
Ġ\r put
it ons
acc i
Ġp p
ty pes
_+ )$
A W
- 2)}
max }}
nu )}
\var sigma
phy sical
Ġ\ ad
ĠK an
L m
Ġne ga
f k
la pping
Ġ7 0
y u
Ġcon formally
Ġ\ ph
ĠS T
b as
Ġ4 6
Ġpre tty
Ġdense ly
ĠE lect
_{2 r}
b la
ga ussian
ran ts
m entation
:\ ;
, f}
squa res
am alg
] })
Ġnow here
Ġcharacter izes
D H
H y
on to
n umer
ne ga
\phi }
S cal
ou nce
Su mma
Ġappe a
number s
Ġ Gamma
ti veness
ĠT ate
_{\ Phi}
\d x
Ġiner tia
Ġsub complex
F il
Ġpat ch
Ġs pi
ĠB C
_- ^
{ ~
s heaf
pl ink
_{2 ,n}
\A d
Ġneu tral
A X
, }\\
\la nd
contra dic
b on
s equences
sub algebra
D om
_{\ al
Ġ\l or
t rees
Ġb ring
\text color
w ang
ĠW ill
Ġ\b X
J M
)) )\
ĠCont inu
N ot
Ġse ven
As ymptotic
plan ar
| >\
var kappa
fill color
)] ,
, x
} ''
ac }
Ġt alk
ĠU se
ra s
at ou
distribu ted
_{\ partial
Ġstreng then
x a
Ġ\end{ smallmatrix}
ĠRec ently
state ment
Ġ< >
st ro
ĠI sing
t k
ĠBol tzmann
Ġe labor
Ġexplo iting
pair s
Ġun certain
Ġmultip les
phant ine
_{\ H
Ġblow up
s haped
ma g
sub st
T hank
ĠLa w
U L
Ġin coming
re gulari
Ġl ife
, |\
In itial
La bel
associa tive
Ġsta ys
ĠZ hang
w f
~ ,
PS L
Ġdis cs
Ġad vers
sh or
Ġvirt ually
comple ment
Ġout going
separa ted
Ġ- (\
ĠS DP
Ġcontrac ting
Put ting
Ġâ Ħ
M E
Ġp l
Ġop timum
f z
corre lation
{ *}
Ġdiscreti zed
u tation
Ġsu s
Ġ\M od
am ily
' ).
ro blem
Ġanti symmetric
gen us
ĠK er
Ġdetermin ants
object s
Ġ\f r
ĠL u
\ ud
Ġdesc end
\ zz
ĠE rd
sc a
S z
irc le
p here
ida tes
ĠIn equality
Ġ6 5
ĠMo st
\k a
Ġb atch
qu id
W i
Ġ\ verb
T y
19 88
triang ular
Ġ\ succ
\le fteqn
\I d
Ġlear ned
Ġtil ting
Recall ing
+ ...
\ til
Ġc l
Ġ\begin{ matrix}
ĠL efschetz
Ġtriangu lations
be ck
Ġ\texts f
\ succ
b M
long leftrightarrow
Ġ\S L
,\ rho}
_{\ zeta}
Li u
s L
re nces
is ations
E H
I ter
Ġfol iations
Ġpil ot
uzz y
T ho
Ġneighb our
M ills
olu tive
Ġman age
Ġ\c c
)$ --
ĠG P
proof s
y ou
E nergy
Ġh u
V a
Ġn at
rang ing
Ġvor tex
}}$ -
or ation
val ent
ve }
âĤ Ĥ
Ġcontribu tes
^{\ eps}
)}{ (\
12 1
ĠF re
Ġdis continuity
Ġres olutions
ind ic
I so
Ġbe ta
^+ )$
_{j j}
p ot
us cript
cep tional
Ġpolyg ons
Ġs cope
ĠS ylow
ĠF UNCT
_{k \to\infty}
rang ed
Ġfee l
Ġinsta n
Ġbook s
Ġdata sets
' <
la nder
_+ )
Gaus s
Ġwave let
\ diam
de sign
diff e
q p
ĠO ther
de kind
\ so
Ġ\ diag
Ġta ck
^{2 n-1}
> }
Ġsoft ware
C ur
Ġ\r b
up date
Ġcau sed
\no i
ĠEs tima
b V
u ro
0 15
Ġ/ /
Ġ[- >]
J S
}). $$
Ġre li
Ġcylinder s
Ġpa rent
Ġ\ succeq
Ġ\b A
jec ted
Me an
: $\
Ġcomp re
ĠR am
d dot
\S U
ĠRe eb
{ --
be ing
Ġ{ {{\
\C O
Ġconnect s
ich m
v k
,\ \[
Ġnorm ally
Ġcentral izer
Ġwe b
Ġdegener acy
r der
_{\ omega
rest r
Ġpuncture d
er a
sp ension
at tice
Ġproceed s
Ġre tri
in stead
Ġcut ting
Ġtransitive ly
Ġco chain
ron wall
t re
ik i
B x
Ġ\c V
ĠO F
Ġwonder ing
Lapla ce
Ġ\ Ex
Comp aring
Ġquatern ionic
ĠF orm
_{\ phi
as sum
Ġform ing
Ġsol vers
ĠB ell
Ġ\ ti
Lapla cian
M W
} ^*_
Ġe ase
We il
Ġ }$,
{ [\
ĠB o
Ġout lined
Ġgen e
ĠSub ject
-1 )
Conclusion s
Ġmacro scopic
Ġresidu es
ĠM P
Ġme mbrane
Ġchallen ge
_{ 9}
er man
Ġcomple ting
en sus
han ge
ar m
_{\ r
cr iter
itch in
' |\
he orem
Ġb is
\R ep
\r p
d j
Ġelse where
lic ate
ĠQu illen
Ġfract al
at om
Ġanti po
Ġ\c K
ĠĠĠĠĠĠĠĠĠĠĠĠĠĠĠĠ ĠĠĠĠĠĠĠĠĠĠ
Ġlink ing
Ġrela tivistic
Ġhome omorphisms
Ġadvan tages
irk hoff
Ġjus tify
^{ e}
Ġin verses
\b ib
Ġl ists
C ou
( #
Ġb in
ric tion
_{m ,
R i
^{k -2}
Rec ently
flu x
Ġou tage
fill style
}$ }}
19 89
ar th
stand ing
iffere nt
Ġfor mation
Ġ} =\
(\ ,\
iv ity
ĠR IS
Ha ving
e h
Ġmeaning ful
eigen values
Ġshor ter
er f
\g t
Ġ Â
T ra
[ [\
g x
m S
ĠH int
Pro perties
O ther
da m
p ur
\b c
\r rbracket
y th
_{ st}
Ġ\ new
is }
Ġmathe matically
p redic
^{\ dag}
)\ }.
\K er
D N
c it
Ġin iti
Ġ\h alf
Ġsec onds
; }
ĠCou lomb
appro ach
F ind
Ġco ded
ĠBra uer
c as
i pa
en tific
Ġrota ting
ĠY our
ir y
ĠC N
_{X Y}
Ġadap tation
^{(n -1)}
Ġmon omorphism
ĠR andom
approxima te
\ ct
b idden
ĠG ram
Ġbar rier
\co mp
Ġra tion
_{( i)}
I G
b ile
on dition
_{( n)}
moment um
ĠM ate
_{r =0}
_{\ bar
_{1 8}
Ġsimpl ification
Ġchild ren
D t
d H
ers on
Ġrecon struct
] ).
sp ite
Ġquad ri
line break
Ġdot s
\ res
^{\ sigma
ĉĉ Ġ
Ġto ward
pa re
inter cal
K )}
iv ita
ĠDe fin
titu de
Ġreduction s
Z ero
in clusion
{ _
ĠS INR
_{\ P
F a
/ |
_{\ kappa
ub ular
col im
| )^{
Ġmolecu les
H am
Ġco erc
ĠHee gaard
T est
\ perp
defin able
conver ted
Ġh im
Ġext ent
)* {\
\b mod
usz tig
)- (\
bot }
ĠN etwork
Ġser ves
reduc ibility
ĠK olmogorov
io phantine
Ġperiod icity
i et
} ]{
Ġrece ivers
\lb rack
co arse
Co mple
' })$
ĠR L
S DE
Ġcirc um
_{k ,m}
bo la
circ u
Ġtw isting
ĠRay leigh
{ *
* )
Ġab ility
p un
^{\ lambda
Ġvelo cities
\ II
j ust
| )$
du ally
ne u
\ rt
ti yah
Ġg lue
^{( d)}
n ary
Ġex it
\t p
\ aleph
\b Q
Ġoscil lations
Ġsub tree
Ġ\b E
Ġemplo ying
ĠU AV
gg ed
ĠGe lfand
_{( 2
Ġn arrow
Ġche mical
p ub
Ġdown link
ĠT y
Ġmonoton ic
Ġsemic ontinuous
Ġpla te
j es
arb oux
- .
c ular
cell color
Spec ifically
Ġ ]$
^{\ frac12}
Ġsome how
|| _{\
Ġdiver ges
Ġen coun
Ġreader s
E WRITE
M i
c line
po ssible
Ġsta ges
ĠSta tistics
um es
ĠL DP
Ġdid n
eigen value
| }}
ĠCon vergence
Ġframe d
{\ "
Ġcon vert
Ġcol lapse
Ġ\ dash
modu lo
\s calebox
Ġb ialgebra
&& \\
Ġspecial ization
zz o
Ġexper ience
au er
sym m
ĠL og
Ġdesign s
Ġtes ted
Ġ\ ip
la ssical
Ġtranscend ental
ĠInte gra
Ġtoler ance
E st
Ġiter atively
ĠF alse
Ġferm ionic
\ ~
re ver
al ga
ĠLet ting
d al
q r
{( }
Ġpack age
,.. ,
Lag rangian
Ġ\ ff
ha pe
en cies
expec ted
B el
^{( j
Ġequ idis
D im
Ġmethod ology
D irichlet
w in
Ġfin ancial
ĠT rue
\b ase
ĠM I
Ġho ok
Y ang
^- $.
tra tions
Ġrenormal ization
^{(n +1)}
ĠA x
M any
ĠMat rix
id x
c ir
Ġknow ing
per ime
cont raction
Ġmaxim izing
ĠD av
graph y
adap tive
)| |
Po incar
Ġreson ance
Ġd W
ĠP DF
)) ;
Ġso cial
Ġb ise
Ġdirection al
Ġassign s
Ġdemonstra tes
m holtz
Ġfil ters
tty ref
Ġex ci
Ġun biased
2 20
ec het
Ġradi i
}} &
as se
Ġopp osed
count ing
\math it
col our
ĠT ime
N umber
al ph
st d
Ġ\begin{ lemma}
Ġinv olutions
ĠCar tier
Pri mary
ĠH urwitz
Ġd V
ob servation
\sh arp
Ġ} ,\
\ aligned
Ġnec es
equival ently
arbitra ry
Ġmean t
Ġinser t
cha p
Ġgover ned
Ġto ok
Pa rameter
ĠCP U
In stead
gener ating
] ),
Ġ} _{\
La st
Ġmedi an
_{1 j}
Ġcyc lotomic
Ġ\G r
no indent
ĠS i
Der iv
on ov
}| |
^{\ ,\
}{\ |\
ĠG ener
- 4}
on ym
Ġst ored
\l p
t c
Ġ\end{ theorem}
\ pt
j h
(\ ,
\ grad
| -\
Ġt s
ledge ment
Ġconfir m
Ġsepara tes
\bb Z
Ġassoci ation
ĠLorentz ian
L D
d ark
su lta
Do es
Ġcommun ity
Ġpo s
Ġ3 8
Ġspan s
ĠBe the
p les
Ġin correct
|- |
^{\ kappa}
Ġreco vers
g ant
Ġcol laps
cu sed
v d
ĠS im
olu te
Ġ\eq def
R ob
Ġaccu mulation
oton icity
. ~$
Ġco fibrant
^{\ pm
_{k ,\
Ġth m
N eumann
Ġphysical ly
\ te
ir ch
inj lim
Ġoptim ize
Ġdamp ing
Ġverify ing
ĠS ystem
ges tyle
}] ,
b beta
co very
Ġ| [
ĠĠĠĠĠĠĠĠĠĠĠĠĠĠĠĠ ĠĠĠĠĠĠĠĠĠĠĠĠĠĠĠ
ontinu ity
Ġappea rance
ĠS ystems
r vert
s A
ĠA C
Ġis ogen
âĢ Ŀ
un e
C u
ĠS E
I A
P W
O perator
Ġ\ tt
bab il
_{\ l
_* )
con sistency
d ou
Ġ\ De
is ometric
Ġ\c I
Ġh itting
^{1 3}
h x
\b l
ul ty
Ġ\v ol
ĠâŁ ¨
Ġcontrac tions
$ (
l brakk
r brakk
_{q -1}
-\ !\
\d if
Ġforce d
dx dt
ĠE isenstein
~ .
interval s
nt ro
Ġ tau
Ġas semb
Ġclari fy
ĠD ia
Ġreg imes
s pherical
Ġcondition ing
^{ 6
Ġ= &\
Ġp iv
\b T
)$. \
ĠIn formation
C ivita
e ig
der ived
Ġeigen space
ĠMAT CH
H W
}}{ {\
inter ior
is ometry
Theta }
lear ning
Ġimmer sed
\ ha
ĠS tra
mid dle
domain s
Ġpriv ate
K n
ĠB P
Optim al
P et
Ġu plink
_{- n}
^+ _\
ma rt
differenti able
^{(k -1)}
Ġre member
R B
^{n +2}
} >\
Ġin stru
ĠC ON
G lobal
\b w
z b
Ġc up
tag on
Ma th
: ]
B or
T D
Ġcon texts
Ġ\b y
)] .
Ġexce ll
Ġdissipa tive
Ġtetra hedron
Ġ\text style
it ter
conver gent
our nal
^{ G}
_{1 ,j}
&& +
Ġstre t
L am
\ar c
ĠL HS
6 00
C Y
Ġir regular
Ġnumer ous
ri l
ĠS chool
sim ir
)( .
\i int
b mu
Ġsignific ance
_{2 k
Ġdiver sity
uck er
Ġ\r p
Ġ\r rbracket
es tabl
Ġdifferenti ability
Ġdele ting
Ġwor se
Ġt ension
ne ed
au g
Ġta ils
, 0)}
b D
d der
Ġtemp ered
" };
Sp an
ce du
ĠB en
Ġset t
ĠF insler
ta king
id ently
_{1 7}
Ġbre aking
un k
mb b
ali tative
Ġ )(
th resh
comp ute
Ġrigor ously
y d
Left rightarrow
12 4
Ġhigh l
Ġph ra
cla ssification
B l
Ġfi bered
Ġ\tex orpdfstring
och romatic
re ad
Ġ* )
Ġthermod ynamic
Ġf und
})} (
Ġcoun ted
b Y
c ati
, m
S s
ich ot
sical ly
Ġband s
A ctually
G ordon
}) ),
' }}\
le ments
Ġ4 3
Ġb ott
wr itten
' \<
\ hom
_{1 ,k}
Ġcho oses
\ diag
ĠW asserstein
Ġpub lished
Ġhype relliptic
ĠM ilnor
19 0
' '$.
Ġ\ plot
Ġin complete
ĠC H
Ġtransi ent
f it
Ġ- .
an sive
' [
s atura
y g
O MP
ar r
qu ot
C c
f q
s G
19 87
Ġview point
Ġdevelop ing
illi ard
45 }
_{1 n}
_{( n
Ġselect ing
R ad
nt ropy
adap ted
_{n -1
_{- i}
}/ {\
ts }
Ġun ivariate
Ġexplo red
Ġconstru ctive
\ps circle
Ġconjuga tes
r h
pro ved
Ġcha otic
Ġd f
ed er
ĠN one
Ġst ore
Ġman uscript
D ist
Ġ\p d
expres sion
Ġcaus es
T w
Ġen code
ri ers
Ġ\T T
\pa ren
L W
le ast
tur n
=\ ,\
ĠF rance
: (\
00 3
Ġcus ps
at rix
^{1/ 2
ber ger
_{\ eps
Ġpro mis
mu t
_{j l}
\sup seteq
u ine
Ġfe asibility
Ġe con
}- {\
perime tric
S uc
ma ti
Ġcons titute
E uclidean
po staction
ĠCon struction
gen ces
B orel
^{\ bot}
Ġreflect s
val ley
Ġtrac table
con sidered
_{a =1}
as suming
Ġ\subset neq
chan ges
1 1}
he el
Ġac tivation
( j)}
et ric
Ġlon gest
on i
Ġsector s
r +1}
di vergence
Ġdifferent ly
] ;\
de al
pe ction
:=\ {\
Ġ\f g
_{2 ,0}
erg man
rm d
Ġro utine
\v f
}' (\
Ġ\ perp
g oth
if th
Ġb as
Ġman if
b rac
im i
Ġshe ll
Ġaff ected
ĠFirst ly
is hable
Ġ\l p
Ġforget ful
ibon acci
equ als
Ġimp osing
Ġtrivial ization
)) (\
know ns
al though
Ġshe ar
compu tation
ap sh
st en
Consider ing
\s ym
}_+ $
adjac ent
\no align
}} }_{
arc tan
E m
ol im
ĠComp uter
Be low
\ diamond
f box
ĠG o
Ġflexi ble
'$ }
\b o
con struct
\cal H
s keleton
ĠR K
Ġ}$ \
}). $
esp ite
N I
per s
K e
su c
like lihood
ĠâĢ ľ
ĠN ormal
dist inct
on a
ti e
Ġ\re als
M )}
m R
\s O
)| }{
ia ted
am i
erg ing
deriv atives
Ġexclude d
as sign
ĠH en
@{ }}
tif iable
\ ip
< ^
o main
ĠC ommu
Ġ\b d
stra te
_{3 ,1}
frac tional
}^{ {\
):=\ {
ca pe
W hy
Ġro tate
ah n
psi ze
Ġco algebra
)) /
< (
N ormal
b an
d ra
ĠS k
equ ential
ĠCh ris
linear ly
Ġ\h yper
Ġde spite
os eness
aris ons
\ prob
{ }$
)} |\
Ġreal istic
_{s =0}
Ġbenef it
Ġsci ence
Ġ\n a
imp ly
," \
! \!\!
+ r}
Ġso le
Ġe pi
10 4
Ġassocia tivity
] ,\\
IN T
Ġ 99
so id
Ġac compl
Ġti les
11 11
\t w
Ġaccura tely
Ġ\ mm
Ġpro duction
Ġcons ensus
Psi }
X u
ĠM R
Ġsuper position
v n
Ġs ensors
Ġwall s
Ġ\ar c
ilton ian
~ :
ur is
ad }
ĠĠĠĠĠĠĠĠ ĠĠĠĠĊ
autom orphism
e al
math e
vari ation
Ġmatch ings
s E
_{\ al}
b ert
Ġran ks
\ triangleq
v ct
Ġsa fe
r z
10 3
i ability
be lling
Ġirre levant
ill er
[ ]{\
k g
\in \Z
Ġspatial ly
le gend
ĠJ ust
Ġrese mb
Ġexcell ent
main theorem
Ġobe y
pi e
Ġ\S p
bra id
} '_{
^{\ell -1}
oh nson
\s ig
Ġ_{ t}
Ġmotiv ates
\ve p
Ġsynchron ization
Ġ) ^{-
Ġcommun ic
âĪ Ĵ
Ġmaxim ally
Ġatta ch
R andom
Ġdu ration
F E
F ree
ĠW igner
Ġ5 8
S q
vel ength
}| }
Ġs ymple
Ġcomple ments
intro duced
Ġwork ed
Ġsubs equently
bb Z
Ġsequential ly
Ġ\ uparrow
ĠB or
pro po
ab out
hol der
integra tion
j p
Ġgeneral izing
_{( k
xy z
perim ents
con tact
_{( 0)}
RE S
Ġ\ eqno
ĠW ork
\ ub
k G
\geq 0}
Ġfil led
Ġcondition ally
ch ine
Ġtrac king
Ġg ray
sta nts
Ġpass age
Ġmaterial s
/ p}
Ġsub ring
Ġf ron
Ġcorre ctions
nte gral
er on
or ma
gu erre
}{ [
12 6
14 5
Ġdest ination
lar ity
Ġwin ning
ext end
Ġrefor mulation
, i
ga ted
Ġph ot
Ġ\G G
or tion
^{ g}
Ġcol lected
light gray
_{i ,\
\L ie
inver tible
\s eq
^{2 s}
ta t
^{( t
Ġsubs ystem
Ġturn ed
Ġsub bundle
ta ck
)) )$
Ġ4 9
ĠC e
^{ 8}
17 5
ĠGe ometry
Ġ _{j}
- p}
ch t
\var nothing
Ġcross es
Ġslo pes
le ading
on eda
ĠH u
F ont
Ġ\L ongrightarrow
Ġfo cused
Ind ex
\C F
Ġconcent rate
rting ales
B ur
Ġ( |\
C ON
Ġdesc ends
ro te
}( (\
Ġ\co prod
Ġho mogeneity
Ġdep loy
ish ing
^{\ eta}
ĠWh itney
ha te
,\ ;\;
ex pand
tur m
ĠNo tation
* #
d yn
di ed
Ġrespect s
ĠW here
Ġro les
_{X /
Ġtrans lated
b al
Ġredund ant
r Vert
Ġg rids
Ġnuc le
Ġco in
_{\ell =0}
}~ (
p de
K N
^{ A
es ts
Ġ\g r
with in
gener ator
\ qq
Ġcharacter izations
ĠLi kewise
Ġ\v u
Ġbegin s
- ,
Ġb l
tan ley
bf u
D av
\g m
van ov
pe z
ry lov
key word
ĠL ater
b nd
Ġappre ciate
Ġhu man
Ġsec urity
v ac
Ġpo sets
F re
Ġ\c U
Ġcomp ressed
mo ving
\mb b
_{ W
ext ra
S equence
b ru
Ġfor mat
ach ie
}}{ |
Ġinstan taneous
Ġin tended
dri ven
K h
mu )}
con c
Ġ\in ner
16 5
omin al
_{ _{\
' |^
z in
, A}
z hang
]{ };
Ġhand led
Ġa rm
,- >]
Ġhere ditary
qu iv
Ġ5 5
Ġenvelop ing
{ }{\
if undefined
Ġpres heaf
\eta }
Ġaxi o
B re
Ġtravel ing
Ġdegener ation
s timate
cla ssi
^- $,
Ġ\over rightarrow
pa rent
Ġpolari zed
ĠT V
P u
\end proof
Ġcon junction
Ġneighbor ing
an i
ur y
-1 )/2}
Ġknow s
, K}
e )}
^* )$,
ĠInte gral
x u
Ġre ward
pri mitive
provide command
N s
ĠIn s
^{- t
Ġvalua ble
s tically
' }^{\
ĠĠ ĉ
plicit ly
_{12 3}
ta ted
Ġmu l
ca pacity
(\ <
Ġvehic le
g mail
en yi
Ġ) ^{\
decor ation
ĠPro bability
Ġ\s m
scale box
0 13
D V
In put
per m
char ge
Ġ\pre ttyref
Ġsupp orting
ryst als
R K
Ġrever sed
ĠO P
, X}
| ,\
Ġobe ys
th ird
_{ (-
Ġf riction
^{- r}
\n ormalsize
Ġr w
root s
trans lation
A ff
Ġpro grams
correspon ds
ĠA xiom
Ġdescri ptions
\s F
Ġbroad cast
S Q
_{ il}
tro p
N ik
ĠC oun
\ll bracket
h olon
)}\ ,\
ĠH amming
Z F
Pro duct
Ġpre liminaries
Ġrecipro cal
p zc
tra mi
ĠODE s
12 2
Ġdiver gent
ĠSecond ary
x e
})} ,
T ilde
ex ceptional
Ġincre ments
= "
ĠN LS
Ġ}\ ,
ĠTe ichm
Ġ\ sq
Ġb order
Ġs ine
S erre
ver tical
Ġneighb ours
Ġda ys
l +1}
10 7
Ġen tails
Ġun knowns
Ġdis turb
nu jan
= }\
in finity
10 6
lim ited
Ġinter change
Ġen gineering
ject s
}} )$,
Ġmon ad
Ġrelations hips
Ġ title
Ġsu ff
. :
con str
^{- d}
}( {
] }.
Ġrepe ating
|\ {
' '$,
Ġme trizable
< =
P ath
ĠN umerical
19 86
]_- {\
( s)}
e uler
den ces
\g en
AB C
\ tens
descri bed
Sim ons
Ġ\S et
fa ult
) '(
\b n
k j
Ġmulti linear
lat tices
C r
\L ongrightarrow
' =(
Ġ\b H
_{1 /
Ġsub field
Ġ4 1
V e
V s
ob ner
y b
\D iff
Ġfa vor
Ġvor ticity
g lu
\re als
node s
ĠF er
\m cal
Ġcontrac tive
F B
v phantom
Ġres istance
exact ly
o ke
de formation
g w
Ġ5 4
lon e
Ġop in
S k
Ġb atter
Ġsw ap
Ġhierarch ical
Ġdevelop ments
c ous
is hi
Ġvis ible
Ġun ified
\subset neq
sp ort
Ġbase line
Ġdistin ction
con taining
ĠO ut
bf a
Ġ, $$
sk ii
Cha racter
ĠP on
en sity
ar n
Ġcha os
group oid
Ġsen sitive
Ġmat ched
ev ent
jec tives
nd le
,\ xi}
Ġ& &&
Gal ois
Ġdig ital
K i
Ġn il
or mula
Ġstra tified
G rad
in duces
:\ ,\
r -1}
)) _{\
+1 )
Ġ\I nd
Ġ\ te
\ dash
den otes
Ġsuper symmetric
T aylor
Ġmathe matic
Ġartif icial
Ġat tain
Ġdistribu tive
onal d
ĠR ight
aves dro
0 16
Ġdecomp osable
s ma
A )}
Ġmom enta
Ġ\x x
Ġ\la m
Ġd if
odu le
_{4 2}
ub er
_{y y}
Ġass ess
Ġconsider ably
Ġli quid
_{k =2}
+\ delta}
ĠN ot
^{\alpha -1}
S how
it m
Ġhigh light
b U
m ented
w k
\ nd
^{1 -2
Ġshrink ing
ĠO bser
insta nce
Ġ{ |
Ġfactor ial
' }.
w ould
_{n m}
ij k
Ġaltern ate
Bes ides
yc le
le ts
Ġ ;\
- l}
19 2
^{1 4}
Ġ\s quare
{ }^{\
Ġf ru
uch sian
Str ong
l ma
Ġh armon
_{\la }
beta )}
ED IT
e asy
Ġe ver
col lection
Ġpo or
\cal A
Ġp lug
horizon tal
ser ting
^+ ,\
K W
^{\ pi
\e v
Ġ\f i
tif ies
= :
Ġ\ iso
cal c
F H
H el
e ak
su e
b xi
Ġqu alitative
\f l
ĠSub stituting
Ġsur jectivity
ĠConsider ing
cor d
\C A
f x
in n
Ġ\ pt
om on
Un fortunately
. &
b inary
{ ^
] ,$
\l times
tor ic
\@ ifundefined
Ġ )=\
\ps dots
Ġaim s
ĠSu pp
P Q
[ <-
factor ization
\text style
Ġ\up ut
p k
le man
^{1 ,\infty}
ĠTo gether
Ġ\r hd
ĠF isher
, t
us ted
ĠD iff
ind ices
Ġho sp
Ġ\small skip
\end aligned
cal C
)^{ *}
35 }
s tima
Ġutil ize
00 4
ĠGer many
^* }{
multiplic ative
tau )}
ha o
ĠD ata
Un iform
ĠAm ong
en ko
ĠNo ether
ĠCla ss
!\! \
ĠAl ternatively
Ġt ubular
Ġd ie
ua ted
Ġproject s
is son
} ',
Ġin ducing
ph ra
ĠP aris
Ġper imeter
^{2 ,2}
Ġav oids
Ġprefer red
H O
ĠA R
tri angu
)\ ;\
im g
Ġnon decreasing
cedu re
Ġ\c Z
Ġunion s
\o o
ĠX X
bb r
reg }
T HM
cccc cc
Ġvol umes
Ġno ticing
tech n
Ġ\in ter
ĠC at
11 3
Ġgeneral isation
Ġ _t
) ]$,
ĠF atou
)] _{
^{- |
S imple
^{ o}
Ġinitial ization
en ed
)\ ),
Ġres er
qui red
argu ment
^{ z}
Ġclo sures
S mall
s qu
Ġ2 000
20 5
Ġcand idates
\ es
U R
Ġc as
)\| _\
Ġseman tics
Ġoff er
ĠCal cu
H an
Ġo c
2 30
ĠLo cal
3 75
ge o
)! }{
x iv
val uation
Ġcover ings
Ġsu spension
ten ing
ira s
bi linear
Ġun able
bb C
bi us
Ġiner tial
um mer
ottom rule
Ġe poch
\set linear
\C o
_{- k}
Ġf ram
ri m
gener ators
block s
Ġcomp an
ĠD ec
\xi }
Ġ\math tt
ĠE X
^{( p
ĠG M
ul ia
Ġc lean
\mid rule
Y Y
? }
P s
^* :
)| <\
equ ilibrium
Ġcardin als
Ġ\arg min
* )]
P en
Ġcommuta tors
Ġ )_{
}\ }.
Ġex cess
\to 0}
Ġaff ir
)\ },
Ġen force
coeffici ent
_{u ,v}
& (\
n ack
Ġcre ation
A MS
\b L
, p
ĠDe dekind
inv ol
\n b
Ġ\d is
Ġ ]\
P O
bar }
ma ximum
\iff alse
Ġfil trations
|= |\
- t}
c W
+\ !\
Ġpredic t
n it
ĠEuler ian
Ġnorm ality
T s
bra ry
^{\ tau
hen sive
}+ {\
q uation
\Delta }
at t
Ġco ar
Par tial
u to
,\ alpha
Ġdifferenti ate
, S}
ref lection
Ġconstru ctible
fa ff
Ġins ights
^{\ xi}
R ank
}[ (
\v t
0 17
)} }$
00 6
\C l
Ġcode book
pri mary
or ange
)} :
Ġw rote
Ġpre coding
cy l
Mo st
ĠBe low
Ġ1 20
Ġpro finite
00 7
Ġmatro ids
Ġ\bb Z
ĠIn itial
suffici ently
stre am
l cl
Ġp df
app end
pri ori
compact ness
Ġhe art
Ġsur round
ama nujan
Ġ\lb rack
ĠO ver
Ġinv olutive
origin al
ref er
Ġergod icity
ĠT or
ĠL andau
Ġ\S O
Al ternatively
Ġcounter parts
Ġmeet ing
con stru
_{k ,1}
Ġcontinu es
Ġac cessible
' })\
J ac
la beled
To gether
Ġdifferenti ating
Z h
p rf
Ġcap tures
iras oro
os p
Re gular
ĠS he
be st
0 25
Ġf old
H R
r ally
mat ching
ĠL in
stu died
sa mpling
Ġ\D D
te ction
Ġdete ctor
\c u
Ġ5 00
{ }^\
men tations
Ġorbit al
}} }(\
-\ alpha}
ĠN a
g ro
Ġsub mersion
Ġ5 2
Ġoutper forms
ĠS GD
lan ts
ze l
ĠT ri
^- )
Dia g
ĠK re
_{2 5}
Ġcharacter izing
Ġdecay ing
Ġaccu mula
Qua ntum
ich artz
In s
}| _
ha el
_{n =
_{i, 0}
Ġrepro ducing
Ġad ds
Ġimagin e
v ents
Ġ\A A
K G
Ġex cur
{- }(
Ġs keleton
ĠI mp
ĠPr inciple
_{\ bf
Ġco sm
mod ified
Ġrecon structed
H yper
o sc
Ġ\b t
Ġright most
Ġ ))
-1 /2}
co prod
Ġop tical
^{2 p}
ly eq
ĠM C
_{2 k-1}
Ġchar ged
II }
Inte gral
! )
ol o
\s C
Ġtur ning
Ġcircu its
Ġresol ve
@{- }[
e lta
ĠR S
nder son
P ick
Ġfac ili
M B
Ġre new
ul se
AB LE
mix ing
}$ ?
Ġlat ent
k l}
Ġ= (\
0 18
ĠS ur
Ġdiagonal s
a ro
n ilpotent
Ġsol itons
deriv ation
ds on
\t n
\I nt
ar iance
Ġ1 96
* {\
ĠS hannon
Ġacknow led
ĠV I
Ġqu al
Ġre traction
Ġdete cted
b dd
v matrix}
)\ !\
^{( h)}
_{( i,
U V
e ger
y es
^{ e
om }
P V
\g lobal
Ġexpen sive
Y Z
Ġachie ving
R m
Ġrela tivity
_{( x
Ġto ur
M c
ba um
Ġexplo ited
b ach
Ġc e
determin istic
Ġ\ defn
Ġ\b z
_{1 i}
\s A
Ġpol ym
]$ ;
ay a
_* $.
^{ R
Ġfit ting
^{-\ beta}
_{i, t}
5 12
te ll
I J
ĠS cha
{ {{\
}=\ {\
ĠG R
err on
Ġrotation al
ĠA ust
it ta
Ġ ĉĉ
ĠW ol
_* $,
Ġval uations
ĠK L
Ġ{ }^
S plit
\ ten
o e
)* (
uro pe
\ of
Ġmer i
Q G
Ge ometric
in als
ĠM ap
Ġbos onic
w ered
)= &\
ĠF inite
H odge
G V
R ate
m cal
la ce
\l r
Ġ\b N
Ex act
\c s
elt jes
Ġpa ges
Ġnon convex
Ġensemb les
5 )}
19 83
Li ouville
usu al
Ġf uzzy
P GL
99 99
_{s -}
tran sition
Ġautoma ton
^{ v}
c ubic
j n
Ġoscil latory
cdot )}
Ġger ms
L ee
)}\ |
_{u v}
ĠK P
0 20
Ġoper ads
Ġco cycles
Ġrefere e
Ġpredic tions
@ [
Ġsimula te
Ġins pection
Ġa ge
stra int
Ġdic tionary
c here
11 8
}| =
( +
v ised
ĠL ee
ĠL S
ov l
av oid
( (-
M IMO
\ ce
ĠB u
sen se
B on
T t
\c J
ĠÎ »
\y y
ĠShi mura
ĠD iv
delta )}
}- >}[
Ġ\g trsim
Ġ3 9
D v
unit al
^{-1 /3}
ecomp osition
Ġ ess
4 14
Ġac tivity
oto pies
ounce d
da ms
ree k
_{N \to\infty}
Ġc at
E l
F l
er ay
Ġ} }{
2 13
\s pec
break s
Ġh or
T )}
tr }
Ġco ales
^{1 6}
ĉĉĉĉ ĉĉĉ
min or
Ġ{ [
le ge
19 84
' }=\
). (
lem me
(- ,
x x}
Ġs cre
ĠP L
tif ications
Ġmis take
l z
ĠB re
Ġtrans por
_{0 ,2}
* ,
n olimits
con tro
Ġarrange ments
u der
Ġe avesdro
Ġacc ord
Ġpro p
Ġen umerate
Ġmicro scopic
Ġd p
ch ild
^* -\
11 4
Ġatta ching
Ġattemp ts
Ġfall s
, ~~
\m cl
\ proj
ĠP as
ak ian
U P
z h
_{j, k
0 14
cal X
Ġde dic
\ ab
Ġv ola
Ġanaly se
)^{ |\
Ġtra ined
ĠB PS
First ly
{- >}[
F o
U s
p red
Ġ\M M
parti tions
optim ization
Ġ\ kk
^{ I}
T ur
rest ingly
ichot omy
normal font
F UNCT
H Y
}] _{
od im
\c p
^{(\ nu)}
Ġ\en space
lo ok
ĠS W
ĠS iegel
Ġmon ochromatic
## ##
_+ ^{
dis cus
Cho osing
Ġcall s
t us
Ġ\ ob
}} [\
Ġc lip
Ġstud ents
< /
{\ ,
_{\ O
Ġcon ical
mu nd
_{p =1}
Ch ar
: ,
Ġdimension ality
Ġassoci ates
app lied
\ providecommand
Ġb old
( 2)}
ĠC ur
Ġclock wise
^{\ mathbf{
Ġ\begin{ theorem}
Ġsub varieties
Ġ\math ring
Ġradi o
_{n ,n}
complex es
fil tration
a mpl
com mon
L N
Ġlike wise
' )}\
g k
\in\Z }
A e
Ġde fault
12 7
is on
ar di
Ġtri al
Ġgen uine
t xt
ia o
ear ning
VV V
K dV
da ira
S olution
ĠR u
Ġmeasu ring
\r q
ono i
it ality
_{\ A
P al
S eq
] }=
22 2
A SS
Ġ\ sec
Ġpar alle
{{ {
pat tern
Ġstar s
H ess
s X
Ġhtt ps
K B
ori entable
ĠPa uli
_{\ bb
ell i
ex pon
per t
Ġtaut ological
sca pe
qua te
Ġper cen
^{2 k
u S
^{ B}
k ra
me ister
ii }
ord inary
. ]{
\i math
mp ty
Ġequ ic
il ding
\ et
Ġto uch
Ġcarry ing
ĉ ĠĊ
f rk
ĠR un
Ġmo bile
); (
ili ation
Bbb k
h c
)] ^{
F unc
3 30
,\ {\
Ġtun ing
corre lated
Ġsol vability
Ġ\v x
\bb P
de m
Ġfin er
\ der
Ġrece ives
W ol
ĠE arth
ĠPro gram
vi ties
Ġencoun tered
lo sure
index ed
Ġattrac tive
) }},
s low
R X
Ġh it
Th ree
simp ly
\ pro
Ġ\ll bracket
Ġth or
Ġfor bidden
C ref
Ġp ix
}}{ =}
ĠHan kel
Ġ\ pl
ĠCon ditions
p ullback
_{i +1
\v s
Ġport fol
m A
Ġflux es
_{\ D
ĠĠĠĠĠĠĠĠĠĠĠĠĠĠĠĠ ĠĠĠĠĠĠĠĠĠĠĠĠĠ
Ġpre vent
Ġinf ected
M umford
} ^*(\
ĠG ronwall
Ġs ke
ori entation
criter ion
Ġ\b ox
Ġsub modules
g ive
^* )=
measu res
+ 4}
W u
ma tro
ĠN C
Ġdepend ency
conjuga cy
ĠĠĠĠĠĠĠĠĠĠĠĠĠĠĠĠ ĠĠĠĠĠĠĠĠĠĠĠĠĠĠ
^{1/ p}
}} ),
ĠSV D
ĠI EEE
ĠP D
Ġun knot
}] .
R )}
mark ed
S N
wh ence
Ġinser ting
il lar
ĠP oly
mon oid
Ġfilter ing
mit ted
Ġultra filter
ĠC enter
Ġinser tion
permu tation
ĠT ra
'' '
fe ld
N evertheless
EN T
extension s
ma cher
Ġpro ducing
pro cessing
Ġ| ^{
Ġen codes
es tim
^{n /2}
u w
_{\ Gamma
Ġ\ref eq
imension al
,\ eps}
Ġcol ours
commu tes
P B
S ti
s +1}
Ġ\sub float
},\ ,\
Ġ\m r
Ġ\P ic
\ ac
tru ct
\black square
Ġchallen ges
+ m}
I B
\c Y
ĠF inding
Ġresol ved
| )^
}} &\
\b V
}+\ |
Ġrewr iting
wor ld
&= -
_{m -2}
tt t
me t
w ind
. ''
a mbda
_{m ,k}
Ġdecision s
ĠHel mholtz
Ġ[ {\
pl ings
X )}
i en
ĠK eywords
T u
Ġf ifth
\ pl
{ }_{\
re ct
ĠJ ones
is omorphisms
Ġ Ï
ĠC G
Ġsp ins
ĠSti rling
f und
h es
\u se
; {\
ĠP lease
Ġreli ability
Ġdri ving
Ġpa ren
Ġpre paration
):= (
\ ld
_{\ a}
ĠB loch
Ġrel iable
Equ ivalently
\ rule
row s
ĠV al
W F
Ġb us
_{\ e
ĠĠĠ ĉ
s peed
ĠT ran
bra ted
Ġmention ing
simpl ices
11 7
D K
inte rest
q c
ĠB ergman
U se
ĠD F
be }
Ġinher its
Ġtrans versality
Ġ5 7
\ space
_{\ ep}
ev olution
Ġsatura tion
Ġ& +\
)|\ ,
F act
K ac
^{ }
} ')
er ts
_{\ L
Ric ci
l hd
ĠS ect
]\ !
Sch ur
ĠĠ ĉĠĠ
itta ker
M as
Ġd m
Ġh ints
^{i ,j}
\V ar
optim ality
ho d
Ġfactor izations
Integra ting
en u
_{\ G
ll ustra
Ġproceed ing
Ġ\b reve
5 000
L )}
de st
Ġpartition ing
â ī
tic les
)\, ,\
Ġcos ine
Ġwa velength
\ra isebox
avi ly
: {$
ĠV or
thm ref
Ġti le
Ġaugm entation
V R
modu li
ĠF ibonacci
Ġ\p mb
Ġhar der
Ġme dia
Ġdis continu
>> }[
ĠRam sey
S n
Ġ\ tikz
Ġuni versality
Ġstra nds
J B
Ġc ele
Ġ} +
Ġcongru ences
W al
Ġs lower
ra ther
ĠF INSEQ
ĠA tiyah
tar ity
33 33
Ġdesc ending
functor s
Ġperturb ative
Ġsti ff
K eywords
in z
\b U
ft en
Multi plying
\s g
Ġhe avily
hate ver
Ġtrans position
Ġ\v skip
( 0)}
Ġ\n um
Ġ5 6
[ \,
19 85
Sub section
necess arily
ua d
Ġconsider able
a sion
\ ri
\ du
to c
Ġ\b k
Ġspace like
) )=(
^{- k
ĠP R
Ġ(\ {
' )|
l ish
in cre
Ġre sulta
Ġlo ci
max im
cou ra
ĠWi kipedia
c J
Ġin herent
Ġ4 4
\s G
la }
Ġapproxima tes
ĠCa simir
}_ -
\to +\infty}
\S c
se mic
atur ally
correspond ence
S hi
[ |\
B ou
M G
^{( r
H N
cal A
\cal S
onym ous
A f
ĠH igh
Ġdiff u
Ġindic ating
comple tion
ĠAccording ly
e eq
se arch
Ġanal ys
\cal M
where as
Ġ\v b
expec tation
3 20
Ġf un
ĠC F
our n
\def ine
r in
Fig Font
Ġoscil lation
Ġflexi bility
11 6
Ġam alga
Ġ\big vee
Ġarray s
\D GC
la ne
od ing
pr inger
Ġcof ibration
! }{\
la sov
ĠC l
Ġ\ .
Ġc larity
od ifferential
Ġexact ness
R d
Ġ\ rk
Ġ* *
Ġdetermin ation
+\ ,
Ġover head
{ )}
cl m
( [-
Ġ\ it
Ġas c
T erm
LE M
Ġbijection s
\Re al
Ġreflect ing
lan k
^{(\ alpha
Ġdomin ation
at omic
pro pa
ĠCo mbin
p to
ĠC as
Ġ\b S
Ġclo ud
}] =
45 0
local ization
Ġsubstantial ly
_{\ T}
)) >
Ġcontra variant
Ġmode lling
S tructure
Ġinte gr
Ġtop ics
,\ omega}
ga uss
\e eqn
Ġintertw ining
}+ {
V ector
ĠMar tin
Ġaltern atively
Ġhtt p
F i
L d
l v
10 9
Wh ich
Ġaut onomous
Ġparameter ization
a xiom
_{ [-
ph arpoon
Ġcont ours
Ġmain tain
2 60
per turbed
14 3
chere l
\ longmapsto
sub groups
gamma )}
lev ance
back ground
Ġblow ing
Ġtrip let
Ġfocus ing
7 07
a der
} ~~
ic y
Ġsub tracting
A i
\ Th
j ac
Re lation
d in
Ġleft most
Ġ\ rt
Ġquanti fy
_{n, r}
Ġref erring
, $\
---------------- ----------------
al king
ia ms
linear ity
\m n
conv olution
Ġpush out
Ġferm ions
da d
' )^{
\b i
_{r s}
yn chron
Ġru led
spec ified
Ġimprove ments
^{- p}
Ġ\d f
Ġout ward
Ġ\e mail
AA A
ĠA F
S el
\l s
_{3 ,3}
Ġ\u u
H il
mon omial
Ġsn apsh
Ġ( )
sub sets
Ġpolynomial ly
q x
^{ an}
Bound s
Ġmid point
P res
Ġpri ma
3 18
Q FT
T N
Ġw ants
Ġlocal ity
Ġbe sides
normal size
BM O
Ġcompre hensive
Ġspec ification
Ġvehic les
)= &
_{a ,b
< $
] [\
Ġde ci
Ġ\big otimes
Ġconstruct s
AD MM
> ](
P ower
big otimes
\ textsc
Ġavoid ing
shor ten
da tion
il ing
orth and
+... +
urope an
), &
Ġ\n mid
}). }
Ġoper ating
Ġmass less
t X
ert ur
Ġpun ctures
ha ra
}). \
Ġ\s gn
estima tion
Ġz one
Ġsimplify ing
Ġaggre gation
^{\ delta
_{k +1
}}{ {
Ġpa ti
P as
ri end
}}\ |\
\A c
A MP
dd r
restric t
\ str
Ġ\N orm
s lice
ound ary
con structed
graph ic
Ġ\texts l
\ bel
Ġrepro duce
^{\mu \nu}
Ġele gant
Ġthree fold
och ner
Ġ| {\
li u
dynam ical
th ose
sh ould
Ġlog istic
Ġcomp osing
Ġspe ak
ra p
cent ric
Ġshe et
combin atorial
lo o
S B
'' =
Ad ditionally
Ġaccord ance
se gment
Ġenter s
\bib item
R ight
d ges
Ġd ark
\c ref
ex m
Ġ\to p
pair ing
Ġs ie
Ġde licate
15 5
defin ing
' },\
Ġ\ prob
AL L
ar ticle
^{2 (
p -1}
ĠB el
ste ps
\T ilde
Ġb end
an aly
)} ^\
structure d
, D}
Q C
character ization
n ication
Ġphot ons
Ext ension
Ġ\b w
Ġ\u psilon
Ġcele brated
)} &\
Ġext rem
H ecke
ĠD rinfeld
_{\ psi
An alogously
Ġex clu
^{1 5}
H ilb
in ery
Ġattrac ting
N p
Ġ\ sep
ĠN E
pl ines
]{ -
poly gon
|}{ $
Ġ\ ct
6 25
Ġp end
Con f
Ġmoder ate
R an
ĠLe ft
Ġdeal t
le c
ib er
Ġcre ates
front matter
T ab
Ġcons tel
13 4
Ġheter ogeneous
Dis crete
ra k
_{2 i-1}
Ġaf fin
_{\ S
{= }[
_+ ,\
00 8
Ġtime like
Ġro ute
99 9
Ġâī ¤
\var kappa
depend ence
Ġpropag ator
operatorname {
)! \
Ġsucces sively
^{-3 /2}
f )}
p ly
ĠLang lands
An alysis
Ġrec omm
}\ ).
Ġinv oke
Ġde gra
p +1}
fra m
go al
ma j
Ġas ks
}, (
Ġnor th
}(\ {
tit ut
Ġstra in
Ġdiagonal izable
ide meister
Ġdro pped
ta me
ĠL ast
as sumptions
_{4 1}
K ey
^{- N}
sub fig
Ġrepla ces
General ized
ĠĠĠĠĠĠĠĠ ĠĊ
Ġv ide
inter polation
ĠAD MM
Ġord inals
\ For
Ġiso perimetric
S pecial
k b
Ġcontrol lability
XX REAL
pri mal
Ġsl iding
ĠĠĠĠ ĉĉ
ec han
Ġcar ds
ĠBes ov
] /\
di ver
Ġ{ (\
_{X, Y}
Ġcomp ressible
le g
}} }.
sub array
und le
o ss
}_{ {
}$. \\
ĠK e
ategor ies
ort un
Ġcontradic t
C n
ĠFunction s
rotate box
e lastic
t A
alan cing
A g
\ textsf
Ġ\ rank
- [
re ak
Ġde code
Ġar ranged
Ġc ache
ex mp
Ġ* *\
Ġhar ves
\ ext
ĠB on
}+\ |\
^{ y}
\se arrow
\ the
\ ox
}_{ >
ĠĠĠĠĠĠĠĠ ĠĠĊ
App lications
o ok
Ġsumma ble
Ġe uclidean
Ġtermin ates
Ġbatter y
Ġ1 80
V ari
^{\ op}
Ġsuper script
Ġhist or
Ġintui tively
u racy
Ġcontrac ted
th }}
ro id
\E xp
Ġdedic ated
Ġen riched
M s
cong ru
ergod ic
ĠL at
ell ing
pe ating
Ġoccur rences
_{\ A}
Ġ} -
app lications
sp heres
\cal O
Ġ\ der
_{i, i}
v on
color box
a j
u f
Ġw inding
\R es
Ġwa iting
\V V
s frac
25 5
page ref
ĠN OMA
Ġqu ery
Ġneces sity
b ridge
Ġ\ propto
ĠJ ohn
^{2 ,1}
Ġhe ads
Ġremo val
she ll
Ġdeca des
ĠK ey
ĠF ried
Ġra ised
Ġcircu ms
lo so
A p
Ġj ob
Ġhosp itality
Ġeffec tiveness
] }_
app ed
are to
e mb
_{\ F
iel sen
ma cro
-\ ell}
19 82
Ġbehavi ors
Ġmajor ity
_{\ |
Ġlo ose
ta nd
Ġsec ure
un o
sp ring
Ġquad rant
lic z
Ġellip soid
ec m
uk ai
pharpoon right
G B
th al
Ġdiscus sing
\ as
ĠT uring
Ġinde finite
Ġalign ment
\t d
x act
co dim
[\ !
Ġparame tr
Ġ& {\
)\ \\
ympto tically
Ġ9 5
triangle up
show n
Ġglu ed
^{\ c
Ġsome where
â Ħ
for ces
Ġradi ally
Ġminim ized
Ġs es
gle ftarrow
Back ground
^{ f
ha ving
Ġfram ing
Ġsub tract
hy pothesis
ti tive
ad sto
iota }
tig ating
t q
Ġinher ited
rame tric
Ġ\L ongleftrightarrow
ĠOr der
\ and
_{\ Theta}
)! (
w v
ĠPe zzo
ĠD arboux
Ġtil ings
idel ity
o scil
p w
\geq 1}
]+ [
G er
Ġre tract
desc ent
Ġaffir ma
us lander
_{( k)}
Ġke pt
cal O
ĠB ott
^{( 0,
Ġ\co mp
Ġabbre viate
, j
ard o
y ck
z o
bo ol
Ġbase point
\a a
Ġprecondition er
si zed
trunc ated
display breaks
Ġjus tification
Ġmulti dimensional
Ġassign ing
se lect
se vich
ian chi
_- }
ro gate
d ox
Ġ\s O
Ġiniti ated
L F
ga s
Ġsub categories
Ġoptim izing
Ġjo ined
P ara
Ġpric es
Ġcor ollaries
19 5
iter ation
Sum ming
. ~$\
_{ Z
ga }
per f
bo ot
Ġ\K er
}}( {\
ig e
Ġtur bul
_{-\ pi}
Ġquadri lateral
W a
^{-\ gamma}
* {-
co herence
Ġtight ness
R x
s -1}
\b N
Ġco mmand
Ġm inu
po isson
Ġcomp arisons
\ plot
Ġz ig
ĠV alue
\footnote size
^{ it}
}) )$.
ĠN S
concent ration
a res
ĠMarkov ian
u ction
^{ D
\end{ gathered}
f ar
Ã ¤
Ġincorpor ate
Ġoccup ied
Ġcapture d
p lo
Ġc aching
Ġreformula ted
K r
N B
pres ent
Ġself adjoint
po les
zz i
Ġcli ques
Ġ\ me
}_{ |
Ġp lu
] )}
Ġ| .
Ġtheore tically
1 0}
W T
[ \|
] \|
\v u
Ġdu als
/ K}
^{p -2}
Ġti gh
Ġimpro ving
repres ent
Ch ern
Ġmaxim ality
configura tion
Ġfaithful ly
se en
Ġfore cast
point wise
ik h
\ reg
Ġ\ Exp
Ġ| _{\
Ġaffect s
w ere
Ġha ven
con stants
Lo c
Ġutil ized
l is
Ġcon duct
}( |\
Ġquantif ier
The o
\d v
,\ |\
}} ).
ire n
inte gers
Ġc le
Ġsuper ior
Sol ving
nega tivity
direct ly
^{+ +}
de velop
sc }
Ġbo o
irt ual
CC }
X BOOLE
+\ alpha}
pect rum
Ġrecomm end
u y
ĠF ield
es ult
us al
Ġexpres sing
Ġthresh olds
You ng
_{+ +}
i pher
_\ #
Ġsupp ly
\U U
\re sizebox
Q N
R ing
we ep
ĠY et
' ]$
^ Z
Ġla mination
w )}
Ġcon cluding
u tational
Ġanom aly
e ref
ĠD L
Ġc ited
Ġn ames
Ġmulti set
ĠOn ly
M il
G i
l -1}
^{ 7}
ĠM ag
Ġrever sing
ĠPol ynomial
8 00
A re
\ ho
Ġtran sf
Ġser vers
Ġ\K K
Ġsole ly
ĠC all
^{2 r}
e per
_{1 9}
d ating
' :=
Ġh uge
Ġ-- (
ĠH itchin
lines tyle
C Z
s hi
ro zen
C ap
Ġp lugging
VE CT
G m
\ps arc
a ded
ĠS el
Ġmo ved
k al
le e
il enberg
Ġvis cous
^{l +1}
ĠH ir
texts l
Ġ\two headrightarrow
Ġd w
ga me
. $\
ĠS z
P hase
Ġ\m rm
}| |\
Ġconfir med
ĠO perator
23 4
Ġima ging
SK I
? )
Ġfin ished
ĠW al
\omega }
)| }{|
Ġauto matic
C ommu
v dash
Ġoff ers
CM C
Ġslot s
ont sevich
ve re
ell in
ĠWe ll
+ n
\begin{ gathered}
Ġabsor bing
big vee
Ġ@ {
Ġuni tarily
Ġalign ed
Ġsemin al
Ġslic es
} &=&
)}} .
th rm
Out put
A lex
S ig
Ġd ate
eriv ative
^* +\
Ġsubs equences
Ġir reducibility
c les
, V}
] ],
ite s
\s H
Ġ\g l
ref ree
ĠP A
Ġspin ors
Bound ary
ĠD P
Ġ ^n
l parr
m tx
r parr
as ym
ĠE M
Ġquanti le
Ġlimi tations
frac tion
Ġch ords
\beq n
ĠWh ite
'$ )
star ting
)$ }\
Ġhy po
Ġpolyg onal
b W
Ġsubs hift
essential ly
Ġexecu tion
ra bility
_{A, B}
^{1-\ alpha}
Ġconf lic
- (-
\ dual
h art
eq ua
\t rans
2 16
,b )}
e i
\s P
commu te
bi as
on vergence
Ġun constrained
_{n k}
Ġgover ning
F rac
sup seteq
Ġpredic ate
Ġh al
ĠL y
Ġpost pon
c ancel
si l
Ġ\L ie
ta tes
ra isebox
w b
Ġmod al
Ġda tab
\base lineskip
U S
a gin
)| $,
. }\\
_+ }\
n j
ĠS w
pri m
Ġsta bly
ud get
et urn
\b D
ap an
Ġmechan isms
\co prod
cons ists
E t
H i
\le t
Ġmach inery
ĠLi u
' )-
\S s
Ġ& -\
ĠE rror
ĠD C
]_- {
Ġstud ent
ag ree
ĠTHEN L
C over
M ay
trans pose
olog ous
_{3 ,2}
Ġ\w p
Ġ\in v
Ġ20 10
Ġla tency
radi al
s H
Ġ{ }_
Ġfirst ly
Ġ\s cal
ma z
res on
tribu tions
e ight
ull ref
Ġat traction
_{3 ,
_{n+ m}
Ġar g
Ġsh orthand
Ġspa cing
_{ 10
ad mits
\g f
Ġde s
\I rr
0 75
)* +{
Y u
ers en
Ġexpres ses
mic ro
Ġferm ion
B un
S mooth
re place
ub }
Ġ lambda
ign al
SS S
Ġ\mb b
Dis cussion
ho v
000 1
Ġacceler ated
k as
)| |_{
S chool
Ġ\s p
\Lambda }
velo city
T an
19 80
13 6
Ġpoly hedra
2 11
i as
es ting
ar Xiv
P lease
h X
Ġisometric ally
Ġn um
du cted
ĠM ic
dd d
spec ific
st udy
Con vex
Ġans wered
Ġcolour ing
ĠCou rant
uS cript
Ġma xima
+ 2)}
ĠGe ometric
dis p
- k
E ff
f urther
+\ epsilon}
28 8
M ag
h ref
^{ in}
Ġ\rm d
ĠProf essor
P lugging
ĠI ter
Ġeigen spaces
tran sfer
Ġshift ing
EA SU
Ġat las
)^{ [
\s L
hand le
ĠI NT
\ asymp
Ġf loor
ĠBS s
Ġadvance d
Ġcou plings
Ġsubsection s
J ust
ĠW riting
ser t
Ġ ,\,
Ġt u
ide als
pend ing
) ).$
Ġ\qed here
\ ast}
pp }
\ mo
Ġdis appear
un ing
Ġremark ed
)} [
cy linder
_{\ p
}} )=
_{j ,1}
Ġcorrespon dences
ida ble
arg min
T ree
me thods
Ġ\d dot
. 5}
| },
til ting
^- _{\
\inter text
E rr
sum s
Ġcounterexample s
J K
k z
^{( }->}[
scal ed
Qua d
: |
Ġs il
Ġes cape
Ġ" $
s om
V S
we i
\l m
)! }{(
mom ents
J P
Ġan ces
\c onv
)$ }.
Ġsub critical
O E
p al
os hi
Ġcould n
Ġconstitu tes
_{k ,\ell}
Ġreformula te
ĠA cade
App lication
e th
ut te
},\ ;
g z
j math
tic ular
con text
ĠV irasoro
} &&
P lot
l st
ta kes
)| .
S he
Ġf eed
F INSEQ
Ġcustom ers
Ġ ^*
}} )}
Ġha m
mark ings
vari ational
H at
V o
ĠS TR
Ġ\v phi
Ġmaxim izes
Ġenhance d
w al
log }
Ġincre ment
Ġextrac ted
\m tx
^{q +1}
ub in
~$ (\
Ġtor oidal
_{1, 2
Ġfinding s
K F
_{j +
ric e
_{t -s}
Ġ\t w
0 ,\
w orth
^{\ T}
{ :
su i
ta p
Ġre levance
}) >
Ġat tribu
pie ce
m cl
lu ster
Ġwrite s
verag ing
b ble
m h
q a
ifferenti ating
\b g
ric es
add le
Ġ\cal C
h len
Ġ\ so
ĠTh urston
Ġsub div
Ġnever theless
ma jor
comple tely
)} <\
Ġpullback s
Ġportfol io
S tability
n il
ta iled
Ġdia mond
tran sla
, e}
k v
ĠP ower
)}{ |\
j l
left margin
im odal
theore tical
Ġanom al
b alpha
Ġ\ra r
. *
1 ,\
}) /\
\c urve
y al
Ġmodel led
Ġ}\ ;
L imit
^{ v
_{\ h
i ft
Ġcol labor
Âł Âł
intersect ing
{ =}
Ġbelie f
ĠB irkhoff
titu tion
Ġhard ware
\c i
ĠE uropean
Ġac qu
Ġloss es
Ġt ric
pro g
\ succeq
mp s
c lique
_{\ #
00 9
conver ge
Ġvis it
( i
ĠS ay
impl icit
ĠD ifferential
Ġinf e
ĠUniver si
c w
m w
en n
Ġh oriz
ĠV an
Ġnear by
Ġthick ness
Ġ\ra isebox
Ġann uli
0 19
H iggs
de q
Ġcharacter isation
Ġargu ed
> *{
o S
\g s
AR SKI
MM SE
ĠZ F
\e lse
supp orted
Ġp red
Ġmargin als
ĠCho osing
Ġ\ proj
ph istic
zen ge
Ġlexic ographic
Ġ\ zz
_{\ k
hand ra
_{n- 3}
divis ible
Ġtack le
: "
O B
ĠP yth
A belian
ĠF u
ĠN atural
^{2 j}
' \\
ct s
for cing
x f
Ġ rid
), ~
po inted
\ga m
ceed ing
P N
r put
ver ti
ex change
Section s
frame box
{ }[
Ġensu ring
Ġtri als
ĠRecall ing
ĠBru hat
om ment
gra mma
cons isting
bo ard
/ }
Ġ\ ord
co variance
\t wo
loc }}
Ġcollision s
Ġrenormal ized
ter ra
olu tional
d M
ure r
Co mbin
L ittlewood
tru ecm
ĠCon trol
Lemma s
^{\pm 1}
Ġsu spect
Ġj et
ni que
Ġidentif ications
\bb C
Ġsemic lassical
la ys
==== ====
di aba
ac ulty
ĠSecond ly
( 0,
I MP
w g
cr is
Ġ7 2
constra ints
Ġvio lated
I E
ĠC C
Ġter nary
Pro perty
Ġlarge ly
inde ed
Ġresulta nt
, k)}
Ġen coura
Ġconduc tivity
' )^{-
act ory
Ġ\big sqcup
les on
Ġmulti scale
s sup
Ġn ominal
Ġv ic
~$ {\
^{(\ infty)}
Ġvola tility
/ k}
3 15
om ing
_{n ,0}
Ġimmer sions
\d bar
Sch wartz
ĠD IS
IEEE keywords
Ġbreak s
beha vi
c rystal
ĠPro duct
19 79
)| ^{\
Ġpub lic
13 7
Ġ\S S
L AB
ro tation
e ve
in ction
Ġ\ em
Ġfla gs
Ġaccep ted
^{3 /4}
Ġprotocol s
semis table
Ġ\c W
)| <
Ġopp ortun
le af
iz ability
Ġke eps
Ġelabor ate
> '
Ġdis e
\n big
Ġfulfill s
\S h
Ġnormal ize
\t l
Ġvarian ces
Ġopin ion
Ġh its
on orm
lu nd
]{ ->
\xymatrix@ C
T au
Ġ\c Y
mean ing
ĠWh ich
Plan ck
Ġ0 5
'' )$
Ġcoun it
)\ \[
cal ing
ot }
ĠM LE
ĠK al
imp ortant
Ġremin d
Ġf iles
Ġcon cavity
*} {\
\varphi }
}{* }{$
Ġmo tives
Ġtran sitivity
vi kov
\f m
Ġs kip
ĠC FT
Ġhyper graphs
k ed
Ġm im
ĠE nergy
J ordan
.\ ,\
Ġexhaus tive
belong s
14 7
F ield
o pacity
on st
ĠT ur
Second ly
^{ S}
^{ P}
Ġ\ lf
\b M
Ġcyclic ally
Ġ _3
ti tions
Equ iv
satura ted
s T
re ath
min }}
+ t}
< _
_{x \in
^{( N
te t
es ter
S INR
en ded
ain lev
f ied
Bound ed
mula tions
^{m -2}
} '}
\S t
Ġ\var sigma
ta x
Ġ12 8
ĠComp uting
Ġan onymous
omp act
^{ '}
Ġb ond
\s gn
cite d
Ġro om
Ġpromis ing
c q
i dual
deg rees
... ,\
Ġsyn thetic
try agin
J L
is en
\S pin
Ġdown ward
}$ (
ĠA ss
ĠV ector
entral ized
hlen beck
] .\
^{ f}
ord ination
jec tively
formula tion
CL T
de p
)} _\
\ po
20 1
ud in
tar t
ĠJ ulia
at son
13 8
Ġdec ided
- i
s N
: ~
Ġ\C H
@{- },
Ġentangle d
gu ing
13 3
_- $.
ar chimedean
&+ &
Ġ\ else
^{2 \alpha}
Te X
Ġinterpre tations
_{\sigma (1)}
, J}
\ tex
^{\ Gamma}
! }{(
o T
_{2 ,\
Ġ\mid rule
k ar
\l or
\c f
Ġ\g t
k d
Ġus age
m C
ul sive
Ġtrans versely
] \}
w alk
Ġcol linear
one y
Ġ\G al
Ġ\ thmref
Ġd A
ĠM DP
ss ential
Ġexceed s
' \}
C e
re ce
de ep
^- _\
Si mulation
Ġcompan ion
A mp
eq s
Ġre called
ĠT hank
Ġmove ment
| }(
)& :=
y ellow
in duct
Ġw ild
ag s
) '$
ĠS olution
\b bb
ĉ ĠĠĠĠĠ
We ll
sol vable
multi pl
Ã ł
)}\ |\
\ lan
eq def
ĠS turm
il la
g ot
_{2 R}
Ġqu ivers
}\ },
Ġcon ducted
Ġg host
ĠA c
Ġ\V ar
an ten
et te
ĠC DF
Con j
Ġ\ angle
Ġro bot
Ġpla ying
Cor responding
Ġpick ing
in bow
an other
19 78
}^ +(
Ġ} +\
_{\ varphi
ens kip
Ġasc ending
ar ial
Ġb ivariate
lu x
ay ashi
Ġ\S i
formula s
bran ch
ĠBa ire
en se
ta ries
Ġ- {\
er fect
23 1
Ġdeterminant al
Ġdecor ated
int }
i q
al ways
ta ken
ĠM i
gra vity
mis sibility
tors or
me ta
ĠH asse
Ġ|\ ,
y ra
_{\ Q
lar ger
)] _
C one
y pical
ro duct
Ġi ii
ho vanov
_- $,
I Z
v as
de lay
}_{ -\
Pro ve
)] =\
c entered
Î ±
\in ner
tr ig
t ol
}\ ),
Ġsu be
Ġinterf aces
m j
, 2)}
Ġ\ oint
19 81
ĠM AP
La w
\c or
ĠX BOOLE
B lock
in force
ĠMon ge
Ġcooper ative
ro g
Ġconclude d
Ġfib rant
p atch
}), $
_- )
,\,\ ,\,
Ġexpl oration
z p
pres cript
)( (
ĠAs so
Ġ6 2
z ig
ĠAn alogously
L V
ĠU Es
ĠS ym
Ġen counter
condition ed
ĠL ittlewood
Ġsec ret
^{\alpha \beta}
^*\| ^
u h
small er
Ġ *}
C ut
J an
^{ C
)} ^{(
ĠJ an
\ge 0}
vari ates
Ġpul se
^{ B
\T or
Ġ\s ym
T Y
Ġtransmission s
squa red
R am
Ġh ours
Ġy shift
im }
)= {
( z)}
K Z
)| =\
Ġ\small setminus
y ear
Ġre vis
ĠF L
the m
pm od
on line
_{ ab
imp s
be fore
Ġ= \,
col l
Ġobstruction s
Ġdec imal
uch s
ourho ods
Ġspecify ing
^{\ s
D W
T B
l mm
im er
ĠA W
direction al
techn ical
squ ig
L DP
f ibration
_{i 2}
\cal E
distribu tions
Ġcapa ble
ĠStar ting
( p)}
o mple
)| ,
Ġ9 6
^{2 N}
F Y
Ġa id
Ġacc ounts
_{\ Q}
the or
Ã ®
Ġup dating
Ġtwist or
P H
g A
in ternal
can not
Ġfocus es
ĠY oneda
Comp uting
ĠS uc
j aco
^{\ f
_{i \in
Eq uations
sc u
rac tical
Ġ\c d
^{- a}
;\ ;\;
1 0000
su n
or is
si a
\d f
phistic ated
Ġb udget
he ta
back ward
Ġcor rup
Ġelect rical
18 5
A bs
t H
Ġun clear
Ġspace times
perturb ation
L eg
Ġ\f ref
_{n ,2}
Ġforth coming
+ h}
F )}
Ġde cla
ellow ship
F N
Ġround s
Univer sit
Ġ ^3
m L
ĠM S
[\ |\
Ġtrade off
ĠS paces
ast er
dis cussion
h ot
or ig
i der
para ms
[ "
+ l}
Ġ _s
exp ansive
j et
s ti
=\ !\
de le
ms f
Ġ) {\
ffici ent
Ġ\g cd
co variant
Ġinterpo lating
Ġevol ves
_{n n}
Ġpush forward
F W
]\ }$
Ġs ket
\L ongleftrightarrow
ĠT hom
_{i, 2}
yl or
Ġrearrange ment
W riting
Ġbra iding
g ic
\v b
ĠLa guerre
( m)}
ĠM odu
alu es
* >
_{ ex
}_{\ {\
Ġconver s
bran es
Ġ\c enterline
} /(
cu bes
Ġpropo sal
\cal P
perim ent
Ġ rho
s C
lo u
para graph
Ġinvestiga tions
f ac
\in te
Ġj unction
)\, (
m entioned
Ġag o
App ly
Ġ\Re al
re als
' ^{-
c in
\s E
Ġconcept ual
^{ z
si vity
ĠCo mple
thresh old
;\;\ ;\;\
Ġpi pe
Ġro ll
Ġreson ant
ĠW ilson
Ġargu ing
Ġfru it
Ġc ot
Q S
24 5
Ġsuccess or
Ġisogen y
\cal D
\m v
15 7
Ġcre ating
slo pe
Ġ(\ |
Ġp le
}} )^
)] }
Ġabsor bed
s till
ib re
Ġstand ing
\B r
at }
ĠS pin
che l
C as
Ġf at
Ġbenef its
ĠM echan
ru ll
\D er
Ġattrac ted
F inal
y en
ĠM V
Ġnon compact
ĠPro perties
sign al
ĠRemark s
super script
_{\ w
da st
\cite t
ro pies
Ġmultiplic ations
j m
r brace
ĠD iophantine
A I
m P
it en
ich ards
ĠM DS
d E
j s
x q
}$ &
Ġwi der
] }|
s ymp
Ġb imodules
ri al
N +1}
f X
cal culus
Ga m
Ġpresent ing
squig arrow
over pic
\s D
8 66
}] }
^{-1 /4}
B )}
^{\ phi}
Ġsub class
Ġpres entations
ac yclic
Ġimportant ly
ĠKo daira
Ġcol oured
que e
}}{ }
Ġcub ical
\w w
lift ing
)} ^{-
_{n i}
ĠK dV
Ġdemand s
spa tial
Ġcof ibrations
G romov
Ġprima rily
iren berg
Ġ }}{\
)) ]
ĠW u
ext remal
; (
R en
Z a
Ġsub car
Ġration ally
{ <
da bility
ilp ot
******** ********
Ġh olding
Ġgu ide
AN D
Ġ )}\
+ .
Ġ\Big gl
Ġchord al
Summa ry
Ġn ine
ter ing
comple teness
e o
d L
h ua
_{ /
_{\ zeta
_{\ Psi}
\cal F
J H
Ġd up
che v
Ġco compact
}) }}
Ġ\ red
riter ion
app lication
_{\ n
Ġde velo
el le
ĠChe valley
)$ '
dimension s
,\,\ ,\
aut onomous
ĠFer mat
de macher
how ever
Ġ\n ormalsize
ĠApp ly
mp }
pro c
' \,
d onald
Ġla dder
SE P
Ġmodify ing
diaba tic
_{2 m
11 9
Ġhence forth
Ġnormal izing
D et
\s k
Ġw hatever
^{ 7
Ġt ending
multi row
ĠC ould
Ġimp oses
ĠS c
) }}}
Ġ\ XX
ve lling
lo ops
Ġcosm ological
Ġs chool
ĠĠ ĉĉ
Ġneur ons
ĠCoun cil
Ġ }{(
d Z
ĠS tanley
Ġhyperbolic ity
Ġplan ning
^{\ell +1}
Ġhype red
z t
}. ..
)| }\
Ġdis plays
\re p
R och
T i
b K
V ect
ti ous
ti vities
Ġs eq
ĠB ro
ĠQ FT
_* )$
} '$.
Ġ\ su
stra ight
G orenstein
cal H
Ġ\b n
sta ted
_{k k}
Reg arding
Ġre ality
Ġ\b B
Ġla belling
P U
\ ob
ĠI C
ĠP al
Ġsurv ival
a ther
g ar
ĠR oughly
asu res
ĠH yper
\s cal
^{-\ frac12}
ĠRe idemeister
Ġsemin orm
Ġ| -
compu ted
im ity
Ġnet s
ount ing
ĠPo st
\h fil
Ġquadr uple
\Bbb k
Ġacknowled ges
ĠF D
N um
Ġinstant on
s M
es sel
_{\ X
ia mond
is crete
ĠA nosov
Ġfli ps
in clude
Ġ\ make
Ġfluct uation
F rame
L ang
label ing
Ġ\b Q
act ually
ĠCal der
C ox
Ġflat ness
\pa re
let ons
fla t}
ys on
wide check
^*} ^
\ tabularnewline
ĠY u
^{ ''
Ġeigen states
N oting
fill ing
Ġsha ded
ou ts
Ġharmon ics
o tation
Ġm ill
ĠL imit
pa gestyle
\s w
cri ption
ous tic
Ġrequ est
L im
_{ ac}
): }
Ġ\ tiny
pa nder
23 5
Ġscat tered
- 3
per formance
hy po
Ġ8 1
po lari
ok ker
multiplic ity
\ =
_{ out}
Ġre nder
ĠG old
- q}
simp s
Ġdigraph s
_{\alpha +1}
spect ra
p et
ĠUn like
] },\
q -1}
ven tion
zero s
Ġcontro lling
trib uting
\DGC strand
partic les
pack age
I r
K im
Ġla g
A Y
ri ff
\c ol
Ġpseud odifferential
Ġ= $
Ġpre images
ist or
Ġcont ract
Ġmach ines
L ev
ĠP en
ance d
n q
ĠC T
}+ (\
| {
Con cerning
Ġ\dots b
pri or
Ġshort ly
o le
S er
la re
)} ),
Ġinf ection
SS UM
mp ed
\s mash
Ġ\ mo
Ġt ors
Ġ\l r
Ġ }$$
b I
Ġcon dens
Set FigFont
arith metic
_{\ T
ĠS D
iv an
co hom
ka wa
Ġar ticles
lin eto
yg mund
K ra
Ġav o
Ġaltern atives
> -\
F low
\ ft
cite t
A lt
Ġ\ qq
_{\ H}
cha stically
Ġplace ment
Ġposterior i
E igen
ou l
ob jective
w x
su ppose
rela tivistic
Ġquadr ics
B ru
bb b
_{n, p}
{ }}
Ġu v
ĠS M
Ġenjo ys
Ġm i
}) =(
lan ce
\ it
l gebra
Ġ+ (\
ĠM MSE
Ġlo se
Ġ| }
Ġsub scripts
use ful
H V
su ally
) -1}
F rob
S un
)} ).
]$ :
I rr
Ġuni versally
Op en
ball s
2 15
C handra
^{ ss}
Ġre trac
bd ry
Ġ ~~~
\C E
Ġbi ased
len eck
T ensor
mu lants
ĠR us
Ġhexag on
Ġ\ til
on ent
^{ D}
ore tical
Re placing
Ġ\C P
\e l
Ġweigh ting
\W W
\ve ps
^* .
onal dson
bi partite
) '\
K O
ro ach
^*} (\
Ġsurround ing
ay ama
19 6
sen ess
' )(
Ġin su
Ġb ur
E k
I den
cal L
Ġ& :
ĠB R
Ġval idation
^{d -2}
plot s
| )^{-
Am ong
L ist
\ In
)/ (\
Ġlangua ges
' ^{
po set
Ġsub lattice
flush right
Ġ2 55
28 0
poly tope
llustra tion
ĠL ine
),\ ,\
})} ^
Ġmm Wave
_{1 k}
Ġ\t d
Ġsha res
\A lg
r us
Ġla min
bs y
Ġrota ted
S GD
\ is
Ġco variates
Ġmole cular
\ med
m ot
si x
Ġd S
ad ditivity
ĠApp lied
+ }\
F ried
ĠPro cess
^+$ -
Ġp uzz
Ġ\A d
bounded ness
Ġutil izing
conne ctions
Ġ\ II
\v a
Ġcentral ized
ĠL abor
\al low
Lie b
b if
Ġ\ Int
\b Y
\s d
Ġear th
er tex
ĠB la
ces sed
hi er
ĠK ummer
Ġinter act
fil tered
determin ant
Ġdefect s
} >>
-\ |
lon gleftarrow
13 9
Ġuniform ity
, l
m E
vm ode
\ lo
] )=\
oh r
( 2
)$ &
Ġi id
Ġhyper cube
ĠLe vel
N ode
h P
sur jective
Ġaffirma tive
, n)}
Ġso phisticated
=\ |\
\c ard
lem ref
Star ting
| &\
Ġreason ably
Ġmotiv ate
ĠTable s
ledg ment
Ġvide o
O bser
m oto
stru cting
Ġqu eries
this pagestyle
Ġdiscontinu ities
L Y
Ġ5 1
\f s
Ġtechn ology
o z
in tic
ĠSol ving
& <
}} }_
Ġcu ri
was awa
B Q
Ġassign ments
Ġstation arity
c j
m z
^{ <\
ex ercise
ĠK rylov
ak ov
Last ly
il lem
con es
ĠQ R
\m R
non zero
Ġp ants
^{- d
Ġresearch ers
Ġ\c ot
ĠK a
\B C
\C B
S DP
Ġ\ hom
EN O
ĠDen oting
^{( d
14 }
\t iny
cur v
ĠMathe matica
b N
Ġaccep table
Ġrecipro city
Ġ( ``
In eq
Defin itions
Ġ\ fig
ref erence
blow up
: \!
re q
re duce
Ġdraw back
Ġconsist ently
we yl
Ġli brary
sol ve
B ol
F V
G )}
ĠS un
Ġour s
Ġign ored
sta n
lect ing
repres ented
G g
(\ cdot)}
L b
k ins
Ġpredic tive
ĠHar nack
Ġabsor ption
ĠA S
_{2 ,i}
em i
Ġbi ological
for k
Ġcla use
Pol ynomial
k c
z x
pand ing
ave vmode
Ġ[ (\
Ġ~ ~\
|_{ [
Su per
Ġb rings
_{\ {|
ĠS everal
_{p =0}
Ġsem if
_{2 6}
}: }
ack now
3 2}
)}, $$
depend s
f v
ar xiv
& \|
^{ it
ĠF ermi
Ġ\v r
ĠS er
Ġ\l times
on oid
ĠT X
| }.
}} .\
li ers
\C ref
ĠM AC
Ġannihi lation
F c
c ru
16 8
N O
Ġ\ gen
ĠS tochastic
\text quotedbl
^{2 k+1}
H yp
ĠL asso
co ef
bf series
Ġregular ly
S everal
d G
Ġ\ diam
Ġ( *
ĠA nderson
remark s
SE C
ted ious
cus p
_{i, i+1}
f lag
p seud
r Cl
Le besgue
Ġproject ing
Ġattract ors
re ason
^{ I
Ġde ck
dia grams
W ill
so ft
separa ting
avoid ing
q h
Ġ\b V
Ġapproach ing
Ġtes sel
L usztig
n ab
ĠA o
cha pter
Ġsmall ness
Ġ\ res
es ults
Ġenviron ments
toff el
. ).
v q
w iki
ĠD E
_{n- i}
Ã ¥
Ġcon st
po sitivity
ĠG F
}}{ (\
ĠRic cati
Ġsurprising ly
) _*\
su rd
ref ine
_{n 1}
Ġco domain
Ġv a
Ġpart ly
Ġobsta cles
ĠMas lov
b Sigma
ĠI M
ĠB ER
se g
ĠB ou
\cal X
con tain
mon de
\la b
Ġ\I rr
Ġ )\\
Ġqu bit
Ġ6 3
L ow
Ġ\m tx
Ġcoinc idence
Ġmark s
Ġvis ited
ent re
un less
Ġle cture
Ġpa rac
pe at
'\ }$
ĠStr ichartz
( m
ĠV ari
ack ey
n os
nt }
ĠLagrangian s
Ġconverse ly
semis imple
K lein
ĠY ama
Ġappe aling
z m
Ġ\ rule
}\ :
_{2 ,k}
16 3
a il
ĠF uchsian
big sqcup
allow break
T er
al ty
Ġb illiard
Ġh ol
Ġ\ sharp
ĠC AT
au ti
B lue
qed here
na ke
Ġbu ffer
ĠVor onoi
t -1}
Ġ" ...
is able
Ġde ath
Ġl ive
Ġcustom er
Ġre phra
Ġg cd
en ough
as ymptotically
In equality
Ġacknow ledge
^{ G
Ġcolor ings
)| >
Ab stract
Ġer asure
S pectral
Ġ\t p
Ġanalytic ity
Cla ssical
ĠPut ting
y ield
ten tial
Mo ody
Ġg irth
ĠJ S
Ġsupp ress
embed ded
_{\partial \Omega}
Ġsqua refree
Ġdenomin ators
O h
}) |\
ck er
Re lated
Ġinves tigating
_{q =1}
_{2, 4}
+ )}
, B}
re r
Ġqua sis
cor ol
AR GE
verag ed
ĠF ran
Ġ\b G
Ġcomp ound
}^ *}
\m S
App rox
sh ifted
Ġsa tell
Ġsearch ing
h text
Ġde coded
Ġnon parametric
Ġover lapping
Ġ\ er
ĠD NN
cal }
S to
i ors
Ġre lying
-\ ,
rightarrow s
ĠR edu
Ġqu bits
^{k l}
Ġ\set length
Redu ction
\aff iliation
ĠIn tern
Ġimple mentations
b phi
\small setminus
H all
\ To
h al
\b W
princip le
| [
}} (-
Ġes t
8 75
_{\ et}
il t
Con trol
Ġ\ ox
Ġre pair
)} ,\\
( X)}
B ase
O o
Ġ\ es
Ġany more
_{- t}
Al pha
Ġ9 2
Ġmat ters
_{\ u
Ġma rtingales
ĠP areto
{- >
Ġ\f ullref
=- (
coinc ides
to f
ul um
14 2
Ġresidu ally
' )+
_{( 3)}
_{l k}
Ġrational s
\bf x
st one
ĠS as
ĠP erron
od ory
mo v
19 77
re w
Ġpro tot
ĠR ule
Ġ\t n
\par s
in ity
}- {
Ġsymple ct
ĠR amanujan
Ġ\d oteq
Re v
ot z
ĠB our
\top rule
, r)}
^{\ Delta}
ĠL ip
Ġconnected ness
defin itions
car tesian
ve t
co d
Ġsta tus
pre vious
ĠCol lege
V P
Ġa periodic
ĠS S
Acknow ledgement
Ġevol ving
] }^
ma tr
Ġup ward
mon otonicity
ĠMo ore
ĠGroup s
^{\ a
ty pical
erg ed
Ġback wards
separa tion
Ġv ast
Ġun conditional
Ġann ounced
Ġ\ ka
co vers
13 1
rop ri
Sim on
ĠD i
12 9
Ġ5 9
\g b
ati o
Ġelimin ated
Ġ }}}
Ġsubs olution
trans formations
W itt
ĠK as
Ġ3 00
lin eno
ĠSol ve
parame trization
lo gram
lon gation
AR D
I H
er ro
Ġma nu
Un ion
A dd
J C
l j
y o
bu ll
U Y
\m A
Do main
ĠAlgebra ic
Ġto pos
_{\ N
Ġ\c onv
^{( g)}
)^{ *
\S upp
, I}
z ar
}} }^
^{( b)}
Ġ\C at
Ġb c
Ġad vection
ĠZ FC
}}$ }
)\; .
| }$.
ha racter
ĠW itt
Li kewise
A verage
o ccur
Ġpas sive
^{a -1}
S w
v skip
z n
Ġhom otop
Ġc ry
Ġdele ted
Ġ\b p
ge red
ĠB ochner
bo v
35 0
\a f
Ġre versal
unda ment
Ġsemi direct
_{I J}
Ġ ].
sul t
Ġpara bola
a round
q +1}
Ġ= {\
con clude
Ġen lar
thick ness
Ġtre ating
, r
ti ties
mu tation
)$ }}
)\ |^{
oot s
Ġapparent ly
anten na
Ġd k
}+ |
Ġnatur ality
ĠOptim ization
ampl itude
\B Z
M AT
\C S
la h
Ġde lays
def eq
38 4
Max well
Ġ\ ce
Ġg rants
State ment
) )}.
B U
Qua si
^ (
g v
Ġle ak
Ġprojector s
Ġphi loso
. |
ĠPar tial
Ġrecogn ize
t unately
Ġindex es
fam ilies
Ġenjo y
ĠDav id
ol is
co erc
Ġ} |
)] \\
\f b
Ġfunctorial ity
& :=\
Ġ\l q
\operatorname *
_{( a
\cal L
et z
control led
eq }
ĠL eray
^* )^{-
Q M
^{\ ts}
Ġ6 8
Cal cu
Ġelastic ity
contradic tion
_{l m}
iet oris
19 76
Ġcombin es
~~~~~~~~ ~~~~~~~~
A U
d Y
Ġclo pen
Mor se
( )
be comes
ar get
\d l
ag ed
Ġpla in
page break
commu ting
Ġ\math it
F ull
Ġexamin ed
D ir
G O
^* ),
lineno math
Ġ( `
cal S
}$ }\
Ġma gne
Ġreal izable
Ġdiscreti zations
langua ge
Ġappe al
3 12
Ġ\h ref
oper ation
\r v
Ġdef er
b ited
def ect
\P SL
Ġflu ids
eff ect
ĠSm ith
Ġdiscus ses
d bar
Ġper for
abs or
B ro
Ġc ri
_{i -2}
_{i -1
Ġvio lation
&&&& &&&&
}, -\
ander monde
= +\
L ore
\m E
{-- >}[
f ourier
Ã ¨
Den oting
+ ,
C X
S )}
in equalities
Ġ tedious
Ġsur rogate
Ġhistor ical
F p
)} .\
\h s
ĠâĪ Ĵ
\ da
Ġ+ +(-
ck et
abs olute
M inkowski
f ive
ĠP ainlev
ap ri
As so
exp lo
Ġ\l ie
; -
Ġsugges ting
ro ll
ĠT an
\s M
Ġ entering
] <\
R p
Ġin cur
us a
rm i
ĠStein er
G ar
L AT
d on
ĠI R
+\ \
normal ization
Ġcorrect ness
Ġ ~~~~
ĠM od
compati bility
F our
ĠC hannel
il led
pre ad
Ġmark ing
Ġstabil izes
ĠM ellin
circ led
Ġselect s
L ap
t R
Ġn p
_{\ x
mu ltic
gra nd
am ong
Ġnormal ised
Ġoscil lators
(( -\
Ġpercen tage
\epsilon }
Ġconjuga ted
y an
Ġhe ights
Ġste ms
ĠApp lications
c frac
j b
_{\ M}
ir rep
^{2 m
ĠÎ ²
Ġ\se arrow
f erm
â Ĩ
15 6
bb x
17 6
Ġminim ally
}_+ ^
Ġreach ing
holon omic
B ott
Ġk er
fl ip
on trol
pro babil
ĠP faff
\a ut
ĠRun ge
Ġne gation
Ġz er
iso lated
ĠInt uitively
\ ro
^* [
dis sipa
eta ils
^{- 8}
'' )\
ĠDo F
he lp
ut ta
)), $$
Ġorder ings
_{2 N}
inv olution
fa ithful
ĠPlan cherel
Ġ _{i=1}
2 75
ma ster
ha i
\c hapter
Ġevol ve
equi pped
be it
an onical
}} }$.
^{\ rho
}, -
}, ~
Ġ2 56
we b
_{2 p}
}] (
Ġsuper algebras
xx x
ta ting
ough t
inz burg
en su
> )"
end er
Ġ\begin{ smallmatrix}
\s l
ac cessible
Ġnec k
Ġreson ances
Ġimplement ing
Ġ\ %
\f h
q w
^{ S
}^{* }\
Ġtw in
un tz
con serv
Ġran ging
ĠâĪ §
} *\
Ġspecial ize
No tations
ĠState ment
\ wr
re ws
ra ft
^{ 8
ĠB og
and rov
val s
16 7
Res ult
\cal R
Ġmaxim ized
hd an
mo tion
Ġra re
Ġ{$ (
similar ly
q i
s nr
ĠEx plicitly
Ġpost u
ichards on
umer al
^{2 i}
})} (\
Ġconfir ms
gener ate
ĠComp aring
Ġs outh
)_{ |
Ġde eper
and s
ist ration
ĠGeneral ized
Ġ _m
^+ )\
Ġcont ents
Ġste psize
Ġsie ve
) )$-
P AR
Ġpric ing
b ou
_{ 9
ra tes
Ġ\Big gr
ice frac
^{n- i}
Ġinser ted
Ġ\ =
\b }
ĠJ apan
downarrow }
commuta tor
s ph
\big vee
factor ial
ll ig
Ġmy self
Ġtransmit ters
& \,
th ogonal
Ġ\ ten
on struction
re turn
Ġneighb ourhoods
ak ayama
ĠCan ada
cal E
singular ity
altern ating
ĠG ar
ĠĠĠĠĠĠĠĠĠĠĠĠĠĠĠĠ Ċ
^{2 2}
ĠEx ercise
Ġdeli very
se lection
^{- \infty}
Ġy s
Ġ_{ {\
Ġmanipu lations
Ġuni taries
Ġpat ches
C Q
C AT
on vex
recur sive
G Z
)) <
les co
van s
\b beta
\f k
DE F
coun ted
coordinate system
K ato
Ġsub optimal
_{n \in
)) :
Ġmathematic ians
Ġis os
ĠHa ving
. );
wide bar
Ġsh uffle
Ġfactor isation
\N orm
ĠPa rameter
ĠDIS CH
Ġw arp
^{k +2}
zz }
ĠMate m
/ q}
\ sec
ĠP I
tis ation
BC }
\ thick
d rop
Ġconver ted
\F un
_{4 4}
ĠK az
\s X
ĠLDP C
ig er
,\ |
Ġsy zy
qqqq ff
( j
en v
^{- 4
Ġlimi tation
&=& -\
eter mine
Ġreal izes
Ġredund ancy
R ABLE
_{n, d}
F q
Ġn c
^- ,\
- s
a mpling
Ġs ym
it or
g H
Ġ\m cal
Ġsto ck
Ġpic tures
bru ch
ĠS R
)] (
Tho mas
f R
n L
Ġco boundary
ĠI den
ĠTo da
wa ra
ey er
Mo tivated
b imodules
ves tiga
s D
)}{ =}
lari ties
Ġdesign ing
ĠSu per
gebro id
p ref
ĠT x
rn old
d an
Ġ\c Q
15 2
o ise
Ġ\s F
ynchron ous
flush left
)} &
ĠG W
o i
on ally
po pu
bf s
\big otimes
cus pidal
Ġasser t
Ġcircu lant
matro id
th a
O s
S up
si }
ĠB r
\C L
}\, ,\
- d}
se v
]$ }
Ġnonlinear ities
^{- 7}
fra med
Ġga ther
In serting
( s
_{- j}
Ġoperation al
ĠAcade my
^{\ varepsilon
ĠA BC
un stable
ow itz
ĠE v
ĉĉ ĠĠĠ
19 75
_{p ,1}
}^* _{
Ġade quate
Ġsuper symmetry
md default
2 24
^{ H
ĠP hase
)^{ (\
Ġ6 7
` ,
&= (\
\E e
qui res
circu it
\ me
Ġ\ ext
ĠF ren
ss en
ĠPro ving
MA P
ĠH er
}^ +\
)^{- (
ĠCal culus
ĠD M
Ġpers istent
ĠF eller
\O p
Ġcent red
* }{
^+ =
Comp act
Ġalgebro ids
ad ditional
20 2
pre liminaries
\G m
trivial ly
Ġnega tively
Ġtri m
Ġconstel lation
I FF
Ġg r
ph en
BS DE
q b
bm od
ĠDefin itions
P Y
bran e
dri ft
Ġsus cep
v l
ccur lyeq
/ --
w ing
Ġstra nd
w n
hom otopic
ĠA uslander
Ġpres heaves
Ġscore s
q k
ref lexive
Sch r
> {\
T otal
im mediate
ĠG ross
Ġbra ids
estima tor
L an
] }=\
f at
_{n =2}
Ġdele te
phy sics
Ġadjo ints
Ġ\f a
Ġrepe tition
satisf ied
t up
_{\ perp}
'' +
}^{\ ,
Ġ ]{
x n
Ġ- /
member ship
Ġdise ase
ch osen
_{2 i
glu ing
o ta
be en
ho mogeneity
pe x
Ġpreser vation
^{ J}
es is
Ġcol location
bell ist
s V
de ll
cal D
for ts
3 45
Ġcomp ares
\ height
}} /
Ġro uting
T Q
^{\ flat}
Ġhomo clinic
B in
Ï Ģ
^{ <
_{n, t}
similar ity
Ġ %
/ n}
Ġn s
}$ '
_+ +
bi jection
Mar tin
B SET
Ġrun time
Ġfol iated
\box ed
g D
ro oted
Ġfruit ful
S tochastic
f T
ĠP C
Ġ6 6
f w
pri v
Ġphy sic
_{\ D}
^{\ max}
Ġpara dox
termin al
ĠJ o
Ġ\C O
Ġcur l
pre cisely
Ġmanage ment
7 32
Ġper man
\v r
O rd
pa in
tr on
}^ -$
t bl
Z e
{\ {\
qu otients
Ġla x
}), (\
Ġsemi linear
F lo
Ġnice ly
Ġvor tices
Ġ ~$
d int
x g
Ġro d
Ġ" (\<
Ġcoerc ive
Ġany where
ĠPro blems
^{-\ frac
mon oidal
}} .$
ĠF P
Ġsubs ystems
& ~
qu ar
Th ird
Ġsatisf actory
bb Q
emptyset }
dap tive
E K
ĠS eries
Ġ\b T
_* ,\
D x
Y N
te en
ĠE ng
\A b
Ġadj usted
E mp
et c
Ġsto ps
Ġtarget s
. )--
G U
Ġ\ esp
ol ing
ad van
dist ortion
IS C
k f
re mum
)} );
Uni queness
Ġma r
^{( q
'' -
tra jector
f ying
Ġste ep
Ġpermu ting
Ġund efined
) }}(
, a
Ġ& \,
Ġob jectives
ix }
ĉĉĉĉ ĉĊ
Ġmer ge
Ġpa ired
Ġham iltonian
\ val
r isk
} '$,
_{2 d}
.\ <
_{\alpha =1}
up default
Pro d
Ġ1 50
ĠS an
as z
Ġtetra hedra
r hd
Ġco pu
ĠR H
IST S
ĠĠĠĠĠĠĠĠĠĠĠĠĠĠĠĠĠĠĠĠĠĠĠĠĠĠĠĠĠĠĠĠ Ġ
pi ro
thes es
Ġhomogen ization
D ash
t L
Ġ6 1
Ad ding
E ll
g las
^{( s
_{m +n}
0 40
L I
\ thispagestyle
ĠP i
po p
so b
app ropri
' }_{\
} &=&\
mber t
Con s
Ġ_{ 3}
\Pro j
> _{
in ese
Ġobser ves
B ER
S ymbol
ĠC om
eff ding
Ġstabil izers
me chan
Ġde form
^{1/ n}
Ġ\bb E
z w
,\ :
Ġsent ences
\ ec
\ rel
Ġdis car
Sta ndard
2 12
s so
_{\ p}
ĠE d
-\ delta}
Ġtranspor tation
illem ot
,\ pm}
Ġderiv es
Ġsub problem
ere ntial
pher ically
recur sion
, H}
ref erences
Ġcapa cities
ĠB rown
ĠB ianchi
_{0 ,k}
Ġcounter clockwise
auti ful
it ched
Ġr s
ib erg
_{l =
Ġarith me
S impl
h in
H )}
bf v
Ġsyste matically
14 6
g ating
de mic
Ġad ditivity
Ġpla u
\D iv
Ġindex ing
Sem i
ĠElect rical
)) }$
adj ust
U LE
\Gamma }
Ġ* \
Ġ\be a
ri a
ĠIt aly
Ġsto chastically
Ġsubstitu tions
ĠA mer
^{- s
ĠP l
'' ,\
gu illemot
q f
is otropy
\d r
}}_{ {\
sch ke
de formed
ĠM A
ze bruch
Ġ\bb P
mark ov
_+ ^\
Ġboo lean
D irect
| }^{
Res tric
Per formance
as m
{- >>}[
Ġinfe asible
_{ 35}
um in
ĠD ifferent
Ġ\bb N
& /
\ under
Ġn erve
,\ kappa}
\e ee
/ 5}
to o
Ġ\b U
reg man
st on
^* )}
stack s
\ps set
Ġpara dig
flu id
V F
_{a +1}
ĠT hose
od ym
Ġsummari zes
)| +
_{( i
in side
cal M
Ġ< -
Ġaddress es
M Z
s at
ent y
}, ...,
Ġjus tifies
d one
Ġb or
am enable
XX X
^{ ^{\
ĠS pringer
ĠK ing
\H o
Ġin distingu
ĠH ol
20 8
}[ -
Ġrank ing
3 25
c and
Ġmo bility
_{i, l}
Ġâ Ĭ
Ġdisper sive
g onal
ima g
u pa
ĠM U
\l c
@ \
d -1}
{\ #
)--( .
ild rel
Mo ore
Ġ\D iv
} ^*$.
Ġt alking
ĠS imple
Re lative
/ |\
ĠT er
di al
Ġ20 20
? ?
o j
{ ^{(}->}[
We i
Ġdis order
Den sity
allow s
Bel trami
\c b
Ġreac hable
: }}
cal ed
Ġ\b ot
C U
\B E
interpre tation
b us
e asi
is ot
Ġanalys es
_{i 0}
Ġ\big skip
Ġmon ograph
frame work
Ġaccompl ished
Ġ\ zero
]{ {\
Ġ} -\
stra ints
Ġrecover ing
A a
f ound
ĠA g
pres sure
^{2 0}
Ad S
ĠLat in
Ġs b
ven ue
te lli
Ġ4 00
nabla }
integral s
t +1}
ĠK hovanov
domin ant
Ġtour na
Ġavo ided
ĠL an
vi o
Ġdimension less
no ta
\make at
ĠObser vation
Ġv ac
(- (
inde pendence
ĠLi ke
\ er
re view
}{ }\
S cha
k ine
con tr
den sed
High er
( .,
Ġco final
Ġ1 95
Ġex otic
ĠA bel
ow ers
Ġcomplex ification
Ġ\def ine
0 30
}' ,\
Ġin fra
ĠO R
iod ic
Algebra ic
ĠN N
angle d
Ġinv oking
_{j, l}
m T
Ġcon fined
op man
Ġ )}{
Ġm es
ĠA v
\be e
^{M -1}
}} }}\
ĠM al
Ġinter n
16 2
\kappa }
Ġconv olutional
` ;
^{- {
\ array
Ġfiber wise
Ġle g
)) |\
Ġqu eu
duc ation
Ġlogarith ms
& {
( r)}
U hlenbeck
ta ut
}\, {\
Ġ7 6
Ġspre ading
l cm
lo se
\varepsilon }
Ġpri ors
Ġadvers ary
Ġtrans versally
Ġ\e v
st op
_{t ,s}
Ġ8 4
Ġapplic ability
Ġhomogen ous
E u
The ir
co ker
Ġsuc ceed
_{\ I
pro ject
ĠP U
ĠW ick
Ġw ins
un ch
Ġp q
pro ving
ĠK ato
sto kes
Ġ\C c
22 1
xt ension
Ġcoproduct s
su ma
ĠVer ma
s ho
irc ase
Ġ7 3
' :=\
B rownian
Ġ\ @
Ġ\ ho
Ġ( =
ĠL R
orn ia
B ell
R t
p date
Ġ" '
Ġ\l s
qu iver
\s lash
\m P
general ization
lower bound
+ )
Ġs imi
_{\ cdot}
ĠĠĠĠĠĠĠĠĠĠĠĠĠĠĠĠĠĠĠĠĠĠĠĠĠĠĠĠĠĠĠĠ ĠĠĠ
lap sed
g lob
ch in
Ġ&:= &
\tikz style
K V
Ġ\ ran
Ġd q
\b h
character s
f ety
re verse
,\ chi}
Ġi j
ah l
_{\ s}
Ġcon j
}) _\
mpl ies
I ma
J X
en viron
gm ented
Ġequic ontinuous
ĠF undamental
ĠScha uder
\begin{ alignat*}
Ġdis covery
)}, {
Ġ )+
Ġi e
Ġ\in put
if ornia
Ġtrac ial
ĠInt ro
or r
{( }\
ĠSeg al
)*{ };
ta ylor
\end picture
}} }^{\
Ġ{ #
17 4
ĉ ĠĠĠĠĉ
^*} {\
ĠOF DM
Ġbe ams
+1 )/2}
, ''
W ork
ma tik
epsilon )}
ond on
\r n
Ġac cept
pand after
\ line
qua nt
\P GL
Ġ\d v
Ġmembers hip
\ tri
z ard
Ġ\ lemref
Ġdis place
Ġef forts
H G
^{ >
ĠS itter
up shape
the ight
pe ak
\B F
\paragraph *
l isting
semb le
B n
Ġsub linear
Ġjo ins
.$ }
s heaves
Ġexcur sion
* _
e finition
man i
^{n- m}
L ARGE
^{ w}
Ġb alancing
ĠC V
_{k -
Ġeavesdro pper
, t)}
Ġ\ linebreak
^{( c)}
&& -\
Ġser ved
d D
comp ac
Ġspec ifies
Ġdual izing
q m
^{ F}
Ġsub domain
Ġra inbow
ef tarrow
Ġ\i math
_{h +1}
asymptotic s
Ref erences
Ġmeri dian
19 73
CS I
G ood
preser ves
' /\
\b ottomrule
Ġspecial ized
Ġinf lation
Ġpull ing
Ġcomp ose
\f C
font size
gra de
\p re
author block
Up date
ĠR ing
Ġsee ing
comp an
name d
c }}
Ġc rystals
ar cs
^- )$
^{n- 3}
\ss s
3 21
Ġ\ rightharpoonup
_{\ Delta
Ġun ary
\f ield
ĠRe placing
quanti zation
impro ved
e psi
Ġu nt
}) }\\
Ġ\d r
_{x xx}
\footnote text
Ġevolution ary
F f
K w
no tice
Estima tes
! )^
ri k
}; \\
\define color
Ġs tick
Ġpredic tor
Ġprac tically
Ġh at
], $$
compu table
\end{ alignat*}
mo p
Ġreal izing
Ġsp ot
\w hat
requ ire
N G
e asure
an tic
~\ (\
Ġinver tibility
S ign
I )}
ig raph
Ġcer tific
ĠPon tryagin
B s
su ff
_{\ Z}
14 1
vanish es
L ater
Ġc d
half }
C lique
\b theta
Ġle ts
\C on
regulari zed
y t
Ġs gn
of unctor
N irenberg
^{ w
_{\ CC}
)} )$.
Ġper verse
Ġcooper ation
Ġalloc ated
\ at
\ oint
s par
Ġ& <
}$. \
Ġlo oseness
15 4
Ġre duc
Li ke
\g o
Ġschedu le
\b rk
_{- 2
_{x, v}
}} )^{
\x b
Ġ\ wr
\M ap
ht p
domin ated
^{(i -1)}
B ernoulli
S table
ro mann
ĠT R
\b K
ni er
ĠSTR IP
< .
Ġper mits
}- (\
colour ing
S Z
math pzc
theta )}
bol oid
Ġspeed s
Ġaggre gate
Decomp osition
P n
ĠC LT
ĠD er
M ic
]$ )
OR D
) *\
ĠS che
Ã Ń
is or
,- )$
Ġen large
\m t
ĠAb stract
ĠK ar
pend ently
Ġmon th
Ġexpla ining
L ength
T U
Ġpro b
Ġ> >
gu yen
Ġdistinguish ing
Ġpi one
\ restriction
s se
\R ic
rough t
Ġbu mp
h fil
pres ented
Ġ: \,
ĠCon nes
Ex plicit
Ġcent ury
inde p
cccc ccc
ĠAcknow ledgements
Ġdatab ase
_{ it}
ĠC D
] }_{\
\C N
Ġ\t race
Ġbo ol
Ġfore sts
n big
u mb
\l q
\I R
en z
ĠI S
}[ ][
\r c
Ġfa iled
\end{ alignat}
ĠY ork
'' '(
_+ )\
]= [\
coun tably
2 18
^{( 5)}
Ġlo ck
C all
j k}
mp son
}). \\
22 8
z k
ro y
_{\ M
_{\ G}
ct r
Ġte am
Ġ\U U
, 5}
ĠM ach
Ġtemp er
ĠNumber s
interest ing
riff ith
A nosov
Ġso cle
16 9
f C
\E Q
provide s
pun cture
ĠRe lation
inter ference
Ġvis its
B rown
^{( -1)}
ull ivan
th o
^{\ theta
^* |
Ġ\n c
Ġcorre cted
subset neq
pgf lineto
Ġminu tes
S y
Con cluding
A ux
ynam ical
Ġ.. .\
amb igu
Ġle gi
Ġ\b rac
Ġst ory
go es
H ir
x ]
Ġsubt rees
G l
}^{ {
)) <\
cons equence
Ġflo ating
, N
H en
} --
ft ing
ĠP CA
Ġcorresponding ly
24 3
w z
)=\ \
Ġhis to
sur j
q d
ĠC hap
ĠM er
)= |\
+ i
V M
u cc
in ality
Ġf rozen
sk ian
ara th
Ġrear ranging
Ġger be
W Z
G ray
R et
S che
Ex ercise
Ġquatern ions
V )}
ĠP eter
Ġent ropies
}}, $$
mat ched
^{-1 0}
Ġfol ding
Ġmanif est
| )}
Ġpro j
pec ted
_{\alpha ,\beta
\set coordinatesystem
L K
re ier
ĠN OT
s lic
Ġ\c J
Ġfacili tate
}) }$.
ex pl
\al p
ac hed
Ġ" ?
os co
\< ^
Ġtermin ate
V c
m H
^{- r
:= [
G I
P X
Ġn ilpot
ll ers
.~ (
gr p
ange vin
ces sive
categor ical
ar range
Ġper mit
CC C
Ġannihi lated
Dia mond
Z ygmund
h orn
ma ta
\c om
ec lare
ĠE ither
Ġ\n on
vare ps
Ġconvers ations
14 8
Ġsumma r
j ourn
ĠM N
am ing
com odule
Ġinver ting
A ction
Ġpick ed
il st
Ġ\B Z
\eq def
wi kipedia
_{\ Omega
Ġ\b c
In stitute
Ġ\R ef
aa aa
repres en
^{n+ m}
_{ II}
Ġf u
arrow right
Ġ ^{n}
\b ot
^{-\ delta}
\E N
S al
T race
Ġ\ is
^{-\ lambda}
Ġchamber s
Ġdiffu sive
_{j 1}
Ġ7 4
arrow s
CO MP
ĠSc ott
\ 0
Ġtrans parent
}) :=\
un bounded
^{-\ alpha
\cite p
Ġdivis ibility
k A
in }}
pa red
Ġgra d
T ot
comp uting
Ġpredic table
ĠUn iform
Ġ\t l
Ġstraightforward ly
ĠA iry
Ġf as
app lying
Ġcontrol lable
Ġs q
or ry
Ġde coupled
^{\ a}
^{K -1}
2 90
ĠA ns
Ġinitial ized
order s
gm entation
ĠT est
sigma )}
Ġro ad
Ġ\R es
Me asure
Mathe matics
] ]$.
om orph
ĠH is
Ġte ach
D b
Con ne
_{\text{ max}}
Ġzer oth
M al
a tivity
l la
^{ ii}
ir ically
Ġ\hyper ref
> {
I mage
Ġ\c f
Ġ\b F
\P roof
Ġcontain ment
_{b c}
k is
is tically
Ġsp ine
Ġ\p ref
M AC
ĠSta ndard
F an
g gl
ĠB G
ĠB asic
_{ij kl}
Ġ _p
d os
smooth ness
ĠMe thods
Bes sel
/ $
Ġpro min
Ġ9 4
\ov l
Ġunlike ly
' ^{\
ĠK rull
\bb E
Set s
tis tically
hu ge
( a)}
^{ C}
pres entations
ext ends
16 6
rule fill
Ġdiver ge
Ġ\vspace *
Ġaffin oid
L ongleftrightarrow
y ang
Ġpo se
pl x
Ġlog ics
we g
_- ,\
Me thod
Ġb orn
}} ,\\
ish es
={ [
^{(n ,
Ġle gs
Ġacc om
Co hen
Ġpref erence
Ġseman tic
ĠC ap
)|\ \
de ter
mb o
Ġbe autiful
ide mp
); ;
Ġ6 9
Ġtra velling
divis ors
_+ }$
Ġsp ring
Ġincreasing ly
Ġ\cal M
' ))\
} ^*$,
on ce
on est
}}\ ;
14 9
m D
sc ha
out side
^+ }$
A rea
T ak
Ã ¼
Ġ- {
ĠF I
ĠFig s
\k wd
Ġ} &
Ġproposition al
Remark s
Ġ| _
Ġpartic ip
Ġdec entralized
Ġpolym er
^{p +q}
{ ||
Ġ\ tanh
Ġal ter
\L i
yra mid
Ġin nov
ĠT OP
co ord
Ġoff spring
ayes ian
ĠMAT LAB
^{T -1}
Ġcollaps es
R iesz
i j}
Ġb rid
_+ -
Ġreveal ed
Ġ\ dual
\c url
Leg end
P b
Ġw heel
Ġcomp ress
^{( l
âĢ İ
Ġ\ space
Ġat ten
\par box
d T
\c enter
\C h
C hi
cal R
\begin{ alignat}
Ġun ic
\A a
DB LP
ne th
_{k -1
ĠPro ject
\m d
Mo ser
ertur b
et ing
Ġsub differential
Ġ9 8
triangle left
15 3
Ġ ^1
D )}
ag o
Ġiter ating
R U
f S
tic a
=- .
_{p ,r}
Ġ\ee a
Ġrespon ses
usu ally
logarith mic
Ġess ence
/ -
N V
ĠK irch
_{i,j ,k}
Ġdele tion
b atch
Ġ\ ed
Ġsa nd
Ġpla nt
par ity
_{m +2}
^{(\ beta)}
Sm ale
ĠTop ology
ĠCat alan
n w
^{( M)}
Ġver tically
)& (
^{ X}
)- $
\f n
mid rule
Ġ20 17
Ġdefinite ly
c li
}) ,\\
\cal G
ga tes
_{n \in\N}
\F ix
\L b
_{p ,\
App roximation
Ġ\M at
| _{(
ĠK KT
ĠS al
Ġ\C M
Ġinfinite sim
ĠRa demacher
Ġbary center
Ġsimi larities
Ġ ic
N W
de tails
ĠF okker
^{( i,
\f q
\M at
Ġc hi
ĠC L
(* )$
ipher al
sui table
sing ularities
fi ers
recur rence
+\ beta}
bf y
Ġprior ity
beha ved
K ernel
ĠB run
dim en
Ġelliptic ity
Ġcrystal line
Ġmolecu le
_{k \ell}
Ġcomple tions
man ces
\C R
Le b
Ġdepic ts
ĠF und
Ġsplitting s
Ġ _x
Ġal le
\n ormal
Ġk n
ĠForm ally
Ġnew ly
Ġc ast
_{\ m}
ĠA dams
Ġin exact
tr ong
15 9
Ġ\t f
Ġ~ =~
arse val
Ġholon omic
O k
Ġcon ta
}} },\
ĠB ox
) ^*$.
Ġsu ited
vartheta }
,\beta )}
1 3}
T K
Ġf oot
ha bility
sta tistical
Ġsp line
ĠC amp
\d ynkin
ob ayashi
Ġden ois
\ xy
vi i
oper ad
ĠSt one
actor ization
4 75
Ġ[ :
Ġ8 5
Ġto ld
ome o
ĠTh ough
^{( v)}
mpl icit
dimension }
\ex pandafter
ssential ly
) [-
B asis
ĠL earning
ĠE P
and el
Ġtrans mits
Ġpair ings
m ote
Ġpla sma
Ġ\ ta
)\ :
ĠAl gorithms
eval uation
p ull
Ġ\ ub
\e ad
30 7
Ġ\cal D
_{4 3}
ĠD an
redu nd
0 45
^{ V}
ĠB F
sol ving
Ġpor ous
\n ear
)- {\
23 6
Ġdynam ically
Ġ\cal O
ĠOptim al
par ta
Ġ\v t
s B
si mulation
cal P
ĠD S
19 74
ov a
Ġocc asion
ordin ated
Ġbas in
strate gy
n R
}{ -\
ĠD ecomposition
20 4
60 4
ev ol
ĠStr ong
mathe matical
\c ur
uparrow }
\ red
Ġ\ pro
ta ni
The ory
\P c
19 7
3 4}
m bedding
ĠM cK
Ġsuper solution
Ġtransmit ting
ĠWh ittaker
) +1}
ma te
per }
Ġpo si
ĠChe eger
B eta
ular ity
establ ished
M ori
] ]\
le f
ĠB is
Ġhydro dynamic
Ġ- |
Ġb rought
ll bracket
Ġl ives
non trivial
) ^*(
, G}
z f
ĠK im
\r g
Ġsemic ontinuity
Ġ\ps line
Ġany way
\d g
Ġsem iring
Ver tex
Ġ eqn
\n um
, 6}
v ision
Ġo ct
ce ption
_{2 g}
ĠMa ximum
ĠP ath
., ~\
MM A
equival ences
Ġprox imity
ĠM O
^{1 8}
' ^\
\ ur
x )}
Ġgeneral ise
Ġoper ate
Ġdou bt
Ġantipo dal
y tableau
process es
.... ....
Ġdro pping
ĠO N
Con st
P in
d cases
sub subsec
modu lus
\o pt
g iving
inter action
}}, {\
Ġtransform ing
uris ub
S f
or a
10 24
Ġhe mis
perim ental
Ġindivi dually
pec tation
}] _
ĠCal ifornia
m K
ĠM PC
ĠCh ar
integra bility
ĠRo ta
altern ative
B J
^{\ e}
Pro positions
\C T
\v ct
diffe omorphism
^{ 9}
Ġb a
Ġ\text width
\s ign
ĠRe l
A rg
_{ o
\c ot
ĠJ ack
)] ^{-
\v center
ĠEx istence
ĠCor ollaries
Defin ing
Ġrec ast
24 8
ij en
d C
g li
par s
Ġhyper k
re write
)$ },
), {\
ĠV o
Ġnoise less
Ġdisturb ance
Ġthor ough
, C}
T echn
\n s
Ġ\R ep
Ġoscil lating
Ġstri ps
O c
Ġd ichotomy
), ...,
ĠR ate
ic ated
Ġrespon sible
Ġsci entific
Ã ¡
^* )=\
\S tab
ef s
\t f
\M T
G reek
ta rea
)} <
un its
Ġ| (\
\cal B
summa ry
^{j k}
ĠAW GN
Q p
ucl id
\ li
a }}
u z
Ġun correlated
20 7
\T t
Pa ir
is ible
ĠK ontsevich
})$ ;
Ġ\ker n
\med break
E CT
_{n j}
Ġexis tential
)| |\
Ġbec ame
Ġ\s pec
Ġ\c ol
_{( p)}
Ġpermu tes
ialgebra ic
ĠC E
ĠM F
nd on
}) )=
ff }
Ġoc ta
C t
f st
,\ ell
_\ <
ĠF rank
26 5
_{1, t}
Ġresi duals
\re lax
H amilton
y v
ic an
du st
ĠX REAL
Ġoff line
H er
Ġd X
Ġg y
ĠA MS
)] ^{\
ier i
I llustration
\s S
Ġhe ld
Ġlook ed
b nu
w c
incip al
ilb er
ha mel
are r
ĠOr licz
c ils
ro j
Ġresol ving
Cla ssification
ifferenti able
G re
f B
Ġcomp ara
B og
Ġimp ulse
sol iton
Res earch
unique ly
Ġheuristic s
\near row
^{\ varphi}
ĠA ND
" ']
/ F}
S en
\f S
Ġ\r To
Ġexperiment ally
}) )$,
Ġdiag onally
smooth ing
Ġpopu lations
Ġarchite ctures
L c
le b
-- $
BV P
ĠLast ly
D s
Ġconver sion
\textquotedbl right
K an
}_ +\
ĠB lack
ĠP S
Ġsub word
Ġdro ps
Man in
h ermitian
ir m
' }|
V C
g trsim
l times
lo zenge
et ween
ess age
\g d
DF OR
ĠTho mas
Ġrenew al
t D
Ġc it
}} }$,
Ġbi holomorphic
^{\text{ th}}
Ġexci tations
T G
ĠS pecial
plo tarea
>*{ };
Ġu mb
Ġcap ital
Ġpeak s
}] ^
local ized
Ġreaction s
ec ess
mi le
K utta
, E}
D O
label led
inter mediate
intro duce
Ġcuri ous
r me
s K
Ġs pon
ok a
30 5
Ġclassif ier
ici ency
O l
pres sion
Ġla te
Ġdecomp osing
+ 3
ent ries
the equation
Ġclassical ly
ig id
Ġen gine
Ġintegra tor
Ġ\f p
ĠAn n
ĠApp roximation
ent o
Ġex its
lear page
)\, =\,
1 ,2}
\ matrix
\ ze
di o
Ġun necessary
)+ (-
^{2 1}
J a
] ^{(
de cess
^{( a
ĠO pen
one }
According ly
Ġretri eval
Ġ\sec ref
Ġvic inity
d oteq
rg od
, P}
\Big gl
^{ }_{
Ġthree folds
Ġ ðĿ
\c g
^{2 k-1}
pothes es
66 66
_{n+ k}
âŁ© ,
R f
Ġantipo de
] =-
e pi
sto ch
Ġ\s ign
tran sport
Ġcu mulants
Ġ\re newcommand
Ġp al
^{- l}
sen sitive
Ġdiffusion s
' ]\
m ise
Ġsub gradient
sf d
17 7
iter ature
\set plotarea
D ouble
en space
_{ 45}
,\ ;\;\
ĠH S
19 8
^{-2 /3}
Ġcollaps ing
romann umeral
I X
Ġf idelity
Ġhighl ighted
ĉ ĠĠĠĠ
W S
\ eqno
un t
Ġimp erfect
ef el
repres entable
^{-( n
ĠBur gers
inforce ment
C hannel
e ad
w inger
ĠF uk
Un like
Ġbro ader
Ġstiff ness
N U
V i
Ġw ra
^{ 00}
)$. )
\d z
^{2 ,\alpha}
17 8
,.. .$
\I N
Ġ\ cellcolor
Ġ\c ov
\I P
neighb ourhood
_{\ om}
item sep
angle s
\D om
\de pth
D r
K al
g uarante
si e
as k
Ġ\text quotedbl
kappa )}
^+ =\
Ġ[- >,
ĠSeg re
Ġare n
ul is
_{k ,0}
Ġtra pez
\def eq
_{\ ub}
yn olds
\l not
ĠNewton ian
Ġg ate
_{2 ,j}
Ġinver ted
amb ridge
Ġs k
Ġf riend
Ġe man
pow ers
L yapunov
Ġa diabatic
Ġ~ |~
Ġas set
~\ \
Ġinequ ivalent
^{2 t}
\A AA
cr v
A Q
Ġ20 15
sur vey
D U
ref l
Ġ\in te
T }}
ra in
lo ading
Ġar chimedean
C ode
\begin picture
ĠI H
ĠB ere
Ġmo tive
inf }
\bb r
trans mission
}:=\ {
Ġlegi timate
er tion
its hape
)| }{\
Ġs pherically
ĠA dv
Ġbar s
ĉĉĉĉĉĉĉĉ ĉĉĉĉĉĉĉĉ
,\ psi}
\c m
19 72
X B
Ġnegle cted
, ~$
I de
s Y
Ġs weep
ĠMar k
ht ml
^{\alpha +1}
Ġround ing
th t
Ġre le
ĠI wasawa
18 4
Ġsur pr
]( .
Ġinves t
rie mann
Ber nstein
- '
^{\ bullet
ĠM it
ĠK ra
ĠĠĠĠĠĠĠĠĠĠĠĠĠĠĠĠĠĠĠĠĠĠĠĠĠĠĠĠĠĠĠĠ ĠĠ
ĠInte restingly
ĠRob in
Ġensu red
de }
Int uitively
)}. \]
_{p, q
" :
( p
ĠI tem
\mu lt
Ġeasi est
Ġval ence
_{t -}
ĠM odels
22 6
ĠDis crete
ĠD espite
}] {\
Ġ\p inlabel
\ rightharpoonup
se ctor
Ġwork ers
condition ally
P )}
d Q
au ff
Ġ\h h
ĠWhite head
D J
Con ditions
Ġsuper critical
}^+ _
E B
K ar
c um
}} )=\
_{i, m}
Ġign oring
}{ _
fin iteness
mo ves
Ġ9 1
\ra d
ĠRes tric
ce ived
ri zing
23 3
Continu ous
_+ =
\L ip
Def n
Ġconflic t
Ġplau sible
b rown
' }+
A Z
ot ts
gen ta
trac table
Wh itney
Ġperfor mances
k ap
bf c
)) ,\\
ĠExt ension
S ketch
Ġfa ult
23 7
Ġequi lateral
Ġstabil izing
' )]
I tem
Ġcon d
Ġex cited
ger m
_{j ,m}
Ġstri king
ĠPer haps
OIUY OIU
b inomial
Â °
\B e
Ġparadig m
o a
ch on
ie u
opt }
}} <\
ex pect
24 7
ura moto
Ġempha sis
' }-
A y
G ro
^{1 ,\alpha}
Ġ\s mash
48 }
Ġconf using
fol ded
D espite
res er
^- }\
B al
Ġrela ys
ist ory
Ġga ussian
ĠCha racter
Ġbos on
Ġ\add plot
ce v
); \\
Ġ7 1
App roxima
Ġround ed
< *
Ġ= =
ĠI P
45 6
_{d -2}
fe asible
- s)}
w hether
te cted
Ġto y
'' }\
\m rm
_{ im}
or us
wr iting
|- |\
C enter
g G
Ġb ins
') "
H s
Ġs orted
Ġfound ation
PP P
a R
Ġs hed
Ġb ord
_{\ bs
pro ps
ps line
Ġ9 3
rad ical
ĠB ose
sta tistics
Ġqua ndle
imp lying
Ġbott leneck
J Y
ĠP layer
infinite ly
H B
S ymmetric
S truct
y pes
ma king
ĠG Hz
Ġconstitu ent
ma gn
Ġb lob
ĠS cho
Ġarri ves
Ġautoma ta
Ġindistingu ishable
Ġf resh
cc l
99 7
Ġdivisor ial
|}{ |\
)|= |
Ġannihi lator
l w
Ġto u
Ġex changing
Ġk m
_{\ loc}
ff ine
Ġspace d
Ġtu bes
H ardy
dot }
)| +|
&=& (
ĠâĪ Ģ
al gorithms
Ġco res
logarith m
\s B
wedge }
Ġexponential s
tang ential
urisub harmonic
)} >
\R n
Ġimpro per
trans verse
' }^{(
E r
he art
Ġ\c frac
\b rac
for get
Ġsa fety
16 4
hom omorphisms
~~ ~\
ĠHa hn
Ġoff set
de mo
Ġfla vor
rigid ity
\ row
~ |~
im mer
(n -1)}
g q
^{\ epsilon
Ġ\ar r
vo ir
m irror
Ġelimin ating
X Z
ĠA N
row ing
Ġframework s
Ġ\b W
\m H
Ġadap ting
de si
at ta
var s
Ġwould n
99 8
contrac tible
ĠD ou
:\ :
Ġva gue
alg }
Ġpseudo convex
Ġprojec tively
ent ric
ie f
Ġpla t
ass isted
^{t ,x}
ans atz
ĠMat lab
Ġp si
it ted
}{ }^
if ford
_{j +2}
Ġ\f l
Ġcomm ensu
\arc tan
' }^\
or ov
Ġcon n
ĠC entral
ad dition
Ġ\e g
\ 2
s equential
^{s ,p}
OR M
Ġ )-
b bf
vec x
trac king
upa tion
l ds
or f
sign ed
Ġval idate
temp erature
Ġcircums tances
Ġe ta
cal G
ĠD r
pla cian
ste ady
3 10
Ġsc an
G c
ĠBS DE
resol vent
K re
|| _\
fib re
T emp
{ }_\
Ġde duces
Ġ\s C
))\ ,\
6 )}
s addle
ĠT D
Ġ9 7
KK T
symbol s
ĠMechan ics
, Q}
Ġ\ ab
Ġf g
ĠW itten
:=\ {(
Ġ\ isom
is ers
ĠJ ohnson
Ġexpon enti
non negative
_{l j}
^{d /2}
C irc
un ct
ĠM umford
Ġl n
ĠU K
&& -
real ization
ĠMean while
Ġrec tifiable
Ġtensor ing
Ġresemb les
expon ent
E ps
s de
{ :}
{ @{}
ĠU V
C f
m X
Ġu rn
forma tive
25 2
18 7
\be s
On ly
\add to
Ġlexic ograph
Ġadvers arial
lst listing
c art
Ġnon positive
\f rk
\S SS
/ ~
Ġw reath
Ġb id
Ġto day
Ġsp iral
Ġ\bb C
a ver
b ff
ha ust
,\ phi}
Ġsubstitu ted
Ġ\ For
ĠS tu
\r H
G w
S v
V an
Ġtemp or
cat en
Ġ\q bezier
on en
en chel
_{\ pm
ĠMulti plying
! !
B all
Q AM
_{ ss}
se veral
ĠD R
) )},
Ġregar ds
zi one
F ar
L attice
a N
ir }
ĠC I
\B R
'} ^{-
Rec ur
^{5 /2}
h w
Ġ1 44
\c learpage
Ġdefin iteness
Ġ\C A
Ġ\e a
Ġmi tiga
( v)}
Ġe l
om ents
po sterior
cu toff
\l bl
}- $
Ġorb ifolds
' ),\
ĠEx p
\ an
Ġ\ protect
_ (
ia vin
{$ (\
) )}^
Ġ\ oo
ĠA M
ĠD yck
Ġ\footnote size
Ġsatell ite
ra ded
ĠS A
ĠR i
Ġ\s L
Ġexamin ing
Wi ener
g L
ow en
Ġ\sub stack
ĠEs timate
ticular ly
ou ng
ĠD om
Ġremo vable
gan ization
ĠSti eltjes
C losed
^{ '}(
}), $$
ĠCalcu late
A J
b one
_{0 ,j}
ĠCh inese
_{(x ,
Ã ²
Ġc rack
ĠĠĠĠĠĠĠĠ ĠĠĠĊ
D Z
_{\ Z
Ġrece iving
][ ]{
X b
| $$
ĠT a
^{- T}
Ġsmooth ed
Ġ\M ap
ĠUn ion
la place
\f unc
ĠWhen ever
Le ib
T ru
b our
^{- q}
ĠE ve
pect ra
ĠCar leson
Car tier
Ġtang ency
Ġpul led
v irtual
Ġlocal izing
autom orphisms
_{\R R}
M er
Al most
Ġtre nd
conserv ative
L H
L y
^ !\
q g
te ta
ĠM et
ĠMa urer
,\ <
acc uracy
^{ J
=\ \
emp irical
Comp utation
\ io
p rt
ch ord
_{k ,t}
Ġst range
Ġpre pare
Comp ute
minim ize
+ k
- j
si zes
\, .
ĠV ia
16 }
_* ^{
Ġnormal isation
nes ted
Ġbenef icial
F O
frac tal
.. .$
\e pf
w isted
ĠN oting
cus ing
Ġcou ples
ĠRes ult
Car tesian
N AT
Ġqu ote
ĠChern off
j us
t T
Ġ+ |
Ġ\g s
Ġ20 16
Ġ tim
( }
F ock
\ rf
pp y
Ġreview ed
Ġtemper atures
puncture d
N t
Ġ| $
Ġ7 8
,\b ullet}
F ixed
R os
] |{\
\c n
cc qqqq
Ġtrans lating
sy st
S ob
\ empty
it ud
and ering
}' _{\
u ms
Ġ( ?
+\ ell}
hbar }
Ġbuil ds
alog ous
H Z
}{ }_{
Th ough
Ġ< *
[ #
Ġpre coder
ĠComp arison
Ġantic ipa
[ \{
Ġd ama
ch art
Ġnon vanishing
'$ };
_{2 j-1}
{} &\
ĠPre cisely
ĠR en
\t race
_{0 j}
Ġag g
|}{ $\
Ġevalua tes
uri ous
ĠS LE
Ġtrans positions
_{0 ,i}
X P
15 8
Ġ\ ft
ps h
ĠV e
Ġnormal izer
\F q
Ġ\f loor
Ġ( '
pro cedure
Ġ\l not
ĠTrans form
ĠC re
Ġun imodal
pend s
Net work
resi dual
_{\ hat
Ġ- >]
Ġholomorphic ally
Ġrecor ded
& *
mu n
\S ch
Ġcry pto
over lapping
Ġnon increasing
Ġ\ url
\P ar
19 9
\cal T
Ġpen tagon
V D
| )^{\
22 3
Ch ris
w ald
di er
Ġ\ve p
F EM
N i
W atson
w icz
})$ }
Ġout liers
le ads
}_{ [\
bi j
Ġmemory less
Ġswitch es
F ra
^{ P
qu atern
ging roup
w ich
Ġs lack
pro posed
ĠC u
ĠR an
ĠI D
Ġoptim izer
Ġpath wise
Ġdiver gences
behavi or
B b
] }]
Al tern
' )^{\
@ /^
d +1}
ur in
ĠG EN
\psi }
oto pe
bur n
ĠMac donald
: \{
L ong
\ we
f oot
Ġ\b q
\m g
)< +\
AR T
)). \]
Ġ\textquotedbl left
S ize
mu ch
_{k ,2}
_{h =1}
Ġstre ams
Ġdom inate
Out line
M etric
\ per
Ġd P
28 5
dense ly
ĠKre in
select font
t mp
ĠChris toffel
L Z
V AL
Ġ\ as
Ġ[ .
Ġsub interval
Ġcomple mented
\C D
\O ut
measu red
: _
Ġm en
ĠWe ak
Ġ\end{ gather*}
compu tational
Ġsket ched
us p
\l in
ĠGra dient
Ġcapa bility
w ater
^{i k
_{l ,m}
i id
n ications
}) <
ĠV andermonde
Ġsymme trization
ura te
e as
r T
Ġ\ Pro
_{\ Lambda
ur ally
las so
Ġinter play
ai lability
Ġmaxim izer
Pre liminary
! :
| )$.
Ġcon ormal
link ed
Ġexci tation
B is
E nt
r ality
s R
_{\ operatorname{
Ġsa ving
bra ket
Ġnum bered
L andau
ĠS cheme
con verse
Ġ\n cline
\ ap
Ġ\r me
\beq a
c mp
z hou
ĠTh ird
Ġun ivalent
19 70
bb P
xp ansion
Ġde ad
Ġco action
sp line
S ample
Ġy ellow
Ġtri es
Ġ\S s
e vi
o il
Ġs ought
mem ory
t N
ro me
^{ }_
_- )$
Ġ( "
old en
x c
Ġ\ aleph
re pr
^{(\ lambda)}
inde l
L ink
_{ ad}
Ġn u
im od
ow ed
De g
Ġview ing
}\; .
Ġrad ar
ĠS DEs
)) ))
Ġ7 9
Ġparalle logram
ore s
Ġk illed
_{2 m+1}
Ġ\v n
ific ant
Ġsepara bility
( u)}
^* )^{
Ġ\n at
Ġ\v ct
explicit ly
^{1+\ alpha}
I dentity
in sky
Ġfa v
Ġtransfer red
a bel
f on
Ġo d
Ġm n
\b mu
Ġun ordered
Ġun fortunately
sh all
Ġoptim ally
\V ol
IN G
upper bound
B Y
c ould
{\ ,\
ĠD AG
\text superscript
-$ (
Ġconc ur
ĠHar ish
I to
] |\
po i
\m C
\g trsim
Ġindetermin ate
Ġprogression s
Ã ³
Ġ\T ilde
ĠSci entific
}^{* }$
Regular ity
environ ment
v h
Ġsub schemes
bb }
Ġhom otopies
^{4 /3}
E W
pro file
ĠD T
)+ {\
)_{ -
gen e
Ġstabil ized
Nik odym
N H
R ay
ĠA LL
Ġ\b beta
\h p
\f box
ag ent
Ġsw itched
C x
}} >
Ġex posed
Ġno table
23 2
}& &\
^{(i +1)}
Ġparen theses
Ġpro longation
20 6
\f M
conne ct
\f A
ĠUp date
( G)}
Ġ\ irrep
ĠE E
ON V
Ġ\V V
Ġ[- ,
ĠQ C
ze g
asso c
P os
x k
Ġrela tional
_{n- 2
^{\pi /2}
ab er
sc attering
_{3 6}
Ġfrac ture
]{- }(
Ġintern ally
N ull
ĠT S
Ġ- ,
ĠD un
tab colsep
orth onormal
\ker n
D rinfeld
ĠT ARSKI
cal B
over brace
/ 2)}
Ġremo ves
Ġdegener ates
-\ epsilon}
sh rink
_+ ^{\
Ġadv ice
Ġfund ed
ige on
H or
T ang
g lue
pp i
Ġ\b l
Ġ\m right
Ġac oustic
Ġwave function
Ġbra in
Ġbos ons
Ġassemb ly
s pe
Ġcompe tition
F s
ra el
ys cale
ĠD uring
Ġ\r v
ont ally
Ġ20 18
Ġbifurc ations
R c
Ġgrading s
Wh ite
T d
d ence
he lm
ĠM ackey
\f X
Ġoptim isation
Ġ\ ld
\P b
Ġmanipu lation
}} <
}( [\
'' _{\
Greek math
9 00
| }$,
Ġin fin
at ten
Ġ\b D
Ġproble matic
Ġext inction
reat er
Qua nti
h z
Ġexclu sively
i um
Ġo pt
Ġcon cord
mb ar
). .
Ġ\n rm
Ġ20 14
ĠS tructure
ĠR OM
15 1
Ġ\I R
Ġult rametric
x r
cal ar
\c odim
Ġhand les
_{3 0}
{. >}[
}$ ]
\A cal
[\! [
Ġaccom mo
J u
V u
c auchy
Ġin consistent
Ġpas sed
RIT H
, n+1}
s soc
Ġdis cover
Ġsub domains
20 3
^{2 q}
^{m n}
orth ogonality
imp son
I K
Ġ\ les
varian ces
18 8
_{\c A}
Graph s
Ġ\c p
Ġ\b o
Ġbo ard
}_{+ }^{
B our
\ iso
Ġb inding
op y
sw itch
Ġsnapsh ots
] )^
h is
Ġp uts
Ġ ^k
, q
ta ndard
Ġtru ly
Ġanalog s
- a}
(\ !
)= [\
Ġnon smooth
ĠD a
Ġpre vents
\F c
Ġabs ent
popu lation
appropri ate
| .$$
)} .$
ĠF ra
ĠG IT
In verse
^{2 4}
\g A
Ġzig zag
b ulk
ĠT u
Ġ} )\
Ġdia gramma
24 6
Ġ_{ s}
Mathe matical
> ;
ĠL ondon
^{- j
rt }
Ġ\end{ multline*}
cla ture
omen clature
tot ally
Ġbary centric
ĠNone theless
Ġanomal ous
ol di
Ġcon vection
Ġex clusion
sub spaces
_{2 t}
Ġemp irically
! }$
lo ose
Ġco al
res ta
un ay
Ġar ity
b son
s nd
ref ined
_{k ,k}
\g p
on ne
varepsilon )}
ĠDis tribution
projection s
C ould
W b
ĠI FS
}, &
we l
Ġen closed
MP C
resi due
/ d}
_* }\
}\! \!
b sub
ĠB A
Ġsta tions
Ġstabil ize
ĠArtin ian
b ases
Ġsche matic
Ġ\D iff
symme tries
Ġincorpor ated
H OIU
_+ }(
OIU P
Ġcol lar
sign ature
Ġdeci dable
for s
iew icz
cyc }
Ġparametri ze
Ġsemin orms
P c
z ur
,\ varphi}
ĠL M
ĠP arseval
show ing
S an
W il
Z hu
\in \c
&\ |\
^{1 +
_{h -1}
ĠReg arding
h ull
ia g
tor i
Ġtermin ation
_{G /
cal F
ĠG re
Ġ\S c
\t b
Gal erkin
_{k 1}
Ġter med
Ġtri valent
\bf u
Ġbran e
&- &
fil ters
Ġthermod ynamics
in ductive
_{ int}
Ġcon cise
Ġ\p matrix
M ult
de cre
ollow s
&$ (
rela tively
, 3
Ġ\b M
ni tive
Ġser ious
22 7
Ġemplo ys
auff man
G s
tri p
)= +\
Ġinter changing
\eeq a
Ġ+ \|
wa h
iden tification
bran ching
Ġ )}{\
f usion
Ġ\ diamond
)=\ {(
_* ^{\
Ġpla quet
ob vious
)}+\ |
ita tively
Function s
ĠPlan ck
Ġcompe titive
all iavin
Ġdraw s
SI C
x ing
le ctor
_{\ Phi
Ġg ran
Ġsta tistically
Ġ< _
_{( 1
Ġ\g o
ĠOr nstein
D ifferentiating
ĠS ets
Ġrela ying
ĠF EM
Ġab st
ĠO per
Co mb
] ))
ti gu
Ġe mission
_{\ X}
Ġpla cing
Ġcontro llers
get s
ĠR ed
sha dow
W P
_{\ b}
ĠB D
18 6
Ġsign atures
_{i, r}
Ġdiscreti ze
' );
' ))$
Ġb onds
ac celer
_{- 3}
Ã¶ lder
^{L -1}
4 000
Ġre tain
\n or
circ les
Ġ\F un
ĠKo opman
_{\ tilde
varrho }
Ġconveni ently
eta )}
^{\ dimension}
\s r
Ġqu intic
{ },
Ġex cluding
ĠP P
( "
ha ber
su g
^{\ ast
, s)}
on ese
}} _{(
ĠP an
Ġ\v f
âĪ Ī
Ġpend ulum
3 40
B X
Ġ\ ha
on n
Ġle gal
iter ate
Ġcoerc ivity
Ġ\s calebox
\D b
obser ve
Ġ\m cl
Ġ|\ {
Ġsp ent
ev rey
C J
_{\ ge
Ġpro vable
19 4
Ġdepend encies
Ġseem ingly
F er
m il
Ġco adjoint
ĠB B
ĠH art
Ġ\l hd
Ġrelax ations
antor ovich
c is
i lo
im s
^{( u)}
)^ -
Sm ith
M oment
Ġb ide
ĠR ank
UN C
] }^{
x scale
Ġw f
ĠP T
group oids
Ġ8 3
trin sically
, q)}
in ess
Ġnon abelian
ĠJ ac
Ġsuper potential
ams plain
ĠâĦ ķ
' )}{
, U}
u chi
ĠE H
Ġstu ff
E lliptic
S ay
] })$
m ol
SV D
A k
C os
de coding
ĠTh ree
Re lations
Ġdi pole
\ tanh
\L am
I Q
in berg
Ġin dust
pa spect
Ġsubs heaf
tur ing
paspect ratio
H essian
d at
si multane
ĠWe i
cou ple
ij ing
Ġpur sue
Ġpredic ts
b auer
Ġcon ges
}) ^*
Ġh our
_{2 7}
)_{ [
ĠAust ral
ester ov
Ġ )\,
i V
Ġsub harmonic
metric s
verti ii
u q
ĠWe instein
inter tw
Ġ\ind ent
\ ominus
\d b
Ġ\m i
Ob j
intersection s
E rd
V II
te ps
}{ *{
under stood
Ġtechn ically
gre edy
Ġow ing
c ub
res pective
\c ov
parta ment
Ġ\le t
Ġho st
_{( j
( F)}
con tin
}\, (\
Ġ_{ x}
X I
i ke
ĠGraph s
elect ric
ĠLabor atory
] =\{
der ive
Ġno tably
30 3
Ġent ropic
column width
Ġpromin ent
Y a
] &&
)| ^{-
Ġprojec tiv
cal T
Ġsu cc
Ġ\no align
^{a ,b}
Ġfavor able
riffith s
W E
l ich
m q
Ġ- $
ow icz
\f c
( A)}
Ġsa ve
ĠK ore
Dis c
Equ ivalence
h bt
sub sect
di us
^* /
ci ety
sto pping
Ġcompac tifications
Ġoutper form
^{ y
_{2 i+1}
Ġconf lu
temp oral
obser vable
Ġ\arc tan
F ran
S il
ĠF aculty
ĠK le
M ass
N -1}
Ġw arm
^{\ d
^{\ m
Ġmu tations
)] _{\
Le vi
link s
hier arch
C ell
or sion
Ġso lar
bb er
17 9
Ġformal ize
Ġre por
}{ !}{
ga wa
ĠC untz
Ġle verage
fra mes
Ġ7 7
Ġland scape
Ġdeploy ment
Ġturbul ence
Ġ\begin{ multline*}
17 3
}}{ |\
Ġ_{ p}
pub lished
R ie
o clinic
Ġ\ tens
ha ul
sing ulari
Ġsugges tion
ðĿ Ĳ
orma nder
ĠEng lish
}. ]
^{( +)}
ES ON
'\| _{
ĉ ĠĠĠĠĠĠĠ
, h
Ġal co
qu ality
Ġmagnitude s
PE AT
ĠNetwork s
Ġcopu la
W ilson
Ġex emp
ign orm
fine ment
b ri
o mb
he ory
ĠL ower
ne ider
Ġreal ised
Ġsuper singular
Ġ\O b
ĠT A
M ukai
Ġ\ Proj
ĠT P
sc at
Ġhe alth
Ġindetermin ates
* ]
K l
T OP
W C
b io
ext reme
ĠGal ile
Ġsyn thesis
' _{(
Ġin vert
ho mogen
Ġla ser
os a
Ġpix els
Ġ _{j=1}
ĠT T
)^ +$
ĠCar not
Acknow ledgment
conne cting
sub subsection
Ġ\n or
em er
}& {
simpl ified
resta table
n equality
x }}
om ics
ĠF ellowship
\n on
Ġapp end
25 7
Ã© tale
)) ).
ĠK ap
20 22
^{(\ mu)}
Ġadjust ment
Ġad missibility
P t
or ok
ĠB ohr
.\ @
Ġ\B C
Ġasser ted
Ġkine matic
s pi
_{ op}
po si
19 67
color able
} ')$
^* }}
ril lov
C b
S pa
f A
ĠF E
qu al
]{ @{}
ting s
Top ological
_{\O m}
piece wise
ol ov
Ġ0 0
\n l
]\ ,\
ĠMay be
x ponential
}\ ;\;\
Ġse x
_{i +j}
ctor al
ens ored
Ġ8 2
\ theorem
o cc
Ġman aged
Ġelectric ity
}{ }{\
}{ *}{\
ĠE igen
Ġcal ibration
ĠPoincar Ã©
V alue
` ]
Ġsub problems
Ġ` $
^{2 ,p}
Ġ20 13
M H
ing le
ut z
Ġ} }$
ac le
ew icz
Ġcharacter ised
ĠCla ssical
ĠSU BSET
Ġattack s
ogene ity
Del igne
Ġtessel lation
e lim
Ġde coupling
ĠS olutions
ĠL angevin
LE X
_{m ,j}
ĠNo vikov
/ \alpha}
sk a
\rm d
( '
* [
u la
ĠN orth
cc }
au d
\s T
(- .
ĠQ M
Ġpres entable
Ġsuff ix
ĠKaz hdan
] _{(
_{\ iota}
ĠD onaldson
Ha damard
Ġwish es
{ ``
}} }\\
}] =\
Ġsuffici ency
Ġbo ils
Ġ vec
Y )}
ly ap
mathb in
_{- m}
Ġ10 8
Ġtigh ter
| }^
| |^{
ĠB MO
Ġ\begin{ gather*}
sh uffle
Ġab surd
ĠCor responding
suma bly
Ġ tilde
j r
Ġn x
}= {
dis per
IEEE tran
ti zed
ĠK n
ib ly
igin al
Ġcombinatorial ly
6 67
S trict
ĠD ol
Ġsem ialgebraic
ĠSt re
R ho
ill ustra
19 3
Ġext raction
\be t
Ġrequ ests
ĠBla schke
apri ori
, W}
ves ter
Ġ\S h
Ġsto pped
uc as
easi ly
] })\
Ġwe l
lo aded
In finite
Ġro lling
Con nes
Ġprocess or
_{m =
t C
_{\ K
unction s
19 71
Ġ\set counter
Ġmono pole
+\ varepsilon}
ĠB L
23 8
Ġ_ ,
ĠAd S
Ġf ont
Ġj ud
\ge 1}
\g ets
Ġ\G m
T c
\h alf
)\, |\,
\ps polygon
odrom ic
O rb
i T
al ready
\b Sigma
^{( L)}
24 4
Le vel
hu is
C heck
Ġ\c s
99 4
oper ations
Ġses qui
Q ED
ĠL usztig
Ġ\b L
lan i
sol ved
Inf C
si o
ore lli
Ġl in
umber some
Ġserv ices
Ã Ĺ
N OMA
ty p
Ġop ens
\m i
infinite simal
Ġcas cade
ad v
^{N -2}
K as
k T
t G
Ġf unc
)}$ -
Ġint end
ĠFin Sequence
, >=
C )}
Ġto wers
Ġde par
Ġ\g lobal
\O r
you ng
develop ed
Ġsu ffer
12 34
ee e
DE R
_{3 ,4}
Ġvisual ize
Ġ\ lan
Ġma sk
]{ |
Ġen comp
^{1 ,q}
ĠRe es
17 2
Ġfactor ing
gener ation
37 8
bet ter
|< |
n T
s or
w ol
ĠS il
ĠE lements
prop ref
Ġev idently
oun tain
^{\ omega
Ġ0 1
ĠX u
dis cr
Ġdim er
C i
st rip
^{\ otimes
-\ tau}
ĠR G
_{\c C}
Ġsec ant
A z
G J
R HS
re levant
'' }$
_{( m
No ether
be am
Ġun av
cu ts
sume d
\beq s
parame trized
20 9
Ġper me
Ġtra ding
H older
L g
dots b
Ġquanti fiers
Ġca vity
ĠIntegra ting
qu bit
lemma s
Map s
ĠKal man
o val
sta tion
N at
m kern
on y
^{- b}
bu bble
ĠComp ared
ta ctic
ĠD f
Ġgo als
^{k -
repres ents
Ġcrucial ly
Ġga ined
m F
z g
label s
Ġ\E q
Ġblow s
Ġequidis tant
Ġa side
le pi
ĠCN RS
Ġdegra dation
Ġsol itary
99 5
Ġshe ets
Ġep is
ggl ing
ator ics
ind rom
Ġpropo ses
_{n, k
}^{+ }$
margin al
H uang
he ll
Can telli
\R d
Cha in
V ia
)}\ ;
\v phantom
AC E
Ġ\w hat
itud inal
y r
Big gr
]\ )
ju gating
Ġexcep tions
PR OP
ĠRa ther
Opt A
d N
ma c
^+ -
Ġwork er
ni ties
Ġlea der
Ġcance ls
Ġreduc ibility
u bar
Ġa p
Ġcal ibra
^+ )^
Ġab und
\H ilb
}& {\
\Ga m
/2 -1}
Ġ\xymatrix @
I u
Ġb io
Ġsub intervals
olu tely
Ġund e
G ru
\h phantom
ĠRe gular
& |
+ b}
ur ning
ob served
Ġcent roid
resul ting
Ġsw apping
two headrightarrow
is cent
Ġcon sult
\mid dle
_{-\ alpha}
= +
F redholm
H n
X n
\ $
^{\ psi}
ex periments
\P G
period icity
Ge ometry
V is
Ġsu ble
ĠIn verse
\f ont
natural }
Ġuncertain ties
L f
\ rest
b dy
in sert
pl er
Ġnon constant
draw Color
pack ing
f eedback
in et
ĠL Seg
via ted
^{1 /(
Ġ\m R
Ġtra pped
PS K
Ġrefine ments
Ġwitness es
; $$
K ap
ĠH H
16 1
}| $.
ĠEx act
Ġbic ategory
f ly
la unay
Ġ| |_{
Ġ~ (
Ġ\re v
Sing le
}} }}}
ĠB ig
od d}
yn g
32 6
Ġ\var projlim
Ġfall ing
ĠN L
hand les
De gree
con nectivity
g host
r q
ce l
_{\ ga
tens ors
Ġpuzz le
V T
s plits
ur r
ĠG ab
ĠCon vex
Ġ\cal F
Dec ay
combin ation
ĠBell man
D y
w ick
te gy
xi )}
Ġne at
Ġsupp lementary
yl vester
es i
Ġg lass
ĠS till
up }
\m Z
ni ques
Ġdri ve
ĠVar iable
H x
L n
\ scriptstyle
^{- |\
co p
bo son
_* =
RE M
mini max
Ġ\ex pect
\tt t
ĠPfaff ian
Ġsa mpl
Ġte lesco
\H il
30 4
R oughly
n ic
ith metic
Ġco chains
ĠB ri
ĠE mail
li pschitz
Ġcommunic ate
[ $,
Ġs mash
Ġm s
li k
bound ing
St udy
Ġexhibit ing
Ġ\op n
minim ization
G rothendieck
P an
ĠB ack
ĠM M
ĠU pper
;\ ,\
As sumptions
18 2
^- )\
23 9
Ġdegener ations
Ġqueu es
re pe
}, (\
^{n +1
_{1, m}
vent ually
ĠMic hael
D g
ar per
ĠS to
Ġfin itary
\j math
expres sed
wah ori
D an
Ġa rtin
ms pace
scri bed
:= {\
new }
Comp are
ĠSe iberg
ĠRK HS
Ġepi demic
re quired
ge p
ĠF FT
^{- u}
_{( j)}
OF DM
Ġgrateful ly
E O
ĠB lock
Ġ2 50
Ġblock ing
Ar chimedean
/ *
D ifferent
^{ O
ĠB asis
po incare
ia m
\B P
A h
Y our
nd e
Ġe psilon
ev an
sel ian
Ġpiv ot
+ q
~ =~
coinc ide
Ġbise ction
U l
s }}
}} )^{\
ĠS pe
\p oly
Ġreal isation
^{n ,m}
Con stant
99 6
Ġ\cal E
_{4 ,1}
Ġrefere es
Ġtransf ers
' }}$
La x
\M cal
Ġ20 19
_{1, 4}
Ġsubt raction
S cho
Ġo range
Ġ} )$
&& &\\
_{0 i}
ommu te
ordin ator
d ent
en ability
Ġr k
ĠSchwarz schild
ĠHigh er
S j
T its
f V
Ġf undament
-\ beta}
Ġqu en
Ġ\f m
\s V
mon odromy
,.. .\
)& :=\
summa tion
Ġ\ reg
ĠC Y
\b I
ĠR W
cu st
\tex theight
i A
Ġwe alth
Ġas ynchronous
mo other
Ġdec iding
Ġexplo its
Ġ[- ]
]- [
ĠâĢ ĵ
A PP
}} ^{(\
Ġindic ators
inde pendently
sur gery
D n
m odes
Ġ\b theta
Ġinfer red
deter mine
il ter
ag ore
ĠĠĠĠĠĠĠĠĠĠĠĠĠĠĠĠĠĠĠĠĠĠĠĠĠĠĠĠĠĠĠĠ ĠĠĠĠĠĠĠ
)(- .
Ġnucle us
,\ lambda
Ġ1 10
ew ner
Ġ\S upp
Ġgre y
discre tization
D etermin
\ unit
ar ri
Ġd ice
ore ma
Ġincorpor ating
f M
z il
ĠH ong
Ġsub modular
\, ,
con servation
^+ }(
Ġhe lic
})\ ,\
col umns
Ġ10 1
&+ &\
Ġvio late
regulari zation
' )}$
y ama
ĠI T
}| |_{
IN AL
L at
+ b
D ifferential
h ta
Ġre state
ĠThe oretical
ac s
28 4
ĠAd ding
ellip se
Ġbrid ges
e j
l not
re ads
Ġcon tributing
di ame
Ġanswer ing
Ġcobord isms
le aves
}} })
ex po
ĠG en
Ġpre decess
ture d
0 35
d ar
e mail
f al
Ġ\ In
ĠC O
Ġske in
B c
,\ zeta}
ĠL arge
asi ewicz
\B S
ern and
ĠMo tivated
Ġre ject
Ġsub object
Ġ .}
D w
n an
2 14
E ntropy
J e
re ll
_* )\
non lin
fore st
OP T
Ġencoura ge
' <\
a ided
f F
le dast
ck i
fr g
Ġvio lates
Ġepoch s
Ġconcrete ly
erc ises
: }\
Ġm or
Ġm erging
ex ternal
Ġmulti grid
Ġcomponent wise
juga te
Ġquasi conformal
rig or
Ġ ^4
2 95
[ $.
\c cc
}_ +(
\s tep
long table
ca usal
Ġti p
Ġrecogn ized
P hy
Ġal beit
ab br
In variant
Ġdo cument
Ġamalga mation
F lat
T O
^{- z}
mo tiv
\item sep
d il
par alle
_{j ,\
^{2 3}
Ġpenal ized
la mb
ind iv
\C G
Ġ\s eq
ogen ous
FM ISC
G ibbs
lar y
^{2 s
A le
h erm
n fty
in tr
ĠO p
33 6
Ġprof it
! }.
[ x]
Ġs quee
n is
^* },
\P p
_{m +
ĠĠĠĠĠĠĠĠĠĠĠĠ ĠĠĊ
, }\
S ame
b ld
q e
\H c
bs x
prising ly
Ġ\ ur
_{ BC}
\b dy
ert on
^{0 ,0}
A xiom
J ones
r N
Ġ\ To
\{ (
)}\ ,.
32 8
acc urate
ĠDefin ing
Ġ\ lo
Ġn th
ĠTh rough
^{2 ,0}
mon oton
Ġtun nel
Ġdecor ation
S ys
a veraged
m M
t end
Ġcollect ing
ĠIns titut
k Q
_{j \in
_{j ,t}
_* :
_{m k}
Ġwave lets
_{T V}
al ed
ig ration
Ġpro hi
fin ding
partial ly
li }
]: =
Ġexplan ations
distingu ished
Pal ey
Ġc umbersome
ol la
pa d
Ġl iving
ĠV V
'' :
_{m ,n
36 5
Ġamong st
ĠAr chimedean
absor bing
c pt
in vestiga
lo pe
Ġ\b g
inter p
triangle s
3 24
c vx
id ance
_{k, s}
)\; ,
)| -
Ġfo cal
Ġcontrac ts
Ġbubble s
boot strap
Ġmagne tization
ure wicz
ĠD irect
{( -\
\put morphism
Ġobe ying
. [
B ir
Ġ\S t
W asserstein
l led
}} |^
ĠP ID
_{2 s}
under lying
Ġocc upation
Ġdemonstra ting
Ġexpect s
Ġexchange able
Ġexper ts
Ġtourna ment
Z i
se min
cal f
+\ ,\
Ġrequ ested
reg ions
}\| _\
\ qu
es pecially
ĠN ielsen
Ġ\cal S
Ġaxi al
re ps
Ġb ending
}$ }.
ri vial
Ġ+ {\
ire less
inf o
\ verb
p ics
\end xy
ĠM en
}| }\
ĠĠĠĠĠĠĠĠĠĠĠĠĠĠĠĠĠĠĠĠĠĠĠĠĠĠĠĠĠĠĠĠ ĠĠĠĠ
/ 8}
M f
ĠRE PEAT
\use package
< _{
l son
ĠT ensor
ĠM c
Ġnon standard
\P o
\S ig
Ġser ving
ĠPo incare
Ġalpha be
Ġcohom ologies
r R
fin }
]. \]
Po sitive
Ġ@> {\
" }
lo ying
ĠH ess
)) /\
Ġclo sing
}+ |\
\B b
Ġconstitu tive
mati ques
P l
l itz
Ġpre para
flow s
commuta tivity
B etti
S l
Ġg ad
^{\ ep}
ĠS IC
res sively
ry ing
ns ki
Ġ\L i
o op
ed en
qua res
all ing
Ġsh arper
_- =
ura ev
^{\ p}
ĠF R
\n at
circ ular
26 4
cust om
F isher
P DF
f ounded
xi ties
ĠE ilenberg
Ġthere of
\h yper
diff ic
orth o
Ġintegr ally
ikh onov
Ġwarp ed
\ unitlength
(\ lambda)}
Ġpre pared
! \!\!\!\!
X ]
_ !\
Ġw ar
Ġin formal
ĠL em
Ġra ising
ĠRe presentation
ĠMathe matik
Ġ\if x
' }+\
ke e
Ġchar ging
itch fork
Ġcaus ality
Ph ys
qu aring
Ġpropa gate
\rb rack
Ġ\Bbb k
Ġ" $\
ok s
D ou
i tation
ĠA ra
co bord
^{( K)}
_{( -\
Po ints
Ġsix th
] }^{\
ĠD ie
Ġta b
\D eclare
_{x \to\infty}
hy brid
Ġquasi linear
{. }[
Ġexhi bited
conclusion s
F ul
ith ub
ck s
Ġj obs
Ġge ode
tra in
[- >](
Ġdete cting
A mb
R un
h phantom
| ~\
}\ ,\,\
Ġco multiplication
Ġex po
ĠS equence
ĠC ambridge
)) )$.
Ġ\h s
O g
` .
e me
ĠS pectral
cu le
Ġ\m d
Ġtor que
A ns
er ner
Ġ\c u
^{\ kappa
il er
_{x ,t}
\x ra
Ġbo ost
Ġconv olutions
V W
Ġ\ act
Ġobserv ability
\if x
EASU RABLE
Ġp yramid
da s
ĠA dd
Ġfib red
ĠMay er
, d
h D
pp ly
il ities
ĠAs ymptotic
pri mes
Ġmultiplic atively
ĠLore nz
ĠPh D
Ġ\tikz style
Ġeman ating
ĠC am
ordinate s
\xymatrix@ R
C yc
ss es
Ex ponential
Ġtangle s
asu rable
Ġcol lective
=( (
_{0 ,t}
agore an
'\ )
Ġrepe titions
ĠWol fram
Ġ\cal X
Ġ\var injlim
sample s
Ġforget ting
C p
N m
nd }
ĠP OD
Ġcomp osi
ĠN or
28 318
Ġoccur red
ĠGM RES
Ġ till
a us
| }}\
omega )}
\O b
)* {}
Ġhexag onal
Ġrev olution
ro perties
Ġrandom ization
ev }
{ ;
tu be
l h
\T c
Ġ\D om
ĠMe asure
ĠT utte
ow ards
^* }$.
_{2 2
Ġ) _
Ġdia m
.$ \\
_{\P i}
@ /_
Ġf urn
ar tial
_{\ g}
\c x
bf m
Ġ\n ame
descri be
ĠSi mulation
journ als
B v
Ġu ps
\n rm
ad ically
Ġdx dt
Ġshadow ing
uris tically
b }}
in line
de lim
ĠT emp
Ġh onest
Ġ\I EEE
Ġtrace less
n verse
{ _{
ta c
Ġre jection
30 1
i w
Ġin direct
ĠM ass
}}. \]
Ġmultic ast
s ke
_{\ K}
ĠC heck
We ight
18 9
Ġopen ing
Ġ20 11
#### ####
ĠIn put
]\ ;
Ġ\f rom
Ġbasic s
ĠInte ger
discus sed
Ġi k
col oured
Ġ\O p
Min imal
\bra ket
" ?
\en a
, ,
G rant
Ġ\ pageref
pp end
^- =
Ġmain taining
Ġ@ >\
F n
d }}
n yi
Ġgraph ic
\bb N
Ġ ĉĉĊ
h it
^{\ cdot}
))\ ]
]\, .
' =\{
( y)}
4 90
ĠV lasov
}^+ $,
ductor y
c lt
}} )_{
co cycles
Al go
tran sf
Ġneur on
V ietoris
o ft
_{n =-\infty}
Ġhas h
ham iltonian
Ġhoriz ontally
\ amalg
Ġ\ thanks
or acle
Ġ( [\
ĠC over
linear ized
)| &\
Ġtru st
Ġ _X
ĠS IR
ĠE ducation
Ġ8 6
f rown
g ons
^{ E}
S quare
,\ !
Ġi v
ĠF ree
_{k \in
Ġlo ads
ili pp
V A
Ġen clo
Ġ\s lash
ĠEstima tion
ĠRL VECT
A cc
q z
Ġsu n
ĠD etermine
45 5
Ġorgan ization
' :\
eq us
ĠL O
^* :\
ĠO rd
^{2 p
Ġ\C l
bound aries
\O o
Ġillustra ting
Ġdef iciency
_{\sigma (i)}
Ġfit ness
congru ence
r A
Ġ[ $
Gra dient
Ġleak age
Ġd end
\n umber
})} ^{
\allow displaybreaks
: &
\b al
Ġper ipheral
ple x
IEEE membership
ris on
Ġcorrup ted
S AT
_{\ B}
ow tie
'$ ;
oper ative
Ġarrival s
R r
\ graph
\ pagebreak
*} (
ĠP u
)), $
s mallest
x o
_{r r}
_{g -1}
\en q
' )_
\ gra
ĠH F
bf X
26 7
Ġpan els
perturb ative
L s
c rossed
Ġs ho
Ġc am
ĠT otal
ĠM CMC
_{j ,0}
Ġpropag ating
Ġ ^{-\
Ġd h
Ġ\c or
\c prime
^{- c}
ĠE r
Ġinter iors
12 )}
Ġsing letons
state vec
ecess ary
X REAL
m oreover
igh tening
Ġfact ored
25 00
ata ke
}:= (
orb ifold
K ol
o ints
Ġ\ ominus
35 3
orok hod
x h
Ġ\ tri
on ents
to ol
Ġ\fig ref
,\ mu
Ġ\q w
Ġremin iscent
Ġpl urisubharmonic
T ags
ur ling
Ġqua s
Ġ\m S
Ġarri ving
Ġextrac ting
Ġ\ amalg
ĠA long
ĠO k
Ġgra de
\w tilde
Ġ\w w
diamond }
Ġacceler ate
Ġdelay ed
Ġphysic ists
* (\
et ter
ĠB ert
Ġ\S I
Ġguess ing
redund ant
& &=
P age
triangle down
Ġdim in
)} )^
Ġsimpl ifications
Ġpri mi
_{5 1}
Ġdamp ed
conven tion
- k)}
B lack
Ġ\ val
ff ler
bf z
Th rough
sc i
vare p
'' =\
\Big gr
Par tition
T rue
Ġ\ restriction
\S pan
lear row
94 4
ara m
ĠInd ex
p z
ĠT om
Ġ& {
ĠW il
Ġ20 12
}\! \!\!
N IV
Ġ\ io
ce iver
ĠB M
ĠP lugging
\math ord
channel s
e lem
x bf
Ġpro ton
Ġcom on
anish ing
D h
s dp
Ġs s
}} }=
^{\ al}
}) }$,
05 0
cent ration
aux iliary
\line thickness
G ab
Ġ\ rel
ta s
ĠB ounds
ration ally
sten haber
G h
te or
il inson
ab ling
ie g
30 6
ration ality
Ġth read
la d
Ġe lu
ĠE C
\s N
_{0 3}
Ġqueue ing
Ġun perturbed
Ġra ises
Ġ\D er
commu nication
Comp utational
_{\lambda ,\mu}
hl fors
_{ab c}
Ġhemis phere
ĠAdv anced
H ermite
U K
ĠCon tra
17 1
\cal V
_{\mathrm{ max}}
iden tified
Ġdecre ased
_{\f p}
ar ski
\b eno
co x
\f un
can }
ĠInd e
P m
B ern
re ci
_{\ circ}
ĠA MP
od in
ire gular
ee }
approxima tely
Ġtang ents
Ġ\th ref
Ġinstru ctive
, n-1}
ar ranging
We ighted
ab bre
\e m
Ġretur ned
ĉĉĉĉĉĉĉĉ ĉ
^{ U}
ĠSti efel
1 ,1}
Ġst en
Ġlocal isation
\C V
\S H
Ġdi la
Ġfair ness
Em bedding
Pen rose
] }}\
ma ted
_{\ geq
ise ux
Ġconn ective
' )_{
_{ zz}
}} :\
}^{ +}
Ġ\h phantom
Ġafter wards
.\\ [
AL G
ĠQua nti
ĠBR ST
" {
S eries
t un
th ur
Ġ\ fint
is ition
^{- n-1}
di rac
ss a
_{m \to\infty}
Ġprof essor
Ġport ra
legend entry
0 90
gh }
Ġ\c urve
_{i \to\infty}
ĠR ou
ĠV II
Ġgra nd
)-- (\
B d
J )}
_+ =\
Ġhand ling
Du ality
ĠInd ia
Form ally
Ġphra se
im o
}_{ |\
Ġ\s ig
Ġ8 9
\L c
Ġenumer ated
n ick
_{\ F}
bu }
\e es
ĠRe ynolds
Ġund ec
minim izing
ĠPh ys
Ġcon ics
\A ff
\ra rrow
k q
bu d
\B c
0000 000
Ġbig gest
+ j
reg istration
Ġav ailability
Ro bust
_{(i, j)}
Ġperman ent
B la
R IS
))$ ;
^{1/ \alpha}
\J J
Ġsti mula
Ġscat tere
). ..
Ġr fl
Ġsp urious
Ġconv ince
ch r
sign ificant
gli ardo
D imension
\ textsl
de ff
}) :=
Ġen rich
)+ +(
)* +{\
Ġdi lations
B undle
N one
Ġ\ equ
Ġ\ ec
Ġin tr
Ġ\c i
Ġex changes
] ]:
is a
val idation
bi qu
cell ular
_{k, l
C rit
K E
c ry
Ġwh ilst
ĠZ ero
C oun
ran ishi
ay er
Ġsupp ressed
_{t \rightarrow\infty}
ĠMo ser
conjuga tion
( r
W L
w en
ĠR ussian
\g G
Ġ _r
E c
E QU
K b
Ġin tractable
ĠC entre
Ġsub trac
ĠCon struct
ĠVol terra
Ġra ise
\be as
Ġ\S pan
)}$ }
. }$$
Ġin tra
xi al
[\ ,\
Ġsub matrices
ever i
^{n -1
]^ (.
Car lo
Ġpub lication
^{1- s}
Ġquantif ied
)\< ^
Ġinfinitesim ally
B m
a ware
n +2}
in version
Ġ\b i
_{j +1
iter ated
^{(\ delta)}
temp t
lli ps
Ġpush ing
partament o
Ġi on
Ġ\A c
Ġgu idance
A rtin
E e
Ġ\ nd
Ġbelie ved
Ar row
\ Def
_{\ emptyset}
ĠP ara
ĠR osen
Ġdot size
Ġsett led
Ã¤ hler
+ }$
ou los
^{- 5
18 3
do i
Ġcompr ises
O per
de ux
ha vi
Ġi mm
^{\ downarrow}
calcu lation
! \,
Ġ\c ard
}) {\
ĠD FT
Ġrecor ds
n om
)| |^
\r hd
is try
&& =\
inter acting
Ġclu b
propa gation
Ã® Ã
} ---
end owed
ga u
Ġde singulari
fact s
CD F
Ġaccep tance
_{j,k =1}
F ano
n ls
Ġse vere
}}\ |_{
prec ision
, -1}
] <
}\ }}
Ġ\b Y
^{m -
Ġtermin als
: {
@ >>>
s I
un ipotent
ow s
Ġmulti graph
high est
remain der
is i
ĠM el
Ġ\b K
\t x
\G g
32 7
Comple te
lo p
om it
Ġlong itude
Ġ\var kappa
\ex pect
\makeat letter
, F}
ĠR V
Ġsta ircase
ting er
under standing
Po incare
Ġincomp arable
dark red
Ġ ^{3}
\D c
^*\| _
0 21
rm default
ĠN akayama
ke ep
omin o
ĠAlgebra s
( N)}
x d
in ski
Ġ\ 0
]$ ).
main result
}[ [
Ġ* -
Ġdx dy
pur ple
. }$
m W
Ġl c
Ġpartic ipa
Ġrep elling
Ġprescri ption
Ġ _R
19 68
Ġrepro duction
TF UN
Ġ\ el
as su
_{n, s}
Ġfulfill ing
\ fin
\ acute
l man
Ġ\c n
Ġestima tions
^{2 g}
Ġ\dots m
Ġtra ver
Dia gram
pass ing
Ġp s
Ġ\in to
\n r
|\ !
Ġ\n m
les ky
Ġstabil iser
@{ =
cz os
g j
q v
Ġin trinsically
(\ !\
Ġ( *)
_{t ,i}
):= (\
Ġannihi lates
ĠSum ming
_{k n}
no tations
ĠT s
Ġ\c olim
ĠL C
so hn
Ġinterest s
_{d ,n}
[...]
