{
  "!": 33,
  "!!": 5023,
  "!!!": 14573,
  "!!!!": 23147,
  "!\"": 5097,
  "!'": 20685,
  "!)": 8679,
  "!),": 23289,
  "!).": 19431,
  "!,": 26546,
  "!--": 39727,
  "!<|": 7447,
  "!=": 42443,
  "!?": 36516,
  "!]": 31997,
  "!âĢĻ": 19849,
  "!âĢĿ": 4610,
  "\"": 34,
  "\"'": 46496,
  "\"(": 45304,
  "\")": 8587,
  "\"),": 18578,
  "\").": 18055,
  "\");": 22029,
  "\",": 2868,
  "\",\"": 11127,
  "\",[": 35209,
  "\"-": 43219,
  "\".": 2829,
  "\"...": 35939,
  "\".<|": 35506,
  "\".[": 8696,
  "\":": 4935,
  "\":\"": 10353,
  "\":{\"": 30052,
  "\";": 15537,
  "\">": 9263,
  "\"><": 39174,
  "\"></": 36189,
  "\"?": 23970,
  "\"[": 19443,
  "\"]": 20662,
  "\"}": 34515,
  "\"âĢĶ": 30649,
  "#": 35,
  "##": 5104,
  "###": 32285,
  "####": 9279,
  "########": 15480,
  "################": 25773,
  "################################": 45595,
  "$": 36,
  "$$": 28484,
  "$,": 47236,
  "$.": 42059,
  "%": 37,
  "%)": 6621,
  "%),": 17428,
  "%).": 20015,
  "%,": 7986,
  "%-": 36887,
  "%.": 7538,
  "%;": 32597,
  "&": 38,
  "'": 39,
  "'\"": 45751,
  "''": 15917,
  "')": 17156,
  "'),": 45796,
  "').": 40226,
  "');": 26713,
  "',": 6349,
  "',\"": 46890,
  "','": 46431,
  "'.": 8508,
  "'.\"": 39955,
  "':": 16005,
  "';": 25795,
  "'?": 49885,
  "']": 32054,
  "'d": 3016,
  "'ll": 2295,
  "'m": 1984,
  "'re": 1387,
  "'s": 425,
  "'t": 697,
  "'ve": 1852,
  "(": 40,
  "(\"": 10651,
  "($": 21139,
  "('": 12579,
  "((": 32881,
  "()": 5458,
  "())": 38892,
  "());": 43326,
  "(),": 33921,
  "().": 26092,
  "();": 12550,
  "(-": 49069,
  "([": 38934,
  "(\\": 36414,
  "(_": 36409,
  "({": 28046,
  "(âĪĴ": 49252,
  ")": 41,
  ")!": 35053,
  ")\"": 25732,
  ")'": 48167,
  ")(": 14241,
  "))": 7862,
  ")))": 32780,
  ")).": 45087,
  "));": 27924,
  ")*": 33189,
  "),": 908,
  "),\"": 35214,
  "),[": 30555,
  "),âĢĿ": 29956,
  ")-": 19996,
  ").": 833,
  ").\"": 34044,
  ")...": 49816,
  ").<|": 18984,
  ").[": 11181,
  ").âĢĿ": 27534,
  ")/": 30857,
  "):": 3728,
  ");": 3024,
  ")<|": 10360,
  ")=": 43227,
  ")?": 20969,
  ")[": 22743,
  ")\\": 46716,
  ")]": 30481,
  "){": 31149,
  ")|": 15069,
  ")}": 31613,
  ")âĢĶ": 24835,
  ")âĢĿ": 35263,
  "*": 42,
  "*)": 43220,
  "**": 2237,
  "***": 10002,
  "****": 5272,
  "*****": 34392,
  "********": 9987,
  "****************": 17893,
  "********************************": 35654,
  "*,": 31546,
  "*.": 31607,
  "*]": 39856,
  "+": 43,
  "+)": 39214,
  "++": 9162,
  "++)": 46329,
  "++++": 34904,
  "+,": 29829,
  "+.": 31012,
  ",": 44,
  ",\"": 774,
  ",'": 5449,
  ",'\"": 21273,
  ",''": 17403,
  ",'âĢĿ": 38644,
  ",)": 49613,
  ",,": 31645,
  ",.": 43181,
  ",[": 5623,
  ",ÂĶ": 35024,
  ",âĢĻ": 5960,
  ",âĢĻâĢĻ": 20772,
  ",âĢĻâĢĿ": 20652,
  ",âĢĿ": 685,
  ",âĢĿ\\": 33209,
  ",ï¿½": 42871,
  "-": 45,
  "-\"": 32784,
  "-$": 21771,
  "-'": 40899,
  "-(": 40906,
  "-)": 30460,
  "-,": 29887,
  "--": 963,
  "---": 13097,
  "----": 1806,
  "-----": 33926,
  "------": 40688,
  "-------": 46874,
  "--------": 3265,
  "---------": 49263,
  "------------": 26876,
  "----------------": 6042,
  "--------------------------------": 12176,
  "------------------------------------------------": 46161,
  "----------------------------------------------------------------": 29029,
  "-.": 49738,
  "->": 9712,
  "-âĢĻ": 46511,
  ".": 46,
  ".\"": 724,
  ".\"\"": 40708,
  ".\")": 30890,
  ".\"<|": 5821,
  ".\"[": 7256,
  ".$": 43725,
  ".'": 4093,
  ".'\"": 17052,
  ".''": 18387,
  ".'<|": 48626,
  ".'âĢĿ": 30018,
  ".(": 19216,
  ".)": 2093,
  ".),": 11923,
  ".).": 16627,
  ".):": 44155,
  ".)<|": 25889,
  ".*": 24462,
  ".,": 1858,
  ".,âĢĿ": 47558,
  ".-": 8564,
  ".--": 39990,
  "..": 770,
  "...": 1483,
  "...\"": 14095,
  "...)": 31588,
  "....": 3710,
  ".....": 29709,
  "......": 42153,
  "........": 8299,
  "..........": 27616,
  "................": 16611,
  "................................": 32722,
  "...<|": 21128,
  "...]": 23849,
  "./": 22749,
  ".:": 13408,
  ".;": 21161,
  ".</": 40009,
  ".<|": 958,
  ".?": 39443,
  ".@": 41871,
  ".[": 1076,
  ".]": 10774,
  "._": 27239,
  ".ÂĶ": 27141,
  ".âĢĶ": 23530,
  ".âĢĻ": 4037,
  ".âĢĻâĢĻ": 23383,
  ".âĢĻâĢĿ": 16155,
  ".âĢľ": 13323,
  ".âĢĿ": 645,
  ".âĢĿ)": 22663,
  ".âĢĿ<|": 5293,
  ".âĢĿ[": 25807,
  ".ï¿½": 39106,
  "/": 47,
  "/\"": 48539,
  "/#": 39997,
  "/$": 37396,
  "/)": 46546,
  "/*": 42842,
  "/+": 44581,
  "/,": 48968,
  "/-": 24113,
  "/.": 11962,
  "//": 1686,
  "////": 25748,
  "////////": 40249,
  "/<|": 34792,
  "/>": 35657,
  "/?": 33848,
  "/âĤ¬": 45616,
  "0": 48,
  "00": 454,
  "000": 948,
  "0000": 7258,
  "00000": 46140,
  "000000": 29675,
  "00000000": 20965,
  "0001": 32540,
  "001": 16208,
  "002": 33308,
  "003": 22730,
  "004": 40455,
  "005": 40614,
  "006": 45695,
  "007": 44944,
  "008": 48047,
  "01": 5626,
  "010": 47116,
  "02": 6930,
  "03": 6945,
  "04": 6897,
  "05": 5714,
  "050": 42984,
  "052": 37546,
  "06": 6610,
  "07": 6716,
  "08": 6458,
  "080": 43513,
  "09": 6737,
  "1": 49,
  "10": 1357,
  "100": 4018,
  "1000": 17940,
  "101": 18495,
  "1016": 42386,
  "102": 22288,
  "103": 22756,
  "104": 22618,
  "105": 20633,
  "106": 24062,
  "107": 24406,
  "108": 24918,
  "1080": 39888,
  "109": 23593,
  "11": 1733,
  "110": 13989,
  "111": 22830,
  "1111": 48726,
  "112": 24135,
  "113": 25568,
  "114": 25013,
  "115": 22295,
  "116": 27133,
  "117": 26147,
  "118": 27200,
  "119": 26646,
  "12": 1851,
  "120": 14333,
  "1200": 41999,
  "121": 27493,
  "122": 27454,
  "123": 20994,
  "124": 28520,
  "125": 17707,
  "126": 29088,
  "127": 25983,
  "128": 22385,
  "129": 27230,
  "13": 2312,
  "130": 17545,
  "131": 29094,
  "132": 30118,
  "133": 27884,
  "134": 29249,
  "135": 24247,
  "136": 31348,
  "137": 29983,
  "138": 31718,
  "139": 31124,
  "14": 2226,
  "140": 19871,
  "141": 31220,
  "142": 32280,
  "143": 32626,
  "144": 29377,
  "145": 28187,
  "146": 33699,
  "147": 32218,
  "148": 32283,
  "149": 29813,
  "15": 1999,
  "150": 10656,
  "1500": 44044,
  "151": 33335,
  "152": 33274,
  "153": 34371,
  "154": 33806,
  "155": 27972,
  "156": 34962,
  "157": 34427,
  "158": 34626,
  "159": 33579,
  "16": 2194,
  "160": 19219,
  "161": 36045,
  "162": 35740,
  "163": 35661,
  "164": 36693,
  "165": 30422,
  "166": 35568,
  "167": 35117,
  "168": 25496,
  "169": 35469,
  "17": 2416,
  "170": 23638,
  "171": 38474,
  "172": 33933,
  "173": 37965,
  "174": 36487,
  "175": 25294,
  "176": 35586,
  "177": 35491,
  "178": 36809,
  "179": 34791,
  "18": 2470,
  "180": 21245,
  "181": 38098,
  "182": 33801,
  "183": 38833,
  "184": 38223,
  "185": 33686,
  "186": 38767,
  "187": 38775,
  "188": 37270,
  "189": 38461,
  "19": 1629,
  "190": 28525,
  "191": 40252,
  "192": 29722,
  "1920": 47350,
  "193": 39629,
  "194": 39959,
  "1945": 49014,
  "195": 36162,
  "1950": 42369,
  "196": 41032,
  "1960": 35435,
  "1963": 49380,
  "1964": 48760,
  "1965": 46387,
  "1966": 47727,
  "1967": 44015,
  "1968": 43793,
  "1969": 45488,
  "197": 41455,
  "1970": 29118,
  "1971": 45267,
  "1972": 42588,
  "1973": 41376,
  "1974": 41969,
  "1975": 41290,
  "1976": 43063,
  "1977": 41360,
  "1978": 42322,
  "1979": 38169,
  "198": 40593,
  "1980": 25168,
  "1981": 38197,
  "1982": 37286,
  "1983": 37008,
  "1984": 32944,
  "1985": 34399,
  "1986": 34507,
  "1987": 34648,
  "1988": 33529,
  "1989": 29539,
  "199": 7543,
  "1990": 20259,
  "1991": 29534,
  "1992": 28523,
  "1993": 28418,
  "1994": 27023,
  "1995": 26373,
  "1996": 26252,
  "1997": 26397,
  "1998": 25600,
  "1999": 23302,
  "2": 50,
  "20": 1196,
  "200": 3049,
  "2000": 14169,
  "2001": 20584,
  "2002": 21452,
  "2003": 20599,
  "2004": 19740,
  "2005": 18932,
  "2006": 18287,
  "2007": 16881,
  "2008": 14437,
  "2009": 13491,
  "201": 31443,
  "2010": 12293,
  "2011": 11841,
  "2012": 10662,
  "2013": 10058,
  "2014": 8545,
  "2015": 8896,
  "2016": 8660,
  "2017": 10391,
  "2018": 20592,
  "2019": 27529,
  "202": 29702,
  "2020": 47395,
  "203": 38489,
  "204": 38591,
  "205": 34956,
  "206": 35394,
  "207": 38554,
  "208": 40062,
  "209": 40216,
  "21": 3907,
  "210": 28981,
  "211": 40541,
  "212": 36206,
  "213": 41525,
  "214": 40793,
  "215": 38000,
  "216": 43287,
  "217": 44840,
  "218": 45422,
  "219": 44587,
  "22": 3300,
  "220": 26087,
  "221": 38756,
  "222": 32909,
  "223": 36254,
  "224": 38305,
  "225": 29926,
  "226": 40825,
  "227": 43257,
  "228": 42333,
  "229": 42473,
  "23": 3595,
  "230": 27354,
  "231": 40012,
  "232": 39496,
  "233": 39914,
  "234": 41868,
  "235": 35339,
  "236": 43591,
  "237": 36958,
  "238": 40243,
  "239": 41656,
  "24": 3396,
  "240": 25357,
  "241": 45296,
  "242": 44096,
  "243": 42702,
  "244": 46952,
  "245": 41275,
  "246": 45176,
  "247": 37811,
  "248": 45714,
  "249": 35900,
  "25": 2628,
  "250": 10427,
  "251": 46225,
  "252": 43044,
  "253": 46352,
  "254": 43516,
  "255": 25563,
  "256": 23714,
  "257": 48668,
  "258": 48022,
  "259": 46562,
  "26": 3898,
  "260": 31387,
  "261": 49283,
  "262": 45638,
  "263": 48299,
  "264": 34517,
  "265": 39739,
  "266": 42549,
  "267": 46709,
  "268": 46012,
  "269": 48281,
  "27": 3773,
  "270": 31111,
  "271": 47071,
  "272": 47652,
  "273": 41592,
  "275": 35709,
  "276": 49661,
  "277": 43038,
  "278": 46797,
  "279": 46608,
  "28": 4032,
  "280": 29961,
  "282": 49679,
  "284": 46754,
  "285": 43112,
  "286": 47966,
  "288": 45733,
  "29": 4039,
  "290": 35530,
  "293": 46127,
  "294": 45986,
  "295": 41953,
  "296": 49781,
  "299": 35901,
  "3": 51,
  "30": 1906,
  "300": 7386,
  "3000": 33358,
  "301": 43922,
  "302": 37585,
  "303": 42281,
  "304": 47717,
  "305": 44325,
  "307": 47294,
  "308": 45575,
  "31": 5302,
  "310": 38923,
  "312": 46287,
  "313": 47806,
  "315": 44183,
  "317": 48116,
  "32": 4479,
  "320": 27825,
  "321": 48969,
  "325": 38431,
  "33": 4262,
  "330": 32554,
  "332": 47938,
  "333": 32969,
  "335": 47297,
  "34": 4841,
  "340": 38032,
  "342": 43276,
  "343": 49341,
  "345": 47692,
  "349": 47078,
  "35": 3867,
  "350": 17832,
  "357": 42600,
  "36": 4711,
  "360": 23627,
  "365": 37672,
  "37": 4980,
  "370": 27397,
  "375": 35318,
  "38": 4801,
  "380": 32169,
  "384": 48805,
  "385": 47700,
  "386": 37131,
  "39": 5114,
  "390": 43433,
  "395": 46397,
  "399": 41111,
  "4": 52,
  "40": 2984,
  "400": 8097,
  "4000": 48158,
  "404": 33110,
  "405": 49415,
  "41": 6049,
  "410": 47024,
  "42": 5824,
  "420": 36050,
  "425": 44383,
  "43": 6061,
  "430": 42836,
  "44": 4683,
  "440": 39093,
  "444": 49274,
  "446": 30062,
  "45": 3891,
  "450": 22572,
  "46": 5355,
  "460": 44437,
  "47": 5116,
  "470": 46308,
  "477": 47599,
  "48": 4987,
  "480": 36377,
  "49": 5187,
  "499": 41448,
  "5": 53,
  "50": 1704,
  "500": 4141,
  "5000": 36363,
  "51": 7936,
  "510": 48397,
  "512": 43306,
  "52": 7944,
  "520": 46059,
  "53": 8171,
  "530": 48245,
  "54": 7989,
  "540": 46996,
  "55": 4950,
  "550": 29110,
  "559": 42370,
  "56": 7773,
  "560": 43363,
  "57": 7567,
  "58": 7854,
  "59": 7059,
  "6": 54,
  "60": 2763,
  "600": 9345,
  "61": 9065,
  "62": 9122,
  "625": 47137,
  "63": 9139,
  "64": 5911,
  "640": 42604,
  "65": 5951,
  "650": 25370,
  "66": 6804,
  "666": 44909,
  "67": 7203,
  "68": 7126,
  "69": 8184,
  "7": 55,
  "70": 4228,
  "700": 10913,
  "71": 9297,
  "72": 8712,
  "720": 42505,
  "73": 9428,
  "74": 8806,
  "75": 4815,
  "750": 19280,
  "76": 8667,
  "760": 42862,
  "77": 6803,
  "78": 7891,
  "780": 49506,
  "79": 8649,
  "8": 56,
  "80": 3502,
  "800": 8982,
  "81": 9875,
  "82": 9923,
  "83": 9787,
  "84": 9694,
  "85": 7337,
  "850": 30873,
  "86": 7511,
  "87": 8258,
  "88": 6859,
  "880": 49491,
  "888": 39387,
  "89": 8154,
  "9": 57,
  "90": 4463,
  "900": 14506,
  "91": 11411,
  "910": 47971,
  "911": 42118,
  "92": 10837,
  "920": 48588,
  "93": 10940,
  "94": 11164,
  "95": 5892,
  "950": 39567,
  "96": 10445,
  "97": 11089,
  "98": 10545,
  "99": 3239,
  "999": 26582,
  ":": 58,
  ":\"": 26443,
  ":-": 34944,
  ":/": 38483,
  "://": 2080,
  "::": 8297,
  ":<|": 7909,
  ":[": 23889,
  ":\\": 24781,
  ";": 59,
  ";\"": 47614,
  ";[": 27576,
  "<": 60,
  "</": 7231,
  "<<": 31435,
  "<|": 703,
  "<|endoftext|>": 49998,
  "<|pad|>": 49999,
  "=": 61,
  "=\"": 5318,
  "='": 22625,
  "=-": 41230,
  "=/": 48098,
  "==": 2742,
  "===": 45369,
  "====": 4751,
  "========": 8077,
  "================": 14143,
  "================================": 27088,
  "=>": 27976,
  "=\\\"": 47908,
  "={": 44333,
  "=âĢĻ": 47879,
  "=âĢĿ": 14807,
  ">": 62,
  ">,": 33180,
  ">.": 47066,
  "><": 16642,
  "></": 19823,
  ">>": 5648,
  ">>>": 43645,
  ">>>>": 13814,
  ">>>>>>>>": 28367,
  "?": 63,
  "?!": 15366,
  "?!\"": 49578,
  "?\"": 3587,
  "?'": 12329,
  "?'\"": 34758,
  "?)": 11314,
  "?),": 30876,
  "?).": 27003,
  "?,": 37303,
  "?:": 37956,
  "?<|": 11567,
  "??": 10420,
  "???": 31567,
  "?]": 27847,
  "?âĢĻ": 11191,
  "?âĢĻâĢĿ": 33591,
  "?âĢĿ": 2975,
  "?âĢĿ,": 46235,
  "@": 64,
  "@#": 45607,
  "@#&": 46921,
  "A": 65,
  "AA": 7726,
  "AAP": 42692,
  "AB": 10893,
  "ABC": 21314,
  "ABLE": 29769,
  "AC": 3197,
  "ACA": 21144,
  "ACAF": 39140,
  "ACC": 37900,
  "ACE": 17552,
  "ACH": 22877,
  "ACK": 12937,
  "ACP": 27442,
  "ACT": 17696,
  "AD": 3759,
  "ADA": 27213,
  "ADD": 36640,
  "ADE": 31327,
  "ADS": 47306,
  "ADVERTIS": 12919,
  "ADVERTISEMENT": 13341,
  "AF": 10187,
  "AFP": 15005,
  "AFTA": 24634,
  "AG": 16953,
  "AGE": 27639,
  "AH": 35274,
  "AI": 25541,
  "AIDS": 36385,
  "AK": 15969,
  "AL": 3108,
  "ALD": 44938,
  "ALE": 28075,
  "ALK": 37331,
  "ALL": 10232,
  "ALLY": 24315,
  "ALS": 35772,
  "ALSO": 44695,
  "ALT": 36319,
  "AM": 3463,
  "AMA": 25028,
  "AMD": 40699,
  "AME": 16970,
  "AMES": 40154,
  "AMI": 45567,
  "AMP": 28002,
  "AMS": 42215,
  "AMY": 18910,
  "AN": 2350,
  "ANA": 33533,
  "ANC": 24647,
  "ANCE": 30693,
  "AND": 9580,
  "ANE": 40682,
  "ANG": 23230,
  "ANGE": 42438,
  "ANI": 47936,
  "ANK": 20791,
  "ANN": 25037,
  "ANS": 20257,
  "ANT": 16046,
  "ANY": 45814,
  "AP": 3807,
  "APD": 30631,
  "APH": 44716,
  "API": 33248,
  "APP": 27440,
  "AR": 2501,
  "ARA": 29793,
  "ARC": 26961,
  "ARCH": 46951,
  "ARD": 15239,
  "ARI": 47150,
  "ARK": 18379,
  "ARL": 35383,
  "ARM": 45688,
  "ARP": 29280,
  "ARPA": 34902,
  "ARR": 31917,
  "ARS": 30733,
  "ART": 10915,
  "ARY": 19312,
  "AS": 2492,
  "ASE": 17491,
  "ASH": 11968,
  "ASHINGTON": 15091,
  "ASON": 35014,
  "ASS": 18268,
  "AST": 15971,
  "AT": 1975,
  "ATA": 21590,
  "ATCH": 10924,
  "ATE": 7882,
  "ATED": 11938,
  "ATER": 48316,
  "ATES": 43422,
  "ATH": 19273,
  "ATION": 12023,
  "ATIONAL": 46993,
  "ATIONS": 36333,
  "ATO": 7997,
  "ATOR": 32495,
  "ATS": 38240,
  "ATT": 25752,
  "ATTLE": 43442,
  "AU": 31871,
  "AUST": 44810,
  "AV": 13549,
  "AVC": 41209,
  "AW": 47559,
  "AX": 32081,
  "AY": 10310,
  "AZ": 43351,
  "Aaron": 28423,
  "Ab": 5530,
  "Abd": 47802,
  "About": 8480,
  "Above": 29526,
  "Abs": 25382,
  "Absolutely": 33474,
  "Abstract": 33141,
  "Abu": 47502,
  "Ac": 15617,
  "Academ": 45408,
  "Acc": 22675,
  "Access": 25742,
  "According": 3764,
  "Account": 44023,
  "Acknow": 42130,
  "Across": 31507,
  "Act": 10078,
  "Action": 25725,
  "Active": 38578,
  "Activists": 48481,
  "Activity": 26107,
  "Actor": 48674,
  "Actually": 24222,
  "Ad": 2589,
  "Adam": 20898,
  "Adams": 37033,
  "Add": 6442,
  "Added": 19264,
  "Adding": 29508,
  "Additional": 20371,
  "Additionally": 19922,
  "Address": 37437,
  "Addressing": 47730,
  "Administ": 44337,
  "Adrian": 48977,
  "Adv": 29229,
  "Advanced": 38804,
  "Advertisement": 3742,
  "Advertisements": 11802,
  "Advertising": 25129,
  "Advoc": 47651,
  "Af": 15902,
  "Afee": 40373,
  "Aff": 35173,
  "Afghan": 37858,
  "Afric": 27409,
  "African": 36379,
  "After": 2983,
  "Ag": 11219,
  "Again": 14358,
  "Against": 34581,
  "Age": 26894,
  "Agent": 47291,
  "Ah": 13747,
  "Ahead": 46356,
  "Aid": 39891,
  "Air": 18600,
  "Ak": 39318,
  "Al": 2654,
  "Alabama": 39332,
  "Alan": 31990,
  "Alaska": 48214,
  "Albert": 35625,
  "Ald": 46800,
  "Ale": 36355,
  "Alert": 49579,
  "Alex": 13637,
  "Alexander": 32620,
  "Alf": 48288,
  "Ali": 26002,
  "Alice": 43407,
  "All": 3532,
  "Alleg": 47567,
  "Allen": 33052,
  "Allow": 48529,
  "Almost": 19690,
  "Along": 19257,
  "Alp": 33277,
  "Alpha": 44905,
  "Already": 33205,
  "Alright": 33464,
  "Also": 7281,
  "Alt": 34451,
  "Altern": 28240,
  "Although": 6062,
  "Always": 34223,
  "Am": 5871,
  "Amazing": 45715,
  "Amazon": 20701,
  "Amb": 36916,
  "Americ": 4623,
  "America": 15494,
  "American": 6159,
  "Americans": 13936,
  "Amid": 32357,
  "Among": 11308,
  "Amy": 38128,
  "An": 2066,
  "Analy": 29993,
  "Analysis": 27845,
  "Analysts": 39733,
  "Ancient": 49977,
  "And": 1737,
  "Anderson": 35801,
  "Andre": 26539,
  "Andrew": 17884,
  "Android": 26684,
  "Andy": 28723,
  "Ang": 15007,
  "Angel": 37715,
  "Angelo": 40219,
  "Animal": 41786,
  "Ann": 20135,
  "Anna": 26930,
  "Anne": 38019,
  "Anonymous": 33750,
  "Another": 5656,
  "Answer": 35430,
  "Ant": 13670,
  "Anth": 25569,
  "Anthony": 26789,
  "Anti": 26540,
  "Anton": 42583,
  "Any": 7143,
  "Anyone": 17462,
  "Anything": 35137,
  "Anyway": 22256,
  "Ap": 29746,
  "Apart": 31283,
  "App": 5953,
  "Apparently": 24983,
  "Apple": 14474,
  "Application": 40140,
  "Appro": 34009,
  "April": 16581,
  "Ar": 4099,
  "Arab": 26177,
  "Arch": 21325,
  "Are": 9276,
  "Arg": 41112,
  "Argent": 48699,
  "Ari": 21772,
  "Ariz": 41475,
  "Arizona": 33626,
  "Ark": 41027,
  "Arm": 35144,
  "Armed": 48605,
  "Army": 44039,
  "Around": 19710,
  "Array": 34456,
  "Ars": 28363,
  "Arsenal": 35499,
  "Art": 9089,
  "Arthur": 26531,
  "Article": 14249,
  "Artist": 44482,
  "As": 1564,
  "Ash": 27277,
  "Asia": 41106,
  "Asian": 39903,
  "Aside": 26150,
  "Ask": 28603,
  "Asked": 14074,
  "Ass": 8657,
  "Assad": 17597,
  "Assistant": 43780,
  "Associated": 26936,
  "Assuming": 41721,
  "Ast": 30546,
  "Astron": 46566,
  "At": 2704,
  "Ath": 48127,
  "Atlant": 36280,
  "Atlanta": 38746,
  "Atlantic": 34052,
  "Att": 13137,
  "Attack": 43295,
  "Attempt": 49847,
  "Attorney": 35110,
  "Aud": 22712,
  "Audio": 33193,
  "Aug": 14598,
  "August": 18250,
  "Aus": 49632,
  "Aust": 12752,
  "Austin": 34198,
  "Austral": 16075,
  "Australia": 21952,
  "Australian": 30214,
  "Aut": 20398,
  "Auth": 34905,
  "Author": 14664,
  "Authorities": 21950,
  "Auto": 44900,
  "Autom": 42066,
  "Av": 14858,
  "Available": 27101,
  "Average": 31650,
  "Avoid": 42111,
  "Aw": 27671,
  "Awards": 46383,
  "Ay": 46457,
  "Az": 30738,
  "B": 66,
  "BA": 4338,
  "BACK": 46691,
  "BALL": 48525,
  "BB": 21716,
  "BBC": 27567,
  "BC": 2343,
  "BD": 48544,
  "BE": 16195,
  "BER": 15362,
  "BERT": 49203,
  "BF": 48524,
  "BI": 3492,
  "BIL": 42069,
  "BILL": 47842,
  "BIP": 47107,
  "BJP": 48694,
  "BL": 13156,
  "BLE": 24894,
  "BM": 9155,
  "BN": 10949,
  "BO": 8087,
  "BOOK": 48310,
  "BOR": 44134,
  "BP": 21271,
  "BR": 15332,
  "BS": 4452,
  "BSD": 25278,
  "BT": 22857,
  "BTC": 40138,
  "BU": 25564,
  "BUR": 35989,
  "BUT": 43364,
  "BY": 20353,
  "Ba": 34798,
  "Bab": 46946,
  "Baby": 35966,
  "Back": 8511,
  "Background": 26050,
  "Bad": 23927,
  "Baghd": 43241,
  "Baghdadi": 48341,
  "Baker": 46966,
  "Bal": 31882,
  "Ball": 31704,
  "Balt": 33914,
  "Baltimore": 37495,
  "Ban": 30880,
  "Band": 36224,
  "Bang": 41988,
  "Bank": 26348,
  "Banks": 47986,
  "Bannon": 48603,
  "Bar": 11798,
  "Barack": 39616,
  "Barry": 43465,
  "Bart": 49346,
  "Bas": 17790,
  "Base": 25826,
  "Based": 15462,
  "Basic": 36400,
  "Basically": 27226,
  "Bat": 22335,
  "Batman": 34002,
  "Battle": 27819,
  "Bay": 14533,
  "Be": 3777,
  "Bear": 44205,
  "Beat": 35616,
  "Bec": 43420,
  "Because": 7379,
  "Beck": 34974,
  "Beer": 46263,
  "Before": 7837,
  "Begin": 30393,
  "Beginning": 38395,
  "Beh": 26988,
  "Behind": 33537,
  "Beijing": 44052,
  "Being": 16191,
  "Bel": 11454,
  "Believe": 45786,
  "Bell": 33402,
  "Below": 19948,
  "Ben": 11890,
  "Benjamin": 47219,
  "Benz": 33796,
  "Ber": 23091,
  "Bern": 19829,
  "Bernie": 26072,
  "Berry": 18914,
  "Besides": 20634,
  "Best": 12735,
  "Bet": 13684,
  "Better": 29138,
  "Between": 20837,
  "Beyond": 19936,
  "Bi": 28370,
  "Bibliography": 45764,
  "Big": 12569,
  "Bill": 15631,
  "Billy": 44811,
  "Bio": 49926,
  "Bir": 47237,
  "Bird": 44258,
  "Birth": 46418,
  "Bit": 14817,
  "Bitcoin": 20720,
  "Bl": 4816,
  "Black": 11189,
  "Blake": 32528,
  "Blanc": 47775,
  "Block": 25793,
  "Blog": 39016,
  "Blood": 30812,
  "Bloom": 29541,
  "Bloomberg": 35640,
  "Blue": 18593,
  "Bo": 17551,
  "Board": 41094,
  "Bob": 19609,
  "Bobby": 47034,
  "Body": 34906,
  "Boe": 39413,
  "Bol": 46185,
  "Bon": 24986,
  "Bonus": 38347,
  "Book": 11279,
  "Bookmark": 46525,
  "Books": 32234,
  "Boot": 49131,
  "Born": 24857,
  "Boss": 48210,
  "Boston": 27868,
  "Bot": 37056,
  "Both": 8654,
  "Bottom": 34505,
  "Bow": 39611,
  "Box": 19588,
  "Boy": 29941,
  "Br": 11644,
  "Brad": 21843,
  "Brain": 44109,
  "Brand": 47154,
  "Brandon": 36982,
  "Brazil": 31016,
  "Bre": 12518,
  "Break": 37537,
  "Breaking": 23658,
  "Breitbart": 48437,
  "Brend": 40158,
  "Brendan": 47940,
  "Brew": 43154,
  "Brexit": 31308,
  "Brian": 21780,
  "Bride": 37532,
  "Bridge": 46286,
  "Brien": 16614,
  "Bring": 30828,
  "Brit": 13893,
  "Britain": 27908,
  "British": 20222,
  "Bro": 17580,
  "Broad": 29533,
  "Bron": 16505,
  "Brook": 42049,
  "Brother": 47187,
  "Brow": 46683,
  "Brown": 18488,
  "Bruce": 32621,
  "Bry": 44184,
  "Bryan": 44569,
  "Bs": 30411,
  "Bu": 40981,
  "Buck": 45114,
  "Buff": 39094,
  "Bug": 37018,
  "Build": 21562,
  "Builder": 46348,
  "Building": 27187,
  "Built": 46575,
  "Bul": 38832,
  "Bull": 41900,
  "Bur": 22631,
  "Burn": 35658,
  "Bus": 43395,
  "Bush": 28398,
  "Business": 22825,
  "But": 1308,
  "Button": 42222,
  "Buy": 15304,
  "Buzz": 45462,
  "By": 3784,
  "C": 67,
  "CA": 5374,
  "CAA": 11301,
  "CAP": 40436,
  "CAR": 17754,
  "CB": 26337,
  "CBC": 22562,
  "CBS": 19222,
  "CC": 4513,
  "CCC": 46813,
  "CD": 10666,
  "CDC": 44199,
  "CE": 7452,
  "CEO": 37122,
  "CF": 44013,
  "CH": 4945,
  "CHA": 42294,
  "CHICAGO": 49540,
  "CHQ": 34701,
  "CHR": 40320,
  "CI": 31615,
  "CIA": 41505,
  "CIO": 42557,
  "CL": 5549,
  "CLA": 15479,
  "CLOSE": 24038,
  "CLUS": 34770,
  "CLUSIVE": 44524,
  "CM": 40464,
  "CN": 47383,
  "CNET": 47955,
  "CNN": 13108,
  "CO": 9550,
  "COL": 35337,
  "COM": 14536,
  "COMMENT": 30165,
  "CON": 19818,
  "COR": 49592,
  "CP": 27978,
  "CPU": 48123,
  "CR": 15221,
  "CS": 7429,
  "CT": 20930,
  "CV": 40641,
  "Ca": 38404,
  "Cal": 10128,
  "Calif": 15765,
  "California": 21847,
  "Call": 18013,
  "Calling": 42813,
  "Cam": 26662,
  "Camer": 33039,
  "Camera": 48440,
  "Cameron": 37545,
  "Camp": 20295,
  "Campaign": 37340,
  "Campbell": 47890,
  "Can": 6301,
  "Canada": 15642,
  "Canadian": 22862,
  "Cand": 42037,
  "Cann": 36973,
  "Cap": 13911,
  "Capital": 37947,
  "Caprio": 45459,
  "Capt": 47283,
  "Captain": 28039,
  "Car": 11335,
  "Card": 22117,
  "Care": 15320,
  "Career": 39683,
  "Carl": 23328,
  "Carlos": 43936,
  "Carol": 45669,
  "Carter": 41241,
  "Cas": 35815,
  "Case": 24052,
  "Cash": 45215,
  "Cass": 41420,
  "Cast": 22903,
  "Cat": 28241,
  "Category": 38458,
  "Cath": 32653,
  "Catholic": 39040,
  "Cause": 45320,
  "Ce": 49070,
  "Cele": 39931,
  "Cell": 35282,
  "Cent": 19594,
  "Center": 27511,
  "Central": 29200,
  "Certain": 49108,
  "Certainly": 29268,
  "Ch": 2328,
  "Chair": 37461,
  "Chance": 46795,
  "Change": 26967,
  "Changes": 38114,
  "Changing": 46180,
  "Channel": 37528,
  "Chap": 48001,
  "Chapter": 26415,
  "Char": 16030,
  "Character": 37992,
  "Charg": 48182,
  "Charl": 22500,
  "Charles": 24795,
  "Charlie": 31197,
  "Chat": 30918,
  "Che": 8674,
  "Check": 12047,
  "Chelsea": 32188,
  "Chem": 48860,
  "Cher": 41747,
  "Chicago": 21638,
  "Chief": 20500,
  "Child": 18481,
  "Children": 26690,
  "China": 11578,
  "Chinese": 20711,
  "Chip": 47145,
  "Cho": 29188,
  "Choose": 42218,
  "Chris": 13973,
  "Christ": 9735,
  "Christian": 17260,
  "Christians": 46849,
  "Christie": 48787,
  "Christmas": 39327,
  "Christopher": 32317,
  "Chuck": 38135,
  "Church": 41438,
  "Circ": 38650,
  "Citing": 43423,
  "Citizens": 48661,
  "City": 14472,
  "Civil": 29877,
  "Cl": 4385,
  "Claim": 42970,
  "Clar": 41196,
  "Clark": 38555,
  "Class": 15941,
  "Claude": 39298,
  "Cle": 15176,
  "Clean": 40055,
  "Clear": 37019,
  "Clearly": 23656,
  "Cleveland": 43720,
  "Click": 10051,
  "Client": 31945,
  "Climate": 26134,
  "Clinton": 12900,
  "Close": 29976,
  "Cloud": 19381,
  "Club": 45431,
  "Co": 8199,
  "Coach": 33000,
  "Coal": 46760,
  "Code": 21072,
  "Cohen": 49795,
  "Coin": 28971,
  "Col": 8010,
  "Cola": 26069,
  "Cold": 37637,
  "Cole": 38989,
  "Colin": 45334,
  "Coll": 24148,
  "Collect": 36615,
  "College": 37762,
  "Collins": 38529,
  "Color": 19434,
  "Colorado": 34656,
  "Columb": 33347,
  "Com": 7362,
  "Comb": 25268,
  "Combat": 49785,
  "Come": 17926,
  "Comey": 45348,
  "Coming": 25120,
  "Comm": 10405,
  "Command": 37080,
  "Comment": 23542,
  "Comments": 24244,
  "Commercial": 45277,
  "Commission": 46096,
  "Common": 25435,
  "Commun": 27971,
  "Community": 29640,
  "Comp": 9642,
  "Companies": 31768,
  "Company": 44818,
  "Compare": 48361,
  "Compared": 38394,
  "Compl": 45137,
  "Complete": 32219,
  "Component": 34655,
  "Computer": 39325,
  "Con": 4520,
  "Concer": 35798,
  "Conclusion": 18691,
  "Cond": 36668,
  "Conf": 16374,
  "Config": 33700,
  "Cong": 15461,
  "Congratulations": 40832,
  "Congress": 19579,
  "Conn": 33103,
  "Connect": 23614,
  "Connell": 29307,
  "Connor": 22277,
  "Cons": 9005,
  "Conservative": 31725,
  "Conservatives": 48679,
  "Consider": 21552,
  "Considering": 32757,
  "Const": 17918,
  "Constructed": 47570,
  "Construction": 38900,
  "Consumer": 48922,
  "Consumers": 48606,
  "Cont": 6094,
  "Contact": 17828,
  "Content": 25336,
  "Contents": 42479,
  "Context": 32553,
  "Contin": 17844,
  "Continue": 26532,
  "Contrary": 41152,
  "Control": 29816,
  "Controller": 29424,
  "Cook": 31137,
  "Cool": 37159,
  "Cooper": 45505,
  "Cop": 46679,
  "Copy": 47954,
  "Copyright": 14386,
  "Cor": 11346,
  "Core": 22684,
  "Corn": 48332,
  "Correction": 34442,
  "Cos": 38494,
  "Cost": 23743,
  "Cou": 47049,
  "Could": 21688,
  "Coun": 24984,
  "Council": 33701,
  "Count": 17159,
  "Counter": 38699,
  "Country": 36652,
  "Court": 19615,
  "Courtesy": 27119,
  "Cover": 28321,
  "Cow": 45036,
  "Cr": 15288,
  "Craft": 21226,
  "Craig": 35167,
  "Cre": 18318,
  "Creat": 29658,
  "Create": 22585,
  "Created": 48041,
  "Creating": 32053,
  "Credit": 21329,
  "Crime": 44619,
  "Crit": 20004,
  "Critical": 43365,
  "Critics": 25958,
  "Cro": 36563,
  "Cross": 25681,
  "Cru": 23013,
  "Crunch": 38743,
  "Cruz": 30191,
  "Cry": 32382,
  "Crypt": 35749,
  "Cs": 30188,
  "Cu": 48648,
  "Cube": 46900,
  "Cur": 30750,
  "Current": 12813,
  "Currently": 18572,
  "Custom": 21838,
  "Customers": 44567,
  "Cut": 30627,
  "Cy": 22588,
  "Cyber": 47795,
  "D": 68,
  "DA": 4871,
  "DAQ": 41924,
  "DAY": 11859,
  "DB": 13868,
  "DC": 12430,
  "DCS": 47956,
  "DD": 23323,
  "DE": 12210,
  "DEF": 46696,
  "DEN": 48175,
  "DER": 26192,
  "DF": 22594,
  "DI": 16292,
  "DJ": 34407,
  "DL": 24560,
  "DM": 24934,
  "DN": 43058,
  "DNA": 29327,
  "DO": 20855,
  "DON": 41588,
  "DOS": 49980,
  "DP": 5567,
  "DR": 11324,
  "DS": 6743,
  "DT": 27596,
  "DVD": 44655,
  "Da": 31727,
  "Dad": 46672,
  "Daddy": 46221,
  "Dade": 42881,
  "Daily": 28112,
  "Dallas": 34981,
  "Dam": 19909,
  "Damage": 45691,
  "Damn": 35754,
  "Dan": 19959,
  "Daniel": 19949,
  "Danny": 39573,
  "Dar": 28141,
  "Dark": 23079,
  "Dat": 49042,
  "Data": 13424,
  "Date": 18835,
  "Dav": 8149,
  "Dave": 26454,
  "David": 9356,
  "Davis": 28737,
  "Day": 14259,
  "Days": 40599,
  "Db": 47461,
  "De": 6113,
  "Dead": 25332,
  "Dean": 40882,
  "Dear": 18678,
  "Death": 22484,
  "Deb": 22323,
  "Dec": 14205,
  "December": 20666,
  "Deep": 29161,
  "Def": 10171,
  "Default": 44819,
  "Defence": 49161,
  "Defense": 27069,
  "Defensive": 40570,
  "Del": 18064,
  "Delta": 46401,
  "Dem": 9566,
  "Democracy": 48423,
  "Democratic": 25141,
  "Democrats": 20912,
  "Den": 20420,
  "Dennis": 45063,
  "Denver": 44219,
  "Dep": 14615,
  "Department": 39104,
  "Depending": 38831,
  "Deputy": 38518,
  "Der": 29821,
  "Derek": 48861,
  "Des": 4944,
  "Description": 24875,
  "Design": 23253,
  "Desk": 48718,
  "Despite": 6613,
  "Dest": 35632,
  "Det": 16006,
  "Details": 28740,
  "Detroit": 31955,
  "Dev": 21091,
  "Develop": 18209,
  "Developer": 45286,
  "Development": 36784,
  "Di": 22660,
  "Diam": 46835,
  "Dick": 39742,
  "Did": 11649,
  "Die": 31425,
  "Diff": 41324,
  "Different": 38096,
  "Dig": 22548,
  "Digg": 40765,
  "Digital": 29803,
  "Dim": 47228,
  "Direct": 15649,
  "Director": 25481,
  "Dis": 10783,
  "Disc": 18891,
  "Disclaimer": 37724,
  "Discussion": 44782,
  "Disney": 31623,
  "Disp": 32976,
  "Dispatch": 46066,
  "Display": 49118,
  "Dist": 22154,
  "District": 38878,
  "Div": 44526,
  "Do": 5474,
  "DoS": 36554,
  "Doc": 31599,
  "Doctor": 37001,
  "Doctors": 36894,
  "Document": 35605,
  "Documents": 46846,
  "Does": 14251,
  "Dog": 37621,
  "Doing": 45133,
  "Dom": 32291,
  "Domin": 37892,
  "Don": 3778,
  "Donald": 6437,
  "DonaldTrump": 21628,
  "Donnell": 18186,
  "Dou": 18787,
  "Double": 33035,
  "Doug": 38626,
  "Douglas": 48219,
  "Down": 11487,
  "Download": 14844,
  "Dozens": 40701,
  "Dr": 7601,
  "Draft": 36496,
  "Dragon": 37492,
  "Draw": 37298,
  "Dream": 36497,
  "Drew": 45728,
  "Dri": 41666,
  "Drive": 28787,
  "Drop": 38949,
  "Drug": 39137,
  "Ds": 33040,
  "Du": 38845,
  "Dub": 47498,
  "Due": 21693,
  "Duke": 45680,
  "Dun": 32133,
  "Dur": 43831,
  "During": 5893,
  "Dust": 48649,
  "Dutch": 44416,
  "E": 69,
  "EA": 7779,
  "EAN": 44643,
  "EAR": 23981,
  "EB": 43059,
  "EC": 3916,
  "ECD": 25362,
  "ECH": 45105,
  "ECK": 41511,
  "ECT": 15249,
  "ECTION": 49003,
  "ED": 3147,
  "EDIT": 34583,
  "EE": 12933,
  "EEE": 43357,
  "EEK": 33913,
  "EF": 34352,
  "EFF": 46751,
  "EG": 13778,
  "EL": 4335,
  "ELD": 31301,
  "ELECT": 28690,
  "ELL": 16755,
  "ELS": 47086,
  "ELY": 39423,
  "EM": 4733,
  "EMA": 23757,
  "EMBER": 33369,
  "EMENT": 11660,
  "EMS": 47699,
  "EN": 2887,
  "ENC": 40719,
  "ENCE": 25453,
  "END": 18948,
  "ENG": 41903,
  "ENN": 41207,
  "ENS": 25246,
  "ENSE": 49550,
  "ENT": 5599,
  "ENTER": 43193,
  "ENTS": 39469,
  "EO": 3978,
  "EP": 8136,
  "EPA": 31803,
  "EPH": 48707,
  "ER": 1755,
  "ERA": 42193,
  "ERC": 31749,
  "ERE": 11065,
  "ERG": 48535,
  "ERN": 25477,
  "ERO": 32047,
  "ERS": 6381,
  "ERSON": 39172,
  "ERT": 27501,
  "ERY": 25244,
  "ES": 2713,
  "ESA": 40073,
  "ESCO": 32178,
  "ESE": 45091,
  "ESPN": 27311,
  "ESS": 15645,
  "EST": 8853,
  "ET": 3980,
  "ETA": 22473,
  "ETE": 47791,
  "ETH": 29521,
  "ETS": 40016,
  "ETT": 31136,
  "ETTER": 41118,
  "ETTERS": 42980,
  "EU": 17014,
  "EV": 23312,
  "EW": 7423,
  "EX": 10265,
  "EXT": 25851,
  "EY": 29236,
  "Each": 11343,
  "Earlier": 10047,
  "Early": 14564,
  "Earth": 24122,
  "East": 23985,
  "Eastern": 43987,
  "Easy": 35867,
  "Econom": 23557,
  "Economic": 39989,
  "Ed": 7683,
  "Edd": 42626,
  "Eddie": 48312,
  "Edge": 41457,
  "Edit": 28847,
  "Editor": 17425,
  "Educ": 29144,
  "Education": 34072,
  "Edward": 38180,
  "Eff": 24313,
  "Egypt": 28965,
  "Eight": 26114,
  "Either": 27880,
  "El": 9834,
  "Ele": 30337,
  "Elect": 20329,
  "Electric": 42887,
  "Element": 26061,
  "Eleven": 40081,
  "Eli": 46250,
  "Elizabeth": 37880,
  "Ell": 29962,
  "Elsa": 36207,
  "Elsewhere": 36361,
  "Em": 11656,
  "Email": 16286,
  "Emb": 35566,
  "Emer": 32424,
  "Emergency": 47416,
  "Emily": 42159,
  "Emma": 49179,
  "Emp": 43941,
  "Employ": 30585,
  "En": 6724,
  "End": 17483,
  "Energy": 31553,
  "Eng": 12501,
  "Engine": 29543,
  "England": 32405,
  "English": 22202,
  "Enjoy": 30724,
  "Enlarge": 21276,
  "Enough": 45419,
  "Ent": 23358,
  "Enter": 21332,
  "Entry": 48701,
  "Environment": 29990,
  "Environmental": 38364,
  "Ep": 19741,
  "Episode": 29366,
  "Equ": 28938,
  "Er": 16964,
  "Eric": 20557,
  "Error": 27089,
  "Es": 19129,
  "Especially": 39346,
  "Ess": 29090,
  "Essentially": 42165,
  "Est": 23071,
  "Eth": 39365,
  "Euro": 12512,
  "Europe": 13680,
  "European": 18265,
  "Ev": 15367,
  "Evan": 45079,
  "Evans": 46355,
  "Even": 5247,
  "Event": 16014,
  "Events": 49278,
  "Eventually": 23739,
  "Ever": 21035,
  "Every": 5437,
  "Everybody": 21991,
  "Everyone": 14067,
  "Everything": 17377,
  "Evidence": 42432,
  "Evolution": 49604,
  "Ex": 4371,
  "Exactly": 42670,
  "Example": 26160,
  "Examples": 37889,
  "Exc": 36728,
  "Except": 29838,
  "Exception": 32946,
  "Exclusive": 49538,
  "Executive": 42424,
  "Exit": 30570,
  "Exp": 23211,
  "Expect": 44632,
  "Exper": 19954,
  "Experts": 29284,
  "Expl": 23073,
  "Express": 42244,
  "Ext": 16780,
  "Extra": 38292,
  "Extreme": 46972,
  "Eye": 33425,
  "F": 70,
  "FA": 6626,
  "FAA": 48571,
  "FB": 29172,
  "FBI": 31797,
  "FC": 4366,
  "FD": 36579,
  "FE": 26655,
  "FER": 44025,
  "FF": 9340,
  "FI": 15212,
  "FIG": 38398,
  "FILE": 34964,
  "FIN": 48959,
  "FK": 26318,
  "FL": 3425,
  "FM": 26354,
  "FO": 9886,
  "FOR": 21925,
  "FORE": 42435,
  "FORM": 35257,
  "FOX": 41363,
  "FP": 6689,
  "FR": 15981,
  "FS": 12445,
  "FT": 16082,
  "FU": 49809,
  "FW": 30729,
  "FX": 26537,
  "Fab": 43883,
  "Face": 35533,
  "Facebook": 8985,
  "Fact": 27839,
  "Factory": 45743,
  "Fair": 29872,
  "Fake": 46789,
  "Fal": 46238,
  "Fall": 31801,
  "False": 44220,
  "Family": 25624,
  "Fan": 36846,
  "Fans": 29391,
  "Fant": 38029,
  "Far": 19974,
  "Farm": 46120,
  "Fast": 23778,
  "Fat": 36888,
  "Father": 34095,
  "Fe": 12623,
  "Fear": 38001,
  "Featured": 37441,
  "Features": 39303,
  "Feb": 16556,
  "February": 21419,
  "Fed": 41635,
  "Federal": 21426,
  "Feed": 16843,
  "Feel": 37380,
  "Fel": 44429,
  "Female": 44555,
  "Femin": 47020,
  "Fer": 43761,
  "Ferg": 47082,
  "Fest": 48623,
  "Few": 25325,
  "Fi": 10439,
  "Field": 28581,
  "Fif": 38786,
  "Fifty": 41989,
  "Fig": 13250,
  "Fight": 34318,
  "Fighting": 39884,
  "Figure": 12310,
  "Fil": 17863,
  "File": 19106,
  "Filed": 37735,
  "Files": 33198,
  "Film": 30442,
  "Fin": 20478,
  "Final": 21076,
  "Finally": 9993,
  "Financial": 40229,
  "Find": 20068,
  "Finding": 31559,
  "Fine": 41310,
  "Fire": 16349,
  "First": 5482,
  "Firstly": 42562,
  "Fish": 45412,
  "Fisher": 47321,
  "Fit": 31748,
  "Five": 17133,
  "Fix": 28738,
  "Fixed": 18988,
  "Fl": 11316,
  "Fla": 36653,
  "Flag": 49761,
  "Flash": 33853,
  "Flickr": 33521,
  "Flight": 44880,
  "Flo": 48246,
  "Flor": 23867,
  "Florida": 25994,
  "Flow": 48916,
  "Fly": 41163,
  "Flynn": 48461,
  "Focus": 39176,
  "Follow": 6044,
  "Following": 11382,
  "Food": 26596,
  "Foot": 22193,
  "Football": 35457,
  "For": 1889,
  "Force": 20213,
  "Ford": 31276,
  "Fore": 17866,
  "Foreign": 28928,
  "Forget": 42209,
  "Form": 19413,
  "Format": 44634,
  "Former": 11015,
  "Fort": 22103,
  "Fortunately": 25728,
  "Forty": 44846,
  "Forward": 47859,
  "Found": 35594,
  "Founded": 42991,
  "Founder": 44318,
  "Four": 13248,
  "Fourth": 41745,
  "Fox": 15881,
  "Fr": 6971,
  "Fra": 35831,
  "Frame": 30178,
  "Fran": 42966,
  "Franc": 31836,
  "France": 23078,
  "Francis": 45974,
  "Frank": 14953,
  "Frankly": 46347,
  "Fre": 25726,
  "Fred": 27991,
  "Free": 13370,
  "Freedom": 32365,
  "French": 21260,
  "Frequ": 47733,
  "Fresh": 33736,
  "Fri": 38276,
  "Friday": 19969,
  "Fried": 49087,
  "Friend": 24733,
  "Friends": 33188,
  "From": 5228,
  "Front": 33436,
  "Fs": 34448,
  "Fuck": 35027,
  "Full": 16431,
  "Fun": 23168,
  "Function": 39619,
  "Fund": 22647,
  "FundMe": 42390,
  "Funding": 47633,
  "Further": 11233,
  "Furthermore": 21307,
  "Future": 30303,
  "G": 71,
  "GA": 9943,
  "GAIN": 40380,
  "GB": 4464,
  "GBT": 7012,
  "GC": 19267,
  "GDP": 37164,
  "GE": 8885,
  "GEL": 25675,
  "GEN": 45272,
  "GER": 35763,
  "GES": 36904,
  "GET": 22267,
  "GETTY": 40703,
  "GF": 41927,
  "GG": 30568,
  "GH": 22118,
  "GHz": 24846,
  "GI": 31494,
  "GL": 17673,
  "GM": 12603,
  "GMO": 49745,
  "GN": 28265,
  "GO": 8722,
  "GOP": 32389,
  "GP": 20495,
  "GPU": 48370,
  "GR": 17350,
  "GRE": 34839,
  "GS": 15445,
  "GT": 27309,
  "GU": 48152,
  "GW": 34296,
  "Ga": 39521,
  "Gab": 42773,
  "Gal": 29650,
  "Gall": 28393,
  "Gallery": 44108,
  "Game": 13601,
  "Gamer": 36669,
  "Games": 30920,
  "Gar": 25970,
  "Gard": 45220,
  "Gary": 29133,
  "Gas": 45080,
  "Gate": 24966,
  "Gay": 38645,
  "Ge": 10448,
  "Gen": 16872,
  "Gender": 47083,
  "Gene": 34413,
  "Gener": 10590,
  "General": 13444,
  "Generally": 36849,
  "Georg": 29886,
  "George": 18516,
  "Georgia": 35015,
  "Ger": 25917,
  "German": 13804,
  "Germany": 23020,
  "Get": 6657,
  "Getting": 19678,
  "Getty": 7535,
  "Gh": 40959,
  "Ghost": 35395,
  "Gi": 32463,
  "Gib": 45976,
  "Gil": 33680,
  "Girl": 30068,
  "Girls": 43493,
  "Give": 25143,
  "Given": 12254,
  "Giving": 43651,
  "Gl": 11329,
  "Glenn": 44806,
  "Global": 23027,
  "Go": 5065,
  "Goal": 46954,
  "God": 13711,
  "Going": 23001,
  "Gold": 15815,
  "Golden": 33613,
  "Good": 11277,
  "Google": 9733,
  "Gordon": 37873,
  "Got": 31984,
  "Gov": 22090,
  "Govern": 22417,
  "Government": 23192,
  "Governor": 39442,
  "Gr": 11242,
  "Grad": 37130,
  "Grade": 47406,
  "Graham": 34899,
  "Grand": 26523,
  "Grant": 39991,
  "Graph": 28394,
  "Gray": 46193,
  "Gre": 44273,
  "Great": 15376,
  "Gree": 40558,
  "Greece": 43909,
  "Greek": 39777,
  "Green": 14046,
  "Greg": 26791,
  "Gro": 44978,
  "Ground": 46014,
  "Group": 22406,
  "Growing": 35118,
  "Gs": 30867,
  "Gu": 10861,
  "Guard": 26235,
  "Guest": 46866,
  "Gun": 29095,
  "Guy": 47146,
  "H": 72,
  "HA": 11768,
  "HAEL": 46517,
  "HAM": 38008,
  "HB": 35606,
  "HBO": 48925,
  "HC": 17486,
  "HCR": 43424,
  "HD": 14288,
  "HE": 25010,
  "HF": 31419,
  "HH": 40497,
  "HI": 25757,
  "HL": 5148,
  "HM": 45511,
  "HO": 29241,
  "HOW": 40370,
  "HP": 10853,
  "HR": 21805,
  "HS": 7716,
  "HT": 9617,
  "HTML": 36601,
  "Ha": 27543,
  "Hack": 32006,
  "Had": 25305,
  "Hal": 37160,
  "Half": 31438,
  "Hall": 28345,
  "Ham": 22410,
  "Hamas": 45558,
  "Hamilton": 35630,
  "Han": 39494,
  "Hand": 21119,
  "Hann": 48722,
  "Happy": 24036,
  "Har": 12768,
  "Hard": 21073,
  "Hare": 49347,
  "Harper": 40645,
  "Harris": 33815,
  "Harry": 26334,
  "Hart": 40739,
  "Harvard": 49258,
  "Has": 21023,
  "Hash": 40982,
  "Hat": 42985,
  "Have": 12175,
  "Having": 12790,
  "Haw": 29707,
  "Hay": 28867,
  "He": 1384,
  "Head": 17197,
  "Health": 18369,
  "Heart": 33542,
  "Heat": 45477,
  "Heavy": 41076,
  "Height": 37576,
  "Hel": 17151,
  "Hell": 30721,
  "Hello": 16932,
  "Help": 28403,
  "Hen": 22948,
  "Hence": 45371,
  "Hend": 48080,
  "Henry": 27898,
  "Her": 8862,
  "Here": 4087,
  "Hero": 39581,
  "Hey": 10696,
  "Hi": 20725,
  "Hidden": 47138,
  "Hide": 43191,
  "Hig": 35471,
  "High": 13980,
  "Higher": 49902,
  "Hill": 13545,
  "Hillary": 16087,
  "Hind": 41279,
  "His": 5642,
  "Hispanic": 45800,
  "Hist": 12389,
  "Historical": 47155,
  "Historically": 41638,
  "History": 16549,
  "Hit": 26156,
  "Hmm": 49903,
  "Ho": 30332,
  "Hol": 26852,
  "Hold": 25995,
  "Holl": 45292,
  "Hollywood": 40371,
  "Holmes": 48930,
  "Holy": 35003,
  "Hom": 31693,
  "Home": 18188,
  "Hon": 27544,
  "Honest": 31959,
  "Honestly": 34124,
  "Hong": 45989,
  "Hop": 19757,
  "Hope": 34078,
  "Hopefully": 25309,
  "Hor": 32607,
  "Host": 30092,
  "Hot": 26556,
  "Hour": 47880,
  "Hours": 40970,
  "House": 15055,
  "Houston": 30858,
  "How": 2390,
  "Howard": 35329,
  "However": 4186,
  "Hu": 41049,
  "Hub": 15528,
  "Hug": 43884,
  "Hum": 33325,
  "Human": 20749,
  "Humans": 47656,
  "Hun": 28126,
  "Hundreds": 28053,
  "Hung": 32796,
  "Hunt": 48662,
  "Hunter": 45626,
  "Hur": 38348,
  "Hy": 21000,
  "Hz": 9805,
  "I": 73,
  "IA": 3950,
  "IAL": 21186,
  "IAN": 27286,
  "IB": 37934,
  "IBM": 49310,
  "IC": 3324,
  "ICA": 23818,
  "ICAGO": 45072,
  "ICAL": 39392,
  "ICAN": 46549,
  "ICE": 11744,
  "ICEF": 44229,
  "ICH": 26984,
  "ICHAEL": 47028,
  "ICK": 15799,
  "ICO": 19517,
  "ICS": 23180,
  "ICT": 31757,
  "ID": 3922,
  "IDA": 42571,
  "IDE": 18699,
  "IDENT": 32136,
  "IDS": 14135,
  "IE": 11313,
  "IED": 43486,
  "IEGEL": 36684,
  "IENCE": 49422,
  "IES": 19109,
  "IF": 8446,
  "IFF": 31367,
  "IFT": 44209,
  "IG": 5740,
  "IGH": 25967,
  "IGHT": 15243,
  "IGHTS": 49172,
  "IGN": 23753,
  "II": 6155,
  "III": 15415,
  "IJ": 39899,
  "IK": 37370,
  "IL": 4431,
  "ILA": 48774,
  "ILD": 35384,
  "ILE": 22671,
  "ILL": 11580,
  "ILY": 40232,
  "IM": 5417,
  "IME": 15522,
  "IMP": 47927,
  "IN": 2113,
  "INA": 33144,
  "INAL": 29198,
  "INC": 39129,
  "IND": 23101,
  "INE": 15016,
  "INFO": 38599,
  "ING": 4174,
  "INGS": 28850,
  "INGTON": 14343,
  "INK": 23301,
  "INN": 30427,
  "INS": 25963,
  "INT": 20299,
  "INTER": 47300,
  "IO": 12955,
  "ION": 5556,
  "IONS": 34871,
  "IOUS": 40540,
  "IP": 5485,
  "IPAC": 36172,
  "IPP": 46321,
  "IQ": 40801,
  "IR": 6846,
  "IRE": 49597,
  "IRO": 35298,
  "IS": 2256,
  "ISA": 20806,
  "ISC": 38037,
  "ISCO": 45661,
  "ISE": 29609,
  "ISH": 25215,
  "ISIL": 44256,
  "ISIS": 22840,
  "ISM": 35957,
  "ISON": 47801,
  "ISPR": 42274,
  "ISS": 21626,
  "IST": 12995,
  "IT": 3248,
  "ITCH": 42810,
  "ITE": 19657,
  "ITED": 35445,
  "ITH": 14618,
  "ITION": 30266,
  "ITS": 38272,
  "ITT": 39921,
  "ITY": 14540,
  "IU": 40006,
  "IV": 5386,
  "IVE": 13270,
  "IVERS": 47604,
  "IX": 20556,
  "IZ": 24891,
  "Ian": 33181,
  "Ice": 30437,
  "Id": 12712,
  "Ide": 35368,
  "Ident": 35151,
  "If": 1570,
  "Ign": 41115,
  "Il": 29260,
  "Ill": 21086,
  "Illinois": 49489,
  "Illustration": 47133,
  "Im": 3465,
  "Image": 4572,
  "Images": 26742,
  "Imagine": 20177,
  "Imm": 34259,
  "Immediately": 44345,
  "Immigration": 45652,
  "Imp": 29497,
  "Import": 26838,
  "Important": 42595,
  "Impro": 26749,
  "Improved": 40876,
  "In": 794,
  "Inc": 19446,
  "Incre": 24902,
  "Increased": 47496,
  "Increasing": 44422,
  "Ind": 5794,
  "Indeed": 14335,
  "Independent": 38675,
  "Index": 30996,
  "India": 17169,
  "Indian": 25973,
  "Indiana": 43446,
  "Individual": 37151,
  "Indones": 48435,
  "Indust": 32834,
  "Industry": 45270,
  "Inf": 18182,
  "Info": 31526,
  "Information": 28384,
  "Ing": 35643,
  "Ingredients": 42528,
  "Initial": 32070,
  "Initially": 30923,
  "Input": 37285,
  "Ins": 19370,
  "Inside": 22131,
  "Inspired": 48568,
  "Inst": 7613,
  "Instagram": 47703,
  "Install": 31381,
  "Instead": 10382,
  "Int": 9968,
  "Inte": 13369,
  "Integr": 45543,
  "Intel": 35365,
  "Inter": 13198,
  "Interest": 18316,
  "Interesting": 47398,
  "Interestingly": 26024,
  "Intern": 15821,
  "International": 22718,
  "Internet": 28722,
  "Interview": 32973,
  "Introduction": 25251,
  "Inv": 34669,
  "Invest": 16241,
  "Investigators": 25488,
  "Iowa": 35910,
  "Ir": 22669,
  "Iran": 17649,
  "Iranian": 37924,
  "Iraq": 25148,
  "Iraqi": 45261,
  "Ireland": 37773,
  "Irish": 34379,
  "Iron": 22722,
  "Ironically": 33077,
  "Is": 3780,
  "Isa": 42541,
  "Islam": 13476,
  "Islamic": 20968,
  "Isn": 38709,
  "Israel": 10429,
  "Israeli": 21706,
  "Iss": 30830,
  "It": 937,
  "Ita": 34960,
  "Italian": 38134,
  "Italy": 37319,
  "Item": 24317,
  "Its": 18436,
  "J": 74,
  "JA": 42567,
  "JC": 33437,
  "JD": 38194,
  "JECT": 40728,
  "JO": 47221,
  "JP": 11060,
  "JS": 20958,
  "JU": 47760,
  "JUST": 21905,
  "JW": 34789,
  "Ja": 35567,
  "Jac": 26119,
  "Jack": 13937,
  "Jackson": 25947,
  "Jacob": 42268,
  "Jake": 38631,
  "Jam": 28020,
  "James": 13591,
  "Jamie": 39869,
  "Jan": 13563,
  "Jane": 36853,
  "January": 21209,
  "Japan": 15543,
  "Japanese": 24194,
  "Jar": 45125,
  "Jared": 49155,
  "Jason": 22673,
  "Java": 34874,
  "Jay": 28233,
  "Je": 42213,
  "Jean": 33688,
  "Jeff": 16861,
  "Jeffrey": 46364,
  "Jen": 42678,
  "Jenn": 32379,
  "Jennifer": 38147,
  "Jer": 33614,
  "Jeremy": 31226,
  "Jerry": 39125,
  "Jes": 22120,
  "Jess": 31487,
  "Jesse": 44382,
  "Jessica": 39600,
  "Jesus": 28663,
  "Jet": 36442,
  "Jew": 21092,
  "Jewish": 23763,
  "Jews": 39436,
  "Jim": 16591,
  "Jimmy": 37302,
  "Jo": 11550,
  "Job": 43085,
  "Joe": 17104,
  "Joel": 45398,
  "John": 7041,
  "Johnny": 40830,
  "Johnson": 20615,
  "Join": 19596,
  "Joined": 41302,
  "Jon": 16106,
  "Jonathan": 25210,
  "Jones": 20913,
  "Jordan": 28903,
  "Jose": 22126,
  "Joseph": 28841,
  "Josh": 21439,
  "Joshua": 43391,
  "Journal": 22276,
  "Joy": 43536,
  "Ju": 39932,
  "Jud": 26265,
  "Judge": 23635,
  "Jul": 19697,
  "Julian": 44981,
  "July": 16514,
  "Jun": 37993,
  "June": 16097,
  "Jur": 49911,
  "Just": 5309,
  "Justice": 24415,
  "Justin": 27711,
  "K": 75,
  "KA": 28040,
  "KB": 34755,
  "KC": 44477,
  "KE": 11050,
  "KEY": 33726,
  "KING": 43427,
  "KK": 16605,
  "KO": 29891,
  "KR": 41389,
  "KS": 30852,
  "KY": 34327,
  "Ka": 40927,
  "Kal": 41043,
  "Kansas": 40295,
  "Kar": 34718,
  "Karen": 49614,
  "Karl": 44736,
  "Kas": 48029,
  "Kat": 25249,
  "Kate": 40465,
  "Kay": 48851,
  "Ke": 9167,
  "Keefe": 34921,
  "Keep": 16077,
  "Keeping": 39069,
  "Keith": 39076,
  "Kel": 48561,
  "Kelly": 28660,
  "Ken": 20793,
  "Kennedy": 45908,
  "Kent": 36874,
  "Kentucky": 49815,
  "Kerry": 46090,
  "Kevin": 20607,
  "Key": 13605,
  "Kh": 34872,
  "Khan": 47821,
  "Kick": 42616,
  "Kids": 38546,
  "Kill": 35121,
  "Kim": 20627,
  "King": 16752,
  "Kings": 48168,
  "Kirk": 49836,
  "Kit": 21455,
  "Kn": 33173,
  "Knight": 49479,
  "Know": 23344,
  "Knowing": 39751,
  "Known": 38478,
  "Korean": 46936,
  "Krist": 37970,
  "Kurd": 42642,
  "Ky": 28720,
  "Kyle": 36589,
  "L": 76,
  "LA": 7795,
  "LAN": 34589,
  "LAND": 30224,
  "LAY": 23460,
  "LB": 39556,
  "LC": 7875,
  "LD": 15156,
  "LE": 5881,
  "LEASE": 34650,
  "LED": 44659,
  "LES": 41084,
  "LEY": 36331,
  "LG": 44259,
  "LGBT": 28094,
  "LI": 31586,
  "LIN": 40755,
  "LINE": 30179,
  "LL": 26826,
  "LM": 41506,
  "LO": 26199,
  "LONDON": 41297,
  "LOS": 40129,
  "LP": 34808,
  "LR": 47647,
  "LS": 34029,
  "LT": 38358,
  "LU": 46772,
  "LV": 36119,
  "LY": 14186,
  "La": 12947,
  "Lab": 17569,
  "Labor": 34380,
  "Labour": 25093,
  "Lady": 43182,
  "Lago": 38230,
  "Lake": 41854,
  "Land": 26320,
  "Language": 44026,
  "Large": 29708,
  "Larry": 36375,
  "Las": 41421,
  "Last": 5056,
  "Lastly": 32815,
  "Lat": 28590,
  "Late": 24366,
  "Later": 15673,
  "Latest": 46788,
  "Latin": 44753,
  "Laughs": 27516,
  "Laura": 38773,
  "Law": 15695,
  "Lawmakers": 44892,
  "Lawrence": 47969,
  "Lawyers": 47016,
  "Lay": 30860,
  "Le": 4352,
  "Lead": 19755,
  "Leaders": 44536,
  "Leading": 44767,
  "League": 20648,
  "Leaks": 12041,
  "Lear": 16488,
  "Learn": 25527,
  "Learning": 38584,
  "Leary": 39374,
  "Leave": 36010,
  "Leaving": 47957,
  "Led": 38084,
  "Lee": 21670,
  "Left": 23040,
  "Leg": 18022,
  "Legacy": 42954,
  "Legal": 33604,
  "Legend": 34979,
  "Legendary": 46322,
  "Legisl": 49695,
  "Len": 32276,
  "Length": 40428,
  "Lenin": 43853,
  "Lens": 40532,
  "Leod": 37814,
  "Leon": 34639,
  "Les": 32088,
  "Less": 21310,
  "Let": 5328,
  "Letter": 49857,
  "Lev": 30223,
  "Level": 21762,
  "Lew": 28364,
  "Lewis": 32961,
  "Lex": 48870,
  "Li": 37353,
  "Lib": 31646,
  "Liber": 27736,
  "Liberal": 35953,
  "Library": 42496,
  "Lic": 44690,
  "Lie": 43942,
  "Life": 14749,
  "Light": 22983,
  "Like": 6673,
  "Likewise": 37462,
  "Lim": 24674,
  "Limited": 35444,
  "Lin": 21819,
  "Lind": 38751,
  "Line": 19263,
  "Link": 13309,
  "LinkedIn": 29867,
  "Links": 43832,
  "Linux": 28741,
  "Liqu": 44339,
  "Lisa": 41085,
  "List": 11499,
  "Listen": 21103,
  "Listener": 49077,
  "Liter": 43352,
  "Little": 21296,
  "Live": 20272,
  "Liverpool": 32714,
  "Living": 34125,
  "Lo": 30020,
  "Load": 24505,
  "Loading": 43980,
  "Loc": 47572,
  "Local": 18861,
  "Located": 48576,
  "Location": 23084,
  "Lock": 35197,
  "Log": 20916,
  "London": 21782,
  "Long": 15816,
  "Look": 8167,
  "Looking": 14231,
  "Looks": 41395,
  "Lord": 26237,
  "Los": 25857,
  "Lost": 34106,
  "Lot": 49300,
  "Lots": 39000,
  "Lou": 21124,
  "Louis": 27253,
  "Love": 19001,
  "Low": 24869,
  "Lower": 42125,
  "Lt": 49606,
  "Lu": 25722,
  "Luc": 24003,
  "Lucas": 45741,
  "Luck": 29468,
  "Luckily": 33342,
  "Luke": 32647,
  "Ly": 34596,
  "Lyn": 33811,
  "M": 77,
  "MA": 6207,
  "MAN": 11259,
  "MAR": 42935,
  "MAS": 44065,
  "MAX": 49364,
  "MB": 11548,
  "MC": 16561,
  "MCA": 47863,
  "MD": 17750,
  "ME": 17791,
  "MED": 41602,
  "MENT": 17890,
  "MER": 49376,
  "MG": 31794,
  "MH": 47420,
  "MHz": 32035,
  "MI": 14697,
  "MIN": 38689,
  "MIT": 35888,
  "MJ": 44110,
  "MK": 42722,
  "ML": 7367,
  "MLS": 43397,
  "MM": 15786,
  "MMA": 48145,
  "MO": 24391,
  "MON": 32447,
  "MORE": 19356,
  "MOST": 48895,
  "MP": 7588,
  "MR": 24057,
  "MRI": 35080,
  "MS": 7657,
  "MT": 28389,
  "MU": 45254,
  "MW": 34032,
  "MY": 35417,
  "Ma": 22442,
  "Mac": 16190,
  "Machine": 49410,
  "Mad": 18006,
  "Made": 30553,
  "Madison": 39219,
  "Mag": 27060,
  "Magic": 32915,
  "Mah": 39350,
  "Mail": 31527,
  "Main": 18346,
  "Maine": 48577,
  "Major": 23299,
  "Make": 13653,
  "Making": 21135,
  "Mal": 13928,
  "Malays": 49196,
  "Male": 47248,
  "Malley": 26762,
  "Man": 6594,
  "Manager": 28034,
  "Manchester": 31445,
  "Mania": 35691,
  "Many": 5996,
  "Map": 19380,
  "Mar": 7993,
  "Marc": 19287,
  "March": 15761,
  "Marco": 32974,
  "Marcus": 29551,
  "Marg": 35764,
  "Maria": 42339,
  "Marie": 38327,
  "Marijuana": 46681,
  "Marine": 49735,
  "Mario": 44777,
  "Mark": 10480,
  "Market": 32026,
  "Mars": 38033,
  "Marsh": 38806,
  "Marshall": 48174,
  "Mart": 11787,
  "Martin": 21796,
  "Marvel": 34593,
  "Marx": 39867,
  "Mary": 22573,
  "Maryland": 49337,
  "Mas": 39809,
  "Mass": 19329,
  "Master": 26321,
  "Mat": 15388,
  "Match": 37333,
  "Math": 43272,
  "Matt": 16993,
  "Matthew": 23598,
  "Max": 17361,
  "May": 6867,
  "Maybe": 11691,
  "Mayor": 28245,
  "Mbps": 40907,
  "Mc": 8665,
  "McC": 20424,
  "McCain": 35664,
  "McDonald": 47784,
  "McG": 41652,
  "McK": 44307,
  "Me": 7998,
  "Mean": 7648,
  "Meanwhile": 7847,
  "Mech": 36410,
  "Med": 12718,
  "Media": 12214,
  "Medic": 41483,
  "Medical": 36826,
  "Meet": 26648,
  "Mel": 20574,
  "Mem": 15238,
  "Member": 46030,
  "Members": 22236,
  "Memory": 43106,
  "Men": 12705,
  "Mer": 14946,
  "Merc": 49377,
  "Merit": 29777,
  "Mess": 40377,
  "Message": 26377,
  "Met": 14690,
  "Method": 26902,
  "Metro": 36637,
  "Mex": 20103,
  "Mexican": 43216,
  "Mexico": 26236,
  "Mi": 49423,
  "Miami": 33397,
  "Mic": 23286,
  "Mich": 10108,
  "Michael": 11904,
  "Michel": 30316,
  "Michelle": 40646,
  "Michigan": 33635,
  "Micro": 42083,
  "Microsoft": 16706,
  "Mid": 25437,
  "Middle": 34508,
  "Mike": 14387,
  "Mil": 24266,
  "Military": 33329,
  "Mill": 31079,
  "Miller": 30171,
  "Millions": 46606,
  "Min": 12510,
  "Mind": 28895,
  "Mine": 40121,
  "Minister": 47032,
  "Minnesota": 36522,
  "Mir": 30521,
  "Mis": 38074,
  "Miss": 18696,
  "Mission": 41298,
  "Mit": 37227,
  "Mitchell": 47623,
  "Mitt": 48608,
  "Mix": 43398,
  "Mo": 17198,
  "Mobil": 37259,
  "Mobile": 15190,
  "Mod": 10566,
  "Mode": 49156,
  "Model": 26937,
  "Modern": 26494,
  "Module": 41110,
  "Moh": 30429,
  "Mom": 28926,
  "Mon": 12238,
  "Mond": 22767,
  "Monday": 24138,
  "Money": 24879,
  "Monitor": 43592,
  "Mont": 23277,
  "Montreal": 49085,
  "Moon": 35918,
  "Moore": 29613,
  "Mor": 18426,
  "More": 4765,
  "Moreover": 20477,
  "Morgan": 41211,
  "Morm": 45977,
  "Morning": 36260,
  "Mort": 47035,
  "Mos": 28672,
  "Moscow": 40483,
  "Most": 6140,
  "Mot": 47919,
  "Mother": 30563,
  "Motion": 49071,
  "Motor": 43125,
  "Mount": 39266,
  "Move": 31192,
  "Movie": 48663,
  "Moving": 28757,
  "Mr": 4425,
  "Mrs": 23862,
  "Ms": 9863,
  "Mu": 34522,
  "Much": 16355,
  "Mult": 20320,
  "Multi": 43328,
  "Multiple": 31773,
  "Mur": 21579,
  "Murphy": 46064,
  "Murray": 39565,
  "Mus": 9908,
  "Music": 23529,
  "Muslim": 13898,
  "Muslims": 29655,
  "Must": 37052,
  "My": 3739,
  "Myth": 43394,
  "N": 78,
  "NA": 4637,
  "NAME": 44680,
  "NARR": 47658,
  "NAS": 16442,
  "NASA": 22021,
  "NATO": 36880,
  "NB": 43766,
  "NBA": 27430,
  "NBC": 10083,
  "NC": 7156,
  "ND": 11876,
  "NE": 17524,
  "NER": 45350,
  "NET": 13850,
  "NEW": 13015,
  "NEWS": 48061,
  "NEWSL": 42325,
  "NEWSLETTERS": 44562,
  "NEY": 43248,
  "NF": 24166,
  "NFL": 28533,
  "NG": 13283,
  "NH": 48342,
  "NHL": 43338,
  "NI": 24643,
  "NING": 34444,
  "NJ": 46664,
  "NL": 36829,
  "NN": 4760,
  "NO": 18409,
  "NOR": 43574,
  "NOT": 20362,
  "NOTE": 30170,
  "NOW": 47105,
  "NP": 22779,
  "NPR": 28862,
  "NR": 24987,
  "NS": 10015,
  "NSA": 38919,
  "NT": 12625,
  "NULL": 45003,
  "NY": 14070,
  "NYC": 46799,
  "NYSE": 42095,
  "NZ": 46958,
  "Na": 30280,
  "Name": 11564,
  "Nap": 42073,
  "Nar": 38587,
  "Nash": 47761,
  "Nat": 47961,
  "Nathan": 45473,
  "Nation": 43864,
  "National": 15437,
  "Native": 43692,
  "Natural": 35391,
  "Naturally": 36564,
  "Nature": 46116,
  "Nav": 40674,
  "Naz": 30600,
  "Nazi": 25299,
  "Nazis": 34849,
  "Ne": 5554,
  "Neal": 33648,
  "Near": 40284,
  "Nearly": 21870,
  "Ned": 45788,
  "Need": 25632,
  "Needless": 44547,
  "Neg": 37426,
  "Neigh": 37641,
  "Neil": 24384,
  "Neill": 22330,
  "Neither": 22414,
  "Nelson": 47229,
  "Net": 11224,
  "Netanyahu": 45992,
  "Netflix": 33869,
  "Network": 38172,
  "Nev": 35283,
  "Never": 12859,
  "Nevertheless": 22927,
  "New": 3818,
  "News": 8832,
  "Newsletter": 25690,
  "Next": 10571,
  "Ni": 39340,
  "Nic": 28179,
  "Nice": 36707,
  "Nich": 40095,
  "Nick": 21435,
  "Night": 28485,
  "Nik": 39258,
  "Nin": 40971,
  "Nine": 32453,
  "Nintendo": 34900,
  "No": 3379,
  "Nob": 17971,
  "Nobody": 19842,
  "Node": 32315,
  "Non": 17562,
  "None": 16108,
  "Nonetheless": 31986,
  "Nope": 47044,
  "Nor": 19817,
  "Normal": 40579,
  "Normally": 38495,
  "North": 12779,
  "Northern": 38811,
  "Not": 4059,
  "Notable": 39664,
  "Note": 8821,
  "Notes": 17553,
  "Nothing": 17738,
  "Notice": 30255,
  "Nov": 23908,
  "November": 20540,
  "Now": 3527,
  "Num": 30522,
  "Number": 22928,
  "Numerous": 48894,
  "Nusra": 30045,
  "O": 79,
  "OB": 27664,
  "OC": 6865,
  "OCK": 18881,
  "OCR": 48954,
  "OD": 6420,
  "ODE": 31971,
  "ODUC": 41155,
  "ODY": 47818,
  "OE": 34887,
  "OF": 36479,
  "OFF": 43129,
  "OG": 14605,
  "OH": 17852,
  "OHN": 35761,
  "OIL": 49817,
  "OK": 9768,
  "OL": 4821,
  "OLD": 23772,
  "OLL": 20937,
  "OM": 3938,
  "OMA": 43993,
  "OME": 16171,
  "ON": 2202,
  "OND": 22380,
  "ONDON": 37382,
  "ONE": 17729,
  "ONES": 43897,
  "ONG": 23879,
  "ONS": 38392,
  "ONTO": 41213,
  "ONY": 47361,
  "OO": 25255,
  "OOD": 35967,
  "OP": 3286,
  "OPA": 31877,
  "OPE": 39507,
  "OPER": 49051,
  "OPLE": 34673,
  "OPS": 34971,
  "OR": 2912,
  "ORD": 17938,
  "ORE": 6670,
  "ORK": 16340,
  "ORN": 25324,
  "ORPG": 43667,
  "ORS": 35679,
  "ORT": 14752,
  "ORTS": 30817,
  "ORY": 21078,
  "OS": 3151,
  "OSE": 16817,
  "OSS": 23351,
  "OST": 13957,
  "OT": 3682,
  "OTA": 33225,
  "OTE": 45130,
  "OTH": 25679,
  "OTHER": 40445,
  "OTS": 44869,
  "OTT": 36720,
  "OTUS": 31411,
  "OU": 4221,
  "OUGH": 37922,
  "OULD": 34335,
  "OUND": 23296,
  "OUP": 49948,
  "OUR": 17776,
  "OURCE": 40254,
  "OUT": 20330,
  "OVA": 47134,
  "OW": 5627,
  "OWN": 20910,
  "Oak": 36992,
  "Oakland": 45727,
  "Ob": 6589,
  "Obama": 11196,
  "Obamacare": 41698,
  "Object": 19019,
  "Obs": 32402,
  "Obviously": 16193,
  "Occ": 28734,
  "Occup": 37667,
  "Occupy": 49401,
  "Oct": 13750,
  "October": 19036,
  "Odd": 41791,
  "Of": 5335,
  "Off": 7578,
  "Office": 28140,
  "Officer": 43020,
  "Officers": 25875,
  "Official": 31205,
  "Officials": 18898,
  "Offline": 41993,
  "Often": 32467,
  "Oh": 6065,
  "Ohio": 23834,
  "Oil": 36935,
  "Ok": 19763,
  "Okay": 16698,
  "Oklahoma": 45051,
  "Ol": 38902,
  "Old": 21912,
  "Oliver": 46891,
  "Olymp": 46895,
  "On": 2071,
  "Once": 7191,
  "One": 2845,
  "Online": 22167,
  "Only": 11667,
  "Ont": 38993,
  "Ontario": 44491,
  "Op": 19438,
  "Open": 16256,
  "Opening": 42468,
  "Opens": 40733,
  "Oper": 20029,
  "Operation": 29372,
  "Opin": 42342,
  "Opinion": 49771,
  "Opp": 21973,
  "Opponents": 44230,
  "Opposition": 39295,
  "Ops": 42061,
  "Opt": 36261,
  "Option": 33194,
  "Options": 48514,
  "Or": 7044,
  "Orange": 40675,
  "Ord": 46267,
  "Order": 35488,
  "Oregon": 34739,
  "Organ": 24475,
  "Orig": 13461,
  "Original": 23559,
  "Originally": 23161,
  "Orlando": 41775,
  "Orthodox": 40640,
  "Os": 14003,
  "Other": 5966,
  "Others": 20334,
  "Otherwise": 44390,
  "Ott": 35028,
  "Ottawa": 46130,
  "Our": 4832,
  "Out": 10120,
  "Output": 45632,
  "Outside": 26367,
  "Over": 5957,
  "Overall": 15782,
  "Overview": 40526,
  "Own": 29812,
  "Ox": 39425,
  "P": 80,
  "PA": 4498,
  "PAA": 36281,
  "PAC": 41915,
  "PAR": 44111,
  "PAUL": 49997,
  "PC": 8676,
  "PD": 5768,
  "PDATE": 12288,
  "PDATED": 46398,
  "PDF": 21677,
  "PE": 22369,
  "PER": 23660,
  "PF": 38874,
  "PG": 8359,
  "PH": 15660,
  "PHOT": 30016,
  "PHOTOS": 36125,
  "PI": 11816,
  "PIO": 48097,
  "PL": 10544,
  "PM": 8338,
  "PN": 14339,
  "PO": 22213,
  "PORT": 26565,
  "POST": 38258,
  "PP": 9120,
  "PR": 5938,
  "PRE": 31185,
  "PRO": 31605,
  "PS": 4539,
  "PT": 20108,
  "PU": 6427,
  "PUT": 47322,
  "Pa": 30031,
  "Pac": 16886,
  "Pacific": 19728,
  "Pack": 26115,
  "Pad": 27378,
  "Page": 18224,
  "Pakistan": 24297,
  "Pal": 11073,
  "Palest": 23356,
  "Palestine": 49317,
  "Palestinian": 25647,
  "Pan": 23243,
  "Panel": 49419,
  "Paper": 49197,
  "Par": 13675,
  "Param": 45544,
  "Parent": 37004,
  "Parents": 36208,
  "Paris": 37027,
  "Park": 25555,
  "Parker": 49588,
  "Part": 8732,
  "Particip": 34797,
  "Participants": 46440,
  "Party": 34470,
  "Pass": 17808,
  "Past": 34665,
  "Pat": 12190,
  "Path": 25121,
  "Patrick": 27001,
  "Paul": 10279,
  "Pay": 21057,
  "Pe": 5744,
  "Peace": 41319,
  "Pear": 45571,
  "Ped": 44019,
  "Pel": 48515,
  "Pen": 29786,
  "Pence": 46121,
  "Penn": 34421,
  "People": 6686,
  "Per": 6775,
  "Perfect": 43954,
  "Performance": 35943,
  "Perhaps": 11345,
  "Permalink": 31376,
  "Perry": 39656,
  "Pers": 40246,
  "Person": 16065,
  "Personal": 27821,
  "Personally": 34098,
  "Pet": 30722,
  "Pete": 48615,
  "Peter": 17521,
  "Ph": 2625,
  "Phase": 49361,
  "Phil": 17397,
  "Philadelphia": 40586,
  "Philip": 43678,
  "Philipp": 42828,
  "Phill": 34920,
  "Phillips": 42955,
  "Phoenix": 45374,
  "Phone": 25956,
  "Phot": 14734,
  "Photo": 4973,
  "Photos": 19987,
  "Physical": 47015,
  "Pi": 43330,
  "Pic": 39014,
  "Pick": 33460,
  "Pict": 20536,
  "Picture": 25767,
  "Pierre": 27910,
  "Pin": 35721,
  "Pink": 47813,
  "Pinterest": 27729,
  "Pit": 34220,
  "Pittsburgh": 49467,
  "Pl": 5089,
  "Place": 34990,
  "Plan": 20748,
  "Planet": 43359,
  "Play": 16056,
  "Player": 23492,
  "Players": 26491,
  "Playing": 31856,
  "Please": 8744,
  "Plot": 41720,
  "Plus": 18809,
  "Po": 21114,
  "Pocket": 39251,
  "Pod": 36806,
  "Point": 14978,
  "Pol": 6459,
  "Police": 7185,
  "Polit": 30168,
  "Political": 26435,
  "Politics": 33891,
  "Poll": 34313,
  "Poly": 48006,
  "Pont": 42820,
  "Pool": 42536,
  "Poor": 40856,
  "Pop": 24651,
  "Pope": 35784,
  "Popular": 42898,
  "Por": 49818,
  "Port": 16277,
  "Portland": 37388,
  "Pos": 35174,
  "Position": 37463,
  "Post": 8033,
  "Posted": 14877,
  "Posts": 39228,
  "Pot": 27814,
  "Potential": 47481,
  "Power": 17311,
  "Pr": 7941,
  "Pract": 48889,
  "Pre": 10048,
  "Pred": 36565,
  "Prem": 27373,
  "Premier": 46137,
  "Premium": 49757,
  "Prep": 39296,
  "Pres": 26411,
  "Present": 33663,
  "President": 8028,
  "Press": 12935,
  "Pretty": 34126,
  "Previous": 23621,
  "Previously": 29682,
  "Pri": 18911,
  "Price": 22289,
  "Prim": 33452,
  "Prime": 21383,
  "Prin": 49840,
  "Princ": 42345,
  "Prince": 30778,
  "Print": 20216,
  "Prior": 21389,
  "Prison": 44238,
  "Priv": 23851,
  "Privacy": 48923,
  "Private": 33659,
  "Pro": 4211,
  "Probably": 31412,
  "Process": 34768,
  "Produ": 44404,
  "Product": 30382,
  "Production": 32530,
  "Prof": 14680,
  "Professional": 46724,
  "Professor": 21993,
  "Program": 32129,
  "Progress": 36310,
  "Project": 19854,
  "Prom": 27734,
  "Prop": 24606,
  "Proper": 30399,
  "Property": 40598,
  "Pros": 31699,
  "Prosecutors": 29296,
  "Prot": 24211,
  "Prote": 47084,
  "Protect": 42700,
  "Protesters": 37547,
  "Prov": 23738,
  "Ps": 11854,
  "Psych": 34699,
  "Publ": 38321,
  "Public": 15386,
  "Publica": 43891,
  "Published": 20624,
  "Pur": 38672,
  "Put": 15253,
  "Putin": 28589,
  "Putting": 38291,
  "Py": 34793,
  "Python": 36132,
  "Q": 81,
  "QB": 39834,
  "QL": 10922,
  "QU": 20301,
  "QUEST": 48983,
  "Qaeda": 14319,
  "Qaida": 29052,
  "Qu": 6501,
  "Qual": 33615,
  "Quant": 39953,
  "Quarter": 48655,
  "Que": 18922,
  "Queen": 30056,
  "Query": 22952,
  "Quest": 17501,
  "Question": 26181,
  "Questions": 37890,
  "Quick": 24985,
  "Quite": 37951,
  "Quote": 34089,
  "R": 82,
  "RA": 5113,
  "RAL": 40230,
  "RAM": 31456,
  "RAW": 45251,
  "RAY": 47701,
  "RB": 24092,
  "RC": 8823,
  "RE": 2213,
  "READ": 13758,
  "REAK": 31934,
  "REAKING": 45698,
  "REAM": 36235,
  "REC": 38983,
  "RECT": 46986,
  "RED": 18570,
  "REE": 15659,
  "REL": 13944,
  "RELATED": 15532,
  "REN": 38592,
  "RES": 14895,
  "RESS": 47286,
  "RET": 35481,
  "REW": 48563,
  "RF": 36256,
  "RI": 8699,
  "RL": 9251,
  "RM": 34840,
  "RN": 36689,
  "RNA": 28424,
  "RO": 12903,
  "ROM": 44319,
  "ROR": 41006,
  "RP": 19288,
  "RR": 41499,
  "RS": 8232,
  "RT": 13181,
  "RY": 26593,
  "Ra": 24200,
  "Race": 41528,
  "Rachel": 40802,
  "Rad": 18889,
  "Radio": 28448,
  "Rae": 48427,
  "Rah": 41961,
  "Rail": 48980,
  "Rain": 36749,
  "Ram": 30765,
  "Rand": 38167,
  "Random": 41888,
  "Range": 41860,
  "Rank": 35864,
  "Rare": 35132,
  "Rat": 42877,
  "Rated": 34850,
  "Rather": 21692,
  "Rating": 47213,
  "Raven": 48807,
  "Raw": 41127,
  "Ray": 21066,
  "Re": 3139,
  "Read": 5173,
  "Reader": 43485,
  "Readers": 49890,
  "Reading": 33506,
  "Ready": 33064,
  "Real": 16613,
  "Really": 25687,
  "Reason": 44908,
  "Reb": 31388,
  "Rec": 7861,
  "Recent": 24793,
  "Recently": 19760,
  "Reception": 45517,
  "Recommend": 44226,
  "Recommended": 46371,
  "Record": 27957,
  "Red": 11218,
  "Redd": 19644,
  "Reddit": 20573,
  "Ref": 8350,
  "Reference": 37003,
  "References": 13360,
  "Reg": 10352,
  "Regarding": 33170,
  "Regardless": 22693,
  "Regist": 48311,
  "Regular": 46149,
  "Reid": 49603,
  "Reilly": 18292,
  "Rel": 6938,
  "Related": 8589,
  "Relations": 46344,
  "Release": 29015,
  "Released": 47783,
  "Religious": 47333,
  "Rem": 10118,
  "Remember": 15712,
  "Remove": 45625,
  "Ren": 30288,
  "Rep": 5921,
  "Repe": 41896,
  "Report": 26554,
  "Reporting": 37642,
  "Reports": 30708,
  "Represent": 32810,
  "Republic": 11965,
  "Republican": 19364,
  "Republicans": 19529,
  "Requ": 41442,
  "Request": 32330,
  "Res": 6197,
  "Research": 24306,
  "Researchers": 19136,
  "Residents": 31297,
  "Resources": 48583,
  "Resp": 21252,
  "Responding": 41865,
  "Response": 38727,
  "Rest": 24785,
  "Result": 35245,
  "Results": 28328,
  "Ret": 14853,
  "Retail": 47124,
  "Return": 27559,
  "Reuters": 9458,
  "Rev": 23616,
  "Review": 18004,
  "Reviewer": 29235,
  "Rew": 39892,
  "Rex": 43910,
  "Rh": 40115,
  "Rice": 48506,
  "Rich": 13876,
  "Richard": 18473,
  "Rick": 28522,
  "Right": 11059,
  "Rise": 48723,
  "River": 41928,
  "Ro": 24935,
  "Road": 35158,
  "Rob": 14920,
  "Rober": 13813,
  "Robert": 16885,
  "Roberts": 34926,
  "Robin": 40672,
  "Robinson": 44741,
  "Rock": 20812,
  "Rod": 24877,
  "Rog": 27047,
  "Roger": 37013,
  "Roll": 30943,
  "Rom": 22023,
  "Roman": 29412,
  "Romney": 30459,
  "Ron": 22394,
  "Ros": 34302,
  "Rose": 30594,
  "Ross": 33105,
  "Rou": 30083,
  "Rough": 46860,
  "Round": 26481,
  "Rourke": 48766,
  "Row": 43249,
  "Roy": 27250,
  "Royal": 39835,
  "Rs": 29749,
  "Rub": 19145,
  "Rubio": 46075,
  "Ruby": 27642,
  "Rule": 42097,
  "Rules": 49109,
  "Rum": 38543,
  "Run": 19985,
  "Running": 28818,
  "Rus": 29411,
  "Russ": 8596,
  "Russell": 37909,
  "Russia": 13562,
  "Russian": 13845,
  "Ryan": 17878,
  "S": 83,
  "SA": 4193,
  "SAN": 25518,
  "SB": 32906,
  "SC": 10488,
  "SCR": 40433,
  "SD": 11831,
  "SE": 9545,
  "SEC": 30377,
  "SEE": 34053,
  "SF": 31769,
  "SG": 49301,
  "SH": 17332,
  "SHA": 35043,
  "SHARE": 49522,
  "SI": 17912,
  "SK": 42145,
  "SL": 9603,
  "SM": 14313,
  "SN": 17927,
  "SO": 16231,
  "SON": 14053,
  "SOURCE": 49844,
  "SP": 4826,
  "SPIEGEL": 49128,
  "SQL": 19002,
  "SR": 43680,
  "SS": 5967,
  "SSL": 41192,
  "ST": 4599,
  "STEM": 41301,
  "STR": 37698,
  "SU": 11134,
  "SW": 21062,
  "SY": 42425,
  "Sa": 36063,
  "Sab": 41889,
  "Sac": 44007,
  "Sad": 22713,
  "Sadly": 28921,
  "Safe": 37365,
  "Safety": 44485,
  "Sah": 30885,
  "Saharan": 35685,
  "Said": 38034,
  "Saint": 44320,
  "Sal": 19565,
  "Sales": 43622,
  "Salt": 46105,
  "Sam": 16745,
  "Same": 34776,
  "Sample": 49664,
  "Samsung": 28420,
  "San": 14882,
  "Sand": 15226,
  "Sanders": 18701,
  "Sant": 41811,
  "Santa": 39551,
  "Sar": 21187,
  "Sarah": 25220,
  "Sat": 25270,
  "Saturday": 19252,
  "Saud": 27102,
  "Saudi": 28751,
  "Save": 21026,
  "Sax": 36309,
  "Saxon": 43830,
  "Say": 29139,
  "Sc": 4200,
  "Scan": 48785,
  "Scar": 45603,
  "Sch": 14516,
  "Sche": 35999,
  "School": 26026,
  "Science": 25226,
  "Scient": 17909,
  "Scientists": 21336,
  "Score": 29055,
  "Scot": 34394,
  "Scotland": 40446,
  "Scott": 16201,
  "Scottish": 48424,
  "Screen": 34031,
  "Script": 8662,
  "Scroll": 24433,
  "Se": 6962,
  "Sea": 36499,
  "Sean": 24196,
  "Search": 26487,
  "Season": 21277,
  "Seattle": 29362,
  "Sec": 7399,
  "Second": 11977,
  "Secondly": 37772,
  "Secret": 22441,
  "Secretary": 31030,
  "Section": 29600,
  "Security": 23625,
  "See": 6355,
  "Seeing": 36633,
  "Select": 27451,
  "Self": 28759,
  "Sem": 33631,
  "Semit": 14203,
  "Semitic": 22494,
  "Semitism": 20929,
  "Sen": 8557,
  "Senate": 23154,
  "Senator": 23141,
  "Send": 31257,
  "Senior": 28045,
  "Sense": 41817,
  "Sent": 36052,
  "Sep": 14395,
  "Sept": 34611,
  "September": 19449,
  "Ser": 14007,
  "Series": 31330,
  "Seriously": 37100,
  "Serv": 19915,
  "Server": 29761,
  "Service": 24951,
  "Sessions": 46879,
  "Set": 13114,
  "Setting": 36250,
  "Sev": 49827,
  "Seven": 27064,
  "Several": 12124,
  "Sex": 24661,
  "Sexual": 47038,
  "Sh": 3075,
  "Shadow": 38505,
  "Sham": 29458,
  "Shane": 46219,
  "Shar": 41480,
  "Share": 10726,
  "Shares": 42500,
  "Sharp": 43499,
  "She": 3215,
  "Shell": 29704,
  "Sher": 25806,
  "Shift": 45611,
  "Ship": 47487,
  "Shock": 35345,
  "Shop": 38184,
  "Short": 17021,
  "Shortly": 24091,
  "Shot": 39969,
  "Should": 18863,
  "Show": 20400,
  "Shut": 48357,
  "Shutterstock": 43046,
  "Si": 45383,
  "Side": 28872,
  "Sign": 13570,
  "Sil": 17767,
  "Silver": 32856,
  "Sim": 9654,
  "Similar": 26668,
  "Similarly": 23172,
  "Simon": 31480,
  "Simple": 36531,
  "Simply": 34573,
  "Sin": 44274,
  "Since": 5517,
  "Sing": 27657,
  "Single": 37622,
  "Sir": 25338,
  "Sit": 46485,
  "Site": 39622,
  "Sitting": 48960,
  "Six": 19173,
  "Size": 26085,
  "Sk": 25125,
  "Sky": 23305,
  "Sl": 15681,
  "Sleep": 45765,
  "Slideshow": 40727,
  "Slow": 40493,
  "Sm": 8715,
  "Small": 24656,
  "Smart": 27372,
  "Smith": 16104,
  "Sn": 24219,
  "Snow": 27960,
  "Snowden": 46349,
  "So": 2165,
  "Soc": 36721,
  "Social": 18783,
  "Soft": 28368,
  "Software": 38166,
  "Sol": 41516,
  "Solar": 35806,
  "Sold": 42723,
  "Some": 3857,
  "Somebody": 45561,
  "Someone": 24950,
  "Something": 20889,
  "Sometimes": 13649,
  "Son": 34236,
  "Song": 48007,
  "Sony": 28017,
  "Soon": 24797,
  "Soph": 48994,
  "Sorry": 21553,
  "Sou": 48565,
  "Sound": 27171,
  "Sounds": 41470,
  "Source": 9022,
  "Sources": 18523,
  "South": 13229,
  "Southern": 38881,
  "Sov": 31647,
  "Soviet": 31942,
  "Sp": 5854,
  "Spa": 40829,
  "Space": 18413,
  "Spain": 37026,
  "Spanish": 37471,
  "Spe": 6259,
  "Speaking": 10547,
  "Spec": 39409,
  "Special": 18345,
  "Specifically": 37771,
  "Speed": 32960,
  "Sphere": 48087,
  "Spider": 44638,
  "Spir": 41224,
  "Spl": 39089,
  "Spoiler": 44397,
  "Spons": 46490,
  "Sport": 39625,
  "Sports": 15442,
  "Spot": 30813,
  "Spread": 46182,
  "Spring": 32642,
  "Squ": 29196,
  "St": 1667,
  "Stack": 28894,
  "Staff": 28019,
  "Stage": 39952,
  "Stan": 28468,
  "Stand": 24184,
  "Standard": 36439,
  "Standing": 42011,
  "Stanford": 46889,
  "Star": 8204,
  "Stars": 30635,
  "Start": 13736,
  "Starting": 22313,
  "Stat": 28490,
  "State": 10556,
  "States": 39663,
  "Station": 10451,
  "Stats": 39977,
  "Status": 33562,
  "Stay": 24360,
  "Ste": 5614,
  "Steam": 42762,
  "Stein": 46134,
  "Step": 10558,
  "Stephan": 47792,
  "Stephen": 22736,
  "Steve": 17456,
  "Steven": 25095,
  "Stewart": 43917,
  "Still": 9144,
  "Sto": 47009,
  "Stock": 28658,
  "Stone": 34740,
  "Stop": 19640,
  "Storage": 45182,
  "Store": 37560,
  "Storm": 39968,
  "Story": 9635,
  "Str": 23693,
  "Stra": 42499,
  "Strange": 46016,
  "Stre": 34309,
  "Stream": 25176,
  "Street": 32526,
  "Strike": 34970,
  "String": 16406,
  "Strong": 33977,
  "Stud": 13651,
  "Student": 43195,
  "Students": 26398,
  "Studies": 42330,
  "Studio": 41683,
  "Study": 40936,
  "StumbleUpon": 42622,
  "Sty": 30383,
  "Style": 35914,
  "Su": 23116,
  "Sub": 8091,
  "Subaru": 49029,
  "Subject": 21333,
  "Subscribe": 18913,
  "Suburb": 39681,
  "Success": 35849,
  "Such": 14102,
  "Suddenly": 38237,
  "Sullivan": 37204,
  "Sum": 16417,
  "Summary": 26303,
  "Summer": 35628,
  "Sun": 19304,
  "Sund": 21094,
  "Sunday": 22352,
  "Sup": 43664,
  "Super": 14595,
  "Supp": 11260,
  "Supplementary": 36468,
  "Support": 21164,
  "Supporters": 34681,
  "Sur": 15159,
  "Sure": 17537,
  "Surely": 47183,
  "Surv": 35203,
  "Sus": 27588,
  "Susan": 39338,
  "Sw": 19189,
  "Swed": 31117,
  "Sweden": 42303,
  "Sweet": 37359,
  "Switch": 45856,
  "Sy": 13755,
  "Sydney": 48607,
  "Syn": 45413,
  "Sync": 44681,
  "Syria": 32926,
  "Syrian": 32564,
  "System": 24574,
  "T": 84,
  "TA": 6257,
  "TAIN": 40192,
  "TB": 23977,
  "TC": 5170,
  "TE": 10884,
  "TER": 10198,
  "TF": 26143,
  "TH": 5659,
  "THE": 11944,
  "THER": 37137,
  "THING": 44114,
  "THIS": 49027,
  "TI": 26158,
  "TIME": 48416,
  "TION": 13241,
  "TIONS": 42782,
  "TIS": 12165,
  "TL": 19492,
  "TM": 25345,
  "TN": 49145,
  "TO": 11529,
  "TON": 10417,
  "TOR": 26509,
  "TP": 9936,
  "TPS": 32715,
  "TR": 10621,
  "TRA": 47093,
  "TRE": 41990,
  "TRUMP": 45326,
  "TS": 6439,
  "TT": 20210,
  "TV": 5867,
  "TW": 40522,
  "TX": 36793,
  "TY": 17657,
  "Ta": 44057,
  "Tab": 49657,
  "Table": 16735,
  "Tag": 43260,
  "Tags": 37374,
  "Tai": 42444,
  "Take": 12185,
  "Taken": 46910,
  "Taking": 23216,
  "Tal": 29773,
  "Talk": 26778,
  "Talking": 38306,
  "Tan": 48812,
  "Target": 32228,
  "Task": 47039,
  "Tax": 27360,
  "Taylor": 29116,
  "Te": 6385,
  "Tea": 46491,
  "Team": 17041,
  "Teams": 43806,
  "Tech": 21655,
  "Techn": 26010,
  "Technical": 48819,
  "Technology": 38917,
  "Ted": 30638,
  "Teen": 45723,
  "Tel": 38204,
  "Tele": 28296,
  "Television": 43753,
  "Tell": 24537,
  "Tem": 23392,
  "Ten": 23562,
  "Tenn": 35195,
  "Tennessee": 48078,
  "Ter": 16156,
  "Terror": 34281,
  "Terry": 42529,
  "Tes": 31804,
  "Tesla": 34738,
  "Test": 19166,
  "Testing": 43986,
  "Tex": 15867,
  "Texas": 17770,
  "Text": 19296,
  "Th": 801,
  "Thank": 10673,
  "Thankfully": 37604,
  "Thanks": 10341,
  "That": 2128,
  "The": 445,
  "Their": 12004,
  "Then": 6235,
  "Ther": 47249,
  "There": 1639,
  "Therefore": 26446,
  "These": 4290,
  "They": 2520,
  "Things": 19455,
  "Think": 19131,
  "Thinking": 49732,
  "Third": 21457,
  "Thirty": 30831,
  "This": 1207,
  "Thomas": 19891,
  "Thompson": 40746,
  "Thor": 45559,
  "Those": 7933,
  "Though": 9231,
  "Thousands": 28037,
  "Thread": 30284,
  "Three": 11072,
  "Through": 12811,
  "Throughout": 20988,
  "Thursday": 24045,
  "Thus": 18729,
  "Tickets": 37769,
  "Tier": 39998,
  "Till": 43589,
  "Tim": 15541,
  "Time": 10827,
  "Times": 25611,
  "Tip": 36491,
  "Tit": 24161,
  "Title": 29413,
  "To": 2728,
  "Today": 7347,
  "Todd": 40238,
  "Together": 34286,
  "Tok": 43892,
  "Tom": 13237,
  "Tomorrow": 45535,
  "Ton": 35646,
  "Tonight": 39555,
  "Tony": 25075,
  "Too": 23969,
  "Tools": 44486,
  "Top": 10289,
  "Topics": 21319,
  "Tor": 14327,
  "Toronto": 25688,
  "Torrent": 27878,
  "Total": 18258,
  "Touch": 40247,
  "Tour": 33708,
  "Town": 43807,
  "Toy": 44279,
  "Tr": 3170,
  "Tra": 26912,
  "Track": 30472,
  "Trad": 44565,
  "Trade": 37268,
  "Traditional": 44576,
  "Train": 41589,
  "Training": 49499,
  "Trans": 11156,
  "Travel": 31648,
  "Tre": 27346,
  "Tree": 39836,
  "Tri": 26845,
  "Tro": 42632,
  "Trudeau": 45405,
  "True": 23059,
  "Trump": 4925,
  "Trust": 34498,
  "Truth": 37906,
  "Try": 27470,
  "Trying": 45653,
  "Ts": 26073,
  "Tube": 5998,
  "Tuesday": 24734,
  "Tumblr": 31985,
  "Tunes": 13940,
  "Tur": 14968,
  "Turkey": 24312,
  "Turkish": 32334,
  "Turn": 20378,
  "Turner": 48781,
  "Turning": 46449,
  "Turns": 48122,
  "Tw": 16934,
  "Tweet": 38740,
  "Twenty": 28314,
  "Twitter": 12061,
  "Two": 6690,
  "Ty": 10320,
  "Tyler": 41248,
  "Type": 14778,
  "Types": 48708,
  "Typically": 42366,
  "U": 85,
  "UA": 37751,
  "UAL": 39045,
  "UB": 28250,
  "UC": 11469,
  "UCK": 23241,
  "UD": 12787,
  "UE": 13689,
  "UES": 35511,
  "UF": 43404,
  "UFC": 32252,
  "UG": 19670,
  "UI": 14025,
  "UK": 16798,
  "UL": 8152,
  "ULL": 17228,
  "ULT": 30252,
  "UM": 14224,
  "UMB": 37275,
  "UMP": 24260,
  "UN": 8332,
  "UND": 47825,
  "UP": 16255,
  "UPDATE": 13575,
  "UPI": 41364,
  "UR": 7794,
  "URE": 20090,
  "URES": 46084,
  "URL": 36725,
  "URN": 39429,
  "US": 3181,
  "USA": 13694,
  "USB": 36599,
  "USC": 45268,
  "USD": 31291,
  "USE": 20217,
  "USH": 30116,
  "USS": 32745,
  "UST": 9127,
  "UT": 5959,
  "UTC": 19591,
  "UTERS": 12427,
  "UX": 49072,
  "Ub": 39162,
  "Uber": 33410,
  "Ubuntu": 49910,
  "Uh": 38924,
  "Uk": 25036,
  "Ukrain": 46631,
  "Ukraine": 36799,
  "Ukrainian": 48596,
  "Ult": 16043,
  "Ultimately": 20944,
  "Ultra": 43712,
  "Um": 43174,
  "Un": 3965,
  "Und": 36963,
  "Under": 8397,
  "Understanding": 39842,
  "Unfortunately": 11740,
  "Union": 33897,
  "Unit": 37242,
  "United": 16659,
  "Universal": 35516,
  "University": 21275,
  "Unknown": 45456,
  "Unless": 25933,
  "Unlike": 15629,
  "Uns": 36830,
  "Until": 15299,
  "Up": 5488,
  "Update": 10503,
  "Updated": 16169,
  "Upon": 20459,
  "Ur": 23166,
  "Urban": 46154,
  "Url": 41536,
  "Us": 8000,
  "Use": 16541,
  "User": 19923,
  "Users": 28725,
  "Using": 13210,
  "Usually": 34594,
  "Ut": 24374,
  "Utah": 35814,
  "V": 86,
  "VA": 15074,
  "VB": 48092,
  "VC": 19566,
  "VD": 9754,
  "VE": 9267,
  "VED": 46067,
  "VEL": 30853,
  "VEN": 42052,
  "VER": 7085,
  "VERS": 42724,
  "VERTIS": 12600,
  "VI": 17262,
  "VICE": 40353,
  "VID": 15272,
  "VIDEO": 35145,
  "VIDIA": 22597,
  "VIEW": 37683,
  "VIL": 36443,
  "VILLE": 41725,
  "VM": 17213,
  "VO": 30660,
  "VP": 10325,
  "VPN": 45640,
  "VR": 15664,
  "VS": 37573,
  "VT": 45916,
  "Va": 32166,
  "Val": 14216,
  "Value": 22169,
  "Van": 25101,
  "Vancouver": 42261,
  "Var": 31053,
  "Vari": 43399,
  "Various": 37284,
  "Ve": 21342,
  "Ven": 37752,
  "Venezuel": 45464,
  "Ver": 16351,
  "Verizon": 47276,
  "Version": 29774,
  "Very": 19831,
  "Veter": 39815,
  "Vi": 40411,
  "Via": 24059,
  "Vice": 39163,
  "Vict": 21095,
  "Victoria": 43965,
  "Video": 12998,
  "Viet": 45666,
  "View": 10438,
  "Vill": 45857,
  "Viol": 34965,
  "Violence": 49478,
  "Virgin": 30701,
  "Virginia": 35743,
  "Virtual": 41736,
  "Vis": 18199,
  "Visit": 32613,
  "Visual": 43040,
  "Vo": 43604,
  "Voice": 43901,
  "Vol": 22062,
  "Vote": 36568,
  "Voters": 42928,
  "Vs": 29504,
  "Vt": 45628,
  "W": 87,
  "WA": 14352,
  "WAR": 26286,
  "WASHINGTON": 15896,
  "WATCH": 27350,
  "WAY": 35889,
  "WC": 27697,
  "WD": 37842,
  "WE": 24517,
  "WH": 14601,
  "WHAT": 33431,
  "WHERE": 49670,
  "WHO": 38742,
  "WI": 41365,
  "WN": 35252,
  "WORK": 37390,
  "WP": 45337,
  "WR": 21605,
  "WS": 12616,
  "WT": 41705,
  "WW": 19487,
  "WWE": 48806,
  "Wa": 40332,
  "Wait": 23280,
  "Wal": 22929,
  "Walk": 41845,
  "Walker": 33348,
  "Walking": 45937,
  "Wall": 22661,
  "Walter": 45671,
  "Want": 19367,
  "War": 12170,
  "Ward": 42617,
  "Ware": 32244,
  "Warner": 42527,
  "Warning": 35140,
  "Warren": 35909,
  "Wars": 49970,
  "Was": 18761,
  "Washington": 14939,
  "Wat": 34338,
  "Watch": 9615,
  "Watching": 42257,
  "Water": 22287,
  "Wave": 42450,
  "Way": 26200,
  "Wayne": 43217,
  "We": 1030,
  "Weather": 42087,
  "Web": 19699,
  "Website": 39858,
  "Wed": 22822,
  "Wednesday": 25461,
  "Week": 20706,
  "Weight": 38747,
  "Weiss": 40550,
  "Welcome": 18508,
  "Well": 5704,
  "Were": 33477,
  "West": 13886,
  "Western": 21232,
  "Wh": 1156,
  "What": 1996,
  "Whatever": 18360,
  "Whats": 34465,
  "Whe": 10433,
  "When": 2074,
  "Whenever": 28899,
  "Where": 8546,
  "Whereas": 41744,
  "Whether": 13359,
  "Which": 12581,
  "While": 3038,
  "Whilst": 41391,
  "Whit": 39591,
  "White": 11964,
  "Who": 8134,
  "Whoever": 43890,
  "Why": 4996,
  "Wi": 45717,
  "Wid": 40580,
  "Wide": 45169,
  "Wik": 32332,
  "Wiki": 38944,
  "Wikipedia": 48477,
  "Wil": 20548,
  "Wild": 27473,
  "Will": 8461,
  "William": 23213,
  "Williams": 23033,
  "Wilson": 30105,
  "Win": 21717,
  "Wind": 15776,
  "Windows": 20647,
  "Wing": 41818,
  "Winner": 43988,
  "Winter": 37503,
  "Wire": 30435,
  "Wis": 42783,
  "Wisconsin": 39221,
  "Wit": 47298,
  "With": 2988,
  "Within": 19229,
  "Without": 15547,
  "Witnesses": 40099,
  "Wo": 49593,
  "Wolf": 32876,
  "Woman": 42204,
  "Women": 17338,
  "Wonder": 43412,
  "Wood": 26764,
  "Word": 32058,
  "Words": 38824,
  "Work": 13532,
  "Workers": 39826,
  "Working": 25952,
  "Works": 24127,
  "World": 12189,
  "Worst": 47400,
  "Would": 17859,
  "Wow": 21133,
  "Wright": 43228,
  "Writ": 14154,
  "Write": 26030,
  "Writer": 38616,
  "Writing": 27835,
  "Written": 24256,
  "Wy": 48289,
  "X": 88,
  "XL": 44791,
  "XM": 38911,
  "XT": 46773,
  "XX": 13446,
  "XXXX": 41618,
  "Xbox": 44549,
  "Xi": 43139,
  "Y": 89,
  "YD": 34615,
  "YOU": 43307,
  "YS": 27920,
  "Yahoo": 46801,
  "Yang": 37692,
  "Yeah": 11100,
  "Year": 20825,
  "Years": 37717,
  "Yellow": 47483,
  "Yep": 43447,
  "Yes": 6123,
  "Yesterday": 21166,
  "Yet": 9150,
  "Yo": 40065,
  "York": 48176,
  "You": 1816,
  "YouTube": 29694,
  "Young": 19077,
  "Your": 8963,
  "Z": 90,
  "ZA": 34319,
  "ZE": 41636,
  "Zach": 46730,
  "Ze": 37191,
  "Zen": 48683,
  "Zero": 32989,
  "Zion": 39963,
  "Zone": 49927,
  "[": 91,
  "[\"": 44886,
  "['": 30374,
  "[/": 16426,
  "[[": 40833,
  "[]": 32295,
  "[_": 34918,
  "\\": 92,
  "\\\"": 26840,
  "\\)": 30564,
  "\\-": 20262,
  "\\-|": 32519,
  "\\/": 19613,
  "\\\\": 18450,
  "]": 93,
  "](": 37102,
  "])": 16550,
  "]),": 45384,
  "]).": 39107,
  "],": 5837,
  "],\"": 27905,
  "],[": 49353,
  "],âĢĿ": 31543,
  "].": 5086,
  "].\"": 40100,
  "].âĢĿ": 33134,
  "]:": 13059,
  "];": 16554,
  "]<|": 12435,
  "][": 2989,
  "]]": 20338,
  "^": 94,
  "^^": 45549,
  "^{": 21024,
  "_": 95,
  "__": 1444,
  "___": 20044,
  "____": 2678,
  "_____": 40666,
  "______": 48391,
  "_______": 45682,
  "________": 4698,
  "________________": 8571,
  "________________________": 46780,
  "________________________________": 17252,
  "________________________________________________________________": 46019,
  "_{": 17124,
  "_{\\": 47094,
  "`": 96,
  "a": 97,
  "aS": 47050,
  "aa": 14905,
  "aan": 33923,
  "ab": 409,
  "aba": 15483,
  "abaab": 42070,
  "abad": 14337,
  "abal": 41338,
  "abama": 7459,
  "abase": 22855,
  "abb": 5227,
  "abbage": 33399,
  "abbing": 12438,
  "abbling": 41292,
  "abby": 40512,
  "abc": 46178,
  "abe": 10790,
  "abee": 22551,
  "abel": 14846,
  "aber": 32162,
  "abet": 9946,
  "abetes": 12429,
  "abeth": 8769,
  "abetic": 39505,
  "abh": 40609,
  "abi": 16806,
  "abiding": 33444,
  "abies": 38465,
  "abil": 8404,
  "abilia": 39347,
  "abilities": 5708,
  "ability": 1901,
  "abin": 5814,
  "abinet": 7999,
  "abinoid": 37583,
  "abis": 6763,
  "abit": 29788,
  "abl": 13065,
  "able": 574,
  "abled": 5883,
  "ables": 3397,
  "abling": 12304,
  "ablish": 17154,
  "ablished": 20441,
  "ablishing": 46971,
  "ablishment": 21983,
  "ablo": 16789,
  "ably": 1292,
  "abo": 38039,
  "abody": 47973,
  "abol": 33190,
  "abolic": 37406,
  "abor": 3205,
  "abortion": 25133,
  "about": 11140,
  "abouts": 25380,
  "above": 28311,
  "abs": 7996,
  "absolutely": 32072,
  "absor": 46190,
  "abul": 13907,
  "abulary": 20616,
  "abus": 44934,
  "abuse": 41967,
  "abwe": 19775,
  "aby": 4113,
  "abyte": 37325,
  "abytes": 31394,
  "ac": 312,
  "aca": 21634,
  "acas": 31879,
  "acc": 6911,
  "acca": 42043,
  "accept": 11708,
  "acceptable": 13134,
  "access": 16911,
  "accessible": 30637,
  "acci": 40221,
  "acco": 9129,
  "accompan": 41930,
  "accompanied": 42051,
  "according": 33653,
  "account": 24147,
  "accur": 14724,
  "ace": 559,
  "acea": 45450,
  "acebook": 2299,
  "aced": 2284,
  "acek": 48064,
  "acency": 40023,
  "acent": 12936,
  "aceous": 37075,
  "acer": 12507,
  "acerb": 18164,
  "aces": 2124,
  "aceutical": 13356,
  "acey": 22349,
  "ach": 633,
  "acha": 31869,
  "achable": 34306,
  "ache": 5942,
  "ached": 2445,
  "achel": 9828,
  "achella": 49922,
  "achelor": 19560,
  "acher": 9981,
  "achers": 15452,
  "aches": 3494,
  "achev": 34714,
  "achi": 18613,
  "achim": 49877,
  "achine": 24504,
  "aching": 7990,
  "achment": 11160,
  "acho": 37984,
  "achron": 46324,
  "acht": 17934,
  "achu": 44887,
  "achus": 8102,
  "achusetts": 8209,
  "aci": 41849,
  "acia": 43580,
  "acial": 21427,
  "acies": 12364,
  "acing": 4075,
  "acio": 38925,
  "acion": 37048,
  "acional": 38484,
  "acious": 13799,
  "aciously": 41257,
  "acity": 4502,
  "aciÃ³n": 25592,
  "ack": 449,
  "acked": 7322,
  "acker": 14141,
  "ackers": 24123,
  "acket": 9035,
  "ackets": 27721,
  "acking": 6841,
  "ackle": 33991,
  "acks": 5164,
  "acle": 6245,
  "acles": 10404,
  "acly": 40424,
  "aclysm": 42375,
  "aco": 11350,
  "acon": 8487,
  "aconian": 30743,
  "acons": 40273,
  "acqu": 38332,
  "acre": 10357,
  "acs": 20857,
  "act": 507,
  "acted": 20190,
  "acter": 6108,
  "acters": 27465,
  "actic": 13978,
  "acting": 25257,
  "action": 2612,
  "actions": 7435,
  "activ": 18773,
  "activated": 34595,
  "active": 7593,
  "actively": 28158,
  "activity": 23748,
  "actly": 22832,
  "actor": 11231,
  "actors": 45753,
  "actory": 12810,
  "acts": 9538,
  "actual": 48794,
  "actually": 36765,
  "actus": 40990,
  "acular": 12324,
  "aculate": 45306,
  "acus": 47326,
  "acy": 1490,
  "ad": 325,
  "ada": 4724,
  "adal": 29145,
  "adan": 24646,
  "adas": 37980,
  "adata": 17527,
  "aday": 35292,
  "adays": 17596,
  "add": 3362,
  "addafi": 17686,
  "added": 34654,
  "adden": 33484,
  "adder": 30960,
  "adders": 42140,
  "addin": 47630,
  "adding": 35781,
  "addle": 49362,
  "addock": 31306,
  "address": 33368,
  "addy": 14198,
  "ade": 676,
  "aded": 5156,
  "adel": 6655,
  "adelph": 7285,
  "adelphia": 7345,
  "adem": 3516,
  "ademark": 47413,
  "aden": 47865,
  "adena": 31175,
  "adequ": 15178,
  "ader": 5190,
  "aderie": 45145,
  "aders": 9920,
  "ades": 2259,
  "adesh": 10869,
  "adeshi": 43616,
  "adh": 18630,
  "adhafi": 44535,
  "adi": 10609,
  "adia": 27476,
  "adian": 17129,
  "adians": 47725,
  "adic": 22541,
  "adier": 38550,
  "adies": 46122,
  "adin": 29164,
  "ading": 4332,
  "adiq": 47542,
  "adish": 42907,
  "aditional": 17168,
  "adium": 5067,
  "adjusted": 29688,
  "admin": 35188,
  "administ": 36925,
  "ado": 4043,
  "adoes": 36796,
  "adoop": 40576,
  "ador": 6143,
  "ados": 20512,
  "adow": 5785,
  "adows": 13335,
  "adr": 39277,
  "ads": 7138,
  "adv": 34473,
  "advant": 13070,
  "adventure": 48317,
  "advertisement": 42174,
  "advised": 47706,
  "ady": 4605,
  "ae": 4422,
  "aed": 7573,
  "aeda": 8952,
  "ael": 2744,
  "aez": 40109,
  "af": 2010,
  "afa": 26623,
  "afe": 9412,
  "afer": 30247,
  "afety": 26041,
  "aff": 1452,
  "affe": 13768,
  "affected": 35994,
  "affeine": 21668,
  "affer": 26639,
  "affes": 47817,
  "affiliated": 37032,
  "affle": 31000,
  "affold": 34877,
  "affrey": 49227,
  "afi": 13075,
  "afia": 20139,
  "afone": 40340,
  "afort": 19237,
  "afrost": 41608,
  "aft": 21021,
  "after": 9595,
  "ag": 370,
  "aga": 9406,
  "again": 16342,
  "against": 27941,
  "agall": 49820,
  "agame": 39029,
  "agan": 6445,
  "aganda": 36335,
  "agar": 30111,
  "agara": 33343,
  "agascar": 37539,
  "agate": 38497,
  "age": 504,
  "aged": 1815,
  "ageddon": 39428,
  "agedy": 49793,
  "agement": 2972,
  "agen": 10676,
  "agency": 37391,
  "agent": 23364,
  "ager": 2429,
  "agers": 6080,
  "ages": 1130,
  "agg": 8606,
  "agged": 14857,
  "agger": 9961,
  "aggering": 17058,
  "agging": 14454,
  "aggio": 47102,
  "aggle": 42389,
  "aggressive": 41315,
  "aggy": 48290,
  "agh": 9756,
  "aghan": 37781,
  "aghd": 13635,
  "agher": 24554,
  "aghetti": 33906,
  "agi": 25625,
  "agic": 9136,
  "agically": 31893,
  "agine": 11053,
  "aging": 2571,
  "agle": 18856,
  "agles": 32634,
  "agn": 4968,
  "agna": 47392,
  "agne": 19549,
  "agnetic": 22269,
  "ago": 3394,
  "agog": 28371,
  "agogue": 25572,
  "agogues": 41859,
  "agon": 3515,
  "agonal": 27571,
  "agonist": 15129,
  "agonists": 33372,
  "agons": 36134,
  "agos": 44105,
  "agra": 41792,
  "agram": 7242,
  "agrams": 31260,
  "agraph": 12186,
  "agree": 39772,
  "ags": 4260,
  "agu": 11885,
  "ague": 1744,
  "agues": 5030,
  "agus": 33884,
  "ah": 1037,
  "aha": 14002,
  "ahan": 16084,
  "ahar": 30100,
  "ahashi": 49454,
  "ahead": 36291,
  "ahi": 32173,
  "ahill": 36371,
  "ahl": 13754,
  "ahn": 15038,
  "aho": 15408,
  "ahon": 24598,
  "ahoo": 11002,
  "ahs": 42428,
  "ahu": 9579,
  "ai": 2040,
  "aic": 16535,
  "aid": 1980,
  "aida": 23870,
  "aidu": 38144,
  "aign": 1434,
  "aii": 41067,
  "ail": 612,
  "ailability": 32342,
  "ailable": 10306,
  "ailand": 13869,
  "ailed": 9471,
  "ailing": 11664,
  "ails": 1916,
  "ailure": 23488,
  "aily": 2886,
  "aim": 1288,
  "aiman": 37308,
  "ain": 389,
  "aine": 5292,
  "ained": 1501,
  "ainer": 16792,
  "aining": 1572,
  "ainment": 41531,
  "ains": 1379,
  "aint": 3652,
  "ainted": 15602,
  "ainting": 47251,
  "aints": 5727,
  "air": 1007,
  "aircraft": 40886,
  "aird": 27834,
  "aire": 6916,
  "aired": 14995,
  "aires": 14841,
  "airo": 14657,
  "airs": 3503,
  "airy": 13300,
  "ais": 9501,
  "aisal": 45344,
  "aise": 39650,
  "aisy": 32732,
  "ait": 4737,
  "aith": 3946,
  "aitley": 47151,
  "aj": 1147,
  "aja": 25615,
  "aji": 27584,
  "ajo": 26432,
  "ajor": 1347,
  "aju": 48066,
  "ak": 470,
  "aka": 8962,
  "akable": 28714,
  "akash": 36044,
  "ake": 537,
  "aked": 4201,
  "akedown": 26676,
  "aken": 1656,
  "akening": 34558,
  "akens": 28377,
  "aker": 3052,
  "akers": 3340,
  "akes": 1116,
  "akespe": 17358,
  "akespeare": 17574,
  "akh": 10003,
  "aki": 10116,
  "akia": 46838,
  "akin": 28219,
  "aking": 830,
  "akings": 42662,
  "akis": 22757,
  "akistan": 4592,
  "ako": 24992,
  "akov": 36984,
  "aks": 4336,
  "aku": 14485,
  "aky": 15182,
  "al": 283,
  "ala": 6448,
  "alach": 28125,
  "alam": 45551,
  "alan": 32476,
  "albeit": 37165,
  "album": 49493,
  "ald": 1804,
  "alde": 38009,
  "aldehyde": 45331,
  "aldi": 31770,
  "aldo": 36730,
  "ale": 1068,
  "aleb": 26637,
  "aled": 5689,
  "aleigh": 26580,
  "aler": 37465,
  "alers": 43855,
  "ales": 2041,
  "alese": 40341,
  "aley": 13721,
  "alez": 17736,
  "alf": 1561,
  "ali": 7780,
  "alia": 8968,
  "alian": 6480,
  "aliation": 19399,
  "alid": 12117,
  "alien": 39310,
  "align": 44932,
  "aligned": 35746,
  "alin": 14721,
  "aline": 22530,
  "aling": 5545,
  "alion": 19687,
  "alions": 42426,
  "alis": 28708,
  "alities": 25550,
  "ality": 1543,
  "alk": 967,
  "alke": 42062,
  "alker": 23175,
  "alking": 18662,
  "all": 447,
  "alla": 28043,
  "allah": 20782,
  "allahassee": 43746,
  "allas": 6774,
  "alle": 6839,
  "alled": 3027,
  "alleg": 47743,
  "allel": 36778,
  "alleng": 29096,
  "allenge": 45783,
  "allenged": 39693,
  "allic": 23479,
  "alling": 9590,
  "allo": 40122,
  "allow": 15774,
  "allowed": 45378,
  "allows": 43713,
  "alls": 5345,
  "ally": 453,
  "alm": 44591,
  "almost": 24049,
  "alo": 7073,
  "alog": 13274,
  "alogy": 49090,
  "alon": 37915,
  "alone": 17692,
  "along": 21908,
  "alore": 32846,
  "alph": 13969,
  "alpha": 33594,
  "als": 876,
  "alsa": 34024,
  "alse": 4076,
  "alsh": 17636,
  "also": 14414,
  "alt": 2630,
  "alted": 38464,
  "alter": 45416,
  "altern": 33360,
  "alternative": 43372,
  "alth": 1080,
  "although": 15306,
  "alties": 9921,
  "altry": 42874,
  "alty": 6273,
  "alus": 43579,
  "always": 32867,
  "aly": 3440,
  "alys": 30107,
  "alyses": 46748,
  "alysis": 9878,
  "alyst": 37202,
  "am": 323,
  "ama": 1289,
  "amac": 8740,
  "amacare": 8839,
  "aman": 12341,
  "amar": 39138,
  "amara": 36528,
  "amas": 15430,
  "amate": 45673,
  "amation": 15598,
  "amaz": 40662,
  "amazon": 46673,
  "amazoo": 48228,
  "amb": 3650,
  "amba": 28327,
  "amber": 7822,
  "ambers": 15669,
  "ambi": 43325,
  "ambig": 25890,
  "ambiguation": 49476,
  "ambled": 26583,
  "ambler": 46727,
  "ambles": 35560,
  "ambling": 11360,
  "ambo": 23948,
  "amboo": 29642,
  "ame": 491,
  "amed": 2032,
  "ameda": 41151,
  "amel": 20486,
  "ameless": 39273,
  "amen": 40127,
  "ament": 1866,
  "amental": 25273,
  "amente": 40072,
  "aments": 11008,
  "amer": 2199,
  "amera": 18917,
  "amers": 38402,
  "ames": 1017,
  "ami": 8132,
  "amic": 21207,
  "amiliar": 17642,
  "amily": 6656,
  "amin": 6147,
  "amina": 30021,
  "amination": 29193,
  "amine": 10819,
  "aminer": 25986,
  "amines": 43428,
  "aming": 3231,
  "amins": 27771,
  "amis": 45258,
  "amish": 43833,
  "aml": 42269,
  "amm": 5049,
  "amma": 48986,
  "ammad": 20488,
  "ammar": 16945,
  "ammed": 8579,
  "ammer": 39067,
  "ammers": 32832,
  "ammu": 38593,
  "ammy": 23581,
  "amo": 15775,
  "amon": 18090,
  "among": 30667,
  "amorph": 37670,
  "amoto": 23402,
  "amount": 18282,
  "amous": 9937,
  "amously": 47857,
  "amp": 674,
  "ampa": 11158,
  "amped": 15123,
  "amph": 26015,
  "amphetamine": 31058,
  "ampion": 5842,
  "ampions": 3521,
  "ampionship": 4561,
  "ampire": 18009,
  "ampires": 31780,
  "ample": 1475,
  "amples": 18541,
  "ampoo": 46639,
  "amps": 13571,
  "ampton": 16560,
  "ampunk": 48685,
  "ams": 1867,
  "amsung": 8002,
  "amura": 35671,
  "amus": 26011,
  "amy": 15651,
  "an": 272,
  "ana": 2186,
  "analy": 41873,
  "analysis": 24771,
  "anamo": 23385,
  "anan": 24287,
  "anao": 49702,
  "anas": 17711,
  "anasia": 42504,
  "anc": 1166,
  "anca": 42298,
  "ance": 604,
  "anced": 3209,
  "ancer": 18555,
  "ancers": 20363,
  "ances": 1831,
  "anch": 3481,
  "anche": 5385,
  "anches": 11961,
  "anchester": 7433,
  "anchez": 16453,
  "ancial": 2480,
  "ancies": 15890,
  "ancing": 4965,
  "anco": 25946,
  "ancock": 31876,
  "ancouver": 8174,
  "ancy": 4734,
  "and": 388,
  "anda": 4895,
  "andal": 6371,
  "andals": 17984,
  "andan": 32923,
  "ande": 31867,
  "anded": 12262,
  "andel": 34321,
  "andem": 25919,
  "ander": 4355,
  "andered": 46692,
  "andering": 37239,
  "anders": 45839,
  "andi": 30208,
  "anding": 16754,
  "ando": 17732,
  "andom": 4577,
  "andon": 4657,
  "andowski": 33090,
  "andr": 48665,
  "andra": 25463,
  "andre": 47827,
  "andro": 23968,
  "android": 30900,
  "ands": 1703,
  "andum": 24755,
  "andy": 12595,
  "ane": 1604,
  "aned": 19997,
  "aneous": 14442,
  "aneously": 26477,
  "anes": 6675,
  "aney": 18631,
  "ang": 671,
  "anga": 23942,
  "ange": 883,
  "anged": 5692,
  "angel": 8581,
  "angelo": 38046,
  "anger": 2562,
  "angered": 15637,
  "angering": 39289,
  "angerous": 22311,
  "angers": 5844,
  "anges": 6868,
  "anging": 4702,
  "angle": 9912,
  "angled": 19462,
  "anglement": 48731,
  "angles": 28234,
  "angling": 24250,
  "ango": 15125,
  "angs": 38323,
  "angu": 2336,
  "anguage": 11286,
  "anguages": 40045,
  "anguard": 26276,
  "angular": 21623,
  "ani": 3294,
  "ania": 5041,
  "anian": 34687,
  "anic": 27528,
  "anical": 36080,
  "anie": 31304,
  "aniel": 5819,
  "anies": 16674,
  "anim": 10865,
  "animal": 46421,
  "animate": 47823,
  "aning": 7881,
  "anish": 6413,
  "anity": 19585,
  "anium": 13514,
  "ank": 969,
  "anka": 13402,
  "anke": 27517,
  "anked": 13294,
  "ankind": 29186,
  "anking": 12817,
  "anks": 2970,
  "anky": 36770,
  "ann": 1624,
  "anna": 8491,
  "annah": 25361,
  "anne": 15903,
  "annel": 4639,
  "annels": 8739,
  "anners": 18208,
  "anni": 27911,
  "annie": 30150,
  "annis": 36919,
  "anno": 44744,
  "annon": 9679,
  "announced": 34564,
  "anny": 7409,
  "ano": 5283,
  "anoi": 44876,
  "anoia": 26625,
  "anol": 21221,
  "anooga": 34870,
  "anor": 33522,
  "another": 27388,
  "anova": 39333,
  "anqu": 28347,
  "ans": 495,
  "ansas": 5933,
  "anse": 38215,
  "ansen": 29691,
  "anship": 49023,
  "ansing": 20474,
  "ansion": 5207,
  "ansk": 31922,
  "anski": 38390,
  "ansky": 41274,
  "ansom": 18045,
  "anson": 19308,
  "ansson": 34943,
  "answer": 46967,
  "ant": 424,
  "anta": 19353,
  "antage": 35824,
  "antam": 39700,
  "antamweight": 48942,
  "antas": 42078,
  "ante": 14393,
  "anted": 4581,
  "antes": 37878,
  "anth": 39169,
  "antha": 28453,
  "anthrop": 18484,
  "anti": 15209,
  "antic": 7729,
  "antically": 29428,
  "anticipated": 36092,
  "antics": 28366,
  "antine": 17530,
  "anting": 15001,
  "antino": 32618,
  "antle": 15551,
  "antly": 3874,
  "anto": 13789,
  "antom": 17875,
  "anton": 19208,
  "antry": 20688,
  "ants": 1212,
  "anty": 44572,
  "antz": 37935,
  "anu": 36099,
  "anus": 47836,
  "any": 1019,
  "anya": 32775,
  "anyahu": 11472,
  "anye": 22888,
  "anyl": 35229,
  "anyon": 20764,
  "anything": 44647,
  "anz": 30804,
  "anza": 31251,
  "ao": 7158,
  "ap": 465,
  "apa": 32791,
  "apan": 2574,
  "apart": 44195,
  "ape": 2184,
  "apeake": 39210,
  "aped": 5766,
  "apego": 31364,
  "aper": 2039,
  "apers": 5226,
  "apes": 7274,
  "apest": 30532,
  "aph": 3138,
  "api": 23791,
  "apid": 34144,
  "aping": 8881,
  "apiro": 25057,
  "apist": 40998,
  "apixel": 36226,
  "apo": 33858,
  "apocalyptic": 41867,
  "apolis": 9564,
  "apolog": 35155,
  "apon": 29744,
  "apons": 35623,
  "apor": 14793,
  "apore": 10210,
  "app": 1335,
  "appa": 25815,
  "apped": 4844,
  "append": 43377,
  "apper": 10879,
  "appers": 38168,
  "appiness": 36970,
  "apping": 5651,
  "appings": 29807,
  "apple": 24789,
  "application": 39763,
  "apply": 49860,
  "appoint": 47490,
  "appointed": 26693,
  "appreciated": 45538,
  "appro": 15540,
  "appropri": 10367,
  "appropriate": 11978,
  "appropriately": 36673,
  "approved": 26017,
  "approximately": 44499,
  "apps": 36001,
  "appy": 8233,
  "aps": 1585,
  "apse": 6837,
  "apsed": 32240,
  "apses": 41372,
  "apt": 2891,
  "apted": 45658,
  "apter": 5624,
  "aptic": 31037,
  "apture": 26159,
  "apy": 14220,
  "aq": 32034,
  "aqu": 22620,
  "aque": 17783,
  "aques": 39195,
  "ar": 284,
  "ara": 3577,
  "araderie": 45243,
  "arag": 28113,
  "araj": 45565,
  "arak": 19671,
  "aram": 37366,
  "aran": 4537,
  "arante": 45212,
  "aranteed": 46756,
  "araoh": 37686,
  "arat": 32733,
  "arate": 33361,
  "arately": 42453,
  "aration": 9752,
  "arations": 23435,
  "arbon": 39744,
  "arc": 2466,
  "arcer": 15186,
  "arch": 990,
  "arching": 30807,
  "archive": 30519,
  "archment": 44401,
  "archs": 29843,
  "archy": 9105,
  "arcity": 27395,
  "arck": 49158,
  "arcraft": 29074,
  "ard": 458,
  "arde": 39561,
  "arded": 11565,
  "arden": 6339,
  "ardi": 18680,
  "arding": 14547,
  "ardless": 13228,
  "ardo": 10992,
  "ardom": 39605,
  "ardon": 19626,
  "ards": 1451,
  "ardy": 30938,
  "are": 527,
  "area": 19270,
  "ared": 1126,
  "aredevil": 38351,
  "arel": 22258,
  "arella": 43714,
  "arelli": 44915,
  "aren": 5158,
  "arency": 10082,
  "arendra": 21249,
  "arent": 1553,
  "arenthood": 12974,
  "arently": 11846,
  "arents": 12950,
  "arer": 11855,
  "arers": 35114,
  "ares": 3720,
  "arest": 13204,
  "aret": 8523,
  "areth": 24024,
  "arette": 14380,
  "arettes": 12634,
  "aretz": 36287,
  "arez": 15898,
  "arf": 35973,
  "arg": 864,
  "arge": 1203,
  "arger": 32258,
  "arget": 10364,
  "argo": 8904,
  "argon": 33892,
  "args": 32294,
  "ari": 3410,
  "aria": 9970,
  "arial": 34047,
  "arian": 3436,
  "arians": 11767,
  "ariat": 21029,
  "aries": 3093,
  "ariest": 49127,
  "arily": 3009,
  "arin": 16935,
  "arine": 33581,
  "aring": 1602,
  "ario": 4526,
  "arios": 11749,
  "arious": 18927,
  "aris": 23485,
  "arist": 35159,
  "arity": 6972,
  "arium": 20696,
  "arius": 22542,
  "ark": 678,
  "arkin": 34191,
  "arks": 5155,
  "arl": 6131,
  "arlane": 39180,
  "arlier": 7844,
  "arly": 875,
  "arm": 2058,
  "arma": 12070,
  "armac": 31923,
  "armed": 11208,
  "arming": 14045,
  "armor": 44093,
  "arms": 8549,
  "arn": 6719,
  "arns": 42821,
  "aro": 11020,
  "aron": 7418,
  "aroo": 35858,
  "around": 12850,
  "arov": 41435,
  "arp": 5681,
  "arr": 3370,
  "arranted": 40011,
  "arrass": 8175,
  "arrative": 41548,
  "array": 23891,
  "arre": 9380,
  "arrell": 39054,
  "arrison": 21518,
  "arro": 29309,
  "arrow": 27650,
  "arry": 6908,
  "arryl": 42593,
  "ars": 950,
  "arse": 17709,
  "arser": 47450,
  "arsh": 5084,
  "arsity": 39366,
  "arson": 10675,
  "art": 428,
  "arta": 28901,
  "arte": 34150,
  "arted": 11119,
  "arten": 21554,
  "arter": 2292,
  "arters": 6036,
  "arth": 3087,
  "arthed": 30389,
  "arthy": 13469,
  "artic": 44028,
  "article": 22243,
  "articles": 27415,
  "artisan": 14283,
  "artment": 1681,
  "artments": 34830,
  "artner": 47364,
  "arton": 34597,
  "arts": 15261,
  "arty": 32438,
  "artz": 21830,
  "aru": 16066,
  "arus": 22890,
  "ary": 557,
  "arya": 42909,
  "aryana": 41748,
  "aryl": 34179,
  "aryn": 44343,
  "as": 291,
  "asa": 16632,
  "asaki": 32113,
  "asant": 9528,
  "asar": 40096,
  "asc": 3180,
  "asca": 38826,
  "ascal": 25254,
  "ascar": 34553,
  "ascist": 26880,
  "asco": 48372,
  "ascript": 17666,
  "ascular": 17982,
  "ascus": 16596,
  "ase": 623,
  "ased": 825,
  "aser": 6924,
  "asers": 28930,
  "ases": 1440,
  "asey": 47736,
  "ash": 1151,
  "asha": 18027,
  "ashed": 5169,
  "asher": 42538,
  "ashes": 7606,
  "ashi": 16189,
  "ashing": 1854,
  "ashington": 2095,
  "ashion": 5501,
  "ashire": 44723,
  "ashtra": 29210,
  "asi": 14667,
  "asia": 32511,
  "asing": 2139,
  "asio": 22568,
  "asion": 7761,
  "asionally": 32392,
  "asions": 35152,
  "asis": 20893,
  "asive": 15905,
  "ask": 2311,
  "aska": 7764,
  "asked": 36519,
  "asket": 16864,
  "asketball": 22821,
  "askill": 43984,
  "asking": 26267,
  "asks": 6828,
  "asley": 32019,
  "asm": 14505,
  "asma": 15467,
  "ason": 821,
  "asonable": 17541,
  "asonic": 30025,
  "asonry": 40549,
  "asons": 2545,
  "asp": 5721,
  "aspberry": 19253,
  "asper": 30985,
  "aspers": 38287,
  "aspersky": 41061,
  "aspx": 34572,
  "ass": 577,
  "assad": 27930,
  "assador": 8933,
  "assadors": 31465,
  "assault": 40615,
  "asse": 20435,
  "assed": 21851,
  "assee": 42807,
  "assemb": 34605,
  "assembled": 45804,
  "asser": 22902,
  "asses": 16502,
  "assets": 45863,
  "assi": 40643,
  "assic": 26716,
  "assies": 35736,
  "assin": 49983,
  "assing": 22646,
  "assion": 11255,
  "assioned": 45134,
  "assis": 21278,
  "assisted": 36219,
  "assium": 30463,
  "assment": 46004,
  "asso": 33322,
  "associated": 34696,
  "assuming": 30470,
  "assy": 9815,
  "ast": 472,
  "asta": 37964,
  "aste": 4312,
  "asted": 10700,
  "aster": 1880,
  "astered": 29190,
  "astern": 5830,
  "asters": 7157,
  "astery": 28032,
  "astic": 3504,
  "astical": 31035,
  "astically": 13407,
  "astics": 22271,
  "asting": 10446,
  "aston": 30953,
  "astrous": 15710,
  "asts": 6993,
  "asty": 8405,
  "asu": 48408,
  "asure": 6035,
  "asured": 35397,
  "asures": 15813,
  "asuring": 46585,
  "asury": 9476,
  "asy": 4536,
  "at": 266,
  "ata": 1164,
  "atable": 16675,
  "ataka": 36492,
  "atal": 11934,
  "atalie": 27460,
  "atan": 46358,
  "atar": 9338,
  "atari": 36316,
  "atars": 37904,
  "atch": 1016,
  "atched": 15103,
  "atcher": 31608,
  "atches": 26832,
  "atching": 17227,
  "ate": 368,
  "atech": 48129,
  "ated": 515,
  "atedly": 44106,
  "atee": 48273,
  "ateful": 10836,
  "ateg": 2555,
  "ategic": 37729,
  "ategories": 38979,
  "ategory": 17051,
  "ategy": 3883,
  "atel": 21239,
  "atell": 6469,
  "atellite": 26980,
  "ately": 1270,
  "aten": 36998,
  "ater": 739,
  "ateral": 9799,
  "atered": 28419,
  "aterial": 2619,
  "aterials": 35497,
  "atern": 9556,
  "aternal": 15495,
  "aternity": 16168,
  "aters": 14032,
  "ates": 677,
  "ateur": 13631,
  "ateurs": 37458,
  "atever": 3539,
  "atform": 3159,
  "ath": 844,
  "atha": 35126,
  "atham": 32022,
  "athan": 6174,
  "athe": 26244,
  "athed": 28407,
  "ather": 1038,
  "athered": 7760,
  "atherine": 13875,
  "athering": 25094,
  "athers": 43018,
  "athetic": 16272,
  "athi": 41454,
  "athing": 23438,
  "athletes": 43859,
  "athlon": 45877,
  "athom": 29100,
  "athon": 12014,
  "athons": 49125,
  "athy": 7639,
  "ati": 7148,
  "atial": 38414,
  "atibility": 43699,
  "atible": 23989,
  "atic": 2045,
  "atical": 22689,
  "atically": 4477,
  "atican": 14930,
  "atics": 17150,
  "atile": 12559,
  "atility": 17075,
  "atin": 12442,
  "ating": 805,
  "atinum": 19753,
  "ation": 342,
  "ational": 796,
  "ationally": 12707,
  "ations": 589,
  "atisf": 16205,
  "atism": 19685,
  "ative": 859,
  "atively": 9927,
  "atives": 2631,
  "ativity": 19374,
  "atlantic": 31166,
  "atmeal": 43060,
  "ato": 5922,
  "atoes": 12141,
  "atollah": 35816,
  "atom": 45474,
  "atomic": 48055,
  "aton": 13963,
  "ator": 1567,
  "atore": 43025,
  "atorial": 17797,
  "atories": 18201,
  "atorium": 24787,
  "ators": 1988,
  "atory": 2949,
  "atos": 49321,
  "atown": 32711,
  "atra": 23018,
  "atre": 12347,
  "atri": 22282,
  "atro": 42146,
  "atron": 47117,
  "ats": 1679,
  "atsu": 26234,
  "att": 2347,
  "atta": 24230,
  "attack": 17802,
  "attacks": 29712,
  "atter": 11973,
  "attered": 10653,
  "attering": 18978,
  "atters": 48944,
  "atti": 27801,
  "attle": 3882,
  "attled": 23722,
  "atto": 47422,
  "attr": 48322,
  "atts": 24369,
  "atu": 44951,
  "atum": 30490,
  "atur": 2395,
  "atural": 2716,
  "aturally": 7515,
  "aturated": 40135,
  "aturday": 3112,
  "ature": 1360,
  "atured": 20719,
  "atures": 5257,
  "aturing": 29969,
  "atus": 10596,
  "aty": 39083,
  "atz": 27172,
  "au": 556,
  "auc": 12598,
  "aucas": 22919,
  "aucus": 11998,
  "aucuses": 27002,
  "aud": 3706,
  "aude": 23443,
  "audio": 44075,
  "auer": 14147,
  "auf": 23321,
  "auff": 37623,
  "aug": 7065,
  "auga": 40419,
  "augh": 1562,
  "aughed": 14880,
  "aughing": 43489,
  "aughlin": 35321,
  "aughs": 16283,
  "aught": 3336,
  "aughter": 3570,
  "aughtered": 29399,
  "aughters": 12114,
  "aughton": 49272,
  "aughty": 32455,
  "aukee": 12836,
  "aul": 2218,
  "auld": 36899,
  "ault": 2133,
  "aun": 7216,
  "auna": 34802,
  "aunch": 21479,
  "auner": 46333,
  "aunted": 24777,
  "aunting": 19227,
  "auntlet": 37002,
  "aunts": 44578,
  "aur": 2909,
  "aura": 31654,
  "auri": 40395,
  "auru": 40949,
  "aurus": 34141,
  "aus": 8009,
  "ause": 669,
  "ausible": 15222,
  "aut": 2569,
  "auth": 18274,
  "authent": 39936,
  "author": 9701,
  "authored": 31343,
  "authorized": 18741,
  "authors": 32914,
  "autical": 33019,
  "autiful": 37219,
  "aution": 27324,
  "autions": 30177,
  "autista": 40348,
  "auto": 37701,
  "automatic": 33816,
  "auts": 36262,
  "auty": 46413,
  "auvin": 48188,
  "aux": 14069,
  "av": 626,
  "ava": 4822,
  "avage": 39643,
  "available": 16328,
  "aval": 8796,
  "avan": 20864,
  "avascript": 31889,
  "ave": 1040,
  "aved": 9418,
  "avement": 41080,
  "aven": 5110,
  "avenport": 44710,
  "aver": 9211,
  "average": 21422,
  "avering": 39326,
  "avers": 28952,
  "avery": 11790,
  "aves": 3305,
  "avez": 21691,
  "avi": 16576,
  "avia": 18749,
  "avian": 27873,
  "avid": 46269,
  "avier": 23325,
  "avin": 19907,
  "aving": 2637,
  "avior": 20333,
  "aviour": 41465,
  "avis": 38015,
  "avoid": 25374,
  "avor": 6747,
  "avored": 42191,
  "avorite": 24048,
  "avour": 31213,
  "avy": 2911,
  "aw": 704,
  "awa": 6753,
  "awaited": 32352,
  "awar": 38085,
  "aware": 8934,
  "awareness": 40414,
  "awatt": 38315,
  "awatts": 31724,
  "away": 8089,
  "aways": 20821,
  "awed": 36296,
  "awei": 27407,
  "awi": 19586,
  "awk": 24205,
  "awks": 10570,
  "awn": 5090,
  "awning": 39986,
  "aws": 13107,
  "ax": 970,
  "axies": 20292,
  "axis": 26815,
  "axter": 34610,
  "axy": 6947,
  "ay": 318,
  "aya": 12108,
  "ayan": 21036,
  "ayas": 42779,
  "aye": 31145,
  "ayed": 12473,
  "ayer": 5223,
  "ayers": 6531,
  "ayette": 24474,
  "aying": 8096,
  "aylor": 6748,
  "ayo": 45245,
  "ayor": 38476,
  "ays": 566,
  "ayson": 28069,
  "az": 1066,
  "aza": 6141,
  "azaar": 37901,
  "azaki": 40108,
  "azar": 19412,
  "azard": 31280,
  "aze": 6819,
  "azed": 14113,
  "azeera": 19108,
  "azer": 19629,
  "azers": 25375,
  "azes": 35169,
  "azette": 46743,
  "azi": 6768,
  "azine": 4859,
  "azines": 14851,
  "azing": 4311,
  "azingly": 23421,
  "azir": 43487,
  "azon": 4645,
  "azoned": 42995,
  "azor": 18643,
  "azy": 12786,
  "azz": 7757,
  "azzi": 46629,
  "b": 98,
  "ba": 8123,
  "bable": 27792,
  "bably": 11681,
  "baby": 42805,
  "bach": 18440,
  "back": 1813,
  "backed": 13001,
  "background": 43192,
  "backs": 8889,
  "bad": 15336,
  "bag": 21689,
  "bage": 44721,
  "bags": 33359,
  "bah": 39189,
  "bai": 22829,
  "bak": 43475,
  "baked": 49686,
  "bal": 7629,
  "balance": 20255,
  "balanced": 27295,
  "balances": 46104,
  "ball": 1729,
  "balls": 18116,
  "ban": 3442,
  "band": 3722,
  "bands": 21190,
  "bane": 18175,
  "bang": 41667,
  "bank": 18634,
  "banks": 37409,
  "bar": 6874,
  "bara": 36415,
  "bard": 19611,
  "bare": 48767,
  "bars": 38013,
  "bart": 12636,
  "bas": 18451,
  "base": 9869,
  "based": 2791,
  "bash": 46997,
  "basic": 45471,
  "basically": 49808,
  "bass": 42679,
  "bast": 18309,
  "bat": 11372,
  "batch": 38879,
  "bath": 37090,
  "bats": 40680,
  "battle": 48247,
  "baum": 22074,
  "bay": 31814,
  "bb": 16980,
  "bc": 25619,
  "bd": 35355,
  "be": 1366,
  "bean": 14061,
  "beans": 41035,
  "bear": 48407,
  "bearing": 28664,
  "beat": 11666,
  "bec": 8220,
  "because": 12470,
  "becca": 19277,
  "beck": 24320,
  "becue": 27220,
  "bed": 3111,
  "bedroom": 28713,
  "bee": 21622,
  "been": 41233,
  "beer": 46320,
  "bees": 46687,
  "before": 21244,
  "begin": 31289,
  "beh": 20870,
  "behind": 40193,
  "being": 11112,
  "beit": 12973,
  "bek": 36750,
  "bel": 6827,
  "belie": 24521,
  "belief": 21899,
  "believ": 15872,
  "believe": 40173,
  "believers": 34999,
  "bell": 7910,
  "below": 34916,
  "belt": 36165,
  "ben": 11170,
  "bench": 27284,
  "bender": 44504,
  "bending": 48313,
  "benef": 32951,
  "benefit": 42183,
  "bent": 39301,
  "ber": 518,
  "bered": 9601,
  "berg": 3624,
  "berger": 18497,
  "bergh": 48758,
  "berman": 26081,
  "bern": 27698,
  "bernatorial": 30599,
  "berra": 25936,
  "berries": 23481,
  "berry": 9425,
  "bers": 1157,
  "bersome": 36422,
  "berspace": 37589,
  "bert": 4390,
  "berto": 26703,
  "bery": 11437,
  "bes": 11528,
  "best": 12902,
  "bestos": 38535,
  "bet": 12089,
  "beta": 37179,
  "beth": 47894,
  "better": 24341,
  "between": 23820,
  "bey": 22340,
  "beyond": 44842,
  "bf": 30046,
  "bi": 9038,
  "bial": 20058,
  "bian": 11035,
  "bians": 26135,
  "biased": 34020,
  "bid": 25312,
  "bidden": 45188,
  "bie": 12319,
  "bies": 33461,
  "big": 13233,
  "biggest": 34438,
  "bike": 28679,
  "bil": 28395,
  "bill": 36214,
  "billion": 18446,
  "bilt": 29314,
  "bin": 10645,
  "binary": 42585,
  "bind": 36922,
  "binding": 32074,
  "bing": 9967,
  "biological": 49693,
  "biology": 43899,
  "bird": 19692,
  "birds": 32028,
  "birth": 25896,
  "bisc": 48876,
  "bish": 27540,
  "bishop": 22353,
  "bit": 2639,
  "bitcoin": 46540,
  "bite": 38396,
  "bitious": 11194,
  "bits": 9759,
  "biz": 49507,
  "bl": 2997,
  "black": 14423,
  "blad": 47540,
  "blade": 38909,
  "blank": 29065,
  "blatt": 44140,
  "blazoned": 43915,
  "ble": 906,
  "bled": 19754,
  "blem": 13958,
  "blematic": 38648,
  "blems": 24319,
  "bler": 48441,
  "blers": 40913,
  "bles": 12611,
  "bley": 31589,
  "blic": 49073,
  "blind": 30135,
  "bling": 18078,
  "block": 11481,
  "blocking": 36146,
  "blocks": 34405,
  "blog": 14677,
  "blogs": 49129,
  "blogspot": 41150,
  "blood": 20523,
  "blooded": 46152,
  "blower": 47708,
  "blowing": 41633,
  "blown": 25486,
  "blue": 20639,
  "bly": 36775,
  "bn": 8445,
  "bnb": 26406,
  "bo": 2438,
  "board": 3730,
  "boarding": 21400,
  "boards": 12416,
  "boat": 23533,
  "boats": 40466,
  "bodied": 39064,
  "body": 2365,
  "boggling": 46068,
  "bol": 34471,
  "bold": 35983,
  "bole": 37976,
  "bolic": 47659,
  "bolt": 33330,
  "bomb": 29021,
  "bon": 3957,
  "bone": 15502,
  "bones": 36085,
  "bons": 21943,
  "book": 1814,
  "books": 10705,
  "boot": 27273,
  "bor": 2730,
  "border": 22878,
  "borg": 26371,
  "borgh": 43644,
  "borghini": 46177,
  "borhood": 29060,
  "born": 6389,
  "borne": 12295,
  "boro": 21115,
  "borough": 14722,
  "bors": 36129,
  "bos": 43023,
  "bot": 16271,
  "both": 16379,
  "bott": 37910,
  "bottom": 26913,
  "bound": 10713,
  "bour": 4805,
  "bourg": 21988,
  "bourne": 10365,
  "bow": 9383,
  "bows": 28513,
  "box": 3850,
  "boxes": 33826,
  "boxing": 40184,
  "boy": 6902,
  "boyfriend": 48500,
  "boys": 11381,
  "bp": 48995,
  "bps": 19410,
  "br": 1724,
  "bra": 17173,
  "brace": 46669,
  "brain": 28618,
  "brainer": 37223,
  "bral": 25493,
  "brance": 30855,
  "brand": 20277,
  "branded": 28864,
  "branding": 43590,
  "bras": 45478,
  "braska": 15393,
  "brate": 38641,
  "brates": 40068,
  "bre": 4814,
  "bread": 30313,
  "break": 9348,
  "breakable": 48671,
  "breaker": 27726,
  "breakers": 43772,
  "breaking": 11091,
  "breaks": 25998,
  "bred": 35635,
  "breed": 35220,
  "breeding": 46663,
  "brew": 12489,
  "brid": 10017,
  "bridge": 9081,
  "brids": 34469,
  "bright": 29040,
  "bring": 40198,
  "bringing": 29532,
  "bro": 7839,
  "broad": 36580,
  "broken": 23440,
  "brook": 18016,
  "brother": 35256,
  "brough": 38787,
  "brow": 31319,
  "brown": 38067,
  "browser": 47043,
  "brush": 32174,
  "bs": 1579,
  "bsite": 14777,
  "bsp": 27156,
  "bt": 27741,
  "bu": 12509,
  "bub": 45833,
  "buck": 33054,
  "bucks": 18206,
  "budget": 28501,
  "buffer": 40418,
  "bug": 32902,
  "bugs": 46901,
  "build": 15565,
  "builder": 41452,
  "builders": 48457,
  "building": 15072,
  "built": 19056,
  "bul": 14484,
  "bull": 13668,
  "bullying": 43299,
  "bum": 3732,
  "buquerque": 29902,
  "bur": 6189,
  "burg": 6883,
  "burgh": 7987,
  "burn": 12048,
  "burning": 40533,
  "bury": 9620,
  "bus": 18479,
  "business": 20025,
  "buster": 20528,
  "busters": 24594,
  "but": 4622,
  "butt": 44832,
  "button": 23232,
  "buy": 27218,
  "by": 1559,
  "bye": 16543,
  "byn": 12235,
  "bys": 40612,
  "byte": 39860,
  "byter": 32954,
  "bytes": 48773,
  "c": 99,
  "cTV": 44191,
  "ca": 8303,
  "cache": 35191,
  "cade": 35134,
  "cair": 29790,
  "cake": 33048,
  "cakes": 39177,
  "cal": 10840,
  "cale": 39557,
  "calf": 46419,
  "caliber": 34492,
  "call": 16528,
  "called": 5907,
  "calling": 37215,
  "cam": 22064,
  "camera": 23117,
  "camp": 17795,
  "campaign": 43549,
  "campus": 40528,
  "can": 6056,
  "cancer": 46406,
  "cand": 44169,
  "cann": 29677,
  "cannot": 48135,
  "cano": 21897,
  "cap": 11030,
  "capable": 47469,
  "capacity": 37022,
  "cape": 36089,
  "capital": 23239,
  "capitalist": 38109,
  "caps": 25466,
  "capt": 37580,
  "car": 8007,
  "carb": 49058,
  "carbon": 24896,
  "card": 11322,
  "cards": 31697,
  "care": 5783,
  "career": 48480,
  "carry": 30772,
  "carrying": 46632,
  "cars": 31190,
  "cart": 32008,
  "cas": 27916,
  "case": 8489,
  "cases": 32154,
  "cash": 36417,
  "cast": 2718,
  "caster": 30725,
  "casters": 34418,
  "casting": 20179,
  "castle": 15054,
  "casts": 32513,
  "cat": 12237,
  "catch": 41956,
  "catching": 43033,
  "category": 33299,
  "cation": 25379,
  "cats": 23457,
  "cault": 49354,
  "cause": 24465,
  "caused": 43327,
  "causing": 45825,
  "cb": 42793,
  "cc": 529,
  "cca": 13702,
  "ccess": 1525,
  "cci": 40471,
  "ccoli": 35290,
  "ccording": 2412,
  "cd": 16609,
  "ce": 346,
  "cean": 5444,
  "ceans": 16826,
  "ced": 773,
  "cedented": 9639,
  "cedes": 15627,
  "ceed": 2982,
  "ceivable": 41756,
  "ceived": 6623,
  "cel": 5544,
  "cele": 46586,
  "celer": 6973,
  "cell": 4238,
  "cellaneous": 38643,
  "cellent": 40514,
  "cells": 45906,
  "celona": 11635,
  "cember": 2940,
  "cence": 32454,
  "cend": 13634,
  "cent": 1023,
  "center": 20497,
  "centered": 33287,
  "central": 32824,
  "centre": 44924,
  "centric": 22880,
  "century": 11444,
  "cephal": 46626,
  "cept": 1048,
  "ception": 4763,
  "ceptions": 9541,
  "ceptive": 23706,
  "cer": 1056,
  "cerer": 43722,
  "cerity": 37490,
  "cers": 6965,
  "cert": 31777,
  "certain": 6509,
  "certified": 49194,
  "cery": 31416,
  "ces": 728,
  "cess": 978,
  "cession": 40134,
  "cessive": 45065,
  "cest": 9658,
  "cester": 28499,
  "cf": 22720,
  "ch": 354,
  "cha": 14075,
  "chain": 7529,
  "chains": 34667,
  "chair": 14467,
  "chairman": 44566,
  "chairs": 43792,
  "chal": 38485,
  "champ": 45401,
  "chan": 3613,
  "chance": 40431,
  "change": 3846,
  "changed": 45008,
  "changer": 44933,
  "changes": 39761,
  "changing": 19706,
  "channel": 29598,
  "chant": 16877,
  "chantment": 42225,
  "char": 13479,
  "character": 22970,
  "chard": 28582,
  "charg": 11510,
  "charge": 12563,
  "charged": 16692,
  "charges": 36685,
  "charging": 30990,
  "chat": 18797,
  "che": 2646,
  "check": 10218,
  "checked": 25532,
  "checking": 35779,
  "checks": 36329,
  "ched": 1650,
  "chedel": 19901,
  "cheek": 46042,
  "chel": 27781,
  "chell": 10610,
  "chem": 19700,
  "chemical": 31661,
  "chemist": 49078,
  "chemy": 34028,
  "chen": 6580,
  "chenko": 36060,
  "chens": 24120,
  "cheon": 34586,
  "cher": 4183,
  "chers": 6587,
  "chery": 32559,
  "ches": 2104,
  "chest": 49063,
  "chester": 32895,
  "chet": 24539,
  "chett": 48599,
  "chev": 48452,
  "chewan": 23158,
  "chez": 46403,
  "chi": 13120,
  "chie": 2892,
  "chief": 15856,
  "child": 9764,
  "children": 16096,
  "chin": 23811,
  "ching": 10406,
  "chini": 43078,
  "chio": 37176,
  "chip": 33566,
  "chkin": 39454,
  "chn": 1277,
  "chner": 49639,
  "chnology": 17550,
  "chnya": 39920,
  "cho": 6490,
  "choice": 22182,
  "chon": 49659,
  "chool": 1169,
  "christ": 44770,
  "chron": 12251,
  "chs": 49242,
  "cht": 19020,
  "chuk": 35040,
  "chup": 43449,
  "church": 29890,
  "chy": 29073,
  "ci": 1057,
  "cia": 31570,
  "cial": 2495,
  "cially": 1969,
  "ciation": 18862,
  "cible": 40501,
  "cie": 48820,
  "cience": 4293,
  "ciences": 41419,
  "cient": 3661,
  "cientific": 46119,
  "cier": 27487,
  "cies": 3036,
  "cific": 8384,
  "cifically": 17196,
  "cified": 20917,
  "cig": 19885,
  "cigarette": 38634,
  "cigarettes": 26861,
  "cil": 2528,
  "ciless": 34489,
  "cill": 14763,
  "cillor": 38785,
  "cin": 20080,
  "cing": 2118,
  "cio": 41694,
  "cion": 44929,
  "cious": 5147,
  "ciously": 18812,
  "cip": 25166,
  "cipl": 19705,
  "cipled": 31545,
  "ciples": 7011,
  "ciplinary": 29698,
  "cipline": 37877,
  "circ": 21854,
  "cision": 19228,
  "cit": 47159,
  "citation": 11147,
  "citizens": 40942,
  "city": 21886,
  "cium": 22162,
  "cius": 44432,
  "civil": 31872,
  "ck": 732,
  "cken": 47574,
  "cker": 13642,
  "cki": 43615,
  "cking": 37681,
  "cknow": 4717,
  "cko": 48962,
  "cks": 4863,
  "cl": 1327,
  "clad": 31666,
  "claim": 8591,
  "claimed": 13275,
  "claimer": 32251,
  "clair": 24193,
  "clamation": 24550,
  "clar": 48733,
  "class": 5416,
  "classes": 47225,
  "classic": 44060,
  "classified": 38105,
  "cle": 3031,
  "clean": 28246,
  "clear": 25883,
  "clearly": 47486,
  "cled": 20593,
  "cler": 36570,
  "cles": 7685,
  "cli": 44070,
  "clic": 40559,
  "click": 15850,
  "client": 26895,
  "cliffe": 30887,
  "climate": 32806,
  "cling": 8211,
  "clinical": 49484,
  "clinton": 40152,
  "clipse": 31151,
  "clist": 47451,
  "clists": 35893,
  "clock": 18546,
  "clone": 46855,
  "close": 23713,
  "closed": 14649,
  "closure": 13827,
  "closures": 37320,
  "cloud": 25016,
  "club": 17471,
  "clus": 2790,
  "clusion": 14642,
  "clusions": 41128,
  "clusive": 16238,
  "cm": 16089,
  "cmd": 49942,
  "cn": 30840,
  "co": 1320,
  "coal": 28816,
  "coaster": 47181,
  "coat": 33832,
  "cock": 18513,
  "cod": 21891,
  "code": 12147,
  "coded": 38336,
  "codes": 43808,
  "coding": 43003,
  "coe": 44014,
  "coff": 49701,
  "coh": 5202,
  "cohol": 5568,
  "coholic": 22112,
  "coin": 3399,
  "coins": 13474,
  "col": 5640,
  "cold": 36967,
  "coll": 21848,
  "collar": 28195,
  "collect": 34664,
  "college": 45771,
  "colm": 15814,
  "colonial": 36488,
  "color": 15276,
  "colored": 26033,
  "column": 38928,
  "com": 914,
  "comb": 22240,
  "combat": 38988,
  "combe": 39839,
  "come": 3065,
  "comed": 12326,
  "comes": 8980,
  "comfort": 19464,
  "coming": 4340,
  "comings": 25035,
  "comm": 14551,
  "command": 33197,
  "comment": 25161,
  "comments": 31370,
  "commerce": 22642,
  "commercial": 36889,
  "commit": 36100,
  "committee": 22629,
  "common": 19165,
  "commun": 10586,
  "communication": 31430,
  "communications": 18968,
  "communist": 45316,
  "community": 30262,
  "comp": 11509,
  "compan": 33956,
  "company": 41777,
  "compared": 47264,
  "compass": 16090,
  "compat": 35107,
  "compatible": 40511,
  "compet": 22576,
  "competitive": 35857,
  "compl": 23401,
  "complete": 19833,
  "completely": 35793,
  "complex": 49233,
  "compliance": 48165,
  "compliant": 48743,
  "component": 46762,
  "comput": 35941,
  "computer": 29042,
  "con": 1058,
  "conc": 47053,
  "conceived": 39999,
  "concept": 36890,
  "concer": 42607,
  "cond": 18414,
  "condition": 31965,
  "conds": 34023,
  "conduct": 37399,
  "cone": 49886,
  "conf": 9025,
  "conference": 31656,
  "confidence": 32827,
  "confident": 49574,
  "config": 19214,
  "confirmed": 32771,
  "cong": 44185,
  "coni": 30074,
  "conn": 35127,
  "connect": 12477,
  "connected": 17882,
  "conom": 1279,
  "cons": 6051,
  "conscious": 18227,
  "consciously": 42686,
  "conservative": 32140,
  "consider": 47195,
  "console": 48612,
  "conspir": 46362,
  "const": 9802,
  "constitutional": 14915,
  "consumer": 45355,
  "consuming": 29834,
  "cont": 4209,
  "contact": 34695,
  "contained": 41029,
  "container": 44225,
  "containing": 41686,
  "content": 16737,
  "context": 39709,
  "contin": 25627,
  "continent": 42511,
  "continental": 29989,
  "continue": 49153,
  "contract": 27808,
  "control": 15131,
  "controlled": 12551,
  "controller": 38984,
  "conv": 47241,
  "cook": 31892,
  "cool": 24509,
  "coon": 29488,
  "cop": 28134,
  "copy": 41552,
  "cor": 10499,
  "core": 8379,
  "corn": 23868,
  "corporate": 43240,
  "correct": 29977,
  "corruption": 34163,
  "cos": 6000,
  "cosm": 48728,
  "cost": 14836,
  "cosystem": 9942,
  "cot": 19835,
  "cott": 11574,
  "cou": 45151,
  "could": 20863,
  "coun": 47713,
  "count": 11946,
  "counter": 23201,
  "country": 21365,
  "course": 19824,
  "court": 17592,
  "cover": 8633,
  "covered": 29415,
  "covering": 43878,
  "covery": 16101,
  "cow": 7050,
  "cox": 38111,
  "cp": 24669,
  "cpp": 47869,
  "cr": 7806,
  "cracy": 19181,
  "craft": 3727,
  "crafted": 39336,
  "crat": 12627,
  "cratic": 44666,
  "crazy": 42537,
  "cre": 10497,
  "cream": 42847,
  "creat": 22985,
  "create": 21889,
  "created": 25235,
  "creating": 43102,
  "creation": 38822,
  "creative": 46885,
  "creator": 40331,
  "credit": 41331,
  "creen": 33400,
  "crib": 9087,
  "cribe": 35727,
  "cribed": 13214,
  "cribing": 37332,
  "crime": 23179,
  "criminal": 37113,
  "cript": 7007,
  "cription": 7958,
  "criptions": 22227,
  "crisis": 42205,
  "crit": 43400,
  "critical": 23505,
  "cro": 21366,
  "croft": 31624,
  "cross": 21701,
  "cru": 36002,
  "cry": 15378,
  "crypt": 35997,
  "cs": 13785,
  "css": 31673,
  "ct": 332,
  "ctic": 8993,
  "ctica": 23136,
  "ction": 631,
  "ctioned": 40781,
  "ctions": 2831,
  "ctive": 46911,
  "ctl": 42993,
  "ctor": 2602,
  "ctors": 4555,
  "ctr": 9216,
  "ctrine": 32116,
  "ctuary": 29493,
  "cturnal": 48632,
  "cu": 32808,
  "cue": 19281,
  "cul": 3741,
  "cular": 11546,
  "culation": 15587,
  "cule": 21684,
  "cules": 14037,
  "culosis": 35360,
  "cult": 35850,
  "cultural": 26412,
  "culture": 21312,
  "culus": 15674,
  "cum": 40722,
  "cup": 29030,
  "cur": 19516,
  "currency": 33405,
  "current": 16783,
  "currently": 36523,
  "cus": 7770,
  "cussion": 33746,
  "custom": 30375,
  "cut": 9189,
  "cuts": 23577,
  "cutting": 25074,
  "cy": 972,
  "cycl": 19313,
  "cycle": 29396,
  "cyclop": 25589,
  "cyclopedia": 29089,
  "cyl": 40133,
  "cylinder": 43318,
  "cz": 29348,
  "cÃ©": 27139,
  "cÃ©e": 47323,
  "d": 100,
  "da": 7899,
  "dad": 43360,
  "dahl": 36070,
  "daily": 27531,
  "dailycall": 45564,
  "dailycallernewsfoundation": 48265,
  "dain": 22868,
  "dal": 35054,
  "dala": 38729,
  "dale": 13009,
  "dam": 12325,
  "damage": 37011,
  "dan": 25054,
  "dangerous": 40188,
  "daq": 44045,
  "dar": 26322,
  "dark": 25636,
  "das": 44597,
  "dash": 47384,
  "dat": 29274,
  "data": 11881,
  "date": 6100,
  "dated": 8829,
  "dates": 24544,
  "dating": 45297,
  "daughter": 27586,
  "day": 742,
  "days": 13812,
  "db": 15347,
  "dc": 30560,
  "dd": 2121,
  "dden": 4936,
  "dding": 30155,
  "de": 3175,
  "dead": 24948,
  "deal": 26938,
  "death": 21972,
  "deb": 17063,
  "debian": 45606,
  "debug": 48585,
  "dec": 12746,
  "decade": 39698,
  "deck": 46415,
  "ded": 9384,
  "deen": 31745,
  "deep": 19194,
  "deeply": 39713,
  "def": 6134,
  "default": 23859,
  "defence": 42363,
  "defense": 17684,
  "define": 30384,
  "defined": 25156,
  "definition": 43907,
  "defunct": 49054,
  "degree": 14444,
  "del": 15075,
  "delegates": 41129,
  "dem": 8450,
  "demand": 24743,
  "democracy": 32340,
  "democratic": 31906,
  "demonst": 48868,
  "den": 5314,
  "density": 43537,
  "dep": 11062,
  "depend": 40889,
  "dependent": 22384,
  "depending": 44462,
  "depth": 17900,
  "der": 1154,
  "derived": 32765,
  "des": 8858,
  "desc": 16404,
  "describ": 26140,
  "described": 28678,
  "description": 29544,
  "design": 26212,
  "designed": 26505,
  "despite": 33239,
  "dest": 18121,
  "destroy": 46456,
  "destructive": 46056,
  "det": 19727,
  "details": 48531,
  "deter": 21927,
  "determination": 32842,
  "determined": 47982,
  "dev": 12068,
  "develop": 15603,
  "developed": 28050,
  "development": 32200,
  "device": 34952,
  "df": 11475,
  "di": 13216,
  "dia": 35180,
  "diagn": 49267,
  "dial": 47822,
  "dict": 10971,
  "did": 19655,
  "didn": 37978,
  "die": 15338,
  "dies": 22315,
  "diff": 32962,
  "different": 39097,
  "dig": 13385,
  "digit": 23954,
  "digital": 37121,
  "digy": 43080,
  "dim": 49828,
  "dimensional": 18094,
  "din": 21940,
  "dinand": 31644,
  "ding": 12488,
  "diocese": 40491,
  "dir": 28449,
  "direct": 13252,
  "directed": 29079,
  "direction": 39144,
  "director": 27201,
  "dirty": 44047,
  "dis": 6457,
  "disc": 14955,
  "disciplinary": 40026,
  "discrimination": 33014,
  "display": 14020,
  "displaystyle": 18196,
  "dist": 18537,
  "distance": 29194,
  "dit": 8656,
  "ditch": 48871,
  "div": 9670,
  "division": 30055,
  "dk": 49492,
  "dl": 42725,
  "dll": 35135,
  "dn": 40656,
  "dney": 9023,
  "do": 4725,
  "doc": 21672,
  "docs": 41184,
  "doctor": 32818,
  "doctoral": 37780,
  "document": 28008,
  "documented": 37108,
  "does": 21176,
  "doesn": 38649,
  "dog": 9091,
  "dogs": 21348,
  "doi": 33573,
  "doing": 16000,
  "dollar": 17352,
  "dom": 3902,
  "domain": 38178,
  "dome": 47189,
  "dominal": 35906,
  "dominated": 26191,
  "don": 9446,
  "donald": 34744,
  "done": 29500,
  "dong": 46739,
  "door": 9011,
  "doors": 19141,
  "dor": 43575,
  "dorf": 49981,
  "dos": 37444,
  "dose": 41906,
  "dot": 29304,
  "dou": 24844,
  "doub": 38002,
  "double": 27293,
  "down": 2933,
  "download": 27651,
  "downs": 32300,
  "dozen": 34202,
  "doÄŁan": 32308,
  "dp": 46156,
  "dr": 11149,
  "draft": 34559,
  "dragon": 27780,
  "draw": 26420,
  "drawn": 37914,
  "dream": 29629,
  "dress": 49971,
  "dri": 8720,
  "drive": 24408,
  "driven": 13417,
  "driver": 32247,
  "driving": 18525,
  "dro": 7045,
  "drop": 12739,
  "dropping": 30387,
  "drug": 28287,
  "dry": 39699,
  "ds": 10414,
  "dt": 46098,
  "du": 655,
  "dub": 47238,
  "duc": 6383,
  "ducers": 41154,
  "duct": 2687,
  "ducted": 20335,
  "duction": 27897,
  "due": 21614,
  "duino": 25839,
  "dule": 5888,
  "dump": 49687,
  "during": 41217,
  "duty": 23108,
  "dx": 47265,
  "dy": 10203,
  "e": 101,
  "ea": 25659,
  "each": 30488,
  "ead": 1326,
  "eah": 4929,
  "eal": 2206,
  "ealing": 33980,
  "ealous": 16215,
  "eals": 9502,
  "ean": 3904,
  "eanor": 17266,
  "ear": 464,
  "earable": 35473,
  "earance": 31055,
  "earch": 4107,
  "earchers": 13224,
  "eared": 3144,
  "earing": 7265,
  "early": 10435,
  "earned": 33412,
  "ears": 4449,
  "earth": 18858,
  "eas": 26667,
  "east": 23246,
  "eastern": 45332,
  "easy": 38330,
  "eat": 28591,
  "eating": 26459,
  "eb": 1938,
  "eban": 40288,
  "ebel": 47208,
  "ebra": 36011,
  "ebted": 35758,
  "ebus": 25677,
  "ec": 767,
  "eca": 29568,
  "ecake": 48716,
  "ecast": 44409,
  "ecause": 3046,
  "ecd": 18437,
  "ech": 2750,
  "eches": 13783,
  "echo": 44412,
  "econom": 12544,
  "economic": 15406,
  "economics": 44098,
  "ect": 524,
  "ected": 16022,
  "ection": 8659,
  "ective": 9183,
  "ectives": 36893,
  "ector": 14146,
  "ects": 11562,
  "ecut": 8253,
  "ecutive": 9003,
  "ecycle": 44124,
  "ed": 275,
  "edIn": 16558,
  "eda": 22544,
  "edar": 45654,
  "edd": 5818,
  "eddy": 22640,
  "ede": 16621,
  "eded": 12805,
  "eder": 5353,
  "ederal": 1807,
  "ederation": 9241,
  "edes": 34252,
  "edge": 14829,
  "edged": 43149,
  "edi": 43638,
  "edia": 5658,
  "edience": 21969,
  "edient": 41486,
  "edin": 20296,
  "eding": 8760,
  "edit": 35954,
  "edited": 38769,
  "edition": 28735,
  "editor": 38700,
  "edly": 40378,
  "edo": 25949,
  "eds": 5602,
  "edu": 20611,
  "educ": 15925,
  "educated": 21832,
  "education": 35211,
  "edy": 6186,
  "ee": 1774,
  "eed": 2952,
  "eeds": 38374,
  "eeks": 26883,
  "eely": 37188,
  "een": 10045,
  "eer": 28333,
  "eering": 38945,
  "ees": 2881,
  "eez": 34961,
  "ef": 981,
  "efa": 48825,
  "efe": 17952,
  "efeated": 28963,
  "efer": 34700,
  "eff": 3221,
  "effect": 27854,
  "effective": 26201,
  "effects": 33843,
  "effic": 39754,
  "efficient": 21820,
  "efficients": 44635,
  "efined": 22404,
  "efully": 6520,
  "eg": 22372,
  "egg": 44517,
  "egis": 47310,
  "eh": 35148,
  "ei": 19245,
  "eight": 24404,
  "eira": 47160,
  "either": 31587,
  "ek": 927,
  "eka": 35102,
  "eking": 18294,
  "eks": 2324,
  "el": 432,
  "ela": 9374,
  "elaide": 19052,
  "eland": 8426,
  "elcome": 11930,
  "eld": 46584,
  "ele": 9644,
  "elect": 7853,
  "elected": 20619,
  "election": 10522,
  "electric": 25234,
  "eled": 17405,
  "element": 42506,
  "eler": 45403,
  "eless": 5119,
  "elf": 14663,
  "elfth": 42404,
  "eli": 45587,
  "elia": 30260,
  "elian": 47871,
  "elight": 40687,
  "eligible": 29049,
  "elin": 25283,
  "eline": 4345,
  "elines": 17796,
  "eling": 10369,
  "ell": 968,
  "ella": 14604,
  "ellar": 14421,
  "ellation": 25955,
  "elle": 11138,
  "elled": 17798,
  "ellen": 34661,
  "eller": 11875,
  "ellery": 41557,
  "elli": 26325,
  "elling": 15663,
  "ello": 11730,
  "ellow": 5973,
  "elly": 5838,
  "elman": 27150,
  "elo": 23633,
  "elong": 17807,
  "elow": 43212,
  "els": 1537,
  "else": 41788,
  "elsen": 21298,
  "elsh": 17039,
  "elsius": 28022,
  "elson": 9401,
  "elstra": 44341,
  "elt": 2102,
  "elta": 13353,
  "elve": 10698,
  "elvet": 33303,
  "em": 433,
  "ema": 21810,
  "emade": 21392,
  "email": 15053,
  "emaker": 31095,
  "emakers": 48155,
  "emale": 15635,
  "eman": 8065,
  "emann": 41793,
  "emate": 37384,
  "emb": 26083,
  "embed": 31927,
  "ember": 2580,
  "eme": 33531,
  "emed": 9282,
  "emen": 7420,
  "emer": 21910,
  "emergency": 48270,
  "emet": 16812,
  "emeter": 49140,
  "emeteries": 49727,
  "emetery": 17008,
  "emi": 42305,
  "emia": 35704,
  "emic": 10024,
  "emies": 30712,
  "emin": 12057,
  "eminent": 45294,
  "eming": 28464,
  "emit": 11783,
  "emo": 47779,
  "emocratic": 46072,
  "emon": 23885,
  "emort": 47799,
  "emos": 44772,
  "emotional": 49379,
  "emouth": 36752,
  "emphasis": 35044,
  "employ": 5833,
  "employed": 33671,
  "employment": 28353,
  "empt": 17599,
  "emption": 19403,
  "emptive": 32812,
  "empty": 37361,
  "ems": 7828,
  "emy": 21871,
  "en": 268,
  "ena": 6572,
  "enable": 30169,
  "enabled": 26547,
  "enact": 48821,
  "enal": 33633,
  "ename": 23173,
  "enance": 40303,
  "enaries": 32229,
  "enario": 38868,
  "enary": 23283,
  "enas": 29155,
  "enb": 43373,
  "enberg": 20814,
  "enburg": 31428,
  "enc": 13439,
  "ence": 584,
  "enced": 5274,
  "encer": 12026,
  "encers": 37065,
  "ences": 2962,
  "ench": 25638,
  "encia": 22510,
  "encies": 3737,
  "encing": 8976,
  "encry": 46150,
  "ency": 1337,
  "end": 396,
  "enda": 6031,
  "endale": 33036,
  "endant": 28276,
  "endants": 35223,
  "endar": 10314,
  "endars": 40003,
  "endas": 28194,
  "ende": 35206,
  "ended": 1716,
  "ender": 2261,
  "endered": 26426,
  "enders": 7048,
  "endez": 30263,
  "endi": 43117,
  "endiary": 37459,
  "ending": 1494,
  "endish": 43999,
  "endium": 49699,
  "endix": 34292,
  "endment": 5393,
  "endo": 29356,
  "endof": 701,
  "endoftext": 702,
  "endon": 31534,
  "endor": 30180,
  "endra": 38553,
  "ends": 2583,
  "endum": 46222,
  "ene": 1696,
  "ened": 2915,
  "enegger": 31996,
  "enei": 35474,
  "enemy": 47059,
  "ener": 911,
  "eneration": 18467,
  "energy": 18591,
  "eners": 43361,
  "enery": 26190,
  "enes": 18926,
  "eness": 10228,
  "eney": 46378,
  "enez": 9223,
  "enezuel": 10043,
  "enf": 24448,
  "enforcement": 36823,
  "enfranch": 29912,
  "eng": 1614,
  "enge": 3347,
  "engeance": 26296,
  "enger": 6119,
  "engers": 8070,
  "engine": 18627,
  "engineering": 34201,
  "ength": 3953,
  "engu": 13818,
  "engue": 45341,
  "enh": 23393,
  "enhanced": 47235,
  "enhancing": 46260,
  "enheim": 34527,
  "eni": 36864,
  "enic": 33841,
  "enics": 42694,
  "ening": 3002,
  "enium": 45338,
  "enko": 26288,
  "enly": 17351,
  "enment": 21531,
  "enn": 1727,
  "enna": 13014,
  "enne": 38343,
  "ennes": 37368,
  "ennett": 37477,
  "ennial": 24701,
  "ennis": 9201,
  "enny": 8177,
  "eno": 26239,
  "enos": 25853,
  "enough": 42350,
  "ens": 643,
  "ensation": 33091,
  "ense": 1075,
  "ensed": 17095,
  "ensen": 16774,
  "enses": 4884,
  "ensible": 27496,
  "ensical": 38421,
  "ensing": 26567,
  "ension": 3240,
  "ensional": 39390,
  "ensions": 5661,
  "ensis": 44248,
  "ensitive": 18756,
  "ensitivity": 42741,
  "ensity": 6762,
  "ensive": 1812,
  "enson": 16247,
  "ensor": 29450,
  "ensored": 48745,
  "ensorship": 41417,
  "enstein": 34128,
  "ensual": 28108,
  "ensus": 6535,
  "ent": 299,
  "enta": 32509,
  "ental": 10170,
  "entanyl": 36268,
  "entary": 47673,
  "ente": 20909,
  "ented": 4213,
  "enter": 9474,
  "enth": 7849,
  "enthal": 29467,
  "ential": 1722,
  "entially": 3218,
  "entials": 14348,
  "entimes": 38093,
  "entin": 30850,
  "enting": 29953,
  "ention": 1159,
  "entions": 14839,
  "entious": 40090,
  "ently": 2173,
  "enton": 23667,
  "entral": 48449,
  "entric": 21146,
  "entry": 18245,
  "ents": 756,
  "enture": 6016,
  "enty": 3659,
  "env": 31389,
  "environment": 36837,
  "eny": 32337,
  "enz": 17312,
  "enza": 22719,
  "enzie": 22088,
  "eon": 24288,
  "eons": 42185,
  "eor": 12880,
  "ep": 513,
  "epend": 2415,
  "ependence": 13998,
  "ependent": 7848,
  "eper": 42949,
  "epernick": 22455,
  "eph": 36327,
  "epid": 41034,
  "eping": 7153,
  "episode": 35573,
  "eport": 47885,
  "eprint": 18518,
  "eps": 26588,
  "ept": 7393,
  "eption": 22759,
  "epy": 47780,
  "equ": 4633,
  "equal": 41541,
  "equality": 41886,
  "equipped": 34104,
  "er": 263,
  "era": 7742,
  "eral": 1538,
  "erala": 27162,
  "erald": 11238,
  "erals": 16072,
  "erate": 27154,
  "erc": 3301,
  "ercise": 27532,
  "ere": 657,
  "ered": 1143,
  "eredith": 35354,
  "eree": 18069,
  "erek": 15880,
  "erella": 41427,
  "erem": 29756,
  "eremiah": 35052,
  "eremy": 9731,
  "eren": 17007,
  "erence": 1930,
  "erences": 4920,
  "erencing": 47169,
  "erend": 49405,
  "erent": 9803,
  "erential": 29303,
  "erer": 13468,
  "erers": 18764,
  "eret": 48533,
  "erez": 46125,
  "erg": 9208,
  "ergic": 38100,
  "ergy": 29739,
  "eri": 34006,
  "eria": 9795,
  "erial": 49289,
  "erick": 34806,
  "erie": 18585,
  "eries": 8880,
  "ering": 1343,
  "erion": 29300,
  "erk": 20717,
  "erm": 20678,
  "erman": 1961,
  "ermott": 36095,
  "ern": 1539,
  "ernal": 48120,
  "ername": 20276,
  "ernand": 10990,
  "ernandez": 15294,
  "ernaut": 31912,
  "ernel": 11800,
  "ernels": 45911,
  "erness": 17589,
  "ernews": 44936,
  "ernewsfoundation": 45944,
  "ernick": 21664,
  "erno": 31397,
  "ero": 3754,
  "eroids": 30034,
  "eros": 27057,
  "erous": 5088,
  "err": 11655,
  "erred": 40051,
  "erring": 37657,
  "error": 27011,
  "erry": 3799,
  "ers": 359,
  "ersen": 40938,
  "ersion": 12134,
  "erson": 913,
  "ert": 2017,
  "erta": 47553,
  "ertain": 1457,
  "ertainly": 16139,
  "erted": 8841,
  "ertility": 36217,
  "erting": 15472,
  "erts": 9309,
  "erv": 1265,
  "ervation": 13987,
  "ervative": 17583,
  "ervatives": 28815,
  "erve": 3623,
  "erved": 5739,
  "erver": 40988,
  "erves": 6460,
  "erville": 32704,
  "erving": 12437,
  "ery": 2276,
  "eryl": 44004,
  "es": 276,
  "esa": 45939,
  "esame": 30734,
  "esan": 45828,
  "esar": 18645,
  "esc": 6624,
  "escal": 37644,
  "escap": 41992,
  "escent": 42859,
  "escope": 16035,
  "ese": 2840,
  "esh": 8873,
  "esian": 34269,
  "esides": 12002,
  "esis": 13325,
  "esity": 13884,
  "esome": 6097,
  "eson": 31702,
  "esp": 39870,
  "especially": 15170,
  "esque": 23458,
  "ess": 413,
  "essa": 21731,
  "essage": 17993,
  "esse": 29591,
  "essed": 7368,
  "essee": 9497,
  "essen": 35817,
  "essential": 27329,
  "essentially": 43751,
  "esses": 46521,
  "essim": 23477,
  "essing": 34946,
  "ession": 2976,
  "essional": 13494,
  "essionals": 47245,
  "essions": 5603,
  "essler": 27851,
  "essment": 24066,
  "esson": 36245,
  "essor": 5974,
  "essors": 19862,
  "est": 384,
  "esta": 16186,
  "establish": 39524,
  "established": 23552,
  "establishment": 33540,
  "estan": 46924,
  "estate": 37053,
  "estation": 31025,
  "este": 17147,
  "estead": 33219,
  "ested": 10206,
  "esteem": 28184,
  "ester": 8288,
  "estern": 2959,
  "esters": 5767,
  "estial": 28504,
  "estic": 4205,
  "estinal": 25004,
  "estine": 20079,
  "esting": 44479,
  "estival": 5792,
  "esto": 40379,
  "eston": 17117,
  "estone": 12757,
  "estones": 28673,
  "estown": 49359,
  "estrian": 49139,
  "estro": 45712,
  "ests": 2726,
  "esty": 8923,
  "estyle": 10212,
  "estyles": 33975,
  "esville": 17100,
  "esy": 7419,
  "et": 322,
  "eta": 17134,
  "etary": 7609,
  "etc": 20245,
  "ete": 15491,
  "eted": 20173,
  "eteen": 30657,
  "eteenth": 24790,
  "eter": 2632,
  "etera": 48213,
  "etermined": 28259,
  "eters": 8996,
  "eth": 3187,
  "ethe": 9618,
  "etheless": 10897,
  "ether": 6854,
  "etheus": 37120,
  "ethical": 26574,
  "ethlisberger": 40624,
  "ethnic": 37602,
  "ethoven": 43425,
  "ethy": 44396,
  "ethyl": 31255,
  "eti": 45482,
  "etian": 47201,
  "etic": 5511,
  "etically": 35770,
  "etics": 23058,
  "eties": 25714,
  "etime": 7805,
  "etimes": 40891,
  "eting": 13985,
  "etition": 16067,
  "etitive": 20415,
  "eto": 31578,
  "eton": 16671,
  "etooth": 17383,
  "etr": 23151,
  "etrable": 48300,
  "etration": 42521,
  "etric": 32483,
  "etro": 3745,
  "etroit": 6408,
  "etry": 34422,
  "ets": 1062,
  "etsk": 24856,
  "etsy": 32055,
  "ett": 3445,
  "etta": 14253,
  "ette": 5806,
  "ettel": 33576,
  "etter": 36524,
  "ettes": 23462,
  "etti": 22078,
  "etting": 34857,
  "etto": 45196,
  "etts": 7920,
  "etty": 4282,
  "etus": 26009,
  "ety": 2869,
  "etyl": 42561,
  "etz": 19382,
  "eu": 12916,
  "eur": 20658,
  "euro": 44078,
  "ev": 2073,
  "eva": 47233,
  "eval": 19647,
  "evaluate": 44046,
  "evelop": 46861,
  "even": 9730,
  "event": 20509,
  "events": 40865,
  "ever": 992,
  "everal": 7478,
  "every": 15539,
  "everyone": 40272,
  "everything": 33222,
  "evidence": 42023,
  "evident": 46144,
  "evil": 24005,
  "eville": 40041,
  "evin": 5899,
  "evo": 45755,
  "evolution": 45898,
  "ew": 562,
  "eware": 36430,
  "eway": 17715,
  "eworthy": 22753,
  "ews": 16713,
  "ewski": 38903,
  "ex": 1134,
  "examination": 47627,
  "example": 28693,
  "exc": 27382,
  "except": 19558,
  "excluding": 47303,
  "exclusive": 40709,
  "exe": 24617,
  "exec": 34634,
  "executive": 45948,
  "exempt": 38753,
  "exist": 49515,
  "existent": 28747,
  "existing": 22698,
  "exp": 14848,
  "expected": 35800,
  "exper": 21695,
  "experience": 43880,
  "experts": 49833,
  "expl": 21778,
  "expletive": 47194,
  "export": 47000,
  "express": 39165,
  "expression": 44374,
  "ext": 10707,
  "external": 45208,
  "extra": 33310,
  "extrem": 47809,
  "extreme": 23198,
  "extremely": 30839,
  "ey": 4975,
  "eye": 27557,
  "eyed": 18193,
  "ez": 7610,
  "f": 102,
  "fa": 19193,
  "fab": 48107,
  "fac": 35467,
  "face": 2947,
  "facebook": 22094,
  "faced": 22231,
  "faces": 33898,
  "facing": 25083,
  "fact": 20197,
  "factor": 33643,
  "facts": 32821,
  "fail": 47593,
  "failed": 41855,
  "fair": 18579,
  "faith": 36434,
  "fake": 26165,
  "fal": 48177,
  "fall": 7684,
  "falls": 20872,
  "false": 20879,
  "fam": 35200,
  "family": 18632,
  "famous": 37882,
  "fan": 16874,
  "fant": 34579,
  "far": 15281,
  "fare": 8208,
  "farious": 33117,
  "farm": 41614,
  "fasc": 46021,
  "fascist": 38102,
  "fashion": 22224,
  "fashioned": 24154,
  "fast": 7198,
  "fat": 24139,
  "fated": 45126,
  "father": 10581,
  "favorite": 45321,
  "fax": 19488,
  "fb": 36642,
  "fc": 32764,
  "fd": 30924,
  "fe": 5241,
  "fear": 47920,
  "feature": 41644,
  "fect": 2538,
  "fecture": 36111,
  "fed": 23684,
  "federal": 49759,
  "fee": 45708,
  "feed": 15180,
  "feeding": 25415,
  "feel": 33986,
  "feet": 36164,
  "feld": 13859,
  "fell": 23601,
  "felt": 28120,
  "female": 28642,
  "femin": 30066,
  "feminist": 45869,
  "fen": 48428,
  "fer": 2585,
  "ference": 4608,
  "ferred": 38659,
  "fest": 25536,
  "fet": 27705,
  "fetched": 38861,
  "few": 27288,
  "ff": 497,
  "ffe": 45769,
  "ffen": 43264,
  "ffer": 44174,
  "ffff": 35382,
  "ffield": 24240,
  "ffiti": 20489,
  "fi": 12284,
  "fiction": 21965,
  "field": 3064,
  "fielder": 45217,
  "fields": 28444,
  "fif": 29057,
  "fifth": 37346,
  "fig": 22894,
  "fight": 21126,
  "fighter": 37473,
  "fighters": 33349,
  "fighting": 25562,
  "figure": 24829,
  "figured": 47639,
  "fil": 14068,
  "file": 12450,
  "files": 27053,
  "fill": 21750,
  "filled": 18277,
  "filling": 45391,
  "fills": 47560,
  "film": 25779,
  "filter": 37046,
  "fin": 15780,
  "final": 18137,
  "finals": 23345,
  "finance": 42806,
  "financial": 39451,
  "find": 25701,
  "finder": 29441,
  "finding": 39108,
  "fine": 38244,
  "fing": 31866,
  "finger": 36194,
  "finished": 47143,
  "fire": 6987,
  "fired": 20941,
  "fires": 22514,
  "first": 11374,
  "fish": 11425,
  "fishing": 44399,
  "fit": 10431,
  "fits": 19135,
  "fitting": 29873,
  "five": 13146,
  "fix": 17593,
  "fixed": 46131,
  "fixing": 47048,
  "fl": 3145,
  "flag": 46796,
  "flash": 44326,
  "flat": 39254,
  "flation": 28574,
  "fledged": 34828,
  "fleet": 44309,
  "flex": 43698,
  "flies": 28576,
  "flight": 19964,
  "flix": 8725,
  "flo": 39023,
  "float": 26395,
  "floor": 26766,
  "flow": 12129,
  "flower": 28961,
  "flowing": 34854,
  "flows": 33771,
  "flu": 16604,
  "fly": 13723,
  "flying": 39528,
  "fm": 49567,
  "fn": 43413,
  "fo": 33158,
  "focus": 42814,
  "focused": 21735,
  "fol": 9271,
  "fold": 13660,
  "folk": 20618,
  "follow": 27803,
  "font": 26856,
  "foo": 29422,
  "food": 19425,
  "foot": 6679,
  "football": 45026,
  "footed": 38801,
  "for": 1649,
  "force": 2985,
  "forced": 36877,
  "forcement": 12923,
  "ford": 3468,
  "fore": 779,
  "foreign": 34074,
  "forest": 30365,
  "forestation": 31029,
  "fork": 31966,
  "form": 716,
  "formance": 11896,
  "format": 29381,
  "formation": 4829,
  "formed": 12216,
  "former": 11600,
  "formerly": 31809,
  "formers": 25912,
  "forming": 14588,
  "forms": 27970,
  "fort": 3389,
  "forth": 24750,
  "forts": 45846,
  "fortunately": 6274,
  "fortune": 39018,
  "forum": 41090,
  "forward": 11116,
  "found": 8178,
  "foundation": 37651,
  "founded": 23118,
  "founder": 12709,
  "founders": 46060,
  "foundland": 32787,
  "four": 14085,
  "fourth": 45762,
  "fox": 12940,
  "fps": 32648,
  "fr": 9983,
  "frac": 21586,
  "frame": 15266,
  "frames": 42564,
  "fre": 29173,
  "fred": 36350,
  "free": 5791,
  "freedom": 34158,
  "frequ": 29922,
  "frequency": 35011,
  "fresh": 46802,
  "frey": 30992,
  "fried": 29687,
  "friend": 6552,
  "friendly": 11326,
  "friends": 38209,
  "from": 7627,
  "front": 7701,
  "frontal": 34950,
  "fruit": 35477,
  "fs": 12932,
  "ft": 729,
  "ften": 14451,
  "fter": 618,
  "fters": 41878,
  "ftime": 26475,
  "fts": 37385,
  "fu": 28374,
  "fuck": 35181,
  "fuel": 25879,
  "fueled": 38906,
  "ful": 921,
  "full": 15823,
  "fully": 2834,
  "fulness": 15661,
  "fun": 18800,
  "func": 39983,
  "function": 10735,
  "functional": 43124,
  "fund": 9109,
  "funded": 13988,
  "funding": 20009,
  "fur": 35896,
  "furt": 24627,
  "fusc": 32531,
  "future": 37807,
  "fy": 26862,
  "g": 103,
  "ga": 4742,
  "gaard": 29217,
  "gado": 42395,
  "gae": 21464,
  "gage": 21340,
  "gain": 48776,
  "gal": 10579,
  "galitarian": 31448,
  "gall": 23831,
  "gallery": 47227,
  "gallon": 49707,
  "gam": 25953,
  "game": 6487,
  "gamer": 37110,
  "games": 28463,
  "gan": 945,
  "gang": 26597,
  "gans": 32690,
  "gap": 38547,
  "gar": 4992,
  "gard": 23801,
  "garde": 46336,
  "garian": 32592,
  "gars": 25999,
  "gart": 34127,
  "gary": 12174,
  "gas": 6559,
  "gasus": 47671,
  "gat": 29393,
  "gate": 10731,
  "gates": 48492,
  "gathere": 46994,
  "gathering": 45531,
  "gay": 18165,
  "gb": 45512,
  "ge": 481,
  "geant": 25812,
  "gear": 39478,
  "gebra": 29435,
  "gecoin": 43632,
  "ged": 1937,
  "gee": 37920,
  "geist": 42757,
  "gel": 14289,
  "gem": 19581,
  "gen": 4224,
  "gence": 11687,
  "gencies": 30768,
  "gency": 4584,
  "gender": 6905,
  "gener": 8088,
  "general": 22188,
  "generally": 48956,
  "generated": 28332,
  "generation": 15764,
  "generational": 46635,
  "genic": 43225,
  "gent": 6168,
  "gently": 28929,
  "geon": 8631,
  "geoning": 26183,
  "geons": 31187,
  "ger": 1404,
  "gerald": 22071,
  "gered": 9772,
  "geries": 25044,
  "gering": 23068,
  "gers": 4899,
  "gery": 6843,
  "ges": 3096,
  "gest": 2977,
  "get": 1140,
  "gether": 1896,
  "getown": 23853,
  "gets": 10456,
  "gett": 43545,
  "gettable": 37228,
  "getting": 33584,
  "gev": 49858,
  "gex": 36278,
  "gey": 35872,
  "gg": 1014,
  "gged": 10902,
  "gger": 20419,
  "ggest": 1768,
  "ggie": 20115,
  "ggies": 33331,
  "gging": 17511,
  "ggle": 15868,
  "ggles": 31601,
  "ggs": 40420,
  "ggy": 18592,
  "gh": 462,
  "ghai": 16570,
  "ghan": 4468,
  "ghazi": 16729,
  "ghed": 36566,
  "gi": 13526,
  "gia": 6045,
  "gian": 13062,
  "gic": 24689,
  "gie": 20258,
  "giene": 27426,
  "gif": 47547,
  "gil": 38882,
  "gin": 1621,
  "ging": 2712,
  "gins": 45834,
  "ginx": 37491,
  "gio": 21994,
  "girl": 17753,
  "girlfriend": 38515,
  "girls": 39355,
  "git": 24631,
  "github": 22904,
  "give": 30102,
  "given": 31638,
  "giving": 13144,
  "gl": 5508,
  "glas": 12641,
  "glass": 21926,
  "gling": 33935,
  "global": 23539,
  "glomer": 28093,
  "gly": 10962,
  "gmail": 19050,
  "gment": 5570,
  "gments": 12066,
  "gn": 5142,
  "go": 2135,
  "goal": 27789,
  "god": 33016,
  "goers": 24149,
  "going": 4569,
  "gold": 25570,
  "gom": 16221,
  "gomery": 16800,
  "gon": 17346,
  "gone": 18820,
  "good": 10978,
  "google": 24153,
  "gor": 6706,
  "gorith": 7376,
  "got": 24604,
  "gotten": 28196,
  "gov": 11290,
  "govern": 38429,
  "government": 11680,
  "governmental": 26981,
  "govina": 49351,
  "gow": 17572,
  "gp": 41998,
  "gr": 894,
  "gra": 35940,
  "grab": 35737,
  "grad": 10669,
  "gradation": 24686,
  "grade": 10110,
  "graded": 32176,
  "grades": 46078,
  "grading": 46600,
  "graduate": 39572,
  "gram": 1248,
  "grams": 45442,
  "grand": 22324,
  "graph": 10502,
  "grass": 29183,
  "grat": 16728,
  "grav": 15900,
  "grave": 35696,
  "gravity": 46054,
  "gre": 32124,
  "greSQL": 46373,
  "great": 16371,
  "gree": 13033,
  "green": 15179,
  "greg": 6363,
  "gregated": 25022,
  "gregation": 12837,
  "gren": 28150,
  "gres": 40318,
  "gress": 1788,
  "gression": 29810,
  "gressions": 40824,
  "gressive": 22943,
  "grid": 28054,
  "gro": 14178,
  "gross": 34541,
  "ground": 2980,
  "grounds": 34102,
  "group": 12206,
  "groups": 30008,
  "grove": 45370,
  "growing": 19749,
  "grown": 18325,
  "growth": 26035,
  "gru": 45385,
  "gs": 15952,
  "gt": 12846,
  "gu": 4728,
  "guably": 42656,
  "guard": 12587,
  "guardian": 48798,
  "guards": 20169,
  "gue": 17067,
  "guided": 19563,
  "gun": 7771,
  "guns": 46532,
  "gur": 40071,
  "gus": 10149,
  "guy": 40892,
  "guyen": 31165,
  "gy": 1290,
  "gyn": 32893,
  "gypt": 5017,
  "gyz": 40968,
  "gz": 43989,
  "h": 104,
  "ha": 3311,
  "haar": 32677,
  "hab": 5696,
  "habet": 38443,
  "habi": 27580,
  "hack": 35775,
  "had": 17099,
  "hai": 45414,
  "hair": 43623,
  "haired": 28836,
  "hairs": 49205,
  "hak": 44985,
  "hal": 14685,
  "half": 12248,
  "hall": 18945,
  "ham": 2614,
  "hammad": 13286,
  "hammer": 27717,
  "han": 9061,
  "hand": 5376,
  "handed": 12157,
  "handedly": 35846,
  "hander": 32016,
  "handle": 39239,
  "handling": 43205,
  "hands": 39900,
  "hang": 31470,
  "hani": 29824,
  "hao": 37025,
  "hap": 44859,
  "happy": 31914,
  "haps": 2554,
  "har": 9657,
  "hard": 9871,
  "hardt": 23287,
  "hare": 41916,
  "hari": 48996,
  "hark": 43229,
  "harm": 28267,
  "harmed": 46809,
  "hart": 17475,
  "has": 10421,
  "hash": 22299,
  "hat": 17705,
  "hate": 31047,
  "hatt": 9664,
  "hattan": 10450,
  "haul": 13211,
  "haus": 26626,
  "hausen": 46555,
  "have": 13288,
  "haven": 37522,
  "having": 37474,
  "haw": 18514,
  "hawk": 44421,
  "hawks": 23188,
  "he": 258,
  "hea": 24286,
  "head": 2239,
  "headed": 14728,
  "header": 33176,
  "heading": 30079,
  "heads": 16370,
  "health": 12626,
  "healthy": 20546,
  "heard": 21177,
  "heart": 17787,
  "hearted": 18080,
  "heartedly": 37272,
  "heast": 8185,
  "heastern": 15466,
  "heat": 30309,
  "heavy": 21872,
  "hed": 708,
  "heddar": 45959,
  "hedon": 36168,
  "hedral": 19142,
  "hedul": 4995,
  "heduled": 44626,
  "hee": 20925,
  "heed": 19837,
  "heem": 47620,
  "heen": 48194,
  "heet": 34370,
  "hei": 45428,
  "heid": 21096,
  "height": 26188,
  "heim": 9042,
  "heimer": 14503,
  "heit": 27111,
  "hel": 2780,
  "helan": 44198,
  "held": 9330,
  "helial": 43564,
  "hell": 16873,
  "hello": 31277,
  "helm": 33842,
  "help": 14445,
  "helpful": 44160,
  "helps": 29527,
  "helsea": 8867,
  "hem": 4693,
  "hement": 28833,
  "hemer": 37430,
  "hemy": 31565,
  "hen": 862,
  "hence": 46325,
  "hend": 15808,
  "hene": 23993,
  "heng": 39799,
  "henko": 22337,
  "hens": 4969,
  "hensive": 28865,
  "hent": 7565,
  "heny": 43012,
  "heon": 35270,
  "her": 366,
  "here": 1468,
  "hered": 5636,
  "herence": 22244,
  "herent": 7642,
  "heres": 19324,
  "heric": 13272,
  "herical": 37926,
  "hering": 44194,
  "hern": 2624,
  "hernalia": 44095,
  "hero": 10613,
  "hers": 1911,
  "herson": 43723,
  "herst": 44246,
  "herty": 23702,
  "hes": 1021,
  "hesda": 30060,
  "heses": 41862,
  "hesia": 34182,
  "hesis": 8910,
  "hess": 41071,
  "hest": 3472,
  "hester": 17986,
  "het": 3177,
  "hetamine": 25776,
  "heter": 45902,
  "hetic": 6433,
  "hetical": 18234,
  "hetically": 28502,
  "hetics": 22995,
  "hets": 43893,
  "hett": 15585,
  "hetti": 31471,
  "hettino": 38368,
  "hetto": 31628,
  "hev": 41911,
  "hew": 13953,
  "hex": 42986,
  "hey": 17241,
  "hh": 24128,
  "hi": 5194,
  "hib": 3322,
  "hiba": 40618,
  "hibit": 34823,
  "hibition": 23089,
  "hidden": 39492,
  "hide": 38713,
  "hift": 24605,
  "hig": 21751,
  "high": 8975,
  "higher": 46044,
  "highest": 28200,
  "highly": 36843,
  "hill": 12230,
  "hillary": 45154,
  "him": 41566,
  "hin": 26064,
  "hing": 675,
  "hinged": 43341,
  "hip": 1012,
  "hips": 6444,
  "hire": 10633,
  "hirt": 46384,
  "his": 14105,
  "hist": 10511,
  "historic": 27391,
  "historical": 45593,
  "history": 32159,
  "hit": 19073,
  "hitting": 38097,
  "hl": 21330,
  "hler": 40995,
  "hm": 24233,
  "hma": 23543,
  "hn": 20962,
  "hner": 14408,
  "ho": 8620,
  "hod": 2459,
  "hoe": 35351,
  "hof": 30001,
  "hoff": 33553,
  "hog": 32415,
  "hol": 12637,
  "hold": 3045,
  "holder": 14783,
  "holders": 9577,
  "holding": 35708,
  "hole": 14462,
  "holes": 25102,
  "holm": 19340,
  "hom": 30114,
  "home": 13560,
  "hon": 23856,
  "hood": 2642,
  "hook": 41991,
  "hop": 8988,
  "hope": 46251,
  "hopefully": 44653,
  "hops": 20843,
  "hor": 17237,
  "horn": 29767,
  "horse": 27979,
  "host": 5852,
  "hosted": 49111,
  "hot": 8668,
  "hots": 15803,
  "hou": 22610,
  "houn": 41249,
  "hound": 38041,
  "hour": 8443,
  "hours": 30769,
  "house": 4516,
  "houses": 18840,
  "housing": 45273,
  "hov": 31886,
  "hovah": 35603,
  "how": 4666,
  "hower": 26349,
  "hp": 29051,
  "hr": 11253,
  "hra": 33619,
  "hs": 40636,
  "ht": 5579,
  "hta": 48920,
  "htaking": 28962,
  "htar": 36959,
  "htm": 27788,
  "html": 9440,
  "http": 4132,
  "https": 8094,
  "hu": 17460,
  "hua": 27447,
  "hub": 44244,
  "huge": 40473,
  "hum": 15510,
  "human": 10432,
  "humane": 36086,
  "humans": 43286,
  "hun": 23036,
  "hundred": 46973,
  "hung": 38210,
  "hungry": 46624,
  "hunt": 32256,
  "hunter": 48574,
  "hunting": 44163,
  "hurst": 29032,
  "hus": 6674,
  "husband": 42265,
  "hy": 8380,
  "hya": 39788,
  "hyd": 24414,
  "hyde": 41174,
  "hydro": 32331,
  "hz": 47660,
  "i": 105,
  "iOS": 45781,
  "iPhone": 45480,
  "ia": 531,
  "iability": 8608,
  "iable": 3790,
  "iably": 16500,
  "iac": 9996,
  "iacom": 44805,
  "iad": 48650,
  "iae": 41573,
  "iage": 46309,
  "iago": 23960,
  "iah": 11705,
  "iak": 26992,
  "ial": 494,
  "ially": 1725,
  "ials": 10471,
  "iam": 3060,
  "iami": 6633,
  "iams": 5196,
  "ian": 652,
  "iana": 7340,
  "iance": 3854,
  "iances": 15196,
  "iane": 42994,
  "iang": 14082,
  "iani": 20021,
  "iann": 27931,
  "ianna": 42279,
  "iannopoulos": 32345,
  "iano": 9272,
  "ians": 1409,
  "iant": 3099,
  "iao": 20735,
  "iar": 11439,
  "iaries": 32816,
  "iary": 12531,
  "ias": 5379,
  "iasco": 32883,
  "iasm": 13566,
  "iat": 6191,
  "iate": 9029,
  "iated": 10847,
  "iates": 30057,
  "iating": 23655,
  "iation": 4285,
  "iations": 38714,
  "iator": 37096,
  "iatric": 18092,
  "iatrics": 38155,
  "iatus": 28721,
  "iaz": 16653,
  "ib": 588,
  "iba": 25290,
  "ibaba": 36305,
  "ibal": 19076,
  "iban": 10226,
  "iband": 25868,
  "ibe": 25755,
  "ibel": 42539,
  "iber": 1830,
  "iberal": 16650,
  "ibi": 26685,
  "ibia": 38961,
  "ibilities": 7486,
  "ibility": 2224,
  "ibl": 10623,
  "ible": 897,
  "ibles": 17006,
  "ibli": 26737,
  "iblical": 16041,
  "ibling": 28969,
  "iblings": 17756,
  "ibliography": 36416,
  "ibly": 3006,
  "ibo": 24637,
  "ibr": 3261,
  "ibrand": 44294,
  "ibrary": 4660,
  "ibu": 35659,
  "ibur": 36030,
  "ibus": 30692,
  "ic": 293,
  "ica": 4125,
  "icable": 19645,
  "icably": 34459,
  "icago": 3924,
  "ical": 593,
  "ically": 1128,
  "icals": 27291,
  "ican": 6353,
  "icans": 19283,
  "icate": 7687,
  "icated": 3435,
  "icates": 19947,
  "icating": 15894,
  "ication": 4926,
  "ications": 4818,
  "icator": 36114,
  "ice": 499,
  "iced": 3863,
  "icent": 35595,
  "iceps": 45993,
  "icer": 7229,
  "icers": 14730,
  "ices": 1100,
  "icester": 20105,
  "ich": 484,
  "ichael": 37647,
  "iche": 15197,
  "ichel": 45668,
  "icher": 41695,
  "ichever": 24745,
  "ichi": 23500,
  "ichick": 31164,
  "ichita": 33385,
  "icho": 40560,
  "icht": 18228,
  "ici": 4689,
  "icia": 30141,
  "icial": 4226,
  "icially": 23940,
  "icials": 12992,
  "ician": 6299,
  "icians": 4275,
  "iciaries": 25845,
  "iciary": 12565,
  "icidal": 21647,
  "icide": 4982,
  "icides": 15975,
  "iciencies": 48852,
  "iciency": 6705,
  "icient": 3508,
  "icing": 6050,
  "icio": 31999,
  "icion": 38994,
  "icious": 6308,
  "icip": 4343,
  "icipated": 33499,
  "icism": 9584,
  "icit": 3927,
  "icity": 8763,
  "ick": 663,
  "icked": 11026,
  "icken": 7086,
  "icker": 19650,
  "ickering": 48354,
  "ickers": 20391,
  "icket": 8440,
  "ickets": 14901,
  "ickey": 34092,
  "icki": 48275,
  "icking": 8322,
  "ickle": 36594,
  "icks": 3326,
  "ickson": 39096,
  "icky": 20352,
  "icle": 1623,
  "icles": 3088,
  "ico": 3235,
  "icol": 33925,
  "icon": 4839,
  "icone": 36811,
  "icro": 2547,
  "icrosoft": 4268,
  "ics": 882,
  "ict": 707,
  "icted": 5143,
  "icter": 28404,
  "iction": 2954,
  "ictional": 42313,
  "ictionary": 16166,
  "ictions": 8477,
  "ictive": 48724,
  "icts": 12536,
  "icular": 22908,
  "icularly": 19607,
  "iculous": 46820,
  "icult": 2091,
  "icultural": 21971,
  "iculture": 48321,
  "iculty": 43389,
  "icum": 39448,
  "icus": 22727,
  "icut": 12508,
  "icy": 4674,
  "icycle": 33346,
  "icz": 25737,
  "id": 310,
  "ida": 3405,
  "idable": 21326,
  "idad": 22650,
  "idae": 46245,
  "idal": 11236,
  "idan": 28446,
  "idant": 30531,
  "idants": 42038,
  "idas": 24309,
  "idate": 21563,
  "idates": 36547,
  "idation": 29645,
  "idav": 19430,
  "iday": 2219,
  "idays": 13259,
  "idd": 1652,
  "idden": 5268,
  "idders": 43156,
  "idding": 12410,
  "iddish": 46933,
  "iddle": 2327,
  "iddled": 30007,
  "iddles": 28317,
  "iddling": 35098,
  "iddy": 31631,
  "ide": 490,
  "ided": 1386,
  "ideen": 47714,
  "idel": 5734,
  "idelines": 7649,
  "idelity": 22741,
  "idem": 39041,
  "iden": 11266,
  "idence": 1674,
  "idences": 42719,
  "idency": 7431,
  "ident": 660,
  "idental": 31201,
  "identally": 20661,
  "idential": 37989,
  "identified": 16477,
  "identity": 49650,
  "idently": 40287,
  "idents": 3030,
  "ideo": 6319,
  "ideon": 43133,
  "ideos": 15953,
  "idepress": 25692,
  "ider": 1518,
  "idered": 3014,
  "idering": 5032,
  "iders": 3901,
  "ides": 1516,
  "ideshow": 34214,
  "idespread": 7908,
  "idge": 3169,
  "idges": 14326,
  "idi": 18472,
  "idian": 25778,
  "idic": 43375,
  "idine": 49730,
  "iding": 2486,
  "idious": 29775,
  "idis": 25500,
  "idity": 17149,
  "idium": 49944,
  "idman": 43938,
  "ido": 15384,
  "idos": 44971,
  "ids": 2065,
  "idy": 18735,
  "ie": 448,
  "iece": 9078,
  "ied": 829,
  "ieder": 44606,
  "ief": 1909,
  "ieg": 34977,
  "iegel": 29869,
  "iel": 8238,
  "ield": 1229,
  "ielding": 31520,
  "iele": 43331,
  "iello": 44557,
  "iem": 30498,
  "ien": 2016,
  "ience": 1190,
  "ienced": 24452,
  "iences": 8673,
  "iencies": 20433,
  "iency": 41805,
  "ienne": 35890,
  "iens": 10551,
  "ient": 1235,
  "iento": 49013,
  "ients": 2544,
  "ier": 1224,
  "ierce": 9518,
  "iere": 11202,
  "ieri": 24348,
  "ierra": 14758,
  "ierre": 11999,
  "ierrez": 34677,
  "ierry": 48613,
  "iers": 3260,
  "iership": 29069,
  "ies": 440,
  "iese": 48187,
  "iesel": 28030,
  "iest": 6215,
  "iesta": 33544,
  "iet": 1160,
  "ietal": 18831,
  "ieth": 18328,
  "ieties": 8872,
  "iets": 25499,
  "iety": 1845,
  "ieu": 20443,
  "ieux": 45475,
  "iev": 9711,
  "ieval": 14481,
  "ieve": 16411,
  "ieves": 18798,
  "ieving": 35732,
  "iew": 818,
  "iewicz": 41578,
  "if": 367,
  "ifa": 19041,
  "ifact": 40629,
  "ifada": 46239,
  "ifax": 21947,
  "ife": 907,
  "ifer": 7382,
  "iferation": 42101,
  "ifers": 47026,
  "ifest": 8290,
  "ifestyle": 48641,
  "iff": 737,
  "iffany": 31652,
  "iffe": 19452,
  "iffer": 47934,
  "ifference": 25847,
  "ifferent": 12883,
  "iffin": 33999,
  "iffs": 9636,
  "ifi": 26006,
  "ifiable": 16285,
  "ifiably": 44707,
  "ific": 857,
  "ificant": 16293,
  "ificantly": 39046,
  "ificate": 32927,
  "ification": 3062,
  "ifications": 7346,
  "ificent": 21587,
  "ificial": 29359,
  "ified": 1549,
  "ifier": 11051,
  "ifiers": 16359,
  "ifies": 7703,
  "ifix": 40131,
  "ifle": 19006,
  "iflower": 41007,
  "iform": 7091,
  "ift": 2363,
  "ifted": 20458,
  "ifter": 36478,
  "ifting": 13655,
  "ifton": 44212,
  "ifts": 23589,
  "ifty": 23897,
  "iful": 4430,
  "ifully": 16258,
  "ify": 2086,
  "ifying": 3988,
  "ig": 328,
  "iga": 14754,
  "igail": 45293,
  "igan": 4890,
  "igans": 31305,
  "igate": 9738,
  "igated": 23761,
  "igating": 25777,
  "igation": 7095,
  "igator": 26220,
  "igators": 21511,
  "ige": 11757,
  "igel": 18811,
  "igen": 7952,
  "igenous": 9822,
  "igent": 44387,
  "iger": 6603,
  "igers": 12879,
  "igg": 7023,
  "igger": 21635,
  "iggins": 18916,
  "iggle": 26274,
  "iggs": 17336,
  "igh": 394,
  "igham": 34271,
  "ighed": 12855,
  "ight": 436,
  "ighte": 15798,
  "ighted": 36358,
  "ighteen": 25511,
  "ighteenth": 40527,
  "ighteous": 18709,
  "ighter": 4960,
  "ighters": 5547,
  "ighth": 10256,
  "ighthouse": 34757,
  "ighting": 11727,
  "ighton": 36927,
  "ights": 2963,
  "ighty": 20102,
  "igi": 30002,
  "igible": 26180,
  "igion": 17238,
  "igious": 9602,
  "igl": 40857,
  "igma": 13154,
  "ign": 553,
  "ignant": 23275,
  "igne": 40742,
  "igned": 4118,
  "igning": 41191,
  "ignment": 20294,
  "ignon": 48345,
  "ignt": 13864,
  "ignty": 14051,
  "igo": 18611,
  "igon": 43849,
  "igr": 3157,
  "igrams": 49255,
  "igrant": 8213,
  "igrants": 4692,
  "igrate": 36246,
  "igrated": 30420,
  "igrating": 47182,
  "igration": 3669,
  "igree": 34453,
  "igroup": 33356,
  "igs": 16759,
  "igsaw": 49951,
  "igt": 49269,
  "igue": 16455,
  "iguous": 44289,
  "igure": 6917,
  "ih": 4705,
  "ihad": 8305,
  "ihan": 38534,
  "ihanna": 42795,
  "ihar": 28655,
  "ihil": 22606,
  "ihilation": 37232,
  "ii": 7205,
  "iii": 29335,
  "ij": 2578,
  "ija": 31932,
  "ije": 42224,
  "iji": 23742,
  "ijing": 8751,
  "ijk": 40476,
  "ijn": 43170,
  "ijuana": 4048,
  "ik": 1262,
  "ika": 9853,
  "ike": 508,
  "iked": 22490,
  "iken": 34426,
  "iker": 18363,
  "ikers": 22905,
  "ikes": 8216,
  "ikh": 10611,
  "ikhail": 31620,
  "iki": 9674,
  "iking": 14211,
  "ikk": 32857,
  "iko": 17974,
  "iku": 39009,
  "il": 350,
  "ila": 9073,
  "iland": 38129,
  "ilant": 31861,
  "ilantro": 49762,
  "ilar": 1910,
  "ilarly": 7272,
  "ilate": 41761,
  "ilated": 30110,
  "ilater": 30054,
  "ilateral": 12650,
  "ilaterally": 30608,
  "ilation": 11161,
  "ild": 695,
  "ilda": 28675,
  "ilde": 40297,
  "ilded": 47164,
  "ile": 583,
  "ileaks": 20850,
  "iled": 3966,
  "ilee": 36727,
  "ileen": 44022,
  "ilem": 18398,
  "iler": 7652,
  "ilers": 18184,
  "iles": 3447,
  "iley": 9018,
  "ili": 2334,
  "ilia": 17180,
  "ilial": 42735,
  "ilian": 31838,
  "iliar": 4501,
  "iliary": 31581,
  "iliated": 26248,
  "iliation": 13855,
  "ilib": 21718,
  "ilibrium": 24111,
  "ilic": 49765,
  "ilies": 3519,
  "ilight": 17789,
  "iling": 4604,
  "ilingual": 31424,
  "ilion": 26868,
  "ilipp": 7813,
  "ilit": 5928,
  "ilitar": 49005,
  "ilitarian": 39812,
  "ilitary": 15928,
  "ilitating": 29839,
  "ilitation": 17641,
  "ilities": 2541,
  "ility": 920,
  "ill": 355,
  "illa": 5209,
  "illac": 33667,
  "illan": 42376,
  "illance": 6110,
  "illard": 27896,
  "illas": 22696,
  "ille": 3184,
  "illed": 3236,
  "illegal": 36949,
  "iller": 4567,
  "illermo": 42787,
  "illery": 13982,
  "illes": 20357,
  "illi": 42972,
  "illian": 31987,
  "illiant": 39756,
  "illin": 39042,
  "illing": 4278,
  "illion": 953,
  "illions": 22666,
  "illo": 13903,
  "illon": 20736,
  "ills": 2641,
  "illusion": 28960,
  "illy": 6104,
  "ilo": 29518,
  "ilogy": 18365,
  "ilon": 38080,
  "ilot": 24055,
  "ils": 5070,
  "ilst": 11432,
  "ilt": 2223,
  "ilton": 7730,
  "ilty": 5887,
  "ilus": 40250,
  "ily": 810,
  "ilyn": 32504,
  "im": 321,
  "ima": 7707,
  "imag": 20085,
  "image": 13398,
  "images": 25770,
  "imagin": 30204,
  "imal": 5102,
  "iman": 22799,
  "imar": 44400,
  "imate": 1739,
  "imated": 15556,
  "imately": 3105,
  "imates": 27252,
  "imating": 35063,
  "imation": 22097,
  "imb": 4958,
  "imbabwe": 19808,
  "imble": 33737,
  "imbledon": 34005,
  "ime": 523,
  "imedia": 18602,
  "imen": 19649,
  "imens": 12578,
  "imensional": 16540,
  "iment": 2945,
  "imental": 16914,
  "imentary": 35108,
  "iments": 6702,
  "imeo": 39928,
  "imer": 19204,
  "imes": 962,
  "imet": 27524,
  "imeter": 15837,
  "imeters": 29925,
  "imetres": 41069,
  "img": 17353,
  "imgur": 42896,
  "imi": 26450,
  "imin": 3133,
  "iminal": 3392,
  "iminals": 41502,
  "imination": 18569,
  "imir": 10964,
  "imity": 17682,
  "imize": 10504,
  "imm": 8324,
  "immer": 10766,
  "immers": 31227,
  "immigrant": 32246,
  "immigration": 35922,
  "imming": 26629,
  "immune": 39682,
  "imo": 23376,
  "imon": 25751,
  "imony": 37000,
  "imore": 7969,
  "imos": 44914,
  "imoto": 40930,
  "imov": 36215,
  "imp": 7349,
  "impact": 46363,
  "imperial": 41812,
  "impl": 32406,
  "imple": 48062,
  "import": 15187,
  "important": 21485,
  "imposed": 29915,
  "impro": 30328,
  "imps": 25534,
  "impse": 16401,
  "ims": 12312,
  "imson": 25181,
  "imum": 3514,
  "in": 259,
  "ina": 1348,
  "inal": 1353,
  "inally": 3257,
  "inals": 9399,
  "inance": 13361,
  "inant": 44792,
  "inar": 45667,
  "inary": 3369,
  "inas": 22107,
  "inate": 14475,
  "inated": 3873,
  "inating": 9176,
  "ination": 1903,
  "inational": 20766,
  "inations": 7208,
  "inator": 46792,
  "inators": 45596,
  "inberg": 33516,
  "inburgh": 18819,
  "inc": 1803,
  "incarn": 36891,
  "ince": 886,
  "incent": 35769,
  "inch": 8756,
  "incher": 44714,
  "inches": 43744,
  "incial": 11442,
  "incible": 38633,
  "incidentally": 49047,
  "incinn": 12664,
  "incinnati": 12750,
  "include": 27131,
  "including": 8409,
  "inclusive": 47255,
  "inco": 47409,
  "incoln": 10329,
  "income": 10672,
  "incre": 22854,
  "increasing": 34017,
  "inct": 4563,
  "inction": 8932,
  "inctions": 28514,
  "ind": 538,
  "inda": 20369,
  "indal": 31253,
  "indeer": 44247,
  "independence": 47921,
  "independent": 31401,
  "inder": 7717,
  "inders": 29148,
  "index": 16177,
  "inding": 7366,
  "individual": 42708,
  "indle": 40036,
  "indler": 46805,
  "induced": 19029,
  "inducing": 39965,
  "indust": 18992,
  "industrial": 24352,
  "industry": 40113,
  "ine": 512,
  "inea": 18519,
  "ined": 1381,
  "inee": 47120,
  "inejad": 33583,
  "inel": 20005,
  "inelli": 35624,
  "inem": 6506,
  "inement": 19322,
  "inen": 35036,
  "inence": 29683,
  "inent": 5424,
  "inental": 18621,
  "iner": 7154,
  "ineries": 37455,
  "iners": 18253,
  "inery": 14602,
  "ines": 1101,
  "inese": 3245,
  "iness": 1216,
  "inet": 46187,
  "inez": 15369,
  "inf": 8877,
  "infect": 30333,
  "infected": 49939,
  "infeld": 36034,
  "inflamm": 31592,
  "inflammatory": 34428,
  "inflation": 43262,
  "inflicted": 44005,
  "influ": 40208,
  "info": 15817,
  "inform": 42815,
  "information": 15685,
  "informed": 28688,
  "infused": 49796,
  "ing": 278,
  "inge": 10767,
  "inged": 29630,
  "ingen": 29606,
  "inger": 4052,
  "ingers": 38627,
  "inges": 23767,
  "ingham": 19918,
  "inging": 13082,
  "ingle": 17248,
  "ingling": 45203,
  "ingly": 4111,
  "ingo": 28769,
  "ingrich": 17507,
  "ings": 656,
  "ington": 9191,
  "ingu": 6787,
  "inguishable": 35822,
  "inguished": 42202,
  "ingwood": 49040,
  "inho": 15450,
  "ini": 5572,
  "inia": 48351,
  "inian": 19247,
  "inians": 44784,
  "inic": 44834,
  "inical": 39019,
  "ining": 3174,
  "inion": 24466,
  "inis": 15609,
  "inished": 29758,
  "init": 26644,
  "inite": 11246,
  "initely": 12431,
  "initial": 34829,
  "inition": 25954,
  "inity": 7299,
  "ink": 670,
  "inka": 46460,
  "inke": 30581,
  "inker": 26849,
  "inki": 36625,
  "inking": 7751,
  "inkle": 20271,
  "inks": 3072,
  "inky": 32624,
  "inn": 3847,
  "innacle": 34359,
  "innamon": 24326,
  "inner": 17902,
  "inness": 24215,
  "inney": 44921,
  "inning": 30444,
  "innon": 33288,
  "ino": 2843,
  "inoa": 43888,
  "inoids": 30653,
  "inois": 8207,
  "inos": 14281,
  "inosaur": 44182,
  "inous": 26916,
  "inoza": 47262,
  "input": 25416,
  "inqu": 20219,
  "ins": 1072,
  "inse": 45870,
  "insert": 39080,
  "inside": 49271,
  "insk": 33607,
  "inski": 19589,
  "insky": 20559,
  "inson": 6922,
  "inspired": 20146,
  "inst": 11109,
  "install": 27071,
  "installed": 38475,
  "instead": 37570,
  "instein": 10096,
  "insula": 14232,
  "insurgency": 45406,
  "int": 616,
  "intage": 15691,
  "inte": 5383,
  "inted": 37783,
  "integr": 18772,
  "intellectual": 45076,
  "intelligence": 26558,
  "intend": 7060,
  "intendent": 18738,
  "intendo": 8476,
  "intensity": 47456,
  "intensive": 30533,
  "intention": 33844,
  "intentioned": 48144,
  "inter": 4831,
  "interest": 7947,
  "interested": 29894,
  "interesting": 43430,
  "intern": 26598,
  "internal": 45513,
  "international": 43091,
  "interrupted": 41825,
  "inters": 20510,
  "intestinal": 41783,
  "inth": 22421,
  "into": 19943,
  "inton": 1942,
  "intosh": 37557,
  "ints": 40067,
  "intuitive": 33684,
  "inty": 45394,
  "inv": 19365,
  "invent": 38381,
  "invest": 21179,
  "investment": 40477,
  "involved": 38387,
  "inx": 33250,
  "iny": 3827,
  "inyl": 19675,
  "io": 1002,
  "ioch": 47789,
  "iod": 2279,
  "iol": 1582,
  "iola": 23951,
  "iolet": 22166,
  "iological": 16194,
  "iologist": 25279,
  "iologists": 43902,
  "iology": 13848,
  "ion": 297,
  "iona": 32131,
  "ionage": 19601,
  "ional": 1555,
  "ionally": 5900,
  "ione": 8358,
  "ioned": 14106,
  "ioni": 47324,
  "ionic": 34781,
  "ions": 505,
  "iop": 14302,
  "ior": 1473,
  "iors": 11759,
  "ios": 4571,
  "iose": 44849,
  "iosis": 46173,
  "iosity": 13665,
  "iot": 5287,
  "iotic": 27893,
  "iotics": 44502,
  "iots": 13572,
  "iott": 18146,
  "ious": 692,
  "iously": 1687,
  "iov": 20077,
  "iovascular": 23318,
  "iox": 11486,
  "ioxide": 13657,
  "ip": 560,
  "ipal": 23955,
  "ipe": 4322,
  "iped": 41739,
  "ipedia": 10615,
  "ipeg": 17170,
  "ipel": 35311,
  "ipelago": 40089,
  "iper": 11373,
  "ipers": 28625,
  "ipes": 24612,
  "iph": 13706,
  "iphany": 46621,
  "iphate": 27674,
  "ipher": 12245,
  "ipiac": 41426,
  "iping": 32341,
  "ipl": 6725,
  "iple": 2596,
  "iples": 31174,
  "iplier": 43567,
  "ipment": 30145,
  "ipp": 4625,
  "ipped": 4465,
  "ipper": 30081,
  "ippers": 26704,
  "ippi": 11039,
  "ipping": 5454,
  "ipple": 19990,
  "ipples": 33494,
  "ippy": 47916,
  "ipras": 38410,
  "ips": 2721,
  "ipse": 16235,
  "ipur": 40018,
  "iq": 38054,
  "iqu": 1640,
  "ique": 2430,
  "iqued": 45276,
  "iqueness": 41978,
  "iques": 6387,
  "iquette": 40279,
  "ir": 341,
  "ira": 9131,
  "irable": 13125,
  "iral": 28211,
  "irate": 39705,
  "irates": 10681,
  "iration": 18122,
  "irc": 2022,
  "ircraft": 31671,
  "ird": 1396,
  "irds": 6284,
  "ire": 580,
  "irect": 1077,
  "irection": 20267,
  "ired": 1254,
  "irement": 34238,
  "iren": 49198,
  "ires": 2661,
  "irez": 25091,
  "irgin": 4447,
  "iri": 15120,
  "irie": 26963,
  "iries": 17714,
  "iring": 3734,
  "iris": 37674,
  "irk": 13815,
  "irl": 2148,
  "irled": 48465,
  "irlf": 9352,
  "irlfriend": 9363,
  "irlines": 15748,
  "irling": 22991,
  "irm": 2457,
  "irmation": 44251,
  "irmed": 15644,
  "irming": 26575,
  "irms": 7145,
  "iro": 6979,
  "iron": 1843,
  "iropr": 47808,
  "irre": 36204,
  "irrel": 24236,
  "irs": 11818,
  "irst": 649,
  "irsty": 25409,
  "irt": 2451,
  "irted": 39927,
  "irteen": 21493,
  "irth": 3520,
  "irties": 47002,
  "irting": 33300,
  "irts": 9151,
  "irtual": 27867,
  "irty": 6158,
  "irus": 18646,
  "iry": 8469,
  "is": 271,
  "isa": 9661,
  "isable": 42155,
  "isal": 30218,
  "isals": 45775,
  "isan": 7282,
  "isance": 30027,
  "isans": 21214,
  "isation": 4853,
  "isations": 32101,
  "isc": 2428,
  "iscal": 7360,
  "iscer": 49764,
  "isch": 24500,
  "ischer": 21193,
  "isco": 18462,
  "isconsin": 7369,
  "iscopal": 37231,
  "iscovered": 35176,
  "isd": 10652,
  "isdom": 10177,
  "ise": 747,
  "iseach": 48534,
  "ised": 1324,
  "isel": 45693,
  "isen": 12961,
  "iser": 5057,
  "iseries": 38260,
  "isers": 13173,
  "ises": 2773,
  "iseum": 33026,
  "isexual": 18690,
  "isf": 4924,
  "ish": 715,
  "isha": 19518,
  "ishable": 29429,
  "isham": 49495,
  "ished": 1295,
  "isher": 5452,
  "ishers": 10959,
  "ishes": 5878,
  "ishi": 25123,
  "ishing": 2973,
  "ishly": 27335,
  "ishment": 19674,
  "ishop": 9475,
  "ishops": 19929,
  "isi": 18614,
  "isible": 13790,
  "isin": 42228,
  "isine": 24069,
  "ising": 1544,
  "ision": 1112,
  "isions": 3227,
  "isite": 19103,
  "isites": 48430,
  "isition": 10351,
  "isitions": 26493,
  "isive": 11555,
  "isk": 9819,
  "isky": 43184,
  "isl": 2616,
  "islav": 47453,
  "isle": 18041,
  "isly": 30707,
  "islyak": 42302,
  "ism": 964,
  "isman": 22623,
  "ismo": 35092,
  "isms": 6526,
  "isner": 42661,
  "iso": 30669,
  "isode": 11665,
  "isodes": 38526,
  "isoft": 28092,
  "isol": 30317,
  "ison": 1609,
  "isons": 9184,
  "isp": 8109,
  "ispens": 29996,
  "ispensable": 31329,
  "ispers": 33586,
  "isphere": 19630,
  "ispr": 49356,
  "iss": 766,
  "issa": 14239,
  "issan": 20967,
  "issance": 13925,
  "isse": 19812,
  "ission": 1497,
  "issions": 6297,
  "isson": 28827,
  "issors": 33889,
  "issue": 22909,
  "issued": 32148,
  "issues": 41281,
  "ist": 387,
  "ista": 11899,
  "istair": 46377,
  "istan": 2884,
  "istance": 11254,
  "istant": 10393,
  "istar": 40960,
  "istas": 31953,
  "iste": 38373,
  "isted": 5250,
  "istence": 22365,
  "istent": 7715,
  "ister": 1574,
  "isters": 5782,
  "istic": 2421,
  "istical": 19960,
  "istically": 14738,
  "istics": 4457,
  "istine": 28511,
  "isting": 8611,
  "istle": 10820,
  "iston": 33646,
  "istries": 27299,
  "istro": 48250,
  "istry": 4126,
  "ists": 931,
  "isty": 45984,
  "isure": 21039,
  "isy": 24025,
  "it": 270,
  "ita": 5958,
  "itability": 33866,
  "itable": 4712,
  "itably": 12699,
  "itage": 8850,
  "ital": 1236,
  "itals": 7475,
  "itan": 19832,
  "itans": 49355,
  "itant": 22842,
  "itar": 7542,
  "itarian": 6933,
  "itaries": 49810,
  "itars": 28561,
  "itary": 9439,
  "itas": 20264,
  "itat": 43155,
  "itate": 12365,
  "itated": 13707,
  "itates": 36999,
  "itating": 21385,
  "itation": 3571,
  "itational": 18872,
  "itations": 16491,
  "itative": 13221,
  "itatively": 45550,
  "itators": 43763,
  "itbart": 13186,
  "itch": 3211,
  "itched": 26695,
  "itches": 19335,
  "ite": 575,
  "itech": 49323,
  "itect": 5115,
  "ited": 837,
  "itely": 3810,
  "item": 21121,
  "itement": 11359,
  "items": 46467,
  "itent": 47172,
  "iter": 5022,
  "iterranean": 16134,
  "ites": 2758,
  "itez": 44972,
  "ith": 343,
  "ithe": 28798,
  "ither": 1625,
  "ithing": 48196,
  "ithmetic": 30612,
  "ithner": 41146,
  "ithub": 15203,
  "iti": 8412,
  "itia": 41687,
  "itial": 14741,
  "itially": 17960,
  "itiated": 44145,
  "itic": 32767,
  "ities": 855,
  "itim": 47359,
  "itimate": 24355,
  "itime": 18498,
  "iting": 1757,
  "ition": 661,
  "itional": 1915,
  "itionally": 8419,
  "itions": 1839,
  "itious": 23971,
  "itiously": 46420,
  "itis": 14556,
  "itism": 46741,
  "itive": 1771,
  "itiveness": 25451,
  "itives": 19432,
  "itivity": 12220,
  "itiz": 2656,
  "itized": 38976,
  "itizen": 39314,
  "itizens": 29771,
  "itizing": 35574,
  "itled": 32333,
  "itness": 3995,
  "itnesses": 20010,
  "ito": 10238,
  "itol": 9570,
  "iton": 43873,
  "itor": 3505,
  "itoring": 30395,
  "itors": 6161,
  "itos": 46466,
  "itous": 17818,
  "its": 941,
  "itsch": 39595,
  "itsky": 45831,
  "itsu": 23157,
  "itt": 5069,
  "ittal": 43837,
  "itte": 46076,
  "itted": 16686,
  "ittens": 38407,
  "itter": 9560,
  "itting": 8689,
  "ittle": 6486,
  "itu": 34246,
  "itual": 9607,
  "itud": 31405,
  "itude": 4095,
  "itudes": 9812,
  "itudinal": 34241,
  "iture": 9877,
  "itures": 21567,
  "itus": 20444,
  "itute": 3428,
  "itutes": 15316,
  "itution": 2546,
  "itutional": 4906,
  "ity": 414,
  "itz": 4948,
  "itzer": 18372,
  "itÃ©": 34881,
  "iu": 21606,
  "ium": 1721,
  "ius": 4775,
  "iuses": 39384,
  "iv": 461,
  "iva": 13273,
  "ivable": 20836,
  "ivably": 39335,
  "ival": 2388,
  "ivalence": 49642,
  "ivalent": 30075,
  "ivals": 8704,
  "ivan": 12252,
  "ivari": 45074,
  "ivas": 28024,
  "ivate": 43870,
  "ivated": 26794,
  "ivating": 34048,
  "ivation": 37854,
  "ive": 421,
  "ived": 1547,
  "ivel": 44771,
  "ively": 2158,
  "iven": 1462,
  "iveness": 6682,
  "iver": 1730,
  "ivered": 5685,
  "ivering": 37291,
  "iverpool": 8544,
  "ivers": 1131,
  "iversal": 26828,
  "iversary": 8277,
  "iverse": 4008,
  "iversity": 1429,
  "ivery": 23518,
  "ives": 1036,
  "ivia": 19395,
  "ivic": 13558,
  "ivid": 1781,
  "ividual": 1946,
  "ivier": 29914,
  "ivik": 49906,
  "ivil": 2214,
  "iving": 1377,
  "ivision": 31888,
  "ivism": 21932,
  "ivist": 23984,
  "ivists": 32155,
  "ivities": 23528,
  "ivity": 3629,
  "ivo": 22407,
  "ivor": 23306,
  "ivors": 43642,
  "ivot": 49254,
  "iw": 33598,
  "ix": 924,
  "ixed": 8798,
  "ixel": 11371,
  "ixels": 17193,
  "ixir": 39095,
  "ixon": 10308,
  "ixt": 6886,
  "ixties": 39276,
  "ixture": 10205,
  "ixtures": 24342,
  "ixty": 19887,
  "iy": 9244,
  "iya": 24720,
  "iyah": 47040,
  "iz": 544,
  "iza": 25164,
  "izabeth": 9160,
  "izable": 13185,
  "izard": 12740,
  "izards": 15160,
  "izarre": 10818,
  "ization": 1619,
  "izations": 11187,
  "ize": 1217,
  "ized": 1168,
  "izen": 36800,
  "izens": 37152,
  "izer": 9888,
  "izers": 16531,
  "izes": 4701,
  "izing": 2772,
  "izo": 45289,
  "izon": 7749,
  "izons": 28806,
  "izont": 14329,
  "izontal": 48088,
  "izoph": 18444,
  "izophren": 18626,
  "izu": 47353,
  "izz": 6964,
  "izza": 10133,
  "izzard": 16515,
  "izzer": 49897,
  "izzle": 41237,
  "izzy": 36023,
  "iÃ¨re": 49060,
  "iÃ³n": 19708,
  "iÄĩ": 32459,
  "j": 106,
  "ja": 8750,
  "jack": 26793,
  "jad": 24587,
  "jah": 22095,
  "jal": 46652,
  "jam": 41371,
  "jamin": 11589,
  "jan": 12556,
  "jandro": 38601,
  "jango": 46486,
  "jani": 44020,
  "jans": 42618,
  "jar": 13663,
  "jas": 29469,
  "jav": 44675,
  "java": 23293,
  "jay": 32373,
  "je": 16748,
  "ject": 793,
  "jected": 34535,
  "jection": 32525,
  "jee": 29219,
  "jen": 46157,
  "jer": 40429,
  "jerk": 44405,
  "jet": 26634,
  "ji": 9755,
  "jiang": 31499,
  "jin": 29888,
  "jit": 44221,
  "jitsu": 48896,
  "jo": 8160,
  "job": 29517,
  "jobs": 46512,
  "john": 34851,
  "join": 28837,
  "joined": 49541,
  "joining": 39501,
  "journal": 23375,
  "joy": 2725,
  "jpg": 17057,
  "jri": 29402,
  "jriwal": 30019,
  "js": 10000,
  "json": 24125,
  "ju": 17318,
  "jud": 9331,
  "judge": 38735,
  "judicial": 37972,
  "jug": 30913,
  "jun": 46763,
  "junk": 45629,
  "jured": 38103,
  "juries": 44117,
  "jury": 23958,
  "just": 3572,
  "justed": 22841,
  "justice": 28662,
  "juven": 34812,
  "k": 107,
  "ka": 5406,
  "kah": 48325,
  "kai": 46317,
  "kamp": 34344,
  "kan": 28159,
  "kar": 18650,
  "kara": 19933,
  "kart": 45599,
  "kas": 47161,
  "kay": 6292,
  "kaya": 37208,
  "ke": 361,
  "ked": 7476,
  "kee": 10105,
  "keep": 8765,
  "keeper": 12888,
  "keepers": 20101,
  "keeping": 17809,
  "kees": 13639,
  "kef": 25626,
  "kefeller": 26004,
  "kel": 6699,
  "keley": 11193,
  "kell": 17030,
  "ken": 3770,
  "kens": 15045,
  "kept": 38199,
  "ker": 7576,
  "kered": 26917,
  "kernel": 44636,
  "kers": 16921,
  "kes": 11333,
  "ket": 5676,
  "ketch": 23404,
  "key": 2515,
  "keye": 42629,
  "keys": 14173,
  "kg": 14129,
  "kh": 15740,
  "khaz": 47672,
  "ki": 4190,
  "kick": 23574,
  "kids": 41706,
  "kies": 37247,
  "kil": 26770,
  "kill": 15121,
  "killed": 39823,
  "killer": 35006,
  "killers": 36549,
  "killing": 36636,
  "kin": 4993,
  "kind": 11736,
  "king": 9343,
  "kins": 4686,
  "kinson": 21915,
  "kirk": 45718,
  "kish": 23578,
  "kit": 18847,
  "km": 12521,
  "kn": 16860,
  "knee": 49728,
  "knit": 40732,
  "know": 16185,
  "knowledge": 42381,
  "known": 4358,
  "ko": 7222,
  "kok": 27161,
  "kom": 49396,
  "kos": 38488,
  "kov": 19748,
  "kowski": 21355,
  "krit": 41079,
  "ks": 592,
  "ksh": 45351,
  "kson": 32421,
  "kswagen": 24189,
  "kt": 31446,
  "ktop": 23214,
  "ku": 30798,
  "kus": 41444,
  "kward": 11628,
  "ky": 2832,
  "l": 108,
  "la": 4656,
  "lab": 27294,
  "label": 26088,
  "labor": 46432,
  "lace": 32236,
  "lack": 44833,
  "lad": 8340,
  "lade": 42638,
  "laden": 32009,
  "ladimir": 48076,
  "lag": 34135,
  "lage": 47230,
  "lah": 8626,
  "lahoma": 8945,
  "laim": 11299,
  "lain": 21505,
  "lake": 27056,
  "laki": 45041,
  "lam": 2346,
  "lamation": 43236,
  "lamb": 41501,
  "lambda": 44548,
  "lamm": 27944,
  "lan": 8040,
  "lance": 18115,
  "land": 998,
  "lander": 20810,
  "landers": 28776,
  "landish": 35296,
  "lando": 9841,
  "lands": 4456,
  "lane": 25682,
  "lang": 23447,
  "language": 18298,
  "lant": 4441,
  "lantic": 21502,
  "lap": 37296,
  "lar": 27434,
  "lared": 38380,
  "larg": 15431,
  "large": 11029,
  "largest": 20838,
  "las": 12684,
  "lash": 13767,
  "lass": 22986,
  "lasses": 30417,
  "last": 15550,
  "lasting": 27033,
  "lat": 19465,
  "latan": 49331,
  "late": 22152,
  "lated": 23961,
  "later": 28873,
  "lation": 15835,
  "lau": 44121,
  "laughs": 23464,
  "laughter": 24201,
  "launch": 36757,
  "launched": 48952,
  "laus": 33856,
  "lav": 39102,
  "lavery": 47397,
  "law": 6282,
  "laws": 26414,
  "lay": 15534,
  "layer": 35692,
  "layout": 42913,
  "lb": 26162,
  "lbs": 35934,
  "ld": 333,
  "lda": 19483,
  "lder": 7223,
  "ldom": 23608,
  "ldon": 22702,
  "le": 295,
  "lead": 25287,
  "leader": 25198,
  "leaders": 29696,
  "leading": 11075,
  "leaf": 38232,
  "league": 17004,
  "leaguered": 40401,
  "lean": 38162,
  "leaning": 20840,
  "leans": 10293,
  "lear": 2513,
  "learn": 41798,
  "learning": 34244,
  "lease": 3638,
  "leased": 15822,
  "leases": 35222,
  "leave": 45885,
  "leck": 29271,
  "lect": 814,
  "lected": 12188,
  "lectic": 36645,
  "lection": 1460,
  "lections": 30983,
  "lectric": 47440,
  "led": 1011,
  "ledge": 3035,
  "ledged": 29256,
  "ledon": 33272,
  "lee": 9814,
  "leen": 17478,
  "leep": 10904,
  "lees": 47744,
  "leet": 37343,
  "left": 9809,
  "leg": 1355,
  "legal": 16303,
  "legate": 39710,
  "legates": 28443,
  "lege": 2460,
  "legged": 36535,
  "legitimate": 46686,
  "lehem": 37685,
  "leigh": 38217,
  "lein": 31032,
  "leine": 43510,
  "lem": 14660,
  "lema": 46230,
  "leman": 37327,
  "lemen": 47222,
  "lement": 2035,
  "lementary": 13996,
  "lements": 12344,
  "len": 14545,
  "lene": 26082,
  "leneck": 39236,
  "length": 16352,
  "ler": 1820,
  "lers": 7421,
  "lert": 44816,
  "les": 832,
  "lesh": 11833,
  "lesi": 42360,
  "lesias": 45676,
  "less": 1261,
  "lessly": 8092,
  "lessness": 16163,
  "lest": 33199,
  "let": 1736,
  "letcher": 25052,
  "lete": 7886,
  "leted": 10995,
  "letes": 30451,
  "leth": 48813,
  "lethal": 43595,
  "letion": 24198,
  "leton": 12498,
  "lets": 5340,
  "lett": 15079,
  "lette": 20659,
  "letter": 14443,
  "leum": 18671,
  "lev": 2405,
  "levant": 13889,
  "levard": 17917,
  "level": 4416,
  "leveland": 8329,
  "levision": 3889,
  "lewood": 44048,
  "lex": 2659,
  "ley": 1546,
  "leys": 20646,
  "lez": 34485,
  "lf": 1734,
  "li": 956,
  "lia": 22836,
  "liable": 23210,
  "liament": 4155,
  "liance": 39531,
  "lib": 13650,
  "liber": 20028,
  "liberal": 27165,
  "library": 47941,
  "lic": 639,
  "lication": 15904,
  "lications": 24584,
  "licensed": 32139,
  "lich": 23659,
  "licia": 33942,
  "lick": 3947,
  "lickr": 14943,
  "lict": 20023,
  "licted": 26717,
  "liction": 43265,
  "lid": 48019,
  "lide": 23770,
  "lides": 47506,
  "lie": 14026,
  "lied": 11527,
  "lient": 15144,
  "lier": 2114,
  "liers": 15800,
  "lies": 6936,
  "liest": 10064,
  "lif": 31118,
  "life": 5663,
  "lift": 27994,
  "lifting": 30785,
  "lig": 4878,
  "liga": 28101,
  "light": 2361,
  "lighting": 40583,
  "lightly": 33440,
  "lights": 14585,
  "lihood": 10678,
  "lik": 32111,
  "like": 2265,
  "likely": 33639,
  "lim": 2263,
  "lime": 34821,
  "liminary": 12268,
  "limit": 40020,
  "limited": 10694,
  "limits": 46171,
  "lin": 2934,
  "line": 1323,
  "linear": 29711,
  "lined": 9460,
  "liner": 21727,
  "liners": 26099,
  "lines": 5746,
  "liness": 26382,
  "ling": 1260,
  "linger": 38490,
  "lings": 21019,
  "lington": 14806,
  "lining": 16529,
  "link": 11228,
  "linked": 24419,
  "links": 34562,
  "lins": 20970,
  "linson": 43130,
  "linux": 32268,
  "lio": 31230,
  "lip": 46922,
  "lipped": 47179,
  "liqu": 32831,
  "lique": 36815,
  "liquid": 41240,
  "lis": 26445,
  "lisberger": 40427,
  "lish": 2293,
  "list": 6997,
  "listed": 17157,
  "lists": 23953,
  "lit": 18448,
  "lite": 43353,
  "liter": 16184,
  "literally": 35992,
  "little": 30147,
  "lium": 28044,
  "liv": 18114,
  "live": 13625,
  "lived": 19953,
  "liver": 12234,
  "living": 28228,
  "ll": 298,
  "lla": 7775,
  "llah": 17928,
  "llan": 33067,
  "llar": 48985,
  "llect": 6464,
  "llectual": 26219,
  "lled": 2679,
  "llen": 39704,
  "ller": 5638,
  "llers": 12630,
  "lli": 11624,
  "llig": 2681,
  "lligence": 3101,
  "lligent": 32492,
  "lling": 2046,
  "llington": 21955,
  "llo": 13413,
  "llor": 11223,
  "lls": 7020,
  "llular": 34937,
  "lly": 10276,
  "ln": 22870,
  "lo": 5239,
  "load": 2871,
  "loaded": 19234,
  "loader": 38356,
  "loading": 28351,
  "loads": 41970,
  "lob": 35343,
  "loc": 28455,
  "local": 16284,
  "localhost": 39329,
  "location": 38707,
  "lock": 7397,
  "locked": 28339,
  "locks": 38400,
  "loe": 29760,
  "log": 7985,
  "login": 48848,
  "loid": 31101,
  "lon": 15960,
  "long": 6041,
  "loo": 26905,
  "look": 5244,
  "looking": 10986,
  "loop": 28258,
  "lop": 42693,
  "lopp": 27016,
  "lor": 4767,
  "lord": 25211,
  "lords": 37566,
  "lore": 32982,
  "los": 37295,
  "loss": 24482,
  "lost": 30716,
  "lot": 28074,
  "lou": 49424,
  "lov": 33376,
  "love": 23170,
  "loved": 44417,
  "loving": 28222,
  "low": 8918,
  "lower": 24576,
  "lp": 918,
  "ls": 7530,
  "lsa": 34307,
  "lt": 2465,
  "ltry": 29098,
  "lu": 10890,
  "luck": 40333,
  "lud": 754,
  "lude": 13683,
  "luded": 17282,
  "ludes": 21448,
  "ludge": 45696,
  "luding": 6645,
  "luence": 39852,
  "luent": 23826,
  "lund": 32189,
  "lus": 27210,
  "lusconi": 36137,
  "lusion": 47455,
  "lux": 46365,
  "lv": 6944,
  "lves": 27701,
  "lvester": 45936,
  "ly": 306,
  "lying": 3243,
  "lymp": 5516,
  "lyn": 5561,
  "lynn": 10887,
  "lyt": 47932,
  "lÃ©": 44464,
  "m": 109,
  "mAh": 41135,
  "mL": 42936,
  "ma": 3080,
  "mac": 28764,
  "machine": 31875,
  "mad": 8568,
  "made": 9057,
  "mag": 26351,
  "mage": 24977,
  "magic": 28644,
  "maid": 23628,
  "mail": 4876,
  "mailed": 47756,
  "mails": 20787,
  "main": 12558,
  "maine": 43624,
  "mainly": 48206,
  "major": 19358,
  "majority": 28248,
  "make": 18615,
  "maker": 8768,
  "makers": 4972,
  "makes": 44527,
  "making": 7692,
  "mal": 7661,
  "mala": 25401,
  "male": 26747,
  "malink": 25047,
  "mallow": 39241,
  "man": 762,
  "mana": 34978,
  "managed": 35410,
  "management": 23609,
  "manager": 46088,
  "mand": 19562,
  "manent": 41797,
  "mani": 45508,
  "mania": 26557,
  "mann": 7850,
  "manned": 23185,
  "mans": 9466,
  "manship": 23773,
  "manuel": 14535,
  "manufact": 47828,
  "many": 19071,
  "map": 12266,
  "maps": 39330,
  "mar": 3849,
  "mare": 12212,
  "mares": 27306,
  "marg": 38401,
  "margin": 49114,
  "marijuana": 47698,
  "marine": 40074,
  "mark": 4024,
  "marked": 21461,
  "market": 9882,
  "markets": 28400,
  "marks": 14013,
  "marriage": 37776,
  "married": 28505,
  "mart": 12546,
  "mary": 8488,
  "mas": 5083,
  "mass": 20924,
  "massive": 37136,
  "master": 13208,
  "masters": 42551,
  "mat": 9014,
  "match": 21032,
  "matched": 30432,
  "mate": 7930,
  "material": 46698,
  "mates": 5968,
  "math": 9838,
  "mathbf": 49985,
  "matic": 12318,
  "max": 17694,
  "may": 11128,
  "maybe": 25236,
  "mb": 2172,
  "mber": 1657,
  "mberg": 41345,
  "mble": 10784,
  "mbuds": 36266,
  "mbudsman": 37221,
  "mc": 41123,
  "md": 28237,
  "me": 2535,
  "meal": 27809,
  "mean": 35123,
  "meaning": 22475,
  "measures": 43032,
  "meat": 42651,
  "med": 1129,
  "medi": 2434,
  "media": 12121,
  "mediate": 27981,
  "mediated": 40298,
  "mediately": 23454,
  "medical": 37825,
  "medium": 41148,
  "meet": 47925,
  "meg": 27251,
  "mega": 19133,
  "megapixel": 45111,
  "meier": 41922,
  "mel": 15150,
  "melon": 47156,
  "mem": 16760,
  "member": 16781,
  "members": 31011,
  "memory": 37190,
  "men": 3582,
  "mency": 47723,
  "mens": 40900,
  "ment": 379,
  "mental": 17929,
  "mentation": 15754,
  "mente": 45637,
  "mented": 10830,
  "mentia": 23677,
  "mentioned": 15853,
  "ments": 771,
  "menu": 43790,
  "mer": 581,
  "merce": 10750,
  "mercial": 16641,
  "mere": 37321,
  "merga": 32549,
  "meric": 834,
  "mers": 9403,
  "mert": 38345,
  "mes": 6360,
  "mese": 42137,
  "mess": 42304,
  "message": 28416,
  "met": 4550,
  "meta": 44158,
  "metal": 32065,
  "meter": 26608,
  "method": 32683,
  "metic": 17838,
  "metics": 32175,
  "metre": 37315,
  "metric": 28454,
  "metrical": 33813,
  "metry": 21376,
  "meyer": 47003,
  "mg": 20403,
  "mi": 14099,
  "mia": 22897,
  "mic": 10264,
  "micro": 40408,
  "mid": 12143,
  "middle": 26080,
  "midt": 17236,
  "mie": 41625,
  "might": 40779,
  "mil": 32737,
  "mile": 14720,
  "military": 27508,
  "mill": 16680,
  "millan": 49438,
  "million": 11169,
  "mills": 49017,
  "min": 1117,
  "minate": 36901,
  "mination": 14263,
  "mind": 9505,
  "minded": 12287,
  "mine": 4202,
  "mined": 15041,
  "minent": 16306,
  "mines": 14266,
  "ming": 1874,
  "mingham": 14753,
  "mington": 29322,
  "mini": 47886,
  "minimum": 46759,
  "mining": 17522,
  "minist": 1953,
  "ministic": 44370,
  "minster": 15994,
  "mint": 42252,
  "minus": 36077,
  "minute": 9300,
  "mir": 10400,
  "mire": 37145,
  "mis": 23872,
  "mish": 46366,
  "miss": 3963,
  "missible": 24477,
  "missing": 47587,
  "mission": 3973,
  "missions": 9914,
  "missive": 36920,
  "mist": 36869,
  "mit": 1391,
  "mitage": 49665,
  "mite": 28939,
  "mith": 25802,
  "mits": 10557,
  "mitt": 18964,
  "mitted": 3385,
  "mittedly": 35187,
  "mittee": 3983,
  "mix": 37684,
  "mixed": 49468,
  "ml": 6607,
  "mm": 5801,
  "mmm": 38723,
  "mn": 13140,
  "mo": 7211,
  "mobile": 27815,
  "mod": 7392,
  "mode": 26428,
  "model": 24377,
  "moderate": 37943,
  "modern": 20366,
  "modified": 47296,
  "modo": 43977,
  "module": 33255,
  "modules": 47979,
  "moil": 20401,
  "mom": 36979,
  "mon": 2787,
  "monary": 40698,
  "mond": 5749,
  "monds": 36311,
  "monella": 47279,
  "money": 23515,
  "mong": 25709,
  "mongering": 37226,
  "mons": 11341,
  "mont": 7432,
  "month": 7572,
  "monton": 15293,
  "mony": 9110,
  "moon": 22818,
  "mor": 22366,
  "moral": 38575,
  "more": 3610,
  "morning": 42876,
  "morph": 33495,
  "mort": 24142,
  "mortem": 40772,
  "mos": 15434,
  "mosp": 5720,
  "most": 1600,
  "mostly": 25607,
  "mot": 24757,
  "mother": 12412,
  "motion": 36944,
  "mount": 17381,
  "mountable": 41459,
  "mounted": 32433,
  "mouse": 49088,
  "mouth": 13227,
  "move": 22308,
  "movement": 35629,
  "movie": 41700,
  "moving": 27694,
  "mp": 3288,
  "mph": 17905,
  "ms": 928,
  "msg": 40537,
  "mson": 23361,
  "mt": 24922,
  "mu": 34859,
  "much": 25837,
  "mud": 40534,
  "mult": 21093,
  "multi": 49170,
  "multiple": 46291,
  "mun": 6877,
  "mund": 15795,
  "munition": 13811,
  "mur": 30283,
  "mus": 16572,
  "music": 35412,
  "must": 28385,
  "mut": 20017,
  "my": 1802,
  "myra": 44467,
  "mys": 45797,
  "n": 110,
  "na": 2696,
  "naev": 31929,
  "nah": 40448,
  "nai": 32380,
  "nail": 36418,
  "nails": 31564,
  "naire": 26785,
  "naires": 43865,
  "naissance": 34928,
  "nam": 6599,
  "name": 6575,
  "named": 11676,
  "names": 14179,
  "namese": 17959,
  "namo": 36228,
  "nan": 11278,
  "nance": 44737,
  "nant": 37192,
  "nar": 18029,
  "nard": 34495,
  "nas": 23591,
  "nasa": 44438,
  "natal": 36504,
  "natic": 32328,
  "nation": 25248,
  "national": 14354,
  "native": 35765,
  "natural": 11845,
  "nature": 48997,
  "nav": 30455,
  "nc": 22168,
  "nce": 1242,
  "nces": 3276,
  "nd": 356,
  "nda": 40484,
  "nder": 694,
  "ndering": 19576,
  "nders": 26078,
  "ndez": 39641,
  "ndra": 18845,
  "ne": 691,
  "nea": 42824,
  "neapolis": 15756,
  "near": 38277,
  "nearly": 41164,
  "neath": 13803,
  "neau": 34919,
  "nec": 34176,
  "necess": 10109,
  "necessary": 43438,
  "neck": 27747,
  "nect": 1760,
  "ned": 1197,
  "nedy": 8236,
  "nee": 28993,
  "need": 33155,
  "needed": 23430,
  "needs": 48840,
  "neg": 11466,
  "negative": 33150,
  "negie": 25876,
  "nel": 4764,
  "nell": 5772,
  "nelly": 33526,
  "nels": 17576,
  "nen": 26754,
  "ner": 1013,
  "nered": 12833,
  "nerg": 30433,
  "nergy": 5964,
  "ners": 2479,
  "nery": 30486,
  "nes": 1965,
  "nesday": 2809,
  "nesia": 34226,
  "nesium": 32429,
  "nesota": 6999,
  "ness": 1172,
  "nesset": 39639,
  "nesty": 14119,
  "net": 3934,
  "netes": 38915,
  "netic": 10022,
  "nets": 42916,
  "nett": 32724,
  "nette": 40299,
  "network": 32793,
  "neutral": 27800,
  "never": 12708,
  "new": 3626,
  "news": 10494,
  "nex": 15269,
  "next": 25318,
  "ney": 1511,
  "neys": 19164,
  "nez": 44348,
  "ng": 819,
  "nga": 45207,
  "ngen": 46481,
  "ngth": 20159,
  "ni": 8192,
  "nia": 16714,
  "niak": 47555,
  "nian": 35928,
  "nic": 6604,
  "nice": 41119,
  "nicious": 43809,
  "nick": 24028,
  "nie": 11280,
  "nies": 49157,
  "night": 4654,
  "nik": 14887,
  "nikov": 35810,
  "nin": 37146,
  "nine": 27841,
  "ning": 725,
  "nings": 19861,
  "nington": 43701,
  "nis": 19469,
  "nish": 40469,
  "nl": 39485,
  "nm": 27332,
  "nn": 44172,
  "no": 4323,
  "nob": 32616,
  "node": 27643,
  "nom": 23523,
  "nominated": 46214,
  "non": 11558,
  "none": 31475,
  "noon": 5436,
  "nor": 12436,
  "normal": 13172,
  "north": 49089,
  "nos": 47421,
  "not": 1810,
  "notch": 44177,
  "note": 12920,
  "notes": 23181,
  "nothing": 23997,
  "noticed": 26490,
  "nour": 45179,
  "nov": 37851,
  "now": 2177,
  "nown": 3814,
  "nox": 30543,
  "np": 44071,
  "ns": 2531,
  "nsic": 17891,
  "nsics": 42439,
  "nt": 435,
  "ntil": 8994,
  "nton": 23205,
  "nu": 36896,
  "nuclear": 32817,
  "null": 19475,
  "num": 26488,
  "number": 21658,
  "numbered": 31154,
  "nut": 15505,
  "nutrition": 36513,
  "nuts": 29748,
  "ny": 3393,
  "nyder": 16704,
  "nyk": 48593,
  "nz": 45922,
  "o": 111,
  "oS": 43247,
  "oa": 13779,
  "oad": 1535,
  "oan": 20541,
  "oard": 12356,
  "oat": 18865,
  "ob": 668,
  "oba": 17968,
  "obacter": 39498,
  "obal": 2240,
  "obalt": 43452,
  "obar": 31476,
  "obb": 6591,
  "obby": 5182,
  "obe": 5733,
  "ober": 1835,
  "obi": 15883,
  "obia": 30610,
  "obic": 21458,
  "obil": 24076,
  "obile": 6901,
  "obiles": 30526,
  "obj": 46179,
  "object": 21237,
  "obo": 28271,
  "obos": 41494,
  "obs": 8198,
  "obsessed": 45356,
  "obviously": 49413,
  "oby": 25835,
  "obyl": 37990,
  "oc": 427,
  "oca": 10012,
  "ocal": 4955,
  "ocally": 33479,
  "ocaly": 13808,
  "ocalypse": 19606,
  "ocalyptic": 23882,
  "ocamp": 25487,
  "ocate": 12801,
  "ocated": 10659,
  "ocating": 23190,
  "ocation": 7035,
  "ocations": 25717,
  "ocative": 42668,
  "ocaust": 13857,
  "occ": 13865,
  "occup": 17821,
  "occupation": 43900,
  "occupied": 25053,
  "ocence": 49964,
  "ocene": 28612,
  "ocent": 33561,
  "ocese": 24761,
  "och": 5327,
  "oche": 28771,
  "ochem": 22445,
  "ochond": 23193,
  "oci": 1778,
  "ocial": 10023,
  "ociate": 46304,
  "ociated": 19504,
  "ociation": 41712,
  "ocide": 14399,
  "ocin": 40669,
  "ocious": 30279,
  "ocity": 14118,
  "ock": 792,
  "ocked": 3615,
  "ocker": 12590,
  "ocket": 6474,
  "ockets": 12496,
  "ockey": 6596,
  "ocking": 5464,
  "ocks": 3961,
  "oco": 27190,
  "ococ": 43288,
  "ocol": 5076,
  "ocolate": 9346,
  "ocr": 4251,
  "ocracies": 26360,
  "ocracy": 4786,
  "ocrat": 1580,
  "ocratic": 6206,
  "ocrats": 14876,
  "ocre": 24115,
  "ocrine": 43585,
  "ocrity": 44998,
  "oct": 48926,
  "ocument": 9141,
  "ocumented": 14023,
  "ocur": 12011,
  "ocus": 12393,
  "ocused": 18972,
  "ocusing": 42022,
  "ocy": 16923,
  "ocytes": 36862,
  "od": 400,
  "oda": 18077,
  "oday": 3905,
  "odd": 5643,
  "odder": 31839,
  "oddy": 33038,
  "ode": 1344,
  "odeau": 47754,
  "oded": 8886,
  "odeon": 43860,
  "oder": 19306,
  "odes": 4392,
  "odge": 10493,
  "odi": 35414,
  "odiac": 42926,
  "odic": 25989,
  "odie": 45128,
  "odied": 28251,
  "odies": 4964,
  "oding": 8377,
  "odka": 26989,
  "odo": 23864,
  "odon": 44154,
  "odor": 26675,
  "odore": 21962,
  "odox": 9889,
  "ods": 21948,
  "odus": 23386,
  "ody": 1193,
  "odynam": 22699,
  "odynamic": 31993,
  "odynamics": 39248,
  "oe": 2497,
  "oen": 8014,
  "oenix": 9269,
  "oes": 3548,
  "oeuv": 33352,
  "oey": 43237,
  "of": 635,
  "ofer": 45876,
  "off": 2067,
  "offensive": 36177,
  "office": 29528,
  "official": 15583,
  "officially": 44595,
  "offs": 11177,
  "offset": 49382,
  "ofi": 46199,
  "ofsky": 47052,
  "oft": 7438,
  "often": 24823,
  "oftops": 44731,
  "og": 525,
  "oga": 10383,
  "ogan": 6891,
  "ogen": 7938,
  "ogene": 21846,
  "ogeneity": 37734,
  "ogeneous": 32374,
  "ogenesis": 33424,
  "ogenic": 17220,
  "ogenous": 30089,
  "ogens": 25439,
  "ogether": 7768,
  "ogg": 13005,
  "oggle": 31485,
  "oggling": 40351,
  "ogh": 48877,
  "ogi": 33863,
  "ogical": 44347,
  "ogie": 39370,
  "ogle": 2317,
  "oglob": 46411,
  "oglu": 39356,
  "ogly": 41168,
  "ogn": 2309,
  "ognition": 49656,
  "ognitive": 28912,
  "ogo": 24506,
  "ogram": 22950,
  "ograms": 23964,
  "ograp": 1956,
  "ograph": 2298,
  "ographed": 35388,
  "ographer": 16516,
  "ographers": 28855,
  "ographic": 6650,
  "ographical": 16479,
  "ographically": 28496,
  "ographics": 19970,
  "ographies": 35577,
  "ographs": 31597,
  "ography": 4558,
  "ogs": 20007,
  "ogue": 5616,
  "ogy": 9989,
  "ogyn": 17945,
  "oh": 1107,
  "oha": 28465,
  "ohan": 23298,
  "ohl": 38862,
  "ohn": 1413,
  "oho": 39638,
  "ohyd": 22491,
  "oi": 25738,
  "oia": 47067,
  "oice": 9729,
  "oid": 2319,
  "oids": 20515,
  "oil": 22070,
  "oiler": 35196,
  "oin": 24375,
  "oine": 36157,
  "oing": 42726,
  "oint": 1626,
  "ointe": 34368,
  "ointed": 18935,
  "ointee": 46833,
  "ointees": 36062,
  "oir": 18350,
  "oirs": 31392,
  "ois": 9559,
  "oise": 30237,
  "oit": 21823,
  "oitation": 48998,
  "oitte": 44982,
  "oj": 12776,
  "oji": 26921,
  "ojima": 42094,
  "ojure": 27732,
  "ok": 487,
  "oka": 21584,
  "okane": 37439,
  "oke": 2452,
  "oked": 6333,
  "okemon": 18672,
  "oken": 5914,
  "oker": 10689,
  "okers": 39378,
  "okes": 2664,
  "oki": 32156,
  "okia": 16467,
  "oking": 5691,
  "okingly": 38838,
  "oko": 16410,
  "okovic": 43797,
  "oks": 25878,
  "oku": 17271,
  "ol": 349,
  "ola": 5195,
  "olan": 14465,
  "oland": 47988,
  "olar": 10026,
  "olas": 11264,
  "olate": 31713,
  "olated": 48815,
  "olation": 21676,
  "old": 777,
  "older": 46046,
  "oldown": 22362,
  "olds": 9342,
  "oldt": 41730,
  "ole": 2522,
  "olean": 26332,
  "olen": 8063,
  "oler": 13382,
  "olerance": 36369,
  "oles": 3996,
  "olester": 20033,
  "olesterol": 21384,
  "oley": 39065,
  "olf": 4487,
  "oli": 10487,
  "olia": 21657,
  "oliath": 38905,
  "oliberal": 22016,
  "olic": 3912,
  "olicited": 46875,
  "olics": 16733,
  "olicy": 25163,
  "olid": 10835,
  "olin": 32004,
  "oline": 13394,
  "oling": 44449,
  "olini": 34945,
  "olis": 7945,
  "olit": 5145,
  "olitan": 11478,
  "olitano": 37542,
  "olith": 19680,
  "olithic": 25713,
  "olitical": 10958,
  "olitics": 18023,
  "olition": 47499,
  "olk": 13084,
  "olkien": 27181,
  "oll": 791,
  "olla": 28208,
  "ollah": 13376,
  "ollar": 11125,
  "ollen": 30412,
  "oller": 39032,
  "ollip": 37540,
  "ollipop": 40531,
  "ollo": 16690,
  "ollow": 989,
  "olls": 24837,
  "ollum": 45840,
  "olly": 4768,
  "ollywood": 6372,
  "oln": 9955,
  "olo": 13851,
  "olog": 910,
  "ologic": 27918,
  "ological": 2753,
  "ologically": 12087,
  "ologies": 5236,
  "ologist": 6494,
  "ologists": 8212,
  "ologne": 26251,
  "ologue": 31913,
  "ologues": 38761,
  "ology": 1385,
  "olon": 40657,
  "olph": 9048,
  "olphin": 25772,
  "olphins": 13717,
  "ols": 10612,
  "olson": 25864,
  "olt": 7335,
  "oltz": 44877,
  "olulu": 33558,
  "olute": 3540,
  "olutely": 14523,
  "olution": 2081,
  "olutions": 13824,
  "olve": 6452,
  "olved": 5462,
  "olver": 33730,
  "olves": 9240,
  "olving": 9962,
  "oly": 4407,
  "olyn": 30538,
  "om": 296,
  "oma": 6532,
  "omac": 45859,
  "omach": 11951,
  "omal": 36081,
  "oman": 4620,
  "omans": 45782,
  "omas": 4512,
  "omatic": 15066,
  "omayor": 48315,
  "omb": 2667,
  "ombat": 44997,
  "ombie": 48512,
  "ombo": 41462,
  "ombs": 35405,
  "ome": 460,
  "omed": 9536,
  "omeday": 19797,
  "omedical": 32500,
  "omen": 3523,
  "omer": 11743,
  "omers": 16602,
  "omes": 9152,
  "omet": 890,
  "ometer": 16718,
  "ometers": 36460,
  "ometh": 49482,
  "omething": 8241,
  "ometime": 44684,
  "ometimes": 6401,
  "ometown": 15385,
  "ometric": 21788,
  "ometrics": 49483,
  "ometry": 35168,
  "omever": 42508,
  "omey": 41830,
  "omez": 24618,
  "omi": 15967,
  "omial": 43630,
  "omic": 11018,
  "omical": 20094,
  "omics": 35016,
  "omin": 6242,
  "ominated": 46774,
  "omination": 26151,
  "oming": 6475,
  "ominium": 41322,
  "omm": 2420,
  "omme": 37799,
  "ommend": 27748,
  "ommended": 33351,
  "ommission": 40365,
  "ommod": 8482,
  "omnia": 36740,
  "omo": 15503,
  "omon": 18399,
  "omore": 17476,
  "omorph": 25508,
  "omorphic": 40686,
  "omp": 3148,
  "ompl": 5695,
  "ompson": 9335,
  "oms": 4877,
  "omsday": 38834,
  "omsky": 30988,
  "omy": 9876,
  "on": 262,
  "ona": 4092,
  "onado": 42482,
  "onal": 16919,
  "onaut": 47239,
  "once": 26656,
  "ond": 621,
  "onda": 12054,
  "ondale": 40058,
  "onde": 16618,
  "onder": 9786,
  "onding": 31019,
  "ondo": 20351,
  "ondon": 3073,
  "onds": 12249,
  "ondu": 30085,
  "onduct": 11024,
  "onductor": 35887,
  "one": 503,
  "oned": 10938,
  "onel": 24292,
  "oneliness": 30819,
  "onella": 42908,
  "onen": 30682,
  "onent": 3945,
  "onents": 3800,
  "oner": 12904,
  "ones": 1772,
  "onest": 16606,
  "onet": 42167,
  "oney": 1287,
  "ong": 498,
  "onge": 14635,
  "onged": 44354,
  "ongevity": 23957,
  "ongh": 17288,
  "ongo": 23063,
  "ongru": 43289,
  "ongs": 31321,
  "ongyang": 17290,
  "oni": 13766,
  "onia": 12373,
  "onial": 24331,
  "onian": 28934,
  "onic": 7371,
  "onica": 33620,
  "onics": 38150,
  "onies": 15773,
  "oning": 11257,
  "onis": 46293,
  "online": 30972,
  "only": 9030,
  "onna": 6390,
  "onnaissance": 25579,
  "onne": 48526,
  "ono": 30174,
  "onom": 5514,
  "onoma": 44789,
  "onomic": 40234,
  "onomous": 30749,
  "onomy": 30113,
  "ons": 699,
  "onse": 2481,
  "onsense": 41265,
  "onsequ": 34834,
  "onsin": 7365,
  "onso": 20157,
  "onson": 33076,
  "onst": 2655,
  "onstant": 48937,
  "onstruction": 30061,
  "ont": 843,
  "onte": 27512,
  "onto": 4828,
  "onut": 16722,
  "ony": 1589,
  "onyers": 40631,
  "onym": 4967,
  "onymous": 6766,
  "onyms": 45487,
  "onz": 10371,
  "onzi": 39514,
  "onzo": 39954,
  "oo": 3354,
  "ood": 730,
  "oodle": 40711,
  "oodoo": 40354,
  "oody": 21593,
  "oof": 41890,
  "ook": 565,
  "ookie": 19244,
  "ooks": 32338,
  "ool": 1000,
  "oola": 32417,
  "ools": 13770,
  "oom": 4393,
  "oon": 2238,
  "ooned": 46530,
  "oons": 12619,
  "ooo": 49457,
  "oooo": 42406,
  "oop": 12010,
  "oops": 41231,
  "oor": 2899,
  "oos": 24318,
  "oot": 1051,
  "ooter": 23145,
  "ooters": 45730,
  "ooth": 5963,
  "ooting": 13843,
  "oots": 16460,
  "op": 391,
  "opa": 29992,
  "opal": 29336,
  "opard": 13366,
  "opath": 19336,
  "opathic": 41447,
  "opathy": 28598,
  "ope": 3141,
  "oped": 20933,
  "open": 9767,
  "opened": 39728,
  "openh": 21345,
  "openhagen": 22553,
  "opening": 31447,
  "oper": 3409,
  "operate": 49216,
  "operated": 43143,
  "operation": 24203,
  "operative": 27658,
  "opers": 27383,
  "opes": 13199,
  "opez": 17420,
  "opf": 46931,
  "oph": 2526,
  "ophe": 46368,
  "opher": 7900,
  "ophers": 19795,
  "ophile": 34972,
  "ophiles": 48990,
  "ophilia": 49273,
  "ophob": 11033,
[...]
