#version: 0.2
Ġ t
Ġ a
h e
i n
r e
Ġt he
o n
e r
Ġ s
Ġ w
a t
Ġ o
e n
Ġ c
i t
i s
a n
o r
Ġ b
e d
e s
Ġ f
in g
Ġ p
o u
Ġa n
Ġt o
a l
a r
Ġ m
Ġ in
Ġo f
Ġ h
Ġ d
â Ģ
a s
Ġan d
i c
Ġt h
l e
o m
i on
l l
en t
Ġ n
Ġ l
Ġ re
s t
v e
Ġ e
l y
Ġb e
r o
Ġ g
i d
u t
a c
o t
Ġ T
Ġ I
Ġth at
Ġ on
a y
Ġ is
Ġ S
i m
e t
a m
a d
o w
s e
Ġf or
i g
âĢ Ļ
Ġ A
v er
c t
l d
u r
Ġ C
Ġ u
Ġs t
Ġ y
Ġ it
Ġ he
i r
at ion
it h
Ġw h
Ġ M
c e
t er
Ġw e
o l
i l
Ġw ith
Ġa s
Ġ B
c h
i ll
n d
Ġw as
Ġ P
Ġy ou
er s
k e
Ġ âĢ
Ġc on
Ġd e
Ġ r
he r
i f
at e
Ġa t
a g
Ġh a
Ġ W
Ġs e
Ġ H
o re
Ġp ro
u l
p p
m ent
Ġa re
r i
Ġ D
Ġ 1
es t
Ġc om
u s
is t
an d
Ġ R
a in
o p
ĠT he
Ġ 2
ig h
r om
Ġ (
or t
o d
Ġn e
Ġ F
Ġe x
u m
u n
re s
âĢ Ŀ
a b
Ġn ot
Ġ N
Ġ v
Ġha ve
es s
it y
ou ld
Ġo r
e m
Ġb y
t h
o s
an t
Ġ G
i ve
Ġf rom
Ġa l
' s
e l
Ġs u
ar t
o c
Ġ L
Ġs h
Ġth is
n t
q u
igh t
p e
u st
Ġ le
i es
Ġ E
en d
Ġc h
Ġs a
ou t
Ġa b
T he
al l
i e
ac k
re d
ĠâĢ ľ
Ġh as
al ly
0 0
Ġp l
Ġ J
Ġg o
ar d
Ġh is
om e
i v
g h
o st
a p
e ar
Ġ O
Ġt r
ou r
as t
Ġ j
a k
u d
Ġd o
Ġthe y
Ġb ut
Ġw or
Ġc an
r ou
Ġw ill
g e
Ġsa id
Ġw he
Ġ U
ic h
Ġ k
Ġa ll
o k
Ġ "
Ġwh o
id e
Ġin t
am e
t her
an s
i al
Ġo ut
Ġthe ir
f f
on g
e ct
ic e
p l
u re
p t
Ġm ore
on e
ag e
ion s
ac t
i ke
Ġm e
Ġu p
ou s
Ġa d
in e
Ġab out
at ed
r a
Ġon e
b er
Ġwe re
Ġs o
Ġu s
im e
o g
e p
Ġh ad
Ġ K
a re
i a
u b
c c
Ġw ould
Ġc l
Ġ2 0
Ġ im
Ġwh ich
in d
a ke
u e
Ġcon t
ver y
Ġa g
i z
Ġt e
Ġof f
Ġcom p
Ġbe en
Ġu n
ĠS t
Ġ en
s o
p er
ig n
a u
ĠT h
ar y
Ġy ear
ac e
e w
i p
Ġl ike
v en
e re
Ġin c
o ok
ay s
Ġm an
Ġp e
o se
r y
Ġre s
Ġp er
ab le
it e
as s
Ġs p
or d
Ġo ther
ĠI n
i re
m er
Ġs ome
i le
en ce
op le
i b
Ġ20 1
ation s
k s
Ġo ver
Ġthe re
ic al
res s
Ġd is
ul t
in t
Ġne w
ow n
Ġal so
Ġth an
Ġbe c
Ġa r
Ġthe m
an ce
ou nt
ou gh
r u
Ġa pp
p ort
Ġp art
a il
Ġyou r
Ġwhe n
Ġwh at
re e
Ġpe ople
or m
f ter
on d
Ġs c
Ġ qu
ĠC h
as e
a v
Ġan y
Ġj ust
Ġit s
Ġ Y
Ġt ime
ac h
ĠI t
Ġk n
Ġhe r
Ġ 3
Ġre c
l ic
re at
Ġm y
en s
Ġ if
Ġg et
. âĢĿ
Ġint o
Ġ V
Ġwor k
i an
ou nd
Ġt w
ir st
ve l
ct ion
Ġn o
d u
ing s
or y
Ġo ur
ic k
id ent
or s
it ion
Ġ -
Ġp re
o ve
o b
Ġpl ay
an g
in k
au se
w n
am p
ad e
h ing
at es
it t
ar k
Ġ ro
Ġs he
Ġp ol
ver s
Ġc o
Ġa fter
, âĢĿ
Ġf irst
Ġc ould
Ġh ow
ĠH e
Ġ1 9
n e
i ous
Ġa cc
nd er
i ld
Ġh im
' t
Ġp o
on s
a w
Ġon ly
Ġf e
Ġat t
ic t
he d
Ġp r
Ġtw o
o v
Ġcom m
is h
âĢ ľ
Ġs pe
f orm
Ġa ct
Ġs er
Ġb l
w e
f t
Ġbe t
Ġde c
. "
n ing
t e
Ġb ack
Ġm ost
c es
o od
c k
ĠâĢ ĵ
Ġa m
Ġd id
o y
rou gh
if f
rou nd
at er
Ġag ain
Ġ 4
u al
d ay
Ġu nder
Ġw ant
Ġd es
is e
Ġcon s
se l
u ll
ĠâĢ Ķ
Ġbec ause
r it
Ġn ow
l ud
ent s
Ġyear s
ub lic
ter n
Ġne ed
m an
Ġe ven
. .
Ġ $
e c
Ġin v
is s
Ġkn ow
ĠW e
Ġse e
ment s
Ġad d
c ed
, "
Ġin d
o ld
Ġse c
f ore
Ġe very
u ch
ur n
Ġ 5
Ġsu pp
Ġm ake
pe ct
Ġe m
Ġthe se
ĠU n
o ll
oc k
Ġwhe re
j ect
ver n
ation al
I n
x t
Ġb u
Ġl ook
ĠA nd
Ġd on
T h
os s
Ġe v
Ġw ay
at ing
um p
Ġbe ing
Ġre m
Ġr ight
Ġm ay
i ly
Ġthe n
Ġman y
ro w
le ct
ie w
Ġ [
n g
Ġd iff
Ġde f
as on
Ġre l
Ġc all
ĠB ut
as ed
ĠT r
Ġinc lud
on t
Ġth ink
i ed
ak ing
l es
Ġre g
) .
mer ic
Ġth rough
Ġim p
it ed
ri b
Ġs y
at h
Ġsh ould
Ġs ay
Ġp res
ur ing
Ġl ast
Ġf l
Ġth ose
Ġ very
ow er
ot her
e ll
Ġm uch
Ġst ate
it ies
if ic
ĠTh is
Ġsh ow
Ġb r
at ive
he n
t y
s s
ar g
Ġwe ll
ot h
Ġc ount
v ed
ĠW h
Ġp h
Ġdo es
Ġ2 00
al s
Ġd own
Ġo wn
ar ly
Ġ end
t ing
Ġas s
u nd
Ġu se
Ġbe l
ic s
an ge
Ġl ong
ĠA meric
in ce
ter s
Ġbe fore
om et
Ġm on
Ġgo vern
w ard
g r
Ġst art
Ġre port
ib le
Ġ ke
u es
ĠN ew
u p
t s
Ġf in
Ġte am
Ġm ade
b le
if e
ol og
) ,
Ġsu ch
en er
ou n
re n
c om
ers on
- -
Ġs m
Ġgo ing
l p
il ity
Ġwor ld
f ul
i x
u ally
Ġst ud
e k
âĢ Ķ
Ġgo od
is m
Ġa c
ist s
t ain
I t
Ġe ff
Ġsu b
Ġagain st
Ġs ur
Ġg ame
Ġs et
it s
Ġg u
Ġpo int
Ġ 6
or k
Ġ ent
g an
st em
00 0
y s
Ġst ill
ar s
rou p
Ġwh ile
l i
ill ion
Ġhe lp
Ġle ad
we en
Ġm in
v ing
Ġs ays
im es
Ġo b
al k
Ġpro du
e f
a x
m s
Ġg r
an k
c y
Ġin ter
Ġin st
Ġst r
Ġs im
c ess
sel f
Ġcon f
Ġc ol
Ġt ake
u res
i o
Ġs ame
Ġbet ween
Ġth ough
ar ch
Ġoff ic
oll ow
e ver
Ġdiff ere
Ġc r
Ġpro v
ut ion
Ġdis c
us s
o ol
Ġ ed
Ġh igh
Ġo p
l and
a ir
Ġn um
Ġl aw
Ġs ign
re ad
w ay
Ġgovern ment
l ed
n er
h ip
ĠR e
g g
at ch
am es
he s
an y
Ġs omet
Ġt er
vel op
c ent
a h
Ġre f
Ġtr ans
Ġin s
Ġr un
W e
Ġf ound
Ġth ree
Ġm em
Ġa round
iv es
Ġhe re
at her
a ve
Ġm ed
Ġre al
Ġus ed
Ġ1 0
Ġex p
ou se
e e
Ġsy stem
ĠY ou
ce pt
ĠA r
Ġre ally
o ot
v es
Ġm od
Ġg roup
Ġsupp ort
c i
c er
c on
Ġc our
a z
Ġ 7
et s
Ġh and
Ġre t
Ġp ublic
al e
Ġspe c
in s
y ing
Ġg reat
p r
en se
Ġc ar
Ġex t
. [
ire ct
Ġc ur
Ġf am
ĠC om
al th
Ġha pp
Ġf act
Ġex per
ĠThe y
ĠTr ump
t on
Ġw om
Ġf r
ĠI s
Ġc ap
Ġb oth
Ġd ay
Ġf ind
Ġre ad
ul ar
ĠA l
Ġd et
p h
ic es
in es
Ġre p
Ġs l
ut h
Ġd uring
o h
e red
ĠA s
Ġmon th
ĠS h
Ġde velop
Ġ 0
Ġc re
Ġb ig
is ion
m in
e x
Ġp erson
Ġf ollow
ak es
Ġ 8
Ġis s
t he
ĠC l
Ġto ld
Ġs ince
a red
Ġwe ek
ic ally
m ed
ag es
i vers
Ġf ew
Ġw ar
ord ing
ort h
Ġc ent
Ġle g
Ġpol it
g et
Ġex pl
a j
Ġl ot
ĠL e
Ġbel ie
Ġg ener
as h
Ġto o
r ic
Ġo pp
re nt
d er
Ġ 9
Ġre qu
Ġcont in
Ġpro t
W h
b ers
at a
Ġf il
i et
ent ion
Ġc le
an c
Ġres p
Ġp ut
ĠI f
Ġan other
iz ed
ch ool
n ess
Ġsomet hing
Ġin f
Ġdiffere nt
Ġc or
Ġl oc
Ġinv est
Ġs oc
ut e
at t
Ġp ower
ĠD e
Ġc he
Ġ '
2 0
Ġcomm un
Ġp ass
Ġl ife
Ġpl an
ĠF r
Ġre le
Ġth ings
Ġhe ad
i ence
u c
od y
Ġf ar
Ġar t
Ġp oss
n ed
th ing
Ġm et
ere st
Ġc amp
Ġv ot
t t
ar ge
ro ss
Ġb o
Ġch ild
Th is
Ġas k
v iew
Ġm ight
Ġ .
Ġe ach
ant s
Ġde p
in ess
Ġne ver
iz e
i er
Ġne xt
Ġsec ond
Ġm ark
Ġqu est
Ġb us
Ġad v
ie ld
Ġde m
Ġcom e
ĠF or
Ġg ot
ĠA n
ĠâĢ ĺ
Ġop en
Ġb est
ĠS e
Ġall ow
i ent
it al
ĠTh at
itt le
Ġse em
Ġp ost
Ġfe el
n ce
p le
ĠU S
Ġp ri
ĠP ro
Ġper cent
gr am
i k
Ġh ome
Ġd ist
Ġd irect
r at
i red
Ġinc re
Ġw r
Ġcont ro
u g
ĠR ep
c l
t en
os ed
er v
s on
l ess
Ġres ult
or n
Ġh ard
Ġc are
Ġm illion
ate ly
Ġcomp le
Ġpl ace
Ġwith out
Ġin form
Ġinclud ing
Ġim port
ch n
Ġa v
con om
re t
Ġh um
Ġpro ble
Ġ ide
Ġbu ild
Ġto p
Ġnum ber
Ġcount ry
am a
one y
a im
g y
ĠB l
ab ly
Ġst and
r al
Ġf our
is hed
Ġe l
Ġg l
ri end
u ro
Ġpart ic
w ays
Ġbet ter
Ġrec ent
Ġt ri
B ut
Ġint erest
Ġm ov
Ġle t
r ation
c o
Ġse ason
Ġl ess
Ġt urn
Ġl ittle
Ġbe h
Ġm il
Ġapp ro
e ad
Ġb ro
r act
Ġcall ed
l ine
is ed
l ing
Ġc ase
Ġd r
a pp
Ġle ft
Ġre st
ĠI nd
Ġp op
Ġan n
Ġm ove
Ġatt ack
en cy
ĠThe re
Ġke ep
od e
Ġf ull
le g
Ġdid n
in a
Ġser v
er ing
Ġm ain
Ġf un
aj or
Ġeff ect
1 0
Ġ Z
in al
Ġpre v
Ġpro gram
Ġus ing
Ġt est
Ġp ay
Ġe ar
at ure
Ġv al
re m
Ġpol ice
t ed
Ġfor m
Ġe conom
Ġd ata
Ġnew s
Ġp os
b e
Ġw in
ĠAmeric an
Ġle vel
Ġch ar
iv ing
ain s
Ġsm all
read y
ĠS o
in ed
Ġs chool
Ġl ist
H e
u ck
olog y
id ed
' re
pl oy
Ġe as
Ġpro cess
Ġch ange
Ġwom en
_ _
ir d
g er
Ġcur rent
Ġre ce
Ġh ist
Ġp rom
Ġd ri
t o
Ġ =
Ġpres ident
Ġcomp any
re en
us ed
i ans
Ġal ready
ru ct
ĠUn ited
oh n
Ġwh y
Ġt y
Ġb re
Ġu nt
Ġm oney
Ġm at
Ġal ways
Ġl ater
Ġex pect
Ġte chn
Ġbus iness
Ġs ol
Ġoffic ial
ĠH ow
ivers ity
Ġb ook
w it
ĠO b
st and
r ap
Ġth ing
a ign
Ġcl ass
Ġpro ject
Ġcl aim
ĠP h
Ġj ob
Ġinform ation
as es
Ġor gan
Ġ Q
Ġt alk
ĠS he
Ġdes ign
ard s
a ff
Ġch ang
Ġst ory
Ġm ajor
Ġab le
Ġ- -
Ġpro f
le ction
er tain
Ġre se
Ġhe alth
iv en
Ġv is
.. .
Ġp ast
Ġf ree
Ġo per
r on
ou th
he re
ur s
ĠA d
Ġa way
pt ion
ĠC an
i or
Ġm ust
Ġc ity
ĠB e
amp le
Ġhapp en
uth or
Ġimport ant
ur al
Ġ1 8
Ġk ill
ur ity
Ġo ld
ac y
u red
Ġ est
Ġs k
Ġdoes n
end ing
ur y
Ġle ast
Ġp at
iss ion
s c
Ġg row
ĠG o
Ġed it
ain ed
Ġv ar
Ġc ost
Ġd ays
Ġte ll
ne y
Ġcamp aign
Ġh op
id es
Ġst re
Ġc ame
id er
s ide
Ġm en
Ġa ff
Ġcon st
Ġ1 2
el s
res ident
Ġen ough
o x
Ġv iew
Ġk ind
r ist
ot t
cc ess
Ġm aking
Ġl arge
ĠM ar
Ġrec ord
o ad
ĠS p
Ġfam ily
Ġf riend
Ġm ar
er n
Ġe lect
Ġpol ic
er al
le y
Ġ1 5
us h
Ġs it
S t
Ġt ax
pp ed
is ing
al ity
âĢ ¦
iv ed
if ied
Ġunt il
are nt
Ġpolit ical
Ġde al
Ġv ide
ion al
r or
b y
A s
at or
ri es
Ġwork ing
al f
au gh
ĠRep ublic
Ġ ve
u ed
Ġto ok
Ġde b
Ġl ine
I f
ap s
ĠJ ohn
ĠCom m
is ter
ain ing
Ġa ir
b s
Ġin tern
Ġf ore
Ġ es
Ġbec ome
Ġact ually
oc rat
i ol
Ġme an
Ġf und
em ber
w are
on y
w ork
Ġfor mer
Ġof ten
an e
ĠS c
ĠP l
ĠE uro
Ġw on
Ġg ive
Ġacc ording
Ġe ver
y ear
m ost
o int
ar ing
Ġg ames
Ġhum an
Ġwor d
Ġb as
en g
is on
Ġret urn
w h
Ġt imes
Ġor der
an n
ĠR uss
Ġn ame
1 9
iz ation
ĠD em
Ġse ver
ĠA ll
g in
Ġde v
ic le
it her
ut ure
Ġ19 9
Ġb it
Ġp ar
Ġs ing
Ġper form
i qu
Ġmark et
ra ft
Ġchar ac
Ġf ac
ĠM c
ĠA t
The re
f or
ĠC on
ĠS y
Ġdo ing
Ġapp ear
ĠM ay
id d
Ġr a
ĠO r
Ġplay ers
c hed
Ġle ar
Ġn ight
Ġl a
ak en
m ber
Ġto day
Ġe arly
Ġse en
Ġha ving
Ġchild ren
Ġ ,
Ġp ot
Ġev ent
Ġmed ia
Ġsoc ial
ĠP resident
Ġc rit
Ġwhe ther
Ġsever al
ro p
Ġcontro l
at s
id ence
/ /
-- --
Ġme et
Ġmil it
1 1
Ġw ent
Ġp ress
art ment
Ġf ive
Ġyou ng
Ġsu re
or ies
Ġpro p
ious ly
Ġe qu
5 0
Ġquest ion
Ġo cc
Ġlike ly
Ġmem bers
Ġc ertain
and s
ver t
en e
Ġen g
ĠY ork
Ġw ater
un e
le t
Ġex ample
Ġs ide
Ġd one
Ġar g
ot s
ĠC ol
Ġ vers
Ġinv ol
Ġan t
i um
ĠSt ates
ĠEuro pe
ĠM r
Ġal ong
end ed
Ġsh ort
b r
E R
Ġsu ccess
Ġmonth s
ent ial
en n
Ġh our
s h
i ally
Ġ1 1
Ġse x
b all
i ver
ĠB r
em pt
Ġwith in
A nd
Ġdes c
l f
Ġcour se
Ġf ight
im ate
Ġam ong
Ġact iv
ur ch
Ġon ce
ag ue
ub l
Ġf uture
Ġinvest ig
Ġposs ible
ĠOb ama
ul ation
Ġch o
st er
Ġunder stand
Ġcon cer
it ing
Ġ ]
u ff
n ect
ort un
ĠO n
Ġproble m
re w
Ġme ans
Ġpri v
Ġv iol
Ġa uthor
on es
gg est
it ive
ĠN o
Ġav ail
ĠC ar
oc i
Ġkn own
âĢ ĵ
Ġprodu ct
our n
Ġthough t
iv id
Ġy et
Ġac ross
Ġprot ect
Ġloc al
g ress
Ġh old
Ġn on
Ġf ail
Ġw rit
ĠW hen
ĠSt ate
Ġcommun ity
Ġre ason
Ġor ig
m y
Ġsu ggest
Ġ &
ĠT e
Ġm akes
al d
ver age
in c
Ġ201 6
Ġask ed
l er
p or
n ot
ed eral
Ġreport ed
b ack
b ook
Ġg iven
ens ive
ag ed
Y ou
Ġ i
Ġstr ong
Ġpro b
or ld
Ġother s
Ġm us
Ġbelie ve
Ġvide o
i ber
Ġget ting
Ġb en
ĠH ouse
Ġann oun
an ces
Ġl ight
ĠUn iversity
ore d
o ber
Ġ3 0
le ment
Ġ ident
it ions
Ġc ut
Ġs ent
Ġl im
ir on
Ġc a
1 2
ĠCh rist
ĠC o
iet y
ur ther
Ġs our
Ġc reat
Ġcon d
' ve
Ġn et
as hing
Ġn ational
Ġcl ose
. ,
Ġstart ed
re st
Ġsa f
Ġde ath
Ġavail able
am s
am ent
Ġh ig
Ġb ased
Ġiss ue
Ġ X
Ġind ust
ĠDem ocrat
Ġl ow
Ġfollow ing
as ter
Ġacc ount
Ġl and
m ing
ĠM in
res ent
Ġem ploy
Ġl ove
ĠC ent
Ġ201 5
F or
Ġhist ory
Ġag o
Ġ #
sel ves
Ġm om
ĠA m
ort s
Ġpart y
3 0
u se
Ġser ies
Ġcom es
Ġtr ying
Ġal most
u ly
ab ility
get her
Ġto gether
ut es
ĠAmeric a
in ation
u ment
Ġide a
Ġacc ess
Ġf oc
ie f
il ar
o f
her s
re ed
ail s
Ġis n
ition al
ĠF l
ĠS en
e b
Ġcle ar
ĠO ne
Ġtr ad
th ough
ĠWh at
Ġ1 6
Ġadd ed
Ġpr act
Ġimp ro
p ro
Ġexper ience
Ġh alf
ere nce
ust om
r ing
g ed
wit ter
r ict
Ġan al
ĠB ro
Ġ201 4
int on
Ġr ul
Ġlook ing
ivid ual
Ġs ix
Ġl ive
Ġany thing
un ch
Ġare a
Ġcomple te
og rap
min ist
Ġm iss
A T
er man
ra el
Ġf av
Ġr is
Ġpres ent
ĠE x
n es
Ġsay ing
ĠP r
ru g
ĠCan ad
Ġv ict
ci ally
ot e
Ġb ad
Ġt aken
u ge
ra w
Ġent ire
1 5
a id
a f
Ġb ill
Ġcomp et
ĠW ar
Ġph ot
Ġbeh ind
at ors
ĠE ng
Ġm or
' m
ow s
Ġcour t
ĠT o
Ġtr y
Ġmilit ary
Ġne ar
Ġf ace
Ġa ut
Ġsec urity
Wh at
ward s
er t
Ġm ult
pl ay
os p
Ġ er
ĠP ol
Ġpro per
Ġ1 4
i en
Ġdisc uss
a i
Ġfil m
Ġth reat
Ġstud y
Ġto t
Ġr ather
Ġsing le
Ġind ividual
ĠA f
Ġqu ick
Ġ Â
ĠD on
s y
Ġm ind
ĠS ec
ĠN orth
Ġp ubl
tt p
am ed
e v
Ġ z
Ġpolic y
Ġm ess
ap er
al es
Ġwant ed
Ġf all
Ġbl ack
at ic
Ġf ood
Ġsome one
ar m
Ġs um
ir c
ll ing
p ar
Ġc ult
Ġspec ial
Ġ /
Ġcom b
Ġ |
r is
Ġke y
Ġplay er
A n
o ff
Ġre du
Ġbr ing
id s
Ġcomp an
ĠM an
O n
ĠG r
p ly
Ġatt empt
Ġ1 7
Ġ1 3
ĠD ep
ĠB rit
ĠN ational
I N
Ġt aking
W hen
Ġpre t
ĠB ar
Ġ :
v iron
Ġf oot
ol ution
: //
Ġel se
if y
ĠC al
Ġb ody
Ġsp ace
Ġfr ont
Ġprob ably
ro te
ic ult
. )
Ġnot hing
Ġc ou
ashing ton
ĠI m
Ġcon nect
el t
Ġs w
Ġrese arch
ĠCl inton
ĠW orld
o ver
ĠC ity
Ġcom ing
c hes
Ġpoint s
ĠIs rael
Ġhow ever
d d
Ġdesc rib
Ġj o
Ġsign ific
Ġsim ilar
rem e
Ġben ef
c ing
li er
Ġdec ision
ĠA ust
Ġe ither
Ġim m
* *
Ġm ass
Ġc oun
ac es
Ġt arg
Ġs us
Ġfe at
ull y
a ult
Th at
g o
ĠH ar
Ġex ist
Ġcon v
S o
Ġ201 3
Ġen c
Ġh it
Ġright s
Ġserv ice
ir l
as ing
Ġw rote
Ġf urther
Ġf ire
Ġd oc
Ġh ouse
Ġch all
Ġth ird
Ġf ig
O N
Ġb an
ro du
Ġw a
Ġst op
y n
Ġcre ate
s w
Ġf ield
Ġp ick
ĠS u
an a
ive ly
w w
1 6
Ġme as
m b
Ġiss ues
Ġre pl
Ġcom pl
ĠW ith
Ġbe gin
R E
Ġst ep
pp ing
Ġwho le
Ġrel ations
n ow
Ġseem s
a pe
ri ed
ent ly
Ġsu per
Ġ )
Ġcompan ies
pe cially
Ġd ue
Ġex ec
Ġevery thing
Ġc and
1 4
e al
itt ed
Ġf ederal
am er
Ġst ates
Ġro om
Ġe y
Ġw atch
Ġtr a
Ġc ustom
Ġlead ers
ĠHow ever
p ite
ĠW ashington
u ation
ĠJ an
att le
ĠG u
Ġro le
Ġse lf
un g
Ġs ound
ĠG e
a ul
Ġofficial s
Ġl ab
Ġd am
Ġst ri
iv il
Ġ201 2
Ġinf l
Ġrele ased
il t
id ay
Ġt re
ib ility
I S
Ġbe gan
ĠIn st
ĠD av
o on
ĠS outh
ĠA pp
he ad
Ġo pt
Ġstud ents
Ġt reat
Ġfin al
Ġcharac ter
ob al
Ġpos ition
Ġmat ter
r an
Ġen er
Ġout side
Ġd ou
Ġdevelop ment
Ġhim self
Ġstate ment
viron ment
Ġ201 7
Ġab ove
end er
Ġbre ak
Ġam ount
ad es
se c
Ġst at
Ġprov ide
Ġin it
l im
Ġ1 00
Ġhour s
l ike
Ġit self
Ġthem selves
er y
Ġoff ice
Ġrep resent
Ġa ction
Ġbec ame
Ġ19 8
ĠP art
Ġcontin ue
Ġgener al
Ġcount ries
ĠIn tern
Ġd i
Ġadd ress
Ġne g
Ġg un
Ġtr ue
Ġ2 5
ac ed
i od
Ġspec ific
Ġl arg
Ġsignific ant
Ġsim ply
C h
1 3
ar ter
l ish
A N
Ġwas n
' ll
ĠA ss
ograp h
Ġinter view
ĠR es
um b
ace book
as k
Ġg round
Ġdiff icult
re g
Ġr ad
og n
Ġrun ning
Ġev idence
ĠJ ust
Ġad minist
o id
Ġc op
Ġvers ion
Ġd rug
og le
Ġag ree
il i
Ġb ar
Ġbuild ing
ĠCh ina
ĠE d
Ġneed s
idd le
Ġprof ess
Ġgroup s
e ks
Ġty p
re am
Ġshow s
Ġresp ons
Ġcomm on
B C
Ġevery one
ang u
r ight
l am
Ġd om
Ġneed ed
Ġd est
Ġwom an
Ġb all
ĠG erman
Ġl at
Ġbel ow
Ġmus ic
Ġt em
Ġrele ase
Ġex c
ourn al
Ġin j
Ġpret ty
l ight
rib ut
Ġinclud e
Ġsa w
ĠM ed
if t
Ġde ep
ĠA b
Ġplay ed
b ody
Ġqu ite
Ġindust ry
Ġch arg
Ġa p
Ġener gy
Ġplay ing
Ġm ot
Ġcand id
Ġ5 0
Ġs ense
Ġm ag
Ġl ate
Ġph ys
Ġal leg
Ġwh ite
ĠH is
Ã ©
Ġfriend s
Ġleg al
Ġg en
s er
om m
Ġan im
iv al
ĠA fter
1 7
at ur
H ow
Ġinst ead
w here
Ġab s
Ġb illion
Ġl ost
y le
Ġes pecially
Ġval ue
Ġre d
ĠW est
le v
Ġh ost
ĠM us
os ing
or ing
Ġh om
Ġp le
ĠNew s
Ġwe eks
ĠN ot
cc ording
t ime
Ġfor ward
is c
ep end
Ġdet er
Ġe lection
Ġrecent ly
b o
ist ic
ag er
Ġj ud
Ġtr ack
iqu e
Ġvot e
Ġsu ff
ĠT witter
Ġob ject
ir t
Ġchang es
Ġper iod
med i
Ġopp ortun
ĠWh ite
ĠO ct
Ġlong er
Ġl o
Ġp ain
Ġso on
1 8
Ġs ite
A R
Ġ {
Ġe p
Ġac cept
ac hed
ĠC ong
Ġeconom ic
Ġsh oot
o ke
e ed
Ġhop e
h od
l t
ri pt
itt ing
ir m
A S
ar c
Ġmom ent
Ġdec l
Ġcons um
Ġp ie
ĠW ill
le ge
Ġche ck
e g
Ġt it
Ġpot ential
ĠM arch
Ġwr ong
Ġbl ock
ĠSe pt
ĠDep artment
Ġhig her
Ġc red
du ct
n ers
Ġon line
Ġfoc us
Ġcons ider
Ġed uc
on se
anc ial
Ġ2 4
Ġwor ks
Ġrel ig
Ġp arent
Ġsh are
id ing
Ġc irc
Ġhe ld
o e
Ġw alk
c ial
Ġp red
ĠM y
Ġwe bs
Ġl ed
ul arly
Ġre ve
Ġst ay
ĠThe se
ke y
ĠD r
o le
ove red
Ġst ru
op h
Ġgo al
ĠRepublic an
e es
Ġword s
Ġris k
le ar
ĠA ug
Ġso ld
Ġre view
Ġcont ract
Ġresult s
n s
Ġserv ices
Ġre v
Ġlaw s
The y
Ġc ode
ĠM ich
Ġw ind
Ġfun ction
c il
ĠSy ri
Ġa ud
Ġtot al
Ġc e
Ġart icle
Ġa ge
Ġapp lic
f ect
Ġmin utes
ic ro
Ġperson al
p ut
il ities
Ġany one
u ary
ĠJ une
i j
i ents
ur d
as ons
it ution
a ut
Ġtarg et
Ġpr im
ate g
Ġear lier
Ġfav or
Ġexp ress
h aps
Ġd en
Ġde ad
ang er
Ġan sw
Ġpop ular
Ġcomp ut
Ġup d
Ġne cess
pr il
Ġr ate
Ġv ol
Ġtechn ology
Ġres pect
ag ing
ĠSt e
f er
ap an
Ġen vironment
u le
Ġ201 1
ĠS m
Ġrece ived
Ġexpect ed
A d
__ __
end s
Ġcre ated
Ġh y
Ġsur pr
Ġb ase
Ġant i
ĠJ uly
2 5
Ġproble ms
v al
Ġw ays
h am
ud e
Ġp ort
Ġpriv ate
ip le
Ġincre ase
Ġsc ient
Ġannoun ced
u el
ĠP ar
re et
Ġcom ment
it er
Ġcan not
Ġeas y
ĠD o
act ion
e ch
Ġsh ot
al t
ĠCong ress
Ġquest ions
P h
is l
Ġfor ce
ater ial
Ġimp act
c he
et er
ĠM ond
itt ee
= =
r ay
Ġp ack
her n
pl es
Ġe t
ĠF acebook
Ġl angu
Ġ +
ĠP e
Ġp ur
at ives
ĠG od
Ġinvol ved
av ing
ĠAust ral
ĠE n
ill s
A l
h ood
itt en
Ġd iv
ues day
Ġexec ut
Ġmod el
on st
Ġspe ak
Ġst aff
Ġex act
ct or
Ġs en
om b
le x
Ġc ivil
it iz
Ġne arly
Ġty pe
i res
our t
Ġorig inal
Ġc ases
Ġcont ent
ok es
E S
Ġrelations hip
Ġ19 7
Ġter ror
ĠGo ogle
ĠFr iday
Ġle ave
Ġresp onse
n a
Ġins ide
Ġcap t
m e
Ġ <
Ġf ans
ĠA pril
ll ed
Ġintern ational
Ġco ll
Ġa verage
Ġhe art
Ġar rest
Ġbro ad
Ġus ers
ĠR ed
ĠC ount
ot o
Ġw orth
Ġc ell
Ġl iving
Ġso ft
Ġc al
Ġn ation
c ast
Ġkill ed
T o
Ġreport s
Ġ201 0
Ġbec om
ĠE m
Ġ ur
Ġsour ce
ĠMond ay
ĠT uesday
Ġsub ject
re l
Ġwork ed
g ing
A t
b it
Ġim medi
Ġest ab
ip s
at ural
Ġresp ond
Ġass oci
Ġgl obal
b or
est s
ell ig
ĠAmeric ans
j oy
Ġcl ub
6 0
Ġch ance
Ġo il
Ġab ility
it es
ĠA ct
Ġad m
Ġt akes
Ġde l
rough t
ĠP al
Ġwe ap
a el
Ġpr ice
ĠP er
op s
Ġdirect or
ĠJ apan
Ġwork ers
Ġter ms
Ġro ad
Ġpubl ished
olog ical
ĠWh ile
Ġph one
Ġt ou
Ġcol lect
Ġfin ancial
Ġdec ided
ĠRuss ia
Ġm id
ĠS ome
Ġm other
ĠW ed
iz ing
os ition
Ġl ack
he l
Ġdef in
Ġs qu
is es
ove mber
Ġg irl
r ain
Ġst ore
Ġg ave
e xt
Ġ4 0
Ġbu y
Ġinfl u
ĠCal if
Ġhappen ed
Ġrequ ire
k y
Ġl og
ĠN ow
Ġe mer
Ġf em
un t
Ġcap ital
" .
Ġfore ign
cl us
Ġcurrent ly
b ased
ĠO ff
Ġgo es
ĠS an
vert ise
Ġsit uation
ĠB y
ĠGe or
ov ed
Ġoff er
Ġind ic
Ġwho se
Ġ @
Ġm aterial
Ġl ives
Ġt al
Ġaff ect
Ġpl ans
ough t
nes day
m on
Ġar ri
in o
Ġmem ber
ro wn
ĠF eb
Ġp ict
urs day
Ġpartic ip
Ġturn ed
Ġrec ogn
Ġev ents
Ġmet hod
ru ction
ĠJan uary
Ġnet work
ĠH ill
Ġteam s
Ġmeet ing
Ġb ank
ĠS und
Ġint rodu
E N
Ġn orm
Ġsim ple
re ct
O ne
f ully
ĠIs lam
Ġh uge
ĠSept ember
Ġreg ard
Ġ ill
Ġare as
ĠA g
ord er
ĠT V
Ġcou ple
Ġappro ach
Ġcare er
ĠC or
ĠAf ric
O R
Ġc y
Ġde li
Ġr ace
Ġperform ance
Ġp age
" ,
ĠG l
ĠN ovember
ou d
Ġto ol
es e
ĠDav id
Ġf elt
Ġquick ly
Ġnum bers
en ed
ĠM e
Ġem ail
l oad
et y
Ġ2 1
Ġor d
Ġm is
Ġadminist ration
ĠWed nesday
Ġvict im
Ġh on
ap t
Ġimpro ve
Ġv ia
ĠP aul
a ily
Ġf re
Ġeng ine
ist an
ĠE l
Ġte xt
a ur
o or
Ġp ull
ch ie
Ġr ound
Ġbu ilt
ĠA ng
ĠEurope an
Ġp ers
ĠTh ursday
Ġf ather
Ġl oss
orn ia
Ġ2 2
Ġth ous
Ġd ig
Ġh ttp
Ġprodu ction
ruct ure
Ġb oy
av y
l in
Â Ń
Ġhe ard
Ġsec ret
Ġeconom y
Ġen joy
Ġtr ade
ĠAug ust
um e
âĢĿ .
Ġwebs ite
d own
Ġco ver
Ġreve al
Ġw ide
Ġbo ard
Ġm atch
ĠC ourt
Ġallow ed
Ġsp ent
Ġhand s
Ġtra vel
Ġl ower
Ġre pe
Ġinclud ed
f ace
Ġpo ll
im ent
ce mber
ĠOct ober
Ġleg isl
Ġne igh
or ters
at ory
Ġbeh av
Ġkn ew
4 0
Ġwant s
us es
ict ion
Ġto wn
ĠBrit ish
Ġse par
ĠS ch
es tern
ight s
b l
en ces
Ġvis it
ĠCanad a
Ġget s
Ġper fect
Ġmove ment
ct ions
et t
an ks
Ġtri ed
Ġc ause
ess ion
age ment
is hing
Ġfor ces
Ġst e
ĠSund ay
? âĢĿ
g est
Ġ }
Ġen s
W ith
en ing
A fter
for ce
ce ed
Ġatt ention
Ġpartic ular
ra z
] [
Ġve h
Ġb ud
Ġb i
Ġf ear
Ġpop ulation
Ġvar ious
Ġre ach
Ġlook s
ĠU K
ĠCalif ornia
Ġb rought
ĠK ore
Ġl ink
Ġv o
Ġ2 3
ib ly
ur ning
Ġprev ious
ar ily
Ġm ention
ĠI S
ĠRuss ian
Ġmor ning
ide red
Ġset t
) ;
' d
Ġgrow th
Ġf air
und red
S h
Ġfe ll
Ġpro gress
se qu
y ond
ĠC ont
Ġs ong
all ed
Ġtr aining
c le
Ġs ize
ĠS w
ĠDe cember
ident s
Ġcont act
2 00
ĠQ u
Ġdem and
ĠBl ack
c ies
ak er
led ge
h old
Ġim age
Wh ile
Ġlead er
Ġr ac
Ġh or
Ġrul es
A L
Ġpre p
ec ause
Ġl iber
f ield
i am
Ġse arch
ĠH er
Ġh ot
Ġ ess
ific ation
m a
ĠP ost
g round
Ġc itiz
ĠSt reet
Ġup on
Ġstru gg
Ġlat est
Ġind epend
---- ----
c ome
u ments
Ġfeat ures
Ġco ach
o o
in ks
ĠP ark
Ġtalk ing
ond on
Ġf ast
ĠJ ew
Ġadd ition
ĠSen ate
ar th
i ant
Ġw ond
Ġst ar
Ġcons idered
Ġex am
Ġspe ed
sy ch
ra q
ic les
Ġre b
ar ies
Ġlevel s
g es
ĠT imes
ĠCount y
Ġinvestig ation
ĠP at
Ġsl ow
z e
ellig ence
E D
Ġcon duct
ĠPart y
Ġmed ical
b ed
Ġm ach
im ately
ĠK ing
Ġa chie
Ġlangu age
atur day
O S
Ġc ard
om p
Ġcrit ic
Ġs ort
f l
ĠCent er
ĠT ex
ĠInd ia
Ġp aper
Ġp en
Ġs n
Ġ200 8
Ġparent s
ys is
p s
Ġu nd
Ġsex ual
ap h
Ġsystem s
Ġpri or
v ent
op e
T r
u k
A C
w o
Ġdo ll
im in
Ġwr itten
U S
Ġsp okes
Ġbo x
p ir
Ġsee k
et h
Ġdoc ument
Ġs ens
e ared
Ġincre asing
Ġhe ar
un k
ig r
Ġse ven
il le
Ġd raw
ĠMus lim
Ġeff ort
at form
ru ary
Ġjob s
Ġs on
ĠI ran
id ge
Ġcons erv
Ġext reme
9 9
Ġprev ent
Ġlear n
as c
he t
Ġser ious
in ing
Ġreg ul
Ġr ange
Ġviol ence
u it
Ġ ...
Ġe ight
ĠI raq
r ast
I T
Ġb ott
Ġcomplete ly
Ġsur ve
our ces
ĠM ark
Ġ200 9
Ġin n
Ġmess age
ro om
Ġcon c
u f
Ġinterest ing
Ġob v
Ġopportun ity
Ġsc reen
reed om
it ch
Ġcl imate
Ġmajor ity
ab or
Ġpartic ularly
Ġdou b
e ff
Ġdes pite
Ġj ournal
Ġclaim s
an ced
ĠCh ar
S he
ĠR om
Ġansw er
Ġsoc iety
ĠL ondon
ic o
Ġdef ense
ĠK e
Ġcar ry
ent ially
Ġgu y
ĠDon ald
Ġext ra
Ġattack s
am ing
Ġrequ ired
is ions
Ġbig gest
vertise ment
an i
Ġexact ly
ren ch
Ġp aid
ĠE ast
ens ion
ill ed
2 2
Ġexper ien
Ġare n
at ter
h a
ĠM ore
Ġ â
ly ing
Ġmod ern
ines e
Ġrem ain
uc lear
Ġqu arter
O P
Ġoffic ers
Ġh undred
I C
i ers
Ġex cept
Ġc ross
Ġt able
Ġpract ice
ib r
Ġn atural
ut ions
Ġm iddle
s et
in ally
Ġcertain ly
ĠS aturday
Ġst ories
Ġd ro
Ġ2 8
Ġproduct s
Ġ2 7
Ġhist or
Ġlook ed
Ġg as
Ġsomet imes
Ġsur v
os es
n ces
Ġst uff
Ġsc ience
m p
Ġr out
Ġfin ally
ur t
Ġus er
Ġter m
ĠN et
t r
Ġsum mer
Ġmov ie
er c
Ġbl ood
Ġcommun ic
Ġchang ed
osp ital
u x
Ġon es
Ġl ay
Ġlead ing
Ġdescrib ed
Ġa w
Ġim ag
ĠFeb ruary
av es
ous ly
Ġpr ison
Ġcon vers
ĠS and
Ġdet ails
Ġstart ing
Ġqu ality
Ġocc ur
Ġshow ed
Ġn amed
Ġg iving
Ġp an
Ġrem ains
h ib
Ġreg ion
ĠS pe
u ing
ic ks
Ġprov ided
Ġcost s
ad d
Ġu lt
ĠMc C
Ġdam age
ĠS oc
Ġd anger
Ġm ob
Ġch ief
Ġpo or
ak ers
augh t
Ġp ath
Ġeduc ation
Ġmult iple
pp er
Ġcontin ued
Ġgrow ing
Ġdem onst
en ge
ĠM or
Ġpart s
ar r
Ġ *
Ġwrit ing
Ġcom ments
ĠT H
ĠI nt
2 4
Ġm ent
ar i
Ġ2 6
Ġmain tain
Ġsaf e
Ġass ist
Ġthink ing
ĠC he
ĠRepublic ans
ĠE ven
Ġpur p
n y
N o
in ary
Ġrequ est
Ġwr ite
Ġit em
Ġf ix
Ġp urch
ĠDemocrat ic
Ġd ied
Ġread y
ĠC oun
ĠD es
Ġwould n
Ġincre ased
Ġimp lement
Ġcult ure
Ġeff orts
id a
m it
Ġvot ers
Ġc amer
ag o
ab les
Ġread ing
f ort
co in
Ġm ill
Ġus ually
Ġcall s
im inal
Ġsp ot
Ġf ile
Ġeffect s
ĠS er
A M
Ġper haps
ĠG ener
Ġal one
op er
F L
Ġal though
ĠF irst
Ġto wards
ĠLe ague
Ġcons ist
Ġgu ys
ĠTex as
Ġstand ard
Ġse lect
ĠB ill
ĠMich ael
Ġdirect ly
Ġbe yond
al y
ĠCh inese
Ġpl atform
Ġce le
Ġ( @
Ġsub st
Ġh ous
Ġspe ech
ar ian
Ġreal ity
b an
it ute
us ing
Ġk ids
ic ated
ĠJ ames
il es
Ġav oid
Ġthrough out
Ġfoot ball
Ġstud ent
e gr
ĠT ur
y l
Ġcould n
I m
8 0
Ġimmedi ately
row d
Ġun f
Ġinclud es
Ġcho ice
Ġcon cept
Ġcent er
Ġro b
Ġsc ene
Ġadd itional
Ġcomple x
Ġrec omm
Ġchall eng
Ġw ife
Ġcl os
f ord
ĠC ons
Ġrese arc
Ġep is
Ġt ro
ĠMin ister
an ch
ĠM on
he st
B I
Ġdesign ed
Ġcor por
Ġs le
ĠN e
Ġrem ember
Ġsaf ety
Ġsoft ware
ĠInd ian
Ġg one
ĠâĢ ¦
z z
ou l
Ġse ll
Ġto ward
Ġc ast
Ġag ency
w ise
Ġoffic er
Ġ il
Ġfig ure
Ġt en
Ġpie ce
ac hes
Ġbr ain
it or
s p
ĠJ ack
Ġdeb ate
ast ic
Ġthous ands
Ġcoun ter
ag on
Ġ ver
air s
A ll
Ġop in
ress ion
Ġs we
d e
Ġa head
Ġrel ative
ru pt
ic ient
Ġlet ter
ad em
Ġrece ive
om en
im um
Ġpress ure
port s
st on
ir th
Ġbl og
N ow
il ies
ur g
amp ions
Ġmov ed
ar a
Ġla unch
Ġappear s
Ġ >
Ġpass ed
Ġo ption
2 3
Ġs il
ĠB o
Ġst age
Ġcle an
ĠPl ay
Ġpre c
Ġ6 0
ate ver
ol ute
ĠI I
Ġproper ty
Ġhelp ed
Ġ ut
R e
Ġdri ve
ro y
Ġalleg ed
ĠApp le
.. ..
m en
o es
Ġtw e
Ġdis app
Ġt our
Ġmean ing
it ation
ĠG reen
Ġro ck
Ġdo g
Ġcr is
ĠAss oci
Ġsus pect
Ġd ate
j ust
ĠDemocrat s
Ġmov ing
ĠR ich
Ġsc ore
Ġorgan ization
augh ter
Ġcond itions
Ġtou ch
Ġcomm and
Ġd ark
Ġs at
ĠThe n
Ġre asons
Ġbud get
Ġ ign
Ġp ark
Ġn uclear
? "
Ġmy self
Ġhapp y
Ġdev ice
Ġdiffere nce
it ness
Ġde g
Ġn om
Ġmay be
Ġbegin ning
ri ef
Ġn ature
Ġfail ed
ber g
Ġcharac ters
Ġcop y
Ġcomput er
Ġf an
Ġenc our
m ore
ĠS erv
Ġ x
Ġa im
Ġtit le
Ġcomp ared
ĠS im
Ġle ague
n ew
Ġw all
Ġb attle
ĠM art
am b
Ġest im
ock ed
Ġcol lege
er ve
Ġey es
Ġsh own
Ġcent ury
ĠSt ar
ĠEng lish
Ġpower ful
iv ity
w ood
y an
ĠSu per
ĠD ay
ĠV al
Ġlim ited
Ġy es
O T
Ġcont ribut
le ase
Ġpos itive
Ġb al
Ġfor ced
Ġnecess ary
Ġb and
Ġsc he
Ġcandid ate
Ġref er
Ġbook s
Ġst ra
ain t
Ġdis p
Ġtr ust
Ġlarg est
ĠF rench
Ġconf erence
ĠH ere
ci ent
ĠR ober
Ġnot e
Ġanal ysis
ent y
Ġar ch
our ce
Ġsp ending
Ġpresident ial
uf act
Ġcitiz ens
ĠO f
Ġs al
Ġschool s
ĠSyri a
ig ration
Ġth row
Ġh ar
Ġa ware
Ġme ant
Ġexecut ive
ven ue
Ġevent ually
Ġfollow ed
Ġphys ical
Ġfe ature
ĠB en
Ġtreat ment
Ġf irm
Ġc rowd
or ks
a ud
Ġstre ng
Ġconf ir
Ġm ix
Ġcor rect
or ney
ĠW ind
Ġrelig ious
Ġeas ily
Ġgr ad
ĠT or
Ġp us
Ġ2 9
A D
Ġaut om
Ġco ol
Ġc at
Ġfam ilies
Ġ19 6
Ġil leg
Ġes c
Ġd raft
ĠD is
Ġact ions
Ġover all
a res
ress ed
Ġallow s
r ated
ĠM ex
2 7
Ġg ives
ĠA ir
b and
ĠÂ £
Ġfe ed
Ġyour self
M y
bo ard
Ġsus p
c raft
Ġapp eared
) :
Ġdet ail
Ġinc ome
et ro
Ġsm art
b um
c ul
Ġsign ed
Ġanal y
er o
ir ing
Ġide as
Ġcent ral
en cies
ub e
Ġsen ior
ĠGo vern
Ad vertisement
Ġfre qu
Ġweap ons
ĠB el
Ġdis play
A P
Ġan g
Ġprom ot
Ġn ice
Ġcred it
Ġdec ades
Ġpolit ics
I s
B e
k en
Ġcr ime
B y
Ġp sych
Ġus es
Ġdo or
ĠB re
Ġdis e
Ġun ique
ĠIntern ational
p re
Ġal tern
D on
A ccording
Ġs ales
Ġd rop
Ġdevelop ed
Ġl if
ut y
Ġcustom ers
Ġbenef its
ch an
Ġconf lic
Ġrel ated
ur ance
Ġcris is
ĠS chool
Ġm ist
Ġpred ict
le ments
Ġnot ed
ĠAustral ia
res h
Ġtr uth
i able
ĠE U
N ew
Ġgo als
ĠC ap
er ry
Ġindividual s
Ġch arge
Ġcontin ues
Ġbe aut
ĠUn ion
on ents
ĠE arth
ĠAr ab
Ġchall enge
Ġr ap
Ġapp arent
Ġst o
ĠAng el
3 5
ĠSm ith
ite ly
n own
Ġproject s
Ġpe ace
p art
Ġl ic
Ġmeas ure
in y
ĠPol ice
in n
Ġint elligence
m ar
Ġprev iously
4 5
ĠChrist ian
ĠGerman y
Ġfull y
Ġr ule
b ox
Ġman ager
2 6
Ġr ates
Ġadv ant
Ġbro ther
Ġexp and
ot i
Ġcle arly
Ġl ines
Ġre form
Ġsuccess ful
Ġhigh ly
ri age
Ġlarg er
r s
Ġem b
ch ange
Ġtr aff
Ġseem ed
Ġsp read
ĠCoun cil
Ġstra ight
Ġcr iminal
i ance
ound s
Ġmin or
Ġprogram s
ĠGeor ge
S ome
Ġinc ident
I D
Ġres ources
ĠFr anc
ic ed
Ġgreat er
Ġprim ary
ĠCom p
E C
ow ers
Ġknow ledge
Ġstud ies
in ated
wh ile
ant ly
Ġsa ve
Ġke pt
ĠT om
Ġatt ract
ĠFl or
or ter
O M
Ġem ot
Ġsp ir
ate gy
Ġwe b
Ġfe et
Ġcol or
Ġre ached
Ġr are
sec ut
lev ision
Ġar m
ĠIntern et
ĠC r
ĠH igh
2 1
ĠBro wn
e an
Ġfavor ite
Ġpl aces
d om
n et
Ġreg ular
se y
ol ic
id ers
w ide
Ġman ufact
od ay
ĠA nt
Ġla un
ve re
E T
Ġs end
ĠR ec
Ġknow s
Ġpre m
ĠD ef
Ġshoot ing
Ġactiv ity
Ġsour ces
Ġnorm al
ot a
ter m
Ġp un
ĠH am
ic ago
U n
Ġfight ing
Ġstat us
Ġr ise
I A
Ġvo ice
Ġown ers
ic it
Ġf ine
Ġca used
Ġclaim ed
Ġen em
Ġl iter
lic k
on ent
ĠGener al
Ġopt ions
Ġ200 7
Ġint egr
Ġsp end
a ith
b on
qu e
ĠR ob
Ġc ities
oc ks
eng th
ĠG old
ĠU p
Ġorgan iz
Ġend ed
us ion
Ġresearc hers
ĠM ac
ro ll
Ġcall ing
Ġsh ut
Ġref lect
2 8
il ed
E O
v ille
Ġpr ices
Ġal bum
âĢĿ ,
2 9
ĠE very
Ġemploy ees
Ġfem ale
ĠF rom
os h
ĠEng land
Ġun s
Ġwill ing
Ġv irt
Ġha ven
Ġra ised
ww w
if ying
Ġsupp osed
Ġj ump
ol es
1 00
ro id
Ġhapp ens
Ġadd ing
u ana
Ġpolic ies
ĠL a
Ġn ames
Ġcharg es
P ro
Ġpro s
Ġtr ou
Ġbas ic
Ġconcer ns
m ark
rib ution
Ġtrad itional
or g
Ġpl ant
iver se
Ġabs olute
Ġac qu
Ġh ospital
Ġfund ing
ad o
Ġsl ight
Ġpat ients
Ġcom mer
Ġauthor ities
Ġpr int
Ġmin ister
ĠB ay
Ġcreat ing
Ġf reedom
um an
A r
ĠM ag
Ġme chan
Ġsc en
ĠA P
ing er
Ġsee ing
Ġst yle
Ġbe at
Ġgr and
N ot
. âĢĻ
Ġl ik
Ġst ation
ĠSc ott
Ġp ush
Ġbehav ior
Ġle aving
ij uana
Ġb irth
Ġbe g
Ġact ual
Ġim pl
Ġens ure
ro l
Ġoff ered
se e
ĠM o
Ġagree ment
ĠFlor ida
Ġc ry
Ġwa it
Ġe th
k i
ri an
r ont
ĠHill ary
Ġ ir
Ġpost ed
Ġweek end
on a
Ġgo ld
Ġob ser
ĠM ost
Ġad ult
Ġg reen
Ġwe ight
ac ing
al se
so ft
Ġdeter min
Ġreveal ed
ic a
Ġmost ly
Ġapplic ation
Ġval ues
Ġv ac
r am
Ġprop os
ĠWe ll
ĠS un
H ere
ĠRe g
ĠA lex
Ġr ank
. '
ĠA ccording
it ude
Ġad op
ĠB er
Ġestab l
Ġrecord s
Ġey e
ear ch
IN G
Ġen force
p en
ab y
Ġbelie ved
Ġpict ure
y a
Ġb rief
Ġlear ned
ect ion
ing ly
Ġper m
Ġstr ategy
Ġinst all
ĠL et
Ġapp l
ĠL aw
Ġcho ose
Ġcomm it
Ġm er
ign ed
Ġwond er
Ġd ire
Ġmass ive
ist ry
Ġqu al
Ġdev ices
p ri
h ttp
Ġpart ies
S c
ĠCh icago
Ġlaw y
Ġw ild
ĠPe ople
Ġc ars
5 00
Ġarrest ed
ĠP ort
Ġm ount
Ġwh atever
ĠFr ance
ĠPh il
Ġw at
Ġprov ides
Ġwh om
Ġstre et
Ġass ault
Ġ ;
ĠO h
u ild
ĠTr ans
Ġask ing
Ġinflu ence
Ġjud ge
li ament
Ġl ose
Ġfeel ing
Ġoper ations
Ġprodu ced
Ġcrit ical
Ġtem per
7 0
c ont
ĠSec ret
Ġneg oti
Ġm ission
Ġ Ð
ĠL ou
ĠB ush
Ġim ages
Ġent er
Ġconfir med
Ġshow ing
ĠSt ud
c her
S A
Ġdist rict
Ġrun s
Ġpat tern
O U
Ġt end
Ġb order
Ġres idents
p oint
ri ption
3 3
Ġdeb t
How ever
Ġte ac
ĠComm ittee
or ial
Ġc ru
Ġopp osition
Ġcele br
ak ed
m ine
Ġse ction
Ġdef end
Ġet c
Ġprodu ce
ĠHe alth
ĠW all
est ic
ĠComm ission
u gg
Ġdr ink
Ġindepend ent
ĠWh y
Ġbr and
Ġf at
ent ed
Ġbenef it
Ġc ore
ĠP ress
Ġt ick
Ġdig ital
Ġadv oc
Ġhe ro
ic ial
Ġdoll ars
ĠM od
Ġeffect ive
Ġsol ution
ce ll
Ġinterest ed
Ġv ill
ĠKore a
ud d
st e
E L
Ġhig hest
ro g
ri al
t ies
Ġmem ory
Ġopen ing
Ġwor se
ag s
ra v
Ġlear ning
Ġrespons ible
oc r
Ġtri al
Ġthe ory
Ġd aily
Ġk ick
Ġoff ers
ĠO ther
ĠPal est
Ġrepl ace
Ġrest rict
ĠS am
ĠM al
Ġag reed
ĠOff ice
Ġte levision
ĠFranc is
ĠB ecause
Ġocc as
Ġm ur
ord s
Ġinvest ment
Ġtyp es
Ġtr ain
Ġf it
ĠW estern
icro soft
Ġv s
Ġmill ions
Ġmil es
Ġch air
ill ing
ic ians
ur ies
et ty
ĠJust ice
ci ence
i ation
Ġgener ally
Ġbas is
n o
Ġprop osed
E x
Ġche m
ĠM ike
ĠC up
The se
Ġhe avy
Ġexpl ained
Ġ8 0
ĠO ur
ĠB it
Ġm ap
Ġpart ners
ĠM il
ĠD el
Ġopin ion
Ġdef e
Ġon to
Ġb ur
ĠA tt
C l
B A
Ġd er
Ġprot est
Ġassoci ated
ĠAd d
i pe
ĠN FL
Ġl oad
Ġm ale
az ing
ĠF ound
ak s
Ġbecom es
Ġre ject
ĠSec urity
Ġob tain
Ġco al
out hern
Ġdest roy
Ġadvant age
Ġass um
Ġannoun ce
Ġcond ition
Ġhundred s
Ġachie ve
Ġopen ed
ĠL iber
r ate
Ġunderstand ing
ĠJohn son
Ġsur round
I L
and er
ad ing
F C
com ing
ort hern
w in
Ġinit ial
el ine
ic ip
Ġsle ep
v est
Ġmar riage
Ġman agement
Ġsh ip
Ġth us
ĠB ig
ĠWind ows
Ġb orn
od es
Ġbecom ing
Ġeas ier
r ig
k nown
ĠG reat
Ġlegisl ation
Ġcontro vers
Ġun like
o om
Ġelect ric
ĠM any
o ly
9 0
Ġcamer a
Ġacc used
Ġr at
Ġphot o
Ġlim it
a e
Ġ Ã
Ġneigh bor
ber t
Ġdou ble
Ġspec ies
Ġ ice
Ġsh ared
Ġs pl
we ll
Ġjo in
r ad
Ġilleg al
Ġ3 1
wit ch
Ġ200 6
Ġser ved
Ġmach ine
Ġextreme ly
Ġact ive
Ġdoc uments
Ġser ve
ĠL ab
ĠIslam ic
ĠJ er
Ġfr ame
Ġstri k
l ant
Ġaud ience
u pp
Ġloc ation
Ġscient ists
ĠD ist
Ġvictim s
Ġbott om
Ġ3 5
Ġwe alth
Ġprofess ional
le vel
Ġredu ce
Ġbelie f
Ġres ist
Ġn ine
Ġwin ning
Ġmar ijuana
M r
B S
Ġneg ative
or row
Ġsol id
Ġcommun ities
Ġreturn ed
ortun ately
âĢ ¢
ĠA M
ĠU k
ĠAr t
if ul
ĠInst itute
Ġinc red
ear s
Ġb ed
Ġdep artment
Ġch urch
ĠP M
ĠSand ers
Ġvict ory
Ġpurp ose
Ġr an
ĠComm un
3 2
G B
ir gin
Ġveh icle
Ġleaders hip
Ġintern et
re y
Ġ9 0
Ġam b
Ġmob ile
Ġb omb
ĠH all
ist ics
Ġinst ance
C on
ol f
Ġsepar ate
i pped
Ġexist ing
Ġnot ice
Ġhe aring
gh an
P A
Ġexpl ain
land s
Ġdoub t
Ġd ie
Ġf aith
Ġte ach
Ġepis ode
C C
Ġwatch ing
ĠY our
Ġcom fort
ĠCanad ian
at ically
Ġnot es
S T
ĠB ank
Ġrad io
Ġf resh
Ġput ting
Ġview s
Ġsupp orters
Ġconserv ative
Ġdis m
Ġp urs
Ġarg ument
ĠS l
ĠIn c
Ġun c
ĠF in
Ġlaun ched
ĠE v
Ġapp eal
Ġitem s
h ouse
Ġcomm ittee
ac ity
ili ar
sc rib
Ġdefin itely
Ġdanger ous
om as
Ġco verage
Ġdire ction
Ġcharg ed
wh ich
Ġfl oor
ar io
res p
m et
Ġiss ued
ĠCar ol
Ġdrug s
ĠCh urch
as y
w orks
i os
z a
ĠF ox
Ġs un
Ġm ax
Ġcompet ition
Ġback ground
ĠO ver
Ġt ask
P S
____ ____
ĠM ad
Ġst ated
Ġtre nd
== ==
Ġm icro
Ġtraff ic
ĠF BI
Ġcommer cial
v ention
ograph y
ĠD irect
Ġsp oke
ill er
Ġh arm
Ġsuggest ed
Ġst ructure
Im age
Ġtrans fer
Ġsit es
Ġh us
ĠS ince
in ct
Ġdec ade
Ġn orth
ĠL ike
Ġrest aur
Ġrepe ated
Ġlab or
ampions hip
and om
Ġre act
Ġc ards
Ġanim als
Ġno vel
go ing
ĠG ame
z en
ct ors
Ġd aughter
Ġdri ving
Ġcl osed
Ġwor st
Ġentire ly
ur b
Ġcont ain
ĠBrit ain
ant ed
rib ute
Ġd ed
Ġdri ver
4 4
g ency
Ġdise ase
Ġtell ing
Ġsmall er
l a
Ġdisc overed
i pp
ak istan
ĠW il
Ġn or
Ġref ere
ĠL os
om an
il ing
Ġh ack
Ġf alse
Ġconcer ned
Ġc ash
N A
b ut
Ġpl ays
Ġsur face
f erence
ĠP ri
ĠQ ue
Ġsupport ed
! âĢĿ
Ġtool s
A meric
Ġcomp ar
Ġtrans port
i h
ad y
Ġexper iment
Ġfind ing
ĠCh ris
Ġc ateg
se mb
oy al
te red
Ġas pect
ul ated
3 6
Ġbusiness es
e qu
Ġple ase
Ġold er
Ġfar m
ann el
s erv
ul f
Ġactiv ities
Ġrequ ires
ĠJ ones
Ġ7 0
Ġg ay
Ġstreng th
az on
Ġins urance
n ight
s pe
Ġwe l
ph one
Ġcon sequ
Ġlarge ly
Ġmur der
ĠM at
Ġc aught
Ġcandid ates
Ġex erc
and on
ĠIsrael i
Ġallow ing
ibr ary
Ġann ual
ad a
Ġtest ing
Ġbl ue
ĠA re
ĠU N
h ow
Ġstr ateg
he m
Ġra ise
oss ible
ĠRober t
ĠK en
E M
o very
Ġst ock
Ġdec isions
Ġacc ur
ic y
Ġcont ext
Ġf uel
ic i
ĠS up
ar ant
ĠUk rain
Ġconcer n
Ġbelie ves
Ġaff ord
k ins
os ure
Ġconst ruction
Ġtr uly
ĠA c
Ġjust ice
Ġgener ation
iz es
Ġhigh light
igr ants
ĠM iss
Ġpres ence
ĠJew ish
d o
r ick
Ġun it
B l
ang ing
ĠAfric a
7 5
Ġgu ess
Ġw itness
Ġhold ing
3 8
Ġestab lish
Ġplan ning
Ġl ength
it able
ĠG ree
i us
O L
ĠAfric an
Ġpl aced
Ġref uge
ĠAf ghan
ĠT re
ck now
Ġc atch
ĠT y
ĠAssoci ation
Ġse qu
Ġtell s
Ġsc ale
Ġspokes man
ĠS il
an cy
N N
Ġr ough
Ġatt end
ĠP C
Ġcell s
Ġs an
l or
Ġjo ined
Ġg e
cept ion
Ġmention ed
Ġinterest s
Ġt im
Ġab use
a it
Ġhas n
pect ive
âĢ ĺ
ĠJ im
Ġinit i
Ġenforce ment
n el
Ġintrodu ced
Ġdeli ver
Ġconflic t
ĠG OP
Ġk id
M ore
3 4
oll y
ĠM icrosoft
Ġmiss ing
Ġprov iding
Ġwa iting
Ġcan cer
r im
Ġupd ate
Ġph il
S P
Ġrecomm end
Ġestabl ished
iss ions
b re
Ġe at
ĠAngel es
Ġocc up
ĠM er
ĠJ eff
Ġrem oved
Ġ200 5
ĠP re
av a
ĠY es
ocr acy
Ġoff ensive
ĠFr ank
ĠInst ead
Ġinj ury
ĠV er
Ġdiscuss ion
Ġsp orts
Ġoper ation
ĠF ore
b our
in ter
Ġdown load
# #
Ġuse ful
Ġtrans l
Ġconvers ation
Ġf ant
Ġhom es
Ġnews p
ĠC EO
Ġass ess
Ġs outh
Ġc ook
ĠG roup
v ant
Ġban ks
Ġsto pped
ron ic
Ġobv ious
Ġmeas ures
Ġmod els
Ġfour th
ĠSt ep
ĠCon st
form ation
ic ations
ont o
se ason
Ġ201 8
Ġgirl s
Ġfil es
ĠLou is
ic on
D A
O ur
Ġst ick
Ġb ul
Ġman aged
is ation
wh at
ĠPalest in
Ġfig ures
app ed
ot ed
Ġident ified
ul a
L e
um n
Ġgr aph
Ġfin ished
c ks
Ġfund s
az ine
ĠP akistan
Ġset ting
ĠLe g
Ġconc lud
Ġcomm itted
ĠMex ico
Ġpre fer
Ġha ir
ĠJ ud
Ġsk ills
m ail
Ġappro pri
Ġfoc used
Ġarri ved
Ġspir it
Ġve ter
Ġhous ing
ĠT im
Ġkeep ing
Ġthere fore
C H
ĠV irgin
l ig
Ġa cknow
om s
ro s
Ġdet ect
e y
Ġpart ner
and a
Ġex clus
ĠAnd roid
ĠR ock
ĠTH E
ens es
Ġear th
ul ate
Ġt ough
ĠJapan ese
Ġrelative ly
Ġ200 0
ĠSup reme
5 5
re al
Ġident ity
Ġfeel s
up s
ig an
ĠS al
Ġother wise
ĠK h
Ġsurve y
pl ace
it z
ĠR yan
out s
4 8
Ġprotect ion
Ġex change
3 7
Ġown er
itution al
Ġstep s
ow l
w ing
Ġhus band
Ġtri p
ĠM P
Ġtwe et
Ġslight ly
Ġconnect ion
ĠAr my
ic ation
D es
is f
ĠGovern ment
Ġwe ak
Tr ump
ĠPro f
ĠM ont
! !
Ġe lements
e ah
Ġcirc um
Ġstri ke
ĠRich ard
Ġcl ick
Ġdef ensive
Ġphot os
" :
Ġme re
oc al
ĠM et
ĠIn ter
ver se
dd en
Ġg ain
im b
Ġdep end
Ġcol lection
k in
ag n
Ġf le
Ġkill ing
Ġro ll
Ġcor ner
Ġsuggest s
uck y
u ct
ĠMart in
Ġag gress
igh ter
ony m
od ies
anc ing
Ġgu ard
Ġg ender
Ġcomm ission
hen s
ĠAl though
** **
ĠCol lege
m akers
Ġment al
Ph oto
Ġam azing
pro f
Ġd at
r ange
r d
Ġplan et
Ġbig ger
ic ide
Ġfail ure
ren cy
Ġsupp ly
ĠI r
ĠTe am
ĠJ ose
Ġstart s
ĠD ec
Ġrem ind
Ġs ides
Ġfam iliar
hed ul
ĠS ur
Wh y
re es
ĠO ut
Ġspe aking
P l
Ġsu st
Ġtal ks
Ġhappen ing
Ġspe ct
g ar
u ate
Ġorganiz ations
Ġar my
Ġh ate
ĠN or
Ġwind ow
gy pt
Ġtax es
ĠJ oe
Ġn one
Ġplan ned
Ġthan ks
am m
Ġdec ide
Ġst ruct
Ġsu dden
ĠG ood
Ġw ish
ĠS ub
ĠM ary
3 9
Ġcar ried
Ġcre w
g ers
u ke
Ġapp oint
an ia
w ith
G o
ag ues
Ġhelp ing
id ering
4 7
Ġreg ist
ost on
Ġa ward
R A
is er
Ġmult i
Ġstand ards
Ġ3 2
Ġenvironment al
il s
Ġrev olution
ĠTh omas
yn am
Ġsecond s
ĠRes earch
L ast
Ġsc ript
ĠF ire
Ġscient ific
el ess
Ġimm igration
Ġstand ing
ĠThe ir
] .
ĠB ern
Ġdom estic
Ġbe er
Ġqu e
Ġp air
ĠAl so
ĠWe b
oc ol
ad ium
ĠSecret ary
a wn
Ġac adem
ars h
ut ers
st ream
m as
Ġvar iety
Ġ4 5
Ġmark ets
Ġco ld
Ġdro pped
Ġter rit
Ġaccount s
ĠAt lant
Ġfil ed
p m
ĠU s
im al
Ġbal ance
er ous
Ġimp ossible
4 9
! "
Ġt ack
Ġinter act
Ġneighbor hood
a ven
Ġdeg ree
Ġturn s
r un
Ġposs ibly
Ġoper ating
Ġapp re
Ġaltern ative
y m
Ġun ion
h i
Ġvot es
Ġpr inc
Ġb atter
Ġprofess or
it ect
Ġincreasing ly
Ġv ul
ĠServ ice
Ġfell ow
Ġapp ly
Ġcut s
T C
ol it
Ġhon est
Ġdevelop ers
ĠPr ime
g n
Ġs ch
an o
Ġser ver
ĠSyri an
Ġapparent ly
Ġun ivers
H L
Ġl ived
Ġchang ing
Ġwor ry
ol a
ĠCarol ina
rast ructure
ru it
ĠT er
Ġtest s
Ġun its
R ead
ĠT wo
Ġr ich
âĢĶ âĢĶ
Ġhum ans
ĠFound ation
ack s
ict ed
c ious
ar ks
Ġag encies
ad ed
Ġsound s
ab b
Ġtw ice
ill a
Ġult imately
Ġl osing
ad er
Ġauthor ity
Ġsold iers
Ġphil os
Ġanim al
ĠIm ages
as hed
Ġsc hedul
ore s
l o
ĠM os
Ġcorpor ate
Ġhealth y
Ġpay ing
Ġabsolute ly
Ġcol le
Ġat h
ste in
Ġequ ip
are n
Ġdevelop ing
ob by
Ġse a
Ġclos er
ay er
Ġinn ov
Ġm ut
Ġregard ing
Ġseek ing
ĠT ime
rel ated
Ġexp ensive
i ams
Ġposs ibility
Ġsk in
ĠP et
Ġbeaut iful
Ġrelig ion
F rom
ĠCent ral
c oh
Ġap art
ans ion
Ġexper ts
v is
ĠD en
Ġy ards
Ġfund ament
Ġsol ar
Ġwrit er
Ġfl ight
rou d
f e
ĠDist rict
Ġv ast
Ġde ploy
Ġad just
ĠL ast
Ġintern al
Ġt ast
Ġimag ine
ĠP eter
ĠUS A
ĠU nder
ap ers
Ġapplic ations
ĠJ on
Ġv ision
ĠFrancis co
olog ies
ĠTor onto
Ġs itting
k a
Ġun less
Ġtr ail
l ook
Ġ200 4
ĠPl an
Ġhe at
Ġrespons ibility
ĠJ es
os en
Ġcap acity
st ate
E ven
ist ed
ĠM iddle
Ġp it
Ġer ror
Ġsy mb
at ures
Ġar ms
Ġc overed
Ġfam ous
Ġf ol
Ġfor ms
Ġp il
4 6
idd en
Ġun iversity
p ire
Ġg ar
Ġgu arant
i ot
ĠC amp
Ġt ight
Ġpresent ed
3 1
ĠB ur
Ġear n
ĠE gypt
ort ion
en ced
Ġconv ention
o ch
ain e
ov ing
Ġsurpr ise
Ġatt orney
Ġelect ions
Ġestim ated
ĠP ublic
Ġf if
ĠP ut
d en
O f
Ġte en
Ġveh icles
ĠAm azon
Ġint ended
ĠA ri
rib le
Ġinst it
u zz
Ã ¡
Ġhelp s
Ġoccur red
Ġo dd
Ġstre ets
Ġ= >
ĠB oston
Ġr id
Ġdeter mine
J ust
Ġsp ort
ress ive
Ġexper t
ĠBit coin
le ts
p ret
Ġcons ult
= "
Ġbro ken
p erson
Ġf ired
ĠM ur
Ġfl ow
Ġdom in
ro ad
I M
Ġt on
w ar
ust er
por ary
Ġsh all
Ġtro ops
u nder
L et
I V
ur ation
ĠS ol
ĠS T
i as
ĠTh ose
C A
all s
Ġpie ces
ter day
Ġprep ared
ĠCh ief
ĠG al
g u
Ġp et
Ġn ar
Ġrap id
ed er
ĠC ath
Ġloc ated
h and
Ġhy p
ĠSoc ial
Ġcon clus
Ġbring ing
Ġb aby
ĠM ass
Ġpro ve
Ġspecific ally
or age
Ġpot entially
Ġse ctor
ĠJ o
Ġse lling
Ġgovern ments
Ġj ail
ĠO nce
Ġr andom
ĠAn y
Ġsc r
Ġequ al
Ġf aster
ĠPro t
anc he
Ġhe av
Ġbo ost
ĠA N
Ġpropos al
Ġfact ors
Ġcl in
Ð ¾
Ġpl enty
Ġequip ment
ĠL at
Ġcoun cil
Ġer a
Ġinf rastructure
Ġst ress
ĠS pr
Ġst ars
ĠJ ournal
ĠVirgin ia
use um
end ment
ph as
cl ass
Ġvot ed
Ġpro secut
ve y
Ġb reat
Ġoff ering
Ġcar bon
I P
Ġexpress ed
Ġbro ke
Ġvul ner
ĠPar is
Ġcl ot
ĠR ub
Ġrul ing
ĠF ederal
Ġref used
ot y
Ġret ail
Ġelect ed
Ġcomb at
ure au
in ent
Ġdr am
ĠGu ard
Ġse asons
Ġsec ure
Ġconduct ed
ĠR iver
Ġ3 6
Ġchalleng es
an ish
ĠL ee
Ġmethod s
E very
Ġpoint ed
Ġrem ove
U p
Ġweap on
Ġrem ained
n oon
ĠIs land
ĠAustral ian
ce an
Ġpr ime
Ġm aster
Ġpos itions
( )
, '
Ġcritic ism
Ġtr ig
ĠS ant
ĠO pen
is her
our s
ĠC ru
Ġd in
ĠMed ic
ĠP lease
i pping
D o
Ġs ale
Ġcult ural
Ġwere n
Ġsignificant ly
ock ing
ol ved
Ġb row
in i
Ġorig inally
ĠD uring
Ġaffect ed
Ġappear ance
F irst
Ġfac ing
Ġgreat est
ĠM el
Ġt ourn
Ġfin ish
Ġst ret
Ġyou th
Ġpercent age
Ġc as
Ġdetermin ed
ĠWh o
Ġsign s
Ġinvol ve
Ġthan k
A b
I ON
ĠPh oto
Ġb ought
ĠF e
Ġ5 00
Ġchem ical
g en
ĠC ur
Ġsh ape
on om
et ic
Ġte le
Ġreg ime
stand ing
th at
ĠI N
Ġg rew
ĠS ing
ash ion
C L
Ġrem aining
Ġv ir
p ired
ĠSte ve
Ġmin imum
Ġind eed
ĠS aud
Ġd ream
ly mp
ri e
ĠB oth
S ince
Ġm arg
Ġher self
Ġmod e
Ġvot ing
h t
Ġobv iously
ce l
g l
ĠCol or
ĠFor ce
Ġredu ced
re ens
ri er
Ġrecord ed
EN T
Ġarg ued
Ġ199 0
Ġre venue
ly n
Ġt act
D P
Ġwe aring
O W
Ġlead s
s en
Ġw ood
Ġpolit icians
Ġpl us
Ġh un
Ġcont rast
igh ters
ord in
Ġpurch ase
Ġs witch
Ġh urt
ĠN ov
Ġhand le
Ġth r
Ġcon cent
Ġpro ced
Ġag ent
ĠR em
ĠWill iams
Ġappre ci
Ġexperien ced
Ġexc ited
Ġhttp s
Ġvide os
Ġsupport ing
al ing
coh ol
Ġsurpr ising
ĠR o
Ġmin ute
Ġident ify
Ġconsum ers
Ġbel ong
Ġexpl os
Ġcons idering
ow nt
ĠH aw
Ġair craft
c ol
Ġpull ed
Ġdiffere nces
Ġbas ically
Ġa id
ĠCons erv
T H
Ġre nt
ĠF ree
ĠP ac
Ġafter noon
y r
Ġgl ass
Ġsh ift
g ment
Ġend s
Ġdep art
Ġt urning
Ġb ound
> >
Ġfil ms
Ġpros pect
ess ions
ĠB ook
Ġsp ring
ru ption
ap ter
og ue
Ġtre ated
ĠChar l
Ġacc ident
Ġm ort
Ġlist en
0 1
Ġse at
ed ia
Ġcomb ined
Ġmot iv
Ġser iously
t op
Ġpriv acy
, [
Ġconst ruct
ll er
od d
Ġeven ing
Ġopportun ities
Ġstrugg le
Ġpan el
Ġenem y
Ġlot s
Ġ19 5
Ġcomple ted
he red
Ġtalk ed
ĠP ower
Ġvis ual
ĠD aily
Ġhop es
Ġpass ing
ĠR ad
Ġapp s
app ing
H is
ar p
Ġc art
I G
os ite
Ġi Ph
Ġwide ly
Ġcal cul
Ġemer gency
l ife
An other
Ġsu it
Ġe lement
ens ions
or al
Ġp owers
k et
Ġ id
ĠSh ow
ĠB BC
h ab
ĠO lymp
Ġpl ants
Ġdisc l
Ġb urn
Ġsub s
Ġliber al
0 5
Ġopp osed
ang ed
ĠH ol
Ġa st
al ed
Ġpro ceed
Ġcopy right
ĠSp ace
u ous
ĠR el
Ġadv ance
as p
Ġfact or
Ġ200 3
Ġdist ance
ive red
Ġattempt s
ĠM att
ĠPro ject
Ġdism iss
uc ks
ok ing
om pl
ra ud
-------- --------
ut s
W ell
Ġtrou ble
pl om
Ġcoll abor
Ġt un
ribut ed
ĠR oad
Ġz one
ab ilities
ĠJack son
Ġup gr
Ġdef ault
Ġrep orters
Ġre action
Ġfr ust
ra wn
Ġst orm
Ġwrit es
Ġh ol
m osp
ob e
Ġtyp ically
I nd
ĠT oday
st s
Ġp ages
ain ts
p et
id el
Ġinst ruct
ĠM em
Ġref erence
resp ond
m m
Ġb odies
Ġpack age
Ġsub m
P D
S p
Ġmat ters
un ction
Ġden ied
er ved
Ġdisapp oint
l ines
y th
Ġqu ant
Ġexpl o
m ond
P e
ĠG et
L E
Ġqu iet
tern al
Ġent ertain
Ġb att
ĠN AS
Ġopt im
ne ll
Ġrespond ed
Ġappro ved
ĠTur key
Ġsat isf
Ġbroad cast
ad ow
Ġdis s
Ġinstit utions
ed s
Ġstand s
Ġad vert
Ġset s
ĠDirect or
ap ed
6 4
es ters
Ġel imin
f ree
c are
Ġre new
ĠOh io
Ġse m
Ġval id
Ġse vere
9 5
Ġcap able
is ters
ĠWill iam
ĠP enn
Ġ200 1
Ġs ac
Ġcapt ion
Ġp itch
est ival
Ġl oved
Ġ //
raz y
Ġtechn ical
Ġcl oud
Ġg iant
Ġm al
ed d
Ġtrad ition
Ġprom pt
Ġconf ident
Ġconf idence
T V
Ġnum erous
Ġreported ly
Ġcan n
ell y
Ġfac es
ab in
Ġb ull
Ġtrans ition
A m
6 5
Ġwe ather
ani el
ĠAfghan istan
at o
Ġcre ation
Ġpers pective
h ost
Ġun able
Ġf ly
ĠLab our
Ġfor get
ĠSy stem
] ,
ĠY et
as tern
Ġco oper
em ploy
Ġsubst ant
r ant
Ġsuff ered
Ġc raft
ĠS qu
z er
Ġviol ent
Ġco ast
Ġexperien ces
Ġpict ures
ĠMed ia
p ass
ang ers
Ġappro x
Ġrout e
un te
amp ion
Ġadv ice
Ġdecl ared
ĠAnd rew
C ont
Ġord ered
Ġm and
Ġfl ag
4 2
Ġcr imes
Ġp roud
Ġreport ing
Ġmess ages
Ġco ff
ĠH uman
Ġl it
raz il
it a
A pp
P R
Ġfind ings
Ġcircum st
S S
Ġex cell
Ġdecl ined
Ġexpl ains
Ġev al
ac he
Ġdel ay
ab led
ĠF ollow
ĠW al
Ġnewsp aper
Ġshould n
Ġconnect ed
is hes
ok en
R ep
ul ations
us iness
Ġon going
ound ed
ĠM a
ĠL in
U T
Ġmov ies
Ġpick ed
il ty
du le
Ġadm itted
ion ally
res ents
Ġdel ivered
r id
ev in
Ġgun s
D uring
x ual
il it
Ġwalk ing
Ġ \
Ġag ents
ov es
ĠSc ot
ĠM L
Ġg ra
Ġthough ts
Ġmar ried
Ġedit or
Ġpr in
c alled
Ġem ails
Ġappropri ate
Ġem phas
Ġa uth
Ġarch itect
Ġle aves
Ġed ge
Ġupd ates
Ġacc ompl
u ations
Ġg ather
ĠMuslim s
Ġfor g
Ġquarter back
ĠGr and
Ġs ession
O ver
ans as
Ġpo ol
Ġinj ured
Ġpublic ly
ĠS cience
Ġstate ments
Ġper man
ĠS ov
Ġour selves
Ġconf irm
ĠW ood
Ġleg it
ĠL ake
Ġreal ize
ĠT ra
ĠTe chn
Ġdri vers
o oth
Ġar med
t ion
ner gy
O ther
ell ow
, âĢĻ
Ġlawy er
m ates
Ġread ers
Ġd ial
Ġr ail
re land
ess or
ĠS ee
Ġcont ains
ĠD ou
Ġarg ue
our ney
Ġf illed
Ġtal ent
Ġalleg ations
Ġactiv ists
c os
Ġs ad
ĠChrist mas
Ġ198 0
ĠMich igan
Ġd ynam
Ġbuild ings
Ġcr ack
Ġwe ar
Ġtrans form
4 3
ĠRe v
ĠRe ad
ĠA v
Ġterror ist
M any
ĠR on
Ġexerc ise
T ube
Ġeffect ively
ĠB ack
Ġlab el
Ġt ree
Ġpract ices
ĠA T
Ġsub sequ
ĠI ll
g a
c an
ĠS um
Ġexam ples
Ġpat ient
Ġf ish
Ġsh op
Ġfl o
ĠJ ul
4 1
Ġobject s
ĠSe attle
ent ure
Ġsecret ary
Ġmiss ed
l ong
Ġca uses
end a
S e
ĠS her
Ġdeb ut
Ġr ain
Ġess entially
c ons
Ġte ch
Ġmor al
D e
ĠUkrain e
R es
et te
as ure
Ġcent re
ord ers
Ġs am
ar ters
Ġinj uries
ĠV ict
ĠR od
ĠW ork
ĠiPh one
g ia
ĠG en
Ġart ist
F ollow
Ġth inks
d ate
Ġmot or
ic ing
Ġcl ient
Ġb ond
ĠT O
O h
ĠSt an
ĠSaud i
Ġfact s
Ġdes ire
Ġp ure
ĠI D
ĠPh ot
I I
Ġlink ed
Al though
Ġgovern or
ar l
ou ston
ul s
Ġmaterial s
Ġperform ed
M A
Ġfr anch
or ry
Ġs ke
ac ter
ag ers
Ġhe ll
Ġinit ially
Ġphilos oph
Ġnecess arily
Ġsu c
ill y
Ġexp ansion
Ġschedul ed
Ġwar ned
Ġadv anced
ĠS ign
es ome
Ġdi plom
or se
Ġexpl an
ar n
Ġevery body
Ġj oint
Ġres olution
Ġincre ases
Ġdec re
Ġaccept ed
Ġvar i
d ef
am in
ad or
Ġfac ed
Ġmy ster
w ord
Ġinc or
Ġannounce ment
Ġfollow s
Ġn ations
Ġb are
Ĥ ¬
en ger
Ġinter pret
ill ance
az a
Ġplay off
ĠH y
Y es
ĠM ount
Ġab andon
Ġ ing
ĠF er
Ġne ither
Ġath let
Ġv an
ĠSec ond
Ġyes terday
Ġrad ical
r um
Ġnear by
Ġdist ribution
Ġdat ab
Ġappl ied
Ġmag azine
ĠL ife
Ġconsequ ences
Ġlist ed
Ġdo ctor
Ġsurpr ised
Ġat mosp
M ost
ĠCol umb
Ġoff ense
w ater
b ur
ĠC NN
Ġfor t
Ġm ir
ir ty
Ġbeg ins
Ġsp ons
i at
Ġthreat s
Americ an
Ġrep resents
ĠWe ek
ĠJew s
it ors
Ġmov es
Ġen h
Ġrem ark
g ent
ĠB et
ĠG M
semb ly
ath an
ot ic
Ġsong s
Ġbehav i
ĠA ff
T A
Ġch art
Ġadd s
Ġr ide
Ġimpro ved
Ġwith d
ĠD an
Ġal cohol
Ġwar m
i est
Ġfl ood
Ġout put
ĠDe velop
S pe
Ġp ra
Ġp hen
Ġsh ots
w hel
Ġf ill
Ġst ood
Ġbr ings
Ġpus hed
ĠBl ue
Ġgu ilty
ĠRom ney
Ġsub scrib
ĠH en
Ġent ry
r ich
Ġ3 8
ĠB razil
Ġdem ocracy
Ġboy s
Ġal t
ocrat ic
ĠSw ed
Ġrestaur ant
ĠN BA
ĠK im
Ġro w
ĠR E
om in
Ġconf ig
ed y
Ġlaws uit
ĠI reland
Ġmanufact ure
Ġrece iving
Ġ3 3
ĠBar ack
Ġtot ally
Ġdiscuss ed
Ġs ought
Ġr ising
Ġent ered
ĠIS IS
ĠOn ly
Ġconsist ent
Ġa f
Ġhistor ical
ĠBo ard
The n
Ġt rib
Ġre in
t witter
Ġst orage
Ġ3 00
Ġplan e
ac le
Ġcor respond
ĠV ol
Ġcomb ination
Ġsc ored
Ġin put
l aw
Ġbr ight
Ġsymb ol
k ay
Ġsuc ceed
Ġ3 7
Ġbut ton
Ġinvest ors
Ġ200 2
Ġcreat ive
st ood
Ġart icles
C an
Ġsqu are
Ġis land
ĠDe v
Ġdeath s
Ġclass es
Ġnet works
Ġfun ctions
Ġunlike ly
Ġhead s
ri p
Ġn ative
Ġb oss
Ġrough ly
ird s
Ġconsum er
al ty
ĠP rem
ĠF ar
Ġl ie
f ortunately
Ġheav ily
ĠMay be
Ð µ
Ġfair ly
ĠAn other
al a
Ġtemper ature
Ġexist ence
ĠW alk
Ġsa v
ER S
ide o
ĠAs ia
Ġstr ing
ic ian
ĠM s
ĠW he
Ġcont est
Ġres ident
ĠIt s
Ġpl ot
Ġtarg ets
ĠL ib
ic ious
ĠKore an
ĠC ub
Ġspl it
Ġyoung er
Ġres c
Ġcolle agues
us al
Ġl ock
ĠB ob
com m
O D
ĠSt r
Ġl ibrary
Ġro t
Ġr ally
Ġpar liament
Ġprot ests
Ġany where
ard en
Ġb ike
Ġbre aking
du c
z ona
Ġstore s
Ġexpress ion
Ġgr ab
ok ed
Ġwas te
Ġwar ning
Ġimport ance
Ġdef ined
Ġbu ying
Ġbl ow
' ,
ĠS ports
Ġch ain
Ġman age
Ġsy m
Ġadult s
Ġpro hib
u y
Ġclass ic
ĠE ach
Ġmarket ing
Ġc ere
Ġill ust
Ġl inks
Ġs now
Ġsh if
ic an
m es
Ġ4 8
S ee
Ġf raud
ĠCl ub
Ġfac ility
ĠS ky
Ġto w
T S
Ġhard ware
Ġalleged ly
ĠH ist
Ġregul ations
Ġconf ront
Ġsch ol
Q u
Ġdo ctors
Ġcur rency
Ġhouse hold
ĠColor ado
Ġrepl aced
ere nces
Ġess ential
olly wood
iqu es
Ġem pt
A dd
Ġsome what
Ġb on
b orn
and al
Ġprom ise
Ġfav our
Ġfl at
Ġl augh
ĠR ights
Ġhold s
Ġopp osite
Ġmom ents
ĠD iv
on na
ĠB oy
Ġopp onent
Ġn av
P U
Ġact s
Ġcamp us
Ġbu g
Ġvers ions
Ġmot ion
d is
Ġev olution
omet imes
Ġv ice
ĠEx p
Ġrele vant
Ġr um
Ġmet al
Ġse es
0 8
etro it
Ġindust rial
p ower
Ġz ero
Ġclose ly
ĠIm age
Ġs ick
ĠR am
Ġemot ional
ag an
Ġd ownt
ĠYou Tube
Ġfew er
Ġb ag
Ġdiv ision
ĠD C
ĠY ear
Ġh at
Ġhard er
Ġhop ing
Ġcustom er
w est
het ic
ĠBro ok
ĠVal ley
hip s
Ġmechan ism
ĠAn n
P ol
Don ald
op y
ock et
ol ve
ĠH ouston
Ġreturn s
Ġto m
Ġvol unte
Ġparticip ants
Ġext ent
Ġint ention
Ð °
Ġexcell ent
Ġacknow led
ĠSov iet
Ġh ur
ĠE lect
er ves
ch o
ĠG ra
ate ll
Ġsqu ad
Ġcircumst ances
el lect
Ġf ashion
g ame
ĠG ames
Ġis ol
Ġimmedi ate
Ġsuff ering
om ing
al ian
ĠE ric
Ġl ies
Ġauth ors
ul ous
O b
Ġt iny
olog ist
Ġg rown
M an
ĠW atch
Ġsy n
Ġimm igrants
ef ully
Ġkind s
in em
om a
Ġche ap
en a
Ġdetail ed
ĠM ot
g reg
Ġm ine
Ġfeat ured
ĠD ie
Ġcompet itive
Ġun us
Ġme at
Ġdescrib e
Ġfor med
Ġcarry ing
6 6
Ġtourn ament
Ġrelationship s
Ġtr ick
ot al
cer tain
Ġfundament al
Ġ4 9
ord an
Ġcy cle
Ġter min
ut ch
Ġw ave
7 7
Ġsign ing
ĠH ome
Ġc razy
ay ers
ĠI P
c hen
Ġgu ide
Ġear ned
Ġdec line
Ġw ins
ĠW ik
ĠCath olic
Ġem br
Ġreg ional
pr int
ĠPalestin ian
Ġstr ange
ens us
ĠW ay
ĠJes us
F A
Ġfrequ ently
ĠH el
Ġob serv
Ġan cient
Ġact ing
f riend
ĠG ar
Ġman ner
Ġeff icient
ĠPut in
Ġpus hing
Ġcomfort able
ĠC IA
n ame
m l
st yle
Ġsh aring
Ġp ip
ĠE conom
Ġown ed
Ġsk ill
Ġw ire
Ġcommit ment
Ġinst ru
Ġalong side
ĠS ar
ĠC ard
ĠL ong
ig er
es c
ĠDav is
ĠA ut
Ġrefer red
Ġcontrovers ial
Ġart ists
u ated
ob b
ĠL ord
rom e
Ġb at
Ġrepeated ly
Ġm outh
ĠE ll
Ġe gg
r ison
G et
n ic
c hers
Ġattempt ed
we ight
oc key
n am
Ġupd ated
Ġfem in
Ġ3 4
Ġpre gn
ĠE r
Ġsche dule
Ġded icated
Ġsent ence
Ġc ert
ĠC y
Ġup coming
Ġcol umn
Ġdep th
ĠO ld
ĠT op
Ġpl ed
ĠR ight
Ġj ourney
Ġvirt ual
Ġstru ck
u able
Ġreal ized
Ġstud io
ĠD own
Ġdes k
p an
ĠP S
ĠO F
Des pite
ĠE nergy
st r
Ġser ving
8 8
Ġwalk ed
% )
ce ived
Ġmed ic
O RE
ĠN Y
or a
Ġrep ut
ke l
an es
iam i
Ġk ing
Ġr ing
Ġur ban
ĠChar les
Ġtarget ed
Ġass ets
Ġch annel
ad el
Ġins pired
am ily
ĠAri zona
ograph ic
Ġnews let
Ġpost s
Ġhot el
Ġag enda
lud ing
F P
Ġun iverse
Ġt ort
0 6
Ġca using
f oot
Ġwat ched
Ġsu icide
h us
ĠA L
D S
Ġover whel
Ġsurve illance
ĠW ild
Ġus ual
ĠSu pp
E n
Ġchair man
Ġwin ter
Ġopp onents
Ġstre am
Ġint ent
Ġs ister
x y
u gh
iven ess
v a
L ike
Ġmain stream
um ber
Ġlat ter
ĠCru z
ĠW ars
Ġl iqu
T wo
Ġk it
ĠD i
Ġsurround ing
Ġknow ing
Pe ople
Ġfol ks
Ġord ers
Ġh all
Ġobser ved
Ġliter ally
ri ve
Ġrem ote
ĠAg ain
ph y
ĠEn ter
0 9
ĠJ ava
Ġsubs id
so le
ĠDef ense
I R
aw a
Ġappro val
Ġd u
ĠM en
Ġbas ket
Ġteac hers
v in
P er
im ents
Ġs and
u a
O C
Ġexc iting
ici ency
Ġ7 5
Ġprotect ed
Ġcon gress
Ġnot iced
ren ce
Ġdeal ing
ĠB at
Ġprec ise
y ou
Ġsim pl
Ġdeep ly
ĠCh ild
Ġcommunic ation
Ġs ending
av or
ĠYou ng
00 00
r ations
ĠJ r
Ġfor th
Ġg ang
Ġbatter y
ĠT ay
Ġas ide
Ã Ń
Ġf asc
Ġfix ed
Ġn arr
Ġrequire ments
g or
Ġw al
az i
Ġproper ties
ĠV an
ĠT al
0 7
Ġal ive
Ġnar row
Ġw ake
Ġpass ion
Ġsk y
Ġe ating
Ġmist ake
ab is
r ors
b ar
Ġexpl ore
Ġcoff ee
ens ity
onym ous
Ġ197 0
Ġra pe
Ġvol ume
all as
Ġprom ised
az e
i pl
Ġris ks
Ġd iet
ĠC le
ĠAr ch
b el
Ġex hib
Ġinvol ving
Ġswe et
Ġw age
Ġtest ed
Ġse lection
Ġn orthern
Ġdefe at
w oman
al le
Ġre ward
Ġwel come
Ġext ended
Ġput s
Ġterrit ory
Ġne ut
ĠF ort
Ġun employ
Ġrefuge es
âĢĻ .
Ġphen omen
Ġs ample
Ġapprox imately
ĠPol it
Ġhe ight
Ġfl u
ĠK evin
Ġbl ame
Ġany way
Ġdestroy ed
ĠD etroit
Ġimp ressive
ĠBr ad
ĠStep hen
Ġg ap
b urg
Ġpro of
Ġun known
Ġloc ations
Ġsh o
Ġcr ash
ĠC ast
Ġd ry
ack ing
ĠM ax
Ġselect ed
as ks
Ġattack ed
et her
ĠP an
Ġw est
ult ure
Ġmax imum
ĠM iller
ĠWil son
ap se
Ġprom ote
Ġg od
ger y
ac c
Ġmere ly
M ay
Ġfranch ise
Ġshe l
Ġrequ ests
Ġret ire
Ġsudden ly
Ġslow ly
Ġprot esters
Ġdis ag
Ġteac her
ang es
ing u
Ġtyp ical
b oy
se x
ĠW omen
Ġch ose
ĠW at
p ost
Ġcon ver
F r
Ġmat ches
Ġlic ense
Ġproper ly
ĠC amer
Ġass ume
ĠF il
Ġdisc over
ĠCl ass
ob ile
Ġpro te
0 4
ĠT it
i xt
I nt
Ġwor ried
ĠIn s
Ġw id
og an
Ġab ortion
Ġall ies
or ation
iz z
um s
Ġterror ism
Ġmod er
Ġsupport s
ver ty
Ġarg uments
Ġob lig
st one
Ġthem e
ow ered
i ro
Ġfac ilities
as er
Ġad apt
Ġsust ain
Ġrecogn ize
a ire
ar ry
Ġe ast
ĠM ic
uild ing
g ender
Ġequ ival
0 2
Ġf uck
Ġobtain ed
Ġpo verty
ig ure
ins on
R el
Ġform at
ĠIt aly
ĠL u
Ġnom ine
Ġde als
ig g
Ġfe es
0 3
Ġcontro lled
Ġunder stood
Ġtop ic
ĠH ollywood
Ġcrit ics
Ã ³
l v
ĠAg ency
l ies
ĠSoc iety
it arian
Ġr ub
ĠF ord
ĠJer sey
Ġso le
Ġvill age
ĠB est
l ist
ĠAd minist
Ġdi agn
ĠP R
Ġlik es
O r
ax y
f ire
Ġp al
Ġpun ish
Ġd ress
ĠGeor gia
5 9
Ġev il
Ġb unch
Ġjournal ists
ĠD am
ĠF our
ra id
6 8
ĠComp any
Ġexp osed
Ġreg ions
Ġcommunic ations
i i
Ġsche me
ar ity
Ġlim its
Ġtrans p
ce ler
Ġsome how
Ġst im
Ġstrong ly
ĠCar l
Ġresist ance
Ġhon or
Ġch ampion
Ġconst ant
Ġp ed
Ġdr ag
st ers
Ġph ase
ĠL abor
ĠNAS A
os is
c ript
Ġperson ally
Ġtr uck
Ġesc ape
Ġcond em
Ġprof it
red it
rim ination
ĠN HL
Ġb id
Ġfall ing
Ġdec k
Ġvac c
nes ota
k o
Ġsome where
Ġemploy ee
oc ation
Ġhar ass
ĠSt and
ĠNet work
ĠN ight
ast s
Ġbe ar
Ġcompar ison
GB T
ĠD un
Ġpoll s
p ool
ci ples
c ers
ll s
Ġs outhern
ĠSp anish
Ġem issions
Ġencour age
Ġdec ent
ĠC D
Ġin qu
au g
at i
al o
ĠM iami
Ġempt y
J ohn
Ġh its
Ġdefin ition
pect ed
ĠL and
Ġdirect ed
ĠL ove
ort ed
V ER
ĠV iew
Ġmeet ings
Ġwin ner
7 8
Ġf lex
Ġcomp rom
c ow
end ers
Ġgot ten
z ens
Ġp ic
a o
Ġ3 9
ĠD aniel
Ġelectric ity
or ic
if orm
Ġoffic ially
Ġch osen
int end
Ġstret ch
ĠDes pite
ĠC am
Ġdatab ase
ĠTur k
ow a
Ġben ch
Ġstrong er
ĠB ell
Ġint ellect
Ġpurp oses
em s
ĠD NA
ĠK n
Ġcut ting
ost er
ĠE nd
Ġde leg
Ġsp in
Ġamount s
Ġext ensive
ick en
Ġtre es
Ġf old
Ġan x
ĠAs ian
Ġdes per
Ġide al
r ary
ĠT urn
Ġfif th
N C
ig ation
ĠO k
Ġth read
Ġgood s
p es
ad s
Ġdevelop er
Ġclaim ing
Ġcol on
Ġre tain
Ġcapt ured
Ġfind s
ĠTh ough
Ġdri ven
Ġpay ments
in er
ĠJ ordan
Ġt ies
p o
Ġreason able
Ġs oul
Ġsome body
Ġend ing
Ġdog s
ĠN ations
Ã ¶
Ġcho ices
Ġse ats
Ġhy d
ĠServ ices
Ġinc l
m o
Ġd rawn
un ning
Ġeng age
ĠTh ank
ĠU t
Ī Ĵ
Ġs ight
Ġthreat ened
Ġrul ed
Ġb le
ĠAtt orney
ĠIr ish
Ġtrad ing
Ġprim arily
An y
Ġpar am
Ġun w
Ġaspect s
Ġf ighters
w an
Ġansw ers
Ġperfect ly
ĠSe a
Ġpark ing
Ã ¼
ir ms
Ġreject ed
ĠAc adem
ep ing
Ġr ival
as ters
Ġconst antly
Ġpay ment
ow ed
Ġdist inct
Ġtechn ologies
Ġf lying
ĠD ar
Ġcomp onents
ĠScot land
Ġelse where
ĠG all
Ġany more
Ġestim ates
Ġr ig
Ġfield s
Ġp od
Ġsol utions
Ġresult ing
Ġconst it
Ġ icon
Ġenc oun
T e
Ġprov ince
Ġaw esome
Ġreg ularly
Ġworld wide
Ġact or
Pol ice
ĠRe al
Ġcour ts
ĠMo ore
Ġnarr ative
Ġenem ies
ĠIn f
f ast
Ġmix ed
ĠD ark
Ġhous es
O nce
ĠB ru
ĠDis ney
se a
reg on
Ġno body
h an
Ġb oot
Ġcontrol s
ĠW ater
Ġlet ters
ï ¿
ld er
ĠO S
< /
in ations
Ġout come
Ġlo an
Ġmay or
Ġm urd
5 8
Ġ4 2
ĠH un
Ġcont em
ic er
Ġap artment
Ġcoal ition
Ġcontribut ed
ĠSte ven
ĠC at
Ġconclud ed
t le
Ġex ists
ĠM S
Ġfound er
ag ram
Ġatmosp here
Ġt ank
Ã ¤
ĠB rian
Ġprof ile
ĠAd am
ol t
Ġsit uations
s hip
Ġbre w
ĠCh ampionship
ap es
ĠL ight
Ġincred ible
ĠConst itution
ear ing
Ġaccur ate
ĠA uthor
ĠL ew
Ġsign al
Ġemploy ment
ĠVict or
ĠT w
ĠW here
Ġcl ients
ĠS outhern
Ġkeep s
Ġcontin uing
." [
Ġinform ed
Ġbase ball
Ñ Ĥ
Ġun p
r ates
C S
Ġtick et
ĠB as
ĠR og
ot ten
Ġgener ate
is an
Ġcon ven
Ġwe ird
6 7
Ġcateg ory
Ġt ied
se ll
Ġinf ect
il arly
Ġrout ine
Ġang ry
Ġra ising
ĠI d
Al so
Ġmach ines
Ġregist ered
Ġdem ands
adel ph
Ġpro ved
ĠC ivil
M L
Ġincred ibly
Ġg aming
Ġcru cial
ian a
ĠIt alian
C E
in ity
Ġst uck
ĠOr gan
ĠD allas
Ġter rible
im p
r as
Ġfeed back
ot es
Ġk il
Ġu pper
Ġpl astic
Ġnew ly
Ġconsum ption
ĠJose ph
5 7
Ġest ate
Ġdo zen
Ġent hus
Ġbill s
Ġcons cious
ack ed
Ġinn oc
the re
ĠSp ain
on ic
Ġim per
Ġwrit ers
Ġman ip
Ġaggress ive
Ġex cess
v y
Ġrep orter
ĠC ross
Ġret urning
Ġst ead
Ġcomp ens
Ġprogram ming
Ġrepresent ed
Ġconclus ion
ur a
ĠTh anks
ĠB owl
Ġassist ant
ific ations
r age
T oday
Ġro ster
Ġorgan ized
ĠMin nesota
Ġr us
Ġorig in
Ġpen alty
adelph ia
ĠCon f
Ġdrink ing
S ec
Ġs atell
Ġpain t
ĠS k
A A
Ġcapt ure
ind ing
ĠPro gram
Ġexplan ation
if er
ĠT em
Ġcons pir
3 00
isc al
Ġcount y
l ock
E W
Ġassist ance
ons in
Ġcompl aint
ess ed
isc onsin
Ġg ro
ĠRom an
gor ith
Ġ %
Ġmag ic
Ġgr anted
Ġt all
ĠPar liament
ĠCont in
Ġcompl icated
B ecause
ĠO per
Ġn ut
ar on
Ġch ances
Ġaud io
ĠA R
Ġext ract
Ġ199 9
Ġsh ares
em en
Ġr u
Ġsuccess fully
ĠE duc
s m
e z
Ġ5 5
l ers
ann y
Ġpil ot
Ġtechn iques
ï¿ ½
Ġrec overy
Ġscen es
Ġhe l
ĠZ eal
m ont
Ġ Î
Ġmy th
Ġveter an
D r
Ġ iron
Ġdeg rees
ĠC are
Ġ( $
es y
Ġsym pt
Ġlaw makers
ĠG i
ĠI T
Ġoper ate
Ġw estern
Ġaim ed
Ġad s
Ġha bit
act ions
Ġph r
Ġtast e
id ency
anche ster
Ġeng aged
ĠT est
r ating
ri a
k er
Ġpriv ile
Ġr ating
m od
Ġteach ing
Ġacadem ic
ĠE p
Ġpass es
Ġthe rap
Ġdoll ar
ĠH ot
Ġautom atically
ĠPac ific
Ġatt ended
Ġbl ocks
ĠF re
Ġmon it
k ed
the w
Ġsurv ive
Ġperman ent
ĠFore ign
re te
Ġant icip
Ġmark ed
ĠW in
ab ama
Ġext rem
Ġh idden
Ġtit les
Ġt aught
ĠSen ator
ĠL ook
Ġen able
Ġacc omp
ĠN BC
% .
it als
st ar
Ġb om
Ġel ite
ĠLin ux
ĠS C
C om
ever al
Ġdep ending
Ġlawy ers
Ġind ex
Ġval uable
Ġinst alled
Ġch ampionship
rap h
ib ilities
Ġdownt own
Ġcomp re
Ġequival ent
re p
O ff
Ġsol ve
Ġro ot
Ġd uty
Ġ6 5
M P
Ġover se
Ġp ace
ch ain
ĠB ull
ĠSpe cial
Ġreput ation
ĠB usiness
Ġph ones
Ġun certain
19 9
Ġperson nel
Ġvis ited
Ġsuff icient
r ific
Ġwar ming
ĠTay lor
it ar
he nt
Ġprin ciples
atur ally
Ġvulner able
Ġ6 4
Ġenjoy ed
u ine
Ġnegoti ations
Ġexp osure
Ġgener ated
Ġadv is
Ġf ake
Ġrec ording
M S
Ġregard less
Ġcollect ed
c r
ĠN ick
Ġd ict
ĠK elly
Ġbit coin
Ġpattern s
Ġe lev
G etty
a ed
U R
In st
er a
re ams
Ġp in
ĠA venue
Ġc up
Ġdis aster
ry pt
Ġc able
Ġmain ly
Ġwork er
ĠT ake
Ġrac ial
ĠAn th
ĠJ osh
Ġp ounds
ĠCo ast
Ġport ion
qu arters
Ġaf raid
ĠV iet
Ġdef ence
ĠE astern
Ġint ense
Ġtrack s
Ġbus y
mon th
ĠSer ies
Ġins pir
ĠT ony
Ġgr ant
ĠL GBT
Ġsur gery
Ġfun ny
5 6
ĠSt ill
Ġposs ession
act ive
Ġap olog
ĠMos cow
Ġprom inent
b al
a un
E d
ĠC all
Ġcom ic
Ġengine ering
Ġth in
Ġtrou b
Ġprocess es
ĠM ars
ĠN ation
ĠK urd
f rom
im a
ĠC oll
ĠC ome
Ġunus ual
as hes
Ġent it
Ġdescrib es
Ġ âĢĻ
ĠK ent
or ne
ĠS n
Ġresult ed
Ġemer ged
et ary
ĠA h
Ġtax p
Ġb es
ĠR ay
u an
ĠI owa
ĠO regon
Ġcor ruption
ath y
Ġbl ind
Ġst ations
Ġf ought
Ġprop ag
Ġco ordin
Ġext ension
Ġadop ted
y e
al i
Ġcompet e
Ġg all
Ġrec ru
ĠZeal and
ĠG er
ĠIn vest
Ġhad n
Ġbr ut
Ġevery where
pr ise
Ġ4 00
Ġd im
Ġcontract s
Ġm ail
ĠB alt
he rent
8 6
Ġfeel ings
M ean
ul es
Ġf irms
th is
Ġminor ity
idel ines
Ġadvert ising
Ġrare ly
ĠR ick
f ront
Ġdisc ipl
H S
f all
ĠA D
ind er
ĠA li
ĠDe ad
âĢĻ ,
Ġcry pt
Ġsan ctions
ĠN orthern
ĠPhil adelphia
Ġsp r
Ġcamer as
ic ate
Ġstr ict
Ġfin ance
Ġc ited
Ġen orm
Ġshort ly
c les
ĠV eg
v iously
ĠBe fore
Ġexpect ations
L A
az z
ĠPol icy
Ġimplement ation
up id
Ġexpl icit
ã Ģ
m aking
ĠO s
il er
Ġne uro
sc ape
ĠGree k
Ġrec ip
Ġthous and
Ġth ick
Ġl oud
Ġaff ili
if ies
ĠN avy
Ġin ev
ĠL o
Ġphot ograph
or ough
Ġmed ium
w rit
cl ing
Ġscen ario
ĠW isconsin
ist ent
Ð ¸
Ġvis ible
Ġve get
Ġpl ug
ĠF ood
Ġlight s
Ġprior ity
Ġcreat es
E A
Ġbr idge
ant ic
ĠL ive
man n
Ġag ric
Ġperm ission
Ġob st
Ġparticip ate
Ġal gorith
Ġt ur
Ġsu p
ĠH om
il ton
Ġbrow ser
ĠF oot
g un
re f
Ġw ing
Ġv en
Ġdo zens
Ġac celer
Ġcomput ers
b ro
c us
iz on
Ġloss es
Ġbasket ball
Ġla id
ĠGl obal
ink ing
Ġhistor ic
ĠKing dom
Ġh o
Ġt ag
ĠO l
ĠAm endment
as ion
Ġstrik es
ask a
Ġprinc iple
ĠDevelop ment
) )
Ġsc oring
ur rent
w orld
at hered
el and
==== ====
Ġcoun sel
Ġform al
og ether
R ec
5 1
P r
Ġwonder ful
Ġsh ock
wh o
Ġbeh alf
Ġm el
Ġ4 4
prof it
ĠH as
Ġestablish ment
d a
Ġinter face
ĠAs h
ĠHen ry
5 2
ĠM u
Ġto ler
ĠS af
ĠTh us
ĠG reg
Ġg ained
Ġt or
ĠM ajor
Ġfound ed
Ġfound ation
Ġfe e
Ġclub s
Ġ15 0
Ġcann abis
Ġair port
ĠE SP
Ġb orrow
et ime
Ġmanufact uring
Ġre ly
t es
ili pp
am ber
Ġgen uine
ĠAl abama
ĠR oyal
5 4
L C
Ġcomp onent
f ound
Ġrel ief
Ġjournal ist
Ġrid ic
Ġwhe el
rat ors
Ġsa ved
r ative
e lect
AT E
ent h
Ġhead ed
Ġj u
Ġh ole
Ġy ield
ĠO ak
Ġ4 7
ĠKe y
ĠP ay
Be fore
Ġg ift
Ġf ault
Ġindic ate
Ġwithd raw
og en
ose xual
Ġdraw ing
le te
Ġsh ips
Ġun iform
Ġ- >
Ġban ned
Ġst able
ar lier
epend ent
Ġfoot age
Mean while
Ġmag n
Ġdo ors
Ġrecogn ized
ĠR and
l og
w r
Ġ19 60
Ġcont aining
ĠS P
C ol
ĠM oh
Ġstrugg ling
p read
Ġachie ved
Ġwall s
ĠAcadem y
Ġr iver
.... ....
ĠF C
Ġneigh b
Ġed ition
ig en
Ġpl ate
Ġsp ark
an ing
te xt
Ġmove ments
Ġcy ber
oun ced
Ġtrans m
port ion
ĠM id
Ġdeli ber
s he
Ġsh arp
ĠV is
ĠH T
Ġepis odes
rou s
ĠPrem ier
ĠTh ree
ol is
Ġneut ral
op her
Ġexcept ion
Ġprodu cer
Ġdest ruction
Ġun com
Ġ199 8
ul ating
we et
Ġbelief s
y stem
ĠF und
Ġback ed
z y
te en
ĠRe view
Ġh ired
Ġp ump
Ġlik ed
ides pread
ĠS now
re ll
Ġleg end
et ts
Ġro les
ĠF red
Ġlangu ages
Ġent ering
m ate
Ġprofess ion
u ce
b ell
ou red
um er
Ġinterview s
ab s
Ġphilosoph y
6 9
ĠAdminist ration
ĠA S
a us
Ġar range
ĠR et
Ġfl aw
Ġh ang
ĠMc G
c ription
Ġto x
U s
Th ose
ĠH it
ĠAtlant a
Ġst adium
ĠV R
sy lv
Ġdin ner
Ġredu ction
int erest
Ġb ath
ĠTurk ish
ĠN ob
M ar
ĠCon ference
ĠRep ort
Ġtack le
Ġg onna
Ġa ver
ĠN ote
u er
ĠDie go
t a
ĠO tt
Ġc rop
im ore
Ġf inger
Ġfarm ers
Ġnomine e
ĠM anchester
ĠCent re
Ġ4 1
b a
Ġbare ly
ĠJ ac
ĠP oint
ĠJ ason
Ġstruct ures
Ġcont ained
Ġch a
bur gh
Ġdeli very
um in
Ġconv in
Ġdisc rimination
Ġprocess ing
P ost
c ar
o en
ĠK ir
Ġinc ent
Ġsy nt
% ,
ach ing
AT O
ri ers
ĠAr m
Ġintellect ual
ĠF air
abin et
U L
B O
ams ung
S ub
ĠD ata
E P
ĠRad io
em an
Ġup set
ĠF ield
ĠPer haps
ĠEduc ation
sylv ania
Ġchalleng ing
ĠO K
5 3
ĠD id
Ġrestrict ions
ĠB ry
Ġpro ven
t hen
Ġfore ver
Ġelect ronic
l an
n i
Ġh itting
P resident
C o
am i
Ġreview s
ĠChrist ians
Ġconv icted
os a
Ġill ness
N e
Ġun ex
Ġsm ooth
Ġindic ated
Ġret ired
is p
Ġprodu cing
Ġrapid ly
Ġe uro
ĠAb out
ĠHar ry
4 00
Ġ4 3
alle l
j o
ter ing
us ive
Ġcorpor ations
Ġro se
ĠH ay
Ġlist ening
ĠF ed
ol en
Ġh ide
Ġo cean
ĠRe uters
Ġtechn ique
ĠU FC
Ġl oyal
ĠM ir
aw ay
Ġnot ion
Ġcl imb
Ġbeg un
Ġrecogn ition
8 9
Ġrob ot
Ġassoci ation
ĠR us
eng ers
Ġas ks
ĠH or
Ġwebs ites
ow ing
Ġper pet
Ġut il
y ard
Ġtick ets
Ġmil k
Ġdesc ription
ay ing
Ġsuggest ing
sel s
p age
less ly
ou ver
Ġexclus ive
ĠJud ge
Ġreach ing
http s
ĠN ic
Ġfl ash
ĠK ansas
ĠP ack
ach us
Ġprep are
im m
U N
Ġprogress ive
Ġb urd
Ġb ail
Ġequ ally
Ġex ceed
Ġhard ly
8 7
Ġw idespread
Ġb ra
Ġcampaign s
Ġcont ribute
ĠMay or
Ġfr ag
Ġre n
ĠA BC
Ġ4 6
Ġm o
Ġbr anch
Ġiniti ative
Ġsh it
Ġeth nic
Ġgr ass
Ġex ternal
D av
Wh o
Ġsens itive
Ġpract ical
Ġnorm ally
Ġunc lear
R S
ĠMark et
Ġrepresent ative
ĠP en
ĠH ard
ri k
ĠR ose
ĠC irc
Ġwe lf
Ġredu cing
Ġcare fully
Ġfriend ly
ĠArab ia
ud es
St ar
ust ed
enn y
Ġrac ist
h y
Ġrespect ively
ĠF ull
L ook
ri ent
ob s
Ġinv ent
: :
Ġoverwhel ming
Ġview ers
ĠMcC ain
ĠBern ie
Ġwelf are
ĠF urther
Ġconvin ced
Ġinvolve ment
ĠN ext
Ġcoll apse
r ical
ĠBe ach
anc ouver
Ġsm oke
Ġth rown
arr ass
Ġconnect ions
Ġterror ists
Ġt ail
ĠL uc
Ġstrateg ic
i el
Ġrec over
olog ists
he ast
ĠLat in
ĠS at
ik es
Ġh ook
c a
rat or
um es
ĠESP N
ĠR ef
ĠC O
el f
Ġsett lement
ĠL ind
Ġmind s
Ġw ine
Ġstat istics
Ġl ists
igr ant
b ec
ĠO nt
Ġv ital
Ġv ary
ino is
Ġfeat uring
app y
Ġbehavi our
Ġindepend ence
ĠMus ic
ro lled
achus etts
u per
pl oad
Ġfant asy
Ġdev ast
omet hing
Ġcompl aints
Ġinv ited
ut ies
Ġjo ining
Ġscore s
Ġf iscal
Ġdeep er
ĠPenn sylvania
ned y
ec ut
8 5
um a
Ġst eal
Ġdep uty
Ġan ger
Ġel ig
ĠL y
Ġw ars
Ġinvestig ate
ĠSqu are
________ ________
ĠS ir
Ġconst itutional
R ef
m al
Ġschol ars
ĠII I
Ġany body
Ġsubject s
ĠT enn
Ġsu gar
Ġi OS
ĠD ig
Ġar ray
ĠT own
st ract
Ġowners hip
Ġframe work
Ġunemploy ment
Ġal ien
Ġl obby
ĠDiv ision
Ġtrans gender
Ġimprove ments
I F
Ġpe ak
ĠG ov
Ġmen u
Ġin ject
Ġt asks
Ġdef ine
Ġdem ocratic
if est
l ad
Ġl uck
Ġsc reens
ĠX box
ivers ary
P M
Ġsc andal
Ġj ury
it i
ĠMin istry
Ġcompre hens
Ġdisc overy
ĠAnt on
es ter
ĠAN D
ou ch
Ġcas ual
P G
Ġrem em
M e
Ġcitiz en
Ġ 00
ih ad
Ġroad s
Ġdisag ree
Ġfail ing
Ġreg ister
un ior
w orth
ĠS S
Ġser ves
ick ing
ĠCamer on
Ġg athered
Ġdynam ic
c ore
Ġtest im
ĠIn formation
ĠN ever
Ġimplement ed
ĠBro ther
Ġcontrovers y
ĠU lt
Ġc os
Ġcollect ive
ĠL ittle
Ġtr ained
Ġf ab
Ġfear s
ĠN SA
Ġneigh bour
Ġsam ples
Ġpro sec
Ġf iction
Ġs oph
Ġest imate
level and
ĠSt one
ĠCommun ity
ĠMed ical
Ġ199 7
Ġrefer ring
Ġ199 6
ĠPh ilipp
Ġcap tain
Ġsp aces
Ġvers us
Ġleg s
ab il
ĠJ ay
e en
ĠWalk er
Ġtem porary
ĠSant a
Ġno ise
Ġt ip
od ing
ĠI ce
Ġt one
Ġincor por
Ġcivil ians
Ġvisit ors
Ġw ages
Ġt rem
Ġover t
Ġre ven
Ġrem arks
U nder
Ġhyp ot
Ġaware ness
f r
Ġrecomm ended
ĠH D
Ġhead ing
Ġst upid
ĠE s
Ġhand ful
ĠAll en
c ific
Ġreg ulation
os it
d em
ac on
Ġplatform s
ĠO N
ĠAnth ony
Ġacc us
Ġaff airs
ĠSpr ing
Ġtouch down
ĠA ction
Ġattack ing
Ġr ural
Ġult imate
Ġatt ached
Ġext end
Ġdiscuss ions
Ġattempt ing
Ġexpand ed
' .
ĠC ore
Ġgen etic
ĠVeg as
p at
Ġs in
b n
Ġr aces
ĠMat thew
ĠColumb ia
Ġrep rodu
ĠB attle
Ġhor se
Ġign ore
inc luding
ĠB rew
ĠQue en
Ġsympt oms
ph ones
h o
ĠGuard ian
Ġsuff er
ition ally
ĠPat rick
Ġsett ings
Ġr aw
Ġg ear
Ġsal ary
ĠC ook
ick et
Ġlic ens
B ack
Ġi P
Ġtweet ed
W ill
ĠM ake
h our
ĠK at
Ġpublic ation
Ġsuspect ed
Ġrec all
Ġpurch ased
Ġfact ory
Ġinter vention
ĠP ent
ann a
Ġeas tern
ĠM ah
Ġbr ill
Ġhol iday
7 9
g ener
Ġdis pl
Ġrank ed
ir y
ĠAust in
Ġthe at
ĠConserv ative
ĠR en
j a
Ġne ck
ĠM useum
Ġenorm ous
ĠB udd
Ġimprove ment
Ġview ed
Ġlog ic
Ġentertain ment
c ase
ĠAP I
Ġlegit imate
Ġing red
m ary
Ab out
ĠR oy
ĠProf essor
Ñ ģ
ĠMass achusetts
Ġ201 9
Ġc ogn
intend o
yth on
Ġpres um
ict ions
ĠAl bert
ect ive
Ġw ww
omm od
Ġadm it
Ġact ors
Ġhuman ity
ult ural
ty pe
Ġinvol ves
Ġsubstant ial
Ġres ource
Ġc ro
Ġbrother s
Ġseem ingly
Ġs orry
are t
Ġr ational
ĠB all
Ġlay er
Ġlo ans
Ġinvestig ating
Ġabs ence
Ġliqu id
Ġprov iders
Ġro ok
Ġfall en
Ġground s
Ġtom orrow
Ġco aches
Ġb ureau
7 6
Ġst ake
Ġadvoc ates
Ġres ign
ag g
Ġâ Ĥ¬
Ġinvestig ators
Ġconspir acy
20 14
m ad
Ġmedic ine
Ġdram atic
Ġout s
Ġf ulf
M c
Ġch apter
ĠSe ason
Ġmon itor
ĠCh air
S en
Ġactiv ist
ang el
Ġbo at
Ġsusp ended
ar ms
Ġp apers
C he
" )
ĠGree ce
ĠCont rol
re pre
Ġopin ions
W here
Ġmiss ile
Ġover s
Ġstay ed
Ġd iversity
Ġco vers
ĠRev olution
ĠChe ck
iver pool
Ġj ur
ĠGold en
ĠS uch
Ġb ars
Ġch at
Ġc oc
Ġcele b
Ġoffic es
Ġemb arrass
. -
ĠIran ian
ov al
ĠR oss
Ġdis rupt
Ġcare ful
oty pe
P C
ĠHe ad
Ġpre ced
Ġfore st
R I
we red
Ġam id
ple te
ĠH ospital
S m
am med
ĠHist ory
Ġg am
ĠC BS
repre ne
ĠIll inois
ĠS ony
Ġaut hent
x it
cl aim
our se
R uss
Ġtransport ation
ĠA cc
ĠG aza
ĠV ancouver
Ġhand ed
re ts
Rel ated
v ard
Ġconsist ently
A ss
Ġread s
Ġprot ocol
ist ing
ĠW W
Ġatt itude
Ġmount ain
Ġclot hes
l ah
ĠKen nedy
Ġ5 2
ĠH o
Ġdep ends
u ction
i ability
Ġh am
Ġmin ing
ĠF reedom
Sc ript
Ġnot ing
Ġprinc ip
h ot
Ġpet ition
ĠA le
co ver
ge on
Ġwar rant
Ġlow est
ĠSh are
ĠP ot
Ġpre f
Ġcol ors
ĠAnd erson
Ġp orn
Ġaddress ed
Ġsh r
H A
ĠF amily
Ġcon ce
ĠSt at
Ġthrow ing
Ġent r
20 16
ĠSt adium
Ġvirt ually
Ġguarant ee
ĠR a
Ġrefere nd
ĠMe an
7 2
G O
Ġf oss
Ġf ruit
Ġspeak s
ĠBalt imore
Ġst one
Ġcl osing
Ġste el
un es
Ġin ner
B oth
Ġread er
Ġperson ality
P art
Ġappreci ate
Ġbu ff
ĠIraq i
ĠA p
d it
Ġpo ly
! )
ĠEn vironment
+ +
Ġhand ling
Ġprof its
Ġsur f
Ġtri es
Ġmar ks
ien ces
Ġk m
Ġcontribut ions
Ġconvers ations
Ġspirit ual
Ġfant astic
ĠBro ad
ĠEng ine
ĠP itt
ĠT ri
Ġcon sole
Ġg rav
Ġhor ror
Ġcover ing
Ġg ains
Ġte a
Ġl ands
sen al
d ri
" .[
ord on
ĠHar ris
Ġh int
Ġshould er
Ġacc ommod
Ġast ron
iv als
Ġgu est
Ġdep ression
Ġw rest
Ġencour aged
ĠLew is
â ĸ
Ġl ucky
Ġjud ges
Ġinc idents
ĠC leveland
in ch
7 4
rop ri
Ġsubsequ ent
Ġd rew
sc ale
Ġsp oken
S te
re c
ĠHow ard
re tt
fl ix
ĠC re
R C
ĠE xt
New s
Ġr anks
Ġb acter
ut ed
ĠG etty
es h
Ġr het
i y
ĠB ang
Ġphot ograp
Ġbro wn
Ġ _
u its
ke ep
Ġinfl ation
un icip
am ac
ĠInt elligence
ann els
m aker
z ed
P lease
ic ity
Ġm aps
ES T
Ġj e
pp ers
Ġdiv ided
Ġ199 5
ĠN ATO
ĠT ro
ĠC A
ĠPat ri
qu est
ij ing
av al
Ġdist ributed
## ##
ĠMex ican
Ġdr ama
Ġinnov ation
ĠUn fortunately
Ġprem ium
Ġvot er
ab eth
Ġsw ing
ix ed
port ed
Ġd ance
Ġre vel
Ġc ust
ĠInd eed
Ġprom ises
Ġeff iciency
Ġcl im
in f
ĠB ad
ĠWh ich
G E
ĠK ong
Ġball ot
Ġ5 1
Ġtemper atures
Ġspokes person
Ġport ray
Ġl ocked
Ġl ying
Ġimpro ving
ĠS amsung
pl ed
Ġth rew
ĠL as
ed ing
Ġmist akes
Ġmus ical
ĠAd v
Ġd ump
Ġj oy
Ġg al
d es
N ote
Ġsh out
Ġhom eless
Ġreplace ment
ak a
Ġcom edy
ĠWith out
Ġche cks
H er
Ġacknowled ged
Ġrespons es
Ġbar rel
pl ate
Ġinstru ment
Ġprotect ing
d ated
Ġcop ies
ĠCon nect
Ġbreak s
Ġcommon ly
ĠB a
l ow
Ġleg acy
Ġsil ver
Ġle ts
ĠSt art
ĠPl us
ĠP o
Ġd ad
Ġprote in
ĠM oon
Ġjo ke
amac are
Ġpass engers
Ġl es
Â Ĵ
oun ce
er ted
ĠB uff
Ġmat hem
ĠMar vel
Ġn aturally
it age
Ġy ellow
Ġnom ination
Ġmeas ured
ĠD et
Ġabandon ed
ĠS cient
p ie
Ġstud ied
Ġre ar
back s
er ies
Ġd iverse
ĠPr ince
ĠA C
ĠFoot ball
ĠU se
hel sea
ap ing
Ġacqu ired
od ed
Ġdemonst rated
Ġso il
iet ies
Ġfund ed
Ġhead quarters
Ġ ?
Ġst olen
Ġbl ast
20 15
ĠM arsh
Ġcount s
b i
Ġpartners hip
ĠL yn
Ġmid field
Ġt ape
Ġupgr ade
Ġsc an
ĠAtlant ic
Ġord inary
arg o
Ġ( âĢľ
Ġm ad
Ġliter ature
Ġst ages
hes is
Ġ199 4
Ġm arch
Ġpl ain
Ġhelp ful
Ġarri ve
Ġfall s
est y
ion e
ĠC ost
Ġsc ope
Ġass ert
ĠN OT
Ġign ored
ĠâĢ ¢
ĠC H
Ġex it
ĠN ev
Ġtw enty
ĠA I
Ġvir us
Ġreferend um
Ġcom pe
Ġcl ock
Ġun ions
Y our
Ġin equ
aw are
ĠDo es
in ction
Ġconserv atives
al ia
Ġr om
ass ador
Ġa x
Ar t
il a
Ġsho pping
8 00
ĠM aster
Ġf estival
Ġcap abilities
ĠA ud
Ġwat ers
ĠT rib
Ġgr id
h op
Ġus age
S ource
Ġsy mp
Ġr if
lah oma
ĠIndian a
ĠEm pire
Ġtrans actions
Ġhop ed
aed a
he im
Ġdist ract
h igh
Ġpar allel
Ġassess ment
Ġgu itar
Ġunivers ities
Ġmonit oring
ĠB ron
Ġrepresent ing
C ons
Ġrat io
et ers
Ġr amp
ĠAb b
Ġf ro
ĠH ind
ĠD ave
ĠE ag
Ġst y
Ġconvention al
ir a
ugh t
E l
Ġm oon
Ġtrack ing
Ġtr ave
con f
en cing
com es
ĠS ometimes
F acebook
ĠG un
ct ic
Ġrel iable
Ġpropos als
ĠPro v
ĠDe ath
Ġrepl ied
Ġh ung
nt il
Ġske pt
Ġcritic ized
Ġt ie
Ġappear ances
z ing
Ġrac ism
Ð¾ Ð
Ġins isted
d oor
ile y
ĠP op
6 1
Ġintrodu ction
Ġappoint ed
i ate
P P
ack et
ecut ive
ĠB ureau
Ġ20 20
sh ire
Ġconc rete
Ġsupp lies
Ġbeaut y
Ġperform ing
Ġrece iver
Ġex ch
ĠA st
ĠS us
Ġvis iting
ĠL ine
on ly
d ney
ĠDen ver
ĠTechn ology
y o
og s
orm al
6 2
the less
Ġb ub
Ġlet ting
y er
Ġdef icit
Ġclass ified
r imin
ol ph
ĠGal axy
Ġaccompl ish
ĠC apt
br idge
Ġpres idency
Ġprogram me
6 3
ĠHe ll
Ġsw im
Ġblock ed
Ġabs or
ĠSwed en
ĠP ass
ĠOr ig
Ġre nder
Ġdro ve
or ge
Ġland scape
ĠUt ah
Ġdismiss ed
Ġcan ce
ĠPort land
Ġab road
Ġd ust
Ġaut o
Ġbon us
ĠU r
ĠR os
Ġpredict ed
Ġsequ ence
f und
Ġsen ator
US T
ĠAssoci ated
c rib
Ġdom ain
Ġm useum
ĠA ge
ĠF all
Ġwar n
Ġpers ons
Ġrequest ed
ĠOnt ario
ĠT our
Ġd ates
Ġtrig ger
Ġtestim ony
Ġcent ers
Ġh ockey
oc ument
arch y
Ġart ific
B M
ĠC ode
Ġcongress ional
ag ic
Ġspokes woman
ĠCor por
m ade
Ġentit led
Ġrock et
Ġtrans it
ult ane
ac co
ĠAlex ander
Ġd ub
ĠN intendo
Ġresc ue
F F
ĠFr ont
ĠCo oper
Ġass ign
pl us
Ġequ ality
m ony
Ġur ged
Ġv es
ĠJ am
ĠOlymp ic
or gan
Ġveter ans
Ġdocument ary
Ġp atch
om es
Ġb read
Ġpop ulations
Ġcl ar
ĠL A
Ġe c
âĢĶâĢĶ âĢĶâĢĶ
ĠâĢ Ŀ
er g
Ġbreat h
a ver
c ut
Ġwhen ever
Ġviol ation
Ġtact ics
Ġw ider
ir ts
Ġtarget ing
p ress
Â °
St ill
Ġpurs ue
ĠL ow
Ġf iring
it ter
ound ing
ing ton
Ġrestaur ants
Y et
room s
Ġac id
Ġm ole
Ġemploy ed
Ġcomp are
iz abeth
Ġw edd
Ġpolit ically
pt on
Ġs alt
ĠRober ts
ĠB ible
el a
in ating
Ġcont rad
th rough
Ġphr ase
ĠB on
Ġsatell ite
Ġob s
V E
Ġsurv ival
Ġretire ment
Ġbank ing
is ons
Ġch annels
Ġbrill iant
Ġser vers
ĠBe ijing
R L
Ġsoc cer
Ġintrodu ce
Ġexper iments
Ġprison ers
f are
ĠJust in
ĠM ill
ĠG irl
ian o
or ous
enn is
Ġhy per
Ġf ighter
Ñ Ģ
Ġc ig
Ġscient ist
Ġappro ached
Ġmonth ly
ra pped
ĠA ward
ĠL iverpool
ct r
usal em
Ġrepresent atives
ĠF orm
Ġdesign s
Ġpopular ity
Ġab ilities
Ġqu ote
Ġtit led
ene z
the y
ord inary
" >
Ġmembers hip
Ġinvestig ations
Ġfocus ing
ĠL ist
ĠMary land
f ol
Ġsa ving
ĠY OU
ĠGovern or
Ġh osp
ĠBr idge
7 1
at ar
Ġr ush
Ġ9 9
ĠC ro
Ġobject ive
Th ough
A re
ol ves
Ġc ul
Ġt ips
ĠP D
Ġpip eline
ĠM ach
Ġchild hood
eder ation
Ġrat ings
K e
Ġth orough
Ġpre par
Ġsh adow
Ġent reprene
ĠT ed
oen ix
ĠD utch
ĠB ase
ĠW H
Ġact ively
em ed
Ġb ab
Ġdemand ing
ĠHar vard
Ġlo ose
ĠH ur
Ġunex pected
Ġsm oking
Ġden y
Ġsm ell
ĠW as
Ġarg ues
rog en
Ġfore cast
Ġphenomen on
Ġunivers al
ag a
Ġoverse as
k ing
Ġsett led
er ts
Ġp ig
Ġgener ations
Ġprep aring
Ġweek ly
Ġsmart phone
6 00
Ġch icken
Ġprodu cers
m at
Ġlegisl ative
Ġanx iety
ĠBe ck
Ġdist urb
ou ri
Ġinnoc ent
Ġcelebr ate
Ġmort g
ĠH ave
j ud
Ġprov ision
min ute
ĠV ill
7 3
Ġarg uing
Ġke ys
Ġsh ame
ĠC lick
Ġquestion ed
Ġfor cing
**** ****
Ġbut t
s a
Ġbroad er
Ġencoun ter
Ġfl ags
ĠH a
Ġ9 5
Ġdead ly
ĠDes ign
Ġf ool
bre ak
Ġre verse
Ġwe igh
ĠAm ong
old s
p ed
ĠEd ward
Ġwealth y
ĠK ar
ĠOb amacare
ĠD O
ĠC ow
he ld
Ġmaintain ed
Ġsure ly
Ġt ens
omp son
Dav id
b ow
Ġun pre
Ġsecond ary
Ġ5 3
Ġsh ield
Ġsav ings
ast y
ĠH op
Ġst ability
Ġm os
Ġcivil ian
h ar
Ġro of
ocol ate
Ġreve als
ĠP A
ĠCar ter
ir lf
Ġann iversary
Ġs orts
Ġf ur
d on
ber ry
Ġ ~
Ġrele ases
Ġton ight
Ġroom s
d ed
tr ans
ĠPro p
Ġprosecut ors
Ġout rage
Ġmin i
Ġdis order
ĠG ulf
irlf riend
Ġthreat ening
Ġdifferent ly
Ġex ha
Ġharass ment
Ġqu oted
Ġhealth care
Ġsubm itted
Ġwind ows
m ans
Ġrel ax
H T
el son
Ġreform s
ĠLe ft
Ġl unch
Ġtort ure
Ġst ored
af e
Ġf ate
or ious
Ġpropag anda
Ġo kay
C O
Ġsp ots
ĠBel g
Ġinstruct ions
Ġodd s
vern ment
av ed
Ġ199 2
in als
Ġround s
ĠViet nam
ore t
AN D
Ġse vent
re ction
Ġer rors
Ġt ab
ten ance
ĠOk lahoma
ent er
Ġsil ence
ĠH on
ĠLiber al
ĠGra ham
Ġgrad uate
Ġde lic
Ġafford able
ĠWar ren
C omp
Ġcooper ation
Ġm ac
Ġcirc le
Ġp icks
S E
Ġse ar
a is
ĠB ra
ht ml
ĠSar ah
ĠBl oom
Ġstrik ing
Ġstre aming
Ġp uzz
Ġm it
Ġcomprehens ive
Ġpers u
Ġimportant ly
est ed
Ġa er
w alk
ĠR un
it ary
Ġposs ess
Ġexec ution
Ġstrugg led
ĠEx pl
ic ism
Ġf ing
ors hip
ĠLe ader
Ġass ass
ail ed
w as
ĠRub y
Ġint im
m ind
Ġland ing
Ġdes erve
ĠJer usalem
l ined
Ġcere mony
ĠPr ice
Ġassum ed
Ġcal m
Ġc ow
Ġdemonst rate
Re uters
Ġdifficult y
ĠP erson
se ct
Ġag es
Ġd ying
Ġal ter
Ġg ent
D em
Ġdist ingu
st ep
ish op
Ġste pped
Ġb orders
ĠSil ver
as ury
Ġpoint ing
Ġche st
o is
Ġadv enture
ĠL t
Ġw aves
Ġarchitect ure
Ġprecise ly
Ġkil omet
ĠNet flix
Ġgreat ly
Ġprom ising
Ġconsider ation
Ġdri ves
Ġaut onom
Ġdial ogue
e als
Ġpr on
es see
Ġnewslet ter
Ġtrem end
act s
j i
Ġrook ie
Ġcons ent
ut en
S L
ĠMean while
Ġaward ed
Ġcont ribution
r ace
ĠS om
ier ce
Ġb urning
ĠS ab
row s
Ġrepe at
ĠScott ish
Ġsim ultane
Ġdon ations
ĠV ice
Ġvo ices
Ġanaly st
as ant
ĠBru ce
ĠSt ory
ĠM ain
Ġh al
ĠW olf
Ġwant ing
Ġfrequ ency
p a
Ġproced ure
ĠInd ust
Ġinter f
Ġexecut ives
Ġplayoff s
Ġg if
ah u
ĠMag ic
ater n
cept ions
Ġstay ing
ĠA k
ĠComm on
Ġb irds
ĠDe b
Ġbi as
S im
ĠB ud
Ġtr illion
Ġinc hes
Ġhighlight s
it ol
ik i
W atch
is a
part y
Ġremark able
ĠPalestin ians
Ġwhere as
ap olis
8 4
Ġimpl ications
Ġkn ee
ĠJon athan
Ġsem i
m ers
ĠH ong
Ġform ation
Ġstrateg ies
all ing
Ġsuper ior
ĠT en
ĠBer lin
hold ers
ĠSy dney
a fter
b ury
Ġcateg ories
et he
un ity
Ġfollow ers
ĠP res
scrib e
Ġcontact ed
ĠM ORE
rib utes
Ġjud gment
Ġemer ging
Ġcre am
Ġsm ile
port ation
h att
Ġinf o
ĠTe ch
ag h
it ual
O K
Ġan s
ĠL ink
ĠTe le
Ġaccess ible
vertise ments
ig ious
Ġphys ically
Ġe le
Ġass igned
Ġcr imin
Ġgu idelines
b ered
Ġdefe ated
Ġw ounded
Ġtri als
Ġman aging
Ġmin istry
Ġr iding
ĠAr k
Ġgr ade
St ory
Ġindic ates
Ġcent uries
Ġf et
x x
ĠE ff
Ġ5 4
Ġst em
ĠAff airs
Ġco inc
iff s
le e
Ġmeaning ful
Ġspe ll
Ġop ens
ra ig
ie v
ik a
Ġe ase
Ġt iss
ĠMr s
Ġclot hing
Ġmarg in
d iv
Ġâ ĪĴ
Ġparticip ation
c est
Ġph arm
ced ented
ĠCap ital
ĠSt ore
ann on
Ġre vers
Ġpo ison
ĠA z
ĠS ix
ĠBre xit
ĠY emen
st al
Ġcompet ing
Ġmem ories
Ġl apt
Ġthe ories
Ġrec ipe
Ġpass age
Ġag ed
Ġg ross
o ice
om ed
St ep
Ġdr one
ĠC redit
Ġdisp ute
ĠT es
y es
Ġbl ank
Ġdam aged
Ġ199 3
v ision
8 3
ĠHam ilton
Ġhost ed
Ġsubst ance
ĠC helsea
Ġpromot ing
Ġopen ly
- >
r if
is k
ĠInst agram
Ġ19 50
Ġclin ical
ĠG T
ĠChild ren
Ġfac ilit
Ġar bit
ĠCr ime
Ġ1 20
Ġb in
Ġinvest ments
u h
Ġcons ensus
V D
op en
a uthor
Ġeduc ational
Ch rist
ĠH old
Ġcust ody
Ġelig ible
ĠV ik
Ġleg ally
Ġend orse
um ble
Ġn ic
Ġdis h
Ġmiss ions
Go ogle
ĠHaw ai
Ġmem o
ere nt
Ġstud ying
ond er
Ġg ate
ĠLe on
Ġt ables
Ġchar ity
Ġaddress es
ere my
ig ate
Ġman ifest
Ġdisc ount
Ġins pect
ch ild
e ven
ĠP ict
Ġbatt les
Ġathlet es
ĠAs sembly
b its
Ġn in
Ġfoss il
Ġsuspect s
Ġenthus i
ar ation
Ġt ired
ĠMan agement
Ġ2 50
Ġcounter part
Ġd ating
ĠTr ade
ĠF al
Ġhe lic
iz er
C omm
Ġspect rum
le ft
Ġpresent ation
ĠL am
M s
s es
ĠSt ation
Ġbott le
Ġl ux
Ġfund ra
Ġenh ance
er ia
Ġtherap y
ĠW ales
ge red
Ġper ceived
ĠSe an
om y
Ġback ing
Ġdomin ant
Ġdef ending
Ġunder lying
con st
Ġdiscuss ing
ĠM etro
Ġrac ing
ro ph
ĠTh rough
Ġburd en
ĠF estival
Ġexpand ing
ĠS et
Ġstop s
Ġmus cle
ri ors
ater al
Ġbe ings
ĠEx per
ĠE th
Ġb ot
Ġv ig
b ase
Ġtrans action
h ard
ĠMar x
H z
Ġrec ruit
Ġpick ing
Ġt ap
F O
ac hel
Ġm ood
we ek
ĠG ary
ass y
Ġman agers
it udes
8 1
Ġgather ing
Ġhop efully
yl um
Ġn a
ĠLib ya
G A
Ġcr us
ĠD er
Ġimp ression
ĠE qu
ĠU ber
m ath
ĠT ok
ak h
M us
8 2
Ġinst itution
ĠBat man
Ġscr ut
Ġproced ures
or able
land o
ĠV ideo
igen ous
se ction
Ġro y
Ġcreat ures
Ġp ocket
Ġarri val
Ġh ip
Ġe ager
ĠT ai
Ġpoll ution
Ġfood s
ĠAnd re
mark et
Ġcomp at
Ġkit chen
T P
Ġrec re
Ġst ere
Ġorgan ic
ar ia
Ġsurv iv
ĠB oe
Ġsh ipping
ĠPent agon
Ġcapital ism
Ġtim ing
Ġrequire ment
al ysis
ĠMor gan
Ġunf air
ll a
ĠAss ad
Ġgl ad
Ġm ice
Ġins ult
ĠRep resent
play er
ĠC S
Ġdise ases
ĠEl izabeth
it ure
Ġindust ries
Ġper mit
ĠOak land
Ġb owl
ĠMur ray
N S
Ġhelic op
Ġ5 6
od ox
Ġdiv or
Ġpunish ment
Ġo m
Ġbe ach
ĠC reat
Ġfl ed
Ġhosp itals
ĠB al
ĠH art
o z
Ġshe ll
ri x
ĠCome y
ĠS on
Ġengine ers
Ġt ons
Ġse ed
ĠM ess
j s
Ġh ire
ad ers
Ġstat ist
Ġmod ule
ac her
Ġcoach ing
ative ly
Ġans wered
ĠK ick
Ġs ed
Ġob sc
Ġregul atory
Ġn erv
Ġgraph ics
opy right
i ac
Ġst ance
pt ions
Ġso vere
Ð ½
alt ies
Ġexpl aining
Ġrhet oric
Ġbe ating
ak i
ĠY eah
ĠKe ep
ĠEm ail
Ġacknow ledge
b ing
Ġb ow
ab et
am ous
A ct
ĠF riend
ol n
ag ger
Ġprincip al
Ġpull ing
O ut
T y
Ġsign ature
ĠMic hel
P re
ĠO p
Ġconv ince
ol ar
v an
cos ystem
Ġvar iable
Ġsearch ing
** *
Ġover come
ol ving
Ġsix th
Ġprefer red
Ġadv iser
Ġtrend s
Ġt ut
ĠTenn essee
og y
Ġd ies
em ic
ĠML S
ĠRus sell
Ġreb els
Ġp ill
ĠTh ompson
Ġperiod s
Ġinter action
oc ial
Ġmer ch
s l
Ġpsych ological
unicip al
Ġ( "
du ction
Ġeconom ics
ĠR oll
ĠUs ing
Ġout lets
Ġ5 9
oc a
ĠS ure
Ġsign als
ĠCharl ie
Ġbill ions
ĠEx ecutive
Ġ !
Ġline up
ĠKent ucky
Ġe cho
C lick
ĠO x
ĠInt el
w atch
Ġ199 1
ri or
br id
Ġegg s
Ġtem por
Ġbad ly
Ġse gment
F inally
Ġset up
Ġsent enced
Ġevery day
C al
Ġcommand er
Ġm ath
D ef
T ER
Ġre nd
Ġl oves
Ġgen es
Ġrequ iring
net ic
ĠY an
Ġinv asion
Ġb old
Ġpart ly
ĠG il
Ġbul let
it o
Ġar r
R em
Ġrem oval
ar re
Ġesc al
ov a
ĠH oll
Ġtop ics
ĠJ ean
Ġinst ant
Ġinqu iry
E X
Ġar ts
Ġu pload
Ġam endment
ĠDr agon
Ġweak ness
Ġunder t
Ġconcept s
Ġg ene
ĠR ather
enez uel
Ġsh oes
20 13
ĠDel hi
Ġfab ric
E arlier
Ġse ctions
Ġr h
V iew
Ġocc urs
Ġfrequ ent
Ġg ig
Ġm igrants
li est
Ġcompens ation
ĠI ron
Ġengine er
ĠF inally
Ġattract ive
ang le
N BC
ke e
M ich
ĠS a
Ġun ve
Ġc iting
AL L
Ġtwe ets
Ġut ility
Ġ ).
ĠMc K
ĠL i
Ġl ad
Ġpost ing
Ġridic ulous
ĠB i
ĠE T
Ġblock chain
Ġspeak er
ĠCl ark
in stein
aren cy
Ġcl er
ĠS ound
ĠB ox
Ġtal ented
Ġcor rupt
ĠThere fore
Ġnot able
Ġcoll aps
Ġe lder
Ġgen re
Ġdead line
Ġcar ries
Ġle ct
Ġro lling
Ġdi am
A F
art s
Ġelimin ate
art ed
Ġappro aches
iz za
Ġm ask
ne cess
d y
Ġanaly sts
Ġs its
Ġf o
ĠF inal
R eg
Ġinst ances
Ġpubl ishing
âĢ Ĳ
Ġunpre cedented
s burgh
Ġro ots
Ġc ens
Ġcol our
Ġint r
ĠPh oenix
gr ade
Ġcollabor ation
ĠSim on
Ġtox ic
Ġb ene
Ġinequ ality
p g
Ġneighb ors
Ġdram atically
Ġins ight
sc reen
Ġhom osexual
Ġpri ze
Ġtown s
Ġextra ordinary
ĠPri v
ĠHar per
Ġc ock
Ġper ception
Ġar c
ĠWhe ther
ĠG ordon
ĠB M
? ?
s ub
che ck
Ġbut ter
Ġmain tenance
ent al
ĠPh ill
ĠZ e
Ġche aper
Ġassoci ate
Ġcou p
Ġshe et
ĠBel ow
Ġpar ad
Ġcogn itive
Ġencour aging
g us
Ġse ized
Ġinterview ed
Ġdeploy ed
Ġd reams
is dom
Ġviol ations
ĠP sych
Ġcamp s
Ġcom ics
row ing
ĠCap tain
Ġg est
v ia
Ġemploy ers
ĠRe agan
Ġres erved
Ġaim s
ĠE vent
Ġconstit u
Ġmyster y
ĠB ow
Ġfunction al
Ġdisplay ed
Ġbu ck
Ġsp an
Ġde light
en ess
Ġlo op
Ã ±
ĠEconom ic
Ġoccas ionally
Ġtr aged
} }
Ġbirth day
ixt ure
Ġex port
Ġhero es
ric ane
ap ore
ĠP ers
Ġfat al
Ġcorrect ly
M od
ĠG O
Ġprompt ed
est yle
ĠM it
Ġv end
m ic
w ill
ĠSt ew
Ġst amp
ib an
Ġcontem porary
ĠS av
Ġprospect s
T op
Ġrecommend ations
Ġdiplom atic
ĠV e
ĠCo le
A Y
Ġ5 7
Ġdisappoint ed
Ġmanufacture rs
Ġconst itution
Ġexc lud
ĠA ccess
ĠJ enn
Ġmoder ate
Ġad equ
Ġe cosystem
Ġaccomp an
Ġdemand ed
ĠSt aff
ĠG DP
ĠG ro
ĠMont real
ĠPhot os
igh th
Ġple ased
Ġbe ll
Ġn ose
Ġlif etime
Ġlab our
ĠBrook lyn
P aul
ot ing
ĠD ick
Ġcommunic ate
ĠRes erve
V P
Ġfight s
ĠE ver
arg et
Ġmod ified
Ġs essions
Ġwedd ing
Ġdr unk
Ġbi ological
Ġexplos ion
p ack
Ġkn ock
ĠE PA
Ġland ed
S C
ĠL ibrary
Ġ8 5
ĠAuthor ity
ĠO cean
Ġrep air
Ġrepresent ation
ĠG iven
Ġter r
ĠT ax
Ġartific ial
Ġ5 8
Ġsub sc
ail able
Ġown s
ĠAnton io
Ġrel ation
d s
Ġdesign er
le ans
Ġl ift
end ar
Ġkick ed
Ġconscious ness
Ġp a
Ġh anging
ol i
Ġless ons
ĠOr der
Ġimp osed
Ġdef ender
9 6
Ġgu ests
ĠKh an
ĠDig ital
Ġan onymous
Ġconcer ning
Ġpregn ant
og a
Ġmaintain ing
ix on
Ġadop t
G e
Ġunder ground
Ġass et
h as
el ing
St ate
Ġingred ients
ĠF ive
ĠR ome
ĠCh annel
Ġsh irt
Ġche ese
ĠAl an
Ġp unch
Ġs li
inc oln
ĠE st
ĠCon vention
Ġpod cast
Ġrec on
Ġemot ions
ĠB ol
Ġint ellig
Ġinter ior
Ġcou ples
Ġless on
Ġem p
Ġcreat ure
Th anks
Ġsh ocked
Ġopp ose
T ON
ĠAr gent
on z
ac re
th rop
Ġperform ances
": "
Ġres olve
Ġvolunte ers
is ition
m ir
Ġsold ier
Ġlog o
bour ne
Ġstim ul
20 17
ĠProt ection
Ġg irlfriend
ch ing
Ġv ocal
c or
ĠB urn
M ark
9 8
ad i
Ġacc um
Ġjump ed
ĠB ul
Ġsum mit
new s
Ġann oy
Ġir re
app ropri
Ġab stract
T R
Ġm ile
Ġn urs
Ġmilit ants
Ġj ihad
P L
ult y
Ġprofession als
ĠP age
ist ant
ĠMiss ouri
2 50
c re
ĠAn na
Inst ead
Ġref ers
Ġtravel ing
Ġgu id
r ac
Ġdesk top
Ġs wit
ĠL ear
ows ki
ac les
Ġisol ated
Ġexist ed
Ġadvoc ate
Ġopp osing
w ed
Ġrec alled
W he
h uman
F i
at us
Ġl ibr
Ġfor um
ĠCo al
Ġintegr ation
Ġdescrib ing
ĠF ant
Ġbox es
ĠJava Script
ĠC ase
s ome
ĠOr leans
Ġ6 00
ĠD ur
Ġconf used
Up date
Is rael
Ġmin imal
Ġpeace ful
ol s
Ġin herent
gr aph
St ation
Ġsurround ed
ear ly
ĠIm m
g ets
tain ment
ĠCap itol
ial s
ĠL im
ĠC ustom
u i
Ġh oles
ĠM ail
Ġst ro
own ed
Ġ198 9
Ġintegr ity
ĠBar b
Ġme al
hatt an
Ġinspir ation
l s
ĠS D
h ist
Ġconfig uration
Ġexp ense
ro ck
ump h
Ġcred its
ĠR s
Ġide ology
Ġelect oral
Ġsub ur
ĠK now
ĠPlay er
Ġy ell
Ġsil ent
Ġbur ied
u z
w ind
Ġsusp ic
ĠMar ine
Ġp m
ĠNev ada
ĠTr ust
Ġs ne
od ge
Ġ vert
Ġdesper ate
Ġd ual
Ġst ack
ĠDo ctor
Ġcho osing
Ġbom bs
Ġsc ream
Ġteam mates
Ġb ands
Ġcl ip
Ġfle et
N ext
im ize
Ġaccept able
ĠH an
âĢ¦ .
st arter
ĠOr lando
G ener
Ġregist ration
ĠS U
us er
el le
ĠW right
ĠPort ug
ĠHit ler
Ġbrut al
Ġcon vert
Ġstrugg les
ĠO cc
Ġan cest
Ġsubscrib e
ĠC B
ĠAll iance
Ġmoment um
Ġkey board
ĠAre a
ag en
Ġpromot ion
ĠLe ban
e lection
ĠAr senal
Ġj er
ik h
ĠM ove
Ġev ident
Ġsc ar
ĠOn line
Ġorgan isation
Ġwond ering
ĠH al
Ġclos est
ĠInd ones
( "
Ġembr ace
ĠFollow ing
Ġrefuge e
Ġat he
Ġpro be
Ġte eth
Ġut ter
1 50
Ġoccas ional
C D
ĠP y
Spe aking
ĠH amp
Ġas sembly
Ġrefere nces
Ġbank rupt
aw ks
ĠB an
Ġjournal ism
Ġexp enses
T ime
Ġsubsequ ently
i ens
Ġqu it
Ġmon ster
ĠSte el
Ġpr ide
Ġgu ards
Ġinterpret ation
ĠV enezuel
f ather
ĠW ord
Ġrem oving
ĠH and
Ġy eah
Ġsub mit
Ġprof ound
he ro
ĠInd ependent
Ġcomprom ise
ib l
Ġdistrict s
ĠN on
ĠPitt sburgh
str ong
che ll
Ġconsider able
Ġsurv ived
Ġexclus ively
Ġkn ife
Ġth ro
Ġst ating
Ġeng aging
Ġref use
Ġcharacter istics
Ġmathem at
ĠC ould
h ire
Ġdom inated
Ġjust ify
Ġl obb
Ġbrief ly
ĠN azi
ĠMount ain
ip edia
ĠS ource
Ġb ird
Ġmin isters
Ġ7 2
D is
Ġtremend ous
Ġcont rary
Ġl in
is d
Ġelect ron
Ġsustain able
Ġch ip
ĠV en
Ġload ed
Ġnerv ous
Ġdisapp ear
Ġfl our
Ġrout es
orne ys
Ġexecut ed
Ġsoph istic
ok er
Ġpro portion
Ġas ylum
Ġsex ually
Ġg ri
Ġgame play
ĠEvery one
Ġpro st
Ġdon ors
ĠD uke
Ġrevolution ary
at tered
Ġconf usion
20 12
ĠA aron
book s
ou b
ars on
ĠM un
st op
ĠR est
oc ated
ĠAnd y
v i
Ġcur ious
ĠTre asury
Ġh arsh
Ġp ir
Ġatt ending
el ve
Th ank
ĠAd ams
Ġspeak ers
ab e
li hood
Ġc abinet
inc ome
b ound
Ġnow here
t ra
Ġfle e
Ġbr ands
Ġprint ed
Ġch ronic
F l
He y
Ġ8 00
Ġcharg ing
ĠTes la
ĠF A
g ate
ĠD ream
Ġeng ines
Ġv oid
ĠH aving
Ġphys ics
lim ited
Sh are
Ġout comes
ĠSher iff
Ġconcer t
gr ad
ĠR aj
ĠB u
ĠOff icer
ĠSh ort
Ġstreng then
ĠA ren
Ġmir ror
Ġfail s
ut ter
Ġpass enger
Ġcrimin als
Ġcha os
ĠiP ad
th ood
Ġstead y
Ġo rient
ĠRob inson
c al
ĠP ant
ĠCur rent
sec urity
f unction
ubl ished
ĠÂ ±
ĠNet her
ĠG ib
ĠMan hattan
Ġrob ust
ĠS E
ur se
T E
Ġend ors
Ġspec ulation
sc ar
Ġsp o
im mer
Ġde emed
ĠS H
Ġh iring
Ġdro pping
ĠTal iban
ĠI M
9 2
mer ce
Ġcert ific
ĠGi ants
Ġintegr ated
ĠSing apore
ree k
ĠCh ange
Ġpres ents
Ġf el
ĠPer ry
Ġguarant eed
Ġav o
ĠSp ir
Ġle aked
. ]
ing e
Ġpack ages
am ine
Ġf ert
w a
Ġple asure
Ġsusp ension
Ġchalleng ed
Ġpack ed
Ġep ic
ĠJ un
Ġcheck ing
res hold
ĠN orm
Ġeng agement
ot te
Ġrad iation
Ġb its
Ġbomb ing
Ġsl ot
ĠK ings
re ck
m ble
Ġhun ting
Ġal ert
Ġprodu ces
Ġwitness es
Ä ĥ
H P
Ġdef ended
ĠUS B
Ġedit orial
Ġrec overed
Ġw et
AR T
b en
ĠC raig
Ġpat ri
Ġdevelop ments
ĠB and
Ġsimultane ously
Ġbacter ia
Ġblock ing
Ġattract ed
ol id
ĠH oly
ĠL ater
ĠA lp
Ġbo om
Ġfig ured
Ġall iance
Ġresearc her
ist le
Ġtaxp ayers
Q L
ar o
Ġcor rel
an im
ĠEnter tainment
ĠH ung
9 3
wh ite
Ġhost s
ĠN one
ĠJ eremy
ĠRuss ians
ĠM ult
Ġexam ine
Ġv it
A B
Ġcap s
iz arre
Ġpat ent
ment ed
Ġvari ables
ĠK l
ĠL incoln
app er
ĠO pp
Ġc inem
Ġd a
ĠC ON
Ġem bed
ĠChair man
Ġj unior
Ġo xy
ĠF uture
ate ful
Ġpubl ish
Ġt ear
ĠT ower
7 00
ĠPol and
ĠUkrain ian
Ġ6 6
Ġbre ast
ĠStud ies
Ġen act
Ġ6 2
Ġfl ights
re nd
le ep
ĠT el
Ġaccur acy
Tr ans
ĠL es
Ġimpact s
Ġsurprising ly
Ġra ises
Ġburn ed
Ġdist ribut
Ġsol o
r ics
ĠV lad
ades h
B N
K E
Ġfl av
secut ive
lyn n
Ġang le
Ġl os
ĠW ould
Ġqual ified
Ġdecre ase
Ġv ent
ĠD ak
Ġmet h
9 7
G l
Ġev olved
G u
ĠC PU
AT CH
Ġev ac
Ġfl avor
Ġun necess
ĠS ci
gg ed
Ġcourt esy
ĠMP s
Ġas semb
Ġproduct ive
Ġfing ers
Ġbl amed
Ġintim id
c ap
ress ing
R ight
g ood
op t
Ġexpect ing
ethe less
ĠH u
Ġtransfer red
Ġdepend ent
Ġexpect s
ĠH IV
Ġvis its
on ed
Ġident ical
Ġr ic
Ġen abled
ĠR angers
Ġl ane
ĠW i
ĠStew art
N et
Ġacc ord
Ġv enture
ĠGr iff
Ġdepart ure
r ition
Ġsh ops
ĠT otal
Ġv oc
ard o
Ġb arg
Ġmotiv ated
Ġrepe al
Ġkill er
g ly
ut er
Ġagree ments
Ġign or
Ġconflic ts
ĠMiss iss
Ġsc ared
Ġforg otten
Ġrest ore
ĠG ill
olit ical
d ict
if ier
im ir
ĠComm and
S U
v ation
th odox
is hers
Ġnation wide
Ġinflu enced
Ġcrit eria
Ġorgan is
Ġoccup ied
ĠU b
oph ob
Ġrank ing
ĠEd ition
ter ror
Ġtrail er
Ġin her
in st
ĠP ope
Ġtele phone
ĠTh ings
Ġanim ation
Ġback s
Ġoccas ion
om ic
Ġfunction ality
ĠSh ould
Ġcheck ed
L ist
Ġconcent ration
Ġanal ys
Ġhousehold s
ĠRed dit
ern and
P al
w ich
ast e
ĠTh ink
ĠO R
Ġcour age
Ġalgorith m
Ġres erv
Ġpromot ed
le ted
ĠB or
Ġimp rison
look ing
Ġexplicit ly
N ame
Ġre ass
ah oo
Ġbab ies
Ġt anks
Ġo ught
ĠMod el
ĠSupp ort
ĠC C
h r
Ġrele asing
Ġcy cl
ick ed
9 4
Ġst atic
Ġb ases
J P
d ep
b ian
am ents
ĠH ug
ĠMore over
Ġprivile ge
ond uct
Ġant ib
For mer
ĠJ erry
ĠWar ner
ĠPl ace
Ġstri p
Ġmet ers
Ġentr ance
ĠG h
ĠPro duct
ĠT s
R ed
Ġst ats
ER E
ul se
Ġinvestig ated
u ating
ĠR h
d r
l arge
Ġsen ators
Ġtow er
Ġdes p
Ġout f
ĠCanad ians
v as
ipp i
Ġw ise
Ġappl ies
Ġ `
ĠN i
M AN
ag ine
Ġform ula
ĠD u
B r
ĠEgypt ian
Ġuncertain ty
ĠChrist opher
Ġinev itable
ĠC old
Ġover l
Ġh ub
Ġinflu ential
Ġprov ider
Ġpain ting
ĠStand ard
Th ree
Ġmod est
ĠB C
Ġdest ination
Ġch ips
Ġinf ection
Ġall y
Ġl ens
ĠQue ens
Ġor bit
A g
Ġcontin u
Ġsole ly
Bl ack
le ading
I E
Ġthe ft
bre aking
Ġbel t
Ġd imin
ĠN iger
Ġin aug
Ġinvest ed
Ġsc rew
ĠAl aska
Ġtransp arency
Ġins ist
Ġimm une
Ġpolit ician
ĠOtt awa
Ġprov isions
ĠPlay Station
ĠN O
Ġsing er
Ġhand led
Ġm art
for ward
e le
ĠE b
Y eah
oll ar
ĠOlymp ics
ĠUn ivers
Ġuncom fort
ri ke
Ġimp ressed
ĠLouis iana
be ing
Ġin box
Ġ6 3
id al
ac o
" ,"
Ġoper ator
ry ing
ĠNether lands
à ¤
ie re
ĠO il
Ġball s
Ã³ n
Ġsim ilarly
b in
Ġlif estyle
Ġhead lines
ĠJ ane
ab out
Ġcol leg
D R
Ġbo ards
rif ice
ĠM ap
n ie
Ġdis abled
ĠStan ley
ĠM arg
Ġoper ated
ĠSt ock
Ġregard ed
u ccess
ou p
Ġlaunch ing
ĠTre k
unt u
Ġrel uct
B ook
ĠE nt
Ġphotograph s
il ation
Ġt ent
id en
amp a
Ġsa ke
Ġke en
Ġvol unt
c itation
Ġkid n
Ġcon secutive
Ġdet ention
ach ment
o ft
ĠUn like
ĠD rug
z one
ĠM other
off s
Ġb ol
th ur
o vers
ĠS N
ĠTy pe
iz ations
Ġprosecut or
s uch
Ġprosec ution
act or
Ġg ym
Ġconv iction
m illion
n an
Ġearth qu
Ġro lled
Ġfil ter
Ġle an
Ġsu ck
? âĢĻ
). [
Ġsett le
C ar
C or
ist ance
Ġk iss
ĠMod i
ĠCapt ion
ke ley
Ob ama
S upp
ĠHamp shire
Ġbul k
Ġm ales
bit ious
ĠT able
ĠCor p
Ġtraged y
Ġt ears
ĠCorpor ation
ar med
G ood
Ġch ocolate
ĠL og
Ġpres erve
i ar
Ã §
Ġguid ance
t arian
? )
ĠBe ing
ĠPhilipp ines
in ite
ĠF ather
Ġpo et
tr ack
ĠBl ood
Ġle ak
ol as
or ate
Ã ¢
eral d
Ġb ags
ĠS everal
Ġm ouse
on ing
l ink
ur ches
Ġexam ined
ll or
Ġaccept ing
Ġrec k
Ġmiss iles
ĠFore st
Ġin ex
Ġdest ro
Ġbene ath
Ġparticip ating
c ard
ut her
Ġabs urd
F urther
viron ments
Ġj et
Ġel abor
Ġneighborhood s
ĠF O
Ġun re
ass ion
angu age
Ġreflect s
Ġcompe lling
Ġsy nd
k es
Ġcompl ained
ĠStan ford
Ġb other
Ġlux ury
Ġcontro ller
ĠVictor ia
U C
Ġad ap
Ġne ur
Ġ1 000
Ġthe ater
ĠMar io
ĠN elson
Ġen for
ĠEd it
Ġshel ter
ĠGr ant
ĠMedic are
ĠH ans
ter y
Ġf its
ĠB ir
ĠMedic aid
Ġn u
ĠM orm
ix el
Ġ< /
Ġjur isd
CA A
Ġcons ists
ĠT R
ĠP a
l aim
Ġsignific ance
Ġpo lling
t own
Ġoccas ions
Ġsto pping
Ġpost er
ĠMar c
ĠRub io
ra h
ĠTok yo
d og
Ġexc use
Ġwire less
Ġreal istic
Ġb one
ĠK night
Ġp ose
friend ly
Am ong
Ġaccompan ied
Ġsee ks
v ol
ĠD a
Ġt ension
Ġback up
Ġmand ate
Ġrese mb
ĠCl oud
f irst
Ġass ists
ĠSc he
ust ing
ĠContin ue
Ġposs ibilities
Ġthe oret
Ġsub tle
T O
Ġaccus ations
9 1
ĠFil m
Ġbet a
E ach
Ġcook ing
ĠL ocal
spe ed
ĠK r
ĠCh ampions
Ġsupposed ly
Ġemphas is
Ġfin ishing
ĠG ard
ĠSnow den
Ġsust ained
Ġadv ent
d f
uck er
Per haps
Ġbeat en
Ġin hab
ĠMal ays
E m
âĢĿ )
ĠQu est
D own
Ġa wards
Ġd ressed
Ġproject ed
ĠAb u
boy s
amb ling
ite ment
Ġinnov ative
ĠNot hing
Ġb ump
w all
ĠEvery thing
ĠW y
Ġaffect s
ĠW inter
ï ¼
ĠP ear
Ġf er
Ġprevent ing
ĠCh ron
Ġconstruct ed
Ġt orn
M B
ous es
Ġlong time
ĠS EC
t est
ĠS ection
Ġfuck ing
ect s
ĠV in
Ġpol ar
ĠN S
Follow ing
Ġer u
Ġg arden
pp y
ĠOrgan ization
Ġspeed s
Ġoper ators
B el
Ġout standing
Ġf ed
ĠFin ancial
Ġmortg age
Ġman ual
com p
Ġ3 60
ĠHam as
Ġpass word
ĠS port
bl ock
Ġrec ession
Ġent ity
ĠC as
Ġw isdom
Ġdocument ed
ĠT am
Ġdr um
ĠP ython
Ġtrad ed
Ã ¨
IL L
ĠFl ash
ber y
ne g
Ġg ut
ĠD E
Ġint rig
il st
Ġoccup ation
ĠN ature
Ġold est
Ġg olf
ĠKurd ish
n on
Ġdocument ation
Ġfavour ite
ĠSo ft
ĠJim my
Ġpra ised
Ġresident ial
Ġcop s
Ġspot ted
ĠH ad
ĠN ich
G r
Ġreven ues
Ġlay ers
ĠD al
inc ial
ĠSte am
Ġwal ks
Ġinteract ions
ĠComm ons
ĠI V
cent ury
ĠM ind
ĠPatri ots
Ġsur ge
b es
ĠTh ird
ot ion
r c
Ġaw ful
Ġb icy
Ġcalcul ated
Ġpan els
J o
Ġf ut
Ġexperiment al
Ġcirc uit
ĠC R
io x
Ġinf ant
ug by
Ġrenew able
olit an
v ar
Ġmyster ious
Ġautom atic
Ġtr ains
p ing
Ġth reshold
ĠOther s
any ahu
Ġt ale
Ġd irty
Ġdeal t
er r
Ġreview ed
ell o
Ġpain ful
Ġgl obe
ĠAb d
Ġ6 1
Ġtri ps
ch arg
ĠAir port
th al
ĠC itiz
Ġcle ared
ĠN ash
ĠWay ne
Ġ6 8
st ra
Ġearn ings
Ġcross ed
Ġadminist rative
Ġconven ient
Ġr iders
Ġgraph ic
Ġr anging
Ġ6 7
c ott
as m
Ġliber ty
Ġb izarre
Ġco in
â Ĥ¬
c ular
l ied
Ġdispl ays
Ġen vironments
Ġicon ic
ĠL ad
Ġthe r
Ġrob ots
ĠE mer
Ġmother s
ĠTr ue
Ġhost ing
Ġp our
Ġit er
Ġam bitious
Ġ198 8
Ġl ady
Ġhe s
Ġres erve
Ġsec ular
ant e
Ġsent iment
eg a
Ġdes ert
ĠMc Donald
Ġpred ec
Ġconver ted
ig e
ard ed
Ġdo ctr
sel ess
r ons
Ġtiss ue
ĠK a
is ive
ĠF le
---------------- ----------------
B ar
ĠMur phy
ĠA FP
Ġdrop s
ĠL arry
Ch ina
ĠCl imate
j amin
Ġexplo it
f ish
for mer
Ġcreat or
Ġaddress ing
ĠDe an
Ġres ort
re qu
ow der
ia h
ĠRed s
Ġh iding
Ġsafe ly
Ġs ons
Ġatt orneys
Ġdevast ating
ism s
Ġsleep ing
ĠC L
Ġcross ing
Ġan ch
sh ore
ĠB ah
Ġrestrict ed
Ġsp ray
Ġarrest s
u ably
Ġw ore
Ġscrut iny
Ġunf ortunately
ĠSum mer
Ġor g
Ġp ension
Ġlibr aries
Ġbur st
qu es
Ġdepart ments
Ġmurd ered
Ġcompet itors
ĠN ik
Ġt um
ĠDe ep
itt y
ay ed
Ġavail ability
t wo
Ġnewslet ters
Ġal ign
Ġcontain er
Ġfil ing
Ġwh is
Ġadop tion
Ġnewsp apers
Ġproduct ivity
ĠSing h
i ated
ĠD rive
D id
k ward
ĠM A
ĠF OR
Ġpregn ancy
Ġbuild s
On ly
Ġre ign
ĠP ir
Ġover night
Ġappear ing
Ġindic ation
be at
Ġto ss
Ġdisc rimin
Ġear ning
Ġpubl isher
cel ona
w ords
Ġview ing
Ġcomb ine
Ġd uties
EM ENT
Ġm isc
Ġf ishing
ĠMan ning
Ġreflect ed
ĠS ac
Ġuncomfort able
om er
ĠFurther more
ĠMag azine
ĠP i
Ġm unicipal
ail ing
is ode
put er
Ġhor rible
ĠN ative
Ġchemical s
un a
Ġsepar ated
M art
n amed
go vernment
Ġan onym
Ġrel ie
Ġre wards
Ġsophistic ated
ĠS in
Ġr ivals
Ġv iable
Ġdes erves
k ind
g ence
Ġc ave
Ġpr icing
b ably
ĠV ar
Ġact ed
Ġrel atives
N D
May be
Ġm m
IC E
Ġwin ners
ĠMad rid
Ġprepar ation
Ġequ ipped
ist a
Ġlimit ations
v o
ac cept
oy d
Ġr itual
Ġ198 4
Ġamong st
Ġcomplex ity
S D
Ġre cept
Ġmechanism s
ĠCh rome
Ġsl ide
ĠF ig
ight ing
Ġin du
Ġ= =
ĠRon ald
u els
Ġfire arms
ari os
ĠF ederation
Ġparam eters
Ġpe er
Ġcar rier
Ġcomm od
ĠWik i
Ġsuggest ions
P I
Ġexpl oring
Ġdelay ed
Ġme ets
Ġtou g
ĠPh ys
Ġ198 6
ar ians
ĠTai wan
Ġlight ing
Ġb ip
ĠHT ML
ĠW r
Ġco ord
ĠK al
Ġintellig ent
ĠMississ ippi
ĠColl ins
Ġcelebr ated
Ġcur ve
Ġstart up
win ning
Ġce ase
Ġto b
Un fortunately
Ġab und
ĠBl u
Ġens uring
Ġquiet ly
ir s
s ize
i ors
ĠHe art
Ġnight s
Ġinter ven
P s
Ġt u
Ġreb el
Ġcollect ing
ĠL uke
Ġg host
Ġdet ained
ay a
Ġworld s
ĠD omin
Ġtransl ation
c ount
ern el
Ġemploy er
ĠMcC on
B en
Ġor ange
ut o
Ġbe ef
m ons
ĠD VD
Ġrad ar
ĠT an
Ġinstall ation
ĠLe vel
Ġdeliver ing
prof ile
c at
ĠN az
Ġdesign ated
ell er
ĠP oll
vers ion
Ġdeb ates
Ġm igration
d ata
Ġco ins
Ġpled ge
a very
Ġ) ;
ĠMel bourne
ĠM and
Ġgr ants
les h
Ġoff season
Ġca ution
AT ION
Ġnot ably
Ġcat ast
b at
/ .
Ġbug s
Ġthem es
em it
Ġdeleg ates
Ġtable t
Ad vertisements
ac ies
Ġcour ses
ĠIn n
Ġcount less
Ġgrad ually
Ġwitness ed
ĠEag les
Ġgold en
ĠQue bec
u ates
Ġcomm ands
ĠCub a
ĠCoal ition
ĠBl ock
are r
D C
Ġt ends
or ia
Ġmean while
Ġviol ated
ã ģ
20 11
Ġdemonst ration
Ġpsych iat
Ġcomment ary
Ġdem o
ĠSwed ish
Ġann ually
Ġp ending
âĢ ³
wit zer
ag u
Ġobserv ations
p in
qu er
n atural
ĠS ex
DA Y
ĠE C
Ġremem bered
Ġquestion ing
Ġfor b
ĠS aint
ĠHe at
ĠE ve
Ġf ires
arent ly
o op
Ġimp ose
Ġhighlight ed
Ġlapt op
ren cies
ĠD isc
Ġrepl acing
Ġver ify
Che ck
AT ED
Ġse eds
Ġcont ents
Ġfrust ration
Ġpre view
Mich ael
AS H
Ġh unt
Ġdiscipl ine
ĠO w
Ġpoor ly
found er
ĠMarsh all
Ġpat rol
Ġsupp lement
Ġcor n
form ance
op les
ect ed
Ġpra ise
Ġbath room
Ġt empt
Ġcom ed
ĠN a
ude au
Ġgra ve
or ical
ĠL ady
Ġact ress
Ġhapp iness
ĠPe ace
Ġexpl oration
ĠT oy
Ġcru el
ĠPro gress
Ġf urn
Ġprevent ed
ĠL ions
Ġas pir
ĠAr ts
Ġgent le
Ġst arter
TH E
Ġch amber
ĠBl ake
Wh ite
ĠHun ter
ĠExp ress
Ġpr ayer
Ġperm itted
el come
Ġinst antly
ĠR ound
Ġven ue
ĠN ap
Ġalt ogether
Ġoxy gen
Ġbond s
Ġcult iv
Sec ond
Ġamb assador
Ġare na
ur ities
. ),
Ġdisapp eared
ĠBer keley
Ġtechn ological
Ġplan es
d ev
ĠW ard
Ġcon ced
pie ce
r in
ĠH uff
Ġsuggest ion
om ach
ers ion
out ing
Ġpart ially
Ġagric ulture
ĠRog er
Ġdr inks
ĠCamp bell
ĠMot or
Ġs izes
ĠFer gus
Rep ublic
b et
ĠBe at
Ġprotect ions
Ġincor rect
Ġfasc inating
anc hes
ĠEnvironment al
ĠChristian ity
Ġvacc ine
ĠAdd itionally
ath on
ra it
ĠP od
comm un
ĠHawai i
b urn
l u
Ġlog ical
Ġpar ks
ĠF I
g ov
em in
Ġhonest ly
Ġsty les
ĠF R
Ġsupp orter
D E
Ġal ike
ĠL en
ĠSt orm
Ġtob acco
al id
ĠWh it
Ġun l
ier re
ĠSm art
appropri ate
Ġsum mary
Ġfle w
ĠN CAA
Ġadv ised
ĠKick starter
oc ur
od a
ĠM uch
au cus
Ġsing ing
Ġheart s
Ġmarg inal
Ġ7 6
ĠP el
Ġto ll
Ġappoint ment
arm a
ĠCongress ional
Ġeth ics
ĠH ann
Ġw ound
Ġd il
ĠFor ces
ĠC rit
Ġst unning
ond a
Ġad j
Ġcomp r
Ġpro l
The ir
Ġcap ability
es ides
Ġenter prise
ĠMit chell
Ġtransm ission
st ring
W orld
ĠL aur
ĠVlad imir
en cer
g al
Ġp owered
ĠG ene
c ode
ĠSpe aker
Ġreact ions
Ġmet aph
Ġpros per
Le aks
ĠQ ual
Ġelect rical
ĠMan ager
og g
ĠAm b
Ġst ressed
T witter
M on
Ġc ous
ĠEd itor
Ġfac ulty
Ġm akers
W ar
med ia
ĠCor ps
ĠJ en
ĠT odd
Ġce iling
ĠG a
Ġder ived
ĠAren a
Ġess ay
ug s
Ġsevent h
ĠRe id
Ġceleb ration
ru p
Ġmount ains
Ġha z
olog ically
Ġdraft ed
Ġpress ing
Ġarg uably
Ġsk et
fl ow
pl ing
Ġr ice
Ġc rown
Ġdep os
P at
tt es
Ġra id
Ġdam n
m ap
ro c
Ġtravel ed
Ġend less
ĠN ame
ĠG ab
ĠA y
ĠS essions
Ġdr ones
Ġcompl ain
ĠCommission er
ĠU I
ĠOr ange
ĠJ ess
ĠOx ford
ĠC ry
ĠB enn
A tt
Ġaw kward
at al
Ġapp lying
Ġaccompl ished
Ġsac rifice
witzer land
Ġwe aken
g ments
Ġin eff
ĠWat son
Ġshoot er
ll i
M edia
ĠF lynn
Ġmechan ics
ĠK y
Ġbub ble
ĠIm p
Ġas h
Ġbu nd
Ġassum ption
ĠR T
ĠBr us
Ġadvoc acy
Ġhost ile
Ġep id
Ġreveal ing
Ġbre ach
augh ters
Ġc ats
Ġg reet
Ġrespect ive
ĠB ab
ĠR ow
Ġexpert ise
Ġdev oted
ĠDak ota
S everal
ĠInd ians
Ġscr atch
ĠPark er
Ġfr act
ĠB aker
Ġcirc les
Ġstrong est
lect ed
Ġfocus es
T IS
ĠMod ern
Ġsh ocking
Ġan arch
at oes
Ġcal endar
hand ed
Ġaud iences
ĠM as
Ġcitizens hip
p ot
ĠCh all
Ġbuy ers
Ġconfirm ation
Ġl one
g ary
h ill
ĠW rit
Ġtr ucks
Ġpartic les
Ġacqu isition
ĠMedic ine
Ġconclus ions
Ġcomput ing
Ġsw ord
Ġl ung
ch ron
H ave
Ġsa uce
ĠLaw rence
ast ed
Ġunnecess ary
T ake
Ġdirect ors
uer to
f i
I d
ult s
ag raph
Ġsp y
Ġl yr
Ġpen alties
Ġfr ank
Ġlong est
Ġline back
Ġrespond ing
um ing
ore r
ond s
ĠG re
m are
form ed
Ġdec or
ĠR ap
ĠD ate
ĠTem ple
ip her
Ġhistor ically
Ġent ities
Ġbit ter
Ġad vertisement
g roup
ĠMor ris
Ġinter rupt
Ġst ir
Ġadd iction
ue z
Ġpl acing
Ġbe ars
iv an
Ġcontribut ing
Ġbound aries
Ġy ard
it ivity
Ġunderstand s
ĠFergus on
Ġqual ify
sh ot
Ġd uration
ĠD or
Ġcomp osition
li ver
by n
h alf
Ġquant um
Ġfrust rated
f ile
ĠRes p
Ġconvers ion
im s
Ġoper ates
Ġcoordin ator
Ġsh ake
ĠLeg isl
ĠHot el
and ed
Ġhack ing
ĠH us
Ġorient ation
F S
ĠBar celona
ĠSaf ety
b ie
v ious
ĠF ind
d am
ĠRec ords
ĠY ang
Ġpri est
st orm
G iven
Ġ198 7
Ġfemin ist
ĠHis pan
Ġst un
Ġmotiv ation
Ġdist ant
Ġfast est
Ġgro cer
ĠK as
w id
Ġpain ted
o ard
ĠE D
ĠB E
ĠNet anyahu
20 10
Ġm ic
ĠJac ob
on ia
ĠF CC
lim inary
ĠI an
Ġd ensity
Ġexperien cing
Ġovers ight
Ġped est
Ġcontro lling
Ġcount ies
out heast
bor ne
mind ed
Ġsaf er
m atic
Ġm ild
Ġtun nel
Ġ197 9
Ġn ode
am an
PD ATE
Ġv ague
M in
Ġpop ul
Ġdiv ide
ĠR oc
Ġtrans formation
Ġdirect ions
Ġrece ives
Ġsent ences
it ate
Ġu gly
Ġilleg ally
ĠH end
? '
ĠF if
Ġimper ial
ab ling
ac ular
Ġint ensity
Ġprob ability
Ġcomp osed
Ġenjoy ing
F igure
at re
ĠSw iss
Ġsup rem
ĠU C
ĠP rom
ĠAbb ott
Ġmand atory
H ist
Ġhe aven
Ġconserv ation
Ġg aining
Ġachieve ment
ĠR ain
com ed
ĠMc M
ĠBloom berg
oc us
o j
Ġ6 9
Ġd ign
ĠRem ember
Ġagric ultural
Ġins ane
ĠS ong
spe cific
Ġt ill
Ġbal anced
ĠAgain st
Ġcondem ned
ĠS ud
t it
at in
Ġ198 5
Ġres idence
Ġst omach
Ġc am
Ġdist inction
Ġprint ing
w estern
Ġemer ge
ĠO m
Ġprot otype
ry ption
ĠS ide
Ġt ar
ĠB art
Ġspace craft
le ton
b u
Ġw ings
Ġinvest ing
Ġover d
Ġaccept ance
bo ards
Ġtou ched
st an
E ng
ĠB eng
n or
Ġt une
Ġiniti atives
u j
ĠR ice
Ġto ile
Ġexch anges
Ġsc ary
ĠB uilding
Ġp ays
ĠTe a
Ġide ological
Ġscen arios
Ġz omb
Ġf illing
ĠC os
Ġmanufacture r
ĠBen jamin
oty pes
um m
ĠT ampa
ĠL ie
ĠEv ans
m other
z es
ĠM itt
ĠE lection
Ġp ink
Ġconst rain
Ġrot ation
ĠD raft
Ġinf ring
Ġrespect ed
B re
Ġal arm
ro t
s ur
ĠD J
idd ing
Ġser ial
Ġpress ed
Ġnon profit
Ġpe ers
con nect
Ġacqu ire
Ġcrop s
Ġoper ational
Ġp or
Ġl anes
l ast
Ġc ake
Â ·
d ing
s upp
Ð »
b rew
Ġtreat ing
Ġprior ities
Ġhigh way
Ġcomple tion
Ġ7 7
Ġsubsid ies
Ġexplos ive
abet es
ĠBe h
or ient
Ġres igned
ĠSte in
UT ERS
Ġanim ated
abb ing
er ving
or i
F e
ac er
in itely
Ġinc omp
ĠC a
Ġe ars
pro t
Ġsl avery
Ġdifficult ies
m un
ut t
umb led
ĠAr ctic
ortun ate
N T
k m
Ġis lands
ĠLa ure
h ol
ĠCo hen
Ġfree ly
Ġch urches
ĠÂ ©
( '
Ġsh orter
Â Ķ
E uro
Ġform ally
Ġres erves
Ġappro ve
Ġfr ight
ĠCh ance
Ġdes ired
Ġrif le
Ġqu otes
G M
b ecause
Ġrespond ents
Ġparticip ated
Ġdiscl osure
ĠM obile
ĠR io
Ġb ones
ĠBr andon
ĠTe xt
B ig
ĠR y
Ġex em
ĠF igure
Ġhuman itarian
ĠA wards
ock ets
Ġ19 30
Ġworth y
and y
Ġvolunte er
W S
Ġcrowd s
â Ħ
Ġmechan ical
Ġtut orial
w hen
Ġsec ured
ock er
Ġatt ributed
r idge
Ġjud icial
m ain
Ġcle ver
Ġrum ors
ĠR ail
Ġcr ude
ow ell
d eg
Ġmon etary
Ġdeliber ately
ec onom
ĠS aints
ĠCent ury
Ġs her
Ġcult ures
i ary
ic ut
Ġm amm
Ġanticip ated
R O
Ġeconom ies
Ġflex ible
ust ers
Ġro cks
m art
Ġin hib
Ġ7 00
ĠMcCon nell
Ġh ier
Ġcon j
ĠK u
Ġt el
ĠÃ Ĺ
ict s
st ory
Ġelder ly
Ġgr ateful
Ġconsequ ence
te ch
( );
Ġj okes
au c
ĠK yle
M ed
Ġher itage
ĠR aid
Ġinc ons
ch arge
ĠN eed
U D
s ized
he alth
Ġpan ic
Ġteen ager
Ġexp ed
Ġspread ing
Ġb ass
M en
Ġflex ibility
Ġaff air
cont rolled
Ġb io
Ġaltern atives
at ile
im ens
o ons
ĠK it
Ġinter rog
Ġz ones
Ġdisp os
Ġn aked
Ġdecl are
ĠCirc uit
ici ary
Ġto ken
Ġattend ance
act ory
Ġdis par
Ġadvant ages
th ink
Ġvir al
ĠK erry
Ġabs ent
Ġtrig gered
Wh ich
Ã ¥
val id
ĠAlbert a
ĠT erry
Ġtechn ically
Ġre aches
Ġt ensions
Ġch ap
E E
ĠS witzerland
Ġp osed
ud ge
ĠS M
Ġdetect ed
Ġfin an
ĠSm all
Ġkn ocked
Ġbu zz
Ġinst inct
b art
ĠT alk
Ġdesign ers
VER TIS
Ġdisturb ing
Ġt urb
H ar
Ġpled ged
ĠArt icle
Ġprev al
ĠE arly
r ane
ĠT reat
ĠBrus sels
Ġinstru ments
j an
Ġs ends
c rat
d ec
ĠCh ap
Ġsatisf ied
ĠB uck
ĠPost s
Ġprocess or
ĠF ro
Ġw rapped
pro duct
w he
gl as
ll ers
Ġexc itement
ul pt
Ġgreen house
are ttes
Ġshif ted
Ġequ ity
Ġbreak fast
ĠD om
Ġf are
Ġflo ating
Ġremind ed
Ġflu id
Ġharm ful
ĠP uerto
il ateral
ĠP ok
Ġdo se
Ġtr apped
ĠPart ners
Ġrep ly
Ġwel comed
Ġapp eals
Ġtransp arent
ĠT un
ĠCamp aign
Ġsu itable
ĠFrank lin
Ġres olved
inc inn
Ġhar vest
ĠKir k
Ġlegend ary
Ġref using
Ġmag ical
Ġavo ided
âĢ ĭ
Ġbr ains
Ġf itness
Ġl un
Ġgr asp
val ue
Ġport fol
B est
Ġident ifying
urn ed
ĠM ov
Ġn ull
Ġannoun cing
pr ising
Ġdecl aration
I O
iz ard
Ġinn ings
wr itten
or ig
D ata
f s
Ġab ol
ĠBuff alo
ne ver
Ġprov incial
ĠCommun ist
ation ally
ĠLyn ch
Ġrec y
Ġha bits
Ġrus hed
it ably
Ġh orm
Ġcondem n
Ġste ep
ĠAnt i
az y
Ġimm igrant
ĠI ss
Ġ7 3
âĦ ¢
Ġmut ual
Ġhat red
Ġem pire
ĠGr ay
A ust
ĠBar ry
ĠI C
-- -
ĠM aine
Ġreg ret
Ġassum ing
Ġminor ities
Ġhope ful
Ġoptim istic
Ġindic ating
AC K
C urrent
Ġhy brid
Ġexcess ive
Ġedit ors
Ġ7 4
Ġfro zen
Ġbel oved
L a
Ġbrow s
est one
Ġconduct ing
Ġtempor arily
ĠPhil ip
ver ning
Ġpresum ably
Ġwh ites
N orth
Ġtrust ed
Ġimag ination
Ġdeploy ment
z b
Ġedit ing
incinn ati
m id
Ġsupp ose
Ġear liest
ere r
ĠV ery
Ġass ured
or ph
b les
ĠM D
ĠChrist ie
ĠDou g
Ġtend ency
Ġst ocks
Ġimm ense
ĠRog ers
oc ate
Ġbar riers
g t
ĠT a
ĠG PU
Ġtour ists
Ġdec iding
Ġpen et
â Ķ
Ġhead line
ĠN atural
Ġthrow s
Ġcast ing
ĠB ears
IS T
Ġwor ship
Ġinfect ed
Ġm ixture
ĠTr udeau
ĠPr in
Ġsh ar
Ġspark ed
Ġcomp os
Ġr all
Ġsocial ist
ĠJ ets
H aving
p owered
ank ing
Ġwa ited
Ġdam aging
Ġbutt ons
ra ham
Th rough
Ġgrab bed
Ġstruct ural
ĠWar riors
Ġve gan
Ġdefend ers
st art
Ġcolle ague
Ġg rip
Ġcolleg es
v als
Ġathlet ic
Ġun ity
is en
Ġcrypt ocur
Ġf est
qu ality
Ġarm or
ĠOcc up
Ġplan ets
ĠBl og
ĠM om
ĠO scar
Ġcart oon
ell a
Ġd iver
B L
Ġre hab
Ġparliament ary
Ġgar b
Ġtr ash
ĠBr ady
Ġsc rap
ĠJeff erson
ar ound
b est
N ever
Ġcompl iance
ĠH P
per or
ne red
Ġsoc ieties
au kee
f old
ĠG arden
ĠCh uck
Ġl ake
e or
Ġpurs uit
ig hed
Ġwh istle
Ġclick ing
Ġa uction
ors es
In ter
Ġdis g
Ġtradition ally
Ġf ru
Ġatt itudes
on er
ĠF ried
ot ton
e u
P ress
Ġapproach ing
Ġsurviv ors
point s
ĠLiber ty
Ġwid th
keep er
Ġex ports
ig ers
ĠGu ide
Ġhum or
ch i
ĠColumb us
ĠTurn er
iff erent
ĠB und
Ġres on
Ġlegisl ature
ĠWik ipedia
ĠIs lands
Ġbar rier
ous ing
Ġdec ides
st ock
Ġpurch ases
ĠP ed
Ġch ampions
ĠKe ith
Ġwind s
per ial
Ġ0 1
ĠH ide
Ġn ick
Ġ7 8
Ġlif ted
Ġpure ly
Ġess ence
Ġdet ain
Ġsec rets
ĠF un
not e
Cl inton
ĠCor byn
Ġpurs uing
ĠA w
Ġtext s
ĠU ntil
Ġobserv ation
Ġh oney
ĠHar vey
Ġm asc
Ġthere by
d ale
ĠA th
Ġrec ount
Ġeth ical
ur i
ĠMor ning
Ġunder mine
ruct ive
Ġw ishes
Ġbl ess
Ġur ge
Ġin sect
Ġgrow s
Ġregul ators
ĠCh o
AD VERTIS
ab l
V ideo
Ġoff set
ac ent
force ment
Ġmeant ime
s ign
ĠC rown
Ġdon ated
S et
ĠAl t
r ust
Ġag greg
Ġf ont
ĠY ahoo
Ġ7 1
Ġeconom ists
Ġliber als
d i
f ox
Ġtreat y
Ġex empt
Ġt ang
be it
Ġremind er
Ġl aser
Ġsucceed ed
Ġal ph
arent s
ur red
ĠB ou
es is
Ġt ong
Ġpassion ate
Ġbott les
w aukee
enn a
Ġf t
ĠNor way
Ġrom antic
X X
Ġfail ures
P ar
Ġhack ers
Ġmet ab
Ġa est
Ġsqu ee
ĠSh an
ĠWW E
Ġemot ion
N EW
ĠUn iverse
Ġp ist
Ġfl ip
Ġbreak down
Ġout er
aren thood
p ublic
ĠW orks
ĠF DA
ĠFant asy
Ġident ification
ĠC orn
Ġfr action
ĠMad ison
icial s
Ġadm its
ol k
ĠCam bridge
Ġdivor ce
t ics
Ġperm its
R T
Ġdecre ased
ĠD NC
Ġsens or
Ġsac rific
Ġafter math
back ed
Ġgener ous
aw s
s chool
ĠS ep
af i
Ġcomp ly
Ġdraw s
Ġexec ute
Ġwal let
ere n
Ġsu ed
Ġt rop
Ġ( )
ĠD ub
Ġcomp aring
Ġunf ortunate
Ġarri ving
ĠJ e
K ey
r ained
Ġfin ancing
Ġret reat
own ers
ĠM oney
ĠK arl
Ġdis orders
ĠR aven
ĠArk ansas
Ġstr ain
Ġvar iation
Ġ8 2
ĠWiki Leaks
Ġenh anced
z o
ĠMil itary
Ġsl ave
Ġfeed ing
Ġfem ales
] :
iv a
ĠE V
Ġaccount able
Ġver dict
Ġconclud e
Ġhelicop ter
Ġn ons
Ġ vel
g ian
m aster
ĠRod rig
st ore
Ġl ib
rop olitan
sec ond
ĠDep uty
ĠRE UTERS
s k
Ġ Ø
Ġtreat ments
ĠE ss
Ġbatter ies
ĠF isher
Ġche er
ĠRob in
Ġpre ference
ĠMem orial
se ud
ĠConnect icut
ĠGu y
Ġcontact s
Ġcre ep
ing ing
ĠN ort
Ġlast ed
ĠNe il
Ġs illy
ll y
ad vant
Ġmass es
p ace
ĠJ ake
ĠPol ish
ĠE li
Ġretail ers
Ġembed ded
Ġcomp ound
Ġcorrespond ing
C NN
Ġrec onst
ĠCommun ications
ĠU RL
Ġsequ el
Ġdestro ying
L ink
Ġlack ing
Ġd aughters
ĠJ u
Ġenc ount
Ġwond ered
ĠG host
un ct
s ource
ĠM ission
Ġun h
Ġcapital ist
ĠTy ler
Ġencount ered
Ġeconom ist
ĠM M
roll er
N G
Ġlicens ed
ĠB h
Ġwar fare
Ġfound ing
Ġvert ical
ĠI RS
Ġre un
ĠVenezuel a
Ġag ing
Ġsm ugg
b ig
ĠR oom
Ġstatist ical
Ġgif ts
T om
l as
Ġund ers
ĠMar ia
ĠE X
Ġam pl
Ġsl ower
Ġadv ances
ĠPakistan i
ir able
vis or
is ers
ig ma
T ION
Ġgrav ity
Ġf ierce
ĠConserv atives
ĠP ap
f ive
Ġcare ers
g iving
Ġ198 3
accept able
Ġvill ages
iz able
Ġintent ions
op es
Ġd ys
ã ĥ
ĠP ur
Ġh ill
Ġorganis ations
t ail
Ġauthor ized
Ġsepar ation
n ormal
ple x
Ġking dom
Ġaw a
Ġcount ing
IV E
Ġgo verning
pl an
Ġtr agic
Ġwarn ings
Ġc ub
ĠLuc as
ĠDown load
Ġ198 2
Ġins urg
ĠK rist
Ġfar ms
s ky
Ġdiagn osed
ĠStud ios
ĠPlay ers
Ġcommission er
Ġst abil
ĠAd vent
S outh
Ġdis pro
Ġlobb ying
Ġtaxp ayer
Ġed ited
ĠSus an
are st
ĠMer kel
ĠE mb
Ġclean ing
Ġtransform ed
ĠTh under
w al
Ġsuspic ion
m outh
Ġcontin uous
Ġstre ak
Ġdem ol
a a
ĠHoll and
Ġb oring
Ġele ph
ard ing
it bart
ĠS alt
ĠSc ar
Ġc odes
ĠPri ze
Ġcons iders
Ġscreen ing
d irect
Us ing
F ree
Ġgam ers
Ġmill enn
ĠSci ences
h aul
ĠSpir it
p ath
Ġdam ages
Ġcont am
F our
it ative
Ġf ib
ĠSpe ed
crib ed
Ġten ure
ut ical
Ġincl usion
Ġfun eral
Ġinst ruction
Ġa ired
F ig
Ġf ence
ect or
ard less
ear chers
ĠSt ars
Ġl ip
ĠH ub
Ġfe ared
Ġtraff icking
ð Ł
Ġdon ation
ĠP interest
Ġde ce
Ġwork place
Ġcl uster
Ġcred ibility
Ġinv ite
Ġmon sters
Ġte ens
Ġinst itutional
ĠD anny
ĠC z
Ġcollaps ed
Ġjust ified
id ays
Ġhe nce
ĠB os
air y
Ġhypot hesis
elt a
d ig
Ġsusp icious
Ġden ial
Ġorgan izing
her ic
Ġisol ation
ank ed
h ave
Ġ' '
Ġgr ace
claim ed
ĠThe atre
ĠWith in
ed ed
l ib
Ġboy friend
Ġcivil ization
Ġnovel s
ĠBr and
ham mad
Ġur ging
ĠMorm on
Ġinter ference
ĠTh or
ĠIslam ist
Ġwrest ling
A V
Ġdoub led
Ġth irty
Ġsp awn
A nt
uss ion
Ġreal m
Ġmag netic
Ġste am
th an
Ġbelie ving
Ġind ict
ĠPet ers
r int
im age
Ġexp end
Ġout right
Ġsoon er
ĠInt erest
Ġbr anches
Ġbenef icial
Ġcry ing
â ĪĴ
Ġcomp iled
Ġdec ks
ad ows
Ġrecru iting
ue ller
Ġc ort
Ġen ables
writ er
Ġeduc ated
th a
Ġinv ented
Ġev angel
Ġle verage
Ġrus hing
Ġelimin ated
. âĢľ
ĠD est
Ġrh yth
en c
Ġm ock
Ġspons ored
G ame
f il
ol er
Ġtra its
Ġunve iled
ank a
ĠH unt
Ġbe ers
ĠCharl otte
ĠUb untu
i per
in ance
Ġroutine ly
Ġple aded
ĠC incinnati
ol ine
ADVERTIS EMENT
Ġp izza
Ġtem plate
ĠD og
Ġlab els
Ġeval uate
Ġag rees
Ġsolid arity
oll ah
Ġbreat hing
ĠK le
. :
op ard
Ġalbum s
Ref erences
ĠLt d
Ġr ib
ĠStud io
Ġtem ple
ĠFor mer
Whe ther
Ġmed ian
ex us
ĠN av
ĠBrad ley
Ġdisc our
W ork
ur able
Ġd umb
Ġlay out
ĠH ills
Ġshif ts
Ġincent ive
ĠT D
ĠC arson
Ġdirect ory
Ġentreprene urs
ĠPr inc
ĠB ash
Ġmagn itude
Ġjump ing
ĠHind u
Ġl au
Ġsmart phones
Ġult ra
Ġ8 8
Ġv ibr
ĠLe af
ĠO liver
Ġcompar able
Ġclimb ing
rodu ction
ĠGl ass
ĠIndones ia
Ġarrange ment
o a
Ġpath s
O rig
Ġwhe els
ast ically
Ġpil ots
Ġtermin al
Ġincent ives
Ġmidfield er
Ġspec ified
Ġexcept ions
Ġadequ ate
ĠC ut
co ins
Ġcoc aine
ĠB uy
p op
dri ven
Ġo x
Ġpsych ology
Ġd irt
Ġsn aps
Ġpre liminary
Ġc ents
Gener al
Ġpe oples
re nder
st age
ĠVer izon
ord able
ace utical
Ġpart ial
ĠSen ior
on i
S ign
ĠVer mont
Ġscream ing
ĠP ence
Ġvis a
wid th
Ġlyr ics
ĠL ED
ĠF arm
ĠB JP
Ġfirm ly
Ġtransl ated
ĠC ass
ĠF el
ĠTrib une
Ġintrodu cing
Is lam
Ġconnect ing
Ġreg ards
Ġcounterpart s
Ġmon op
ch ar
Ġch ains
Ġac res
Ġgen et
Ġcr icket
Ġappeal ing
Ġam end
Ġme als
ess ional
arth y
ck er
ĠMc L
ĠFriend s
Ġwild life
V al
Ġb ust
ĠG onz
ĠSol ar
Ġun rest
ĠCount ry
ĠA B
ĠO d
H ill
200 9
Ġtrad itions
Ġthreat en
Ġtrans f
Ġcreat ors
Ġgl ob
ĠSo x
f ly
h ome
Ġsens ors
Ġlike lihood
Ġn an
Ã© mon
Ġcomment ed
Ġdetermin ation
J an
Ġ: :
Ġvac ation
an ium
ĠB L
ĠZ h
Ġan ime
Ġcount ed
Ġmatch ing
ĠBook s
Ġconv inc
ĠJ oy
Ġbet ray
Ġd ivers
Ġtr ace
Ġprec ious
ĠProf ile
ĠBelg ium
Ġp upp
amp s
Ġpl aint
Ġtri ple
E G
Ġpar agraph
umb ling
Ġmotor cy
Ġshe er
Ġsc ulpt
ĠLeban on
Ġinvest or
Ġkill s
Ġendors ed
Ġle agues
Ġlicens ing
Ġto y
Ġaccur ately
ah l
Ġshif ting
c s
Ġun st
ĠAr thur
m ay
J ames
======== ========
Ġtw ist
ĠP AC
ĠAM D
ĠN ixon
ĠCow boys
l ive
U E
S er
ĠF ab
ul ative
Ġdisappoint ing
Ġfold er
Ġavoid ing
iv ic
al og
Ġcomp assion
res a
g i
ip h
ĠT ob
Ġprohib ited
Ġ19 20
ĠBrazil ian
Russ ia
ias m
St ud
ĠArgent ina
Ġwork force
Ġaccount ing
Ġgr ain
Ġproceed ings
D B
ugg ed
ĠN in
ĠG arc
Ġsp are
i ots
ol o
Ġlength y
US A
ĠEb ola
Ġsl aves
ĠQ B
U PDATE
Ġj ew
Ġdub bed
Ġr iot
B et
ĠUnivers al
A lex
ĠPolit ical
Ġin mates
Ġment ally
p y
ĠR ams
Ġfundra ising
Ġsh aped
c end
ĠB Y
Â £
ool s
Ġtouchdown s
Ġover look
Ġf ict
Ġ198 1
Ġcelebr ity
Ġm erc
ĠWe iss
Ġwilling ness
Ġmar ine
ri ving
Ġind irect
Ġsevere ly
Ġshe d
M ake
ĠR osen
Ġestabl ishing
Ġgener ating
ate ur
Ġnegoti ate
S y
Ġshould ers
ĠBro s
Ġint u
ĠK am
Ġimplement ing
Ġrenew ed
ll o
Ġd ivid
ri en
o pp
agh d
ĠSer ge
Ġconsum ed
ĠFin ance
Ġp owder
Ġswim ming
ĠQ aeda
Ġcreat ivity
Ġrel ating
Ġb ite
Ġse ctors
b ull
ke es
Ġcertific ate
s ki
Ġassum ptions
Ġfire f
lud e
ell ar
A h
ĠGl enn
Ġinteract ive
fe ld
if ting
Ġobser ve
Ġaccomp any
G od
Ġtrad em
Ġaver aged
S ometimes
ĠG ates
cc a
Ġref lection
red ict
iox ide
Ġbra ve
ios ity
ĠPh one
Euro pe
ubl in
t able
Ġroy al
Ġaffect ing
Ġh ij
C ap
Ġsa il
ĠM O
Ġwor n
>> >>
U M
r ament
Ġfil ming
ĠL ane
ale y
it ated
ur l
S ch
ĠM ort
Ġind igenous
Ġearthqu ake
Ġblack s
u ced
Ġmount ed
Ġadapt ation
ull ivan
Ġsubsc ription
Ġconsult ant
out ube
Ġdet ection
Ġclin ic
j ar
ĠAr men
ir k
Ġcompat ible
O ct
ul um
L Y
Ġ7 9
ĠMil waukee
aff e
Ã Ĺ
ĠMar co
Ġrec alls
Ġdis k
Ġf uels
ill o
Ġcor ners
ĠAn ne
d rop
ĠAn im
Ġrep ublic
w art
ĠT ell
Ġdi abetes
Ġesc aped
l ash
Ġspecial ist
Ġfol k
ĠHigh way
olph ins
N ET
Ġ196 7
RE AD
Ġadjust ed
Ġwood en
Ġpredict ions
ĠB ond
ĠSt re
ĠM ust
Ġless er
Ġadm ission
Ġliter ary
Ġfar ming
Ġproblem atic
1 10
is ible
Ġimp ress
Ġtri umph
ĠCl ar
ul ent
Ġtrans cript
ĠM ason
Ġt ub
M al
Ġlaws uits
Ġmar ry
Ġaggress ion
ĠC elt
Ġorig ins
Ġsl ip
ĠP L
oc c
ĠC reek
oc aly
Ġm aker
au x
Ġhe aling
ĠCol omb
p se
ĠBull s
ĠGer mans
ĠA ve
Ġp ub
Ġcontin ent
Ġwhere ver
Ġaud it
ĠDou glas
d ays
ĠC her
ĠBl ues
ro se
ĠB B
Ġdesc ript
pr ing
Ġmusic ians
ĠE dd
Ġtr ap
Ġh oly
ĠGold man
N Y
ac ious
eng u
Ġunder way
ĠV A
R ober
G erman
ol utions
W est
Ġmort ality
ec hes
ugg ing
Ġeval uation
St art
ĠRe ading
Ġv on
Ġab used
Ġvulner ability
Ġbankrupt cy
ne ath
Ġdel ays
ĠP arenthood
Ġsuper hero
Ġ1 30
Ġp ants
ĠGall ery
p ur
Ġy e
ah a
Ġindepend ently
R ich
Ġve to
Ġsh ore
Ġsk illed
pe ople
i ology
D ec
cl osure
oot ing
Ġle ather
Ġtim eline
Ġle af
Ġle aks
ĠR C
U I
mun ition
at on
Ġresign ation
ss on
ant o
Ġsu its
Ġsw ift
l ie
Ġcy cling
OS T
ĠBron cos
Ġdark ness
Ġorgan ize
Ñ ĥ
W A
Russ ian
J ack
Ġinter cept
ĠH um
oca ust
Ġw reck
Ġ1 10
Ġsher iff
ili ation
ĠSuper man
ĠSp ider
Ġin ch
ig nt
ĠE c
Ġafter wards
H igh
ĠBern ard
ab ul
Ġsupport ive
Ġres ume
Ġ18 0
qu al
Ġshoot ings
ĠN C
ail and
Ġse iz
ian g
Ġin appropriate
ather ine
Ġform ing
m i
ĠS omething
Ġbehavi ors
Mus lim
al ph
Ġlaugh ing
ĠD M
es ity
Ġaltern ate
Ġ19 40
Ġtest ified
at ers
Ġ196 8
Ġpract ically
lev ant
S ON
Ġun anim
Ġreb ell
ack er
Ġthorough ly
Ġins ists
Ġcr ashed
orn s
ĠBud get
se lling
Ġbroad band
Ch ris
Ġlabor atory
Ġteen age
Ġdis advant
G reen
he w
ĠIs a
Ġdoctr ine
Ġenc ryption
ĠEx change
Ġloc ally
Ġt att
Ġout break
iss ance
ĠVik ings
pe red
Ġp y
Ġsound ed
T unes
Ġoff shore
Ġap ology
Ġexp ose
et ing
Ġk ernel
ĠJohn ny
Ġexha ust
Ġcons olid
Ġun e
au er
ble m
Ġautonom ous
Ġcost ly
Ġcorpor ation
Ġcolon ial
Americ ans
Ġanalys es
ĠSp encer
Ġphotograp her
Ġs ie
Ġne at
Ġb ind
Ġkill ings
ĠRe ed
act ic
ĠM ember
Ġdemonst rations
ĠG ate
umb l
O s
Ġchart s
Ġreason ing
mar ks
Ġpro x
ĠJ oh
Ġclass ical
ra pe
ĠPalest ine
Ġgr ay
Ġed ges
erv ation
ĠL ock
row th
k g
Ġattack er
Ġveget ables
Ġint end
B ay
Ġmat ched
Ġemb assy
Ġlect ure
ĠL iving
Ġpurch asing
Ty pe
âĶ Ģ
dis play
ill ery
.. ."
Ġswit ched
ĠSe ah
ĠAg ree
RE L
Ã £
ĠS or
Ġloc als
Ġpre st
ĠAl f
Ġoblig ation
fund ed
Ã© s
Ġr ated
Ġes p
ĠI l
Ġinf er
Ġstat ue
ĠWal ter
epend ence
lement ary
Ġgarb age
Ġdem on
ĠT ry
Ġstraight forward
Ġbus es
ett a
Ġmob il
Ġelabor ate
light s
ĠSystem s
Ġterrit ories
Ġportfol io
Ġ197 6
Ġfl owers
Ġ10 1
Ġgod s
Ġhe d
ĠBet ween
Ġc m
ĠB ased
Ġh alt
Ġtra uma
be an
ĠK och
Ġinf amous
ocument ed
ĠC u
Ġunf old
ĠMichel le
ĠD iam
ĠL ess
h is
ar ming
Ġair line
S M
Ġor che
cul es
ĠS W
Ġpriv ately
D ay
ĠM MA
oub ted
f our
ĠW R
Ġl ap
Ġs isters
Ġbes ides
Ġdeal ers
ĠT ory
ĠHom eland
ĠEm ploy
H D
ignt y
1 20
Ġaccommod ate
Ġfrust rating
Ġl oving
ri el
Ġmed ication
Ġath lete
Ġf ame
Ġfor ums
ĠMu hammad
ĠIn v
Ġ197 5
oc ity
Ġatt ributes
Every one
Ġn uts
M et
ĠS ad
ĠDen mark
Ġpe pper
in os
ID S
As ked
Ġpred omin
ĠM erc
ion ed
Ġrank ings
az ed
S uch
ĠV eter
ke ys
Ġclos ure
Ġb urg
iss a
ĠCom ics
Ġlim iting
ĠL oad
ĠUn it
Ġmod es
Ġstrik er
Ġsear ches
Ġimag ined
ph p
ĠCal gary
ort ions
Ġd ated
re ach
u um
Ġ8 1
Ġwithdraw al
pe lled
ĠK ind
ĠBr un
Ġe ighth
Ġeffect iveness
ĠS oul
2 000
Ġst ays
Ġs ink
Ġobser vers
add y
Ġint ake
op ing
ĠSub scribe
n esty
ĠG ear
Ġd ioxide
Ġcar riers
Ġm ph
Ġenthus iasm
ĠF at
ĠL uck
Ġwh ilst
ap y
Ġmis leading
ĠW ATCH
Ġcon vey
Ġ197 3
Ġo h
Ġpubl ishers
ro lling
Ġqu ery
Ġmeasure ments
le m
Ġsp ill
pro of
Ġnom inated
ĠRel ations
T or
Ġsubstant ially
ĠB uild
ĠN umber
ĠMove ment
O G
Ġhistor ian
Ġunc ons
n ames
ĠHar rison
Ġlist ing
Ġqual ities
Ġstr ings
ik ing
i op
ĠConf eder
) (
ak u
Ġrespons ibilities
Ġdelic ious
Ġd angers
ĠG B
Ġexam ination
ĠG PS
Ġdiagn osis
Ġlock er
v iol
âĸ Ī
Ġhung ry
Ġple a
writ ing
Ġgr at
sh irt
resp ons
Ġ9 8
ĠPal in
Ġd rought
as i
Ġdiscl ose
Ġex agger
Ġrev ised
Ġrel ies
Ġhe ter
Pro f
ĠA CL
Ġinev itably
ĠS A
Ġh ood
!! !
Ġvol umes
Ġd ash
Ġblood y
P N
Ġmem orial
Ġp ione
ĠA qu
Ġign oring
ĠR ico
oth y
Ġloyal ty
Ġdiff er
Ġw and
Ġvari ations
Ġmaintain s
ro ots
ab ad
S emit
Ġ197 2
Ġent ries
Ġsymbol s
ĠCarl os
Ġshut down
Ġam munition
Art icle
Ġfriends hip
Ġ ^
ĠB uzz
ĠR ace
Ġp orts
Ġn it
ĠW oman
Ġyour s
ĠSh adow
ĠBl air
D oes
Ġal tered
Ġst ab
Ġclass room
Ġdem ographic
ĠH ud
ĠSoft ware
Ġoccur ring
ins ula
Look ing
ĠP T
Ġphot ography
Ġp ile
l en
min ation
ĠD ennis
ĠVill age
Ġalgorith ms
Ġformer ly
Ġfundament ally
Ġredu ces
Ġbrief ing
Ġtrib al
ĠPlan ned
Ġh orses
Ġfulf ill
ĠTe h
re r
Ġc her
Ġrap ed
Ġcelebr ating
Â ®
ĠK el
m ines
Ġhero in
Ġ8 4
Ġves sel
âĢ¦ âĢĿ
Ġdesper ately
ĠBrook s
ch a
ĠA my
itt ees
Ġmet res
ĠUp date
Ġinhab it
ĠWall ace
Ġmid st
ĠTrans portation
Ġ8 3
Ġgall ery
ĠL isa
art isan
iz ont
Ġrein for
ĠH em
ĠGM T
Ġb ikes
Ġsk ull
M ike
Ġde leted
Ġun limited
Ġ197 8
ur u
Ġsac red
h al
ĠSun ni
C ity
Ġdecl ining
Ġout door
ential s
Ġdisp ens
Ġnew est
ĠH at
Ġbelong s
n ational
bl ack
Ġexerc ises
Ġexpress ing
Ġpres cription
Ġins ure
Ġsh y
Ġmod ules
Ġaccount ability
Q aeda
ĠLiber als
Ġspect acular
ĠH ockey
Ġsche mes
Ġju ice
id ges
ING TON
ĠRaid ers
Ġf iber
Ġgovern ance
Ġgar age
Ġarch ae
Ag ain
Ġt ribute
Ġconsum e
ĠR ah
Ind eed
ĠEd wards
it is
Ġpresident s
Ġp ipe
ĠN A
Ġf lesh
rep resent
we alth
p rom
Ġarr anged
Ġlineback er
Ġsh apes
Ġfil med
Ġrub ber
IT Y
Ð º
Ġbed room
Ġc od
Ġw ip
Ġqu ad
Ġch ase
ĠPok Ã©mon
ĠTer ror
Ġsol ved
C OM
Ġa ide
ĠSeah awks
ur ring
osit ory
S uper
ĠM ueller
Ġconf using
Ġre ception
Ġn odes
Ġplay back
Ġaccident ally
Ġbillion aire
ĠJ ar
ĠCh apter
put ed
aret te
oubted ly
rem lin
Ġl oses
ĠJenn ifer
Ġb inding
Ġperman ently
ĠP ast
b ul
Ġtw in
h ner
Ġto ys
ĠP ick
ft en
oc ide
Ġexhib ition
Ġr age
C opyright
ol an
Ġun le
ĠP as
ĠM C
Ġ Ï
Ġmisc onduct
Ġspir its
ĠS el
ĠD R
ĠA ld
Ġw ounds
h ole
ĠJ a
ĠSil icon
w ear
let ter
he lp
ĠG it
Ġbo ats
ĠA gr
ĠShe l
al so
uls ion
Ġmed al
9 00
W H
ĠCo ach
Ġsell s
in ate
Ġconsider ably
ĠPhot ograph
Ġdemonst rates
Ġsan ct
Ġfresh man
Ġth umb
ĠD ublin
Ġlast ing
ĠF ame
pp o
Ġman ages
Ġstrict ly
Ġsh ipped
Ġpro c
Ġchem istry
ag ging
Ġregul ate
ĠW onder
Ġfin als
Ġlabel ed
Ġmilit ant
ĠSer ver
200 8
Ġvig il
Ġpre jud
ĠL ost
Ġtoler ance
Ġfin es
ane ous
un s
App le
run ner
Ġ8 6
Ġskept ical
Ġsp ite
deg ree
ĠN PR
Ġg rey
Ġexcept ional
ĠMalays ia
se mble
Ġfan cy
ct ive
Ġt ier
heim er
ch air
Ġstre ams
n ik
g el
Ġlin ear
Ġreason ably
y d
Ġpuzz le
ĠCh ile
ĠR ou
Ġtack les
Ġcance lled
Ġden ying
D ep
ĠTr uth
Ġl uc
t or
ĠB us
ĠZ ion
ie val
Ġpit cher
Ġ9 6
Ġprocess ed
ĠJ uan
ĠFor um
Ġp seud
ĠM i
Ġlove ly
ĠF ly
th irds
Ġsp ends
Ġmid night
Ġorganiz ers
Ġret rie
Ġrest ored
ĠRes ources
re ated
work ing
Ġun acceptable
ĠUr ban
ĠR oth
ung le
ĠY ears
Ġsub mar
Ġtun ed
Ġgenuine ly
ĠHer o
Ġteen agers
ĠSt ring
p it
ĠOper ation
Ġmon ument
Ġqu o
ĠPal ace
Ġfacilit ate
ĠV iol
Ġ8 7
olute ly
Ġm ature
Ġd ancing
man uel
ĠRepresent atives
Ġrel ate
Ġout lined
ĠP ere
ĠD od
Ġf oul
Ġautom ated
Ġoblig ations
M I
Ġdiv isions
Ġsexual ity
Ġext ends
Ġsurve ys
Ġtour ism
ĠG and
ĠG ay
ĠBill y
IT H
ig a
ĠMcC arthy
P oint
ĠTh ailand
ab el
Ġsuccess or
Ġi Tunes
ĠR ic
Ġad vers
Ġle ap
irt ual
it ial
ĠR ush
form ing
ĠS elf
ĠT ill
ĠSh ar
on ge
Ġspot light
ĠBenn ett
B it
Ġanonym ity
A ug
E arly
L ife
ret ion
Ġwr ap
ĠCh arg
Ġin ability
Ġdefin ing
B rit
~ ~
Ġab oard
ĠAut o
ĠN DP
Ġme g
ĠÂ ĵ
ov ic
Ġunder neath
OR T
Ġdr illing
Ġrecommend ation
ĠSh ield
ĠRich mond
ĠSp urs
Ġsubject ed
Ġhear ings
Ġbattle field
ĠS i
Ġgener ic
ĠS ay
ow een
w er
ĠIn valid
ul u
Ġinc umb
Ġp ound
s is
ĠC ond
ĠGriff in
in ery
ĠF ile
Ġspe eches
ĠM ack
A uthor
al in
Ġconsist ency
ĠOb viously
Ġvict ories
ĠCz ech
Ġsn ap
ĠZ ero
ĠBang l
R et
A v
Ġcontract ors
ĠCh amber
Ġcor rid
ĠChron icle
Ġris en
Ġl ined
ai ro
ĠH ope
Ġover haul
ĠRet urn
Ġinc oming
Ġgu ilt
ĠAr n
Ġp iv
Ġad verse
Ġtong ue
ĠCom merce
sc he
ĠC art
clus ion
Ġsal aries
Ġprem iere
ĠBet ter
Ġse ct
Ġpar ade
ĠEl sa
Ġtrave lling
eg u
Ġn ort
Ġste pping
bor ough
rane an
ĠBre itbart
Ġembr aced
Ġfrank ly
ĠL LC
cl osed
Ġname ly
uk i
Ph ot
Ġrender ing
ĠSe ven
Ġcon cess
pro v
ĠBe yond
ĠRec ord
Ã£ o
B R
Ġtransl ate
ĠSo on
Ġconfident ial
Ġpl ates
Ġconfront ed
ĠTit le
ĠSoc cer
li ent
Ġm elt
Ġexhib it
Ġ196 9
ĠQ atar
sp ace
ĠAcc ount
Ġanaly zed
Ġdisc on
Ġtact ical
âĢĿ âĢĶ
Ġl iability
Ġdef ic
Ġb inary
ĠWork ers
ĠPack ers
Ġem power
ĠHur ricane
m ile
ri pp
th s
Ġd ive
Ġart if
ĠP ad
head ed
Ġbureau crat
Ġfunction ing
ĠSur vey
ĠF itz
ĠF ast
Ġun ited
Ġarri ves
Ġstro ke
Ġlic enses
ist ically
ĠElect ric
Ġ0 2
Ġred e
Ġr ings
Ġback lash
p x
ĠC ape
Ġpart isan
ĠCub an
Ġvend ors
Ġdoub ts
Ġdon ate
ĠBry ant
Ġsteal ing
Ġsign atures
uster ity
acc ur
#### ####
Ġc argo
ic ers
Ġfel ony
ĠM VP
Ġgrocer y
RE S
Ġg ard
Ġcloud s
hold er
Ġpublic ations
Ġcasual ties
ah n
ĠML B
Ġaut ism
Ġnegoti ating
L eg
Ġm ate
Ġcoast al
c ill
ier ra
ap or
Ġobject ives
Ġ9 11
Ġment ions
ĠG reens
ed ge
bs ite
ming ham
S an
Ġv ib
ĠPr int
Ġdefend ants
greg ation
Ġsovere ignty
ĠStud y
R ob
Ġelectron ics
ĠH alf
Ġgl ory
W r
ĠH BO
ĠG as
ou st
Ġprem ier
Ġliber tarian
ex p
Ġd ot
ĠS L
Ġarrange ments
wr ite
ĠIce land
Ġ> >
ai res
Ġves sels
ĠP un
ãĢ Ĥ
ling ton
Ġac ute
IN E
Ġind ef
Ġhon our
ĠReg ional
ĠM aj
Ġfl ows
Ġdiscl osed
ĠDef ence
Ġj ack
Ġenc rypt
Ġ9 3
ĠM all
V A
Down load
ĠR AM
Ġsport ing
Ġlack s
ag ged
ir i
ĠMet hod
c ost
ĠI v
Ġpre season
Ġnecess ity
Ġint ens
= âĢĿ
ĠS F
âĢ¦ âĢ¦
Ġfort un
Ġ{ \
ĠC M
ĠTit an
Ġ9 7
Ġu seless
or ity
ĠBrother s
A ng
Ġout let
Ġart ic
Ġ197 7
Ġconvinc ing
Ġcl arity
ĠB obby
Ġlegisl ators
Ġpret end
Ġcatch ing
Ġdign ity
w ick
ĠBarb ara
Ġdetermin ing
ĠR at
le tt
Ġhe al
Ġutter ly
Ġprotect ive
orient ed
Ġn od
ĠAL L
ent ions
Ġstimul us
Ġret ro
Ġtw elve
Ġprop ri
Ġcharacter ized
there um
Ġc ute
Ġbl own
Ġp ale
Ġmarket place
r us
Ġd ense
ĠS earch
Ġun ch
Ġim pe
az ines
ut ing
Ġspons ors
Ġt ube
Ġs lic
Ġtheoret ical
ĠNob ody
u ity
ocrat s
Ġl ighter
ĠAtt ack
out e
d el
ĠS ent
Ġspe lls
ĠSim ilarly
ter ior
Ġhun ger
f eed
Ġflood ing
ĠK ill
Ġlegit im
Ġadap ted
ĠEvent ually
Ġc ure
ĠPhill ips
AR D
ick ets
pl ess
ĠT ib
M er
Post ed
ron es
Ġprev ention
ĠBrown s
ĠBe ast
Ġgen ius
aug hed
ĠB P
k h
Ġeru pt
Ġswitch ing
Ġevolution ary
uff icient
Ġfore sts
C R
te am
ĠSh ah
Ġse am
ĠBut ler
Ġen abling
Ġmus cles
Ġcomple ting
Fr ank
Ġ9 2
Ġglass es
ĠCol on
ĠT igers
Ġqu arters
Ġ197 4
d isc
Ġsens itivity
const itutional
Ġantib iot
M em
F I
Ġhas h
Ġhe m
Ġr am
ĠBry an
Ġ ),
u v
ul ator
Ġca res
um ns
atic an
Ġbarrel s
H ouse
W ashington
Ġm all
Ġair pl
lick r
Ġachie ving
Ġread ily
Ġf art
ĠM IT
ĠM ode
Ġmal ware
Ġexplo itation
M M
ĠAl tern
Ġmist aken
Ġtable ts
Ġw are
m el
Ġaffili ate
ĠSand y
Ġmurd ers
ĠFr an
{ \
i pt
Ġco at
Ġha ul
L D
raw l
Ġlist ened
Ġmet a
ic he
Ġequ ation
Ġelect ro
ĠCl ay
Ġastron aut
uten ant
Ġjurisd iction
S ur
Ġdeb ris
ĠB ishop
k ill
Ġad min
Ġsubscrib ers
Ġreb uild
ĠNever theless
ĠPant hers
ĠI b
ang o
Ġdr ill
d b
Ġhold ers
Ġtrib e
ĠCast le
Ġl aughed
ant ing
Ġext ending
ĠSh i
Ġsubscrib ing
Ġspec ify
a ired
om atic
k ens
Ġinfl amm
ĠPlan et
Ġbip artisan
os i
Ġspons or
out ed
A FP
ab a
Ġcool ing
Ġpredec essor
em ail
Ġins ights
ĠL E
Ġsomet ime
ĠJ av
ĠO wn
Ġred ist
Ġrefere n
Ġ197 1
cast le
Ġref usal
Ġh ind
Ġfr ames
Ä ģ
Ġbe aring
ĠArab ic
ser ver
ĠOb ject
Ġfinan cially
ĠTo o
ri ages
Ġcous in
ĠIm perial
Ġr ats
ĠIn side
Ġroll s
Ġup side
ant i
min ed
Ġsynd rome
Ġswe ep
C le
Ġnot orious
b uilding
Ġnight mare
Ġp airs
Ġfire arm
vel t
Ġend e
g reen
Ġswe eping
Ġf ond
) |
or us
Ġbusiness man
Ġdu o
ĠJam ie
ĠOr thodox
Ġcan cel
Ġpers ist
Ġpro port
Ġcred ible
Ġarbit rary
M at
ĠAust ria
ĠSt op
Ġe leg
Ġattack ers
Ġsur pass
ĠEd ge
Ġ ðŁ
Ġhard est
Ġa ston
Ġmob ility
z i
Ġexpect ation
B ER
id o
Ġassoci ations
ĠW ii
Ġneur ons
Ġdomin ate
Ġglob ally
Ġreview ing
IG HT
Ġor al
cont rol
Ġc ab
Ġnew er
Ġviol ating
Ġm igr
re amed
Ġhyd rogen
Ġportray ed
ĠC OM
Ġ3 50
Ġl ately
ak y
Ġtre asure
Ġchar ter
Ġsepar ately
ĠD awn
ĠInd ex
ĠNew ton
Ġter rain
ASH INGTON
ĠTO DAY
Ġtour ist
E v
Ġendorse ment
S l
Ġv owed
Ġmem or
Ġtroub led
EC T
ĠB ird
Ġtr icks
Ġhyd ro
amp ed
ĠI BM
Ġrevel ation
Ġdis ability
Ġa ides
ĠSud an
ĠR achel
Ġdeter ior
S and
ĠSp ot
ĠDou ble
Ġapolog ize
f ar
ĠL ang
Ġre iter
res pect
G S
Ġnation ally
Ġ14 0
agon ist
ĠA x
Ġre ct
Ġdesc end
ott om
Ġrel ied
ĠB aghd
Ġbi ology
Ġnav igate
Ġpos es
osp el
ĠJul ian
Ġsett lements
Ġp ockets
ĠMar cus
Ġprov in
ĠTeh ran
Ġart istic
ĠWell s
Ġcomm itting
ĠQu inn
ĠV i
b ad
ĠN ag
ĠPr im
M obile
ĠSw ift
os ures
iz ards
Ġtourn aments
Ġb atch
Ġelev ated
Ġphys ician
Ġwas h
ĠN E
ĠLaur a
im port
ĠContin ued
Ġg au
Ġpro ving
Ġshort age
Ġpers istent
Ġdecl aring
Ġc ache
? !
ĠB order
ĠB ed
Ġident ities
Ġsp at
ne x
Ġst raw
ĠN eg
Ġbl end
ĠLe v
ĠD aw
at ched
ĠGl obe
umbl r
es pecially
ar cer
Ġinter im
ade qu
ith ub
ĠC SS
Ġpr ay
pro du
Ġst ark
col or
C are
T ur
ĠE S
Ġvill ain
Ġ8 9
Ġdistingu ish
Ġviol ate
ian ces
Ġinv isible
P ut
Ġles bian
u cc
fr ame
Ġgrad uated
ĠAss istant
Ġgal axy
p df
ĠB R
Ġart work
Ġexclud ed
Ġvar ied
th ree
Ġal iens
r one
Ġinc on
Ġover time
et e
ĠMach ine
Ġor b
Ġa ster
Ġdefin itive
Ġover see
Ġinter section
Ġpron ounced
V ID
Ġd rown
B uy
ĠD ue
ĠBre ak
Ġkick ing
aus ible
Ġrun ner
ĠLeg end
pt ic
ĠN ancy
Ġacc using
Ġc u
Ġassemb led
Ġrel ent
ĠF L
Ġinflu ences
ĠM B
T im
ĠCard inals
Ġpref erences
d ie
Ġpre y
Ġsub way
ĠN exus
Ġob esity
Ġrevel ations
m os
ĠCl ose
Ġren ov
S ports
Ġlay ing
ĠLad en
Ġfort une
Ġal umin
Ġbul lets
Ġa qu
ĠF ish
Ġbes ide
Ġhel met
ĠNe ither
Ġrisk y
ĠW ade
ĠR ud
Ġwar r
Ġuns uccess
om o
Ġimpl ies
Ġvary ing
mont on
am as
ĠAff ordable
Ġm ush
ernand ez
ĠSt ra
Ġrent al
Ġhand y
Ġtrib es
U ntil
ĠM ul
Ġtoile t
P ublic
ĠJ ong
Ġd read
Ġsh ower
p ic
un ks
ĠB iden
Ġkilomet ers
Ġse al
Ġre lying
ĠB annon
Ġbreak through
G reat
Ġban ner
Ġfavor able
ĠM itch
A c
ĠC ab
Ġne ural
ĠMem bers
ĠL uther
Ġn urse
II I
ul ates
ose velt
ĠWh atever
alth ough
Ġauthent ic
Ġtax i
Ġdiss ent
it utes
ĠE rd
Ġag g
Ġrecip es
Ġanaly ze
ES S
Ġreluct ant
Ġaim ing
rament o
ĠTra vel
ĠSe lect
ĠJo ined
Ġcred ited
Ġp p
ĠS O
Ġfam ously
Ġpat ience
Ġassass ination
Ġk icks
ĠCle an
ĠClass ic
Ġback ers
Ġun aware
Ġur gent
rib ly
ĠT ar
sy stem
Ġcl ause
Ġprof itable
ĠFl ight
Ġg i
Ġins pire
ine z
ah o
Ġvolunt ary
Ġfact ories
ul k
ĠJ obs
Ġsubst itute
Ġmass acre
ĠT arget
Ġmeas uring
Ġp sy
ĠH orn
Ġrecre ational
ĠCol lect
Ġsum mar
Ġpr ayers
ĠUS S
Ġca ut
Ġexpress ions
in ho
Ġp etro
Ġtrick y
th ird
V R
Ġoutf it
Ġp up
Ġmag azines
Cl ass
Ġdisc ourse
ĠC BC
ĠG R
Ġpass ive
Ġcy cles
ĠYan kees
econom ic
P H
b uild
ĠW ire
Ġsoc ially
Ġal beit
ĠV atican
H ub
omet own
Ġtext ure
Ġund oubtedly
Ġp ause
Ġp uck
b one
br aska
ĠGarc ia
N ational
A K
Ġstar ring
ĠHispan ic
Ġb out
ĠE ither
ĠK remlin
Ġatt ribute
ĠH R
s cience
rit ical
Ġf isher
y ang
Ġo d
ĠB att
n ut
ĠDr ag
l arg
C ong
Ġmos que
D irect
Americ a
Ġrece ivers
Ġcrew s
ĠT her
Ġhe ated
IM E
Ġst icks
Ġprovin ces
W ind
so ever
B ased
Ġwor ries
ĠFour th
Ġmin im
ĠAgr icult
ac hers
Ġcontract or
" ;
Ġdefend ant
Ġintention ally
ĠW inn
E vent
as ma
l ay
Ġmem orable
Ġpreced ent
Ġload ing
Ġman eu
CL A
Ġbroad ly
Ġf itting
ĠHol ocaust
Ġf oster
Ġsatisf action
ĠPolit ics
uc le
Ġour s
Ġdynam ics
Ġblog s
ĠPet e
ĠP il
er ting
ĠAr c
ra ke
ĠC row
ĠC ant
Ġfac ial
Ġse min
ĠInvest ig
t alk
ĠT ru
he astern
ĠC ou
ĠNob el
Ġbuff er
Ġsum mon
Ġm ant
ĠH ait
Ġval ued
Ġmulti player
Ġsupp lied
ĠAgree ment
Ġiniti ated
ĠPh D
am y
Ġstr anger
Ġattract ion
atern al
he tt
ĠAl ong
Ġ9 1
ĠDe al
ĠProt est
t ic
im ated
Ġdisappoint ment
t em
ĠHall oween
Ġstick ing
ĠAl ice
ĠG rey
Ġteam mate
p ound
ĠSam uel
in is
Ġprov es
Ġsear ched
e very
ĠEnter prise
app ro
ĠWork ing
Ġinc omes
Ġswe pt
ĠBir mingham
Ġmart ial
ĠM ans
h um
ĠL ot
off icial
Ġepid emic
ĠK or
ĠNash ville
Ġdim ensions
Ġun lock
ĠGirl s
Ġne o
ash i
ĠChief s
Ġentreprene ur
cer pt
Ġfict ional
REL ATED
With out
J apan
ĠN at
ĠTra il
IC K
ĠSn ap
Ġmis under
Ġst er
Ġbroad c
ĠBrew ing
Ġgrand father
Ġp ars
Ġl iv
ĠIsrael is
Ġinterpret ed
Ġtheat ers
ĠEngine ering
ĠN EW
ĠRe form
Ġ9 4
B ill
ĠL em
Ġachieve ments
Ġdomin ance
ĠFer r
Ġparam eter
Ġflaw s
de velop
Ġevent ual
te lling
Ġworry ing
C r
ort ing
Ġyoung est
Ġcontribut or
ell ing
Ġmod ify
Ġ ic
ĠA bs
c ulation
Ġmed i
am o
Ġint act
Ġconven ience
Ġar ise
f in
ĠC hen
am ation
ĠAl b
Ġsubm ission
Ġdef ines
ĠD ays
ĠF inn
RE E
ain ted
ĠG A
terror ism
Ġarch ive
Ġfin ale
Ġpred iction
ĠCom puter
Ġr ou
ĠCh and
L aw
ur as
Ġpo le
Ġobst acles
s im
ful ness
Ġsur render
Can ada
ĠC our
Ġtact ic
Ġphilosoph ical
ĠJ oint
ul in
inf o
ced es
Ġbicy cle
em ale
ĠBase ball
Ġen roll
Ġw ard
Ġtr ump
ost al
Ġpr isons
Ġdisc ont
ĠAl most
Ġinf lic
v ised
Ġsub t
Ġban ning
Ġmal icious
ast ing
ĠM icro
F R
ĠP ath
Ù Ħ
Ġreven ge
G old
ir med
ĠN ep
Un like
Ġnav al
Ġwhat soever
F T
Ġm aj
op ular
ange red
Ġnational ist
Ġentertain ing
un ique
L ong
' '
Ġdiv ine
cul us
Ġbas eline
lic ation
Ġcorrel ation
ĠS ach
Ġnetwork ing
Ġneighbour hood
roph ic
am bers
Ġsk ip
Ġshe ets
ĠS pect
ĠM es
ĠN HS
Ġneutral ity
L ater
ĠK ath
Ġg aps
Ġignor ance
ĠK ate
Ġorgan ised
ĠDiam ond
Ġtouch ing
Ġconcent rated
ĠMo z
Ġconsult ing
Ġregul ated
Ġinter medi
in formation
Ġassault ed
Ġover r
int age
........ ........
D et
Ġdu pl
f ull
Ġopp ression
ĠPortug al
ĠB ear
ĠS old
Ġn est
Ġle thal
Ġthe or
Ġc yn
c m
Ġanal og
ment ation
Ġev olve
Ġtw itter
ĠM atter
Ġinvent ory
Ġeuro s
he nd
all ow
Ġsa ves
Ġris es
ĠP oly
Ġcur s
Ġdesign ing
Ġmac ro
Ġconfront ation
Ġhor izont
Rem ember
ast rous
ĠPict ures
ĠHol mes
Ġan k
ĠC ox
AN T
Ġn asty
M arch
ĠAn imal
Ġimport s
AS T
umb ai
Ġdr ain
us hing
Ġc ra
ĠE le
Ġquant ity
an ne
Ġcrowd ed
Ġover ly
ĠRo osevelt
Ġsk i
bl og
Ġadminist rators
sp oken
ĠMot ors
A f
om i
ob i
Ġscript s
Ġres ur
ĠCar ib
Ġinv itation
le ased
Ġto oth
rav is
Ġvar iant
St ring
Ġoff enders
irl ines
Ġh ated
on ies
Ġdon or
Ġse aled
us cript
ĠBe er
Ġmer it
ĠL G
Ġc um
In tern
ĠFire fox
Ch ar
Ġcommit ments
l on
ne apolis
Cal if
ĠG ive
Ġr ab
ĠHug hes
ĠUS D
h ots
Ġremem bers
Ġ196 5
m und
Ġfix es
Ġcost ume
ĠAngel a
Ġn er
ĠD A
ĠEp isode
ĠSur v
Ġbr ick
ar u
Over all
l ation
T ex
Ġ196 4
ĠR PG
Pl ay
ĠPD F
Ġnav igation
Ã¼ r
Ġp add
c lick
ĠRodrig uez
ĠN athan
Ġcomprom ised
as ures
Ġinc arcer
Ġstar ters
ĠFin land
col m
ĠPal mer
us ions
Ġfree ze
T er
Ġwr ist
ere k
Ġreject ion
Ġmathemat ical
t w
Ġprec ision
im eter
Ġcur rencies
Ġflaw ed
li ers
sc ript
ĠR aw
ĠK az
Ġbelong ing
ĠF an
Ġt ire
Ġembarrass ing
Ġpitch ing
ĠM I
Ġcomm em
Ġover th
Ġcl ash
Ġrob bery
ĠD ise
Ġhol idays
ĠL an
gg le
ĠI L
F ox
Ġab uses
Ġquestion able
ĠG P
ĠBroad way
ch ief
Ġc ord
Ġb ay
Ġpresent ing
Ġcur ric
head s
Ġpro xy
ĠF oster
Ġble w
ĠOccup y
ĠQueens land
ĠK os
Ġn erve
ĠR ing
our ge
Ġupgr ades
are z
Ġconstrain ts
Ġun cle
Ġapp et
B E
ment ioned
ĠS ullivan
ĠIndian apolis
Ġdispro portion
ic ating
ĠT C
anc ies
Ġinfect ions
Ġstead ily
Ġremind s
Ġrend ered
ĠBoe ing
ĠW ol
Ġunc overed
bel iev
ĠDun can
Ġad oles
Ġpharm aceutical
Ġn arc
ĠCh ase
Ġball ots
Ġbase ment
Ġtradem ark
ĠRod gers
ĠE RA
M ac
as se
Ġcont ing
ĠM E
Ġb ats
Con f
ĠSh aw
ĠMont ana
ah an
Ġopt ed
Ġa pt
ed uc
Ġdist ribute
Ġbeh ave
W ASHINGTON
ri ved
Ġout look
U P
Ġj am
Ġmanufact ured
as ive
Ġgrand mother
Ġm ast
Ġdig it
ilit ary
ĠP ubl
Ġboot s
ide os
Ġst iff
serv ice
Ġpack s
ĠR acing
O pen
Ġtu ition
Ġback wards
Ġa usterity
the m
ĠMoh ammed
ĠC ris
rit ies
Å į
Ġsu ited
Â ©
Ġun int
Ġm im
Ġsaf egu
Ġcomple ment
Ġevangel ical
atter ing
Ġlink ing
Ġmake up
Ġprison er
Ġnons ense
Ġcontain ers
Ġdownload ed
Ġoff ence
Ġins ert
P erson
Ġen v
Ġat e
ĠC abinet
Ġextrem ist
Ġthro at
orig inal
Ġint imate
Ġshar ply
esc ope
' :
Ġprote ins
Ġcred entials
U lt
ĠL ore
Ġcorrespond ent
min ster
ic ides
ĠA G
Ġsecret ly
ĠAth let
Ġinj ust
Ġcol umns
Ġhot els
ĠIn iti
Ġk g
Ġper ce
Ġtrack ed
Ġpress ures
r aged
Ġan throp
se en
Ġsatell ites
ĠAss ange
l ass
Ġland l
Ġbud gets
ĠA ven
ĠC op
V er
Ġqual ifying
Ġhack ed
ĠS ens
ĠBaghd ad
Ġcomp ounds
Ġoption al
Ġto kens
do ing
Ġinv alid
Ġpun ished
Ġwho ever
Ġemot ionally
Ġr ivers
Ġsurv iving
Ġsol ving
Ġinject ion
Ġc ups
Ġelimin ating
P ort
o os
Ġaggress ively
ĠChance llor
ĠK ash
ĠNiger ia
Ġmanip ulation
Ġlif ting
Ġlaun ches
ĠCl in
Ġhor izon
Ġch ron
Ġham mer
Ġo ven
Ġc attle
Ġres id
Ġl as
d ro
ĠS ierra
Ke ep
Ġpl ag
z h
Ġbo oth
J on
Ġmet ric
Ġswe at
Ġsubur ban
ibl ical
ĠL l
ĠAle ppo
Se pt
ĠStud ents
ĠP ink
D I
Ġhor rific
Ġnice ly
ĠPet erson
un ge
Ġextrem ists
ĠBrother hood
ĠY e
ĠBr ig
ĠJes se
Sm ith
Ġconclud es
Ġbrew ery
Ġmess aging
Aust ral
Ġde lete
Ġpublic ity
Hill ary
as a
et ition
ĠPresident ial
se arch
ĠCitiz ens
ĠFI FA
ĠSac ramento
ind ex
Ġh ilar
Ġjo ins
F ire
pr ises
ĠCom b
er als
ov o
co very
Ġcompl aining
Ġprev ents
Ġamb ul
S O
ĠM ine
ĠBangl adesh
Ġ: )
Ġprem ise
ĠH erald
com pass
iction ary
Ġvac uum
per m
Ġrecon c
zb ollah
Ġs ab
Ġr ides
ĠCat al
child ren
est a
Ġdism ant
ĠAlp ha
ov ich
Ġbr ush
J une
Ġadvis ers
ĠZ immer
OM E
E r
s ocial
Ġhaz ard
it ches
Ġjust ification
N one
Ġunder go
s qu
less ness
se in
Ġdest ructive
ĠQu ick
Ġtrad es
Ġanch or
ĠB elt
00 1
Ġneighb oring
ĠA round
ĠC ell
ĠR O
Ġent ers
Ġpict ured
ĠHer itage
k now
Ġsle e
Ġtroub ling
Ġvirt ue
Ġtransf ers
Ġref und
Ġacc idents
ĠOver all
Ġo un
ĠCr iminal
pl ant
ĠCol in
Ġrecord ings
Ġannoy ing
ĠLeg al
Ġflo at
Ġfe as
Ġsovere ign
Ġcor ps
iter ranean
Up dated
.âĢĻ âĢĿ
Ġtroub les
ĠP red
Ġnon etheless
Ġun constitutional
Ġpur ple
ĠEd monton
Ġ19 45
ertain ly
Ġle ase
Ġdis astrous
Ġcommission ed
ĠAn aly
ĠJess ica
Ġplug in
E mail
el er
Sc ott
Ġby pass
ĠMS NBC
Ġcomm ittees
j e
Ġam ateur
l iter
pri v
st ick
ĠH TC
Ġcompan ion
Ġdim ension
Ġg reed
ĠHe y
ĠCost a
Ġte aches
atern ity
Ġir rit
at isf
Ġden ies
ĠCh ip
Ġl iver
ĠRe ally
Ġj acket
Ġ q
ĠAll ah
ok o
i ological
M C
Ġsince re
sp ons
ĠS ave
Ġg re
Be ing
Ġin accur
gener ation
ĠZ one
Ġexam ining
sh ow
ĠM ong
Ġmed itation
In vest
ip se
Ġcens orship
ĠD ri
l ocal
ĠD rew
Ob viously
ens on
ĠPot ter
ĠPict ure
Ġlegal ization
G N
OR K
ĠM urd
clus ive
Ġdeli vers
um atic
ĠG ot
ĠR ivers
Ġin adequ
us hed
Ġprom in
ĠOb serv
ĠAh med
eal ous
ĠBre nd
Ġop io
Ġinter pre
Ġrandom ly
g om
ĠAnt ar
ã Ĥ
Ġimpl icit
S um
Ġboss es
Ġintern ationally
ĠChall enge
ĠC av
Ġexpl ored
Ġforeign ers
Ġunemploy ed
ĠAct iv
ĠL ic
ĠSh in
Ġcalcul ate
Ġgrad uates
ĠInc re
Ġh ike
Ġhand gun
K K
ĠG round
ĠE arlier
Ġ0 3
Ġintegr ate
m us
Ġb er
Ġcat ches
Ġcl ashes
ĠFO X
ĠAr med
leg al
ĠA irlines
ĠNe braska
Ġdisp utes
w ould
EL L
Ġ Å
if ully
Ġl azy
ĠC T
ĠP H
Ġb ans
ĠIm agine
worth y
âĢĿ :
ĠÂ °
Ġirre levant
Ġp ad
if iable
ĠG ore
oun cing
vent ions
at hetic
Ġaccord ance
ĠTele graph
ĠL ives
Ġd war
Ġretain ed
Ġdef enses
Ġcig arettes
augh s
Ġadj acent
Ġfor k
Ġpriv at
ur ious
ific ant
ag ain
c all
Ġe rect
Ġland mark
ĠBar n
Ġencour ages
if iers
g s
ĠClar ke
F ull
Ġnin th
ĠCurrent ly
Ġprop ose
Ġcomp act
Ġstri pped
Ġterr ifying
v ial
ve t
Ġint ends
Ġch unk
min ent
ĠPrin cess
ĠComm ander
av ailable
Ġp el
ie ve
Ġmole cules
play ing
ĠF ac
ust ain
Ġreal ised
Ġdiscon nect
g reat
Ġcalcul ations
Ġstud ios
Ġlight ning
Ġhyp oc
ĠCub s
Ġcampaign ing
Ġenact ed
ĠNaz is
c d
ĠB ald
Ġfar mer
Ġtoug her
Ġover head
Ġcal ories
Ġintrig uing
Ġrecru ited
l ength
Ġkn ees
Ġsan ction
uff ed
Ġclar ify
ĠR af
Ġconf erences
Ġinvestig ative
Ġeconom ically
ĠEv il
Ġaff irm
b oth
ver ted
oot s
] )
M uch
Ġsubst ances
Ġdep ict
av i
ĠZ ach
o ven
Ġsc are
ĠS em
Ġ16 0
d esc
Ġprof iles
Ġsymb olic
[ /
Ġmor ality
Ġpro long
Ġsocial ism
Ġcrit ique
yl an
Ġatt ach
Ġâ Ĩ
Ġr ugby
N AS
Ġshe ep
Ġcent res
undred s
Ġgu ided
ĠO z
ĠWeek ly
Ġhomosexual ity
Ġflow ing
ur ry
E xt
ĠM aur
iz ers
Ġpres erved
ĠT u
ĠP owell
Ġco pper
Ġo k
Ġcoll ision
Ġload s
Ġst ones
uff y
ĠBoe hner
to o
Ġplace ment
Ġassess ed
Ġunw illing
Ġsl ice
Ġnorm s
Ġprosper ity
b ot
Ġproceed s
ĠPro cess
y our
Ġn aming
Ġcou pled
Ġfurn iture
U se
Ġspecial ized
imp se
Ġnot ified
Ġgl impse
U K
ĠSen ators
ĠTib et
Ġimag ery
Ġrelig ions
ĠW ing
Ġple asant
Ġsubur bs
ĠN ar
R eal
Ġsequ ences
Ġsimpl er
Ġhed ge
Ġdeliber ate
Ġcrit ically
Ġfav ored
Ġfif ty
Ġdr agon
ĠD ynam
ĠChe m
Ġexpl oded
os ity
ĠTr aining
ig ue
ĠO P
Ġch airs
Ġporn ography
op ic
ĠV oice
ĠCarib bean
it ations
ĠWe ather
ĠEff ect
ĠSteven s
anche z
pe ction
L ear
p ay
ĠP in
ĠT ogether
Ġinc om
ĠJo el
fl u
Ġdrag ged
Ġind ie
ok ia
ĠHung ary
Ġcryptocur rency
Ġmind set
Ġref uses
Ġoffer ings
v or
Ġencoun ters
qu ire
Ġhe y
Ġtri o
Ġl ending
ĠMed iterranean
ĠAny one
Ġa ug
Ġh ometown
ĠBe aut
Hist ory
B ron
ew s
ograph ical
Ġrevers ed
Ġpack aging
C ount
T able
Ġemphas ized
ĠPro s
Ġinfring e
ĠF ight
ĠAlex and
Ġsket ch
] ;
ĠF am
Ġincorpor ated
ĠC ulture
ident ified
r ams
Ã¡ n
ograp her
Ġreal ise
p ol
ĠH E
Ġpot ent
Ġgl ance
per t
ĠI de
Ġen velop
ĠC and
Ġcur b
Ġgest ure
izz ard
ĠMil an
ain er
by e
i ably
Ġst ole
Ġdisc retion
Ġv ag
Ġfl ower
J uly
Ġbre ed
Ġdis gr
âĢĶâĢĶâĢĶâĢĶ âĢĶâĢĶâĢĶâĢĶ
Ġtravel s
Ġsc roll
Ġtal ents
G en
S am
Ġ12 5
Ġthr illed
ĠR u
ĠU ser
lin ing
ues e
ĠErd ogan
G R
Ġturn out
ul ously
ia z
Ġcop e
imens ional
Ġcontin ually
p her
ĠMin neapolis
Ġcance led
Ġany time
Ġa irst
Ġindict ment
Ġstrength s
J im
Ġmin ers
am pton
ĠE ight
ĠCons ider
ĠImm igration
ri ans
Ġfather s
ĠH ig
ab i
Ġshare holders
F eb
ed In
Ġcommun ist
ĠLu is
Ġcontrad ict
gh ai
ĠEdd ie
> <
A pril
Ġcont empt
Ġder iv
Ġm old
Ġl ing
ĠP ic
Ġaccount ed
on est
om ers
ĠM umbai
ost ic
Ġflee ing
ophob ia
Ġrest rain
ĠMus k
k n
Ġha un
Ġdes ires
ĠZ en
ous ands
ĠEurope ans
ond e
Ġapplic able
Ġthread s
Ġres il
Ġtow ers
omet er
asc us
Ġg ambling
ĠPriv acy
u art
Ġvo iced
Ġdecent ral
Ġreb ounds
at able
K ing
ĠK an
Ġs add
ig s
ĠK er
ed e
Ġlack ed
ĠM ull
c urrent
Ġhas ht
Ġpract icing
________________ ________________
ĠGO OD
B rien
ĠD ian
G L
Ġind ivid
Ġorder ing
Ġfact ions
à ¸
Ġimport ed
Ġnot ification
mer cial
Ġd airy
Ġoverwhelming ly
oc y
Ġdict ators
et on
iber al
Ġhabit at
m ill
. ).
oll o
rik es
ĠLook ing
p os
Ġcritic ised
ĠPal m
Ġel ites
Ġscholars hip
Un ited
Ġins pection
Ġman uscript
Ġhead er
Ġref res
Ġdep icted
ĠStr ong
Ġte lev
ĠÃ ł
cont ent
Ñ ı
Ġsc al
ĠE thereum
Ġfru its
ĠT ask
ĠK ay
Ġ9 00
ĠT ouch
ĠTh ai
Ġpredict able
ĠMart inez
Ġ0 7
Ġconv ictions
ĠGib son
sh aped
Ġmeasure ment
an ies
ĠM aking
Ġcollect ions
Ġsw ap
ĠJ ared
Ġsur plus
ĠCast ro
he ll
Ġfemin ism
Ġra ids
Ġwas ted
Ġactiv ated
re cy
charg ed
Ġdist ress
M att
Ġsu ite
Ġprec ip
Ġab ortions
Ġfe ver
Ġcolumn ist
ĠCh ad
******** ********
Ġpoet ry
Ġfinger print
ĠLat ino
ny der
Ġiss uing
Ġdepos its
Ġorg ans
Â Ģ
Ġsu cc
ĠHel p
ĠHT TP
O kay
ol ics
M icrosoft
ĠUn ity
H el
ens en
on ut
Ġl ips
Ġbe ans
ĠWood s
Ġforth coming
ĠL akers
ke ll
ĠB ak
F eed
Ġactiv ation
and ing
Ġwhe at
ĠB aby
Ġun law
sec ution
ro d
OS E
Ġappreci ated
gh azi
b b
ĠB esides
Ġpurs ued
s ight
Ġsatisf y
ĠMc D
ĠCo ff
Ġoff s
Ġj ets
ar in
ĠW a
Ġrall ies
gr at
Ġconst itute
Ġwe aker
et a
Ġprogress ion
ĠJ ed
m em
Ġtr im
Ġlit igation
Ġsup reme
Ġt ender
H ead
Ġle ver
Ġfin ances
Ġcons cience
Ġru in
Ġcomp iler
Ġh urd
ĠAdv anced
ĠN ine
ĠDem ocracy
ĠTex ans
ĠLight ning
ĠW es
ĠÐ ²
Ġcrack down
ĠMer cedes
S H
tr ue
T w
Ġpost ers
Ġch ick
Ġefficient ly
m ember
Ġamb ig
Ġschol ar
ĠJeff rey
ab lo
Ġd awn
Ġfre el
otten ham
em et
ĠAn a
ĠCh an
Ġwh oles
Ġj unk
Ġkilomet res
AM E
Ġobsc ure
ĠNorm an
J eff
Ġbe ast
ĠY ellow
Ġguarant ees
Ġcar ing
ĠE P
P ac
k ers
ĠC urt
gom ery
Ġhel m
Ġuncons cious
ĠM ath
ĠAdd ed
ug ar
ĠLabor atory
Ġstart ups
Ġactiv ism
âĶĢ âĶĢ
um my
ĠToy ota
Ġneed ing
ĠPro per
Ġconfir ms
ce ans
Ġmo ist
ĠM ade
ĠTra ff
ĠPoint s
Ġneg lig
ask et
p resident
Ġdes cent
Ġliber ties
Ġinf inite
Ġparad ig
s omething
Ġm g
Ġconcent rations
ch ant
ĠD im
Te am
ĠG am
on al
Ġsc attered
Ġthreat ens
Ġaccording ly
ac cess
Ġb ored
Ġinstall ing
Ġrock ets
ĠStud ent
Ġs id
ft y
Ġsec uring
Ġro oted
ĠVis it
os ph
ĠK enn
Ġdis hes
Ġinstruct ed
Ġwood s
Ġpass port
ĠCreat ive
Ġport rait
H ello
Ġgot ta
Ġir ony
ĠHud son
Rober t
ĠGand hi
h u
Ġtransport ed
Ġunh appy
Ġassert ion
h ad
200 7
ĠK in
Ġfix ing
ud a
Ġwat ches
ĠMag n
s i
Ġd ining
Ġman ually
m ission
ĠA ub
ãĢ ģ
ĠD I
Ġcustom s
Ġcont race
E U
Ġint ensive
Ġres et
ĠCan cer
ĠD w
M o
Ġprofess ors
Ġhy pe
Ġcry stal
ĠStat istics
Ġpat ents
Ġinf ilt
ĠAh mad
ĠFred er
ĠNY C
Ġassign ment
n ia
ĠMarg aret
d eb
iment al
ys on
Ġund ocumented
us c
Ġremain der
Ġsp here
p aid
raw ling
Ġ0 9
h or
Ġr abb
ĠMos ul
ĠHe zbollah
ĠS au
Ġ196 6
Sh ort
ĠSpr ings
Ġshout ing
Ġhe ating
um ar
ĠBoy s
Ġceleb rities
Ġch im
ĠInter ior
ĠÐ ½
ĠB omb
ĠB apt
' )
Ġg ly
Ġj azz
ĠYou th
Ġsurvey ed
Ġtra ject
Ġproject ions
am mar
v oc
ĠW alt
V M
Ġpost season
ĠH S
ib les
ok u
ĠC it
Ġreact or
Ġen vision
Ġc abin
Ġmarg ins
Ġsl ated
Ġbull ying
ĠS ri
Ġdis gu
il ia
ĠL ion
own er
M ax
Ġmix ing
Ġsystem atic
Ġeas iest
Ġbackground s
ateg ory
Ġt ennis
Ġvacc ines
Ġcommod ity
Ġsound track
Ġfavor ites
Ġment ality
Ġsh ark
ĠM eg
ĠSum mit
Ġmin es
Ġconce aled
Ġacadem ics
ĠL arge
Ġge omet
Ġapart ments
le ague
Ġaer ial
ĠO pt
ĠSqu ad
ĠB anks
V I
Ġbe ats
Ġpr one
Ġadvent ures
Ġbatt ling
Ġsu e
Ġgr im
uck ed
Ġdig est
ĠBM W
Ġdress ing
ĠCom cast
Ġtou ches
est e
Ġforg ot
Ġm apping
Ġcome back
Ġgrass roots
y on
Ġw ra
en z
ĠL ower
Ġdis puted
Ġbl ade
ĠMon ster
P ower
ĠW ang
est on
ĠT ree
ĠC ool
ĠMov ie
emet ery
ĠS ett
ris k
Ġpromot ional
ĠId ent
Ġd ug
Ġc aucus
Ġhe els
Ġ( Â£
Ġpark ed
ĠPri or
ĠC P
ĠG aming
ĠCom ic
Ġfl ies
Ġshout ed
Ġc ables
els h
Ġsm iling
ĠH onda
Ġappreci ation
Ġin k
Ġcontinu ously
J oe
Ġmet eor
ĠY ale
Ġl ied
ĠMal colm
ĠI R
at ics
ad ian
Ġflags hip
Ġindic ator
Ġgas oline
Ġnut rition
r ising
Ġble eding
ĠOper ations
j pg
Ġdispl aced
.' "
Ġhand les
agg ering
Ġdep uties
Ġremote ly
ĠForm ula
Ġsl aughter
Ġmathemat ics
_ {
ĠD rop
ĠTe levision
Ġsc ales
UL L
Ġrhyth m
ĠKen ya
g ue
Ġ0 4
Ġcol ony
Ġsh oe
ys ical
F ive
ĠInd ependence
Ġtrop ical
ĠAb raham
Ġan om
ĠF alls
Ġstr angers
at ility
ens ed
Ġse gments
ĠN ad
Ġstaff ers
Ġmount ing
Ġgen ocide
E nd
ĠF o
Ġca f
Ġsc i
Ġw ield
ĠDam ascus
Ġm ud
ĠÂ »
Ind ia
Ġ0 8
ing le
Ġpolic ing
ĠBelg ian
Ġver bal
es ville
Ġacc laim
Ġfl ames
ĠBen ghazi
ogen ic
id ity
ĠH im
and o
Ġimm unity
ĠCol lection
Ġill usion
Ġ( -
Ġch rom
ĠS id
ĠFin als
ĠP ract
Ġstat ute
Ġcle aring
Ġâ ĸ
Ġl inem
Ġdis reg
ĠVin cent
Ġpull s
Ġsh ook
Ġprompt ing
we b
Ġdig ging
Ġunp redict
Ġport ions
Ġcompet itor
ĠSome one
Ġinherent ly
Ġmulti pl
Ġcharacter istic
Ġic ons
Ġcompar isons
Ġd ough
Ġbr idges
Ġconnect ivity
Ġs od
Ġg orge
ab lish
s un
Ġbench mark
ix els
ph is
Ġ196 3
Ġaffili ated
ĠSt rip
w age
or ically
ĠCry stal
Ġamb itions
ĠSim p
l isted
Ġto pped
ĠP etro
Ġsh aking
ad itional
Ġu pt
ĠCar r
oul os
ipe g
Ġcertain ty
ĠRaven s
Ġcent ered
Ġsmall est
Ã º
Ġbehavior al
ĠM ons
ĠWe ap
ĠCoun ter
Ġcro re
Ġbl unt
ĠWh ats
ĠMajor ity
Ġm ol
ĠA K
M D
ĠNew castle
Ġdispos al
ĠHop efully
H C
ĠS K
Ġapplic ants
ĠIniti ative
Ġfortun ate
Ġw ished
Ġpit ched
mid t
ĠD elta
th reat
Ġd are
Ġl i
cific ally
atch ing
Ġsynt ax
Ġup hold
Ġmusic ian
ĠUp on
B o
ĠTom my
Ġwild ly
Ġimpact ed
P ass
Ġmed ieval
Ġreprodu ctive
yn asty
Ġstorm s
Ġdis ruption
ĠSch olar
ig ion
Ġpit ches
j u
Ġcar n
ĠBr ight
ĠCont ent
Ġwe ighed
Ġcontribut ors
Ġm i
Ġview er
ĠB ren
Ġst ap
ĠBr ain
Ġur anium
Christ ian
ĠSat an
Ġat op
ĠPortug uese
F il
on gh
Ġanx ious
ĠC opyright
ud ed
Ġcook ed
ĠApp arently
ĠCo in
Ġfoot print
Ġamend ments
ĠW ITH
yn c
L ab
Ġbe es
ĠM end
ĠC ash
Ġaest hetic
r ise
ĠX i
lud ed
ĠWal mart
we gian
Ġgl ac
m ount
Ġaver aging
Â »
Ġeat en
Ġst int
Ġadjust ments
ĠH ERE
ĠR ank
ĠTH IS
sh aring
ean or
Ġst akes
Ġas leep
os aur
Ph il
el ed
Ġindivid ually
run ning
Ġtheat re
ĠEm peror
im g
Ġd ent
Ġst ub
Ġim minent
Ġfaith ful
W omen
Ġrep ository
Ġpat ches
ĠB ody
ĠW ings
ong yang
In f
Ġ| |
ĠArch itect
ĠNe uro
Ġprior it
1 30
Ġr ipped
Ð ¼
ĠRe yn
Ġcinem a
Ġem pir
Ġadvis ory
h art
Ä ĩ
ĠW ere
B ro
ĠM is
Ġsh adows
Ġdes erved
Ġattend ees
Ġst aring
Ġve ctor
ĠOther wise
ĠR ule
Ġphys ic
Ġh ipp
Ġfound ations
Ġdemonst rators
ĠD anish
ĠK urt
igg s
ĠIndust ry
Ġr anges
ĠG raph
Ġcru ise
he y
ĠSh a
Ġcon grat
ĠLegisl ature
âĢĿ ).
ĠSt alin
Ġmy st
ĠA CC
Ġe go
Ġrecover ing
ur ally
Ġp und
Ñ ĭ
ot ive
N E
Ġfe ather
Ġsufficient ly
AC E
ĠCar roll
ĠK aren
Ġdistinct ive
Ġsp ont
tit le
ĠB ills
Ġlegitim acy
akes pe
ĠCrime a
Ġinspir ing
Ġque ue
Ed itor
Qu est
d ollar
Ġbon uses
Ġcl ue
Ġjail ed
ĠVal ent
Ġcand y
Ġju ven
en ly
p ical
Ġdep osit
N on
Ġcert ified
Every thing
Ġrail way
cl ub
et ooth
AS E
Ġhier archy
T Y
Ġ0 5
ĠReds kins
Ġclim bed
Ġhistor ians
Ġund erest
s ite
ĠM ann
C all
Ġincumb ent
ĠR A
Ġal erts
ĠColomb ia
Ġpl ausible
ĠIm pro
Ġadjust ment
Ġun believ
Ġmetab ol
ĠA er
Ġsupp ress
Ġcr ashes
Ġab usive
ess age
Ġrein force
Ġsuprem ac
Ġcr ap
ON E
ĠLe ave
Ste ve
Ġn ail
ĠS QL
Ġphys icians
Ġc age
Ġn ucle
Ġcar b
Ġcook ies
,' '
ope z
Ġexplan ations
ĠUlt imate
le en
Ġque en
ĠGener ation
Ġt ide
sh it
ĠCons umer
Ġmin imize
âĢĿ ?
Ġcont ender
s ay
Ġut ilities
pect ives
ult z
Ġimprison ment
Ġro d
Ġblow ing
\ \
Ġamb ition
m ax
Ġa fore
ĠS ale
Ġ Ñģ
f ix
Ġshe lf
Ġe cl
Ġfound ers
Ġneg lect
w ait
Ġposition ed
Ġresc ued
% ),
Ġoff enses
ĠU A
Ġconsult ation
Ġlight ly
ot er
ad ata
ĠD ame
Ġpar as
ĠId aho
Ġdirect ing
Ġcig arette
Ġelect orate
Ġdeleg ation
Ġvel ocity
Ġzomb ie
ĠShan ghai
Ġflav ors
ould er
ĠSimp son
M E
Ġgi ants
ĠCommon wealth
Ġmotorcy cle
ĠB ent
ĠWest minster
Ġansw ering
AC T
om ore
an as
Ġsc am
Ġboy cott
Ġde ar
Ġmet er
ĠPer formance
ĠCh ampion
Ġeduc ate
Any one
P eter
Ġhuge ly
Ġbox ing
Ġincorpor ate
Ġsie ge
ĠMet al
ĠY u
Ġby tes
Ġpersu ade
Ġpromot ions
ĠM ob
Not es
ĠK i
Ġexplo ited
c ourt
Ġv icious
Ġ( +
Ġal igned
ĠGr an
ĠThe ory
S il
ĠCol ts
Ġhalf way
S ure
ĠLim ited
ĠLeon ard
Ġrun ners
min ing
chn ology
ĠS anchez
orth y
Ġrow s
uter te
ach t
Ġab rupt
gg ing
St r
12 5
Ġcollect ively
ĠArm strong
ĠM asters
ing rich
Ġlad der
Ġch asing
Ġsim ulation
ow itz
prising ly
Ġoff line
ĠL oc
âĸĪ âĸĪ
Ġluc rative
Ġf reed
ĠS witch
b ra
um per
Ġgener ates
Ġrecogn ised
g irl
Ġshow case
Ġintegr al
Ġconsist ing
Ġplant ed
Ġaccess ed
Ġautonom y
Ġdies el
Ġp ork
O H
Ġmor ph
ĠEs pecially
Ġelement ary
ason able
Ġsli pped
Ġfif teen
Ġassoci ates
n els
} ,
ĠP orter
ĠF ix
Ġapp ar
erv ative
Ġabsor b
ĠSocial ist
ĠH az
ĠU CLA
Ġcurric ulum
ĠV M
ĠG N
ĠO culus
ĠSteel ers
g ow
Ġopt imal
ĠK end
ĠK ane
Ġmilit ia
Ġp iano
ĠX L
OU R
er ness
Ġlow ered
Ã© e
akespe are
Ġmar riages
ĠÐ ¿
Ġjer sey
ĠConfeder ate
ĠM add
ĠAn alysis
als h
Ġcere mon
ĠW ant
C onst
Ġsp ike
ĠInt egr
ar se
ik o
ĠM oss
ĠK o
Ġadv ancing
Ġancest ors
Ġman a
Ġop ener
Ġnegoti ated
D el
ad ays
Ass ad
Ġappeal ed
h at
Ġpo em
Ġacc ent
Ġauthor itarian
he art
Ġrecruit ment
ĠPriv ate
Ġmatch up
ĠEm ir
C AR
Ġs oup
Ġquant ities
Ġslow ed
Ġimp osing
Ġeff ic
ew ay
ĠStr ateg
Ġsatisf ying
Ġinhabit ants
Ġport able
Ġmanip ulate
Ġquarterback s
Ġpist ol
ĠS add
Ġbl at
Ù İ
n is
t ax
k ar
ĠW E
Ġunp opular
Ġw itch
Ġprotect s
ra vel
asc ript
A G
Ġt a
Ġillust rate
Ġalumin um
I ran
am iliar
Ġt ales
Ġwe ed
Ġbl oc
ĠCre ate
ĠW or
ĠI Q
ĠâĢľ [
il itation
Ġloc ate
Ġclass ification
Ġb ru
Ġconsist ed
st ation
S N
Ġhon ored
ĠN ut
Ġ __
ĠT ravis
ĠMon th
Ġpay roll
c amp
Ġper ipher
Ġemb ark
Ġd orm
ĠH ousing
Ġhom icide
B as
F ore
ĠJ ama
Ġtreat s
Ġbr on
ĠQ ur
ĠÂ Ń
al one
Ġar rog
Ġfact ion
OR D
Ġdelight ed
Ġprem ature
n ar
im ity
ĠEn forcement
op oulos
def ense
Ġtrave lled
Ġo we
Ġblog ger
ĠS ie
Ġup s
Ġcrus hed
Ġche ss
P age
ĠS B
Ġres ent
Ġconsum ing
ĠGreat er
add afi
Ġprotest ing
Ð ´
Ġp iss
v ance
Ġdiam eter
Ġadminist rator
Ġp estic
ir ies
ale z
Ġhapp ily
or um
Ġfert il
gu ard
Ġlog s
reg ular
ĠM ol
ĠM ills
um ed
ie ce
3 50
ĠS outheast
ĠD olphins
Ġmet rics
Ġinv ention
Ġp ond
Ġacadem y
Ġdec isive
1 000
Ġt ended
ro v
Ġo w
ĠAmb assador
ĠA F
ĠS nyder
Ġart illery
u ber
Ġy oga
Ġover view
s u
Not hing
Ġat omic
Ġprol ifer
Ġsent encing
ĠMin i
ĠN GO
ĠPr ison
ere rs
a que
Ġg ates
ĠDar win
Ġuns upp
Ġinstrument al
ĠOrig inal
Ġâ Ī
Ġno ble
Ġsimilar ities
att ack
Ġpat ron
Tex as
C re
ĠG or
Ġrecogn ise
Ġclin ics
ĠCath olics
ĠTer min
Ġdetect ive
M ENT
ibl ings
Ġdri ed
ĠCase y
ĠD erek
ator ial
o ir
Ġinc ap
M ad
ĠS eth
el ong
ĠK il
AS S
road s
F ile
ĠDel aware
Cont act
il ight
ell ed
Ġsl ammed
bro ok
ener ation
occ up
Ġconstitu ents
ob a
Ġal arming
ke eping
ĠH ence
Ġliv est
Ġdat as
ĠF ace
Ġrest oration
an ed
Ġu b
ĠCan n
el ines
Ġprob ation
Ġupgr aded
ĠRichard son
Ġyield s
in ner
ĠBre tt
Ġincl ined
Ġcontem pl
id y
Ġven ues
ĠV ent
Ġlad ies
ĠO ften
Ġu m
Ġqu ot
ĠGl as
Ġrif les
R yan
Ġd ude
Ġv ic
Ġmark ing
Ġprohib ition
ĠSal v
Ġsp ying
Ġcomb o
it ous
Ġseek ers
ĠLouis ville
Cont in
Ġgen ome
met ic
Ġenthusi astic
ret ty
Ġmasc ul
Ġincons istent
Ø §
ĠNich olas
Ġfart her
ant om
Ġbreat he
ĠL ate
ourn ament
s n
ĠM ut
Ġshow c
And rew
Ġ196 2
ĠWe bsite
Ġsl ides
ash a
ĠT on
ĠR ut
ĠHus sein
Ġappl aud
Ġr ider
Ġapp le
Ġinvestig ator
ment al
Ġbi ased
Ġfrag ile
Ġc ad
ĠDise ase
ĠSc reen
ĠGene va
ĠW elsh
Ġve t
ĠB O
Ġn odd
W ould
ĠHop kins
ef e
Ġthr ust
connect ed
Ġmis er
z el
Ġlic ence
Ġpr iced
Re view
Ġh ref
ĠN okia
Ġremark ably
ĠNo ah
am on
Ġexp ans
Ġcor rection
Ġp ul
Ġhum ble
ll ah
ĠRepresent ative
S cient
ĠPar ks
Ġl ion
Ġpost p
ĠMont gomery
Ġvari ants
Ġadvis or
ĠMatthew s
Ġex cerpt
ĠN ord
ĠLoad ing
V is
ich t
ns ic
Ġrecip ients
dep th
r ational
Ġdep ressed
Ġsynt hetic
Ġshel ves
H ome
Ġun related
lev ard
Ġweakness es
olit ics
Ġbail out
Ġend angered
ĠC rew
C ome
Ġt ires
Ġcl ips
Ġcatast rophic
Ġspe ar
Ġtro phy
ĠNorth west
ĠHuff ington
Ġtight ly
ĠD j
Ġjud ged
ĠP ierre
Ġc otton
ur bed
s ix
og yn
ĠEll is
ĠLear n
ĠC airo
Ġn ostal
N ob
Ġnic he
Ġcon form
ĠE t
b ach
Ġev olving
Ġo ath
ĠLeaf s
Ġutil ize
ĠS pl
Ġalleg es
ĠW rest
Ġst aggering
Ġcol ored
Ġgang s
Ġair ports
osh i
Ġp oured
Ġup ward
Ġnurs es
Ġbre wing
Ġpract iced
ĠT rip
ĠG az
Ġmon itors
Ġg ren
Ġsec urities
Ġcooper ate
names e
it ially
uff le
Ġfor ty
asc ular
Ġinterven e
m ph
Ġr iots
ĠA br
Ñ Į
he ster
ĠK ap
Pro t
ourn als
ĠVeter ans
Ġcoinc idence
d est
e ous
ĠEag le
ĠV ideos
Ġcamp uses
Ġpros pective
Ġbook ed
Ġencrypt ed
e ger
Ġextensive ly
Ġrel iability
Ġr ip
ball s
Ġchap ters
and als
ĠAn onymous
g on
is le
Ġdown s
ĠSt ories
Ġsl im
Ġecho ed
s an
Ġhor r
Ġank le
Ġmonit ored
amp ire
Ġinterf ere
ĠSur face
Ġoptim ism
Ġrem inis
ĠCD C
" ).
Ġprop osition
ech an
Ġpredomin antly
Ġun con
ĠThanks giving
ĠK ids
Ġflo ors
Ġwar ns
ĠUS C
ĠMun ich
ans om
Ġsymp athy
l iv
AR K
Ġang les
ĠIS BN
Ġtask ed
b ling
Ġsepar at
ĠH appy
Ġm igrant
ĠV I
id i
Ġinsect s
Ġdefic its
Ġgenet ically
Ġimm un
ĠTun is
Ġwe ars
ĠP ew
Ġre nown
ĠB ach
Ġwell s
ĠA FL
Ġfore most
Ġenfor ced
p ically
Ġint oler
Ã© t
Ġbound ary
Ġw ives
Ġste ering
ch t
reat ing
ĠACL U
he arted
Ġne arest
ĠV illa
os l
ĠArn old
Ġpract ition
Ob ject
ĠGr ace
ĠSom alia
Sp ace
Ġfil ters
Ġwhistle bl
ĠVis ual
Ġcoord ination
T otal
ĠA pr
ĠPr ide
w ent
oun ter
Ġext inction
iat ric
Ġinher ited
ĠHe brew
ĠJ ays
ĠAg ent
M or
f inal
ĠD oc
Ġbre eding
b ane
d imensional
ĠV a
Ġpositive ly
ĠKurd s
ĠBudd hist
He alth
Ġcl iff
Ġcomb ining
l ance
ot ics
Ġnav ig
Ġincl usive
ĠAct ually
ĠB eth
Ġs acks
Ġfor wards
Ġpartic le
Ġver b
Ġsh ine
ĠAs k
i ott
ik er
Ġscar ce
ĠFor bes
Ġfe ud
Ġpri ests
Ġassist ed
Ġreward ed
Ġo st
ĠH ass
st ated
Ġemer gence
ir ation
Ġd oses
il ers
M ain
Ġhand ing
Ġatmosp heric
Ġdescript ions
Ġcul p
ĠGet ting
p ose
Ġt ense
ĠP engu
ĠSchool s
ĠTri ple
h aw
Ġobtain ing
Ġafore mentioned
ĠJ in
Ġsens ible
Ġinput s
Ġrelax ed
ĠW ait
N O
que z
ĠReg ion
ĠWinn ipeg
oy le
Ġche f
ey ed
ĠK ush
T ext
ĠS ter
b us
a uth
Ġkind a
ĠSw an
Ġw oke
Ġg rief
ĠC amb
Ġbureau cr
ĠMem phis
Ġbo asts
Ã ł
Ġins ufficient
De velop
ĠHend erson
Ġcaut ious
ĠFl a
ent ry
acer b
y outube
b ucks
Ġimpro per
Ġcandid acy
Ġcommer ce
Ġg em
Ġrespect s
Ġther mal
Ġe ld
Ġdeb ts
ĠK enny
Ġillust rated
ĠCl int
g ay
r ays
Ġconv entions
ĠP ub
ĠU P
ĠS r
Ġc oding
Ġdys function
Ġuncom mon
Ġpersonal ities
in ers
Ġreal ities
Ġst airs
Ġslow ing
Ġlight weight
Ġbelong ed
Ġreal izing
ann ers
Ch ild
Ġoverlook ed
i Ã³n
Ġz oom
Don nell
ĠR alph
b ast
Ġupload ed
Ġexp osing
ator ies
Ġcycl ists
b as
Ġnurs ing
display style
Ġc ensus
Ġth rive
het ical
cons cious
Ġintu itive
Ġadd ict
Ġtest ify
ĠE A
ĠT X
Ġperform s
ĠCur ry
Ġautom ation
Ġadd itions
Ġpo ised
Ġunsupp orted
Ġquick er
ĠPy ongyang
ĠF ixed
Ġenjoy s
ĠY am
Ġord inance
Ġtour s
Ġcirc ulation
ÃŃ a
ĠBash ar
Ġbo o
ĠBar nes
Ġoutrage ous
ĠH A
am ount
Aug ust
Ġadm ire
S I
ĠE sp
Ġblank et
Ġc ripp
q a
om on
ek ing
RE D
Ġbas ics
Ġener g
Ġse ize
Ġpl um
Ġass erted
200 6
Spe cial
ĠP HP
iet h
Ġtatt oo
Ġorig inated
itz er
Ġ12 8
Ġt ags
Ġsubject ive
Europe an
ĠRe act
Ġagg rav
Ġpaint ings
ĠN uclear
Ġred es
Ġd ip
ĠSt rike
ĠPre vention
f illed
ĠAbd ul
Ġ196 1
ĠP aper
ĠL O
ĠÎ ¼
Ġrecip ient
ĠVal ue
Ġje opard
ĠD ust
Ġcas ino
Ġvibr ant
Ġcomb inations
Ġcoord inated
Ġwond ers
ĠStep han
Ġgu ides
ĠSil va
ĠUn less
Ġno on
Ġrepe ating
c ond
Ġgr ades
ĠWild life
l anguage
10 1
Ġredu ctions
Re illy
Ġawa iting
ĠH off
ĠRe lease
Int erest
Ð ²
ĠW AR
ĠK iev
ĠSh akespeare
Ġ10 5
{ "
ĠReg ister
ĠKas ich
Ġmonop oly
Ġfl own
Ġimm ers
Ġa in
Ġb ent
Ġparticip ant
Ġliqu or
Ġwh ales
Ġeval uated
play ed
g rown
Ġty r
ig o
ĠWord Press
ĠKle in
ad h
Ġim aging
ĠSy n
Bl ue
Ġs way
ĠNor wegian
e i
is co
Ġb od
Ġdeal er
ĠTit ans
ĠFal cons
Ġcl ues
Ġspr int
ĠAd rian
Ġvol t
ĠHold er
Ġhilar ious
Ġmention ing
Ġreflect ing
Ġl oot
Ġtrad ers
Ġred irect
ĠC I
ĠC raw
Ġtast es
Ġdetain ees
ĠEmer gency
ĠH ack
Ġabund ance
ĠE aster
Wh atever
ĠDod gers
ĠB ark
ĠCom plete
Ġnever theless
pro cess
ĠH ook
Ġh obby
Ġsc iences
Ġbuy er
Ġmerch and
T est
Ġsoul s
Ġpick up
ĠMc N
il ogy
ĠT ab
ile m
ĠBudd h
ĠRand y
D ate
b ank
Ġwh ale
ĠT ories
B rown
ĠT ak
ĠSch ne
ĠJ unior
.' '
Ġan ten
ber ger
Ġc ared
ĠBer g
sh adow
Ġbot hered
Ġinher it
up iter
I ts
ĠB ec
ĠM atch
ĠR ules
Ġtri vial
ĠAt hens
c ock
Ġform ats
ĠEm ily
ĠAgricult ure
ĠAl z
p ers
ĠIsa ac
ĠNov a
ĠPear l
ec d
Ġopt ical
Ġlit eral
Ġdatab ases
d ist
ĠR ot
Ġdev il
ĠBa iley
ĠGab riel
ĠF aith
Ġdist ances
Ġfl uct
an throp
Ġunder grad
Ġsam pling
Ġsl ogan
l it
Ġman ga
Ġc ivic
Ġaston ishing
Ġdark er
ĠT ottenham
Ġdemonst rating
Ġobs essed
Ġrece ipt
ĠL um
Rich ard
Ġhur ting
Ġgr ams
ĠMet ropolitan
A ir
iz oph
R ad
Ġins isting
Ġinadequ ate
Ġexha usted
ĠC ort
Ġwrit ings
Ġsun light
Ġemp athy
Ġunder water
ĠFerr ari
b illion
ĠG oth
ine a
ĠCy ber
st airs
ĠTh rones
un al
Ġlobby ists
Ġfin est
ruct ed
Ge orge
Ġs iblings
Ġoverwhel med
Ġorgan isms
ĠJosh ua
er ie
F ar
ir us
ĠPere z
an cer
Ġvast ly
Ġdiplom ats
Ġserv ants
ard i
cl ock
ĠAustral ians
ĠJen kins
Ġe ternal
Ġcou ch
Ġtrans mit
S erv
ĠE ye
Ġprotocol s
Ġu mb
ĠR ust
ĠU l
W elcome
Ġst agn
ĠH ost
Ġsm iled
it ime
ĠDep ression
ĠEv an
Ġcon gest
os ion
Ġpremium s
Ġbl u
am ples
ĠH ob
Ġassault s
S ources
ĠM UST
Ġde portation
Ġpus hes
ĠS ite
ĠEr n
ĠSt uart
m ake
OC K
Ġex acerb
Ġmole cular
ane y
ep rint
Ġhorizont al
p ict
Ġprox imity
Ġunderstand able
Ġconj unction
Ġen compass
Ġ0 6
Ġcraft ed
Ġsn ake
ID E
Ġmicro sc
dri ving
Ġpay load
ĠLe aders
Ġp unk
Ġspin ning
ĠA IDS
ĠK id
ĠHer oes
ĠC ob
Ġbank ers
Ġproceed ed
ĠS gt
eng ine
Ġbarg aining
Ġcapt uring
Ġwork out
M ap
ener gy
gg y
ĠG ang
ut ton
Ġadv ise
Ġprim aries
ĠT win
rop he
Ġver ified
Ġjew el
Ġinaug uration
" ),
Ġg ases
az or
ĠHe avy
Ġ19 48
Ġmed ications
Ġen light
Ġapolog ized
Ġs i
f a
ĠProp het
ĠA j
Ġw olf
Ġst aged
Ġb ounce
ov an
Ġshall ow
Ġaccompany ing
Ġsec recy
ĠPro bably
ach i
es ar
Ġactiv ate
im ination
Current ly
Q ue
D ou
Ġax is
ĠT iger
im edia
f un
Ġsurf aces
M iss
Ġimprison ed
Ġinjust ice
ĠD ylan
f amily
Ġpromot es
ĠSt range
Ġimpl ied
Ġeleph ant
ĠViet namese
ĠSach s
ĠKash mir
p res
Ġl ingu
Ġsupp liers
ĠNot es
Ġrebell ion
Ġsus cept
f air
st rom
ĠP oke
ĠAp ollo
ĠS weet
Ġun named
Ġnational ism
ĠJ ob
inent al
Ġfiref ighters
ĠB our
L ocal
Ġm a
Ġind ul
ĠB in
ĠG ingrich
ÂĢ Â
EN D
Ġstate wide
alk ing
Ġalph a
Pl us
Ġdisapp ro
act iv
ĠF uk
Ġwho lly
Ġlo oph
Ġin ning
izoph ren
ag le
Ġadminist ered
Ġtr ails
se xual
ĠHe aven
ophob ic
Ġincom plete
Ġgener ator
Ġdr astically
Ġtra it
Ġretail er
ĠR B
Ġcomp ile
Ġassum es
xt on
Ġrele g
ĠEconom ics
Ġbe am
Ġnot or
F orm
Ġpast or
osa urs
Ġj ar
Ġcompl iment
Ġshot gun
Ġen rolled
Ġb aking
le um
Ġ **
ĠSc ript
Ġsp am
av ia
Ġsl ots
S ocial
Ġcont ention
Ġpop ulated
Ġhur ts
ĠF ew
D ear
Ġhint s
Ġb rib
ise xual
ĠCro at
Ġf itted
Ġpa ired
Ġborrow ing
P ri
ĠShe ll
Ġhighlight ing
p ad
sh ine
Ġbat ting
Ġstab bed
ĠRe x
W as
Ġmet ro
Ġto ggle
Ġnew com
ĠM ix
Ġvit amin
Ġp ets
us p
ĠMar ie
Con clusion
Sand ers
Ġl enses
Ġlot tery
ĠD ow
Ġam ended
s ens
the ning
rell a
ĠA ur
h all
Ġplaint iffs
Ġathe ist
ĠInd y
Ġobject ions
ĠIns ider
Ġso y
Ġcontest ed
ĠT PP
Ġl amb
Ġgra pp
ĠIndust rial
ĠSh op
Ġcomed ian
Ġext ensions
Ġback ward
â Ļ
Ġaffect ion
Ġphenomen a
ĠFl int
Ġprob able
Ġf lick
Th us
Ġout line
t ake
Ġint ro
author ized
Ġm asters
Ġar row
intend ent
ĠArab s
Ġc ites
Ġpar a
G C
Ġd uck
ĠN um
cy cl
ig el
Ġpen is
amer a
Ġro pe
ĠW ag
ĠE ug
int egr
ĠCole man
Ġgorge ous
S w
Ġrev is
Ġrespond s
Ġsub urb
ĠIM F
ĠTH AT
Ġj aw
Ġmot ive
ĠAsh ley
Ġtort ured
o at
ear th
Ġmain land
Ġpass words
en es
Ġinter ventions
Ġhelicop ters
Ġadm itting
Ġg ently
Ġun equ
Ġself ish
Ġanaly tics
Ġobs ession
I ES
L ine
Ġc ater
ourge ois
ĠEll iott
ie ves
Ġp ills
Ġan them
Ġth y
Ġstand point
Ġm es
Ġcontro llers
Ġcat aly
Ġemb ry
ĠApp eals
Ġsum s
Ġpopul ist
h ouses
ĠH alo
Ġb ang
uss ions
Ġmat rix
ĠBur ke
c iously
Ġexplos ives
Ġco h
step s
Ġware house
ĠPat rol
Ġterrit orial
Ġcast le
Ġhur ricane
in burgh
rig er
Ġun ified
od er
s ic
ĠGT X
D isc
Ġconf isc
Ã¶ r
Ġconcent rate
iet al
g one
ot ine
Ġfig uring
ch at
ĠS ask
Ġcol ours
nd ra
ĠL av
ĠInd igenous
Ġlog ged
E s
Ġens ures
Ġun b
Ġcry st
Sh ould
S QL
Ġsyn chron
L ove
ĠC AN
ĠGl en
r ina
Ġsymp athetic
Ġmin ors
Ġprot agonist
AT H
ĠM our
ĠOff icial
Ġlog ging
ci ation
Ġt urt
Ġprivile ged
Ġo wed
other apy
Ġerupt ed
Ġval ley
Col or
Ġcons oles
it ational
os c
ĠN aval
Ġse as
W W
Ġide als
B erry
ĠTreat y
U ser
ĠN am
ĠP ul
ĠD rake
ĠD ad
Ġprosecut ed
ĠJ os
Ġdes irable
Ġsurf aced
Ġpsychiat ric
Ġemphas ize
Ġsad ly
Ġan ecd
k ov
ĠApp ro
k it
ĠB io
Ġpl ots
ĠSC P
ĠP or
ĠQu arter
Ġwel coming
Ġs atur
Ġfeed s
AM Y
Ġad ul
ĠV irtual
Sub scribe
ĠIn g
ĠEm ma
Ġ* /
Ġrev ision
Ġweek ends
ind ust
Ġstret ched
ĠL anc
sec ret
ĠU FO
Ġdef er
ĠPel osi
Ġcal culation
Ġsoph omore
Ġsand wich
Ġmos qu
Off icials
h it
are a
igg ins
Ġdistingu ished
ĠGo ing
ar ious
if a
ĠF ocus
ĠGu ild
Ġconstit utes
Ġconf ined
200 5
du llah
ro e
Ġintern ally
ĠRoberts on
Ġcorrid or
ĠW alsh
Ġselect ing
oint ed
Ġto pp
et z
Ġcan on
Ġpool s
Ġcorrect ed
Ġincomp et
Ġen rich
Ġgreet ed
ĠN RA
ut ral
Ġd ice
ĠBapt ist
Ġinform al
Ġpartners hips
Ġsens ation
Ġat roc
ĠâĢ ĭ
commun ications
Ġunder cover
Ġcool er
Ġreact ed
B ox
ĠJ agu
Ġprocess ors
Ġdefin itions
ĠSim ply
oc used
Ġhack er
F ixed
Ġtraject ory
Ġgau ge
ĠL anguage
Ġhome owners
v id
us k
ins ki
im er
ĠKn ights
R ub
year s
Ġflood ed
Ġcompl ications
p olitical
ract ed
0000 0000
ĠP and
ĠSh o
Ġjump s
Ġvend or
ĠSt ream
ump s
ĠL opez
ĠV ersion
Ġcont ests
ĠW end
Ġcur iosity
Ġass ure
ĠCirc le
ut ic
ĠOr d
ĠCon cer
if le
Ġfin ed
Ġconced ed
ib al
s uper
Ġpedest rian
Ġup rising
We b
Ġhom eland
osp here
Ġmag net
Ġo ceans
ĠO mar
ĠR idge
ĠCh a
ĠLl oyd
Ġball oon
Ġcompe lled
Ġliber ation
O p
Ġcommand ers
R P
Ġla wn
T L
Ġprop osing
You ng
Ġsk ate
ĠD ale
Ġmach inery
os oph
Ġdeb ated
stan bul
Oct ober
Ġcat alog
Ġpropri etary
Ġfair ness
man y
16 0
Ġl od
Ġall ocated
pe ace
ind uced
ĠN y
Ġprov oc
Ġreck less
Ġsh irts
S un
ĠM t
Ġh ills
bu ilt
ĠE sc
Ġarm ies
ĠNS W
Ġbuck et
ĠAdvent ure
x on
ĠDub ai
ĠEth iop
Ġcompr ised
Ġpres cribed
g mail
Ġmax im
ĠHe ights
Ġsuccess es
Ġhar ness
conf ig
ĠD iet
Ġunlaw ful
ĠAlz heimer
ĠSt ay
ela ide
Th ink
Ġcolor ful
Ġpur ported
Ġdelic ate
ĠW A
ĠN early
ook ie
Ġsex y
ĠE L
ĠGu ant
âĢĿ ),
Ġg ru
Ġc ried
Ġwas hed
Ġvar ies
Ġstere otypes
Ġairpl ane
Ġcho oses
Ġcell ular
ĠH od
ĠC ensus
ant on
Ġc el
Ġsyn c
ĠCon n
Ġnick name
ĠWe instein
ĠThe resa
S ix
Ġsl am
In s
ĠRe b
Ġsuff ers
Ġment or
Ġemb od
ĠTrans it
Ġparadig m
Cl oud
Ġnot ifications
ĠR ab
Ġprompt ly
is ite
Ġstory telling
ĠMar ines
AR Y
7 50
Ä į
l at
Ġfemin ists
Ġqu eries
Ġsing ular
aze era
M ass
ĠGreg ory
ĠInn ov
Ġambul ance
ne ys
Ġdebut ed
Ġub iqu
Ġproject ion
de ep
hed ral
ri um
Ġconnect s
ĠAlf red
Ġ19 00
com mon
Ġbroadcast ing
ĠT ol
Ġrecru its
Ġafter ward
Ġstrateg ist
ĠC F
Ġten ants
Ġmor ally
Ġbe e
do ors
ĠD at
Ġpl ural
Ġcompet itions
Ġvar ieties
yl on
Res earchers
S al
. (
Ġpot atoes
Ġvis ibility
ĠSch umer
Ġtransm itted
respons ible
U G
o qu
Ġth a
Ġstun ned
Ġgri ev
sp an
Ġprest igious
ou x
ĠC inem
M arc
ĠEn c
Ġsen iors
Ġparad ox
ĠF ine
Ġmethod ology
Ġexem pl
ĠFal con
C BS
Ġcl oth
az ar
ĠD uterte
ĠHar bor
Ġperce ive
ĠN FC
ĠPolit ico
Ġmaneu ver
Ġcomment ators
in ian
ĠH ood
rist ol
Ġvoc als
Ġgl oves
Ġobst acle
ĠC li
Ġout reach
Add ed
re a
Ġb og
ĠF u
Ġmil estone
load ed
Ġmis dem
hol m
Ġburg l
Ġeleg ant
Ġstruct ured
r ill
Ġco vert
ĠU T
c ur
Ġpit chers
Ġcolon ies
Ġsystem ic
Ġunpredict able
Ġg odd
ĠL amb
c ision
ĠV el
ĠChampionship s
With in
c ue
ic ans
ĠK ell
op ath
aw i
Ġfool ish
Ġweigh ing
ĠMcC l
Ġsw orn
ĠS HA
f ood
af ort
V C
ans on
Ġhasht ag
in v
Ġha w
Ġmax imize
Ġyell ing
Ġhost age
asp berry
Ġexclus ion
ĠLib yan
ish a
ustain able
Ġver se
or p
S aturday
Ġbless ing
Ġb acon
ĠSol id
Å ¡
Ġinsure rs
Ġrenown ed
aun ting
ĠPost ed
Ġrom ance
ĠE arl
he res
Ġhe ck
Ġsm ok
Ġignor ant
Ġlo vers
Al ong
ĠR BI
ĠF ortunately
Ġcr ush
ĠOr acle
Ġconsider ations
Ġinterrupt ed
Ġimp ly
be cca
Ġteach ings
s um
Ġimpro ves
Ġgar lic
is i
Ġrel ates
ĠImp act
Ġl ining
Ġhold er
Ġtime ly
Ġbrut ality
Ġunsuccess ful
Ġdest inations
Ġo ct
Ġprem ises
ĠE M
Ġbarg ain
Ġacceler ate
W rit
Ġhum ili
ĠBou levard
Ġmin us
ĠCharg ers
Ġpreval ence
Ġfin ishes
Ġinfer ior
Ġe Bay
ĠM aterial
ĠM ak
Ġvulner abilities
Ġan nex
Ġbund le
Ġcr ises
ract ion
ĠW el
Ġneighbour s
! ).
Ġincon ven
ri ents
ov ak
Ġbr acket
Ġ Ñ
ri ad
Ġdiscover ing
ĠC able
Ġworks hop
Ġk its
Ġl ament
Ġuniform s
iff e
se at
M ORE
vert ising
Ġs ore
ĠB rent
Ġout law
Ġmer ger
uff s
ĠWin ston
st ud
In c
r ab
ine ment
ĠB ever
ĠLear ning
Ġexceed ed
Ġdown ward
Ġp ixel
Ġdiscuss es
Ġprivile ges
e ur
q l
C ent
m ajor
at ivity
Ġembarrass ed
ĠC e
Ġexc av
uk a
Ġphr ases
Ġappet ite
W ant
ĠT roy
ĠMor rison
ĠGonz alez
Ġball istic
ĠGlas gow
Republic an
Ġel imination
Ġst ew
ĠBro ck
iv ia
ĠLGBT Q
" [
ĠC ele
Ġtoler ate
Ġl ur
ĠJ upiter
ick er
ĠSt age
Ġav iation
Ġunw anted
ĠF ear
Ġgrad uation
ĠBlu etooth
ĠS ak
Ġbrows ers
ownt own
Ġmar ched
ĠM oto
Ġ" [
Ġcle arer
T T
Ġtw isted
Ġchampionship s
m and
Ġenjoy able
Ġaccept s
Ġper secution
Ġrecogn izing
ĠAven gers
ĠPar ad
em ption
Th ings
Ġgun man
it ives
St op
Ġspecific s
Ġbl aming
w ald
Ġa kin
a ic
b ps
Ġr ust
Ġwrong doing
Ġbed s
al iation
Ġresist ant
Ġsol ic
Ġmis ogyn
ĠThe ater
Ġdis respect
Ġtyp ing
Ġappropri ately
Ġcon ceived
Ġun m
ĠGOOD MAN
ĠPri x
ĠI van
ĠT E
red ited
Ġshut tle
\ /
ang led
ĠBe gin
id av
ĠT weet
ĠReyn olds
IT E
ĠA verage
e pt
Ġl end
ld a
Ġ10 80
ĠF ighter
IC O
ĠAut om
n ull
Ġvol can
ĠSer b
Ġvac ant
ĠH app
az er
C ON
Sept ember
Ġdis abilities
ĠU pper
ĠSpr int
ĠTh om
ĠV o
Ġric hest
ĠW ake
Ġdesp air
R un
re ra
f ax
Ġcul min
Ġextrem ism
Ġnomine es
ĠP le
Ġthought ful
Ġ> >>
Ġnotice able
ĠIns urance
Ġded ication
com fort
Ġpip es
Ġingred ient
Ġre per
d ogs
ĠE rik
Ġright ly
b ird
Ġb ore
d et
Ġthr one
ar ak
ag ne
Ġcorner back
ĠFil ip
ĠN as
ĠJ eb
Ġg ad
Ġperform ers
B ob
Ġadvoc ating
ĠD ana
Ġ1 11
Ġcondition ing
Ġtw ent
ĠSat urn
Ġtun nels
Ġprohib it
Ġdiam ond
ĠL ux
ĠK on
Ġfuel ed
ric anes
oci ated
ĠM ets
âĢĿ ;
Ġrep ay
Ġ} ,
Ġmeth ane
E p
ĠM aps
ĠL iqu
ĠN ode
Ġthe sis
Ġfr acking
Ġsens es
Ġex otic
ĠTurn bull
Ġcritic ize
Ġid iot
ĠL ag
Ġentire ty
Ġdetail ing
is se
Ġpl asma
O k
im en
Ġste alth
Ġdisplay ing
ant a
Ġpr ag
Ġnum er
ĠL ogan
Ġwar rior
Q U
Ġartif acts
Ġl over
Ġout field
ĠX P
che m
ĠTrans port
Republic ans
Pro ject
ĠRep orts
Jo in
udd enly
ocaly pse
Ġrecogn izes
Ġa u
Ġun just
ĠScient ology
Ġkn ocking
an ity
ĠFre eman
b ard
Ġbar red
ĠAd vis
Ġp ap
ĠU g
Ġsing les
ĠÂ «
ĠBas ically
d id
Ġloc ks
Cong ress
Ġan at
th ouse
Ġdis asters
Ġprejud ice
ex cept
gu ided
Ġinflu x
achel or
U TC
C ourt
Ġhead set
ĠLeg ends
Ġ ..
Ġadop ting
Ġmer its
ard on
re view
Ġmet adata
Ġacknowled ges
ol ith
Ġfur ious
nder ing
ev al
Ġmar athon
it an
Ġstory line
ĠT i
ĠH ab
ĠSadd am
Ġsur g
ĠF a
Ġtr aces
ĠPC s
ĠCont act
J ul
Ġcort ex
R edd
Ġw ary
ion age
Ġmer cy
Ġrest art
Ġp ixels
ĠEd inburgh
att ed
Ġband width
Ġwip ed
ĠPers ian
Ġinaccur ate
Ġinst itute
ĠSing le
ic ularly
G P
vas ive
Ġoff ences
Ġalt itude
Ġillust ration
Ġv ivid
Ġdil ig
Ġman kind
in yl
with out
sh irts
Ġatt ain
at ism
isp here
ĠStart ing
ĠE N
Ġoccup y
14 0
Ġpreval ent
Ġc ows
Ġdet r
Ġprolong ed
Ġround ed
ĠI gn
ĠP OL
ic able
Ġbl essed
work ers
ĠN L
ĠKn icks
Ġexem ption
Ġsett lers
Ġinaug ural
Ġde er
ish ment
t ag
B ern
ĠC rypt
Ġcoc onut
ĠBurn s
Ġfreedom s
Ġseason al
Ġpun ct
__ _
L ead
ci pl
H op
ian i
al ion
ĠMill enn
Ġsm arter
Ġwarr ants
g em
red dit
ĠPr adesh
Ġcap ita
Ġp ave
Ġrefere e
ĠSU V
Ġindu ced
Ġunst able
Get ting
Ġb ourgeois
Ġmot ives
ĠFR OM
O per
Ġfact o
Ġexped ition
Ġaggreg ate
Ġprogram mes
ĠEmb assy
A round
ĠC el
Ġt il
Ġer ad
Ġaccommod ation
N or
Ġcar pet
Ġre dd
Al most
Ġcomb ines
ch anging
Ġc raz
ĠFif th
ĠL ith
ĠSN P
ram id
ĠB uc
ĠR ange
A ut
t i
ĠSpe aking
D am
Ġst ems
b led
Ġgl uc
Ġlisten ers
Pac ific
Ġc ite
Ġf ist
Ġt apped
ĠT ap
ĠD h
ĠDev il
200 4
ĠFrank en
Ġgr ind
Ġab st
Ġ19 44
Ġdiet ary
ry s
Ġdefe ating
ĠC aval
viol ent
Ġbenef ited
Ġmir acle
Ġenthusi asts
Ġprogram mers
Ġcoun cill
ĠR ift
ĠHait i
Ġgr in
ĠSt ef
Ġrecomm ends
Î ±
atin um
c ot
ĠAud io
D an
g rowing
Ġbureaucr acy
Ġl ag
ĠW izards
ĠPer l
Ġcriticism s
Ġsanct uary
B B
Ġh over
Ġrig orous
Ġhous ed
n ings
Ġconcess ions
Ġpaper work
ĠA RE
Ġprost itution
ad os
Ġcr ust
ĠA A
Rec ently
Ġdef ect
Ġupd ating
ab we
Ġ Ù
Ġv est
Ġbom ber
he ed
ĠI CE
Ġstatist ically
P T
av in
Ġreb oot
Ġunf amiliar
> </
Ġcon qu
Ġlength s
Ġpred ators
p arent
Ġsne ak
sequ ently
Ġsymp ath
Ġru ined
ĠProgress ive
Ġph osph
L og
op hers
Ġst yl
Ġun a
ĠB uch
Ġchar itable
Ġhost ility
Ġheav ier
c ourse
ĠM ik
ren ched
Ġd ilem
ĠStar bucks
Ġfor fe
ĠR hod
Ġdet on
int o
or o
ĠSch midt
ĠElect ronic
ĠI stanbul
ĠE isen
Ġposition ing
com plete
Ġphilos opher
Ġcoordin ate
ĠS ales
imb abwe
ĠJul ia
Ġreb uilding
ra f
Ġden ounced
V ery
Ġme ga
Ġins ider
M ult
ĠEver ton
Ġter rific
Ġacqu iring
! âĢĻ
Ġuns afe
ĠWH O
ĠRoll ing
ĠSt o
Ġst unt
Ġter ribly
Ġpers pectives
ĠBas ic
ing ham
Th omas
Ä ±
Ġthere after
Ġcrack ed
Ġsimpl icity
ĠC ork
Ġforb idden
p ark
ĠR uth
c ig
ĠSe oul
spe aking
ĠGit Hub
Nob ody
Ġsuper visor
ĠPartners hip
Ġillust rates
ĠTim othy
ess ors
ĠAng els
Ġreferen ced
Ġj ournals
Ġport al
ĠP it
AN S
Ġobject ion
ĠO kay
ĠH orse
F ind
ĠN J
port ing
Ġoff ended
ched el
k ara
Ġl aps
Ġinfringe ment
p aper
Ġbig ot
m itt
ĠT ournament
ĠRom ania
ĠOw en
m iss
Ġanaly zing
ixt y
Ġsh ade
ĠMor oc
Ġintrodu ces
Ġsch izophren
ĠD ash
in el
Ġsoc io
Ġrequest ing
Ġantibiot ics
Ġf usion
f light
Ġtr action
D aniel
H and
Ġd y
ĠSe bast
Ġident ifies
Ġj ungle
ic ates
Ġs perm
re v
Ġdiplom acy
ĠCitiz en
ĠSher man
L ive
Ex per
Ġborrow ed
U RE
ĠSpace X
% ).
ĠNot re
Ġintention al
Ġ20 30
ĠPrinc eton
li ber
rest rial
ĠSu z
Ġcert ification
Ġskept icism
ĠLe Bron
Ġsl og
Be yond
Ġbro ker
Ġaff idav
place ment
) -
Phot os
Ġvol atile
Add itionally
ĠL P
Ġfright ening
ra ve
ĠO ri
ish ops
ĠVictor ian
ĠLind a
rat ives
Fr iday
An n
b usiness
p al
Ġunch anged
ist ical
ĠScient ists
ipp le
ĠMoh amed
ĠE ST
Ġton nes
Ġwatch dog
so ver
Bel ow
l ived
Ġreg ain
ount ain
Ġrec laim
Ġfat igue
Ġwh it
Ġdetect ives
Ġend ured
ograph ics
Ġshe lls
i u
Ġbet ting
C rit
ters on
Ġch ill
ĠC ad
ĠL ed
ĠAl ways
lic t
ĠS ame
Ġindic ators
Ġorche st
Ġmult ip
ĠPoke mon
ĠAub urn
] ]
Ġvis as
ĠMa o
Ġterr ified
ĠU nd
ĠExper ience
fund ing
Ġhealth ier
Ġfav ors
Ġso ap
Ġabsor bed
w ere
Ġv ine
ĠAust rian
Ġvir uses
ĠJ ill
ĠCourt esy
Ġcooper ative
ĠBet a
f act
v ity
ĠR are
G I
ĠL ex
âĢ ²
Ġsuper b
i ov
Ġas c
Ġclean er
Ġrestrict ion
ĠC ities
Ġsh red
ĠR abb
Ġcirc ular
Ġlower ing
ĠMurd och
ĠC oc
oles ter
IN T
Ġmir rors
Sh ow
it as
Ġrec ons
ĠK ob
ah ar
Ġar che
Ġgr an
ĠK umar
ĠV ince
Ġche ating
itness es
ĠIS IL
ight y
Ġinterrog ation
im ag
br and
OU T
Ġbron ze
C amp
For ce
ĠDec l
ĠP ist
Ġsh aping
en berg
ĠChe v
Ġv intage
US E
Ġ19 41
ĠAb dullah
keep ers
Ġcap ac
Ġsubmar ine
Ġback yard
Ġf ren
ĠS tern
ĠL iter
Ġunus ually
ĠP os
Ġref riger
Ġaccess ories
Ġph ases
Ġnort heast
ins ky
b ial
Ġpe cul
ĠLet ter
Ġexclud e
spons ored
Pr int
in qu
ĠD ani
ĠCl are
Ġunder going
Ġtack ling
est ine
Ġfree zing
ĠBr is
Ġemail ed
o an
Ġnational s
Ġcell phone
Ġtake over
Ġhorm one
M ex
Ġend uring
Ġund is
ĠN ak
Ġdevast ated
Ġ11 5
ĠDay ton
Ġun real
Ġsquee ze
Ġtro op
Ġsub po
gg ie
Ġfilm maker
om ical
Ġg le
ĠM iles
Ġbe ard
cast ing
ĠRich ards
Ġmin eral
Ġ17 0
Ġgoal keeper
ĠPerson al
Ġbrand ed
ĠA V
Ġadvoc ated
ĠSask at
ĠC lear
Ġstr ains
ind a
af ia
ng th
ĠN ice
Ġce ment
Ġ- --
Ġcommunic ating
Ġbeaut ifully
ices ter
ĠAnn ual
Ġcy l
ĠG L
Ġinv iting
ĠPl ant
Ġpsych ologist
or ie
E lect
et ed
Ġproud ly
ire ction
ĠG y
Ġpos ing
ĠFried man
ĠR ugby
on so
Ġtour ing
Ġn avy
ĠJul ie
p atch
Ġint ric
Ġpl at
us ers
Ġgovern ors
ĠCelt ics
oy s
Ġref ined
u ador
Ġaut op
Ġalleg ation
sh ould
Ġenter prises
p c
Ġback drop
Ġdo i
Ġswit ches
Ġmodel ing
Ġhapp ier
ĠNY PD
ress es
ins pired
Ġmet als
Ġcourt room
Ġhy ster
F in
ĠSim mons
ern ame
Ġimper ative
pt ive
Ġsc aling
ick y
Ġmark er
ĠCore y
Ġinterf aces
act ed
Ġsn apped
Ġannounce ments
Ġrespons ive
ond o
Ġins ulin
Ġdeter mines
ĠEvery body
I X
Ġarch ives
Ġhand c
Ġstretch ing
ĠH i
Ġbal ancing
Ġcontam ination
ĠE instein
Ġexp on
D en
ĠM ig
ill es
Ġst ip
Im agine
ĠSp art
ĠMe yer
Ġreiter ated
Ġret aliation
Ġ} );
Ġrival ry
Ġa rose
Ġb ast
ĠEl ite
Ġundert aken
D ev
oss ibly
Ġdevelop s
ĠC raft
Ġrecept or
Ġwa ist
Ġs oda
pr im
Ġ24 0
Ġh orn
Ġpal m
Ġp ulse
Ġdepend ence
et c
ed in
ĠDO J
Ġ19 47
Ġar senal
ink le
Ġcha otic
s ided
\ -
ot ers
av ior
Ġf ost
ĠHaw ks
ign ment
Ġtravel ers
Ġinf ants
ĠB urg
Ġengine ered
gg er
19 90
atter y
Ġmerchand ise
Ġhard core
Ġattract ing
bal ance
Brit ish
Ġst ellar
Ġauthent ication
ĠHy per
Ġd od
Ġshort s
cent er
Ġobser ving
Ġimp air
Ġconfir ming
ĠBah rain
Ġdece ased
ĠC atherine
Ġgall ons
ĠH arm
Ġje ans
Ġcritic izing
Ġagree ing
Ġcompens ate
ĠON E
Mc C
Ġwas hing
Ġpredict ing
Ġappar atus
Ġrev ival
Ġspecial ists
Ġinnov ations
it us
anc ers
Ġl av
Ġvis ually
Ġanticip ate
Ġposs essed
ĠPan ama
o ids
Ġp ine
am el
Ġth under
Ġele ven
ie u
Ġre ef
N OT
Ġl aughter
T urn
ĠTill erson
Ġdeleg ate
pect or
M el
Ġopio id
Ġey eb
Ġ ì
ĠWalk ing
Ġrest ing
ĠUlt imately
Ġfl ame
m ass
Ġcore s
ick ers
Ġdistract ion
pl ates
ax ies
Ġpen al
Ġpot ato
h n
Ġw ipe
Ġbroadc aster
Ġwar mer
Ġstar red
ĠGil bert
" ]
Ġclear ance
Ġaut umn
ĠV ision
ĠM az
Ġkidn apped
ĠD ot
Ġwar riors
Ġpri zes
mod ern
ĠVal ve
Ġs idelines
ĠMap le
Ġburn s
squ are
Ġp and
Ġreg imes
g ie
bl ood
Ġep it
Ġdump ed
Ġ( .
Ġur gency
ĠSc ore
ster dam
Ġdom ains
ĠUs ers
Ġec ological
ĠL ay
ev ent
ĠCent ers
ump ing
Other s
y ers
Ġhypot hes
C ode
Ġconcept ion
ĠExpl orer
Ġend ure
J S
ur st
ĠCo ver
ĠMan afort
Ġnegative ly
ĠJ azz
R ock
duct ed
Ġcontract ed
ĠGr ad
Ġo live
Ġvisit or
Ġcapt ures
Ġtheir s
Ġselect ive
Ġradio active
Ġdub ious
Add itional
Ġb ilateral
ĠR apt
ĠBrend an
Ġt ant
Ġbl ows
ĠH erman
Ġpr inter
Ġreact ors
ĠPro duction
Ġro de
Ġnodd ed
ĠHay es
Ġrad ically
Ġvan illa
Ġrep airs
ĠPen insula
Ġinst ability
Ġseiz ure
Ġcateg or
Ġdepend ency
ĠDam age
Ġunbeliev able
Ġsever ity
ĠH ogan
Ġvolunt arily
ĠMerc ury
Ġexplos ions
c in
Ġastronaut s
ĠCraw ford
10 5
Ġshel ters
et itive
mo il
ĠB ee
ĠGr ass
s il
ount y
Ġcontam inated
Ġbull shit
if ted
ort ium
Ġm arsh
Ġscreens hot
h l
Ġpe an
ĠDet ails
ĠR iley
W il
Ġill icit
we ather
Ġs ights
Ġgood ness
ĠLeg acy
Ġlog in
Ġprogram mer
ĠC ards
bl ue
Ġlone ly
P ict
ien cies
Ġobser ver
Ġacc use
Ġque er
Ġassess ments
ĠEmir ates
er m
rec ord
oster one
Ġsubsid iary
ĠCris is
Ġcontent ious
Ġside walk
ia o
ĠB ristol
abl ished
verse ly
Ġst al
b uster
ĠT W
Ġcrypt o
amm ad
O O
Up on
ĠCom ment
ĠCon way
ĠPl aza
Ġpal ace
Ġstret ches
Ġd well
Ġcr unch
Ġthe rape
Ġh ollow
Ġpath way
pl aced
Ġb isexual
Ġprop he
S W
ĠâĨ Ĵ
Ġdisadvant age
ans ing
Ġdem ise
Ġpour ing
er k
ĠH ernandez
Ġshut ting
C T
le ys
Ġrob otic
in ters
w ave
Ġcompet ent
Ġhun ter
Pl an
let te
Ġdirect ive
Ch ief
More over
ĠSp icer
P rodu
E ric
ĠSch ultz
Ġj ealous
ff iti
Ġrese mble
Ġaw aken
Ġr im
We ek
ĠBru ins
Ġtransl ates
Ġfre ak
Ġrig id
Ġempir ical
Ġru ins
Ġd iving
ĠVi enna
Ġredu nd
ĠG ross
fol k
ĠHon or
p arents
ĠS hip
t z
Ġwithd rew
K im
Ġcook ie
Ġmetaph or
H i
Ġsell er
ĠSim ple
Ġsurpr ises
health y
Ġren amed
Ġre he
ĠLe o
ĠO t
Ġchar ities
ĠVe h
Ġcost ing
ĠAndre a
ed u
Ġr anged
Ġf og
ĠFr ame
Ġto e
ĠR oute
Redd it
Ġs ack
Ġex terior
Ġlau nd
Ġrelent less
av an
ĠRe play
ĠBl izzard
Ġineff ective
ĠSh ane
20 18
ple asant
N ovember
hy d
Wind ows
K evin
ott esville
Ġple as
ĠJed i
Ġins erted
Ġdo omed
Ġ ï¿½
Ġv om
ĠSu ccess
S B
200 1
Ġtr aced
Le ague
ĠBren nan
Ġdig its
Ġreminis cent
Ġd ull
Ġâ ī
ĠAP Is
AN K
ĠInvest ment
ill on
g ro
P ay
Ġrem ed
he e
ĠF lickr
ĠAd elaide
John son
ĠInvest igation
200 3
Ġle aking
Ġown ing
Ġpo pped
Ġchar m
Ġpar an
ĠReg ardless
c led
Ġpres ervation
Ġacceler ated
Ġb end
Ġmod ifications
ĠChe ney
ac s
Ġall ocation
Ġinto x
ĠT B
Ġviol ates
OW N
Ġjuven ile
ĠP ain
Ġle mon
ĠResp ons
um i
Ġdict ator
Ġrepl icate
Ġher b
Ġdownload s
Ġp ensions
Ġpres erving
Ã ª
ĠP E
Ġdepend encies
ĠFood s
abul ary
Ġnot ices
ent e
Ġreward ing
Ġs rc
ĠF F
Ġmerch ants
Ġpig s
Ġa ven
Ġcont end
ar ium
ore st
all ah
ĠC rist
Ġfeas ible
Ġappoint ments
Ġpen cil
Ġacceler ation
Ġbr ig
P ublished
m g
elect ed
Ġf ra
ĠW u
Ġrad ius
K en
ĠG ir
Ġm asks
Ġtw ins
Ġout dated
Bit coin
ĠT M
Ġatt achment
Ġlaugh s
ĠS end
ĠWeb b
ĠBeh ind
B esides
Ġye ast
Ġprosec ute
! '
Ġup held
Ġsp ouse
Ġr apper
Ġposs essions
ĠObserv atory
Ġdiscont in
Ġpo inter
ĠB ert
,âĢĻ âĢĿ
ĠL ance
De cember
ant ry
rah im
ĠD ell
Res p
or ian
Ġ195 9
ĠJud iciary
Ġiron ic
Ġl ou
Ġde af
ident ally
Ġn urt
OL L
Am azon
Ġup wards
H uman
Ġat oms
Ġv andal
land er
st atic
ĠR S
ĠKush ner
ĠE gg
Ġenroll ment
ĠPir ates
ĠS oph
Ġret ros
w ife
ay an
Ġnegoti ation
Y ear
Ġveget able
at ured
be h
Ġembr acing
ĠB A
D O
oun ge
Ch inese
ĠT rent
ĠP TS
ĠT aking
Ġcont ributes
12 3
Ġtrain er
Ġfert ility
Ġprim itive
Ġtoss ed
ĠF act
Ġres olutions
ĠC opy
Ġneed le
Ġmicro phone
Ġfest ivals
ĠBeat les
ĠAr row
as is
Ġbomb ings
ĠE lementary
Ġspir al
ĠBr anch
Ġha iled
Ġle aning
Ġcongress man
Ġdwar f
IS A
Ġshr ink
ĠS aw
Ġshoot s
Ġhun ters
Ġte asp
Ġoper a
Ġ& &
any on
in ational
Ġcop ied
B Y
Ġcost umes
ĠSpe cifically
Ġ10 2
Ġall ied
Ġv apor
Ġv inyl
Ġforecast s
Ġwithd rawn
Ġal lev
Ġin ad
Ġdis se
Ġmod ification
Ġ18 00
Ġre jo
S ave
Ġiter ation
l ings
Ġmechan ic
Ġmyth s
ĠR F
Ġstamp s
ĠZ ucker
ĠTh an
Ġmer ge
ĠConserv ation
ĠDev ils
Ġdimin ished
Ġhop eless
Ġdiscover ies
Ġdisappear ance
ĠVol ume
ĠDis covery
S omething
E nt
Val ue
ĠMan uel
omed ay
Ġinspect or
,âĢĻ âĢĻ
H as
Ad am
Ġt ally
Ġper tain
ĠD L
ĠCom edy
Ġanticip ation
w ic
Ġaccess ing
Ġt am
Ġvolt age
Ġcos mic
m ails
aw ays
Ġsmooth ly
Ġuns ure
ĠS kin
Ġdoub les
Ġv ault
ĠProf essional
Ġch uck
Bet ween
Ġtur moil
Ġout spoken
) ?
B uild
ĠB orn
Ġr uth
ĠRock ets
op ed
Ġch amp
ĠMe et
Ġgif ted
ĠPro du
Ġsal ad
c ry
Ġg aze
Ġmamm als
h ops
ee red
ĠSter ling
Ġp ier
Ġmy riad
Ġfr amed
Ġ10 4
ĠA be
Ġfore front
iv able
Ġathe ists
ĠÐ ¸
Ġoccur rence
ven ant
Ġalleg ing
Ġairst rikes
Ġpod ium
Ġoffs pring
Ġe man
Ġextract ed
ĠMir ror
ĠZ imbabwe
sec ure
Ġvalid ity
Ġfore nsic
Ġmilit ias
a ft
Ġadequ ately
Ġt outed
Ġs om
ĠK iss
ĠWhats App
larg est
Ġsex ist
ĠUs ually
S ar
ile aks
Ġinter val
Ġl b
Ġap ost
c ould
ĠB un
ĠSouth west
le aning
ĠNational s
J ones
Ġd un
Ġnar ratives
ĠTw enty
m ult
Ġtrig gers
P o
ĠAd obe
^ {
Ġcompat ibility
Ġcelebr ations
s rc
ĠMount ains
R ay
ĠGe off
Ġna ive
f alse
ĠMon ica
Ġjud ging
Ġintr ins
Ġm s
ĠD uty
Ġper ceptions
Ġstim ulation
Ġneuro log
ĠTro phy
ĠAli en
Ġr ansom
ĠBeng als
Ġground ed
f alls
ĠQual ity
Ġcan cell
w en
ĠAct ive
Ġcr ashing
H ard
Ġche ek
ĠSim ilar
st atus
Ġimm ort
I AL
ĠM ead
Ġpret ending
ĠRec ently
ĠMem ory
c ified
Ġelev ator
ĠÃ ®
Ġcreep y
Ġext rad
Ġsle pt
Ġexch anged
Ġw ires
ĠCle arly
Ġaster oid
Ġnarrow ly
Ġadoles c
Dem ocrats
f ired
ĠJo in
I ll
Ġun ite
own s
Ġmark ers
Ġcollabor ative
T ech
Ġsuccess ion
OR Y
Ġwholes ale
ĠB irth
Semit ism
ret urn
ĠF M
F inal
Ġstreng thening
ĠC ord
ĠAl ger
ĠFl ag
m atch
Ġjust ices
ĠTer rit
Ġclean ed
18 0
ĠEx cept
Ġacknowled ging
Ġbol ster
ĠBald win
C raft
ĠB oss
E ver
Ġplace bo
( $
Ġun armed
Ult imately
ĠTr ack
ĠD LC
Ġo lig
ustom ed
Ġnorth west
iss an
part isan
Ġtop s
Ġe cc
Ġretrie ve
Ġemploy s
ari at
ĠLeban ese
it em
Ġor ph
Ġsuper vision
ĠScient ific
ĠKenn eth
p i
ĠG ul
bor o
Ġsustain ability
Ġrad i
Islam ic
Ġind oor
over ty
r h
ĠG rowth
ĠH ond
S und
Ġ19 39
v ideo
Ġe ject
ĠBudd ha
Ġcomp ares
J ew
in vest
Ġdom ination
Ġperfect ion
he id
Ġcur se
Ġrefres hing
Ġspe cially
Ġnut rients
L ou
Ġmeaning less
Through out
isc her
Ġdepth s
Ġash amed
Ġevac uated
ĠCom ing
ĠSky pe
ĠB ass
is ure
Ġrel iance
Ġ 000
Ġind o
Ġlun ar
or f
V ict
Ġb idding
Ġdec ay
Ġdisg usting
Ġhypot hetical
Ġpredict s
Ġdis charge
ĠCurt is
Ġh alls
ĠP ars
Ġcan s
ĠFl oyd
ĠCoff ee
Ġdecentral ized
ĠBeng al
os er
our ing
read ing
Ġoverl ap
Supp ort
Ġhonest y
Ġvers atile
Ġblast ed
Ġsect arian
ĠTr ain
Ġsuper st
Ġdefe ats
Ġleft ist
AC A
Ġsc andals
Ar ch
ucc i
Ġresearch ing
ĠMon te
Ġperpet rators
ĠA part
ors che
ok a
Ġpo orest
Ġbe aches
ate l
Ġcl o
l ins
ob ject
Ġho ax
f ight
List en
m itted
Ġregul ator
ent ric
Ġfrequ encies
ĠMy ster
Ġgrant ing
Ã ¸
Ġexp ired
Ġ4 50
Ġso ber
Ġsusp end
ĠMons anto
Ġde ported
ĠKurd istan
ĠB TC
Ġconcept ual
ĠBuzz Feed
ĠJackson ville
em a
k owski
ĠN ike
Ġr ack
Ġanarch ist
Ġfut ures
Ġfirm ware
ĠJ et
ro ot
ĠC ros
Ġpr ince
ĠYOU R
W R
Ġnight club
an ol
ĠZimmer man
ors i
Ġgovern ed
Ġparent al
Ġlo oming
Ġâ Ķ
Ġw it
ĠO val
am ic
ĠRe ce
Ġsign aling
W ow
Ġtang ible
Ġrele vance
d oes
ĠZ oo
ĠP v
ĠJ SON
ĠAn cient
Ġpast e
ĠEv olution
H R
Ġramp ant
p sy
Ġturn over
ĠTechn ologies
Ġ2 20
Ġdecl ines
ĠN an
Ġeval uating
ĠE lder
Ġlivest ock
Ġf rog
Ġcruel ty
Ġrecy cling
Ġun cover
ĠÂ ·
Ġjudge ment
ĠAbb as
B P
M aking
els en
b ands
Ġextract ion
ĠCh oice
Ġembarrass ment
. ;
ĠBris bane
Ġbit coins
Ġaccum ulated
he ard
Ġk in
ĠAny thing
ĠF ernand
Ġrelie ved
Ġbi ography
Ġsp ine
Ġfalse ly
ĠCamb od
ĠF resh
Ġto dd
Ġst ing
Ġfilm makers
Ġcorrespond ence
ĠR ew
ĠEc uador
Ġstake holders
A BC
Ġid ol
ĠCh arter
Ġtax ation
Yes terday
Ġgl orious
ve red
ĠT L
Ġrep s
Se ason
Ġfrag ments
Ġunder went
be fore
ĠBlack Berry
ĠCan ucks
Ġsex ism
ĠMid west
Ġair lines
Ġreinfor ced
ĠK oh
ĠHel en
t v
Ġwe ights
ac a
Ġreal ization
Ġyell ed
ĠRes ults
Ġdistract ed
En ter
c ro
Ġw anna
Ġhook ed
ant ine
Ġstat istic
Ġre print
ĠEv ents
ĠL ud
Ġpart ition
Ġdiplom at
ot on
Pr ime
ĠViol ence
Ġsuper market
ul atory
Ġresemb les
Jan uary
pro ject
Ġanal ogy
ess a
is ans
ĠCan on
oust ic
Ġconstitu ency
Ġer r
Ġsound ing
Ġstuff ed
Ġdivor ced
Ġthe ology
ĠCr us
ĠUp dated
Un iversity
L ess
Ġbom bers
ĠIr ving
Ġout raged
Ġbr ass
L ittle
ĠV P
W estern
ĠC ertainly
Ġsh iny
Ġj oked
ĠLe ad
Ġindirect ly
Ġg it
Ġnom inations
Ġbur ial
F rench
Ġtr ilogy
secut ors
ĠIS Ps
ĠHe ath
Ġg room
Ġfundra iser
Ġbu ys
ĠCharl ottesville
Ġmem br
ĠInd ividual
Ġs outheast
Ġdest abil
ĠSalv ador
ĠG ri
Ġgl oss
c ulture
Ġd os
are ndra
G H
ud s
t imes
Ġheight ened
ĠPlan ning
Ġoverth row
Ġillness es
Ġs ung
ush i
,' "
ĠB T
Ġdr ums
Sub ject
st y
Ġfraud ulent
C redit
ĠAnd ers
ĠUlt ra
Ġkidn apping
ĠB ened
Ġsell ers
ass is
reg or
Ġutil ized
ph oto
Ġbelie vers
Ġ19 42
ĠIn qu
Ġcomp uls
En large
Ġindef initely
Ġcho pped
Ġgoal t
N ick
Ġsuscept ible
Ġreconst ruction
Ġac ids
ĠPer fect
ĠDar ren
Ġmel ting
Ġgl ow
ĠCon c
n c
ĠSh ot
Ġsurround ings
Ġcease fire
Ġcur tain
it ating
vention al
Ġmiser able
Ġt apes
Ġlike wise
Ġir rational
rav ity
ĠLa unch
b ag
Further more
ĠF ans
id able
Ġst acked
h agen
Ġmiss es
Ġur ine
Ġh ats
count ry
J osh
g age
ac ial
Top ics
Ġpop e
ĠD S
D ig
P rior
s cient
ul ed
Le vel
Ġcatast rophe
ĠK ot
Scient ists
Ġpro claim
Ġst oring
ĠN est
Ġobs ess
Ġunique ly
ĠJ ur
r ance
Ġremark ed
board ing
Ġlapt ops
em ade
the med
AT A
met ry
ĠAR M
M ur
ĠAng ular
Ġcouncil s
ĠM int
Ġhe ights
Ġinqu iries
ĠRh ode
Ġspat ial
Ġrec urring
Ġchar ism
ĠT ier
Ġf aint
Ġex ile
ĠE asy
Ġcomment ator
Ġ195 8
Ġcom r
IS S
ĠB le
ĠB row
rict ed
ĠGen esis
W in
Ġsur geon
ĠJ azeera
Ġshr inking
ob ic
Ġs ang
Ġende av
art en
Ġsuper natural
ĠMot ion
olester ol
Ġdis like
Ġe ch
Ġcr acks
ĠPan el
ĠDes ert
Ġun pleasant
Ġtub es
fr ac
ĠD ucks
ĠJohn s
Ġdest ined
l ain
Ġlif elong
Ġj ugg
Ġoper atives
ĠLike wise
ĠSchne ider
ring ton
Ġdisagree ment
Ġdifferent ial
Ġauthor ization
right s
Ġdisp ers
ĠEx xon
ĠProtest ant
C ustom
a verage
Th ird
ĠAd mir
ett i
Ġelig ibility
F ederal
lud es
Ġgal axies
mark ed
Ġwith hold
Ġoff ender
ĠOr b
Feb ruary
Ġcont enders
Ġovert urned
ee le
Ġvalid ation
200 2
pl aces
ĠIll ust
Ġphotograp hed
Ġmit igate
ĠKind le
Ġreg ression
ĠG iant
ĠWy oming
ĠC anyon
Ġmad ness
Ġpund its
Ġdesign ation
ĠH ag
d oc
st ru
ĠBl ade
Ġsurviv or
ĠO g
ĠIm port
ĠB il
arr ison
ush ima
ig ators
Ġ\ (
Ġweaken ed
Ġ195 6
ĠCustom s
g ae
ĠAm sterdam
ĠD owntown
lant ic
Ġp ent
ĠN ate
Ġintermedi ate
Ġsc oop
qu arter
cre ate
a unch
Ġb unk
ol ia
Ġrev olt
Ġprop onents
ĠL il
Ġch ambers
L in
Ġg y
âĢ¦ ]
Ġt in
em er
Ġsh arks
id ate
ĠB og
ĠFort une
ĠDav ies
ĠLi u
Ġhon ors
ĠCh in
Ġded uct
Ġhint ed
import ant
Ġinter ceptions
Ġmilit ar
ĠGall up
Ġpun ched
ĠAr s
Ġb ounds
ĠBar rett
Ġprepar ations
ĠPart icip
Ġheter osexual
ir teen
ĠS V
ĠDian e
Ġgr abbing
ĠH ugh
um bs
Ġsl ap
ĠF REE
ĠTre vor
F OR
ĠEconom y
ot he
Ġconver ting
ĠBre aking
Ġhero ic
Ġpl ague
Ġwor s
Ġsab ot
ĠB erry
ĠS ig
ĠN ear
Ġcan vas
ĠSh ia
qual ified
Ġworth while
ĠRhod es
Ġunp aid
ĠQuest ion
Ġrehab ilitation
Ġhel pless
ĠRest aur
ĠThrough out
ĠM illion
ul ators
en ment
ĠProv ince
t ier
ĠCl iff
n umber
c ity
Ġfair y
Ġcompos er
d in
Ġcrus hing
L ee
Ġan th
Ġclos et
w s
em y
ÑĤ Ð¾
ott est
ĠC E
ood y
ĠE ston
Ġt enth
Ġdiscipl inary
re z
gl ass
Ġto mb
st ad
Ġre op
Ġon set
Ġsh am
Ġfranch ises
Cons ider
Ġpo orer
Ġrum or
S orry
Ġw olves
te chn
Ġforg ive
ĠO L
Ġspec ulate
Ch icago
Ġlung s
it ures
Ġ10 3
Ġlaw maker
Ġmar vel
Ġdraw ings
ĠBay ern
Ġconting ent
ot le
Ġun authorized
w ire
ĠW id
Ġreject ing
ĠP ierce
Ġch lor
ĠAm anda
ĠPir ate
Ġab normal
ĠAdd itional
ific ent
f ill
ang ular
Ġprint s
ĠKit chen
per ing
c ross
Ġpedest rians
d ue
Ġaspir ations
Ġcoll ar
G roup
ĠNort heast
Ġsc outing
PD F
od s
Ġsu ing
Ġad vertisements
ĠColon el
ĠW orth
pir acy
Ġkid ney
st ill
Ġret ention
uff er
c am
Ġedit ions
Ġabund ant
Ġgluc ose
Ġzomb ies
V ol
Ġfore see
ĠMy ers
Ġsm oked
ex pl
ĠIntern al
Ġland sc
Ġinfant ry
C ard
Ġd ess
Ġg ays
ern ick
ĠÂ §
Ġmin erals
Donald Trump
ex per
ĠD iff
Ġinstall ment
A ri
ra red
h ig
Ġsuprem acy
ic idal
Ġcl one
Ġfall out
Ġreconc iliation
lin er
Ġreb ound
Ġl bs
ĠBr itt
Ġw inger
Ġdi agram
Ġex h
Ġspl ash
ol ation
c ule
ĠT ah
M a
ĠF X
Ġver ification
omet ric
ris y
Ġtel escope
ĠC oy
Ġalign ment
ĠRe becca
ĠGu inea
Ġchance llor
Ġtelev ised
ĠHass an
Ġplay ground
ĠV ers
D ue
pl er
ave z
ump ed
ĠH aven
c oll
art z
sm all
affe ine
ĠS hen
ĠK em
Ġeffic acy
Ġv oy
Ġco herent
Ġ195 4
Ġcomp ilation
ĠV ita
C y
C ould
Ġco erc
ĠStand ing
B rian
Ġz oo
Mart in
Ġexc uses
Ġdraft ing
R ather
Ġro gue
Ġmortg ages
O ld
Ġsupp ression
im ation
- $
ĠJud a
Ġcl usters
Ġorganiz er
v able
ĠL akes
Ġsm ashed
Ġt sun
Ġsouth west
Israel i
ĠR SS
Ġs aga
Ġimag in
Ġcock tail
Ġst umbled
ba um
Ġblu eprint
Ġstri ve
ĠR ating
ĠTest ament
L ondon
Ġplag ued
ĠAt las
Ġdictators hip
Ġsuper star
ĠM ate
Ġapp les
ĠD ance
Ġdisag reed
D eb
f ocused
ĠF ell
Ġcirc ulated
Ġres h
Ġcountry side
ĠM oses
ub a
Ġunanim ously
Ġpro claimed
ĠD B
re ne
og ene
Ġsc out
Ġunders c
B rad
ĠG ur
qu et
Ġumb rella
ĠP am
Ġch orus
Ġaccus ation
l ia
Ġgl uten
ĠCoun sel
ĠD iaz
Ġmon arch
ĠC er
stand ard
ĠGu jar
Ġmer ged
ĠM oy
ĠE R
Ġmanip ulated
Ġpecul iar
Ġdis able
ĠM ega
ĠLe icester
Ġdismiss al
Ġpersu aded
Ġaccomplish ments
in as
ĠP ine
ĠCom plex
Ġstaff er
Ġfant as
Ġroll er
Ġrecept ors
ĠPrem ium
ĠRock y
m n
Ġprohib its
Ġt iles
ĠP rest
Ġaffidav it
Ġmult inational
al ong
iv ism
ĠW ine
P O
Ġs omeday
osp ace
Ġintimid ation
ĠIs is
Ġost ens
Ġinstruct or
Ġam ass
Ġlear ns
t arians
Ġcomp ression
ĠJack ie
umn i
P E
ĠWag ner
ĠV ote
Ġener get
ĠComp anies
Ġprem ie
On line
Ġprotest ed
Ġd ots
Ġunl ocked
Ġl akes
Ġcontin uation
Ġbrew eries
ĠHug o
" );
Ġmess y
eff icient
o il
Ġdr astic
ĠNep al
ĠLyn n
Ġb iblical
th y
Ġcraft ing
Ġdial og
ĠOs borne
C ast
Ġinnoc ence
Calif ornia
R om
ĠP ra
Ġm aid
Ġrational e
ĠCh i
person al
educ ated
D ist
ĠRe venue
ĠQu ant
ĠWar rior
Ġbrows ing
c ano
Ġ19 17
Cre ate
Ġtherape utic
he avy
Ġhead phones
ĠPl atform
J UST
Ġtor rent
Ġstap le
ĠIndust ries
Ġst air
Ġmarch ing
Ġf ade
Ġfr inge
Ġbell y
ĠF argo
Ġmaj ors
Ġcommod ities
Ġcler k
ĠN arendra
Ġprogress ives
Ġest e
kins on
Ġ ion
N early
Ġd ock
ĠT as
Ġtele com
ĠYork er
b ons
Ġm int
F oot
G ov
Ġswift ly
Ġg el
Ġsh attered
real DonaldTrump
Ġinteract ing
Ġl ob
tr ade
d eter
Ġse gregation
Ġre imb
bel ief
Ġfreel ance
de ath
ĠG em
ĠRep ly
ĠRef uge
Ġl id
Ġby te
ĠV as
Ġkill ers
Ġacc ustomed
pro duction
ĠMan ufact
Ġadjust ing
U r
Ġresist ed
Ġubiqu itous
O pp
Ġp anc
Ġprop oses
Ġbad ge
iv o
H am
m or
Ġl ith
us ra
Ġreprodu ction
Ġm esh
od ore
Ġcar ved
if ax
Ġ10 6
ĠR unning
il ib
Ġpol ite
Ġox id
Ġb ark
Ġneg lected
ĠIS O
Ġund en
Ġind icted
l ate
Ġdest iny
ĠA zer
ĠR ol
ĠH av
Ġsett ling
ĠH amb
ĠN OW
ĠT ag
Austral ia
ĠP RE
Ġopp oses
F ort
ĠT IME
Ġscan ning
ĠN W
bour g
icult ural
Ġsk ies
Ġc ros
ĠW on
ĠW er
reat ment
ĠT at
Ġdilem ma
Ġdecor ated
Ġ Ã©
ĠMan it
Ġadvert isers
ĠH our
Ġsol itary
D i
ĠR ise
ĠKore ans
ĠBur ton
Author ities
ablish ment
J es
ĠS ugar
ĠV ern
rel igious
f iction
lling ton
Ġ7 50
ĠC AP
Ġharm ony
ĠWat ers
Ġg ospel
Ġpoison ing
Ġdisreg ard
ve ment
Ù Ĩ
ĠInter view
Ġco hes
g io
Ġback pack
Prof essor
ĠLuck ily
ĠEuro pa
pher d
ol iberal
A cc
Ġb un
ed ience
Ġp uls
Ġunt o
ĠH uck
Ġshoot ers
ĠOff icials
Ġaccident al
ĠStr ategy
ĠFe el
wart z
Ġcross es
Ġthank ful
Ġadvert ised
Pr ice
Ġw ax
Ġl iable
Every body
ĠA WS
10 2
ĠLink edIn
Ġemer ges
ĠBor is
Ġrep ression
ĠLen in
ĠMour inho
ĠEug ene
Ġmisdem eanor
11 5
Ġne oc
Ġw aking
Ġrepl ies
NAS A
Ġmight y
Ġge ographic
ĠPun j
ĠM ist
ĠG addafi
W ater
u ilt
ĠB ast
Ġcollect or
ĠChurch ill
ĠAng lo
ĠCl aire
ĠArmen ian
h ash
Ġant it
Ġst alled
!! !!
G ET
c irc
ĠJ ak
ĠS R
J ose
Ġhe x
Ġgovernment al
ĠAn s
ĠOrig inally
ĺ ħ
ĠAv iv
In side
Ġdoub ling
Ġwild erness
Ġthank ed
ĠRel igious
Ġc ant
Ġ195 7
ĠSerb ia
ĠMarx ist
ger ald
com b
ĠNew man
ĠSh awn
H y
Ġsubm issions
12 8
Ġstation ed
ĠPer u
Ġcyn ical
Ġrem ake
Ġric her
Ġreprodu ce
enz ie
Ġ195 3
ĠAmeric as
Ġsp ider
yr us
ĠC W
ĠN PC
Ġschedul es
D F
hen ko
Ġver ge
Ġdownload ing
f acebook
Ġweigh s
ĠF ury
Ġtr aps
Ġexist ential
Ġpar ole
Ġa ka
Ġbr ace
ĠPR O
ĠZ omb
ĠLab s
ĠCON T
ĠR ising
ĠSt ark
ĠHung arian
m ove
at ri
Ġm ansion
ĠW ave
J ournal
Ġpir acy
Ġspecific ations
ĠK ub
coh olic
r anking
Ġd ur
Ġang el
ak is
Ġconcer ts
Ġsystem atically
Ġscreens hots
be y
ĠDem s
udd y
Ġgar nered
Ġunanim ous
Ġveget arian
Ġproc ure
c f
io let
Ġant agon
Ġtrans plant
Ġgard ens
Ġsurg ical
ci um
Ġpolicy makers
f it
ĠLe h
Ġl akh
Ġth riving
Ġdiv isive
Ġtum or
ĠD ocker
ĠConst itutional
ĠP ep
Ġearn est
Ġl enders
Ġcomment ing
ig ger
Ġv ow
Ġcl utch
ĠPer iod
ĠS ah
ĠSt yle
Ġmedic ines
cho ice
Ġlog istics
ĠRes earchers
gener al
Ġcertific ates
Ġpsy chedel
b ee
ĠRe y
Ġrest ruct
C ore
ON D
ub s
Ġrem edy
Ġ} ;
Ġexagger ated
ĠHe ather
ĠHam mond
Ġbrand ing
Ġ ï
Ġchar ming
or ously
Ġdown side
ĠS orry
Ġir regular
ĠV ir
ĠSh ut
Ġwas ting
Ġsent iments
Ġenfor cing
g as
s afe
ĠFle et
Ġf ried
um en
ĠOut side
Ġmyth ology
Ġst igma
Ġdem ocrat
Ġdin osaurs
ĠB ag
Eng lish
spe cial
Mem bers
ĠL ar
Ġspons orship
r ice
Ġy a
ĠB oot
f ashion
Ġs ized
Ġarchitect ural
art icle
ĠCongress man
Ġblog gers
r ine
ĠW ald
she et
f aced
gr and
oh yd
p ensive
Ġinc arn
Ġam ple
ĠÂ Ĺ
ĠI F
ĠO C
Ġign ores
cript ions
Ġcommun al
ĠâĢ ķ
s or
ĠAn kara
Ġserv ant
Ġshort ages
Sec ret
ĠV ic
Ġ< <
ĠRap ids
ĠFor ward
Ġdepict ing
Ġtweet ing
the ir
Ġ19 43
Ġarchitect s
R on
ag netic
Ġcl oses
N umber
Ġform idable
ĠNob le
ĠSyri ans
Ġret iring
Ġcongest ion
Ġse ated
product ive
Ġn as
ast ics
Ġeven ly
Ġp ads
Ġanim ations
he rence
Ġcrack ing
Ġconce al
ĠFreder ick
Ġpat rons
Ġ( #
ĠRay mond
Ġimp art
Ġloud ly
ĠHig her
Ġd amp
Ġsoc ietal
Ġacclaim ed
Any way
Ġ19 55
De ath
Ġar ises
Ġpath ways
ĠWhe eler
Ġdr ills
Ġaggrav ated
B ur
a qu
ĠL enn
ari us
ĠA FC
Ġa rom
ĠCong o
à ¥
Ġmass ively
ĠM aid
ĠF ri
Con nor
h ou
ĠF eed
Ġbu cks
ĠCons ult
Start ing
Ġincap able
Ġbod ily
ĠSy nd
Ġinject ed
ĠWrit ing
4 50
Ġro oft
10 4
ĠLeg ion
anger ous
ic us
oc hem
Ġenvelop e
Ġseiz ures
d ies
ĠGard ner
ĠNe igh
A ud
f ounded
ĠRock et
Ġn g
ĠB ot
Ġplum met
ĠO UT
ĠRE AD
ĠKat ie
in th
wh y
Ġske let
Ġdesc ended
Ġgoal ie
ĠZe lda
Ġref resh
f uel
Ġimp ending
Ġdeep est
Sund ay
Ġsupp lier
Ġref rain
Ġevac uation
id ad
Ġfire works
Ġper imeter
orm an
Ġcann on
Ġmerch ant
ĠT ool
ist ence
ET A
ace y
Ġmon key
ĠP owers
ĠG E
Ġgrad ual
Qu ery
Ġjurisd ictions
Ġiniti ate
b ishop
Ġm um
Ġlast s
Ġsc ans
Ġwhere by
ĠVen us
ĠBuddh ism
W all
sole te
Ne ill
I r
Ġp act
Ġanten na
Ġk et
ĠRC MP
ĠL anka
Ġwho pping
old own
Ġaver ages
Ġun identified
ott i
Ġover c
al ine
ĠA ce
Ġp ac
Ġc ough
ĠM ale
Ġpup ils
T B
Ġcompan ions
ord e
Ġreserv ations
Ġindu ce
K it
ĠOff icers
im an
ef ined
ĠS ikh
ruct ions
Ġcounsel ing
ĠRel igion
Ġproport ions
h h
Ch arl
Go vern
= '
Ġmed d
ĠSex ual
Ġfor ged
ĠP orsche
Ġann ot
Ġd itch
d ependent
ĠS onic
ĠL TE
Ġplay able
Ġpredec essors
ĠJoy ce
ed a
ĠHans en
ab ase
Ġtruth s
Ġspect acle
Ġexplo its
Ġaffili ation
Ġt apping
ĠPh ase
Ġrul ers
are l
Ġir responsible
ĠEll en
Ġf al
Ġun in
IL E
Ġnit rogen
Ġrent ed
un ion
Ġrenew al
Ġopp ressed
ĠL SU
Ne ither
Ġbr akes
ĠLaure n
ĠVict ory
Ġs or
Ġde gr
Ġmed als
ĠCom bat
ĠC ert
ĠM AR
Ġsw all
ĠÐ ¾
Ġsens ory
ĠF ighting
ĠAp ache
ĠIn come
Ġcirc ulating
Ġreg istry
Ġphotograp hers
L ight
ik ed
ĠMin ority
ĠAndrew s
Ġc it
ĠN olan
Ġphil anthrop
ĠCard inal
C BC
ep ernick
Ġfasc ist
ĠMah m
Ġsw ear
Ġeleph ants
Ġprolifer ation
Ġd op
ĠB rief
ab ee
ĠSant os
Ġatroc ities
ĠRe ich
pr us
Ġca fe
Ġcl an
Ġtransform ing
AC H
Ġ19 49
Ġbur ger
Ġgest ures
Ġund o
Ġdem ons
me aning
ĠKu wait
Ġstub born
t urn
priv ate
Ġb ree
M ary
Ġstr ongh
Ġbre asts
ĠT umblr
T em
t ical
ĠC ous
.âĢĿ )
ĠHe in
Ġhigh s
ĠSm ash
h on
ĠM R
ĠE manuel
F und
com pet
10 3
f ires
Ġrun time
Ġdisrupt ive
Ġm ans
Ġculp rit
Ġch unks
Ġspeed ing
Ġne p
00 3
Ġflood s
Ġgood bye
Ġsuccess ive
Ġal ley
y et
Ã Ĥ
ĠI o
Ġaw ake
Ġlim bs
Semit ic
ĠBra ves
Ġstri ps
ĠProduct ions
w ild
ĠP ip
ĠRe ality
ih il
Ġhal ted
se ys
Ġf ier
ĠMed al
Ġhe mp
as io
Ġmut ations
I ron
Ġalleg iance
Ġmem e
r t
ĠC ultural
ĠN iet
is man
ĠR aspberry
enc ia
Ġlau ndering
t ar
y ll
ĠIns pector
Ġinad vert
p rop
Ġgrat itude
sc ill
Ġmut ation
ĠRoy als
ĠD ifferent
Ġpo pping
ell i
ĠSav age
Ġsl ope
Ä Ł
Ġexpend iture
ĠSuper ior
Ġr ude
Ġen cl
h un
Ġrem n
Ġrev ive
ill as
st ro
ĠCor nell
ĠSaf e
open hagen
Ġgrab s
ĠD y
ĠEn joy
IN D
ĠCelt ic
Ġand roid
ĠG ET
ĠGar rett
// //
ĠElect oral
ĠJuda ism
edd y
Ġrespect ful
Ġmemo ir
Ġcomfort ably
Ġplanet ary
ĠS ans
Ġlim itation
Ġrest oring
Ġst all
Ġs ir
Ġv ou
ĠG olf
F un
Ġon ion
Ġvill ains
Ġcontinu ity
ĠRel ated
ov y
pict ured
Ġsur real
Ġsad ness
Ġchick ens
Ġcor related
S ad
Ġdepart ed
VID IA
ĠP resent
Ġundergrad uate
ĠW enger
Ġ10 7
en za
Ġrob bed
I B
ĠGree ks
) [
c od
Ġsp ur
Ġharass ed
ĠPeters burg
11 1
Ġ10 8
Ġtri angle
ĠCharl eston
ĠFro st
J ason
ill ions
comm ittee
ĠG ent
Ġp oker
t arget
ĠE cho
It em
ĠSp ark
B er
m ia
Ġworld view
Ġpiv otal
S u
ĠB om
Ġincorrect ly
ru gged
com merce
Ġexcept ionally
L ocation
ĠG ut
ĠRes istance
ĠMed ium
Ġauthent icity
z an
Ġtempor al
z ip
at ical
Ġmicro bi
W al
ĠBel fast
Ġsu cks
Ġprofound ly
Ġinter ception
Ġgr ains
D D
ĠD NS
Ġ11 2
Ġdi ets
Ġo z
Ġh ug
ĠS leep
ĠP u
ody nam
Ġsl ate
Ġbud dy
ld on
m oon
r ue
Ġsimpl est
whe el
. /
Ġdisc rep
N P
og ram
Ġcommer cially
Ġinc ub
Ġsl iding
P an
Ġgener als
Ġel bow
Ġfor c
e on
Ġcamp ing
ĠD uck
Ġun official
ĠCamer a
Ġassess ing
l n
Ġper former
Ġdisc ern
Ġhit ter
M ond
ĠMarket ing
ott a
Ġpseud o
ĠD re
Ex p
ĠNe o
ĠM Y
ri o
Ġst d
ĠAl ban
ex isting
Ġrem oves
Ġincarcer ation
ĠP O
Ġdis comfort
Ġs ins
ĠHar old
Ġimpe achment
ic ular
Ġess ays
ĠT ucker
Ġge op
ass er
Ġske leton
ĠPod esta
Ġnep hew
Ġl ure
ĠWe ight
Reg ardless
ĠT SA
osh op
f ig
p resent
Step hen
ĠJ ail
Intern ational
ut ory
Ġall erg
Ġexecut ing
Ġhypoc risy
Ġspec s
Ġinc idence
ĠRep orter
ĠJo an
ĠTechn ical
Ġequ als
ad ic
Â Ĺ
Ġ19 46
idel ity
Ġwork load
Ġresp ir
s ince
Ġmis ery
Gl obal
Ġconf essed
Ġspec ulated
ĠChrist ine
ver ts
ar us
Ġver te
ĠMoh ammad
Ġsynt hes
ĠRevolution ary
Ġdr ift
B usiness
Ġtiss ues
re lease
Ġinj unction
ong o
Ġrain fall
Ġse af
im o
ĠC aucus
Ġgra ffiti
Ġprovoc ative
ew orthy
Ġtest osterone
Ġsqu at
Ġdecre ases
Ġpil gr
W ed
Ġe lic
ĠFl ore
Con nect
D ark
Ġc ove
ĠC OU
ĠPop ular
et r
Ġbl oom
ĠCol bert
Ġhall uc
ĠEth ics
Ġsit uated
ĠSebast ian
ĠNic ole
d ain
ĠExt ra
M ont
b ai
Ġprep ares
Ġbigot ry
H en
Ġtot als
Ġcampaign ed
Ġz ip
ĠPre p
at ra
ĠMar athon
Pro v
s kin
ĠL iz
Ġdev ote
AN G
Ġinflamm ation
it ant
Ã± o
ĠM TV
Ġcoll usion
Ġge ek
Ġrail road
Ġsy rup
Ġrul er
Ġboard ing
Ġinv aded
ĠList en
asket ball
ĠF en
Ġtend encies
Ġpharm ac
Ġpuzz les
Ġsh ining
IS IS
Ġam en
inc re
ĠDur ant
Ġn ud
ĠBl ocked
Ġwas t
ĠAm nesty
Pl ayer
Ġb aked
S F
ĠFull er
Ġdec omp
Ġinter vals
ĠSh ore
threat ening
te enth
ĠStrateg ic
ĠR ole
ĠCom put
ĠPed ro
ĠPatri ot
just ed
ĠRec ent
Ex pl
act ly
ĠTe en
Ġnot ions
b order
ub arak
Ġschizophren ia
any e
Ġdict ate
Ġst ain
Ġvill agers
et ics
Ġtheoret ically
ĠD uc
ĠD EA
Can adian
Ġt abs
Ġnew born
ĠL B
ĠCar p
Ġper il
Ġun aff
cent ric
S ky
r itional
ĠSt ur
Ġprol ific
Ġpreced ing
E st
ĠF actory
au f
Ġbo il
E V
Ġb aff
Ġspecial ty
ik ers
Tr ue
u ously
Ġconflic ting
ron ics
C ru
ĠFly ers
iss ue
Ġout we
ĠTH C
utter stock
Ġtoug hest
Ġre play
ĠD HS
Ġper t
ĠDrag ons
ĠP ale
op ia
Ġk ings
Ġqu ir
Ġfil ib
gress ive
ĠApp lication
Ġpair ing
ett es
auc as
ĠLe eds
ĠArch ives
Ġpref ers
c reat
Ġsal mon
char acter
IC S
tt a
g ithub
ĠUA E
ĠP oor
Ġsm ash
ĠZh ang
its u
ĠSe vent
ran ch
ĠTh ing
ĠN R
l ove
ĠS ize
st ant
ĠP retty
ĠK re
Ġ-- >
Ġneighbour ing
Ġinex pensive
el o
ĠHe b
ĠPat terson
ĠS aid
Ġo v
Ġl ocking
Ġyear ly
Ġinv asive
ĠZ ika
Ġbra ke
Ġf ills
Ġsm iles
Never theless
ĠNot ice
ĠE z
ĠBul gar
Ġex pelled
ĠBut ter
Ġsur rog
IN K
ĠLam ar
ĠLie utenant
Serv ice
ĠAr ist
Le ft
en ame
ĠAud i
Ġpl ight
Ġur ges
Ġpro w
Ġexpl ode
het ics
t aking
Ġsim ulations
Ġrot ating
UC K
Ġcoun ters
Ġ10 9
ir ling
Ġins iders
Ġrestrict ive
ĠIndones ian
Ġem ission
ĠCal vin
ang a
ĠMel issa
Ġx en
Ġadmin ister
P ER
ĠBrad ford
Ġmail ing
Ġwh ip
ĠLic ense
Ġexpl ores
ĠFe atures
Ġvoc abulary
ĠV oy
Ġgig antic
Will iams
ĠM echan
leg round
l ich
ĠCu omo
Ġguess ing
Ġche at
Ġste er
Ġcl ay
Go ing
Ġunivers ally
ĠGujar at
Ġpass er
v on
ĠMy an
rain e
Ġconfig ure
Ġpack ing
Ġinstall ations
ĠMult i
Ġc ues
ĠEp ic
Ġrab bit
Ġ2 30
ich i
r aining
Ġnow adays
alk er
Ġscore r
Ġal erted
Ġch olesterol
th ose
Ġam azed
ĠGod s
ĠAv ailable
ĠS ara
Ġimper fect
Ġcondemn ation
German y
ĠWh ole
Ġgr ammar
Ġaccum ulation
Ġimp aired
Ġvacc ination
Ġperson a
ĠA id
Ġstr at
ĠWi Fi
ĠGro ve
Ġh ottest
ous se
ric ks
Ġapp end
Ġs ou
oot er
ĠBill board
Ġr app
ĠG erald
ĠIss ue
y en
Ġh ates
Ġcommercial s
ĠL ac
Ġappl ause
ĠÃ ¢
Ġpl ac
ĠFitz gerald
ĠW itch
Ġdevelopment al
Ġcelebr ates
Ġlect ures
Ġlif es
ĠCh avez
Ġpost ure
Ġrat ios
M ic
Ġat om
Ġbr ink
Ġcommun ism
Ġdisproportion ately
OS S
Fr ance
Ġde port
Ġdefense man
hib ition
Ġlaw ful
Ġgl am
Ġjihad ists
Des ign
k top
g ering
Ġritual s
ĠBay lor
Ġsmugg ling
Ġdist urbed
Ġsubsid y
ĠA W
Ġinsult ing
Ġexp ire
ĠInf o
ĠJ ab
Ġd ictionary
but ton
ĠSol utions
ĠKey stone
Ġdescend ants
ĠSt am
Ġremember ing
c amera
Ġco ached
ĠNAS CAR
T M
oh an
st re
Ġunder mining
Ġa we
OU ND
ĠChap man
ĠJ as
Ġcris p
ĠSor os
ĠMyan mar
ĠGu ate
ĠB ug
not es
ĠJoh ann
n om
ĠH oney
ĠU E
Ġpolit ic
Sen ator
d uty
Ġch illing
rent ice
ym es
hard t
ĠMar ijuana
Ġinfect ious
Ġexpend itures
ĠLiber tarian
Ġinsurg ents
Ġoil s
Ġ/ *
sp ot
ĠSett ings
Ġgl owing
Ġrum ored
rend ered
ĠLind sey
Ġhorm ones
ct ica
Ġexperiment ing
h awks
Ġdiscrimin atory
Ġspecific ation
W ait
och ond
Ġair ing
ĠTw ilight
ra its
n as
ĠNic olas
Ġpractition ers
Ġconstruct ive
Ġfo am
cr ime
ĠPhilipp ine
Sen ate
ĠCh ang
e ast
ĠDe V
Ã¡ s
Ġtra umatic
ĠStephan ie
Ġfam ed
Ġcler gy
w on
Ġsle w
che wan
ĠC oul
Ġext inct
ĠM AN
ĠR ash
Ġdecre asing
Orig inally
ĠD ocument
Ġdefin ite
R ev
oc ating
man ned
ĠX ia
Go vernment
Ġsal v
cap ital
ĠV ander
Ġfr iction
ĠShe ikh
Ġconfig ured
Ġmot ors
ĠW yn
ĠOrig in
Ġimp uls
Sim ilarly
l ang
ĠZion ist
19 99
nt on
10 9
Ġc emetery
ĠW ong
Ġhands ome
Ġd ynasty
iv or
Ġtrans cend
Ġrest s
ext reme
K now
ĠFuk ushima
ĠP av
li able
ag ent
Will iam
M ajor
ĠG C
ĠCom ments
Ġpol ished
Ġ) :
Ġb apt
Ġf ox
Ġm ocked
Ġmunicipal ities
Ġp etty
Ġpe as
ĠResp onse
j ournal
j ava
Ġexhib ited
Ġle v
Ġnic otine
ĠG amer
LA Y
Ġpatri ot
e us
ur istic
T aking
ĠDis play
C arl
Ġr av
ĠC ain
Ġther m
ĠP izza
Ġconsult ed
Ġtsun ami
is ch
ĠA CA
ĠM ental
Ġfort unes
ĠLes lie
ĠC openhagen
Ġsuper f
Ġunre asonable
! ),
Ġt ipped
Ġpro se
ĠOpp osition
ĠStand ards
P ath
Ġjud iciary
ĠFred die
Ġrestrain t
en ary
ĠN om
sw er
Mus ic
ign ant
ĠV it
ĠSol omon
ri ented
Ġconf ess
Ġcontrad iction
T en
av ier
ĠUnder ground
Ġhist ories
Ġrevers al
S n
Ġout doors
Ġphenomen al
ĠPsych ology
ĠT yson
ĠI PA
Ġcyber security
ĠL un
Ġsand wic
od o
Ġbub bles
Ġf aded
ĠH os
ket ch
Ġuns ett
at hing
Ġdisp atched
c ats
Ġschedul ing
Ġrecons ider
Ġins ign
Ġinterpret ations
Ġtr unk
ĠSS D
ĠW ash
od us
ĠBened ict
ĠHas kell
Ġemploy ing
ĠOs ama
Ġ195 2
Ġt earing
ms on
Ġtr act
Ġplug ins
uper t
ĠL L
es que
ĠS it
ĠTe ams
ro b
ĠFr aser
Ġ13 5
vid ia
com pl
17 0
ĠWr ite
reg ulated
ĠCy prus
Ġinstinct s
Ġmon uments
v s
ap i
ĠConst ruction
m oney
iov ascular
ĠC ed
Ġmush rooms
our cing
gl obal
Ġprin cess
ĠTr inity
ĠOb server
ij i
Ġgeomet ry
f inals
Ġp ains
Ġcommem or
Ġdistribut ing
ĠBrig ade
ĠOper a
Ġcher ry
Ġra ided
Ġrent s
Ġesp ionage
ĠHell o
Ġmillenn ials
ch in
bo at
Pal est
ber ries
Ġge ography
Ġboost ing
am oto
ĠW AS
ail ure
Ġgrand parents
Â ½
ĠW ILL
Ġpart nered
ĠShort ly
Ġ15 00
ĠN issan
re b
ĠPh arm
Ġfulf illing
ĠAst ros
.âĢĻ âĢĻ
ĠD ogs
Ġouts iders
Ġblat ant
j ah
t xt
Ġpenet ration
ĠR id
Ġpass ages
ĠNon etheless
Ġsh ale
Ġcollect ors
Ġmand ated
Ġfemin ine
Sec urity
Ġkind ness
an amo
Ġl amp
ĠR i
Ġdrag ging
Ġm as
ĠAss ass
ĠChar acter
Ġp ins
ar is
ĠValent ine
L oad
Ġconc ussion
oy a
a ude
Ġs ulf
Ġsupp lements
Ġobst ruction
3 60
Ġoptim ization
Ġdiscour age
Com ment
ĠDet ective
Ġecl ipse
Ġstart ling
Ġs inking
iv ities
k ick
Ġpres crib
ne eded
ĠUn block
Ġlong standing
Ġuns pe
ĠSh arks
Ġrac ially
ĠRoc hester
ĠInnov ation
bro ken
all ic
Ġstrengthen ed
ĠE ld
az ingly
Ġregul ating
Ġclar ified
Ġhome work
ĠTre nd
ar ations
Ġread ings
Ġs acked
Ġin mate
ĠInterest ingly
Ġfront s
ĠFranc o
ĠFront ier
ĠP ont
ĠSh ir
Ġecosystem s
i very
Ġs arc
Ġsl ash
ĠAs ked
medi ately
Ġhe ars
Ġfin anced
Ġmanifest o
en h
ĠM alt
Ġexcell ence
ĠUn known
Ã± a
c ritical
if ts
Ġconc urrent
Ġgun fire
ess im
Ġright eous
em on
m aid
ĠMig uel
Ġsort ed
k ish
Ġstat ues
Ġmar itime
ĠArch ive
Ã ¯
l aughs
Ġsub set
Ġgu iding
Ġgen res
Ġeth ic
f ed
Ġheavy weight
U t
Ġcompet ed
Ġoptim ized
H E
B T
r anked
Ġm aternal
ĠSh arp
ĠMotor ola
ĠE VER
orn ings
ĠJav ascript
F ast
Ġ19 33
ĠKir by
n ick
Ġfat ally
Ġjewel ry
Ġfront ier
Ġindic ations
f ell
h ma
Ġyouth s
Ġoun ce
. âĢĶ
E conom
Ġleg ends
ĠDecl aration
Ġout going
w agen
Ġch ased
ĠEx pect
25 6
ĠL ords
Ġfulf illed
am my
B ad
Orig inal
ĠAv iation
Ġethnic ity
ĠSpot ify
ĠArt icles
Ġgate way
ĠK ur
Ġproceed ing
att a
Ġd wind
Ġarc ade
T it
Ġinv oked
Ġrun way
OL D
Ġinflamm atory
c uts
Mat thew
Ġcart oons
IG N
ĠSt rat
ĠJohn ston
Ġreal izes
ĠFr ances
ĠM K
Ġtrail ing
Ġpestic ides
R a
Ġbl ues
Ġopen ness
ĠB end
ĠAll ied
Ġh amm
Ġdeploy ing
Ġpump ing
C ost
uc ing
Ġworks hops
Pri v
Ġunle ashed
Ġpen insula
est ablished
Ġexplo iting
sh ort
Ġimpl ication
ĠJac obs
ĠPubl ishing
ĠC V
Ġmis represent
Ġoblig ed
Ġb ully
I Z
ent on
Ġun available
ĠBar on
Pre vious
ĠPay Pal
ĠCor rect
Ġorganiz ational
ĠAny way
Ġdef ects
Ġsp un
ĠIs n
ĠM T
cl ose
Ù Ĭ
ĠArt ist
Ġs unk
at ts
man agement
Ġoverr ide
IC A
Ġrock y
10 6
ĠCh icken
Ġpr aying
ĠMon roe
ld om
Ġunexpected ly
Ġastron omers
ĠPre vious
ĠAst ron
Ġabrupt ly
Ġcoh ort
Ġkn ives
udd le
Ġoversee ing
Ġhold ings
ĠAfric ans
Ġmoist ure
Ġ iv
i ya
ĠY ug
ĠCustom er
i ating
Ġpe aks
J udge
Ġbur nt
Ġframe works
Ġparent ing
ĠIb rahim
Ġob ese
ĠH ers
Ġhes itate
Ġyield ed
umb les
ĠSch war
Ġnarc iss
Ġchall enger
Ġvisual s
Ġf erry
l ide
Ġpar cel
ON G
ĠR um
Ġf eder
cept ive
Ġch ord
Ġmod ular
Ġadm issions
Ġspl itting
Ġtermin ation
Ġvib e
ĠV PN
C ase
q qa
ĠSh annon
ĠCon nor
ĠOtt oman
Ġw ishing
Ġphilos ophers
Ġad am
Bre aking
Ġun ins
ov able
Ġch assis
Ġbl ur
att led
Ġ25 6
ĠStock holm
Ġnotor iously
EM A
ĠAr ms
ĠAthlet ic
Ġplant ing
Ġlabel ing
ĠWATCH ED
Ġsummon ed
Ġas semble
her ty
Ġwor m
ĠInt o
ĠCy cling
Cle arly
def ault
ĠA AA
Ġbl ink
act ivity
osoph y
w omen
W orks
ĠJan et
h m
Ġt ac
Ġh iking
Ġret ali
ment ia
ĠCh art
Ġenerget ic
ĠO dd
Ġk idding
Ġm und
Ġspont aneous
Ġdecl ares
Ġsn ipp
Ġceremon ies
ĠX in
Ġwith stand
N ov
Ġens l
Ġgrand children
pat rick
Ġbroadcast s
us ually
Ġbacter ial
Ġslog ans
M R
ĠP P
Ġfl ipped
... ]
W E
Ġp enny
Ġto re
ĠKa epernick
ĠSc out
c orn
Ġmic row
ĠS ke
Ġbi om
ĠDo om
Ġcontrace ption
Ġnot ify
Ġunder mined
Ġhom emade
Ġill umin
mans hip
Ġgener ators
ĠSol o
Ġwand ering
ing es
Ġhand ler
ut sche
ĠCom mercial
Ġe ve
ig ated
vis ors
Ġbl onde
Ġcentral ized
ĠT ank
Ġper vasive
Ġf ixture
ĠF ry
Ġsil icon
Ġbe verage
Ġdemol ition
Ġcon ve
Ġexc luding
Ġtrig gering
oss ip
Ġmotiv ations
C oll
p ires
Ġmod s
and ro
Ġescal ation
Event ually
Jew ish
Ġstr anded
ĠAl bum
ĠOpp ortun
ut able
ĠHar b
aid a
ĠGold berg
Ġs lick
Ġbeh old
am bo
be ck
F lor
Ġsoc ks
Ġtom atoes
Ġprogress ed
Ġretain ing
ĠTown s
v ine
reat h
ĠAN Y
bet ween
iol a
z ero
ĠG ren
Ġhe ap
Ġw izard
Ġb ids
ĠK abul
Ġ17 5
: [
N F
S k
Ġfil ings
ĠSec urities
ĠS ally
Ġsp rawling
Ġd ental
ĠG IF
reg ulation
g ard
ĠField s
ĠM W
l ists
ĠAur ora
ĠK ris
uck land
Ġproced ural
ĠV on
M il
Ġob solete
Oh io
ĠPengu ins
L uc
ys ics
he ne
ĠÂ ĸ
Ġev id
ĠBur ger
" ?
ĠMac ron
t im
Ġ( (
ĠA ber
Ġor thodox
Ġrespect able
x imately
ĠN igel
ip al
ĠReg ist
Ġlos ers
ĠHann ity
Ġbureaucrat ic
ĠBar r
Ġblock ade
ĠTor res
Ġmet ropolitan
iv ist
Ġdiss atisf
R B
ob il
Ġsid eline
E ast
Ġmis guided
is y
St and
Ġsod ium
ĠM Hz
og rams
Ġ19 14
Ġthro tt
Ġresist ing
if ty
ĠSant orum
Ġsqu ares
Ġcos m
Ġd urable
Ġpione er
g all
ĠNew ark
Ġsat ir
Ġcon quer
E arth
m t
ĠL uk
Ġhigh ways
il ot
get own
Ġdom est
ĠHor izon
Ġdatas et
Ġreject s
Ġrese ar
Ġgl ue
Ġstat utory
Ġcancell ation
ĠG ru
Ġa isle
ĠO ption
sh are
M rs
Ġmat urity
Ġc av
Ġg a
ĠL ok
ĠMoz illa
ĠRut gers
ĠGuant anamo
z illa
AR S
Ġrestrict ing
. *
Ġl ent
p ng
Ġsynt hesis
Ġc affeine
ĠSt eele
ĠPer th
ĠSw ord
ĠMad uro
l ated
To o
ĠC ec
Ġimag inary
Ġmetab olic
ĠLu cy
ocaly ptic
ĠBlack s
ÑĢ Ð°
ĠAl v
Ġbal ances
H appy
U B
Ġvan ished
ĠH iro
Ġcor ro
St ream
Ġassist ing
aw k
Ġrespir atory
ĠB ath
ĠSc and
Ġmon keys
Ġtest ament
it ious
13 5
ĠS ark
Ġse ating
ev il
Ġcub ic
Ġbus h
Ġlab s
ĠAdvis ory
S ystem
ĠH B
ĠL is
ĠE y
11 2
ĠLaw s
Ġle isure
Ġche ering
Ġsmok ers
Ġsum m
Ġl ord
Ġstress ful
Ġutil izing
ic ially
Ġmagn ificent
rec ogn
dig it
Ġcan cers
Ġdisc arded
Ġar rows
Ġprev ailing
Ġvis ions
ĠPTS D
Ġimp over
Ġarm ored
ĠW ool
ĠRes cue
Ġconsult ants
Ġrum ours
Ġalph abet
Ġdem ographics
Ġsin ister
Ġs igh
ack ers
j ury
Ġth ieves
Ġce ased
Ġvers a
Ġobject ed
Ġre write
i ago
o i
Ġstandard ized
onge vity
Ġund ec
id as
Ġab using
Ġelect rons
Ġlik ing
ĠPod cast
Ġinsist ence
Ġlaund ry
ĠZucker berg
E ff
ĠH il
itt e
Ġcirc uits
at ible
Ġass im
ar ray
Ġexp ands
Ġlive lihood
ĠD raw
are th
f at
avor ite
Ġarbit ration
V ia
ĠF usion
Ġimpress ions
s ch
ĠBoy d
Ġ195 1
D L
j son
m ort
ĠJoe y
Ġtele communications
ĠQuest ions
rac use
not hing
Ġsc aled
Ġjud gments
Ġun for
Ġa ided
Ġn ap
/ -
ov sky
Ġrel iably
Ġac oustic
ĠCre ated
Ġpump ed
Ġstim ulate
Ġ19 18
Ġpromin ence
an an
Ġad here
acc ount
Ġaw ait
ĠDani els
ĠM ubarak
Ġne oliberal
Ġ19 38
ĠWe ber
ows hip
ĠAg es
Ġde ception
ĠR andom
Ġswing ing
ier i
Ġaut obi
Ġrehe ars
ĠGreen e
e ight
CL OSE
Th ursday
ĠO T
al most
ĠSad ly
Ġfear ful
Ġpro let
is ine
ĠS ina
Ġincons ist
ĠN er
10 7
Ġcondem ning
Ġdiff ers
go ogle
Ġsacrific es
ĠAntar ctica
he a
ĠT witch
uck ing
ALL Y
en f
Ġ[ âĢ¦]
ĠWhe never
ĠP ixel
Ġgrad uating
ĠD as
ess ment
ra ven
U MP
Ġf uzz
Ġteasp oon
Ġprov oked
ud get
ĠMon itor
ĠHoff man
us a
ĠMar riage
go ers
ĠAna heim
ĠSub ject
Ġdisrupt ed
Ġjihad ist
Ġrou ter
ĠD ew
c hens
st own
ĠP ool
ĠWol ver
ord ered
Ġtermin ated
Ġdisgr ace
ĠAl leg
Ġelev ation
ĠPhys ics
oc re
ĠMart y
Ġtext ures
Ġbull pen
ĠH ang
Mond ay
Ġnostal gia
M O
Ġst ared
Ġo riented
Ġn ause
lu ent
Ġhur ry
Ġcollabor ate
ĠHann ah
ĠFinn ish
ĠAC T
ilib rium
raft ed
ĠManit oba
ĠV C
Ġconf ession
Short ly
Ġb olt
ĠTon ight
ĠP ure
ĠSch wartz
e a
ve illance
ĠV II
Ġpir ate
f orth
ĠL inks
Ġhe fty
Ġres umed
ĠHist orical
ĠCrit ics
Ġtheat rical
Ġpack et
tt ed
Ġconserv atism
Ġsky rock
Ġpresum ed
S ean
Ġpir ates
Ġmel ted
Ġpossess es
ĠR iot
Ġburd ens
ĠCom pl
Ġdownt urn
ĠWik ileaks
ĠStat us
Ġwheel chair
ĠA gg
cl air
c p
Ġend urance
Ġtro lls
Ġc apped
Ġre written
Ġoverse es
ĠR NA
ĠElect ions
Ñģ ÑĤ
Ġmim ic
Ġostens ibly
Ġtempt ed
Ġl ays
oper ation
fashion ed
Ġconf inement
m is
ĠF ul
Ġpun ches
ĠVol ks
Com ments
Ġp as
Ġsc outs
â Ĺ
let ion
Ġunfair ly
Ġcomp ute
ĠN I
Ġw aving
ĠOri oles
Ġkey word
P rop
Ġinsult s
ir rel
Ġext r
re ally
Ġsubst it
Ġth igh
Ġchrom os
ĠS uff
ĠID F
ĠMic key
Ġfold ed
ĠWill ie
Ġgun shot
Ġ11 4
Ġentit lement
Ġviol ently
Ġharm less
Ġt ones
ach ine
Sc roll
Ġout ward
ĠY ORK
in ness
Japan ese
ĠI X
uss y
Ġlegal ized
sm ith
Ġban ana
ĠUg anda
l aughter
ang ling
Ġguess ed
ĠKaz akh
ĠL imb
Ġmon st
ĠBook er
ĠDI Y
Act ually
st ed
on el
Ġdr ank
Ġgrav itational
Res earch
ĠR OM
Ġrot ate
l oss
ĠR anch
Ġpip elines
ff ield
Ġex ert
ĠG ust
Ġthink ers
Ġing en
on ial
ĠF ah
Ġtransfer ring
yr r
Ġfun nel
Ġcommand ing
ĠRe ason
Ġter med
Ġmut ually
Ġsal vation
Ġmetabol ism
ĠF i
pe x
Ġrec ap
Ġjoint ly
ĠHard y
ĠSaskat chewan
ĠIran ians
ĠJ P
Ġer osion
Ġexerc ising
Wr itten
p sych
ĠM H
Ġsp ies
ĠKn ox
oc o
per cent
ĠM au
ĠL I
Ġun used
Ġ12 3
Ġpol es
Ġteam ed
el in
ru ce
ĠAr ray
Ġbo ast
ĠSy racuse
P op
t ree
c ool
f est
Ġclass ics
ĠD iana
d an
Ġrig ged
Ġfil tering
out heastern
ĠDevelop er
Ġresent ment
bet ter
Ġb ishops
Ġg ast
ĠPer kins
Ġesc aping
fil m
R est
at z
Ġbe gging
Ġbet s
Ġwarm th
ĠCroat ia
Ġmarket ed
d rive
ĠWorld s
Ġundert ake
AN C
P akistan
che t
state ment
mod el
ble ms
Just ice
Ġmis con
Ġt an
Ġspe lling
ĠLiber ation
ow ler
Ġdeb ating
Tur key
or st
ĠH ours
ĠHer bert
Ġguitar ist
Ġa rous
Ġve in
ĠP ull
St ay
ĠC ory
Ġ1 19
ĠRom ans
Or gan
indust rial
ĠB oulder
ĠL DS
ĠRe ader
Ġm og
Ġpe aked
Ġrev ol
Ġs ands
Ġant iqu
Ġspec ulative
E ight
Ġwid ow
inn amon
Ġp ne
ĠN u
per fect
L im
D M
ĠSouth ampton
L ate
ixt ures
Ġmarginal ized
Ġres ett
Ne il
Ġmelt down
ĠProper ty
s aving
ib o
Ġacqu aint
Ġcum ulative
ĠPro blem
ĠC lement
ĠF E
ĠBund es
ĠMah ar
Ġreserv ation
Ġfright ened
g ot
AN N
Ġinspect ors
ĠA HL
Ġbar bar
Ġdiscount s
ĠJ S
Ġy en
[...]
