{
  "!": 33,
  "!!": 4930,
  "!!!": 14221,
  "!!!!": 22087,
  "!\"": 5095,
  "!'": 20692,
  "!)": 8664,
  "!),": 23307,
  "!).": 19348,
  "!,": 26616,
  "!--": 39639,
  "!=": 42286,
  "!?": 36151,
  "!]": 31073,
  "!âĢĻ": 19865,
  "!âĢĿ": 4611,
  "\"": 34,
  "\"\"": 47583,
  "\"'": 46282,
  "\"(": 45287,
  "\")": 8533,
  "\"),": 18604,
  "\").": 18055,
  "\");": 21864,
  "\",": 2857,
  "\",\"": 11112,
  "\",[": 35372,
  "\"-": 43201,
  "\".": 2785,
  "\"...": 35696,
  "\".[": 8691,
  "\":": 4939,
  "\":\"": 10355,
  "\":{\"": 30153,
  "\";": 15474,
  "\">": 9212,
  "\"><": 39097,
  "\"></": 36210,
  "\"?": 23867,
  "\"[": 19405,
  "\"]": 20350,
  "\"}": 34339,
  "\"âĢĶ": 30743,
  "#": 35,
  "##": 4799,
  "###": 31086,
  "####": 8761,
  "########": 14752,
  "################": 24727,
  "################################": 44007,
  "$": 36,
  "$$": 27142,
  "$,": 47149,
  "$.": 41752,
  "%": 37,
  "%)": 6620,
  "%),": 17478,
  "%).": 19949,
  "%,": 7994,
  "%-": 36970,
  "%.": 7470,
  "%;": 32592,
  "&": 38,
  "'": 39,
  "'\"": 45149,
  "''": 15682,
  "')": 16969,
  "'),": 45761,
  "').": 40129,
  "');": 26530,
  "',": 6331,
  "',\"": 47026,
  "','": 46054,
  "'.": 8391,
  "'.\"": 39210,
  "':": 15989,
  "';": 25544,
  "'?": 49757,
  "']": 31445,
  "'d": 3013,
  "'ll": 2288,
  "'m": 1980,
  "'re": 1382,
  "'s": 424,
  "'t": 694,
  "'ve": 1847,
  "(": 40,
  "(\"": 10539,
  "($": 20995,
  "('": 12473,
  "((": 31759,
  "()": 5442,
  "())": 38881,
  "());": 43393,
  "(),": 33975,
  "().": 26101,
  "();": 12555,
  "(-": 48841,
  "([": 38051,
  "(\\": 35837,
  "(_": 36202,
  "({": 27987,
  "(âĪĴ": 49449,
  ")": 41,
  ")!": 34416,
  ")\"": 25695,
  ")'": 47749,
  ")(": 14189,
  "))": 7759,
  ")))": 32439,
  ")).": 45008,
  "));": 27925,
  ")*": 33082,
  "),": 903,
  "),\"": 35366,
  "),[": 30653,
  "),âĢĿ": 30046,
  ")-": 19965,
  ").": 828,
  ").\"": 33556,
  ")...": 49618,
  ").[": 11186,
  ").âĢĿ": 27240,
  ")/": 30612,
  "):": 3730,
  ");": 3012,
  ")=": 43066,
  ")?": 20844,
  ")[": 22661,
  ")\\": 46412,
  ")]": 30025,
  "){": 31021,
  ")|": 15076,
  ")}": 31328,
  ")âĢĶ": 24876,
  ")âĢĿ": 35238,
  "*": 42,
  "*)": 42108,
  "**": 2112,
  "***": 9956,
  "****": 4970,
  "*****": 34024,
  "********": 9302,
  "****************": 16733,
  "********************************": 33081,
  "*,": 31480,
  "*.": 31329,
  "*]": 39755,
  "+": 43,
  "+)": 38587,
  "++": 8666,
  "++)": 46542,
  "++++": 29341,
  "+,": 29867,
  "+.": 29025,
  ",": 44,
  ",\"": 768,
  ",'": 5443,
  ",'\"": 21310,
  ",''": 17444,
  ",'âĢĿ": 38807,
  ",)": 49602,
  ",,": 29213,
  ",.": 42774,
  ",[": 5619,
  ",ÂĶ": 35189,
  ",âĢĻ": 5955,
  ",âĢĻâĢĻ": 20819,
  ",âĢĻâĢĿ": 20701,
  ",âĢĿ": 682,
  ",âĢĿ\\": 33331,
  ",ï¿½": 43107,
  "-": 45,
  "-\"": 32616,
  "-$": 21749,
  "-'": 40681,
  "-(": 40777,
  "-)": 29536,
  "-,": 29882,
  "--": 910,
  "---": 12734,
  "----": 1671,
  "-----": 32935,
  "------": 38794,
  "-------": 44460,
  "--------": 3066,
  "---------": 46906,
  "------------": 25091,
  "----------------": 5693,
  "--------------------------------": 11553,
  "------------------------------------------------": 44319,
  "----------------------------------------------------------------": 27741,
  "-.": 49545,
  "->": 9686,
  "-âĢĻ": 46691,
  ".": 46,
  ".\"": 718,
  ".\"\"": 40838,
  ".\")": 30634,
  ".\"[": 7253,
  ".$": 43610,
  ".'": 4094,
  ".'\"": 17093,
  ".''": 18436,
  ".'âĢĿ": 30109,
  ".(": 19194,
  ".)": 2081,
  ".),": 11928,
  ".).": 16676,
  ".):": 44306,
  ".*": 23939,
  ".,": 1852,
  ".,âĢĿ": 47830,
  ".-": 8556,
  ".--": 40061,
  "..": 757,
  "...": 1455,
  "...\"": 14011,
  "...)": 31251,
  "....": 3554,
  ".....": 27243,
  "......": 40717,
  "........": 7869,
  "..........": 28625,
  "................": 15716,
  "................................": 30855,
  "...]": 23761,
  "../": 47949,
  "./": 22722,
  ".:": 13388,
  ".;": 21184,
  ".</": 40168,
  ".?": 39218,
  ".@": 41946,
  ".[": 1065,
  ".]": 10745,
  "._": 27171,
  ".ÂĶ": 27209,
  ".âĢĶ": 23559,
  ".âĢĻ": 4040,
  ".âĢĻâĢĻ": 23428,
  ".âĢĻâĢĿ": 16176,
  ".âĢľ": 13355,
  ".âĢĿ": 642,
  ".âĢĿ)": 22536,
  ".âĢĿ[": 25889,
  ".ï¿½": 39202,
  "/": 47,
  "/\"": 48191,
  "/#": 39809,
  "/$": 37374,
  "/)": 45599,
  "/*": 41777,
  "/+": 44590,
  "/,": 48620,
  "/-": 24067,
  "/.": 11802,
  "//": 1670,
  "////": 22624,
  "////////": 35426,
  "/>": 35295,
  "/?": 33771,
  "/âĤ¬": 45805,
  "0": 48,
  "00": 453,
  "000": 942,
  "0000": 6733,
  "00000": 42839,
  "000000": 28807,
  "00000000": 19022,
  "0001": 32395,
  "001": 16147,
  "002": 32964,
  "003": 22554,
  "004": 39814,
  "005": 39823,
  "006": 44481,
  "007": 43816,
  "008": 46964,
  "01": 5611,
  "010": 46304,
  "02": 6906,
  "03": 6920,
  "04": 6871,
  "05": 5668,
  "050": 42543,
  "052": 37554,
  "06": 6650,
  "07": 6752,
  "08": 6407,
  "080": 41671,
  "09": 6697,
  "1": 49,
  "10": 1346,
  "100": 3994,
  "1000": 17767,
  "101": 18347,
  "1016": 42324,
  "102": 22057,
  "103": 22545,
  "104": 22343,
  "105": 20437,
  "106": 23645,
  "107": 24106,
  "108": 24534,
  "1080": 39833,
  "109": 23253,
  "11": 1674,
  "110": 13774,
  "111": 22666,
  "1111": 45344,
  "112": 23985,
  "113": 25306,
  "114": 24764,
  "115": 22066,
  "116": 26730,
  "117": 25727,
  "118": 26791,
  "119": 26221,
  "12": 1839,
  "120": 14085,
  "1200": 41618,
  "121": 27427,
  "122": 27261,
  "123": 20747,
  "124": 28071,
  "125": 17553,
  "126": 28721,
  "127": 25585,
  "128": 22114,
  "129": 26836,
  "13": 2283,
  "130": 17329,
  "131": 28917,
  "132": 29825,
  "133": 27550,
  "134": 28851,
  "135": 23973,
  "136": 30826,
  "137": 29518,
  "138": 30978,
  "139": 30501,
  "14": 2182,
  "140": 19670,
  "141": 31117,
  "142": 32053,
  "143": 32171,
  "144": 28992,
  "145": 27838,
  "146": 32930,
  "147": 31297,
  "148": 31565,
  "149": 29413,
  "15": 1969,
  "150": 10547,
  "1500": 44009,
  "151": 32986,
  "152": 32913,
  "153": 33867,
  "154": 33224,
  "155": 27631,
  "156": 34225,
  "157": 33871,
  "158": 34036,
  "159": 32906,
  "16": 2156,
  "160": 19076,
  "161": 35796,
  "162": 35581,
  "163": 35191,
  "164": 35921,
  "165": 29905,
  "166": 34825,
  "167": 34514,
  "168": 25192,
  "169": 34936,
  "17": 2381,
  "170": 23376,
  "171": 38268,
  "172": 33567,
  "173": 37363,
  "174": 35899,
  "175": 25099,
  "176": 35015,
  "177": 34806,
  "178": 36277,
  "179": 34138,
  "18": 2433,
  "180": 20986,
  "181": 37803,
  "182": 33487,
  "183": 38387,
  "184": 36827,
  "185": 33211,
  "186": 38007,
  "187": 38022,
  "188": 36562,
  "189": 37519,
  "19": 1613,
  "190": 28020,
  "191": 39736,
  "192": 29507,
  "1920": 47420,
  "193": 38926,
  "194": 39219,
  "1945": 49024,
  "195": 35448,
  "1950": 42157,
  "196": 40191,
  "1960": 35455,
  "1963": 49508,
  "1964": 48810,
  "1965": 46451,
  "1966": 47791,
  "1967": 44147,
  "1968": 43867,
  "1969": 45622,
  "197": 40550,
  "1970": 29164,
  "1971": 45394,
  "1972": 42708,
  "1973": 41467,
  "1974": 42087,
  "1975": 41394,
  "1976": 43152,
  "1977": 41445,
  "1978": 42316,
  "1979": 38251,
  "198": 39573,
  "1980": 25175,
  "1981": 38325,
  "1982": 37427,
  "1983": 37119,
  "1984": 33032,
  "1985": 34498,
  "1986": 34595,
  "1987": 34750,
  "1988": 33566,
  "1989": 29627,
  "199": 7506,
  "1990": 20275,
  "1991": 29631,
  "1992": 28596,
  "1993": 28474,
  "1994": 27105,
  "1995": 26419,
  "1996": 26279,
  "1997": 26403,
  "1998": 25653,
  "1999": 23251,
  "2": 50,
  "20": 1174,
  "200": 3032,
  "2000": 14141,
  "2001": 20598,
  "2002": 21471,
  "2003": 20618,
  "2004": 19757,
  "2005": 18969,
  "2006": 18303,
  "2007": 16908,
  "2008": 14468,
  "2009": 13510,
  "201": 31066,
  "2010": 12272,
  "2011": 11830,
  "2012": 10639,
  "2013": 10052,
  "2014": 8514,
  "2015": 8875,
  "2016": 8636,
  "2017": 10364,
  "2018": 20583,
  "2019": 27491,
  "202": 29381,
  "2020": 47351,
  "203": 37816,
  "204": 37902,
  "205": 34128,
  "206": 34557,
  "207": 37354,
  "208": 38792,
  "209": 38888,
  "21": 3900,
  "210": 28745,
  "211": 40107,
  "212": 35718,
  "213": 40840,
  "214": 40313,
  "215": 37664,
  "216": 42368,
  "217": 44039,
  "218": 44855,
  "219": 44201,
  "22": 3238,
  "220": 25844,
  "221": 38349,
  "222": 32752,
  "223": 35824,
  "224": 37534,
  "225": 29348,
  "226": 39775,
  "227": 42590,
  "228": 40839,
  "229": 41328,
  "23": 3535,
  "230": 26885,
  "231": 39629,
  "232": 39026,
  "233": 39412,
  "234": 40832,
  "235": 34551,
  "236": 42593,
  "237": 36384,
  "238": 39300,
  "239": 40260,
  "24": 3353,
  "240": 25005,
  "241": 44854,
  "242": 43553,
  "243": 41965,
  "244": 46152,
  "245": 40589,
  "246": 44332,
  "247": 37210,
  "248": 44513,
  "249": 35253,
  "25": 2585,
  "250": 10394,
  "251": 45515,
  "252": 42614,
  "253": 45801,
  "254": 42615,
  "255": 25302,
  "256": 23567,
  "257": 47358,
  "258": 46151,
  "259": 45373,
  "26": 3836,
  "260": 30882,
  "261": 48688,
  "262": 44924,
  "263": 47330,
  "264": 34131,
  "265": 38732,
  "266": 41573,
  "267": 45835,
  "268": 44857,
  "269": 47022,
  "27": 3718,
  "270": 30491,
  "271": 46789,
  "272": 47253,
  "273": 41019,
  "274": 49357,
  "275": 35264,
  "276": 48223,
  "277": 42006,
  "278": 45783,
  "279": 45516,
  "28": 3970,
  "280": 29604,
  "281": 49666,
  "282": 49267,
  "284": 45950,
  "285": 41924,
  "286": 46407,
  "287": 49168,
  "288": 44455,
  "289": 49033,
  "29": 3977,
  "290": 35000,
  "293": 45634,
  "294": 45410,
  "295": 41065,
  "296": 48014,
  "298": 48802,
  "299": 35461,
  "3": 51,
  "30": 1887,
  "300": 7360,
  "3000": 33229,
  "301": 42845,
  "302": 37046,
  "303": 41563,
  "304": 46277,
  "305": 43386,
  "306": 49277,
  "307": 45541,
  "308": 44461,
  "309": 49527,
  "31": 5269,
  "310": 38523,
  "312": 45893,
  "313": 47144,
  "315": 43586,
  "317": 47599,
  "32": 4445,
  "320": 27615,
  "321": 48800,
  "325": 37892,
  "33": 4189,
  "330": 32194,
  "332": 47673,
  "333": 32589,
  "335": 46643,
  "34": 4761,
  "340": 37478,
  "342": 42808,
  "343": 48410,
  "345": 47899,
  "349": 46034,
  "35": 3814,
  "350": 17759,
  "357": 41923,
  "358": 49753,
  "36": 4627,
  "360": 23461,
  "365": 37080,
  "368": 48844,
  "37": 4909,
  "370": 27206,
  "375": 34736,
  "38": 4710,
  "380": 31781,
  "384": 47925,
  "385": 46556,
  "386": 36742,
  "39": 5026,
  "390": 42989,
  "395": 45077,
  "399": 40519,
  "4": 52,
  "40": 2946,
  "400": 8047,
  "4000": 47974,
  "401": 48587,
  "404": 32561,
  "405": 48042,
  "41": 6008,
  "410": 46697,
  "42": 5852,
  "420": 35626,
  "425": 43912,
  "43": 5982,
  "430": 42257,
  "44": 4584,
  "440": 38468,
  "444": 48386,
  "446": 29668,
  "45": 3829,
  "450": 22341,
  "456": 41850,
  "46": 5259,
  "460": 43893,
  "47": 5038,
  "470": 45660,
  "477": 46869,
  "48": 4906,
  "480": 35415,
  "49": 5094,
  "499": 40907,
  "5": 53,
  "50": 1685,
  "500": 4139,
  "5000": 36286,
  "51": 7770,
  "510": 48121,
  "512": 42982,
  "52": 7785,
  "520": 45814,
  "53": 8017,
  "530": 47849,
  "54": 7812,
  "540": 46853,
  "55": 4892,
  "550": 28963,
  "559": 41680,
  "56": 7574,
  "560": 42892,
  "57": 7307,
  "570": 49460,
  "58": 7209,
  "59": 6950,
  "6": 54,
  "60": 2725,
  "600": 9278,
  "61": 9001,
  "62": 9028,
  "625": 46614,
  "63": 9043,
  "64": 5768,
  "640": 42136,
  "65": 5810,
  "650": 25170,
  "66": 6499,
  "660": 49969,
  "666": 43546,
  "67": 7268,
  "68": 6957,
  "680": 49851,
  "69": 7931,
  "7": 55,
  "70": 4165,
  "700": 10837,
  "71": 9224,
  "72": 8643,
  "720": 42211,
  "73": 9295,
  "74": 8710,
  "75": 4706,
  "750": 19155,
  "76": 8506,
  "760": 42148,
  "77": 6512,
  "78": 7039,
  "780": 48875,
  "79": 8441,
  "8": 56,
  "80": 3445,
  "800": 8930,
  "81": 9812,
  "82": 9828,
  "83": 9679,
  "84": 9563,
  "85": 8229,
  "850": 30526,
  "86": 7642,
  "87": 8110,
  "88": 6618,
  "880": 48925,
  "888": 38857,
  "89": 8071,
  "9": 57,
  "90": 4369,
  "900": 14441,
  "91": 11331,
  "910": 47510,
  "911": 41730,
  "92": 10730,
  "920": 48026,
  "93": 10806,
  "94": 11002,
  "95": 5778,
  "950": 38955,
  "96": 10307,
  "97": 10874,
  "98": 10372,
  "99": 3168,
  "999": 25922,
  ":": 58,
  ":\"": 26422,
  ":-": 34970,
  ":/": 38283,
  "://": 2071,
  "::": 8158,
  ":[": 23838,
  ":\\": 24746,
  ";": 59,
  ";\"": 47636,
  ";;": 49641,
  ";[": 27641,
  "<": 60,
  "</": 7203,
  "</s>": 49975,
  "<<": 29856,
  "<bos>": 49978,
  "<eos>": 49976,
  "<fim_middle>": 49993,
  "<fim_prefix>": 49992,
  "<fim_suffix>": 49994,
  "<mask>": 49991,
  "<pad>": 49979,
  "<s>": 49977,
  "<unk>": 49980,
  "<|assistant|>": 49983,
  "<|code|>": 49990,
  "<|date|>": 49997,
  "<|endofmessage|>": 49986,
  "<|endoftext|>": 49974,
  "<|function_call|>": 49999,
  "<|im_end|>": 49985,
  "<|im_start|>": 49984,
  "<|sep|>": 49987,
  "<|summarize|>": 49988,
  "<|system|>": 49981,
  "<|title|>": 49995,
  "<|tool|>": 49998,
  "<|translate|>": 49989,
  "<|url|>": 49996,
  "<|user|>": 49982,
  "=": 61,
  "=\"": 5313,
  "='": 22438,
  "=-": 37169,
  "=/": 48083,
  "==": 2620,
  "===": 44283,
  "====": 4537,
  "========": 7765,
  "================": 13568,
  "================================": 25976,
  "=>": 27846,
  "=\\\"": 47966,
  "={": 43903,
  "=âĢĻ": 48027,
  "=âĢĿ": 14836,
  ">": 62,
  ">,": 33136,
  ">.": 46394,
  "><": 16609,
  "></": 19815,
  ">>": 5597,
  ">>>": 43545,
  ">>>>": 13708,
  ">>>>>>>>": 28133,
  "?": 63,
  "?!": 15205,
  "?!\"": 49477,
  "?\"": 3587,
  "?'": 12309,
  "?'\"": 34892,
  "?)": 11215,
  "?),": 31132,
  "?).": 26969,
  "?,": 37361,
  "?:": 37701,
  "??": 10154,
  "???": 30922,
  "????": 43349,
  "?]": 27674,
  "?âĢĻ": 11185,
  "?âĢĻâĢĿ": 33694,
  "?âĢĿ": 2974,
  "?âĢĿ,": 46314,
  "@": 64,
  "@#": 44930,
  "@#&": 46814,
  "@@": 35598,
  "A": 65,
  "AA": 7352,
  "AAAA": 44446,
  "AAP": 42665,
  "AB": 10815,
  "ABC": 21205,
  "ABLE": 29817,
  "AC": 3137,
  "ACA": 21086,
  "ACAF": 39286,
  "ACC": 37077,
  "ACE": 17376,
  "ACH": 22517,
  "ACK": 12742,
  "ACP": 27464,
  "ACT": 17505,
  "AD": 3701,
  "ADA": 26947,
  "ADD": 35948,
  "ADE": 30933,
  "ADS": 46490,
  "ADVERTIS": 12944,
  "ADVERTISEMENT": 13377,
  "AF": 10107,
  "AFP": 15030,
  "AFTA": 24717,
  "AG": 17677,
  "AGE": 27475,
  "AH": 33838,
  "AI": 25887,
  "AIDS": 36477,
  "AK": 15437,
  "AL": 3046,
  "ALD": 44351,
  "ALE": 27660,
  "ALK": 36941,
  "ALL": 10076,
  "ALLY": 24115,
  "ALS": 34920,
  "ALSO": 44885,
  "ALT": 35965,
  "AM": 3400,
  "AMA": 24745,
  "AMD": 40561,
  "AME": 16829,
  "AMES": 40146,
  "AMI": 45240,
  "AMP": 27428,
  "AMS": 41619,
  "AMY": 18937,
  "AN": 2286,
  "ANA": 32717,
  "ANC": 24359,
  "ANCE": 30418,
  "AND": 9401,
  "ANE": 39981,
  "ANG": 22858,
  "ANGE": 42402,
  "ANI": 46819,
  "ANK": 20607,
  "ANN": 24423,
  "ANS": 19899,
  "ANT": 15752,
  "ANY": 45291,
  "AP": 3752,
  "APD": 30631,
  "APH": 43885,
  "API": 32259,
  "APP": 27003,
  "AR": 2435,
  "ARA": 29172,
  "ARC": 26734,
  "ARCH": 46629,
  "ARD": 14911,
  "ARI": 45632,
  "ARK": 18069,
  "ARL": 34619,
  "ARM": 44913,
  "ARP": 29166,
  "ARPA": 35042,
  "ARR": 31178,
  "ARS": 23937,
  "ART": 10780,
  "ARY": 19154,
  "AS": 2451,
  "ASE": 17406,
  "ASH": 11871,
  "ASHINGTON": 15129,
  "ASON": 35032,
  "ASS": 17818,
  "AST": 15757,
  "AT": 1949,
  "ATA": 21392,
  "ATCH": 10879,
  "ATE": 7824,
  "ATED": 11865,
  "ATER": 47244,
  "ATES": 42325,
  "ATH": 18892,
  "ATION": 11798,
  "ATIONAL": 46679,
  "ATIONS": 35773,
  "ATO": 7996,
  "ATOR": 31822,
  "ATS": 37552,
  "ATT": 25347,
  "ATTLE": 43596,
  "AU": 31266,
  "AUST": 44971,
  "AV": 13317,
  "AVC": 41411,
  "AW": 46704,
  "AX": 31504,
  "AY": 10232,
  "AZ": 40208,
  "Aaron": 28429,
  "Ab": 5483,
  "Abd": 46846,
  "About": 8464,
  "Above": 29609,
  "Abs": 25252,
  "Absolutely": 33605,
  "Abstract": 32985,
  "Abu": 47466,
  "Ac": 15340,
  "Academ": 45262,
  "Acc": 22037,
  "Access": 25003,
  "According": 3774,
  "Account": 41914,
  "Acknow": 42258,
  "Across": 31606,
  "Act": 9938,
  "Action": 24802,
  "Active": 37248,
  "Activists": 48757,
  "Activity": 25641,
  "Actor": 47489,
  "Actually": 24276,
  "Ad": 2576,
  "Adam": 20821,
  "Adams": 37111,
  "Add": 6374,
  "Added": 19235,
  "Adding": 29636,
  "Additional": 20406,
  "Additionally": 19968,
  "Address": 35308,
  "Addressing": 47988,
  "Administ": 44293,
  "Adrian": 49130,
  "Adv": 29098,
  "Advanced": 38734,
  "Advertisement": 3747,
  "Advertisements": 11808,
  "Advertising": 25196,
  "Advoc": 47855,
  "Af": 15773,
  "Afee": 40505,
  "Aff": 34756,
  "Afghan": 37990,
  "African": 36465,
  "After": 2980,
  "Ag": 11070,
  "Again": 14354,
  "Against": 34593,
  "Age": 26673,
  "Agent": 46205,
  "Ah": 13679,
  "Ahead": 46453,
  "Aid": 39580,
  "Air": 18490,
  "Ak": 37577,
  "Al": 2638,
  "Alabama": 39482,
  "Alan": 31965,
  "Alaska": 48324,
  "Albert": 35721,
  "Ald": 46431,
  "Ale": 35894,
  "Alert": 48503,
  "Alex": 13618,
  "Alexander": 32691,
  "Alf": 47879,
  "Ali": 25772,
  "Alice": 43530,
  "All": 3505,
  "Alleg": 47665,
  "Allen": 33110,
  "Allow": 48109,
  "Almost": 19732,
  "Along": 19303,
  "Alp": 32932,
  "Alpha": 44456,
  "Already": 33270,
  "Alright": 33582,
  "Also": 7278,
  "Alt": 33695,
  "Altern": 28183,
  "Although": 6060,
  "Always": 34202,
  "Am": 5809,
  "Amazing": 45732,
  "Amazon": 20717,
  "Amb": 36266,
  "Americ": 4613,
  "America": 15457,
  "American": 6150,
  "Americans": 13969,
  "Amid": 32460,
  "Among": 11311,
  "Amy": 38119,
  "An": 2046,
  "Analy": 29800,
  "Analysis": 27815,
  "Analysts": 39901,
  "And": 1731,
  "Anderson": 35864,
  "Andre": 26531,
  "Andrew": 17887,
  "Android": 26587,
  "Andy": 28691,
  "Ang": 14847,
  "Angel": 37442,
  "Angelo": 40351,
  "Anim": 49100,
  "Animal": 41520,
  "Animation": 49455,
  "Ann": 19978,
  "Anna": 26968,
  "Anne": 37928,
  "Anonymous": 33754,
  "Another": 5651,
  "Answer": 35303,
  "Ant": 13321,
  "Anth": 25546,
  "Anthony": 26781,
  "Anti": 26465,
  "Anton": 42404,
  "Any": 7134,
  "Anyone": 17515,
  "Anything": 35275,
  "Anyway": 22311,
  "Ap": 28635,
  "Apart": 31363,
  "App": 5862,
  "Apparently": 25070,
  "Apple": 14476,
  "Application": 38394,
  "Appro": 33983,
  "April": 16610,
  "Aq": 47637,
  "Ar": 4029,
  "Arab": 26184,
  "Arch": 21088,
  "Are": 9231,
  "Area": 49667,
  "Arg": 39858,
  "Argent": 48822,
  "Ari": 21683,
  "Ariz": 41691,
  "Arizona": 33709,
  "Ark": 40798,
  "Arm": 34645,
  "Armed": 48872,
  "Army": 43772,
  "Around": 19724,
  "Array": 32216,
  "Ars": 28359,
  "Arsenal": 35595,
  "Art": 8927,
  "Arthur": 26554,
  "Article": 14246,
  "Artist": 44353,
  "As": 1553,
  "Ash": 26967,
  "Asia": 40766,
  "Asian": 39871,
  "Aside": 26236,
  "Ask": 28464,
  "Asked": 14107,
  "Ass": 8594,
  "Assad": 17640,
  "Assistant": 43920,
  "Associated": 27032,
  "Assuming": 41929,
  "Ast": 30227,
  "Astron": 46632,
  "At": 2710,
  "Ath": 47755,
  "Atlant": 35891,
  "Atlanta": 38775,
  "Atlantic": 34098,
  "Att": 12098,
  "Attack": 42637,
  "Attempt": 49953,
  "Attorney": 35268,
  "Aud": 22353,
  "Audio": 32624,
  "Aug": 14592,
  "August": 18288,
  "Aus": 49058,
  "Aust": 12731,
  "Austin": 34238,
  "Austral": 16084,
  "Australia": 21985,
  "Australian": 30322,
  "Aut": 19742,
  "Auth": 33912,
  "Author": 14634,
  "Authorities": 22011,
  "Auto": 43127,
  "Autom": 41711,
  "Av": 14644,
  "Available": 26948,
  "Average": 31578,
  "Avoid": 42262,
  "Aw": 26980,
  "Awards": 46343,
  "Ay": 44335,
  "Az": 29540,
  "B": 66,
  "BA": 4306,
  "BACK": 46178,
  "BALL": 48163,
  "BB": 19789,
  "BBC": 27539,
  "BC": 2326,
  "BD": 47017,
  "BE": 15896,
  "BER": 15100,
  "BERT": 49019,
  "BF": 48829,
  "BI": 3470,
  "BIL": 41396,
  "BILL": 47826,
  "BIP": 47147,
  "BJP": 48899,
  "BL": 12840,
  "BLE": 26464,
  "BM": 9089,
  "BN": 10861,
  "BO": 8003,
  "BOOK": 47936,
  "BOR": 49959,
  "BP": 21177,
  "BR": 14692,
  "BS": 4421,
  "BSD": 25254,
  "BT": 23539,
  "BTC": 39628,
  "BU": 29168,
  "BUR": 39051,
  "BUT": 42983,
  "BY": 20780,
  "Ba": 33633,
  "Bab": 46793,
  "Baby": 35727,
  "Back": 8422,
  "Background": 25819,
  "Bad": 23571,
  "Baghd": 43396,
  "Baghdadi": 48582,
  "Bah": 49376,
  "Baker": 47056,
  "Bal": 30791,
  "Ball": 30923,
  "Balt": 33813,
  "Baltimore": 37515,
  "Ban": 30457,
  "Band": 35642,
  "Bang": 41686,
  "Bank": 25971,
  "Banks": 48125,
  "Bannon": 48717,
  "Bar": 11554,
  "Barack": 39749,
  "Barry": 43576,
  "Bart": 47495,
  "Bas": 17709,
  "Base": 24658,
  "Based": 15467,
  "Basic": 36097,
  "Basically": 27342,
  "Bat": 26004,
  "Batman": 34080,
  "Battle": 28210,
  "Bay": 14001,
  "Be": 3760,
  "Bear": 43260,
  "Beat": 35183,
  "Bec": 43207,
  "Because": 7380,
  "Beck": 35076,
  "Beer": 45633,
  "Before": 7834,
  "Begin": 30324,
  "Beginning": 38553,
  "Beh": 26794,
  "Behind": 33643,
  "Beijing": 44265,
  "Being": 16226,
  "Bel": 11397,
  "Believe": 45987,
  "Bell": 33165,
  "Below": 19990,
  "Ben": 11767,
  "Benjamin": 47396,
  "Benz": 33843,
  "Ber": 22680,
  "Bern": 19689,
  "Bernie": 26061,
  "Berry": 18911,
  "Besides": 20689,
  "Best": 12692,
  "Bet": 13616,
  "Better": 29124,
  "Between": 20841,
  "Beyond": 19961,
  "Bi": 28139,
  "Bibliography": 46016,
  "Big": 12495,
  "Bill": 15589,
  "Billy": 44900,
  "Bio": 46172,
  "Bir": 46527,
  "Bird": 43416,
  "Birth": 46372,
  "Bit": 14590,
  "Bitcoin": 20682,
  "Bl": 4703,
  "Black": 11073,
  "Blake": 32599,
  "Blanc": 47935,
  "Block": 24574,
  "Blog": 37337,
  "Blood": 30513,
  "Bloom": 29468,
  "Bloomberg": 35685,
  "Blue": 18380,
  "Bo": 17241,
  "Board": 40048,
  "Bob": 19526,
  "Bobby": 46991,
  "Body": 33822,
  "Boe": 39319,
  "Bol": 45592,
  "Bon": 24547,
  "Bonus": 38024,
  "Book": 11145,
  "Bookmark": 46669,
  "Books": 31854,
  "Boot": 47564,
  "Born": 24884,
  "Boss": 47653,
  "Boston": 27827,
  "Bot": 37550,
  "Both": 8654,
  "Bottom": 34457,
  "Bow": 39226,
  "Box": 18999,
  "Boy": 29250,
  "Br": 11048,
  "Brad": 21793,
  "Brain": 43261,
  "Brand": 46812,
  "Brandon": 36973,
  "Brazil": 31111,
  "Bre": 12410,
  "Break": 36906,
  "Breaking": 23704,
  "Breitbart": 48669,
  "Brend": 40209,
  "Brendan": 48102,
  "Brew": 42362,
  "Brexit": 31405,
  "Brian": 21738,
  "Bride": 37606,
  "Bridge": 45657,
  "Brien": 16658,
  "Bright": 49970,
  "Bring": 30864,
  "Brit": 14600,
  "Britain": 27982,
  "British": 20281,
  "Bro": 17339,
  "Broad": 29453,
  "Bron": 16520,
  "Brook": 41925,
  "Brother": 47062,
  "Brow": 45144,
  "Brown": 18432,
  "Bruce": 32656,
  "Bry": 43965,
  "Bryan": 44475,
  "Bs": 30181,
  "Bu": 40199,
  "Buck": 44288,
  "Buff": 38487,
  "Buffer": 48183,
  "Bug": 36683,
  "Build": 20845,
  "Builder": 43395,
  "Building": 27255,
  "Built": 46512,
  "Bul": 38284,
  "Bull": 41319,
  "Bur": 22319,
  "Burn": 35453,
  "Bus": 42056,
  "Bush": 28340,
  "Business": 22809,
  "But": 1302,
  "Button": 38318,
  "Buy": 15265,
  "Buzz": 45037,
  "By": 3763,
  "ById": 49910,
  "C": 67,
  "CA": 5336,
  "CAA": 11288,
  "CAP": 36083,
  "CAR": 17651,
  "CB": 25757,
  "CBC": 22500,
  "CBS": 19217,
  "CC": 4475,
  "CCC": 46476,
  "CD": 10549,
  "CDC": 44218,
  "CE": 7291,
  "CEO": 37198,
  "CF": 43931,
  "CH": 4870,
  "CHA": 41676,
  "CHICAGO": 49784,
  "CHQ": 34832,
  "CHR": 39759,
  "CI": 31511,
  "CIA": 41610,
  "CIO": 42680,
  "CL": 5503,
  "CLA": 15485,
  "CLOSE": 24095,
  "CLUS": 34854,
  "CLUSIVE": 44693,
  "CM": 38941,
  "CN": 46097,
  "CNET": 48218,
  "CNN": 13111,
  "CO": 9389,
  "COL": 35046,
  "COM": 14383,
  "COMMENT": 30275,
  "CON": 19485,
  "COR": 48960,
  "CP": 26900,
  "CPU": 47920,
  "CR": 14930,
  "CS": 7259,
  "CT": 20513,
  "CV": 39735,
  "Ca": 36884,
  "Cal": 10012,
  "Calif": 15802,
  "California": 21878,
  "Call": 17416,
  "Calling": 42893,
  "Cam": 25733,
  "Camer": 33057,
  "Camera": 46986,
  "Cameron": 37629,
  "Camp": 20074,
  "Campaign": 37252,
  "Campbell": 48082,
  "Can": 6253,
  "Canada": 15639,
  "Canadian": 22916,
  "Cand": 41584,
  "Cann": 36495,
  "Cap": 13704,
  "Capital": 37654,
  "Caprio": 45708,
  "Capt": 46513,
  "Captain": 28045,
  "Car": 11188,
  "Card": 21673,
  "Care": 15229,
  "Career": 39777,
  "Carl": 23292,
  "Carlos": 44087,
  "Carol": 45579,
  "Cart": 47110,
  "Carter": 41347,
  "Cas": 35017,
  "Case": 23696,
  "Cash": 44325,
  "Cass": 41145,
  "Cast": 21876,
  "Cat": 27384,
  "Category": 37883,
  "Cath": 32575,
  "Catholic": 39117,
  "Cause": 45444,
  "Ce": 48565,
  "Cele": 39966,
  "Cell": 33644,
  "Cent": 19384,
  "Center": 27065,
  "Central": 29049,
  "Certain": 49318,
  "Certainly": 29379,
  "Ch": 2282,
  "Chair": 37528,
  "Chance": 46628,
  "Change": 26086,
  "Changes": 37822,
  "Changing": 46219,
  "Channel": 36363,
  "Chap": 47711,
  "Chapter": 26499,
  "Char": 15798,
  "Character": 37529,
  "Charg": 48242,
  "Charl": 22436,
  "Charles": 24835,
  "Charlie": 31233,
  "Chart": 48608,
  "Chat": 30413,
  "Che": 8532,
  "Check": 11864,
  "Chelsea": 32261,
  "Chem": 48028,
  "Cher": 41058,
  "Chicago": 21615,
  "Chief": 20523,
  "Child": 18244,
  "Children": 26640,
  "China": 11559,
  "Chinese": 20742,
  "Chip": 46758,
  "Cho": 29280,
  "Choose": 42329,
  "Chris": 13935,
  "Christ": 9706,
  "Christian": 17266,
  "Christians": 47060,
  "Christie": 48989,
  "Christmas": 39375,
  "Christopher": 32357,
  "Chuck": 38075,
  "Church": 41327,
  "Circ": 38299,
  "Citing": 43643,
  "Citizens": 48900,
  "City": 14324,
  "Civil": 29904,
  "Cl": 4305,
  "Claim": 42740,
  "Clar": 41193,
  "Clark": 38624,
  "Class": 15413,
  "Claude": 39464,
  "Cle": 15065,
  "Clean": 39615,
  "Clear": 36567,
  "Clearly": 23725,
  "Cleveland": 43913,
  "Click": 9997,
  "Client": 29975,
  "Climate": 26116,
  "Clinton": 12918,
  "Close": 29522,
  "Cloud": 19147,
  "Club": 44579,
  "Co": 8029,
  "Coach": 32846,
  "Coal": 46737,
  "Code": 20385,
  "Coin": 27817,
  "Col": 7861,
  "Cola": 26135,
  "Cold": 37495,
  "Cole": 38956,
  "Colin": 45526,
  "Coll": 23802,
  "Collect": 36413,
  "College": 37687,
  "Collins": 38486,
  "Color": 18903,
  "Colorado": 34742,
  "Columb": 33408,
  "Com": 7477,
  "Comb": 25119,
  "Combat": 49768,
  "Come": 17959,
  "Comey": 45532,
  "Coming": 25155,
  "Comm": 9754,
  "Command": 35102,
  "Comment": 23464,
  "Comments": 24226,
  "Commercial": 45511,
  "Commission": 48571,
  "Common": 25323,
  "Commun": 27951,
  "Community": 29674,
  "Comp": 9417,
  "Companies": 31876,
  "Company": 44637,
  "Compare": 47946,
  "Compared": 38552,
  "Compl": 44783,
  "Complete": 31871,
  "Component": 32587,
  "Computer": 39129,
  "Con": 4459,
  "Concer": 35944,
  "Conclusion": 18746,
  "Cond": 36081,
  "Conf": 15927,
  "Config": 31100,
  "Cong": 15454,
  "Congratulations": 41029,
  "Congress": 19601,
  "Conn": 32737,
  "Connect": 22828,
  "Connell": 29397,
  "Connor": 22330,
  "Cons": 8959,
  "Conservative": 31801,
  "Conservatives": 48891,
  "Consider": 21606,
  "Considering": 32882,
  "Const": 17626,
  "Constructed": 47758,
  "Construction": 39060,
  "Consumer": 48824,
  "Consumers": 48789,
  "Cont": 5848,
  "Contact": 17822,
  "Content": 24603,
  "Contents": 42284,
  "Context": 30087,
  "Contin": 17870,
  "Continue": 26597,
  "Contract": 49408,
  "Contrary": 41360,
  "Control": 28716,
  "Controller": 27121,
  "Cook": 31588,
  "Cool": 36435,
  "Cooper": 45442,
  "Cop": 45533,
  "Copy": 46802,
  "Copyright": 14416,
  "Cor": 11189,
  "Core": 22207,
  "Corn": 47715,
  "Correct": 47734,
  "Correction": 34546,
  "Cos": 37763,
  "Cost": 23607,
  "Cou": 48452,
  "Could": 21735,
  "Coun": 25050,
  "Council": 33774,
  "Count": 16525,
  "Counter": 37472,
  "Country": 36350,
  "Court": 19611,
  "Courtesy": 27208,
  "Cover": 28229,
  "Cow": 44392,
  "Cr": 15600,
  "Craft": 20991,
  "Craig": 35171,
  "Cre": 17799,
  "Creat": 29388,
  "Create": 21893,
  "Created": 47638,
  "Creating": 32152,
  "Credit": 21316,
  "Crime": 44530,
  "Crit": 20003,
  "Critical": 43295,
  "Critics": 26062,
  "Cro": 36184,
  "Cross": 25504,
  "Cru": 22941,
  "Crunch": 38696,
  "Cruz": 30228,
  "Cry": 44964,
  "Crypt": 33783,
  "Cs": 29937,
  "Cu": 47707,
  "Cub": 49546,
  "Cube": 46038,
  "Cur": 30069,
  "Current": 12743,
  "Currently": 18628,
  "Custom": 21453,
  "Customers": 44686,
  "Cut": 30360,
  "Cy": 21734,
  "Cyber": 46873,
  "D": 68,
  "DA": 4830,
  "DAQ": 41992,
  "DAY": 11846,
  "DB": 13600,
  "DC": 11824,
  "DCS": 48104,
  "DD": 22706,
  "DE": 11978,
  "DEF": 48463,
  "DEN": 49066,
  "DER": 25796,
  "DF": 22129,
  "DI": 16070,
  "DJ": 36740,
  "DL": 24054,
  "DM": 24402,
  "DN": 42479,
  "DNA": 29155,
  "DO": 20740,
  "DON": 41407,
  "DOS": 49703,
  "DP": 5536,
  "DR": 11128,
  "DS": 6657,
  "DT": 26992,
  "DVD": 44476,
  "Da": 30705,
  "Dad": 46156,
  "Daddy": 46139,
  "Dade": 43021,
  "Daily": 27792,
  "Dallas": 35053,
  "Dam": 19745,
  "Damage": 45207,
  "Damn": 35830,
  "Dan": 19781,
  "Daniel": 19932,
  "Danny": 39599,
  "Dar": 26326,
  "Dark": 22829,
  "Dat": 45348,
  "Data": 12705,
  "Date": 18428,
  "Dav": 8127,
  "Dave": 26393,
  "David": 9330,
  "Davis": 28707,
  "Day": 14071,
  "Days": 40155,
  "Db": 45853,
  "De": 6025,
  "Dead": 25025,
  "Dean": 40917,
  "Dear": 18721,
  "Death": 22313,
  "Deb": 21778,
  "Dec": 13855,
  "December": 20703,
  "Deep": 28937,
  "Def": 10015,
  "Default": 42193,
  "Defence": 49306,
  "Defense": 27052,
  "Defensive": 40752,
  "Del": 17638,
  "Delta": 45818,
  "Dem": 9473,
  "Democracy": 48540,
  "Democratic": 25198,
  "Democrats": 20961,
  "Den": 20228,
  "Dennis": 45235,
  "Denver": 44210,
  "Dep": 14504,
  "Department": 39249,
  "Depending": 39012,
  "Deputy": 38659,
  "Der": 29125,
  "Derek": 49010,
  "Des": 4923,
  "Description": 24630,
  "Design": 23134,
  "Desk": 48334,
  "Despite": 6614,
  "Dest": 34483,
  "Det": 15717,
  "Details": 28424,
  "Detroit": 32023,
  "Dev": 20243,
  "Develop": 18207,
  "Developer": 45418,
  "Development": 36820,
  "Device": 49393,
  "Di": 22007,
  "Diam": 46544,
  "Dick": 39690,
  "Did": 11619,
  "Die": 31225,
  "Diff": 40628,
  "Different": 38184,
  "Dig": 21372,
  "Digg": 40873,
  "Digital": 29653,
  "Dim": 46127,
  "Din": 49547,
  "Direct": 15456,
  "Director": 25500,
  "Dis": 10609,
  "Disc": 18863,
  "Disclaimer": 37875,
  "Discussion": 44990,
  "Disney": 31544,
  "Disp": 32470,
  "Dispatch": 45861,
  "Display": 46895,
  "Dist": 21886,
  "District": 38994,
  "Div": 42990,
  "Do": 5455,
  "DoS": 36603,
  "Doc": 30730,
  "Doctor": 36934,
  "Doctors": 37011,
  "Document": 34641,
  "Documents": 46851,
  "Does": 14257,
  "Dog": 36606,
  "Doing": 45312,
  "Dom": 31316,
  "Domin": 37784,
  "Don": 3773,
  "Donald": 6437,
  "DonaldTrump": 21679,
  "Donnell": 18248,
  "Dou": 18630,
  "Double": 32641,
  "Doug": 38666,
  "Douglas": 48417,
  "Down": 11356,
  "Download": 14824,
  "Dozens": 40896,
  "Dr": 7410,
  "Draft": 36262,
  "Dragon": 36871,
  "Draw": 36148,
  "Dream": 35817,
  "Drew": 45689,
  "Dri": 41475,
  "Drive": 28482,
  "Drop": 38043,
  "Drug": 39179,
  "Ds": 32220,
  "Du": 38785,
  "Dub": 46558,
  "Due": 21717,
  "Duke": 45661,
  "Dun": 31737,
  "Dur": 43147,
  "During": 5900,
  "Dust": 48379,
  "Dutch": 44448,
  "E": 69,
  "EA": 7717,
  "EAN": 44336,
  "EAR": 31477,
  "EB": 40813,
  "EC": 3872,
  "ECD": 25369,
  "ECH": 43273,
  "ECK": 40844,
  "ECT": 15138,
  "ECTION": 48755,
  "ED": 3101,
  "EDIT": 34576,
  "EDs": 42012,
  "EE": 12609,
  "EEE": 43034,
  "EEK": 33964,
  "EF": 33344,
  "EFF": 46545,
  "EG": 13547,
  "EL": 4233,
  "ELD": 30726,
  "ELECT": 28760,
  "ELF": 49670,
  "ELL": 16299,
  "ELS": 46165,
  "ELY": 38826,
  "EM": 4672,
  "EMA": 23713,
  "EMBER": 33436,
  "EMENT": 11641,
  "EMS": 45042,
  "EN": 2831,
  "ENC": 39857,
  "ENCE": 25331,
  "END": 18671,
  "ENG": 41165,
  "ENN": 40757,
  "ENS": 25045,
  "ENSE": 49472,
  "ENT": 5530,
  "ENTER": 43117,
  "ENTS": 39172,
  "EO": 3972,
  "EP": 8007,
  "EPA": 31782,
  "EPH": 48360,
  "ER": 1716,
  "ERA": 41493,
  "ERC": 31451,
  "ERE": 11026,
  "ERN": 25612,
  "ERO": 31668,
  "ERS": 6284,
  "ERSON": 38930,
  "ERT": 27002,
  "ERY": 25063,
  "ES": 2663,
  "ESA": 39862,
  "ESCO": 32237,
  "ESE": 44798,
  "ESPN": 27351,
  "ESS": 15359,
  "EST": 8748,
  "ET": 3917,
  "ETA": 22384,
  "ETE": 47658,
  "ETH": 29183,
  "ETS": 39406,
  "ETT": 30813,
  "ETTER": 41175,
  "ETTERS": 43211,
  "EU": 16923,
  "EV": 22933,
  "EW": 7364,
  "EX": 10040,
  "EXT": 25623,
  "EY": 28604,
  "Each": 11334,
  "Earlier": 10055,
  "Early": 14593,
  "Earth": 23910,
  "East": 23890,
  "Eastern": 44129,
  "Easy": 35643,
  "Econom": 23560,
  "Economic": 40166,
  "Ed": 7583,
  "Edd": 42436,
  "Eddie": 48466,
  "Edge": 40302,
  "Edit": 28378,
  "Editor": 17388,
  "Educ": 29201,
  "Education": 34203,
  "Edward": 38270,
  "Eff": 24034,
  "Effect": 49557,
  "Egypt": 28951,
  "Eight": 24395,
  "Either": 27934,
  "El": 8972,
  "Ele": 30141,
  "Elect": 20164,
  "Electric": 42999,
  "Element": 25279,
  "Eleven": 40228,
  "Eli": 46168,
  "Elizabeth": 38048,
  "Ell": 29474,
  "Elsa": 36339,
  "Elsewhere": 36506,
  "Em": 11353,
  "Email": 16191,
  "Emb": 35218,
  "Emer": 32373,
  "Emergency": 47488,
  "Emily": 42194,
  "Emma": 49339,
  "Emp": 43475,
  "Employ": 30464,
  "En": 6663,
  "Enc": 35884,
  "End": 17127,
  "Energy": 31375,
  "Eng": 12375,
  "Engine": 28961,
  "England": 32488,
  "English": 22238,
  "Enjoy": 30823,
  "Enlarge": 21330,
  "Enough": 45453,
  "Ent": 20814,
  "Enter": 21233,
  "Entry": 45852,
  "Environment": 29845,
  "Environmental": 38515,
  "Ep": 19546,
  "Episode": 29447,
  "Equ": 28639,
  "Er": 16132,
  "Eric": 20527,
  "Error": 25330,
  "Es": 18878,
  "Especially": 39536,
  "Ess": 28995,
  "Essentially": 42396,
  "Est": 22929,
  "Et": 49727,
  "Eth": 38786,
  "Euro": 12476,
  "Europe": 13698,
  "European": 18313,
  "Ev": 15132,
  "Evan": 45022,
  "Evans": 46479,
  "Even": 5246,
  "Event": 15478,
  "Events": 47683,
  "Eventually": 23807,
  "Ever": 20993,
  "Every": 5429,
  "Everybody": 22055,
  "Everyone": 14099,
  "Everything": 17402,
  "Evidence": 42582,
  "Evolution": 49600,
  "Ex": 4286,
  "Exactly": 42879,
  "Example": 25965,
  "Examples": 37991,
  "Exc": 36371,
  "Except": 29906,
  "Exception": 30863,
  "Exclusive": 49649,
  "Executive": 42594,
  "Exit": 30492,
  "Exp": 22748,
  "Expect": 44755,
  "Exper": 19945,
  "Experts": 29390,
  "Expl": 22901,
  "Express": 41679,
  "Ext": 16425,
  "Extra": 37980,
  "Extreme": 47025,
  "Eye": 33280,
  "F": 70,
  "FA": 6533,
  "FAA": 48411,
  "FB": 28421,
  "FBI": 31848,
  "FC": 4340,
  "FD": 33817,
  "FE": 25713,
  "FER": 43362,
  "FF": 9105,
  "FG": 39616,
  "FI": 14950,
  "FIG": 38280,
  "FILE": 34690,
  "FIN": 46241,
  "FK": 26014,
  "FL": 3405,
  "FM": 25666,
  "FO": 9804,
  "FOR": 21551,
  "FORE": 42527,
  "FORM": 34978,
  "FOX": 40853,
  "FP": 6647,
  "FR": 15664,
  "FS": 12245,
  "FT": 15674,
  "FU": 47292,
  "FW": 30339,
  "FX": 26122,
  "Fab": 43069,
  "Face": 34714,
  "Facebook": 8980,
  "Fact": 27729,
  "Factory": 40682,
  "Fair": 29670,
  "Fake": 46386,
  "Fal": 45606,
  "Fall": 31580,
  "False": 44016,
  "Family": 25538,
  "Fan": 35862,
  "Fans": 29386,
  "Fant": 37332,
  "Far": 18518,
  "Farm": 45529,
  "Fast": 23547,
  "Fat": 36455,
  "Father": 34146,
  "Fe": 12450,
  "Fear": 37886,
  "Featured": 37593,
  "Features": 39311,
  "Feb": 16602,
  "February": 21466,
  "Fed": 41168,
  "Federal": 21459,
  "Feed": 16759,
  "Feel": 37383,
  "Fel": 43966,
  "Female": 44647,
  "Femin": 46776,
  "Fer": 42290,
  "Ferg": 47186,
  "Fest": 45829,
  "Few": 25364,
  "Fi": 10415,
  "Field": 26994,
  "Fif": 38919,
  "Fifty": 42171,
  "Fig": 13260,
  "Fight": 34054,
  "Fighting": 40049,
  "Figure": 12318,
  "Fil": 17270,
  "File": 17820,
  "Filed": 37857,
  "Files": 32209,
  "Film": 30235,
  "Filter": 47795,
  "Fin": 20201,
  "Final": 20977,
  "Finally": 10008,
  "Financial": 40267,
  "Find": 19903,
  "Finding": 31648,
  "Fine": 41268,
  "Fire": 16098,
  "First": 5468,
  "Firstly": 42753,
  "Fish": 44548,
  "Fisher": 47367,
  "Fit": 31844,
  "Five": 17113,
  "Fix": 28487,
  "Fixed": 19006,
  "Fl": 10670,
  "Fla": 36654,
  "Flag": 48990,
  "Flash": 33405,
  "Fle": 46147,
  "Flickr": 33639,
  "Flight": 44194,
  "Flo": 46900,
  "Flor": 23820,
  "Florida": 26077,
  "Flow": 47453,
  "Fly": 39958,
  "Flynn": 48621,
  "Focus": 38756,
  "Follow": 6042,
  "Following": 11390,
  "Food": 26269,
  "Foot": 21923,
  "Football": 35170,
  "For": 1878,
  "Force": 20075,
  "Ford": 31281,
  "Fore": 17710,
  "Foreign": 28948,
  "Forget": 42265,
  "Form": 18702,
  "Format": 43641,
  "Former": 11014,
  "Fort": 21988,
  "Fortunately": 25849,
  "Forty": 45056,
  "Forward": 47112,
  "Found": 26034,
  "Founded": 43189,
  "Founder": 44516,
  "Four": 13249,
  "Fourth": 41788,
  "Fox": 15871,
  "Fr": 6860,
  "Fra": 35803,
  "Frame": 28739,
  "Fran": 42849,
  "Franc": 31780,
  "France": 23127,
  "Francis": 46126,
  "Frank": 14938,
  "Frankly": 46575,
  "Fre": 25290,
  "Fred": 27828,
  "Free": 13240,
  "Freedom": 32304,
  "French": 21282,
  "Frequ": 47470,
  "Fresh": 33591,
  "Fri": 38240,
  "Friday": 19977,
  "Fried": 49067,
  "Friend": 24532,
  "Friends": 33077,
  "From": 5200,
  "Front": 32895,
  "Fs": 33651,
  "Fuck": 35030,
  "Full": 16339,
  "Fun": 22639,
  "Function": 36750,
  "Fund": 22543,
  "FundMe": 42576,
  "Funding": 47804,
  "Further": 11247,
  "Furthermore": 21357,
  "Future": 29863,
  "G": 71,
  "GA": 9818,
  "GAIN": 40467,
  "GB": 4446,
  "GBT": 7008,
  "GC": 18789,
  "GDP": 37232,
  "GE": 8782,
  "GEL": 25690,
  "GEN": 44234,
  "GER": 35327,
  "GES": 36533,
  "GET": 22088,
  "GETTY": 40871,
  "GF": 41538,
  "GG": 29526,
  "GH": 21301,
  "GHz": 24925,
  "GI": 20038,
  "GL": 16660,
  "GM": 12485,
  "GMO": 49913,
  "GN": 16245,
  "GO": 8644,
  "GOP": 32182,
  "GP": 19653,
  "GPU": 48126,
  "GR": 16577,
  "GRE": 34336,
  "GS": 15158,
  "GT": 24614,
  "GU": 44374,
  "GW": 34049,
  "GY": 47788,
  "Ga": 37313,
  "Gab": 40534,
  "Gal": 29064,
  "Gall": 28033,
  "Gallery": 44083,
  "Game": 13361,
  "Gamer": 36082,
  "Games": 30171,
  "Gar": 25644,
  "Gard": 45186,
  "Gary": 29187,
  "Gas": 44289,
  "Gate": 24645,
  "Gay": 38203,
  "Ge": 10318,
  "Gen": 16568,
  "Gender": 46972,
  "Gene": 34213,
  "Gener": 10504,
  "General": 13456,
  "Generally": 36992,
  "Georg": 29846,
  "George": 18512,
  "Georgia": 35137,
  "Ger": 25633,
  "German": 13825,
  "Germany": 23084,
  "Get": 6579,
  "Getting": 19714,
  "Getty": 7537,
  "Gh": 39449,
  "Ghost": 35040,
  "Gi": 32031,
  "Gib": 45740,
  "Gil": 33393,
  "Girl": 29539,
  "Girls": 43200,
  "Give": 25023,
  "Given": 12256,
  "Giving": 43832,
  "Gl": 10875,
  "Glass": 49735,
  "Glenn": 44872,
  "Global": 22798,
  "Go": 5034,
  "Goal": 46656,
  "God": 13686,
  "Going": 23055,
  "Gold": 15668,
  "Golden": 33480,
  "Good": 11207,
  "Google": 9717,
  "Gordon": 37950,
  "Got": 31818,
  "Gov": 21924,
  "Govern": 22437,
  "Government": 23237,
  "Governor": 39560,
  "Gr": 11443,
  "Gra": 49668,
  "Grad": 36656,
  "Grade": 47534,
  "Graham": 34922,
  "Grand": 26336,
  "Grant": 39561,
  "Graph": 27705,
  "Gray": 45780,
  "Gre": 43452,
  "Great": 15336,
  "Gree": 40585,
  "Greece": 44027,
  "Greek": 39827,
  "Green": 13939,
  "Greg": 26731,
  "Gro": 43618,
  "Ground": 45423,
  "Group": 21646,
  "Growing": 35281,
  "Gs": 29685,
  "Gu": 10877,
  "Guard": 25891,
  "Guest": 46765,
  "Gun": 28542,
  "Guy": 45806,
  "H": 72,
  "HA": 8630,
  "HAEL": 47074,
  "HAM": 37314,
  "HB": 34979,
  "HBO": 49095,
  "HC": 17223,
  "HCR": 43622,
  "HD": 14083,
  "HE": 23538,
  "HF": 30966,
  "HH": 34698,
  "HI": 25878,
  "HL": 5133,
  "HM": 43804,
  "HO": 28483,
  "HOW": 40432,
  "HP": 10774,
  "HR": 21159,
  "HS": 7655,
  "HT": 9377,
  "HTML": 36171,
  "Ha": 26654,
  "Hack": 31609,
  "Had": 25145,
  "Hal": 37208,
  "Half": 31320,
  "Hall": 28048,
  "Ham": 21957,
  "Hamas": 45807,
  "Hamilton": 35705,
  "Han": 38757,
  "Hand": 19933,
  "Handler": 43871,
  "Hann": 48459,
  "Happy": 23959,
  "Har": 12626,
  "Hard": 20939,
  "Hare": 49413,
  "Harper": 40591,
  "Harris": 33858,
  "Harry": 26394,
  "Hart": 40119,
  "Harvard": 49458,
  "Has": 20820,
  "Hash": 38549,
  "Hat": 42419,
  "Have": 12173,
  "Having": 12807,
  "Haw": 29492,
  "Hay": 28614,
  "He": 1378,
  "Head": 16793,
  "Health": 18136,
  "Heart": 33132,
  "Heat": 45277,
  "Heavy": 41003,
  "Height": 36585,
  "Hel": 16749,
  "Hell": 30403,
  "Hello": 16897,
  "Help": 28179,
  "Hen": 22847,
  "Hence": 45607,
  "Hend": 48154,
  "Henry": 27929,
  "Her": 8812,
  "Here": 4090,
  "Hero": 39021,
  "Hey": 10671,
  "Hi": 20554,
  "Hidden": 46840,
  "Hide": 42790,
  "Hig": 35525,
  "High": 13894,
  "Hill": 13509,
  "Hillary": 16087,
  "Hind": 41177,
  "His": 5641,
  "Hispanic": 46035,
  "Hist": 12326,
  "Historical": 46946,
  "Historically": 41856,
  "History": 16519,
  "Hit": 26010,
  "Ho": 29266,
  "Hol": 26436,
  "Hold": 25769,
  "Holl": 44938,
  "Hollywood": 40410,
  "Holmes": 49125,
  "Holy": 35041,
  "Hom": 31327,
  "Home": 17951,
  "Hon": 27468,
  "Honest": 32014,
  "Honestly": 34277,
  "Hong": 45978,
  "Hop": 19699,
  "Hope": 34063,
  "Hopefully": 25382,
  "Hor": 32140,
  "Host": 29291,
  "Hot": 26217,
  "Hour": 47521,
  "Hours": 40882,
  "House": 14962,
  "Houston": 30893,
  "How": 2383,
  "Howard": 35443,
  "However": 4191,
  "Hu": 39897,
  "Hub": 15427,
  "Hug": 43577,
  "Hum": 33107,
  "Human": 20719,
  "Humans": 47908,
  "Hun": 27944,
  "Hundreds": 28159,
  "Hung": 32855,
  "Hunt": 47481,
  "Hunter": 45212,
  "Hur": 38177,
  "Hy": 22112,
  "Hyd": 49290,
  "Hz": 9800,
  "I": 73,
  "IA": 3936,
  "IAL": 20944,
  "IAN": 26895,
  "IB": 22659,
  "IBM": 49363,
  "IC": 3254,
  "ICA": 23643,
  "ICAGO": 45306,
  "ICAL": 38517,
  "ICAN": 46532,
  "ICE": 11683,
  "ICEF": 44426,
  "ICH": 26651,
  "ICHAEL": 47588,
  "ICK": 15573,
  "ICO": 19477,
  "ICS": 22968,
  "ICT": 31454,
  "ID": 3865,
  "IDA": 42101,
  "IDE": 18574,
  "IDENT": 32117,
  "IDS": 14106,
  "IE": 11075,
  "IED": 44669,
  "IEGEL": 36817,
  "IENCE": 49603,
  "IES": 18825,
  "IF": 8263,
  "IFE": 35983,
  "IFF": 31004,
  "IFT": 42091,
  "IG": 5644,
  "IGH": 25824,
  "IGHT": 15108,
  "IGHTS": 49071,
  "IGN": 23591,
  "II": 6058,
  "III": 15346,
  "IJ": 39211,
  "IK": 35224,
  "IL": 4337,
  "ILA": 48311,
  "ILD": 35062,
  "ILE": 22466,
  "ILL": 11419,
  "ILY": 39982,
  "IM": 5321,
  "IME": 15462,
  "IMP": 47550,
  "IN": 2062,
  "INA": 32579,
  "INAL": 29122,
  "INC": 37752,
  "IND": 22619,
  "INE": 14811,
  "INFO": 38392,
  "ING": 4103,
  "INGS": 28579,
  "INGTON": 14348,
  "INK": 23007,
  "INN": 30146,
  "INS": 25548,
  "INT": 20054,
  "INTER": 46866,
  "IO": 12700,
  "ION": 5484,
  "IONS": 34656,
  "IOUS": 39956,
  "IP": 5402,
  "IPAC": 36229,
  "IPP": 45645,
  "IQ": 39611,
  "IR": 6702,
  "IRE": 47939,
  "IRO": 35152,
  "IS": 2219,
  "ISA": 20769,
  "ISC": 37553,
  "ISCO": 45480,
  "ISE": 29260,
  "ISH": 24637,
  "ISIL": 44436,
  "ISIS": 22877,
  "ISM": 35112,
  "ISON": 47443,
  "ISPR": 42426,
  "ISS": 21412,
  "IST": 12795,
  "IT": 3183,
  "ITCH": 42216,
  "ITE": 19470,
  "ITED": 35451,
  "ITH": 14569,
  "ITION": 30081,
  "ITS": 37494,
  "ITT": 38961,
  "ITY": 14373,
  "IU": 39750,
  "IV": 5330,
  "IVE": 13189,
  "IVERS": 47404,
  "IX": 20219,
  "IZ": 23623,
  "Ian": 33200,
  "Ice": 30197,
  "Id": 12182,
  "Ide": 35201,
  "Ident": 34228,
  "If": 1565,
  "Ign": 40468,
  "Il": 28587,
  "Ill": 20964,
  "Illinois": 49689,
  "Illustration": 47387,
  "Im": 3444,
  "Image": 4550,
  "Images": 26580,
  "Imagine": 20232,
  "Imm": 32710,
  "Immediately": 44501,
  "Immigration": 45862,
  "Imp": 29150,
  "Import": 26749,
  "Important": 42705,
  "Impro": 26808,
  "Improved": 41021,
  "In": 789,
  "Inc": 19372,
  "Incre": 24910,
  "Increased": 47746,
  "Increasing": 44629,
  "Ind": 5717,
  "Indeed": 14358,
  "Independent": 38789,
  "Index": 28663,
  "India": 17135,
  "Indian": 26002,
  "Indiana": 43640,
  "Individual": 37266,
  "Indones": 48653,
  "Indust": 32803,
  "Industry": 45337,
  "Inf": 17324,
  "Info": 28906,
  "Information": 28090,
  "Ing": 35433,
  "Ingredients": 42727,
  "Initial": 31414,
  "Initially": 31045,
  "Input": 33669,
  "Ins": 19140,
  "Inside": 22099,
  "Insp": 45018,
  "Inspired": 48828,
  "Inst": 7540,
  "Instagram": 47803,
  "Install": 31032,
  "Instead": 10397,
  "Int": 6874,
  "Integr": 45206,
  "Intel": 35365,
  "Inter": 12868,
  "Interest": 18353,
  "Interesting": 47612,
  "Interestingly": 26133,
  "Intern": 15796,
  "International": 22779,
  "Internet": 28646,
  "Interview": 37207,
  "Introdu": 29946,
  "Introduction": 25329,
  "Inv": 33870,
  "Invest": 16234,
  "Investigators": 25579,
  "Iowa": 36059,
  "Ir": 22403,
  "Iran": 17681,
  "Iranian": 38087,
  "Iraq": 25204,
  "Iraqi": 45469,
  "Ireland": 37768,
  "Irish": 34410,
  "Iron": 22579,
  "Ironically": 33214,
  "Is": 3759,
  "Isa": 42573,
  "Islam": 13482,
  "Islamic": 21021,
  "Isn": 38848,
  "Israel": 10432,
  "Israeli": 21758,
  "Iss": 30649,
  "It": 927,
  "Ita": 35069,
  "Italian": 38259,
  "Italy": 37452,
  "Item": 22678,
  "Items": 48239,
  "Its": 18445,
  "J": 74,
  "JA": 41022,
  "JC": 32648,
  "JD": 37426,
  "JECT": 40650,
  "JO": 44626,
  "JP": 11005,
  "JS": 20389,
  "JU": 45901,
  "JUST": 21898,
  "JW": 34910,
  "Ja": 34923,
  "Jac": 25970,
  "Jack": 13880,
  "Jackson": 25958,
  "Jacob": 42155,
  "Jake": 38530,
  "Jam": 27500,
  "James": 13567,
  "Jamie": 39932,
  "Jan": 13525,
  "Jane": 36791,
  "January": 21250,
  "Japan": 15570,
  "Japanese": 24261,
  "Jar": 43644,
  "Jared": 49180,
  "Jason": 22671,
  "Java": 34425,
  "Jay": 27805,
  "Je": 43794,
  "Jean": 33740,
  "Jeff": 16832,
  "Jeffrey": 46480,
  "Jen": 42142,
  "Jenn": 32313,
  "Jennifer": 38202,
  "Jer": 33511,
  "Jeremy": 31275,
  "Jerry": 39055,
  "Jes": 22013,
  "Jess": 31300,
  "Jesse": 44398,
  "Jessica": 39579,
  "Jesus": 28688,
  "Jet": 36146,
  "Jew": 21033,
  "Jewish": 23808,
  "Jews": 39572,
  "Jim": 16591,
  "Jimmy": 37297,
  "Jo": 11465,
  "Job": 41490,
  "Joe": 17076,
  "Joel": 45465,
  "John": 7027,
  "Johnny": 40793,
  "Johnson": 20616,
  "Join": 19581,
  "Joined": 40993,
  "Jon": 16060,
  "Jonathan": 25250,
  "Jones": 20903,
  "Jordan": 28927,
  "Jose": 22092,
  "Joseph": 28871,
  "Josh": 21366,
  "Joshua": 43487,
  "Journal": 22152,
  "Joy": 43245,
  "Js": 49758,
  "Ju": 39125,
  "Jud": 26258,
  "Judge": 23668,
  "Jul": 19636,
  "Julian": 45118,
  "July": 16561,
  "Jun": 40130,
  "June": 16128,
  "Jur": 49548,
  "Just": 5305,
  "Justice": 24365,
  "Justin": 27721,
  "K": 75,
  "KA": 26936,
  "KB": 34169,
  "KC": 43208,
  "KE": 10862,
  "KEY": 33173,
  "KING": 42940,
  "KK": 16283,
  "KN": 46402,
  "KO": 29055,
  "KR": 40336,
  "KS": 30076,
  "KY": 32966,
  "Ka": 38989,
  "Kal": 39460,
  "Kansas": 40356,
  "Kar": 32141,
  "Karen": 49571,
  "Karl": 44688,
  "Kas": 47250,
  "Kat": 26397,
  "Kate": 40411,
  "Kay": 47736,
  "Ke": 9241,
  "Keefe": 35081,
  "Keep": 16056,
  "Keeping": 39260,
  "Keith": 39098,
  "Kel": 47940,
  "Kelly": 28651,
  "Ken": 20677,
  "Kennedy": 46051,
  "Kent": 36768,
  "Kerry": 46344,
  "Kevin": 20588,
  "Key": 13042,
  "Kh": 33058,
  "Khan": 47615,
  "Kick": 41815,
  "Kids": 38397,
  "Kill": 34543,
  "Kim": 20551,
  "Kind": 49932,
  "King": 16645,
  "Kings": 48047,
  "Kirk": 49691,
  "Kit": 22426,
  "Kn": 29723,
  "Knight": 48985,
  "Know": 23262,
  "Knowing": 39938,
  "Known": 38472,
  "Korean": 47063,
  "Krist": 37907,
  "Kurd": 42722,
  "Ky": 28068,
  "Kyle": 36456,
  "L": 76,
  "LA": 7679,
  "LAN": 34015,
  "LAND": 29972,
  "LAY": 23286,
  "LB": 38876,
  "LC": 7813,
  "LD": 14988,
  "LE": 5746,
  "LEASE": 34780,
  "LED": 46017,
  "LES": 41684,
  "LEY": 35258,
  "LG": 43539,
  "LGBT": 28153,
  "LI": 32093,
  "LIN": 40120,
  "LINE": 30015,
  "LL": 25454,
  "LM": 40854,
  "LO": 25865,
  "LONDON": 41500,
  "LOS": 40062,
  "LP": 34014,
  "LR": 46861,
  "LS": 32999,
  "LT": 37505,
  "LU": 47593,
  "LV": 35679,
  "LY": 13736,
  "La": 12750,
  "Lab": 17282,
  "Labor": 34464,
  "Labour": 25146,
  "Lady": 42991,
  "Lago": 38391,
  "Lake": 41585,
  "Land": 25816,
  "Language": 43489,
  "Large": 29703,
  "Larry": 36410,
  "Las": 41380,
  "Last": 5054,
  "Lastly": 32938,
  "Lat": 28170,
  "Late": 24404,
  "Later": 15699,
  "Latest": 46613,
  "Latin": 44773,
  "Laughs": 27627,
  "Laura": 38821,
  "Law": 15632,
  "Lawmakers": 45132,
  "Lawrence": 48123,
  "Lawyers": 47224,
  "Lay": 29934,
  "Layout": 47947,
  "Le": 4843,
  "Lead": 19697,
  "Leaders": 44708,
  "Leading": 44873,
  "League": 20600,
  "Leaks": 12037,
  "Lear": 16493,
  "Learn": 25517,
  "Learning": 38629,
  "Leary": 39542,
  "Leave": 36007,
  "Leaving": 48231,
  "Led": 37670,
  "Lee": 21586,
  "Left": 23012,
  "Leg": 14768,
  "Legacy": 43057,
  "Legal": 33595,
  "Legend": 35010,
  "Legendary": 46484,
  "Legisl": 49888,
  "Len": 31595,
  "Length": 38345,
  "Lenin": 44064,
  "Lens": 40210,
  "Leod": 37921,
  "Leon": 34523,
  "Les": 31787,
  "Less": 21266,
  "Let": 5329,
  "Letter": 49051,
  "Lev": 29953,
  "Level": 21376,
  "Lew": 28263,
  "Lewis": 33002,
  "Li": 36541,
  "Lib": 30645,
  "Liber": 27567,
  "Liberal": 36034,
  "Library": 41660,
  "Lic": 44464,
  "Lie": 43856,
  "Life": 14594,
  "Light": 22492,
  "Like": 6674,
  "Likewise": 37627,
  "Lim": 24401,
  "Limited": 35548,
  "Lin": 21516,
  "Lind": 38154,
  "Line": 18826,
  "Link": 13117,
  "LinkedIn": 29985,
  "Links": 43221,
  "Linux": 28612,
  "Liqu": 43873,
  "Lisa": 41031,
  "List": 10969,
  "Listen": 21104,
  "Listener": 44989,
  "Liter": 43470,
  "Little": 21271,
  "Live": 19944,
  "Liverpool": 32828,
  "Living": 34106,
  "Lo": 29092,
  "Load": 23454,
  "Loading": 43321,
  "Loc": 45762,
  "Local": 18665,
  "Located": 48830,
  "Location": 22690,
  "Lock": 33872,
  "Log": 19826,
  "London": 21769,
  "Long": 15681,
  "Look": 8154,
  "Looking": 14266,
  "Looks": 41554,
  "Lord": 26117,
  "Los": 25895,
  "Lost": 34097,
  "Lot": 48591,
  "Lots": 39145,
  "Lou": 21042,
  "Louis": 27282,
  "Love": 18885,
  "Low": 24681,
  "Lower": 41885,
  "Lt": 49218,
  "Lu": 25521,
  "Luc": 23861,
  "Lucas": 45860,
  "Luck": 29510,
  "Luckily": 33473,
  "Luke": 32664,
  "Lv": 49927,
  "Ly": 33654,
  "Lyn": 33524,
  "M": 77,
  "MA": 6067,
  "MAN": 11044,
  "MAR": 41983,
  "MAS": 42244,
  "MAX": 48131,
  "MB": 11379,
  "MC": 16221,
  "MCA": 47941,
  "MD": 17219,
  "ME": 17498,
  "MED": 40883,
  "MENT": 17806,
  "MER": 47454,
  "MG": 31249,
  "MH": 46926,
  "MHz": 32153,
  "MI": 14560,
  "MIN": 38004,
  "MIT": 35657,
  "MJ": 43296,
  "MK": 41678,
  "ML": 7285,
  "MLS": 43311,
  "MM": 14974,
  "MMA": 47431,
  "MN": 49653,
  "MO": 24157,
  "MON": 31873,
  "MORE": 19363,
  "MOS": 49896,
  "MOST": 49103,
  "MP": 7496,
  "MR": 23758,
  "MRI": 35160,
  "MS": 7527,
  "MT": 27061,
  "MU": 44259,
  "MW": 33359,
  "MY": 34441,
  "Ma": 21702,
  "Mac": 15922,
  "Machine": 48414,
  "Mad": 17814,
  "Made": 30447,
  "Madison": 39346,
  "Mag": 26190,
  "Magic": 32697,
  "Magn": 49269,
  "Mah": 38107,
  "Mail": 30909,
  "Main": 18166,
  "Maine": 48749,
  "Major": 23268,
  "Make": 13643,
  "Making": 21178,
  "Mal": 13783,
  "Malays": 49361,
  "Male": 47187,
  "Malley": 26851,
  "Man": 6477,
  "Manager": 26291,
  "Manchester": 31508,
  "Mand": 48158,
  "Mania": 35742,
  "Many": 5987,
  "Map": 18592,
  "Mar": 7955,
  "Marc": 19209,
  "March": 15754,
  "Marco": 33054,
  "Marcus": 29620,
  "Marg": 35511,
  "Maria": 42134,
  "Marie": 38389,
  "Marijuana": 46881,
  "Marine": 49764,
  "Mario": 44846,
  "Mark": 10371,
  "Market": 31662,
  "Mars": 37645,
  "Marsh": 38559,
  "Marshall": 48139,
  "Mart": 11661,
  "Martin": 21740,
  "Marvel": 34686,
  "Marx": 39983,
  "Mary": 22529,
  "Maryland": 49533,
  "Mas": 38804,
  "Mass": 19162,
  "Master": 25910,
  "Mat": 15087,
  "Match": 36354,
  "Math": 42621,
  "Matt": 16726,
  "Matthew": 23589,
  "Max": 16996,
  "May": 6840,
  "Maybe": 11681,
  "Mayor": 28269,
  "Mbps": 41106,
  "Mc": 8520,
  "McC": 20301,
  "McCain": 35768,
  "McDonald": 47997,
  "McG": 41479,
  "McK": 43469,
  "Me": 8291,
  "Mean": 7644,
  "Meanwhile": 7851,
  "Med": 12559,
  "Media": 12111,
  "Medic": 41427,
  "Medical": 36911,
  "Meet": 26670,
  "Meg": 47594,
  "Mel": 20328,
  "Mem": 14949,
  "Member": 45280,
  "Members": 22240,
  "Memory": 41434,
  "Men": 12573,
  "Mer": 14915,
  "Merc": 49264,
  "Merit": 29893,
  "Mess": 39730,
  "Message": 25024,
  "Met": 14101,
  "Method": 25837,
  "Metro": 36374,
  "Mex": 20119,
  "Mexican": 43372,
  "Mexico": 26312,
  "Mi": 46914,
  "Miami": 33438,
  "Mic": 23121,
  "Mich": 10072,
  "Michael": 11870,
  "Michel": 30345,
  "Michelle": 40794,
  "Michigan": 33730,
  "Micro": 40638,
  "Microsoft": 16747,
  "Mid": 25246,
  "Middle": 33864,
  "Mike": 14316,
  "Mil": 23857,
  "Military": 33439,
  "Mill": 30681,
  "Miller": 30220,
  "Millions": 46759,
  "Min": 12297,
  "Mind": 28561,
  "Mine": 39608,
  "Minister": 47123,
  "Minnesota": 36664,
  "Mir": 30004,
  "Mis": 37289,
  "Miss": 18636,
  "Mission": 41361,
  "Mit": 37417,
  "Mitchell": 47748,
  "Mitt": 48283,
  "Mix": 42196,
  "Mo": 16928,
  "Mobil": 37375,
  "Mobile": 15186,
  "Mod": 10213,
  "Mode": 43525,
  "Model": 25561,
  "Modern": 26511,
  "Module": 38823,
  "Moh": 30202,
  "Mom": 28655,
  "Mon": 12045,
  "Mond": 22743,
  "Monday": 24155,
  "Money": 24701,
  "Monitor": 43171,
  "Mont": 22843,
  "Montreal": 49316,
  "Moon": 35373,
  "Moore": 29628,
  "Mor": 18126,
  "More": 4760,
  "Moreover": 20524,
  "Morgan": 41198,
  "Morm": 46045,
  "Morning": 36217,
  "Mort": 41586,
  "Mos": 28476,
  "Moscow": 40662,
  "Most": 6137,
  "Mot": 29795,
  "Mother": 30540,
  "Motion": 48473,
  "Motor": 43019,
  "Mount": 38818,
  "Move": 30518,
  "Movie": 47260,
  "Moving": 28859,
  "Mr": 4420,
  "Mrs": 23928,
  "Ms": 9759,
  "Mu": 33853,
  "Much": 16394,
  "Mult": 19861,
  "Multi": 42569,
  "Multiple": 31719,
  "Mur": 21395,
  "Murphy": 46161,
  "Murray": 39602,
  "Mus": 9827,
  "Music": 23319,
  "Muslim": 13912,
  "Muslims": 29767,
  "Must": 36676,
  "My": 3725,
  "Myth": 43347,
  "N": 78,
  "NA": 4603,
  "NAME": 44311,
  "NARR": 47942,
  "NAS": 16415,
  "NASA": 22070,
  "NATO": 37008,
  "NB": 41984,
  "NBA": 27393,
  "NBC": 10070,
  "NC": 7087,
  "ND": 11680,
  "NE": 17373,
  "NER": 45474,
  "NET": 13760,
  "NEW": 12995,
  "NEWS": 47777,
  "NEWSL": 42553,
  "NEWSLETTERS": 44782,
  "NEY": 42813,
  "NF": 23839,
  "NFL": 28417,
  "NG": 13134,
  "NH": 46672,
  "NHL": 43120,
  "NI": 25484,
  "NING": 36719,
  "NJ": 45626,
  "NL": 36011,
  "NN": 4733,
  "NO": 18185,
  "NOR": 43156,
  "NOT": 20322,
  "NOTE": 30300,
  "NOW": 49835,
  "NP": 22724,
  "NPR": 28903,
  "NR": 24734,
  "NS": 9882,
  "NSA": 38867,
  "NT": 12464,
  "NULL": 45038,
  "NY": 13819,
  "NYC": 45859,
  "NYSE": 42285,
  "NZ": 37090,
  "Na": 29138,
  "Name": 10989,
  "Nap": 41932,
  "Nar": 37671,
  "Nash": 47554,
  "Nat": 47179,
  "Nathan": 45636,
  "Nation": 42272,
  "National": 15436,
  "Native": 43165,
  "Natural": 35354,
  "Naturally": 36709,
  "Nature": 46116,
  "Nav": 38934,
  "Naz": 30511,
  "Nazi": 25423,
  "Nazis": 35011,
  "Ne": 8036,
  "Neal": 33735,
  "Near": 40215,
  "Nearly": 21916,
  "Ned": 45593,
  "Need": 25480,
  "Needless": 44764,
  "Neg": 33375,
  "Neigh": 37576,
  "Neil": 24408,
  "Neill": 22402,
  "Neither": 22473,
  "Nelson": 47368,
  "Net": 10913,
  "Netanyahu": 46238,
  "Netflix": 33974,
  "Network": 36535,
  "Nev": 35333,
  "Never": 12850,
  "Nevertheless": 23000,
  "New": 3797,
  "News": 8724,
  "Newsletter": 25794,
  "Next": 10497,
  "Ni": 38572,
  "Nic": 27988,
  "Nice": 36741,
  "Nich": 39967,
  "Nick": 21334,
  "Night": 28231,
  "Nik": 38766,
  "Nin": 40292,
  "Nine": 32419,
  "Nintendo": 34989,
  "No": 3366,
  "Nob": 17979,
  "Nobody": 19888,
  "Node": 30591,
  "Non": 17400,
  "None": 16137,
  "Nonetheless": 32108,
  "Nope": 47283,
  "Nor": 19729,
  "Normal": 40043,
  "Normally": 38654,
  "North": 12759,
  "Northern": 38920,
  "Not": 4039,
  "Notable": 39836,
  "Note": 8804,
  "Notes": 17527,
  "Nothing": 17779,
  "Notice": 30330,
  "Nov": 23750,
  "November": 20585,
  "Now": 3524,
  "Ns": 48595,
  "Num": 29402,
  "Number": 22285,
  "Numerous": 49163,
  "Nusra": 30172,
  "O": 79,
  "OB": 27015,
  "OC": 6714,
  "OCK": 18560,
  "OCR": 48616,
  "OD": 6308,
  "ODE": 31542,
  "ODUC": 41214,
  "ODY": 47651,
  "OE": 34406,
  "OF": 37633,
  "OFF": 42341,
  "OG": 14178,
  "OH": 17582,
  "OHN": 35829,
  "OIL": 49928,
  "OK": 9599,
  "OL": 4717,
  "OLD": 23586,
  "OLL": 20716,
  "OM": 3885,
  "OMA": 43565,
  "OME": 16131,
  "ON": 2142,
  "OND": 22208,
  "ONDON": 37548,
  "ONE": 17434,
  "ONES": 43671,
  "ONG": 23685,
  "ONS": 37651,
  "ONTO": 41395,
  "ONY": 46905,
  "OO": 20489,
  "OOD": 34958,
  "OP": 3251,
  "OPA": 31683,
  "OPE": 39010,
  "OPER": 48764,
  "OPLE": 34669,
  "OPS": 34365,
  "OR": 2851,
  "ORD": 17719,
  "ORE": 6623,
  "ORK": 16246,
  "ORN": 25084,
  "ORPG": 43860,
  "ORS": 34863,
  "ORT": 14609,
  "ORTS": 30788,
  "ORY": 20971,
  "OS": 3112,
  "OSE": 16767,
  "OSS": 23126,
  "OST": 13873,
  "OT": 3637,
  "OTA": 33084,
  "OTE": 44486,
  "OTH": 25222,
  "OTHER": 40207,
  "OTS": 44386,
  "OTT": 36485,
  "OTUS": 31401,
  "OU": 4183,
  "OUGH": 37796,
  "OULD": 34360,
  "OUND": 23162,
  "OUP": 49696,
  "OUR": 17612,
  "OURCE": 40262,
  "OUT": 20072,
  "OVA": 46884,
  "OW": 5538,
  "OWN": 20636,
  "Oak": 36864,
  "Oakland": 45942,
  "Ob": 6473,
  "Obama": 11195,
  "Obamacare": 41855,
  "Object": 18107,
  "Obs": 31521,
  "Obviously": 16240,
  "Occ": 28484,
  "Occup": 37293,
  "Occupy": 49041,
  "Oct": 13734,
  "October": 19071,
  "Odd": 41504,
  "Of": 5287,
  "Off": 7491,
  "Office": 28044,
  "Officer": 43219,
  "Officers": 25983,
  "Official": 31048,
  "Officials": 18957,
  "Offline": 42070,
  "Often": 32559,
  "Oh": 6050,
  "Ohio": 23859,
  "Oil": 36866,
  "Ok": 19562,
  "Okay": 16745,
  "Oklahoma": 45264,
  "Ol": 37634,
  "Old": 21746,
  "Oliver": 47033,
  "Olymp": 46955,
  "Om": 40841,
  "On": 2053,
  "Once": 7189,
  "One": 2835,
  "Online": 21856,
  "Only": 11625,
  "Ont": 38822,
  "Ontario": 44606,
  "Op": 19058,
  "Open": 15954,
  "Opening": 42568,
  "Opens": 40849,
  "Oper": 19718,
  "Operation": 29018,
  "Opin": 42420,
  "Opinion": 49850,
  "Opp": 21952,
  "Opponents": 44442,
  "Opposition": 39471,
  "Ops": 41098,
  "Opt": 34928,
  "Option": 32719,
  "Options": 45014,
  "Or": 6943,
  "Orange": 40461,
  "Ord": 45087,
  "Order": 34418,
  "Oregon": 34802,
  "Organ": 24384,
  "Orig": 13434,
  "Original": 23572,
  "Originally": 23230,
  "Orlando": 41651,
  "Orthodox": 40826,
  "Os": 13983,
  "Other": 5953,
  "Others": 20382,
  "Otherwise": 44603,
  "Ott": 34737,
  "Ottawa": 46194,
  "Our": 4831,
  "Out": 9944,
  "Output": 43119,
  "Outside": 26412,
  "Over": 5931,
  "Overall": 15820,
  "Overview": 40696,
  "Own": 29554,
  "Ox": 38801,
  "P": 80,
  "PA": 4467,
  "PAA": 36292,
  "PAC": 41107,
  "PAR": 43711,
  "PC": 8563,
  "PD": 5732,
  "PDATE": 12295,
  "PDF": 21649,
  "PE": 21850,
  "PER": 23036,
  "PF": 37962,
  "PG": 8289,
  "PH": 15421,
  "PHOT": 30031,
  "PHOTOS": 36219,
  "PI": 11717,
  "PIO": 48110,
  "PK": 46803,
  "PL": 10388,
  "PM": 8277,
  "PN": 14225,
  "PO": 21837,
  "POL": 49889,
  "PORT": 26444,
  "POST": 38120,
  "PP": 9005,
  "PR": 5863,
  "PRE": 30686,
  "PRO": 31147,
  "PS": 4532,
  "PT": 19811,
  "PU": 6392,
  "PUT": 47217,
  "Pa": 29469,
  "Pac": 16838,
  "Pacific": 19750,
  "Pack": 25501,
  "Pad": 26898,
  "Page": 17734,
  "Pakistan": 24360,
  "Pal": 10975,
  "Palest": 23410,
  "Palestine": 49439,
  "Palestinian": 25754,
  "Pan": 22729,
  "Panel": 48120,
  "Paper": 48691,
  "Par": 12987,
  "Param": 42296,
  "Parent": 36491,
  "Parents": 36298,
  "Paris": 37054,
  "Park": 25223,
  "Parker": 49570,
  "Part": 8657,
  "Particip": 34932,
  "Participants": 46661,
  "Party": 34134,
  "Pass": 17245,
  "Past": 34200,
  "Pat": 12077,
  "Path": 23312,
  "Patrick": 26975,
  "Paul": 10257,
  "Pay": 20611,
  "Pe": 5744,
  "Peace": 41231,
  "Pear": 45413,
  "Ped": 43476,
  "Pel": 47607,
  "Pen": 29312,
  "Pence": 46305,
  "Penn": 34329,
  "People": 6686,
  "Per": 6710,
  "Perfect": 43930,
  "Performance": 35905,
  "Perhaps": 11349,
  "Permalink": 31496,
  "Perry": 39695,
  "Pers": 39118,
  "Person": 15979,
  "Personal": 27836,
  "Personally": 34241,
  "Pet": 30186,
  "Pete": 48504,
  "Peter": 17516,
  "Ph": 2611,
  "Phase": 49070,
  "Phil": 17307,
  "Philadelphia": 40719,
  "Philip": 43775,
  "Philipp": 42930,
  "Phill": 34952,
  "Phillips": 43155,
  "Phoenix": 45169,
  "Phone": 25705,
  "Phot": 14684,
  "Photo": 4974,
  "Photos": 19966,
  "Physical": 46778,
  "Pi": 41766,
  "Pic": 38248,
  "Pick": 33255,
  "Pict": 20466,
  "Picture": 25753,
  "Pierre": 27996,
  "Pin": 34855,
  "Pink": 47737,
  "Pinterest": 27832,
  "Pir": 45009,
  "Pitt": 40578,
  "Pittsburgh": 49640,
  "Pl": 5000,
  "Place": 34422,
  "Plan": 20520,
  "Planet": 42803,
  "Play": 15825,
  "Player": 22885,
  "Players": 26447,
  "Playing": 31893,
  "Please": 8745,
  "Plot": 41306,
  "Plus": 18675,
  "Po": 20909,
  "Pocket": 39250,
  "Pod": 35940,
  "Point": 14572,
  "Pol": 6436,
  "Police": 7178,
  "Policy": 48596,
  "Polit": 30021,
  "Political": 26521,
  "Politics": 33814,
  "Poll": 34107,
  "Poly": 44815,
  "Pont": 42311,
  "Pool": 40762,
  "Poor": 40960,
  "Pop": 24331,
  "Pope": 35850,
  "Popular": 43060,
  "Por": 49349,
  "Port": 16037,
  "Portland": 37499,
  "Pos": 33757,
  "Position": 35901,
  "Post": 7988,
  "Posted": 14916,
  "Posts": 38816,
  "Pot": 27410,
  "Potential": 47721,
  "Power": 17047,
  "Pr": 7771,
  "Pract": 49042,
  "Pre": 9948,
  "Pred": 36098,
  "Prem": 27305,
  "Premier": 46299,
  "Premium": 49841,
  "Prep": 39136,
  "Pres": 26196,
  "Present": 33234,
  "President": 8028,
  "Press": 12877,
  "Pretty": 34135,
  "Previous": 23627,
  "Previously": 29809,
  "Pri": 18729,
  "Price": 22052,
  "Prim": 32791,
  "Primary": 49811,
  "Prime": 21245,
  "Prin": 49659,
  "Princ": 42090,
  "Prince": 30807,
  "Print": 20104,
  "Prior": 21373,
  "Prison": 44326,
  "Priv": 23610,
  "Privacy": 48968,
  "Private": 33370,
  "Pro": 4003,
  "Probably": 31526,
  "Process": 32972,
  "Produ": 20526,
  "Product": 29822,
  "Production": 32544,
  "Prof": 14216,
  "Professional": 46907,
  "Professor": 22032,
  "Program": 31776,
  "Progress": 35934,
  "Project": 19579,
  "Prom": 27084,
  "Prop": 24237,
  "Proper": 28902,
  "Property": 38374,
  "Pros": 31517,
  "Prosecutors": 29414,
  "Prot": 18019,
  "Protesters": 37704,
  "Prov": 22854,
  "Ps": 11752,
  "Psych": 34465,
  "Publ": 37966,
  "Public": 15324,
  "Publica": 44073,
  "Published": 20671,
  "Pur": 38094,
  "Push": 49104,
  "Put": 15238,
  "Putin": 28638,
  "Putting": 38462,
  "Py": 33543,
  "Python": 36042,
  "Q": 81,
  "QB": 39370,
  "QL": 10800,
  "QU": 19571,
  "QUEST": 48934,
  "Qaeda": 14341,
  "Qaida": 29162,
  "Qu": 6363,
  "Qual": 33418,
  "Quant": 39509,
  "Quarter": 48725,
  "Que": 18629,
  "Queen": 30047,
  "Query": 22390,
  "Quest": 17389,
  "Question": 26181,
  "Questions": 37923,
  "Quick": 24818,
  "Quite": 38125,
  "Quote": 33925,
  "R": 82,
  "RA": 5042,
  "RAL": 40136,
  "RAM": 31975,
  "RAW": 44961,
  "RAY": 47516,
  "RB": 23887,
  "RC": 8722,
  "RD": 49310,
  "RE": 2164,
  "READ": 13762,
  "REAK": 31637,
  "REAKING": 45591,
  "REAM": 36024,
  "REC": 39035,
  "RECT": 46787,
  "RED": 18297,
  "REE": 15622,
  "REL": 14015,
  "RELATED": 15568,
  "REN": 38191,
  "RES": 14758,
  "RESS": 46548,
  "RET": 35147,
  "REW": 48375,
  "RF": 35644,
  "RI": 8567,
  "RL": 9178,
  "RM": 34156,
  "RN": 35833,
  "RNA": 28346,
  "RO": 12535,
  "ROM": 43886,
  "ROR": 40818,
  "RP": 19060,
  "RR": 37123,
  "RS": 8133,
  "RT": 13017,
  "RY": 25884,
  "Ra": 23599,
  "Race": 41320,
  "Rachel": 40918,
  "Rad": 18492,
  "Radio": 28074,
  "Rae": 48371,
  "Rah": 41296,
  "Rail": 48363,
  "Rain": 36330,
  "Ram": 30239,
  "Rand": 37915,
  "Random": 40314,
  "Range": 39971,
  "Rank": 35599,
  "Rare": 35202,
  "Rat": 41415,
  "Rated": 34929,
  "Rather": 21743,
  "Rating": 46901,
  "Raven": 48399,
  "Raw": 40150,
  "Ray": 20916,
  "Re": 3549,
  "Read": 5144,
  "Reader": 41807,
  "Reading": 33392,
  "Ready": 32776,
  "Real": 16466,
  "Really": 25781,
  "Reason": 44600,
  "Reb": 31035,
  "Rec": 7769,
  "Rece": 48931,
  "Recent": 24831,
  "Recently": 19801,
  "Reception": 45769,
  "Recommend": 44396,
  "Recommended": 46549,
  "Record": 27444,
  "Red": 11024,
  "Redd": 19638,
  "Reddit": 20573,
  "Ref": 8242,
  "Reference": 36451,
  "References": 13391,
  "Reg": 10120,
  "Regarding": 33310,
  "Regardless": 22772,
  "Regist": 47590,
  "Regular": 46249,
  "Reid": 49528,
  "Reilly": 18349,
  "Rel": 6912,
  "Related": 8591,
  "Relations": 46414,
  "Release": 28841,
  "Released": 47954,
  "Religious": 47450,
  "Rem": 10030,
  "Remember": 15746,
  "Remove": 44778,
  "Ren": 28512,
  "Rep": 5881,
  "Repe": 41747,
  "Report": 26118,
  "Reporting": 37738,
  "Reports": 30663,
  "Represent": 32853,
  "Republic": 11951,
  "Republican": 19399,
  "Republicans": 19578,
  "Requ": 40552,
  "Request": 29768,
  "Res": 6027,
  "Research": 24281,
  "Researchers": 19192,
  "Residents": 31425,
  "Resource": 47297,
  "Resources": 48079,
  "Resp": 20707,
  "Responding": 42072,
  "Response": 36468,
  "Rest": 24349,
  "Result": 32865,
  "Results": 28028,
  "Ret": 14643,
  "Retail": 47236,
  "Return": 27234,
  "Reuters": 9465,
  "Rev": 23233,
  "Review": 17919,
  "Reviewer": 29334,
  "Rew": 39495,
  "Rex": 43705,
  "Rh": 39212,
  "Rice": 48424,
  "Rich": 13849,
  "Richard": 18486,
  "Rick": 28436,
  "Right": 10894,
  "Rise": 48706,
  "River": 41358,
  "Ro": 24926,
  "Road": 34850,
  "Rob": 14788,
  "Rober": 13824,
  "Robert": 16901,
  "Roberts": 35052,
  "Robin": 40647,
  "Robinson": 44859,
  "Rock": 20395,
  "Rocket": 49558,
  "Rod": 24712,
  "Rog": 26927,
  "Roger": 37048,
  "Role": 48523,
  "Roll": 30731,
  "Rom": 21879,
  "Roman": 29358,
  "Romney": 30560,
  "Ron": 22282,
  "Ros": 33687,
  "Rose": 30385,
  "Ross": 32829,
  "Rou": 39566,
  "Rough": 47057,
  "Round": 26251,
  "Rourke": 49031,
  "Route": 49813,
  "Row": 40753,
  "Roy": 27179,
  "Royal": 39849,
  "Rs": 29157,
  "Ru": 48705,
  "Rub": 19016,
  "Rubio": 46233,
  "Ruby": 27586,
  "Rule": 41311,
  "Rules": 48718,
  "Rum": 38354,
  "Run": 19495,
  "Running": 28800,
  "Rus": 29270,
  "Rush": 49319,
  "Russ": 8584,
  "Russell": 38010,
  "Russia": 13592,
  "Russian": 13879,
  "Ryan": 17859,
  "S": 83,
  "SA": 4179,
  "SAN": 25443,
  "SB": 20597,
  "SC": 10276,
  "SCR": 40245,
  "SD": 11697,
  "SE": 9422,
  "SEC": 30241,
  "SEE": 34118,
  "SER": 49334,
  "SF": 22887,
  "SG": 48380,
  "SH": 16809,
  "SHA": 34665,
  "SHARE": 49715,
  "SI": 18290,
  "SK": 40558,
  "SL": 9507,
  "SM": 14066,
  "SN": 17696,
  "SO": 16107,
  "SON": 13924,
  "SP": 4771,
  "SPIEGEL": 49359,
  "SQL": 18883,
  "SR": 42463,
  "SS": 5866,
  "SSL": 41066,
  "ST": 4482,
  "STE": 48281,
  "STEM": 41074,
  "STR": 36318,
  "SU": 10942,
  "SW": 20504,
  "SY": 41059,
  "Sa": 34778,
  "Sab": 40846,
  "Sac": 43597,
  "Sad": 22650,
  "Sadly": 29030,
  "Safe": 37316,
  "Safety": 44327,
  "Saharan": 35855,
  "Said": 38088,
  "Saint": 44375,
  "Sal": 19193,
  "Sales": 43390,
  "Salt": 45675,
  "Sam": 16569,
  "Same": 34654,
  "Sample": 48364,
  "Samsung": 28501,
  "San": 14781,
  "Sand": 15150,
  "Sanders": 18747,
  "Sant": 40386,
  "Santa": 39612,
  "Sar": 20893,
  "Sarah": 25229,
  "Sat": 24868,
  "Saturday": 19287,
  "Saudi": 28834,
  "Sav": 49897,
  "Save": 20795,
  "Sax": 36333,
  "Saxon": 44015,
  "Say": 28964,
  "Sc": 4133,
  "Scale": 49797,
  "Scan": 46693,
  "Scar": 45157,
  "Scene": 48594,
  "Sch": 13716,
  "Sche": 34688,
  "School": 25927,
  "Science": 25064,
  "Scient": 17931,
  "Scientists": 21379,
  "Score": 28548,
  "Scot": 34298,
  "Scotland": 40535,
  "Scott": 16193,
  "Scottish": 48580,
  "Screen": 32923,
  "Script": 8612,
  "Scroll": 24257,
  "Se": 6017,
  "Sea": 36192,
  "Sean": 24193,
  "Search": 25744,
  "Season": 21214,
  "Seattle": 29422,
  "Sec": 7348,
  "Second": 11924,
  "Secondly": 37922,
  "Secret": 22272,
  "Secretary": 31124,
  "Section": 29363,
  "Security": 23442,
  "See": 6350,
  "Seeing": 36773,
  "Seg": 42344,
  "Select": 26881,
  "Self": 28030,
  "Sem": 37457,
  "Semit": 14239,
  "Semitic": 22564,
  "Semitism": 20974,
  "Sen": 8525,
  "Senate": 23213,
  "Senator": 23176,
  "Send": 30771,
  "Senior": 28122,
  "Sense": 41154,
  "Sent": 35519,
  "Sep": 25283,
  "Sept": 16067,
  "September": 19486,
  "Ser": 13576,
  "Serial": 49636,
  "Series": 31245,
  "Seriously": 37227,
  "Serv": 18532,
  "Server": 28137,
  "Service": 23010,
  "Services": 49568,
  "Sessions": 46915,
  "Set": 12954,
  "Sett": 44948,
  "Setting": 36225,
  "Sev": 49789,
  "Seven": 27063,
  "Several": 12136,
  "Sex": 24544,
  "Sexual": 47257,
  "Sh": 3017,
  "Shadow": 37541,
  "Sham": 29263,
  "Shane": 46301,
  "Shar": 41072,
  "Share": 10683,
  "Shares": 42486,
  "Sharp": 42947,
  "She": 3212,
  "Shell": 29333,
  "Sher": 25635,
  "Shield": 49132,
  "Shift": 45003,
  "Ship": 46520,
  "Sho": 49940,
  "Shock": 35292,
  "Shop": 37487,
  "Short": 16957,
  "Shortly": 24172,
  "Shot": 39200,
  "Should": 18882,
  "Show": 20056,
  "Shut": 47923,
  "Shutterstock": 43279,
  "Si": 44312,
  "Side": 28545,
  "Sign": 13466,
  "Sil": 17536,
  "Silver": 32523,
  "Sim": 9549,
  "Similar": 26727,
  "Similarly": 23248,
  "Simon": 31399,
  "Simple": 35736,
  "Simply": 34658,
  "Sin": 43222,
  "Since": 5515,
  "Sing": 27317,
  "Single": 36925,
  "Sir": 25165,
  "Sit": 46550,
  "Site": 38645,
  "Sitting": 49121,
  "Six": 19138,
  "Size": 24512,
  "Sk": 23840,
  "Skin": 49320,
  "Sky": 22924,
  "Sl": 15134,
  "Sleep": 45475,
  "Slideshow": 40891,
  "Slow": 40399,
  "Sm": 8572,
  "Small": 24576,
  "Smart": 26908,
  "Smith": 16080,
  "Sn": 23331,
  "Snow": 27754,
  "Snowden": 46472,
  "So": 2126,
  "Soc": 36129,
  "Social": 18716,
  "Soft": 27232,
  "Software": 38050,
  "Sol": 39472,
  "Solar": 35650,
  "Sold": 42555,
  "Some": 3863,
  "Somebody": 45811,
  "Someone": 25034,
  "Something": 20813,
  "Sometimes": 13689,
  "Son": 33607,
  "Song": 47528,
  "Sony": 28061,
  "Soon": 24853,
  "Soph": 48935,
  "Sorry": 21609,
  "Sou": 48105,
  "Sound": 26703,
  "Sounds": 41539,
  "Source": 8940,
  "Sources": 18552,
  "South": 13208,
  "Southern": 38990,
  "Sov": 31625,
  "Soviet": 32009,
  "Sp": 5733,
  "Spa": 40944,
  "Space": 18110,
  "Spain": 37115,
  "Spanish": 37508,
  "Spe": 6180,
  "Speaking": 10551,
  "Spec": 37952,
  "Special": 18304,
  "Specifically": 37937,
  "Speed": 31979,
  "Sphere": 47641,
  "Spider": 44493,
  "Spir": 40827,
  "Spl": 37945,
  "Spoiler": 44573,
  "Spons": 46678,
  "Sport": 38808,
  "Sports": 15293,
  "Spot": 30495,
  "Spr": 49915,
  "Spread": 46078,
  "Spring": 32482,
  "Squ": 28278,
  "St": 1537,
  "Stack": 28408,
  "Staff": 27947,
  "Stage": 39773,
  "Stan": 28327,
  "Stand": 23893,
  "Standard": 36218,
  "Standing": 42127,
  "Stanford": 47088,
  "Star": 8147,
  "Stars": 30563,
  "Start": 13832,
  "Starting": 22335,
  "Stat": 28013,
  "State": 10323,
  "States": 39432,
  "Station": 10438,
  "Stats": 38947,
  "Status": 31985,
  "Stay": 24380,
  "Ste": 8716,
  "Steam": 42567,
  "Stein": 45985,
  "Step": 9669,
  "Stephan": 47956,
  "Stephen": 22777,
  "Steve": 17436,
  "Steven": 25102,
  "Stew": 40497,
  "Stewart": 44001,
  "Still": 9140,
  "Sto": 46223,
  "Stock": 28286,
  "Stone": 34246,
  "Stop": 19438,
  "Storage": 43369,
  "Store": 35677,
  "Storm": 38879,
  "Story": 9620,
  "Str": 17552,
  "Stra": 42231,
  "Strange": 46088,
  "Stre": 33913,
  "Stream": 23964,
  "Street": 32131,
  "Strike": 34901,
  "String": 15784,
  "Strong": 33773,
  "Stud": 13594,
  "Student": 43113,
  "Students": 26458,
  "Studies": 42525,
  "Studio": 41186,
  "Study": 41043,
  "StumbleUpon": 42833,
  "Sty": 29011,
  "Style": 34310,
  "Su": 22684,
  "Sub": 8005,
  "Subaru": 49260,
  "Subject": 21313,
  "Subscribe": 18940,
  "Suburb": 39864,
  "Success": 35296,
  "Such": 14113,
  "Suddenly": 38413,
  "Sullivan": 37333,
  "Sum": 16267,
  "Summary": 26235,
  "Summer": 35532,
  "Sun": 19085,
  "Sund": 21027,
  "Sunday": 22372,
  "Sup": 42754,
  "Super": 14388,
  "Supp": 11196,
  "Supplementary": 36588,
  "Support": 21077,
  "Supporters": 34817,
  "Sur": 14999,
  "Sure": 17539,
  "Surely": 47430,
  "Surv": 35097,
  "Sus": 27524,
  "Susan": 39453,
  "Sw": 18802,
  "Swed": 31148,
  "Sweden": 42471,
  "Sweet": 37170,
  "Switch": 44694,
  "Sy": 13649,
  "Sydney": 48790,
  "Syn": 44490,
  "Sync": 42851,
  "Syria": 33001,
  "Syrian": 32652,
  "System": 23981,
  "T": 84,
  "TA": 6167,
  "TAIN": 40025,
  "TB": 22421,
  "TC": 5121,
  "TD": 49692,
  "TE": 10718,
  "TER": 10016,
  "TF": 44802,
  "TH": 5584,
  "THE": 11907,
  "THER": 37026,
  "THING": 44182,
  "THIS": 49063,
  "TI": 25745,
  "TIME": 48106,
  "TION": 13162,
  "TIONS": 42550,
  "TIS": 12146,
  "TL": 19062,
  "TM": 23157,
  "TO": 11329,
  "TON": 10349,
  "TOR": 26342,
  "TP": 9851,
  "TPS": 32617,
  "TR": 10383,
  "TRA": 46644,
  "TRE": 41698,
  "TRUMP": 45546,
  "TS": 6356,
  "TT": 19424,
  "TV": 5800,
  "TW": 39624,
  "TX": 36568,
  "TY": 17408,
  "Ta": 42197,
  "Tab": 46992,
  "Table": 16526,
  "Tag": 41090,
  "Tags": 37002,
  "Tai": 42322,
  "Take": 12178,
  "Taken": 46987,
  "Taking": 23290,
  "Tal": 29324,
  "Talk": 26270,
  "Talking": 38414,
  "Tan": 47738,
  "Target": 31218,
  "Task": 44002,
  "Tax": 27099,
  "Taylor": 29139,
  "Te": 7172,
  "Tea": 46160,
  "Team": 16873,
  "Teams": 43936,
  "Tech": 20969,
  "Techn": 25918,
  "Technical": 48897,
  "Technology": 38952,
  "Ted": 30678,
  "Teen": 45825,
  "Tel": 37597,
  "Tele": 27986,
  "Television": 43959,
  "Tell": 24537,
  "Tem": 22533,
  "Ten": 23326,
  "Tenn": 35269,
  "Tennessee": 48327,
  "Ter": 15842,
  "Terror": 34258,
  "Terry": 42560,
  "Tes": 31693,
  "Tesla": 34795,
  "Test": 18419,
  "Testing": 44074,
  "Tex": 15822,
  "Texas": 17798,
  "Text": 18193,
  "Th": 795,
  "Thank": 10656,
  "Thankfully": 37755,
  "Thanks": 10346,
  "That": 2121,
  "The": 445,
  "Their": 12018,
  "Then": 6228,
  "Ther": 46283,
  "There": 1635,
  "Therefore": 26537,
  "These": 4290,
  "They": 2518,
  "Things": 19435,
  "Think": 19110,
  "Thinking": 49908,
  "Third": 21455,
  "Thirty": 30936,
  "This": 1200,
  "Thomas": 19875,
  "Thompson": 40819,
  "Thor": 45360,
  "Those": 7943,
  "Though": 9230,
  "Thousands": 28144,
  "Thread": 29169,
  "Three": 11060,
  "Through": 12814,
  "Throughout": 21044,
  "Thursday": 24096,
  "Thus": 18778,
  "Tickets": 37776,
  "Tier": 39918,
  "Till": 43590,
  "Tim": 15281,
  "Time": 10560,
  "Times": 25067,
  "Tip": 36140,
  "Tit": 23583,
  "Title": 28690,
  "To": 2697,
  "Today": 7338,
  "Todd": 40235,
  "Together": 34270,
  "Tok": 42936,
  "Token": 46293,
  "Tom": 13149,
  "Tomorrow": 45681,
  "Ton": 35285,
  "Tonight": 39619,
  "Tony": 25030,
  "Too": 23949,
  "Tools": 43462,
  "Top": 10227,
  "Topics": 21369,
  "Tor": 14173,
  "Toronto": 25711,
  "Torrent": 27843,
  "Total": 18115,
  "Touch": 39056,
  "Tour": 33338,
  "Town": 42917,
  "Toy": 43760,
  "Tr": 3135,
  "Tra": 27102,
  "Track": 30101,
  "Trad": 44587,
  "Trade": 36858,
  "Traditional": 44722,
  "Train": 41219,
  "Training": 49456,
  "Trans": 10850,
  "Travel": 31534,
  "Tre": 26878,
  "Tree": 37884,
  "Tri": 26395,
  "Tro": 41993,
  "Trudeau": 45623,
  "True": 22937,
  "Trump": 4927,
  "Trust": 34116,
  "Truth": 37626,
  "Try": 27369,
  "Trying": 45886,
  "Ts": 25361,
  "Tube": 5990,
  "Tuesday": 24788,
  "Tumblr": 32084,
  "Tunes": 13953,
  "Tur": 15230,
  "Turkey": 24372,
  "Turkish": 32427,
  "Turn": 20324,
  "Turner": 48855,
  "Turning": 46673,
  "Turns": 48403,
  "Tw": 16811,
  "Tweet": 38256,
  "Twenty": 28394,
  "Twin": 49916,
  "Twitter": 12044,
  "Two": 6681,
  "Ty": 9945,
  "Tyler": 41323,
  "Type": 14007,
  "Types": 47290,
  "Typically": 42599,
  "U": 85,
  "UA": 36684,
  "UAL": 38957,
  "UB": 23960,
  "UC": 11266,
  "UCK": 23023,
  "UD": 12565,
  "UE": 13575,
  "UES": 35436,
  "UF": 42149,
  "UFC": 32195,
  "UG": 19200,
  "UI": 13863,
  "UK": 16457,
  "UL": 8002,
  "ULL": 17105,
  "ULT": 29898,
  "UM": 13709,
  "UMB": 36542,
  "UMP": 24124,
  "UN": 8103,
  "UND": 46621,
  "UP": 15939,
  "UPD": 46598,
  "UPDATE": 13612,
  "UPI": 41501,
  "UR": 7539,
  "URE": 19947,
  "URES": 45989,
  "URL": 33995,
  "URN": 34180,
  "US": 3142,
  "USA": 13608,
  "USB": 36336,
  "USC": 44977,
  "USD": 31085,
  "USE": 20082,
  "USH": 29583,
  "USS": 32508,
  "UST": 9069,
  "UT": 5888,
  "UTC": 19610,
  "UTERS": 12445,
  "UV": 46739,
  "UX": 43012,
  "Ub": 38787,
  "Uber": 33274,
  "Uh": 38752,
  "Uk": 24833,
  "Ukrain": 46849,
  "Ukraine": 36932,
  "Ukrainian": 48856,
  "Ult": 15992,
  "Ultimately": 20997,
  "Ultra": 43547,
  "Um": 41994,
  "Un": 3932,
  "Und": 36389,
  "Under": 8359,
  "Understanding": 40013,
  "Unfortunately": 11741,
  "Union": 33738,
  "Unit": 35904,
  "United": 16685,
  "Universal": 35538,
  "University": 21265,
  "Unknown": 45375,
  "Unless": 26029,
  "Unlike": 15671,
  "Uns": 36255,
  "Until": 15321,
  "Up": 5432,
  "Update": 10431,
  "Updated": 16175,
  "Upload": 49790,
  "Upon": 20490,
  "Ur": 21949,
  "Urban": 46005,
  "Url": 38674,
  "Us": 7942,
  "Use": 16452,
  "User": 18913,
  "Users": 28469,
  "Using": 13239,
  "Usually": 34741,
  "Ut": 23535,
  "Utah": 35906,
  "V": 86,
  "VA": 14823,
  "VB": 47608,
  "VC": 19272,
  "VD": 9702,
  "VE": 9169,
  "VED": 45620,
  "VEL": 30618,
  "VEN": 41282,
  "VER": 7035,
  "VERS": 42160,
  "VERTIS": 12623,
  "VI": 17022,
  "VICE": 40419,
  "VID": 15263,
  "VIDEO": 35249,
  "VIDIA": 22652,
  "VIEW": 37470,
  "VIL": 35284,
  "VILLE": 40335,
  "VM": 16979,
  "VO": 29885,
  "VP": 10262,
  "VPN": 45304,
  "VR": 15409,
  "VS": 35256,
  "VT": 44047,
  "Va": 31745,
  "Val": 13501,
  "Value": 20815,
  "Van": 24748,
  "Vancouver": 42363,
  "Var": 29944,
  "Vari": 42057,
  "Various": 37443,
  "Ve": 24538,
  "Ven": 37043,
  "Venezuel": 45637,
  "Ver": 16018,
  "Verizon": 47520,
  "Version": 28821,
  "Very": 19858,
  "Veter": 39854,
  "Vi": 39554,
  "Via": 24048,
  "Vice": 39313,
  "Vict": 21058,
  "Victoria": 44097,
  "Video": 12946,
  "Viet": 45676,
  "View": 10058,
  "Vill": 45172,
  "Viol": 34869,
  "Violence": 49583,
  "Virgin": 30764,
  "Virginia": 35854,
  "Virtual": 41375,
  "Vis": 17942,
  "Vision": 48936,
  "Visit": 32613,
  "Visual": 42551,
  "Vo": 42302,
  "Voice": 42992,
  "Vol": 21665,
  "Vote": 36038,
  "Voters": 43139,
  "Vs": 28783,
  "Vt": 45266,
  "W": 87,
  "WA": 13878,
  "WAR": 26035,
  "WASHINGTON": 15936,
  "WATCH": 27383,
  "WAY": 35512,
  "WC": 27364,
  "WD": 37229,
  "WE": 23762,
  "WH": 14442,
  "WHAT": 33520,
  "WHERE": 49894,
  "WHO": 38771,
  "WI": 38510,
  "WN": 31731,
  "WORK": 37101,
  "WP": 43444,
  "WR": 21135,
  "WS": 12506,
  "WT": 32398,
  "WW": 18909,
  "WWE": 48892,
  "Wa": 38868,
  "Wait": 23201,
  "Wal": 22700,
  "Walk": 41199,
  "Walker": 33300,
  "Walking": 46046,
  "Wall": 22400,
  "Walter": 45773,
  "Want": 19393,
  "War": 12050,
  "Ward": 42369,
  "Ware": 31956,
  "Warner": 42651,
  "Warning": 35077,
  "Warren": 36017,
  "Wars": 49420,
  "Was": 18737,
  "Washington": 14963,
  "Wat": 34357,
  "Watch": 9556,
  "Watching": 42337,
  "Water": 22076,
  "Wave": 41510,
  "Way": 25835,
  "Wayne": 43179,
  "We": 1020,
  "Weather": 41221,
  "Web": 19046,
  "Website": 39861,
  "Wed": 22825,
  "Wednesday": 25507,
  "Week": 20534,
  "Weight": 38409,
  "Weiss": 40611,
  "Welcome": 18538,
  "Well": 5695,
  "Were": 33512,
  "West": 13827,
  "Western": 21273,
  "Wh": 1146,
  "What": 1990,
  "Whatever": 18408,
  "Whats": 34565,
  "Whe": 10413,
  "When": 2064,
  "Whenever": 29001,
  "Where": 8538,
  "Whereas": 41968,
  "Whether": 13397,
  "Which": 12600,
  "While": 3041,
  "Whilst": 41607,
  "Whit": 40031,
  "White": 11910,
  "Who": 8128,
  "Whoever": 44127,
  "Why": 4996,
  "Wi": 44429,
  "Wid": 37858,
  "Wide": 45104,
  "Wik": 32205,
  "Wiki": 38290,
  "Wikipedia": 48651,
  "Wil": 20455,
  "Wild": 27236,
  "Will": 8425,
  "William": 23267,
  "Williams": 23046,
  "Wilson": 30175,
  "Win": 21417,
  "Wind": 15465,
  "Windows": 20587,
  "Wing": 41546,
  "Winner": 43927,
  "Winter": 37267,
  "Wire": 29957,
  "Wis": 42480,
  "Wisconsin": 39385,
  "Wit": 49478,
  "With": 2978,
  "Within": 19259,
  "Without": 15569,
  "Witnesses": 40293,
  "Wo": 48319,
  "Wolf": 32410,
  "Woman": 42059,
  "Women": 17318,
  "Wonder": 43133,
  "Wood": 26370,
  "Word": 31388,
  "Words": 38463,
  "Work": 13403,
  "Workers": 39865,
  "Working": 25943,
  "Works": 23732,
  "World": 12025,
  "Worst": 47690,
  "Would": 17910,
  "Wow": 21149,
  "Wr": 14792,
  "Wright": 43262,
  "Writ": 19330,
  "Write": 25509,
  "Writer": 37414,
  "Writing": 27876,
  "Written": 24313,
  "Wy": 47490,
  "X": 88,
  "XL": 43445,
  "XM": 37859,
  "XT": 45369,
  "XX": 12985,
  "XXXX": 36907,
  "Xbox": 44648,
  "Xi": 42713,
  "Y": 89,
  "YD": 33477,
  "YOU": 42907,
  "YP": 49673,
  "YS": 27026,
  "Yahoo": 46927,
  "Yang": 37678,
  "Yeah": 11099,
  "Year": 20734,
  "Years": 37769,
  "Yellow": 47399,
  "Yep": 43645,
  "Yes": 6114,
  "Yesterday": 21209,
  "Yet": 9148,
  "Yo": 39613,
  "York": 47967,
  "You": 1811,
  "YouTube": 29784,
  "Young": 19064,
  "Your": 8917,
  "Z": 90,
  "ZA": 33078,
  "ZE": 42019,
  "ZZ": 48247,
  "Zach": 46674,
  "Ze": 39942,
  "Zen": 47691,
  "Zero": 32420,
  "Zion": 40050,
  "Zone": 47646,
  "[": 91,
  "[\"": 44549,
  "['": 30266,
  "[/": 16406,
  "[[": 39751,
  "[]": 31862,
  "[_": 35004,
  "\\": 92,
  "\\\"": 26276,
  "\\)": 30276,
  "\\-": 20264,
  "\\-|": 32628,
  "\\/": 19464,
  "\\\\": 17464,
  "\\\\\\\\": 49779,
  "]": 93,
  "](": 36996,
  "])": 16393,
  "]),": 45547,
  "]).": 39077,
  "],": 5823,
  "],\"": 27968,
  "],[": 49465,
  "],âĢĿ": 31666,
  "].": 5062,
  "].\"": 39256,
  "].âĢĿ": 32743,
  "]:": 13062,
  "];": 16533,
  "][": 2986,
  "]]": 20016,
  "^": 94,
  "^^": 34484,
  "^{": 20911,
  "_": 95,
  "__": 1388,
  "___": 19696,
  "____": 2577,
  "_____": 39632,
  "______": 47352,
  "_______": 44987,
  "________": 4533,
  "________________": 8239,
  "________________________": 46062,
  "________________________________": 16656,
  "________________________________________________________________": 44046,
  "_{": 17101,
  "_{\\": 47180,
  "`": 96,
  "a": 97,
  "aS": 47018,
  "aa": 13226,
  "aan": 33016,
  "ab": 406,
  "aba": 15031,
  "abaab": 42240,
  "abad": 14238,
  "abal": 40239,
  "abama": 7460,
  "abase": 22453,
  "abb": 5157,
  "abbage": 33482,
  "abbing": 12447,
  "abbling": 41424,
  "abby": 42728,
  "abc": 45787,
  "abe": 10659,
  "abee": 22509,
  "abel": 14574,
  "aber": 31658,
  "abet": 9936,
  "abetes": 12440,
  "abeth": 8768,
  "abetic": 39603,
  "abh": 39426,
  "abi": 16600,
  "abiding": 33564,
  "abies": 38360,
  "abil": 8340,
  "abilia": 39434,
  "abilities": 5703,
  "ability": 1894,
  "abin": 5806,
  "abinet": 8001,
  "abinoid": 37682,
  "abis": 6760,
  "abit": 29657,
  "abl": 12945,
  "able": 573,
  "abled": 5873,
  "ables": 3388,
  "abling": 12312,
  "ablish": 17182,
  "ablished": 20482,
  "ablishing": 47223,
  "ablishment": 22012,
  "ablo": 16819,
  "ably": 1288,
  "abo": 36700,
  "abody": 48263,
  "abol": 32774,
  "abolic": 37466,
  "abor": 3203,
  "abortion": 25166,
  "about": 11126,
  "abouts": 25417,
  "above": 28379,
  "abs": 7929,
  "absolutely": 32181,
  "absor": 46092,
  "abul": 13896,
  "abulary": 20652,
  "abus": 44784,
  "abuse": 41976,
  "abwe": 19804,
  "aby": 4106,
  "abyte": 37412,
  "abytes": 31473,
  "ac": 312,
  "aca": 21228,
  "acas": 31839,
  "acc": 6838,
  "acca": 41093,
  "accept": 11691,
  "acceptable": 13171,
  "access": 16879,
  "accessible": 30758,
  "acci": 39340,
  "acco": 9100,
  "accompan": 42117,
  "accompanied": 42268,
  "according": 33784,
  "account": 24078,
  "accur": 14751,
  "ace": 558,
  "acea": 45383,
  "acebook": 2294,
  "aced": 2276,
  "acek": 47743,
  "acency": 40101,
  "acent": 12948,
  "aceous": 36972,
  "acer": 12451,
  "acerb": 18212,
  "aces": 2115,
  "aceutical": 13462,
  "acey": 22385,
  "ach": 630,
  "acha": 31515,
  "achable": 34575,
  "ache": 5871,
  "ached": 2439,
  "achel": 9805,
  "achelor": 19609,
  "acher": 9909,
  "achers": 15472,
  "aches": 3493,
  "achev": 34525,
  "achi": 18624,
  "achim": 49804,
  "achine": 24256,
  "aching": 7995,
  "achment": 11159,
  "acho": 37538,
  "achron": 46323,
  "acht": 17549,
  "achu": 44608,
  "achus": 8100,
  "achusetts": 8213,
  "achy": 46269,
  "aci": 40593,
  "acia": 42875,
  "acial": 21368,
  "acies": 11809,
  "acing": 4076,
  "acio": 38565,
  "acion": 36054,
  "acional": 38200,
  "acious": 13820,
  "aciously": 41336,
  "acity": 4503,
  "aciÃ³n": 24886,
  "ack": 448,
  "acked": 7313,
  "acker": 13927,
  "ackers": 24014,
  "acket": 9006,
  "ackets": 27791,
  "acking": 6822,
  "ackle": 34003,
  "acks": 5150,
  "acky": 34017,
  "acle": 6235,
  "acles": 10406,
  "acly": 40522,
  "aclysm": 42578,
  "aco": 11111,
  "acon": 8374,
  "aconian": 29766,
  "acons": 40170,
  "acqu": 38182,
  "acre": 10352,
  "acs": 20631,
  "act": 508,
  "acted": 20211,
  "acter": 6071,
  "acters": 27450,
  "actic": 13978,
  "acting": 25308,
  "action": 2605,
  "actions": 7425,
  "activ": 18677,
  "activated": 34722,
  "active": 7577,
  "actively": 28258,
  "activity": 23729,
  "actly": 22902,
  "actor": 11175,
  "actory": 12592,
  "acts": 9502,
  "actual": 48652,
  "actually": 36869,
  "actus": 40950,
  "acular": 12313,
  "aculate": 45536,
  "aculture": 49593,
  "acus": 46816,
  "acy": 1480,
  "ad": 324,
  "ada": 4660,
  "adal": 29005,
  "adan": 24507,
  "adas": 35397,
  "adata": 17484,
  "aday": 35019,
  "adays": 17639,
  "add": 3326,
  "addafi": 17739,
  "added": 34702,
  "adden": 33443,
  "adder": 30858,
  "adders": 42217,
  "addin": 47478,
  "adding": 35723,
  "addle": 48754,
  "addock": 31379,
  "addr": 49665,
  "address": 33098,
  "addy": 14145,
  "ade": 671,
  "aded": 5155,
  "adel": 6637,
  "adelph": 7282,
  "adelphia": 7345,
  "adem": 3515,
  "ademark": 47622,
  "aden": 45564,
  "adena": 31261,
  "adequ": 15222,
  "ader": 5162,
  "aderie": 45388,
  "aders": 9906,
  "ades": 2248,
  "adesh": 10860,
  "adeshi": 43771,
  "adh": 18377,
  "adhafi": 44750,
  "adi": 10373,
  "adia": 27328,
  "adian": 17083,
  "adians": 48693,
  "adic": 22790,
  "adier": 38561,
  "adies": 46039,
  "adin": 27859,
  "ading": 4339,
  "adiq": 47723,
  "adir": 49351,
  "adish": 42985,
  "aditional": 17199,
  "adium": 5071,
  "adjusted": 29776,
  "admin": 34699,
  "administ": 36977,
  "ado": 4018,
  "adoes": 36892,
  "adol": 49550,
  "adoop": 40687,
  "ador": 6098,
  "ados": 19798,
  "adow": 5759,
  "adows": 13342,
  "adr": 38753,
  "ads": 7093,
  "adv": 34331,
  "advant": 13101,
  "adventure": 48382,
  "advertisement": 42405,
  "advised": 47993,
  "ady": 4617,
  "ae": 4375,
  "aed": 7538,
  "aeda": 8948,
  "ael": 2737,
  "aez": 40133,
  "af": 1971,
  "afa": 26259,
  "afe": 9384,
  "afer": 29992,
  "afety": 25946,
  "aff": 1442,
  "affe": 13739,
  "affected": 36125,
  "affeine": 21725,
  "affer": 26612,
  "affes": 47951,
  "affiliated": 37160,
  "affle": 30997,
  "affold": 34996,
  "affrey": 49266,
  "afi": 13028,
  "afia": 20149,
  "afone": 40496,
  "afort": 19271,
  "afrost": 41806,
  "aft": 20884,
  "after": 9578,
  "ag": 370,
  "aga": 9268,
  "again": 16330,
  "against": 27924,
  "agame": 39138,
  "agan": 6417,
  "aganda": 36396,
  "agar": 28962,
  "agara": 33334,
  "agascar": 37672,
  "agate": 38243,
  "age": 506,
  "aged": 1810,
  "ageddon": 39289,
  "agement": 2969,
  "agen": 10523,
  "agency": 37465,
  "agent": 23266,
  "ager": 2414,
  "agers": 6072,
  "ages": 1120,
  "agg": 8510,
  "agged": 14828,
  "agger": 9941,
  "aggering": 17095,
  "agging": 14461,
  "aggio": 46497,
  "aggle": 42332,
  "aggressive": 41443,
  "aggy": 48128,
  "agh": 9597,
  "aghan": 37656,
  "aghd": 13660,
  "agher": 24581,
  "aghetti": 34027,
  "agi": 24995,
  "agic": 9092,
  "agically": 31990,
  "agine": 11045,
  "aging": 2566,
  "agle": 18683,
  "agles": 32638,
  "agn": 4951,
  "agna": 47138,
  "agne": 19519,
  "agnetic": 22283,
  "ago": 3387,
  "agog": 28317,
  "agogue": 25650,
  "agogues": 42017,
  "agon": 3502,
  "agonal": 27616,
  "agonist": 15161,
  "agonists": 33492,
  "agons": 35946,
  "agos": 43646,
  "agra": 41450,
  "agram": 7224,
  "agrams": 31267,
  "agraph": 12184,
  "agree": 39765,
  "ags": 4241,
  "agu": 11840,
  "ague": 1741,
  "agues": 5035,
  "agus": 33630,
  "ah": 1015,
  "aha": 13847,
  "ahan": 15930,
  "ahar": 20060,
  "aharan": 32660,
  "ahashi": 49481,
  "ahead": 36378,
  "ahi": 31442,
  "ahill": 36427,
  "ahl": 13561,
  "ahn": 14764,
  "aho": 15387,
  "ahon": 24608,
  "ahoo": 10991,
  "ahs": 40631,
  "ahu": 9539,
  "ai": 2002,
  "aic": 19443,
  "aid": 1970,
  "aida": 23814,
  "aidu": 38276,
  "aign": 1428,
  "aii": 40771,
  "ail": 611,
  "ailability": 32332,
  "ailable": 10289,
  "ailand": 13903,
  "ailed": 9450,
  "ailing": 11653,
  "ails": 1909,
  "ailure": 23416,
  "aily": 2883,
  "aim": 1285,
  "aiman": 36926,
  "ain": 390,
  "aine": 5277,
  "ained": 1494,
  "ainer": 16554,
  "aining": 1570,
  "ainment": 41674,
  "ains": 1371,
  "aint": 3650,
  "ainted": 15623,
  "ainting": 47285,
  "aints": 5721,
  "air": 995,
  "aircraft": 41028,
  "aird": 27814,
  "aire": 6899,
  "aired": 15021,
  "aires": 14805,
  "airo": 14651,
  "airs": 3504,
  "airy": 13288,
  "ais": 9424,
  "aisal": 45483,
  "aise": 40353,
  "aisy": 32741,
  "ait": 4747,
  "aith": 3952,
  "aitley": 47332,
  "aj": 1131,
  "aja": 24757,
  "aji": 26983,
  "ajo": 26232,
  "ajor": 1344,
  "aju": 44862,
  "ak": 470,
  "aka": 8808,
  "akable": 28779,
  "akash": 35977,
  "ake": 538,
  "aked": 4198,
  "akedown": 26752,
  "aken": 1650,
  "akening": 34618,
  "akens": 28428,
  "aker": 3037,
  "akers": 3335,
  "akes": 1109,
  "akespe": 17384,
  "akespeare": 17616,
  "akh": 9826,
  "aki": 9929,
  "akia": 46540,
  "akin": 27867,
  "aking": 825,
  "akings": 42750,
  "akis": 22160,
  "akistan": 4592,
  "ako": 24520,
  "akov": 35671,
  "aks": 4317,
  "aku": 14190,
  "aky": 15121,
  "al": 283,
  "ala": 6279,
  "alach": 28147,
  "alam": 44376,
  "alan": 31729,
  "albeit": 37315,
  "album": 49421,
  "ald": 1796,
  "alde": 37492,
  "aldehyde": 45234,
  "aldi": 31559,
  "aldo": 36282,
  "ale": 1056,
  "aleb": 26585,
  "aled": 5673,
  "aleigh": 26571,
  "aler": 37625,
  "alers": 44401,
  "ales": 2026,
  "alese": 40348,
  "aley": 13713,
  "alez": 17748,
  "alf": 1557,
  "ali": 7625,
  "alia": 8923,
  "alian": 6468,
  "aliation": 19448,
  "alid": 11983,
  "alien": 39278,
  "align": 44941,
  "aligned": 35839,
  "alin": 14635,
  "aline": 22415,
  "aling": 5565,
  "alion": 19701,
  "alions": 42586,
  "alis": 27802,
  "alities": 25671,
  "ality": 1541,
  "alk": 958,
  "alke": 42123,
  "alker": 23073,
  "alking": 18673,
  "all": 446,
  "alla": 27196,
  "allah": 20664,
  "allahassee": 43963,
  "allas": 6770,
  "alle": 6788,
  "alled": 3024,
  "alleg": 47796,
  "allel": 8049,
  "alleled": 31284,
  "alleng": 29176,
  "allenge": 44901,
  "allenged": 39867,
  "alli": 36276,
  "allic": 23481,
  "alling": 9572,
  "allo": 39486,
  "allow": 15737,
  "allowed": 45477,
  "allows": 43834,
  "alls": 5337,
  "ally": 452,
  "alm": 43875,
  "almost": 24098,
  "alo": 7024,
  "alog": 13583,
  "alogy": 49292,
  "alon": 37044,
  "alone": 17716,
  "along": 21834,
  "alore": 32901,
  "alph": 13913,
  "alpha": 33424,
  "als": 867,
  "alsa": 33977,
  "alse": 4077,
  "alsh": 17623,
  "also": 14438,
  "alt": 2608,
  "alted": 38496,
  "alter": 45124,
  "altern": 33323,
  "alternative": 43523,
  "alth": 1070,
  "although": 15350,
  "alties": 9925,
  "altry": 43046,
  "alty": 6269,
  "alus": 43864,
  "always": 32936,
  "aly": 3419,
  "alys": 29923,
  "alyses": 46936,
  "alysis": 9863,
  "alyst": 37161,
  "am": 323,
  "ama": 1283,
  "amac": 8740,
  "amacare": 8836,
  "aman": 12294,
  "amar": 32347,
  "amara": 36462,
  "amas": 15313,
  "amate": 45032,
  "amation": 15616,
  "amaz": 41169,
  "amazon": 46876,
  "amazoo": 48497,
  "amb": 3618,
  "amba": 27970,
  "amber": 7808,
  "ambers": 15692,
  "ambi": 43096,
  "ambig": 25937,
  "ambiguation": 49725,
  "ambled": 26637,
  "ambler": 46709,
  "ambles": 35678,
  "ambling": 11362,
  "ambo": 23818,
  "amboo": 29755,
  "ame": 491,
  "amed": 2020,
  "ameda": 41341,
  "amel": 20317,
  "amen": 39707,
  "ament": 1859,
  "amental": 25298,
  "amente": 37905,
  "aments": 11008,
  "amer": 2186,
  "amera": 18795,
  "amers": 38019,
  "ames": 1008,
  "ami": 8030,
  "amic": 21146,
  "amide": 49296,
  "amiliar": 17682,
  "amily": 6639,
  "amin": 6097,
  "amina": 29930,
  "amination": 29225,
  "amine": 10748,
  "aminer": 26021,
  "amines": 43332,
  "aming": 3226,
  "amins": 27829,
  "amis": 44860,
  "amish": 43857,
  "aml": 41792,
  "amm": 5018,
  "amma": 47568,
  "ammad": 20488,
  "ammar": 16976,
  "ammed": 8573,
  "ammer": 40065,
  "ammers": 32837,
  "ammu": 38535,
  "ammy": 23570,
  "amo": 15610,
  "amon": 17924,
  "among": 30766,
  "amorph": 37233,
  "amoto": 23414,
  "amount": 18287,
  "amous": 9937,
  "amously": 48127,
  "amp": 670,
  "ampa": 11151,
  "amped": 15142,
  "amph": 26047,
  "amphetamine": 31099,
  "ampion": 5844,
  "ampions": 3527,
  "ampionship": 4562,
  "ampire": 18049,
  "ampires": 31886,
  "ample": 1471,
  "amples": 18549,
  "ampoo": 46855,
  "amps": 13544,
  "ampton": 16593,
  "ampunk": 48794,
  "ams": 1858,
  "amsung": 8004,
  "amura": 35651,
  "amus": 26584,
  "amy": 15521,
  "an": 272,
  "ana": 2153,
  "analy": 41472,
  "analysis": 24782,
  "anamo": 23444,
  "anan": 24076,
  "anao": 49775,
  "anas": 17507,
  "anasia": 42672,
  "anc": 1153,
  "anca": 34032,
  "ance": 604,
  "anced": 3210,
  "ancer": 18521,
  "ancers": 20309,
  "ances": 1825,
  "anch": 3467,
  "anche": 5373,
  "anches": 11957,
  "anchester": 7429,
  "anchez": 16491,
  "ancial": 2477,
  "ancies": 15903,
  "ancing": 4964,
  "anco": 25742,
  "ancock": 31960,
  "ancouver": 8171,
  "ancy": 4732,
  "and": 388,
  "anda": 4879,
  "andal": 6378,
  "andals": 18037,
  "andan": 32801,
  "ande": 30848,
  "anded": 12241,
  "andel": 34074,
  "andem": 25953,
  "ander": 4338,
  "andered": 46833,
  "andering": 37286,
  "anders": 45326,
  "andi": 29475,
  "anding": 16761,
  "ando": 17148,
  "andom": 4563,
  "andon": 4655,
  "andowski": 33215,
  "andr": 47921,
  "andra": 25153,
  "andre": 47263,
  "andro": 23805,
  "android": 30860,
  "ands": 1691,
  "andum": 24761,
  "andy": 12504,
  "ane": 1588,
  "aned": 17838,
  "aneous": 14474,
  "aneously": 26541,
  "anes": 6628,
  "aney": 18563,
  "ang": 666,
  "anga": 23032,
  "angan": 49630,
  "ange": 878,
  "anged": 5670,
  "angel": 8527,
  "angelo": 37987,
  "anger": 2555,
  "angered": 15677,
  "angering": 39386,
  "angerous": 22345,
  "angers": 5840,
  "anges": 6850,
  "anging": 4704,
  "angle": 10069,
  "angled": 19465,
  "angler": 47441,
  "angles": 28209,
  "angling": 24269,
  "ango": 15009,
  "angs": 37411,
  "angu": 2328,
  "anguage": 11255,
  "anguages": 39953,
  "anguard": 26304,
  "angular": 21637,
  "ani": 3231,
  "ania": 5032,
  "anian": 34323,
  "anic": 27810,
  "anical": 43733,
  "anie": 30567,
  "aniel": 5812,
  "anies": 16711,
  "anim": 10803,
  "animal": 46373,
  "animate": 47780,
  "aning": 7876,
  "anish": 5426,
  "anity": 19589,
  "anium": 13528,
  "ank": 964,
  "anka": 13366,
  "anke": 27531,
  "anked": 13297,
  "ankind": 29284,
  "anking": 12809,
  "anks": 2965,
  "anky": 36668,
  "ann": 1610,
  "anna": 8436,
  "annah": 25312,
  "anne": 15764,
  "annel": 4633,
  "annels": 8742,
  "anners": 18243,
  "anni": 27672,
  "annie": 30093,
  "annis": 36775,
  "anno": 44230,
  "annon": 9651,
  "announced": 34673,
  "anny": 7398,
  "ano": 5128,
  "anoi": 44804,
  "anoia": 26320,
  "anol": 21137,
  "anooga": 34976,
  "anor": 33514,
  "anos": 38072,
  "another": 27402,
  "anov": 48193,
  "anova": 38912,
  "anqu": 28308,
  "ans": 493,
  "ansas": 5932,
  "anse": 37931,
  "ansen": 29600,
  "anship": 49138,
  "ansing": 20507,
  "ansion": 5204,
  "ansk": 31701,
  "anski": 37177,
  "ansky": 39911,
  "ansom": 18066,
  "anson": 19273,
  "ansson": 34934,
  "answer": 46931,
  "ant": 419,
  "anta": 19566,
  "antage": 35842,
  "antam": 39758,
  "antamweight": 49208,
  "antas": 42951,
  "ante": 11537,
  "anted": 4580,
  "antes": 37319,
  "anth": 33596,
  "antha": 28440,
  "anthrop": 18472,
  "anti": 15061,
  "antic": 7719,
  "antically": 29520,
  "anticipated": 36244,
  "antics": 28397,
  "antine": 21237,
  "anting": 15016,
  "antle": 42165,
  "antly": 3878,
  "anto": 13868,
  "antom": 17880,
  "anton": 19131,
  "antry": 20704,
  "ants": 1206,
  "anty": 48977,
  "antz": 39078,
  "anu": 37649,
  "anus": 47685,
  "any": 1010,
  "anya": 32251,
  "anyahu": 11482,
  "anye": 22908,
  "anyl": 35143,
  "anyon": 20777,
  "anything": 44809,
  "anz": 27877,
  "anza": 31069,
  "ao": 7047,
  "ap": 463,
  "apa": 31694,
  "apan": 2569,
  "apart": 44101,
  "ape": 2171,
  "apeake": 39330,
  "aped": 5767,
  "apego": 31429,
  "aper": 2025,
  "apers": 5226,
  "apes": 7236,
  "apest": 30597,
  "aph": 3130,
  "api": 23383,
  "apid": 34137,
  "aping": 8864,
  "apist": 40980,
  "apixel": 36361,
  "apo": 33588,
  "apocalyptic": 42075,
  "apolis": 9562,
  "apolog": 35272,
  "apon": 29353,
  "apons": 35601,
  "apor": 14773,
  "apore": 10209,
  "app": 1324,
  "appa": 25477,
  "apped": 4839,
  "appen": 49554,
  "append": 43241,
  "apper": 10823,
  "appers": 38082,
  "appiness": 37017,
  "apping": 5640,
  "appings": 29839,
  "apple": 24758,
  "application": 39658,
  "apply": 49470,
  "appoint": 47052,
  "appointed": 26772,
  "appreciated": 45791,
  "appro": 15546,
  "appropri": 10381,
  "appropriate": 11988,
  "appropriately": 36816,
  "approved": 26092,
  "approximately": 44716,
  "apps": 35767,
  "appy": 8208,
  "aps": 1566,
  "apse": 6834,
  "apsed": 32145,
  "apses": 41371,
  "apt": 2879,
  "apted": 45831,
  "apter": 5604,
  "aptic": 31097,
  "apture": 25947,
  "apy": 14158,
  "aq": 30816,
  "aqu": 22320,
  "aque": 17787,
  "aques": 39324,
  "ar": 284,
  "ara": 3529,
  "araderie": 45505,
  "arag": 28168,
  "araj": 45718,
  "arak": 19518,
  "aram": 35513,
  "aran": 39126,
  "arant": 4682,
  "araoh": 37804,
  "arat": 32449,
  "arate": 35054,
  "arately": 42674,
  "aration": 9744,
  "arations": 23489,
  "arb": 41172,
  "arbon": 39779,
  "arc": 2452,
  "arcer": 15220,
  "arch": 980,
  "arching": 30916,
  "archive": 30455,
  "archment": 44599,
  "archs": 29879,
  "archy": 9087,
  "arcity": 27503,
  "arck": 49365,
  "arcraft": 29035,
  "ard": 457,
  "arde": 38996,
  "arded": 11545,
  "arden": 6316,
  "ardi": 18525,
  "arding": 13230,
  "ardless": 13263,
  "ardo": 10922,
  "ardom": 39752,
  "ardon": 19617,
  "ards": 1441,
  "ardy": 30937,
  "are": 528,
  "area": 18959,
  "ared": 1116,
  "aredevil": 38512,
  "arel": 22461,
  "arella": 43317,
  "arelli": 44238,
  "aren": 5181,
  "arency": 10091,
  "arendra": 21300,
  "arent": 1546,
  "arenthood": 13001,
  "arently": 11855,
  "arents": 12973,
  "arer": 11823,
  "arers": 35068,
  "ares": 3713,
  "arest": 13214,
  "aret": 8491,
  "areth": 24044,
  "arette": 14399,
  "arettes": 12653,
  "aretz": 36414,
  "arez": 15892,
  "arf": 35612,
  "arg": 858,
  "arge": 1196,
  "arger": 32111,
  "arget": 10265,
  "argo": 8887,
  "argon": 33875,
  "args": 32180,
  "ari": 3355,
  "aria": 9855,
  "arial": 34065,
  "arian": 3427,
  "arians": 11724,
  "ariat": 21009,
  "arie": 46058,
  "aries": 3091,
  "ariest": 49302,
  "arily": 3005,
  "arin": 16779,
  "arine": 35794,
  "aring": 1599,
  "ario": 4514,
  "arios": 11709,
  "arious": 18963,
  "aris": 23452,
  "arist": 34924,
  "arity": 6964,
  "arium": 20662,
  "arius": 22322,
  "ark": 675,
  "arkin": 34164,
  "arks": 5153,
  "arl": 6062,
  "arlane": 39222,
  "arlier": 7848,
  "arly": 870,
  "arm": 2033,
  "arma": 12005,
  "armac": 31892,
  "armed": 11206,
  "arming": 14064,
  "armor": 44141,
  "arms": 8530,
  "arn": 6088,
  "aro": 10801,
  "aron": 7383,
  "aroo": 35840,
  "around": 12848,
  "arov": 39949,
  "arp": 5642,
  "arr": 3347,
  "arranted": 40203,
  "arrass": 8174,
  "arrative": 41688,
  "array": 24040,
  "arre": 10032,
  "arrison": 21492,
  "arro": 29145,
  "arrow": 27870,
  "arry": 6900,
  "arryl": 42741,
  "ars": 945,
  "arse": 17629,
  "arser": 45333,
  "arsh": 5075,
  "arsity": 39499,
  "arson": 10643,
  "art": 427,
  "arta": 28857,
  "arte": 31002,
  "arted": 10110,
  "arten": 21424,
  "arter": 2284,
  "arters": 6033,
  "arth": 3080,
  "arthed": 30497,
  "arthy": 13496,
  "artic": 43742,
  "article": 22249,
  "articles": 27490,
  "artisan": 14309,
  "artment": 1677,
  "artments": 34960,
  "artner": 47461,
  "arton": 34475,
  "arts": 10108,
  "arty": 32030,
  "artz": 21723,
  "aru": 15819,
  "arus": 22803,
  "ary": 556,
  "arya": 42176,
  "aryl": 34264,
  "aryn": 43715,
  "as": 291,
  "asa": 16088,
  "asaki": 32066,
  "asant": 9524,
  "asar": 39656,
  "asc": 3171,
  "asca": 38550,
  "ascal": 25202,
  "ascar": 34539,
  "ascism": 37105,
  "ascist": 26906,
  "ascists": 47085,
  "asco": 47820,
  "ascript": 17676,
  "ascular": 18011,
  "ascus": 16637,
  "ase": 623,
  "ased": 819,
  "asel": 49971,
  "aser": 6895,
  "asers": 28889,
  "ases": 1435,
  "asey": 47716,
  "ash": 1136,
  "asha": 17891,
  "ashed": 5168,
  "asher": 42104,
  "ashes": 7598,
  "ashi": 15563,
  "ashing": 1849,
  "ashington": 2084,
  "ashion": 5502,
  "ashire": 44932,
  "ashtra": 29274,
  "asi": 14210,
  "asia": 31944,
  "asing": 2133,
  "asio": 22577,
  "asion": 7754,
  "asionally": 32494,
  "asions": 35286,
  "asis": 20760,
  "asive": 15942,
  "ask": 2295,
  "aska": 7756,
  "asked": 36560,
  "asket": 16862,
  "asketball": 22871,
  "askill": 44105,
  "asking": 26284,
  "asks": 6825,
  "asley": 32045,
  "asm": 11512,
  "asma": 15479,
  "asms": 40643,
  "ason": 815,
  "asonable": 17586,
  "asonic": 30086,
  "asonry": 40693,
  "asons": 2543,
  "asp": 5680,
  "aspberry": 19280,
  "asper": 30924,
  "aspers": 38350,
  "aspersky": 41249,
  "aspx": 34685,
  "ass": 575,
  "assa": 47155,
  "assad": 28764,
  "assador": 8925,
  "assadors": 31535,
  "assault": 40702,
  "asse": 15923,
  "assed": 37379,
  "assee": 43173,
  "assemb": 34600,
  "assembled": 46031,
  "assen": 45556,
  "asser": 22766,
  "asses": 24861,
  "assets": 45858,
  "assi": 39479,
  "assic": 26756,
  "assies": 35897,
  "assin": 49793,
  "assing": 26231,
  "assion": 11254,
  "assis": 21322,
  "assisted": 36381,
  "assium": 30557,
  "assment": 46066,
  "asso": 32872,
  "associated": 34818,
  "assuming": 30593,
  "assy": 9809,
  "ast": 468,
  "asta": 40968,
  "aste": 10977,
  "asted": 12176,
  "aster": 1868,
  "astered": 27904,
  "astern": 5825,
  "asters": 7150,
  "astery": 28129,
  "astic": 3499,
  "astical": 31130,
  "astically": 13436,
  "astics": 22294,
  "asting": 15662,
  "aston": 30869,
  "astrous": 15747,
  "asts": 7005,
  "asty": 9337,
  "asu": 46026,
  "asure": 6029,
  "asured": 35507,
  "asures": 15834,
  "asuring": 46786,
  "asury": 9480,
  "asy": 4521,
  "at": 266,
  "ata": 1148,
  "atable": 16644,
  "ataka": 36488,
  "atal": 12100,
  "atalie": 27509,
  "atan": 44449,
  "atar": 9225,
  "atari": 36160,
  "atars": 37963,
  "atch": 1007,
  "atched": 15216,
  "atcher": 31185,
  "atches": 26739,
  "atching": 17236,
  "ate": 368,
  "atech": 47497,
  "ated": 516,
  "atedly": 44159,
  "atee": 48248,
  "ateful": 10833,
  "ateg": 2548,
  "ategic": 37834,
  "ategories": 38997,
  "ategory": 17001,
  "ategy": 3888,
  "atel": 21098,
  "atell": 6457,
  "atellite": 27020,
  "ately": 1265,
  "aten": 36155,
  "ater": 733,
  "ateral": 9790,
  "atered": 28485,
  "aterial": 2614,
  "aterials": 35557,
  "atern": 9541,
  "aternal": 15524,
  "aternity": 16209,
  "aters": 13920,
  "ates": 673,
  "ateur": 13647,
  "ateurs": 37404,
  "atever": 3543,
  "atform": 3160,
  "ath": 835,
  "atha": 34182,
  "atham": 32024,
  "athan": 6162,
  "athe": 25851,
  "athed": 28496,
  "ather": 1027,
  "athered": 7763,
  "atherine": 13907,
  "athering": 25132,
  "athers": 43044,
  "athetic": 16316,
  "athi": 40781,
  "athing": 23346,
  "athletes": 43969,
  "athlon": 45955,
  "athom": 29087,
  "athon": 11962,
  "athons": 49170,
  "athy": 7616,
  "ati": 7023,
  "atial": 38375,
  "atibility": 43634,
  "atible": 24038,
  "atic": 2030,
  "atical": 22698,
  "atically": 4480,
  "atican": 14960,
  "atics": 17082,
  "atile": 12579,
  "atility": 17120,
  "atin": 12350,
  "ating": 799,
  "atinum": 19778,
  "ation": 342,
  "ational": 788,
  "ationally": 12712,
  "ations": 588,
  "atisf": 16211,
  "atism": 19665,
  "ative": 854,
  "atively": 9911,
  "atives": 2631,
  "ativity": 19386,
  "atlantic": 31277,
  "atmeal": 43240,
  "ato": 5814,
  "atoes": 12150,
  "atollah": 35863,
  "atom": 44950,
  "atomic": 48460,
  "aton": 13865,
  "ator": 1554,
  "atore": 42459,
  "atorial": 17811,
  "atories": 18253,
  "atorium": 24775,
  "ators": 1977,
  "atory": 2943,
  "atos": 47763,
  "atown": 32724,
  "atra": 22852,
  "atre": 12319,
  "atri": 22149,
  "atro": 42028,
  "atron": 43070,
  "ats": 1668,
  "atsu": 25651,
  "att": 1169,
  "atta": 23580,
  "attack": 17796,
  "attacks": 29811,
  "atted": 19645,
  "atten": 26130,
  "atter": 3241,
  "attered": 10637,
  "attering": 15970,
  "atters": 38758,
  "attery": 20276,
  "atti": 26290,
  "attle": 2199,
  "attled": 23709,
  "atto": 38575,
  "attr": 48012,
  "atts": 23640,
  "atu": 43337,
  "atum": 30007,
  "atur": 2382,
  "atural": 2715,
  "aturally": 7516,
  "aturated": 40225,
  "aturday": 3111,
  "ature": 1355,
  "atured": 20736,
  "atures": 5252,
  "aturing": 30088,
  "atus": 10416,
  "aty": 37838,
  "atz": 24350,
  "au": 554,
  "auc": 12557,
  "aucas": 22961,
  "aucus": 11997,
  "aucuses": 27055,
  "aud": 3688,
  "aude": 23457,
  "audi": 27089,
  "audio": 43574,
  "auer": 13963,
  "auf": 22931,
  "auff": 37272,
  "aug": 7022,
  "auga": 40489,
  "augh": 1558,
  "aughed": 14922,
  "aughing": 43501,
  "aughlin": 35383,
  "aughs": 16324,
  "aught": 3336,
  "aughter": 3575,
  "aughtered": 29535,
  "aughters": 12127,
  "aughton": 49502,
  "aughty": 32514,
  "aukee": 12856,
  "aul": 2206,
  "auld": 36662,
  "ault": 2120,
  "aun": 7582,
  "auna": 34734,
  "aunch": 21509,
  "auner": 46518,
  "aunted": 24854,
  "aunting": 19294,
  "aunts": 44556,
  "aur": 2889,
  "aura": 31436,
  "auri": 40360,
  "auru": 41096,
  "aurus": 33231,
  "aus": 7934,
  "ause": 668,
  "ausible": 15269,
  "aut": 2545,
  "auth": 18196,
  "authent": 39738,
  "author": 9704,
  "authored": 31461,
  "authorized": 18782,
  "authors": 33010,
  "autical": 33155,
  "autiful": 37270,
  "aution": 27423,
  "autions": 30285,
  "autista": 40513,
  "auto": 37151,
  "automatic": 33933,
  "auts": 36002,
  "auty": 45982,
  "aux": 13795,
  "av": 624,
  "ava": 4784,
  "avage": 39480,
  "available": 16353,
  "aval": 8759,
  "avan": 20578,
  "ave": 1028,
  "aved": 9395,
  "avement": 41289,
  "aven": 5099,
  "avenport": 44858,
  "aver": 9130,
  "average": 21454,
  "avering": 39474,
  "avers": 28868,
  "avery": 11790,
  "aves": 3305,
  "avez": 21719,
  "avi": 16397,
  "avia": 18714,
  "avian": 27785,
  "avid": 44176,
  "avier": 23327,
  "avin": 19812,
  "aving": 2634,
  "avior": 20266,
  "aviour": 41485,
  "avis": 34011,
  "avoid": 25448,
  "avor": 6731,
  "avored": 42372,
  "avorite": 24046,
  "avour": 31263,
  "avy": 2909,
  "aw": 697,
  "awa": 6703,
  "awaited": 32461,
  "awan": 49425,
  "awar": 37646,
  "aware": 8919,
  "awareness": 40575,
  "awatt": 38383,
  "awatts": 31828,
  "away": 8066,
  "aways": 20833,
  "awed": 36316,
  "awei": 27506,
  "awi": 19264,
  "awk": 23966,
  "awks": 10556,
  "awn": 5073,
  "awning": 40094,
  "aws": 13025,
  "ax": 961,
  "axies": 20341,
  "axis": 26689,
  "axter": 34602,
  "axy": 6944,
  "ay": 318,
  "aya": 11759,
  "ayan": 20732,
  "ayas": 42564,
  "aye": 30629,
  "ayed": 11605,
  "ayer": 5186,
  "ayers": 6516,
  "ayette": 24543,
  "aying": 8086,
  "aylor": 24859,
  "ayo": 43876,
  "ayor": 38573,
  "ays": 566,
  "ayson": 28076,
  "az": 1050,
  "aza": 6111,
  "azaar": 37874,
  "azaki": 40126,
  "azar": 19219,
  "azard": 31321,
  "aze": 6772,
  "azed": 14112,
  "azeera": 19161,
  "azer": 19484,
  "azers": 25392,
  "azes": 35129,
  "azette": 47005,
  "azi": 6748,
  "azine": 4849,
  "azines": 14885,
  "azing": 4315,
  "azingly": 23484,
  "azir": 43326,
  "azon": 4642,
  "azoned": 43226,
  "azor": 18606,
  "azy": 12722,
  "azz": 7680,
  "azzi": 45771,
  "b": 98,
  "ba": 7974,
  "bable": 27847,
  "bably": 11676,
  "baby": 42085,
  "bach": 17983,
  "back": 1806,
  "backed": 13023,
  "background": 43319,
  "backs": 8856,
  "bad": 15183,
  "bag": 21356,
  "bage": 44766,
  "bags": 33204,
  "bah": 38313,
  "bai": 22844,
  "baked": 49626,
  "bal": 7581,
  "balance": 20280,
  "balanced": 27408,
  "balances": 46307,
  "ball": 1726,
  "balls": 18035,
  "ban": 3429,
  "band": 3721,
  "bands": 21180,
  "bane": 18130,
  "bang": 41077,
  "bank": 18429,
  "banks": 37458,
  "bar": 6762,
  "bara": 36233,
  "bard": 19591,
  "bare": 48352,
  "bars": 37418,
  "bart": 12620,
  "bas": 18255,
  "base": 9796,
  "based": 2789,
  "bash": 46749,
  "basic": 45263,
  "bass": 42492,
  "bast": 18250,
  "bat": 11801,
  "batch": 38809,
  "bath": 37014,
  "bats": 40592,
  "battle": 49335,
  "baum": 21764,
  "bay": 30070,
  "bb": 16770,
  "bc": 24856,
  "bd": 34170,
  "be": 1365,
  "bean": 14054,
  "beans": 41092,
  "bear": 46705,
  "bearing": 28742,
  "beat": 11631,
  "bec": 8202,
  "because": 12486,
  "becca": 19311,
  "beck": 23819,
  "becue": 27332,
  "bed": 3105,
  "bedroom": 28832,
  "bee": 22204,
  "been": 41133,
  "beer": 45386,
  "bees": 46463,
  "before": 21217,
  "begin": 31289,
  "beh": 20737,
  "behind": 40300,
  "being": 11107,
  "beit": 12968,
  "bek": 35907,
  "bel": 6778,
  "belie": 24531,
  "belief": 21935,
  "believ": 15911,
  "believe": 40234,
  "believers": 35116,
  "bell": 7925,
  "below": 35064,
  "belt": 35876,
  "ben": 10781,
  "bench": 27116,
  "bender": 44384,
  "bending": 48444,
  "benef": 33039,
  "benefit": 42400,
  "bent": 39193,
  "ber": 519,
  "bered": 9611,
  "berg": 3600,
  "berger": 18438,
  "bergh": 48516,
  "berman": 26083,
  "bern": 27477,
  "bernatorial": 30720,
  "berra": 26026,
  "berries": 23411,
  "berry": 9353,
  "bers": 1147,
  "bersome": 36566,
  "berspace": 37744,
  "bert": 4378,
  "berto": 26721,
  "bery": 11421,
  "bes": 11457,
  "best": 12849,
  "bestos": 38673,
  "bet": 11952,
  "beta": 37028,
  "beth": 48018,
  "better": 24343,
  "between": 23829,
  "bey": 22164,
  "beyond": 44879,
  "bf": 30163,
  "bi": 8878,
  "bial": 20099,
  "bian": 11007,
  "bians": 26182,
  "biased": 34166,
  "bid": 25232,
  "bidden": 45213,
  "bie": 12248,
  "bies": 33276,
  "big": 13145,
  "biggest": 34553,
  "bike": 28418,
  "bil": 27997,
  "bill": 35634,
  "billion": 18502,
  "bilt": 29412,
  "bin": 11122,
  "binary": 42638,
  "bind": 36309,
  "binding": 32085,
  "bing": 9934,
  "biological": 49912,
  "biology": 44062,
  "bird": 19514,
  "birds": 31807,
  "birth": 25888,
  "bis": 49862,
  "bisc": 49011,
  "bish": 27530,
  "bishop": 22393,
  "bit": 2711,
  "bitcoin": 45966,
  "bite": 38095,
  "biter": 45174,
  "bitious": 11200,
  "bits": 9739,
  "biz": 49096,
  "bl": 2956,
  "black": 14333,
  "blad": 47113,
  "blade": 37981,
  "blank": 29137,
  "blatt": 43924,
  "ble": 900,
  "bled": 19747,
  "blem": 13964,
  "blematic": 38769,
  "blems": 24364,
  "bler": 48372,
  "blers": 40903,
  "bles": 12773,
  "bley": 31582,
  "blic": 48884,
  "blind": 30024,
  "bling": 18073,
  "block": 11408,
  "blocking": 36143,
  "blocks": 33980,
  "blog": 15769,
  "blogs": 48871,
  "blogspot": 41345,
  "blood": 20368,
  "blooded": 46335,
  "blower": 47835,
  "blowing": 41824,
  "blown": 25572,
  "blue": 20464,
  "bly": 36124,
  "bn": 8397,
  "bnb": 26450,
  "bo": 2412,
  "board": 3726,
  "boarding": 21388,
  "boards": 12372,
  "boat": 23409,
  "boats": 40440,
  "bodied": 39221,
  "body": 2355,
  "boggling": 46242,
  "bol": 33532,
  "bold": 35611,
  "bole": 38015,
  "bolic": 47762,
  "bolt": 33127,
  "bomb": 28761,
  "bon": 3953,
  "bone": 15433,
  "bones": 36022,
  "bons": 21921,
  "book": 1807,
  "books": 10641,
  "boot": 26869,
  "bor": 2719,
  "border": 22905,
  "borg": 25778,
  "borgh": 43694,
  "borghini": 46385,
  "borhood": 29133,
  "born": 6377,
  "borne": 12286,
  "boro": 21018,
  "borough": 14675,
  "bors": 36067,
  "bos": 42334,
  "bot": 16445,
  "both": 16390,
  "bots": 48405,
  "bott": 33640,
  "bottom": 26890,
  "bound": 10663,
  "bour": 4796,
  "bourg": 21992,
  "bourne": 10362,
  "bow": 9331,
  "bows": 28529,
  "box": 3834,
  "boxes": 33417,
  "boxing": 40039,
  "boy": 6853,
  "boyfriend": 48756,
  "boys": 11361,
  "bp": 48347,
  "bps": 19444,
  "br": 1715,
  "bra": 17569,
  "brace": 46734,
  "brain": 28314,
  "brainer": 37377,
  "bral": 25554,
  "brance": 30948,
  "brand": 20071,
  "branded": 28935,
  "branding": 43808,
  "bras": 45187,
  "braska": 15434,
  "brate": 38717,
  "brates": 40127,
  "bre": 4775,
  "bread": 30142,
  "break": 9313,
  "breakable": 48909,
  "breaker": 27590,
  "breakers": 43633,
  "breaking": 11077,
  "breaks": 26054,
  "bred": 35529,
  "breed": 35175,
  "breeding": 46801,
  "brew": 12432,
  "brid": 10003,
  "bridge": 9040,
  "brids": 34588,
  "bright": 28941,
  "bring": 39935,
  "bringing": 29662,
  "bro": 7740,
  "broad": 36469,
  "broken": 23480,
  "brook": 17826,
  "brother": 35228,
  "brough": 38735,
  "brow": 31169,
  "brown": 37496,
  "browser": 46912,
  "brush": 32116,
  "bs": 1572,
  "bsite": 14779,
  "bsp": 27231,
  "bt": 27090,
  "bu": 12367,
  "bub": 45534,
  "buck": 29666,
  "bucks": 18214,
  "budget": 28519,
  "buffer": 39844,
  "bug": 32264,
  "bugs": 46514,
  "build": 15422,
  "builder": 41207,
  "builders": 48442,
  "building": 15067,
  "built": 19088,
  "bul": 14407,
  "bull": 13671,
  "bullying": 43461,
  "bum": 3735,
  "buquerque": 30010,
  "bur": 6141,
  "burg": 6814,
  "burgh": 7982,
  "burn": 11967,
  "burning": 40599,
  "bury": 9579,
  "bus": 18195,
  "business": 19979,
  "buster": 20485,
  "busters": 24590,
  "but": 4604,
  "butt": 44445,
  "button": 23148,
  "buy": 27062,
  "by": 1552,
  "bye": 16555,
  "byn": 12228,
  "bys": 40294,
  "byte": 39961,
  "byter": 33053,
  "bytes": 48333,
  "c": 99,
  "cTV": 44421,
  "ca": 8188,
  "cache": 34666,
  "cade": 35098,
  "cair": 29859,
  "cake": 32809,
  "cakes": 39100,
  "cal": 10705,
  "cale": 39237,
  "calf": 46486,
  "caliber": 34614,
  "call": 16331,
  "called": 5914,
  "calling": 37294,
  "cam": 21660,
  "camera": 23154,
  "camp": 17703,
  "campaign": 43415,
  "campus": 40671,
  "can": 6000,
  "cancer": 46341,
  "cand": 43942,
  "cann": 33090,
  "cannot": 48391,
  "cano": 21891,
  "cap": 10892,
  "capable": 47714,
  "capacity": 37134,
  "cape": 35686,
  "capital": 23239,
  "capitalist": 38255,
  "caps": 25770,
  "capt": 37256,
  "car": 7989,
  "carb": 48666,
  "carbon": 24887,
  "card": 11244,
  "cards": 31522,
  "care": 5772,
  "career": 48603,
  "carry": 30847,
  "carrying": 46839,
  "cars": 31101,
  "cart": 30053,
  "cas": 27462,
  "case": 8459,
  "cases": 32127,
  "cash": 36173,
  "cast": 2695,
  "caster": 30565,
  "casters": 34508,
  "casting": 20136,
  "castle": 15043,
  "casts": 32451,
  "cat": 11779,
  "catch": 41909,
  "catching": 43239,
  "category": 33376,
  "cation": 25345,
  "cats": 23348,
  "cault": 49512,
  "cause": 24494,
  "caused": 43558,
  "causing": 46080,
  "cb": 40908,
  "cc": 531,
  "cca": 13691,
  "ccess": 1519,
  "cci": 40138,
  "ccoli": 35430,
  "ccording": 2404,
  "cd": 16371,
  "ce": 346,
  "cean": 5438,
  "ceans": 16856,
  "ced": 767,
  "cedented": 9648,
  "cedes": 15646,
  "ceed": 2982,
  "ceivable": 41871,
  "ceived": 6621,
  "cel": 5522,
  "cele": 46274,
  "celer": 6967,
  "cell": 4227,
  "cellaneous": 38806,
  "cellent": 40669,
  "cells": 45855,
  "celona": 11636,
  "cember": 2938,
  "cence": 32403,
  "cend": 13626,
  "cent": 1014,
  "center": 20287,
  "centered": 33416,
  "central": 32533,
  "centre": 44768,
  "centric": 22923,
  "century": 11453,
  "cephal": 45700,
  "cept": 1038,
  "ception": 4742,
  "ceptions": 9542,
  "ceptive": 23688,
  "cer": 1047,
  "cerer": 43877,
  "cerity": 37657,
  "cerpt": 15566,
  "cers": 7013,
  "cert": 31428,
  "certain": 6504,
  "certified": 49384,
  "cery": 31409,
  "ces": 723,
  "cess": 970,
  "cession": 40103,
  "cessive": 45282,
  "cest": 9646,
  "cester": 28544,
  "cf": 22171,
  "ch": 354,
  "cha": 14297,
  "chain": 7499,
  "chains": 34650,
  "chair": 14491,
  "chairman": 44772,
  "chairs": 43939,
  "chal": 38142,
  "champ": 45350,
  "chan": 3782,
  "chance": 40479,
  "change": 3851,
  "changed": 45135,
  "changer": 45100,
  "changes": 39770,
  "changing": 19734,
  "channel": 29405,
  "chant": 16871,
  "chantment": 42388,
  "char": 13487,
  "character": 22967,
  "chard": 28567,
  "charg": 11494,
  "charge": 12563,
  "charged": 16724,
  "charges": 36764,
  "charging": 30983,
  "chart": 47524,
  "chat": 18871,
  "che": 2616,
  "check": 10156,
  "checked": 25597,
  "checking": 35870,
  "checks": 36189,
  "ched": 1646,
  "chedel": 19907,
  "cheek": 45957,
  "chel": 27441,
  "chell": 10585,
  "chem": 19576,
  "chemical": 31686,
  "chemist": 49143,
  "chemy": 34052,
  "chen": 6518,
  "chenko": 35516,
  "chens": 24140,
  "cheon": 34572,
  "cher": 4178,
  "chers": 6581,
  "chery": 32542,
  "ches": 2095,
  "chest": 48796,
  "chester": 32832,
  "chet": 24361,
  "chett": 48730,
  "chev": 47322,
  "chewan": 23224,
  "chez": 46361,
  "chi": 12888,
  "chie": 2892,
  "chief": 15876,
  "child": 9733,
  "children": 16122,
  "chin": 23408,
  "ching": 10367,
  "chini": 43050,
  "chio": 36537,
  "chip": 33289,
  "chkin": 39549,
  "chn": 1272,
  "chner": 49022,
  "chnology": 17544,
  "chnya": 40076,
  "cho": 6455,
  "choice": 22198,
  "chon": 49003,
  "chool": 1159,
  "christ": 44077,
  "chron": 12172,
  "chs": 49293,
  "cht": 18098,
  "chuk": 34207,
  "chup": 43510,
  "church": 29805,
  "chy": 28613,
  "ci": 1046,
  "cia": 30486,
  "cial": 2488,
  "cially": 1962,
  "ciation": 18896,
  "cible": 41841,
  "cie": 47647,
  "cience": 4280,
  "ciences": 46170,
  "cient": 3657,
  "cientific": 46190,
  "cier": 27399,
  "cies": 3036,
  "cific": 8370,
  "cifically": 17235,
  "cified": 20949,
  "cig": 19884,
  "cigarette": 38799,
  "cigarettes": 26953,
  "cil": 2523,
  "ciless": 34611,
  "cill": 14771,
  "cillor": 38953,
  "cin": 20434,
  "cing": 2106,
  "cio": 41633,
  "cious": 5152,
  "ciously": 18848,
  "cip": 25210,
  "cipl": 19698,
  "cipled": 31645,
  "ciples": 7012,
  "ciplinary": 29816,
  "cipline": 37983,
  "circ": 22089,
  "cision": 19256,
  "cit": 46706,
  "citation": 11155,
  "citizens": 41027,
  "city": 21581,
  "cium": 22177,
  "cius": 44161,
  "civil": 31890,
  "ck": 725,
  "cken": 46199,
  "cker": 13497,
  "cki": 42004,
  "cking": 37582,
  "cknow": 4723,
  "cko": 48536,
  "cks": 4847,
  "cl": 1254,
  "clad": 31740,
  "claim": 8582,
  "claimed": 13301,
  "claimer": 32321,
  "clair": 24205,
  "clamation": 24597,
  "clar": 48685,
  "class": 5395,
  "classes": 47336,
  "classic": 44013,
  "classified": 38264,
  "cle": 3026,
  "clean": 28212,
  "clear": 25834,
  "clearly": 47728,
  "cled": 20625,
  "cler": 36264,
  "cles": 7674,
  "cli": 43813,
  "clic": 40326,
  "click": 15830,
  "client": 26720,
  "cliffe": 30837,
  "climate": 32736,
  "cling": 7705,
  "clinical": 49664,
  "clinton": 40202,
  "clipse": 31197,
  "clist": 47531,
  "clists": 36032,
  "clock": 18526,
  "clone": 46559,
  "close": 23636,
  "closed": 14681,
  "closure": 13856,
  "closures": 37454,
  "cloud": 24762,
  "club": 17404,
  "clus": 2787,
  "clusion": 14664,
  "clusions": 41298,
  "clusive": 16248,
  "cm": 15728,
  "cmd": 49142,
  "cn": 30055,
  "co": 1307,
  "coal": 28844,
  "coaster": 47306,
  "coat": 33516,
  "cock": 18451,
  "cod": 22662,
  "code": 12032,
  "coded": 38767,
  "codes": 43350,
  "coe": 43998,
  "coff": 49115,
  "coh": 5202,
  "cohol": 5566,
  "coholic": 22156,
  "coin": 3391,
  "coins": 13445,
  "col": 5578,
  "cold": 36891,
  "coll": 21722,
  "collar": 28290,
  "collect": 34451,
  "college": 45617,
  "colm": 15838,
  "colonial": 36587,
  "color": 15228,
  "colored": 26099,
  "column": 38870,
  "com": 908,
  "comb": 22109,
  "combat": 38968,
  "combe": 39530,
  "come": 3067,
  "comed": 12332,
  "comes": 8978,
  "comfort": 19507,
  "coming": 4341,
  "comings": 25107,
  "comm": 6307,
  "command": 32939,
  "comment": 25125,
  "comments": 31439,
  "commerce": 22688,
  "commercial": 36882,
  "commit": 41082,
  "committed": 46315,
  "committee": 22673,
  "common": 19176,
  "commun": 11965,
  "communication": 31510,
  "communications": 18995,
  "communist": 45570,
  "community": 30233,
  "comp": 11403,
  "compan": 33961,
  "company": 41522,
  "compared": 47494,
  "compass": 16113,
  "compat": 35085,
  "compatible": 40663,
  "compet": 22544,
  "competitive": 35972,
  "compl": 23375,
  "complete": 19849,
  "completely": 35960,
  "complex": 49250,
  "compliance": 48404,
  "compliant": 49008,
  "component": 46710,
  "comput": 35964,
  "computer": 28996,
  "con": 1048,
  "conc": 46770,
  "conceived": 40180,
  "concept": 36904,
  "concer": 42612,
  "cond": 18343,
  "condition": 31991,
  "conds": 34039,
  "conduct": 37526,
  "cone": 48057,
  "conf": 8976,
  "conference": 31591,
  "confidence": 32946,
  "confident": 49777,
  "config": 19104,
  "confirmed": 32808,
  "cong": 42969,
  "coni": 30071,
  "conn": 35006,
  "connect": 12420,
  "connected": 17914,
  "conom": 1274,
  "cons": 6022,
  "conscious": 18261,
  "consciously": 42857,
  "conservative": 32228,
  "consider": 47405,
  "console": 48322,
  "conspir": 46572,
  "const": 9777,
  "constitutional": 14947,
  "consumer": 45292,
  "consuming": 29955,
  "cont": 4166,
  "contact": 34592,
  "contained": 41196,
  "container": 43935,
  "containing": 41874,
  "content": 16694,
  "context": 39500,
  "contin": 25628,
  "continent": 42358,
  "continental": 30103,
  "continue": 49281,
  "contract": 27800,
  "control": 15110,
  "controlled": 12576,
  "controller": 38940,
  "conv": 46701,
  "cook": 31983,
  "cool": 24333,
  "coon": 29692,
  "cop": 27747,
  "copy": 41036,
  "cor": 10369,
  "core": 8307,
  "corn": 23767,
  "corporate": 43394,
  "correct": 29515,
  "corruption": 34318,
  "cos": 5972,
  "cosm": 49175,
  "cost": 14831,
  "cosystem": 9953,
  "cot": 19779,
  "cott": 11511,
  "cou": 44939,
  "could": 20898,
  "count": 11763,
  "counter": 26461,
  "country": 21365,
  "course": 19834,
  "court": 17530,
  "cover": 8618,
  "covered": 29524,
  "covering": 44023,
  "covery": 16103,
  "cow": 7042,
  "cox": 38079,
  "cp": 24206,
  "cpp": 47692,
  "cr": 7530,
  "craft": 3728,
  "crafted": 39468,
  "crat": 12637,
  "cratic": 44896,
  "crazy": 42544,
  "cre": 10395,
  "cream": 42817,
  "creat": 22965,
  "create": 21508,
  "created": 25307,
  "creating": 43314,
  "creation": 38831,
  "creative": 46898,
  "creator": 40408,
  "credit": 41392,
  "creen": 33239,
  "crib": 9071,
  "cribe": 35694,
  "cribed": 13253,
  "cribing": 37355,
  "crime": 23211,
  "criminal": 37121,
  "cript": 6983,
  "cription": 7940,
  "criptions": 22265,
  "crisis": 42345,
  "crit": 42660,
  "critical": 23513,
  "cro": 21234,
  "croft": 31441,
  "cross": 21641,
  "cru": 35838,
  "cry": 20855,
  "crypt": 42352,
  "cs": 13563,
  "css": 31530,
  "ct": 332,
  "ctic": 8982,
  "ctica": 23196,
  "ction": 651,
  "ctioned": 40985,
  "ctions": 2963,
  "ctive": 14488,
  "ctl": 42250,
  "ctor": 2649,
  "ctors": 4571,
  "ctory": 25301,
  "ctr": 9200,
  "ctrine": 32191,
  "ctuary": 29569,
  "cturnal": 48867,
  "cu": 28532,
  "cue": 19260,
  "cul": 3736,
  "cular": 11517,
  "culation": 15608,
  "cule": 21700,
  "cules": 14068,
  "culosis": 35522,
  "cult": 35628,
  "cultural": 26431,
  "culture": 21298,
  "culus": 15684,
  "cum": 40520,
  "cup": 28788,
  "cur": 19249,
  "currency": 33351,
  "current": 16653,
  "currently": 36650,
  "cus": 7741,
  "cussion": 33847,
  "custom": 30098,
  "cut": 9131,
  "cuts": 23588,
  "cutting": 25103,
  "cy": 965,
  "cycl": 18792,
  "cycle": 29267,
  "cyclop": 25632,
  "cyclopedia": 29193,
  "cyl": 40098,
  "cylinder": 43524,
  "cz": 27535,
  "czyk": 49610,
  "cÃ©": 27021,
  "cÃ©e": 47511,
  "d": 100,
  "da": 7781,
  "dad": 42699,
  "dahl": 35930,
  "daily": 27278,
  "dailycall": 45786,
  "dailycallernewsfoundation": 48544,
  "dain": 22841,
  "dal": 33900,
  "dala": 38788,
  "dale": 12929,
  "dam": 12251,
  "damage": 37058,
  "dan": 24337,
  "dangerous": 40354,
  "daq": 44115,
  "dar": 25968,
  "dark": 25518,
  "das": 43680,
  "dash": 46663,
  "dat": 28413,
  "data": 11787,
  "date": 6044,
  "dated": 8819,
  "dates": 24435,
  "dating": 45230,
  "daughter": 27657,
  "day": 737,
  "days": 13807,
  "db": 15011,
  "dc": 30323,
  "dd": 2099,
  "dden": 4945,
  "dding": 30216,
  "de": 3509,
  "dead": 24827,
  "deal": 31566,
  "death": 21937,
  "deb": 16941,
  "debian": 45837,
  "debug": 48396,
  "dec": 12638,
  "decade": 39877,
  "deck": 46634,
  "ded": 9358,
  "deen": 31910,
  "deep": 19170,
  "deeply": 39905,
  "def": 6096,
  "default": 23726,
  "defence": 42524,
  "defense": 17726,
  "define": 30461,
  "defined": 25209,
  "definition": 44120,
  "defunct": 49305,
  "deg": 12523,
  "degree": 14481,
  "del": 14897,
  "delegates": 41315,
  "dem": 8373,
  "demand": 24816,
  "democracy": 32374,
  "democratic": 32013,
  "demonst": 48988,
  "den": 5286,
  "density": 43674,
  "dep": 11006,
  "depend": 40894,
  "dependent": 22445,
  "depending": 44683,
  "depth": 17946,
  "der": 1141,
  "derived": 32881,
  "des": 8803,
  "desc": 16403,
  "describ": 26211,
  "described": 28791,
  "description": 29640,
  "design": 26067,
  "designed": 26606,
  "despite": 33373,
  "dest": 18023,
  "destroy": 46384,
  "destructive": 46297,
  "det": 19516,
  "details": 48450,
  "deter": 21932,
  "determination": 32959,
  "determined": 48234,
  "dev": 11933,
  "develop": 15596,
  "developed": 28156,
  "development": 32250,
  "device": 34844,
  "df": 11347,
  "di": 12963,
  "dia": 35087,
  "diagn": 49314,
  "dial": 47565,
  "dict": 10938,
  "did": 19599,
  "didn": 38150,
  "die": 15284,
  "dies": 22350,
  "diff": 32745,
  "different": 39154,
  "dig": 13291,
  "digit": 23997,
  "digital": 36908,
  "digy": 43266,
  "dim": 48842,
  "dimensional": 18131,
  "din": 21584,
  "dinand": 31744,
  "ding": 12429,
  "diocese": 40689,
  "dir": 28007,
  "direct": 13238,
  "directed": 29195,
  "direction": 39230,
  "director": 27288,
  "dirty": 44122,
  "dis": 6398,
  "disc": 14945,
  "disciplinary": 40193,
  "discrimination": 33168,
  "display": 14009,
  "displaystyle": 18257,
  "dist": 18464,
  "distance": 29234,
  "dit": 8662,
  "ditch": 49082,
  "div": 9643,
  "division": 30161,
  "dk": 47600,
  "dl": 41125,
  "dll": 35205,
  "dn": 39291,
  "dney": 9022,
  "do": 4700,
  "doc": 21485,
  "docs": 41137,
  "doctor": 32825,
  "doctoral": 37924,
  "document": 27954,
  "documented": 37265,
  "does": 21152,
  "doesn": 38791,
  "dog": 11303,
  "dogs": 19511,
  "doi": 33682,
  "doing": 16026,
  "dollar": 17390,
  "dom": 3905,
  "domain": 37882,
  "dome": 47003,
  "dominal": 36064,
  "dominated": 26281,
  "don": 9352,
  "donald": 34705,
  "done": 29450,
  "dong": 46423,
  "door": 8998,
  "doors": 19186,
  "dor": 42579,
  "dorf": 48328,
  "dos": 36966,
  "dose": 42007,
  "dot": 28920,
  "dou": 24654,
  "doub": 38089,
  "double": 27277,
  "down": 2921,
  "download": 27646,
  "downs": 32185,
  "dozen": 34338,
  "doÄŁan": 32414,
  "dp": 44250,
  "dr": 11031,
  "draft": 34534,
  "dragon": 27719,
  "draw": 26093,
  "drawn": 38005,
  "dream": 29505,
  "dress": 49821,
  "dri": 8690,
  "drive": 24356,
  "driven": 13449,
  "driver": 32158,
  "driving": 18576,
  "dro": 16054,
  "drop": 13748,
  "dropping": 30476,
  "drug": 28240,
  "dry": 39740,
  "ds": 10293,
  "dt": 44470,
  "du": 653,
  "dub": 46624,
  "duc": 6319,
  "ducers": 37127,
  "duct": 2470,
  "ducted": 20396,
  "duction": 9981,
  "due": 21643,
  "duino": 25882,
  "dule": 5892,
  "dullah": 18970,
  "dump": 48926,
  "during": 41376,
  "duty": 23177,
  "dx": 46338,
  "dy": 10115,
  "e": 101,
  "ea": 24177,
  "each": 30350,
  "ead": 1315,
  "eah": 4932,
  "eal": 2183,
  "ealing": 26401,
  "ealous": 16258,
  "eals": 9497,
  "ean": 3902,
  "eanor": 17303,
  "ear": 464,
  "earable": 35620,
  "earance": 31108,
  "earch": 4102,
  "earchers": 13264,
  "eared": 3150,
  "earing": 7240,
  "early": 10440,
  "earned": 33509,
  "earns": 45913,
  "ears": 4435,
  "earth": 18813,
  "eas": 26617,
  "east": 23215,
  "eastern": 45513,
  "easy": 38221,
  "eat": 28562,
  "eating": 26546,
  "eau": 45096,
  "eb": 1914,
  "eban": 40337,
  "ebel": 47053,
  "ebin": 48143,
  "ebra": 36070,
  "ebted": 35917,
  "ebus": 25731,
  "ec": 759,
  "eca": 29041,
  "ecake": 48903,
  "ecast": 44485,
  "ecause": 3048,
  "ecd": 18460,
  "ech": 2606,
  "echan": 18057,
  "eches": 13829,
  "echo": 44256,
  "econom": 12526,
  "economic": 15420,
  "economics": 44071,
  "ect": 499,
  "ected": 11883,
  "ecting": 34187,
  "ection": 4112,
  "ective": 8476,
  "ectives": 37003,
  "ector": 13262,
  "ects": 11386,
  "ecut": 8228,
  "ecutive": 9007,
  "ecycle": 43985,
  "ed": 275,
  "edIn": 16603,
  "eda": 22451,
  "edar": 45647,
  "edd": 5795,
  "eddy": 22627,
  "ede": 16650,
  "eded": 13304,
  "eder": 5347,
  "ederal": 1804,
  "ederation": 9239,
  "edes": 34201,
  "edge": 14778,
  "edged": 43351,
  "edi": 42784,
  "edia": 5613,
  "edience": 22039,
  "edient": 41648,
  "edin": 20257,
  "eding": 8796,
  "edit": 35571,
  "edited": 38828,
  "edition": 28819,
  "editor": 38564,
  "edly": 40379,
  "edo": 25800,
  "eds": 5762,
  "edu": 20567,
  "educ": 15933,
  "educated": 21885,
  "education": 35209,
  "edy": 6210,
  "ee": 1035,
  "eed": 2444,
  "eeds": 36815,
  "eeks": 26653,
  "eele": 21469,
  "eely": 34197,
  "een": 8342,
  "eenth": 28762,
  "eer": 27963,
  "eered": 20859,
  "eering": 39061,
  "ees": 2505,
  "eese": 41291,
  "eez": 34367,
  "ef": 960,
  "efa": 48456,
  "efe": 17912,
  "efeated": 29069,
  "efer": 34496,
  "eff": 3206,
  "effect": 27888,
  "effective": 26266,
  "effects": 33909,
  "effic": 39847,
  "efficient": 21866,
  "efficients": 44793,
  "efined": 22429,
  "efully": 6481,
  "eg": 2460,
  "ega": 11539,
  "eger": 18031,
  "egers": 36825,
  "egg": 44017,
  "egov": 47403,
  "egr": 3440,
  "egu": 14672,
  "eh": 31536,
  "ei": 18383,
  "eight": 24094,
  "eira": 47046,
  "either": 31688,
  "ek": 920,
  "eka": 34352,
  "eking": 18296,
  "eks": 2320,
  "ekt": 49048,
  "el": 425,
  "ela": 9161,
  "elaide": 19109,
  "eland": 7764,
  "elcome": 11915,
  "eld": 45382,
  "ele": 11097,
  "elect": 7823,
  "elected": 20673,
  "election": 10526,
  "electric": 25256,
  "eled": 17308,
  "element": 42353,
  "eler": 16192,
  "eless": 5058,
  "elf": 8194,
  "elfare": 25468,
  "elfth": 42610,
  "eli": 41128,
  "elia": 29909,
  "elian": 47378,
  "elight": 40644,
  "eligible": 29159,
  "elin": 24326,
  "eline": 4345,
  "elines": 17841,
  "eling": 10322,
  "ell": 846,
  "ella": 12838,
  "ellar": 13678,
  "ellation": 26019,
  "elle": 10508,
  "ellect": 6460,
  "ellectual": 26261,
  "elled": 17824,
  "ellen": 32990,
  "eller": 11782,
  "ellery": 41769,
  "elli": 22600,
  "ellig": 2721,
  "elligence": 3100,
  "elligent": 32568,
  "elling": 15604,
  "ello": 11488,
  "ellow": 5954,
  "ells": 48344,
  "elly": 5804,
  "elman": 26426,
  "eln": 47525,
  "elo": 22988,
  "elong": 17816,
  "elope": 44185,
  "elow": 43083,
  "els": 1511,
  "else": 41339,
  "elsen": 21179,
  "elsh": 17070,
  "elsius": 28126,
  "elson": 9378,
  "elstra": 44532,
  "elt": 2087,
  "elta": 13290,
  "elve": 10655,
  "elvet": 33374,
  "em": 415,
  "ema": 21123,
  "emade": 21390,
  "email": 15034,
  "emaker": 30517,
  "emakers": 46169,
  "emale": 15648,
  "eman": 8009,
  "emann": 39157,
  "emate": 37389,
  "emb": 25680,
  "embed": 31851,
  "ember": 1582,
  "eme": 32604,
  "emed": 9252,
  "emen": 7390,
  "emer": 21520,
  "emergency": 48432,
  "emet": 16823,
  "emeter": 49256,
  "emetery": 17053,
  "emi": 33068,
  "emia": 34912,
  "emic": 9967,
  "emies": 30767,
  "emin": 11973,
  "eminent": 45507,
  "eming": 28497,
  "emit": 11805,
  "emo": 45222,
  "emocratic": 46261,
  "emon": 23519,
  "emore": 49492,
  "emort": 47664,
  "emos": 44367,
  "emotional": 49578,
  "emouth": 36849,
  "emphasis": 35210,
  "employ": 5827,
  "employed": 33768,
  "employment": 28412,
  "emporary": 30230,
  "empt": 1729,
  "emption": 19434,
  "emptive": 44615,
  "empty": 36939,
  "ems": 7067,
  "emy": 21590,
  "en": 268,
  "ena": 6486,
  "enable": 29994,
  "enabled": 26626,
  "enact": 46345,
  "enal": 33529,
  "ename": 23013,
  "enance": 40415,
  "enaries": 32336,
  "enario": 38630,
  "enary": 23316,
  "enas": 29129,
  "enb": 41440,
  "enberg": 20079,
  "enburg": 31013,
  "enc": 13358,
  "ence": 584,
  "enced": 5274,
  "encer": 12028,
  "encers": 37143,
  "ences": 2957,
  "ench": 25450,
  "encia": 22587,
  "encies": 3743,
  "encing": 8977,
  "ency": 1332,
  "end": 440,
  "enda": 6016,
  "endale": 32947,
  "endant": 28297,
  "endants": 35320,
  "endar": 10297,
  "endars": 40143,
  "endas": 28219,
  "ende": 33125,
  "ended": 1713,
  "ender": 2245,
  "endered": 26460,
  "enders": 7043,
  "endez": 30309,
  "endi": 42371,
  "endiary": 37610,
  "ending": 1485,
  "endish": 44132,
  "endium": 49852,
  "endix": 34381,
  "endment": 5393,
  "endo": 28576,
  "endon": 31481,
  "endor": 29915,
  "endra": 38086,
  "ends": 2578,
  "endum": 46256,
  "ene": 1693,
  "ened": 2867,
  "enegger": 32046,
  "enei": 35476,
  "enemy": 47218,
  "ener": 905,
  "eneration": 17827,
  "enerative": 49606,
  "energy": 18593,
  "eners": 42975,
  "enery": 26262,
  "enes": 18816,
  "eness": 10197,
  "eney": 46089,
  "enez": 9209,
  "enezuel": 10050,
  "enf": 24116,
  "enforcement": 36971,
  "enfranch": 29951,
  "eng": 1604,
  "enge": 3344,
  "engeance": 26373,
  "enger": 6108,
  "engers": 8075,
  "engine": 18588,
  "engineering": 34194,
  "ength": 3958,
  "engu": 13821,
  "engue": 45524,
  "enh": 23508,
  "enhanced": 47451,
  "enhancing": 46482,
  "enheim": 34493,
  "eni": 35222,
  "enic": 33428,
  "enics": 42883,
  "ening": 2979,
  "enium": 45331,
  "enko": 26240,
  "enly": 17397,
  "enment": 21576,
  "enn": 1720,
  "enna": 12981,
  "enne": 37925,
  "ennes": 37165,
  "ennett": 37393,
  "ennial": 24685,
  "ennis": 9189,
  "enny": 8149,
  "eno": 25610,
  "enos": 25426,
  "enough": 42499,
  "ens": 639,
  "ensation": 33622,
  "ense": 1062,
  "ensed": 17121,
  "ensen": 16750,
  "enses": 4884,
  "ensible": 28820,
  "ensical": 39111,
  "ensing": 29300,
  "ension": 3236,
  "ensional": 39394,
  "ensions": 5654,
  "ensis": 41369,
  "ensitive": 28253,
  "ensitivity": 48895,
  "ensity": 6765,
  "ensive": 1809,
  "enson": 16241,
  "ensor": 31634,
  "ensored": 48902,
  "ensorship": 41516,
  "enstein": 33829,
  "ensual": 28380,
  "ensus": 6530,
  "ent": 299,
  "enta": 32048,
  "ental": 10159,
  "entanyl": 36402,
  "entary": 47808,
  "ente": 20654,
  "ented": 4214,
  "enter": 9408,
  "enth": 7825,
  "enthal": 29351,
  "ential": 1719,
  "entially": 3221,
  "entials": 14327,
  "entimes": 38258,
  "entin": 30806,
  "enting": 29964,
  "ention": 1151,
  "entions": 14869,
  "entious": 40223,
  "ently": 2173,
  "ento": 49961,
  "enton": 23624,
  "entral": 47909,
  "entric": 21107,
  "entry": 18211,
  "ents": 750,
  "enture": 6011,
  "enty": 3661,
  "env": 31068,
  "environment": 36867,
  "eny": 31942,
  "enz": 17042,
  "enza": 22657,
  "enzie": 22121,
  "eon": 22733,
  "eons": 40366,
  "eor": 12861,
  "eous": 18024,
  "ep": 525,
  "epend": 2408,
  "ependence": 14030,
  "ependent": 7849,
  "eper": 41828,
  "epernick": 22501,
  "eph": 35602,
  "epid": 39697,
  "eping": 7148,
  "episode": 35702,
  "eport": 47867,
  "eprint": 18564,
  "eps": 26203,
  "ept": 19472,
  "epy": 47703,
  "eq": 49791,
  "equ": 4629,
  "equal": 41455,
  "equality": 41975,
  "equipped": 34248,
  "er": 263,
  "era": 7541,
  "eral": 1532,
  "erala": 27244,
  "erald": 11227,
  "erals": 16101,
  "erate": 27199,
  "erc": 3292,
  "ercise": 27589,
  "erd": 47880,
  "ere": 563,
  "ered": 1096,
  "eredith": 35509,
  "erek": 15844,
  "erella": 41302,
  "erem": 24587,
  "eremiah": 35200,
  "eremy": 9728,
  "eren": 13033,
  "erence": 1927,
  "erences": 6369,
  "erencing": 47303,
  "erenn": 26569,
  "erent": 9720,
  "erential": 29354,
  "ereo": 38343,
  "erer": 12769,
  "erers": 17786,
  "erest": 1192,
  "eret": 45405,
  "erey": 41606,
  "erez": 46357,
  "erg": 9128,
  "ergic": 38002,
  "ergy": 29728,
  "eri": 32507,
  "eria": 9766,
  "erial": 48609,
  "erick": 34857,
  "erie": 18517,
  "eries": 8857,
  "ering": 1341,
  "erion": 29349,
  "erk": 20510,
  "erm": 20473,
  "erman": 1950,
  "ermott": 36246,
  "ern": 1529,
  "ernal": 47977,
  "ername": 20203,
  "ernand": 10974,
  "ernandez": 15316,
  "ernaut": 31992,
  "ernel": 11764,
  "ernels": 46110,
  "erness": 17613,
  "ernews": 45069,
  "ernewsfoundation": 46195,
  "ernick": 21676,
  "erno": 31311,
  "ero": 3739,
  "eroids": 30152,
  "eros": 26782,
  "erous": 5092,
  "err": 11486,
  "erred": 40051,
  "erring": 37729,
  "error": 26944,
  "erry": 3800,
  "ers": 360,
  "ersen": 40747,
  "ersion": 11941,
  "erson": 909,
  "ert": 1992,
  "erta": 47083,
  "ertain": 1450,
  "ertainly": 16184,
  "erted": 8841,
  "ertility": 36346,
  "erting": 15498,
  "erts": 9272,
  "erv": 1257,
  "ervation": 13994,
  "ervative": 17595,
  "ervatives": 28912,
  "erve": 3622,
  "erved": 5737,
  "erver": 39436,
  "erves": 6454,
  "erville": 32549,
  "erving": 12448,
  "ery": 2259,
  "eryl": 43947,
  "es": 276,
  "esa": 44746,
  "esame": 30851,
  "esan": 45434,
  "esar": 18625,
  "esc": 6563,
  "escal": 37726,
  "escap": 42076,
  "escent": 42984,
  "escope": 15988,
  "ese": 2862,
  "esh": 8729,
  "esi": 49247,
  "esian": 34243,
  "esides": 12020,
  "esis": 12976,
  "esity": 13916,
  "esome": 6084,
  "eson": 36030,
  "esp": 39022,
  "especially": 15219,
  "esque": 23368,
  "ess": 411,
  "essa": 21253,
  "essage": 17430,
  "esse": 29316,
  "essed": 7368,
  "essee": 9499,
  "essen": 35440,
  "essential": 27395,
  "essentially": 43932,
  "esses": 45841,
  "essim": 23517,
  "essing": 34973,
  "ession": 2968,
  "essional": 13495,
  "essionals": 47395,
  "essions": 5600,
  "essler": 27896,
  "essment": 24122,
  "esson": 36068,
  "essor": 5962,
  "essors": 19893,
  "est": 384,
  "esta": 16123,
  "establish": 39670,
  "established": 23613,
  "establishment": 33656,
  "estan": 46724,
  "estate": 36998,
  "estation": 31044,
  "este": 17035,
  "estead": 33282,
  "ested": 9436,
  "esteem": 28287,
  "ester": 8285,
  "estern": 2954,
  "esters": 5769,
  "estial": 28572,
  "estic": 4206,
  "estinal": 25075,
  "estine": 20110,
  "esting": 44138,
  "estival": 5787,
  "esto": 39793,
  "eston": 17049,
  "estone": 12752,
  "estones": 28706,
  "estown": 49461,
  "estrian": 49284,
  "estro": 45711,
  "ests": 2720,
  "esty": 8899,
  "estyle": 10216,
  "estyles": 34114,
  "esville": 17141,
  "esy": 7415,
  "et": 322,
  "eta": 16785,
  "etary": 7607,
  "etc": 20256,
  "ete": 15255,
  "eted": 20165,
  "eteen": 30770,
  "eteenth": 24869,
  "eter": 2617,
  "etera": 48064,
  "etermined": 28351,
  "eters": 8961,
  "eth": 3147,
  "ethe": 9581,
  "etheless": 10898,
  "ether": 6827,
  "etheus": 37203,
  "ethical": 26660,
  "ethlisberger": 40825,
  "ethnic": 37631,
  "ethoven": 43632,
  "ethy": 43309,
  "ethyl": 30368,
  "eti": 44242,
  "etian": 47327,
  "etic": 5494,
  "etically": 35808,
  "etics": 22912,
  "eties": 25806,
  "etime": 7803,
  "etimes": 40978,
  "eting": 13957,
  "etition": 16089,
  "etitive": 20439,
  "eto": 28410,
  "eton": 16672,
  "etooth": 17405,
  "etr": 22833,
  "etrable": 48549,
  "etration": 42675,
  "etric": 32447,
  "etro": 3733,
  "etroit": 6408,
  "etry": 34305,
  "ets": 1052,
  "etsk": 24911,
  "etsy": 32096,
  "ett": 2964,
  "etta": 14037,
  "ette": 6028,
  "ettel": 33476,
  "etter": 33623,
  "ettes": 22960,
  "etti": 21457,
  "etting": 34679,
  "ettle": 27659,
  "etto": 44175,
  "etts": 7917,
  "etty": 4278,
  "etus": 26011,
  "ety": 2871,
  "etyl": 42293,
  "etz": 18979,
  "eu": 12876,
  "eur": 19382,
  "euro": 43777,
  "eus": 23288,
  "ev": 2021,
  "eva": 43868,
  "eval": 19624,
  "evaluate": 44212,
  "evelop": 46973,
  "even": 9734,
  "event": 20379,
  "events": 40864,
  "ever": 983,
  "everal": 7478,
  "every": 15544,
  "everyone": 40430,
  "everything": 33328,
  "evidence": 42168,
  "evident": 46381,
  "evil": 23976,
  "eville": 39939,
  "evin": 5898,
  "evo": 45167,
  "evolution": 45846,
  "ew": 559,
  "eware": 36515,
  "ewater": 26600,
  "eway": 17657,
  "eworthy": 22820,
  "ews": 16521,
  "ewski": 37735,
  "ex": 1106,
  "examination": 47911,
  "example": 28711,
  "exc": 27322,
  "except": 19606,
  "excluding": 47553,
  "exclusive": 40934,
  "exe": 24697,
  "exec": 34306,
  "executive": 46185,
  "exempt": 38237,
  "exist": 49437,
  "existent": 28864,
  "existing": 22754,
  "exit": 49774,
  "exp": 14798,
  "expected": 35848,
  "exper": 21680,
  "experience": 43950,
  "expl": 21669,
  "expletive": 47442,
  "export": 46916,
  "express": 38887,
  "expression": 44529,
  "ext": 2771,
  "external": 45173,
  "extra": 33235,
  "extrem": 47918,
  "extreme": 23261,
  "extremely": 30962,
  "exus": 13399,
  "ey": 4877,
  "eye": 27302,
  "eyed": 18191,
  "ez": 7395,
  "f": 102,
  "fa": 18613,
  "fab": 46664,
  "fac": 35196,
  "face": 2935,
  "facebook": 22133,
  "faced": 22255,
  "faces": 33705,
  "facing": 25139,
  "fact": 20035,
  "factor": 32785,
  "facts": 32731,
  "fail": 47344,
  "failed": 42027,
  "fair": 18654,
  "faith": 36379,
  "fake": 26128,
  "fal": 47150,
  "fall": 7656,
  "falls": 20933,
  "false": 20919,
  "fam": 35024,
  "family": 18640,
  "famous": 38018,
  "fan": 26197,
  "fant": 34346,
  "far": 15154,
  "fare": 9183,
  "farious": 33257,
  "farm": 40850,
  "fascist": 38230,
  "fashion": 22246,
  "fashioned": 24220,
  "fast": 7185,
  "fat": 24045,
  "fated": 45330,
  "father": 10570,
  "favorite": 45464,
  "fax": 19497,
  "fb": 35570,
  "fc": 29336,
  "fd": 29224,
  "fe": 5214,
  "fear": 47870,
  "feature": 41689,
  "fect": 2531,
  "fecture": 36220,
  "fed": 23533,
  "federal": 49717,
  "fee": 45288,
  "feed": 14903,
  "feeding": 25472,
  "feel": 34037,
  "feet": 36105,
  "fel": 49076,
  "feld": 13682,
  "fell": 23555,
  "felt": 28039,
  "female": 28718,
  "femin": 29580,
  "feminist": 45391,
  "fen": 45301,
  "fer": 2568,
  "ference": 4607,
  "ferred": 38527,
  "fest": 24334,
  "fet": 27270,
  "fetched": 39033,
  "few": 27389,
  "ff": 497,
  "ffe": 45268,
  "ffen": 42943,
  "ffer": 43511,
  "ffff": 34252,
  "ffield": 24287,
  "ffiti": 20530,
  "fi": 12181,
  "fiction": 22017,
  "field": 3050,
  "fielder": 45440,
  "fields": 28204,
  "fif": 29095,
  "fifth": 37482,
  "fig": 22775,
  "fight": 21103,
  "fighter": 37419,
  "fighters": 33286,
  "fighting": 25629,
  "figure": 24877,
  "figured": 47838,
  "fil": 13362,
  "file": 12232,
  "files": 26657,
  "fill": 21636,
  "filled": 18322,
  "filling": 45535,
  "fills": 47676,
  "film": 24348,
  "filter": 36444,
  "fin": 15614,
  "final": 18127,
  "finals": 23396,
  "finance": 42852,
  "financial": 39435,
  "find": 25265,
  "finder": 29344,
  "finding": 39277,
  "fine": 37951,
  "fing": 31643,
  "finger": 36027,
  "finished": 47355,
  "fire": 6945,
  "fired": 20962,
  "fires": 22546,
  "first": 11321,
  "fish": 11563,
  "fishing": 44364,
  "fit": 22179,
  "fits": 35219,
  "fitting": 31792,
  "five": 13167,
  "fix": 17470,
  "fixed": 46179,
  "fixing": 47207,
  "fl": 3117,
  "flag": 45782,
  "flash": 43467,
  "flat": 41438,
  "flation": 28599,
  "fle": 36693,
  "fledged": 34986,
  "fleet": 44136,
  "flex": 42937,
  "flies": 28534,
  "flight": 19930,
  "flix": 8720,
  "flo": 38840,
  "float": 26420,
  "floor": 26737,
  "flow": 12072,
  "flower": 28904,
  "flowing": 34956,
  "flows": 33826,
  "flu": 16499,
  "fly": 13517,
  "flying": 39525,
  "fm": 48425,
  "fn": 41985,
  "fo": 32063,
  "focus": 42627,
  "focused": 21779,
  "fol": 9218,
  "fold": 12857,
  "folk": 20545,
  "follow": 27425,
  "font": 26652,
  "foo": 29383,
  "food": 19270,
  "foot": 6652,
  "football": 44633,
  "footed": 38903,
  "for": 1636,
  "force": 2981,
  "forced": 36956,
  "forcement": 12949,
  "ford": 3461,
  "fore": 772,
  "foreign": 34165,
  "forest": 30148,
  "forestation": 31159,
  "fork": 31866,
  "form": 710,
  "formance": 11881,
  "format": 33711,
  "formation": 4821,
  "formed": 12197,
  "former": 11564,
  "formerly": 31913,
  "formers": 25939,
  "forming": 14583,
  "forms": 26858,
  "fort": 3390,
  "forth": 24181,
  "forts": 45934,
  "fortunately": 6273,
  "fortune": 39191,
  "forum": 40347,
  "forward": 11096,
  "found": 7815,
  "foundation": 37183,
  "founded": 22354,
  "founder": 11876,
  "founders": 42781,
  "foundland": 32896,
  "four": 14074,
  "fourth": 45961,
  "fox": 12964,
  "fps": 32729,
  "fr": 8362,
  "frac": 21435,
  "frame": 15241,
  "frames": 42374,
  "fre": 27918,
  "fred": 35978,
  "free": 5771,
  "freedom": 33979,
  "frequ": 29408,
  "frequency": 34328,
  "fresh": 46655,
  "frey": 31897,
  "fried": 29605,
  "friend": 6539,
  "friendly": 11310,
  "friends": 34382,
  "from": 7593,
  "front": 7653,
  "frontal": 35058,
  "fruit": 35393,
  "fs": 12706,
  "ft": 715,
  "ften": 14412,
  "fter": 618,
  "fters": 41873,
  "ftime": 26561,
  "fts": 32369,
  "fty": 16885,
  "fu": 27457,
  "fuck": 34803,
  "fuel": 22369,
  "fueled": 39071,
  "fuels": 40617,
  "ful": 916,
  "full": 15719,
  "fully": 2836,
  "fulness": 15637,
  "fun": 18634,
  "func": 39762,
  "function": 10709,
  "functional": 43112,
  "fund": 9067,
  "funded": 14022,
  "funding": 20022,
  "fur": 35317,
  "furt": 24651,
  "fus": 48070,
  "fusc": 32545,
  "future": 37563,
  "fy": 26406,
  "g": 103,
  "ga": 5999,
  "gaard": 30657,
  "gado": 42561,
  "gae": 21499,
  "gage": 21367,
  "gain": 49917,
  "gal": 12029,
  "gall": 23906,
  "gallery": 47299,
  "gam": 25592,
  "game": 6462,
  "gamer": 36830,
  "games": 27998,
  "gaming": 49577,
  "gan": 940,
  "gang": 26779,
  "gans": 34770,
  "gap": 38612,
  "gar": 5005,
  "gard": 23848,
  "garde": 46355,
  "garian": 32672,
  "gars": 26100,
  "gart": 34796,
  "gary": 12161,
  "gas": 22227,
  "gat": 38611,
  "gate": 10676,
  "gates": 47188,
  "gathere": 47209,
  "gathering": 45741,
  "gay": 18226,
  "gb": 44267,
  "ge": 479,
  "geant": 25906,
  "gear": 39378,
  "gebra": 29493,
  "gecoin": 43764,
  "ged": 1930,
  "gee": 37569,
  "geist": 42654,
  "gel": 14494,
  "gem": 19705,
  "gen": 5490,
  "gence": 11673,
  "gencies": 30868,
  "gency": 4585,
  "gender": 6904,
  "gener": 8442,
  "general": 22201,
  "generally": 49191,
  "generated": 28475,
  "generation": 16228,
  "generational": 46870,
  "genic": 43531,
  "gent": 6158,
  "gently": 28978,
  "geon": 8619,
  "geoning": 26256,
  "geons": 31282,
  "ger": 1390,
  "gerald": 22108,
  "gered": 9769,
  "geries": 25126,
  "gering": 23136,
  "gers": 5029,
  "gery": 6837,
  "ges": 3093,
  "gest": 2975,
  "get": 1129,
  "gether": 1895,
  "getown": 23915,
  "gets": 10442,
  "gett": 43368,
  "gettable": 37345,
  "getting": 33635,
  "gev": 49906,
  "gex": 35926,
  "gey": 35756,
  "gg": 1006,
  "gged": 10884,
  "gger": 20274,
  "ggest": 1765,
  "ggie": 20130,
  "ggies": 33430,
  "gging": 17551,
  "ggle": 15869,
  "ggles": 31646,
  "ggs": 40185,
  "ggy": 18594,
  "gh": 461,
  "ghai": 16607,
  "ghan": 4466,
  "ghazi": 16769,
  "gi": 13586,
  "gia": 6039,
  "gian": 13071,
  "gic": 24506,
  "gie": 20367,
  "giene": 27534,
  "gif": 47268,
  "gil": 38457,
  "gin": 1618,
  "ging": 2709,
  "gins": 46528,
  "ginx": 37612,
  "gio": 22030,
  "girl": 17573,
  "girlfriend": 38655,
  "girls": 39092,
  "git": 24662,
  "github": 22970,
  "give": 30099,
  "given": 31667,
  "giving": 13169,
  "gl": 5523,
  "glas": 12648,
  "glass": 21599,
  "gling": 34021,
  "global": 23390,
  "glomer": 28169,
  "gly": 10927,
  "gmail": 19099,
  "gment": 5592,
  "gments": 12106,
  "gn": 5126,
  "go": 2122,
  "goal": 27830,
  "god": 32428,
  "goers": 24133,
  "going": 4568,
  "gold": 25268,
  "gom": 16263,
  "gomery": 16841,
  "gon": 18039,
  "gone": 18868,
  "good": 10895,
  "google": 24109,
  "gor": 6746,
  "gorith": 7372,
  "got": 24422,
  "gotten": 28312,
  "gov": 11972,
  "govern": 38426,
  "government": 11663,
  "governmental": 27035,
  "gow": 17605,
  "gp": 41130,
  "gr": 888,
  "gra": 39038,
  "grab": 35467,
  "grad": 10687,
  "gradation": 25071,
  "grade": 10131,
  "graded": 32797,
  "grades": 46429,
  "graduate": 39739,
  "gram": 1242,
  "grams": 45284,
  "grand": 22256,
  "graph": 10437,
  "grass": 29322,
  "grat": 16782,
  "grave": 35635,
  "gravity": 46117,
  "gre": 31996,
  "greSQL": 46535,
  "great": 16362,
  "green": 15073,
  "greg": 6489,
  "gregated": 27263,
  "gregation": 14785,
  "gren": 28383,
  "gres": 40861,
  "gress": 1781,
  "gression": 29844,
  "gressions": 40964,
  "gressive": 22957,
  "grid": 27874,
  "gro": 20610,
  "gross": 34560,
  "ground": 3059,
  "grounds": 41073,
  "group": 12207,
  "groups": 30246,
  "grove": 45161,
  "growing": 19782,
  "grown": 18372,
  "growth": 26123,
  "gru": 44399,
  "gs": 16337,
  "gt": 12783,
  "gu": 5343,
  "guably": 42873,
  "guard": 17752,
  "guardian": 48864,
  "guards": 35469,
  "gue": 17108,
  "guided": 19607,
  "gun": 7733,
  "guns": 46132,
  "gur": 39496,
  "gus": 10170,
  "guy": 39920,
  "guyen": 31265,
  "gy": 1286,
  "gyn": 32874,
  "gypt": 5012,
  "gyz": 41121,
  "gz": 43235,
  "h": 104,
  "ha": 3242,
  "haar": 32669,
  "hab": 5661,
  "habet": 38576,
  "habi": 27600,
  "hack": 34804,
  "had": 16907,
  "hagen": 21361,
  "hai": 43611,
  "hair": 43013,
  "haired": 28925,
  "hairs": 49291,
  "hak": 43424,
  "hal": 14322,
  "half": 12229,
  "hall": 18756,
  "ham": 2589,
  "hammad": 13310,
  "hammer": 27421,
  "han": 7195,
  "hand": 5350,
  "handed": 12152,
  "handedly": 35919,
  "hander": 32125,
  "handle": 38567,
  "handling": 43293,
  "hands": 39546,
  "hang": 30967,
  "hani": 29473,
  "hao": 36680,
  "hap": 42755,
  "happy": 31909,
  "haps": 2552,
  "har": 9342,
  "hard": 9798,
  "hardt": 23181,
  "hare": 41362,
  "hark": 43037,
  "harm": 28094,
  "harmed": 47023,
  "hart": 17336,
  "has": 10321,
  "hash": 22084,
  "hat": 17642,
  "hate": 31022,
  "hatt": 9594,
  "hattan": 10457,
  "haul": 13244,
  "haus": 25764,
  "hausen": 45658,
  "have": 13298,
  "haven": 36832,
  "having": 37611,
  "haw": 18177,
  "hawk": 43602,
  "hawks": 23198,
  "hd": 48284,
  "he": 258,
  "hea": 24112,
  "head": 2226,
  "headed": 14724,
  "header": 33018,
  "heading": 30149,
  "heads": 15881,
  "health": 12567,
  "healthy": 20558,
  "heard": 21188,
  "heart": 17646,
  "hearted": 18101,
  "heartedly": 37430,
  "heast": 8183,
  "heastern": 15508,
  "heat": 30261,
  "heavy": 21895,
  "hed": 702,
  "heddar": 46206,
  "hedon": 36234,
  "hedral": 19171,
  "hedul": 4994,
  "heduled": 44665,
  "hee": 20613,
  "heed": 19808,
  "heem": 47602,
  "heen": 47394,
  "heet": 34120,
  "hei": 44430,
  "heid": 21037,
  "height": 26176,
  "heim": 8949,
  "heimer": 14490,
  "heit": 26708,
  "hel": 2762,
  "helan": 44370,
  "held": 9325,
  "helial": 43614,
  "hell": 16718,
  "hello": 31295,
  "helm": 33472,
  "help": 14433,
  "helpful": 44387,
  "helps": 29619,
  "helsea": 8863,
  "hem": 4667,
  "hement": 28928,
  "hemer": 37257,
  "hemy": 31626,
  "hen": 855,
  "hence": 46554,
  "hend": 15736,
  "hene": 23863,
  "heng": 38059,
  "henko": 22130,
  "hens": 4968,
  "hensive": 28970,
  "hent": 7514,
  "heny": 43029,
  "heon": 35229,
  "her": 366,
  "here": 1461,
  "hered": 5631,
  "herence": 22298,
  "herent": 7641,
  "heres": 19298,
  "heric": 13295,
  "herical": 38065,
  "hering": 44226,
  "hern": 2623,
  "hernalia": 44317,
  "hero": 10577,
  "hers": 1907,
  "herson": 43833,
  "herst": 44355,
  "herty": 23721,
  "hes": 1009,
  "hesda": 30124,
  "heses": 41898,
  "hesia": 34084,
  "hesis": 8892,
  "hess": 41045,
  "hest": 3469,
  "hester": 18017,
  "het": 3172,
  "hetamine": 25818,
  "heter": 45414,
  "hetic": 6430,
  "hetical": 18260,
  "hetically": 28492,
  "hetics": 23019,
  "hets": 43549,
  "hett": 15525,
  "hetti": 31426,
  "hettino": 38529,
  "hetto": 31600,
  "hev": 40476,
  "hew": 13940,
  "hex": 41511,
  "hey": 17359,
  "hh": 22435,
  "hi": 5109,
  "hib": 3319,
  "hiba": 40750,
  "hibit": 34830,
  "hibition": 23130,
  "hidden": 39547,
  "hide": 38281,
  "hift": 24629,
  "hig": 21685,
  "high": 8951,
  "higher": 46239,
  "highest": 28288,
  "highly": 36976,
  "hill": 12162,
  "hillary": 45328,
  "him": 40586,
  "hin": 25404,
  "hing": 672,
  "hinged": 43551,
  "hip": 1004,
  "hips": 6433,
  "hire": 10597,
  "hirt": 46487,
  "his": 14063,
  "hist": 10461,
  "historic": 27483,
  "historical": 45674,
  "history": 31902,
  "hit": 18958,
  "hitting": 38262,
  "hl": 20451,
  "hler": 40610,
  "hm": 23734,
  "hma": 23556,
  "hn": 20344,
  "hner": 14409,
  "ho": 8410,
  "hod": 2446,
  "hoe": 35270,
  "hof": 29288,
  "hoff": 32884,
  "hog": 32342,
  "hol": 12468,
  "hold": 3039,
  "holder": 14761,
  "holders": 9576,
  "holding": 35730,
  "hole": 14428,
  "holes": 25083,
  "holm": 19242,
  "hom": 29482,
  "home": 13518,
  "hon": 22540,
  "hood": 2639,
  "hook": 41604,
  "hop": 8938,
  "hope": 46098,
  "hopefully": 44871,
  "hops": 20858,
  "hor": 16951,
  "horn": 29140,
  "horse": 27894,
  "host": 5817,
  "hosted": 49252,
  "hot": 8615,
  "hots": 15807,
  "hou": 22331,
  "houn": 41146,
  "hound": 37815,
  "hour": 8427,
  "hours": 30865,
  "house": 4501,
  "houses": 18842,
  "housing": 45424,
  "how": 4665,
  "hower": 26388,
  "hp": 28656,
  "hr": 10998,
  "hra": 33247,
  "hs": 38458,
  "ht": 5520,
  "hta": 48500,
  "htaking": 29067,
  "htar": 36876,
  "htm": 27856,
  "html": 9426,
  "http": 4131,
  "https": 8095,
  "hu": 16903,
  "hua": 27326,
  "hub": 43330,
  "huge": 40600,
  "hum": 15553,
  "human": 10414,
  "humane": 36205,
  "humans": 43418,
  "hun": 22608,
  "hundred": 47019,
  "hung": 37984,
  "hungry": 46748,
  "hunt": 32109,
  "hunter": 47860,
  "hunting": 44244,
  "hur": 49364,
  "hurst": 28850,
  "hus": 6655,
  "husband": 42427,
  "hy": 8151,
  "hya": 39702,
  "hyd": 20586,
  "hyde": 40945,
  "hydro": 46773,
  "hz": 46889,
  "i": 105,
  "iOS": 45863,
  "iPhone": 45638,
  "ia": 529,
  "iability": 8608,
  "iable": 3795,
  "iably": 16556,
  "iac": 9920,
  "iacom": 44946,
  "iad": 46750,
  "iae": 40756,
  "iage": 46266,
  "iago": 24021,
  "iah": 11571,
  "iak": 26327,
  "ial": 494,
  "iale": 49773,
  "ially": 1723,
  "ials": 10445,
  "iam": 3051,
  "iami": 6629,
  "iams": 5194,
  "ian": 646,
  "iana": 7289,
  "iance": 3858,
  "iances": 15236,
  "iane": 42437,
  "iang": 13905,
  "iani": 19700,
  "iann": 27797,
  "ianna": 42106,
  "iannopoulos": 32442,
  "iano": 9187,
  "ians": 1402,
  "iant": 3081,
  "iao": 20480,
  "iar": 11211,
  "iaries": 32892,
  "iary": 12531,
  "ias": 5334,
  "iasco": 33008,
  "iasm": 13593,
  "iat": 6148,
  "iate": 9004,
  "iated": 11617,
  "iates": 30083,
  "iating": 23666,
  "iation": 4281,
  "iations": 38691,
  "iator": 36997,
  "iatric": 18121,
  "iatrics": 38288,
  "iatus": 28797,
  "iaz": 16580,
  "ib": 586,
  "iba": 24821,
  "ibaba": 36433,
  "ibal": 19042,
  "iban": 10223,
  "iband": 25930,
  "ibe": 25516,
  "ibel": 42086,
  "iber": 1820,
  "iberal": 16673,
  "ibi": 26328,
  "ibia": 39023,
  "ibilities": 7486,
  "ibility": 2218,
  "ibl": 10580,
  "ible": 891,
  "ibles": 16982,
  "ibli": 26449,
  "iblical": 16064,
  "ibling": 29034,
  "iblings": 17807,
  "ibliography": 36574,
  "ibly": 3002,
  "ibo": 24412,
  "ibr": 3260,
  "ibrand": 44462,
  "ibrary": 4658,
  "ibu": 35540,
  "ibur": 35995,
  "ibus": 30203,
  "ic": 293,
  "ica": 4081,
  "icable": 19678,
  "icably": 34589,
  "icago": 3931,
  "ical": 592,
  "ically": 1118,
  "icals": 27180,
  "ican": 6347,
  "icans": 19261,
  "icas": 40989,
  "icate": 7668,
  "icated": 3433,
  "icates": 19938,
  "icating": 15901,
  "ication": 4922,
  "ications": 4822,
  "icator": 35630,
  "icc": 40787,
  "ice": 500,
  "iced": 3868,
  "icent": 35405,
  "iceps": 45864,
  "icer": 7213,
  "icers": 14754,
  "ices": 1089,
  "icester": 20156,
  "ich": 483,
  "ichael": 37063,
  "iche": 14992,
  "ichel": 45492,
  "ichen": 49452,
  "icher": 40521,
  "ichever": 24824,
  "ichi": 23070,
  "ichick": 31288,
  "ichita": 33496,
  "icho": 40296,
  "icht": 17943,
  "ici": 4680,
  "icia": 29982,
  "icial": 4222,
  "icially": 23994,
  "icials": 13010,
  "ician": 6288,
  "icians": 4276,
  "iciaries": 25936,
  "iciary": 12589,
  "icidal": 21687,
  "icide": 4982,
  "icides": 15996,
  "iciencies": 49059,
  "iciency": 6716,
  "icient": 3513,
  "icing": 6046,
  "icio": 31953,
  "icion": 38643,
  "icious": 6297,
  "icip": 4346,
  "icipated": 33611,
  "icism": 9445,
  "icit": 3939,
  "icity": 8746,
  "ick": 657,
  "icked": 11001,
  "icken": 7077,
  "icker": 19410,
  "ickering": 48613,
  "ickers": 20338,
  "icket": 8420,
  "ickets": 14912,
  "ickey": 34136,
  "icki": 46348,
  "icking": 8303,
  "ickle": 36181,
  "icks": 3323,
  "ickson": 39042,
  "icky": 20207,
  "icle": 1620,
  "icles": 3089,
  "ico": 3217,
  "icol": 33581,
  "icon": 4829,
  "icone": 36853,
  "icro": 2533,
  "icrosoft": 4270,
  "ics": 877,
  "ict": 701,
  "icted": 5151,
  "icter": 28478,
  "iction": 2949,
  "ictional": 42229,
  "ictionary": 16114,
  "ictions": 8474,
  "ictive": 48972,
  "icts": 12549,
  "icular": 22762,
  "icularly": 19652,
  "iculous": 46963,
  "icult": 2080,
  "icultural": 21993,
  "iculture": 48146,
  "iculty": 43449,
  "icum": 38877,
  "icus": 22346,
  "icut": 12532,
  "icy": 4677,
  "icycle": 33391,
  "icz": 24542,
  "id": 310,
  "ida": 3383,
  "idable": 21359,
  "idad": 22376,
  "idae": 38412,
  "idal": 11110,
  "idan": 28264,
  "idant": 30592,
  "idants": 42226,
  "idas": 24026,
  "idate": 21522,
  "idates": 36671,
  "idation": 29582,
  "idav": 19467,
  "iday": 2216,
  "idays": 13285,
  "idd": 1642,
  "idden": 5260,
  "idders": 43242,
  "idding": 12415,
  "iddish": 47040,
  "iddle": 2317,
  "iddled": 30134,
  "iddles": 28319,
  "iddling": 35182,
  "iddy": 31459,
  "ide": 489,
  "ided": 1381,
  "ideen": 47790,
  "idel": 5723,
  "idelines": 7649,
  "idelity": 22793,
  "iden": 11150,
  "idence": 1669,
  "idences": 42909,
  "idency": 7428,
  "ident": 658,
  "idental": 31227,
  "identally": 20714,
  "idential": 37877,
  "identified": 16537,
  "identity": 49853,
  "idently": 40263,
  "idents": 3030,
  "ideo": 6285,
  "ideon": 43230,
  "ideos": 15949,
  "idepress": 25803,
  "ider": 1505,
  "idered": 3010,
  "idering": 5037,
  "iders": 3910,
  "ides": 1502,
  "ideshow": 34297,
  "idespread": 7913,
  "idge": 3165,
  "idges": 14347,
  "idi": 18078,
  "idian": 25647,
  "idic": 42563,
  "idine": 48071,
  "iding": 2483,
  "idious": 29837,
  "idis": 24994,
  "idity": 17146,
  "idium": 49229,
  "idman": 44041,
  "ido": 15101,
  "idon": 49386,
  "idos": 43383,
  "ids": 2050,
  "idy": 17850,
  "ie": 447,
  "iece": 17758,
  "ied": 824,
  "ieder": 43624,
  "ief": 1904,
  "ieg": 27291,
  "iegel": 29806,
  "iel": 8180,
  "ield": 1218,
  "ielding": 31640,
  "iele": 42971,
  "iello": 43729,
  "iem": 29843,
  "ien": 2000,
  "ience": 1183,
  "ienced": 24490,
  "iences": 8672,
  "iencies": 20467,
  "iency": 41947,
  "ienne": 35410,
  "iens": 10562,
  "ient": 1229,
  "iento": 48021,
  "ients": 2541,
  "ier": 1211,
  "ierce": 9513,
  "iere": 11117,
  "ieri": 24090,
  "ierra": 14772,
  "ierre": 11986,
  "ierrez": 34815,
  "ierry": 48860,
  "iers": 3255,
  "iership": 29184,
  "ies": 438,
  "iese": 47866,
  "iesel": 28049,
  "iest": 6176,
  "iesta": 33594,
  "iet": 1150,
  "ietal": 18867,
  "ieth": 18306,
  "ieties": 8869,
  "iets": 25530,
  "iety": 1842,
  "ieu": 20320,
  "ieux": 44890,
  "iev": 9636,
  "ieval": 14510,
  "ieve": 16355,
  "ieves": 18830,
  "ieving": 35845,
  "iew": 810,
  "iewicz": 40139,
  "if": 367,
  "ifa": 18964,
  "ifact": 40555,
  "ifada": 46416,
  "ifax": 21965,
  "ife": 901,
  "ifer": 7357,
  "ifers": 46808,
  "ifest": 8271,
  "ifestyle": 48813,
  "iff": 731,
  "iffany": 31705,
  "iffe": 19361,
  "iffer": 47505,
  "ifference": 25890,
  "ifferent": 12891,
  "iffin": 33918,
  "iffs": 9630,
  "ifi": 25549,
  "ifiable": 16312,
  "ifiably": 44861,
  "ific": 850,
  "ificant": 16329,
  "ificantly": 39206,
  "ificate": 32734,
  "ification": 3056,
  "ifications": 7336,
  "ificent": 21635,
  "ificial": 29432,
  "ified": 1544,
  "ifier": 10939,
  "ifiers": 16336,
  "ifies": 7697,
  "ifix": 40301,
  "ifle": 19039,
  "iflower": 41195,
  "iform": 7052,
  "ift": 2351,
  "ifted": 20447,
  "ifter": 36134,
  "ifting": 13683,
  "ifton": 44328,
  "ifts": 23514,
  "ifty": 23900,
  "iful": 4432,
  "ifully": 16301,
  "ify": 2073,
  "ifying": 3990,
  "ig": 328,
  "iga": 14570,
  "igail": 45401,
  "igan": 4897,
  "igans": 31307,
  "igar": 49506,
  "igate": 9729,
  "igated": 23786,
  "igating": 25842,
  "igation": 7088,
  "igator": 25725,
  "igators": 21494,
  "ige": 11544,
  "igel": 18793,
  "igen": 7873,
  "igenous": 9836,
  "igent": 43636,
  "iger": 6562,
  "igers": 12885,
  "igg": 6918,
  "igger": 22191,
  "iggins": 18960,
  "iggle": 26242,
  "iggs": 17354,
  "igh": 394,
  "igham": 34380,
  "ighed": 12863,
  "ight": 434,
  "ighted": 36238,
  "ighter": 4961,
  "ighters": 5546,
  "ighth": 10250,
  "ighthouse": 34856,
  "ighting": 11703,
  "ighton": 36987,
  "ights": 2955,
  "ighty": 20068,
  "igi": 29586,
  "igible": 26222,
  "igion": 17252,
  "igious": 9605,
  "igl": 40342,
  "igma": 13161,
  "ign": 553,
  "ignant": 23320,
  "igne": 40028,
  "igned": 4123,
  "igning": 40933,
  "ignment": 20269,
  "ignon": 48194,
  "ignt": 13891,
  "ignty": 14084,
  "igo": 18374,
  "igon": 43100,
  "igr": 3154,
  "igrams": 49367,
  "igrant": 8201,
  "igrants": 4696,
  "igrate": 36307,
  "igrated": 30484,
  "igrating": 47364,
  "igration": 3672,
  "igree": 34584,
  "igroup": 33340,
  "igs": 16648,
  "igt": 48072,
  "igue": 16480,
  "iguous": 44290,
  "igure": 6910,
  "ih": 4616,
  "ihad": 8294,
  "ihan": 38145,
  "ihanna": 42997,
  "ihar": 28466,
  "ihil": 22571,
  "ihilation": 37336,
  "ii": 6962,
  "iii": 29059,
  "ij": 2540,
  "ija": 30529,
  "ije": 40582,
  "iji": 23394,
  "ijing": 8758,
  "ijk": 39784,
  "ijn": 42095,
  "ijuana": 4047,
  "ik": 1243,
  "ika": 9637,
  "ike": 509,
  "iked": 22493,
  "iken": 33930,
  "iker": 18152,
  "ikers": 22936,
  "ikes": 8186,
  "ikh": 10529,
  "ikhail": 31712,
  "iki": 9555,
  "iking": 14186,
  "ikk": 31997,
  "iko": 17630,
  "ikt": 46579,
  "iku": 37887,
  "il": 350,
  "ila": 8928,
  "iland": 37862,
  "ilant": 31863,
  "ilar": 1905,
  "ilarly": 7273,
  "ilate": 41715,
  "ilated": 30123,
  "ilater": 30108,
  "ilateral": 12664,
  "ilaterally": 30721,
  "ilation": 11148,
  "ild": 692,
  "ilda": 28628,
  "ilde": 40004,
  "ilded": 47371,
  "ile": 583,
  "ileaks": 20894,
  "iled": 3971,
  "ilee": 36737,
  "ileen": 44123,
  "ilem": 18425,
  "iler": 7688,
  "ilers": 18165,
  "iles": 3435,
  "iley": 8999,
  "ili": 2311,
  "ilia": 16993,
  "ilial": 42825,
  "ilian": 31713,
  "iliar": 4504,
  "iliary": 31618,
  "iliated": 26311,
  "iliation": 13887,
  "ilib": 21968,
  "ilibrium": 24167,
  "ilic": 45015,
  "ilies": 3525,
  "ilight": 17823,
  "iling": 4598,
  "ilingual": 31492,
  "ilion": 26847,
  "ilipp": 7807,
  "ilit": 5902,
  "ilitar": 48733,
  "ilitarian": 39941,
  "ilitary": 15946,
  "ilitating": 29941,
  "ilitation": 17690,
  "ilities": 2536,
  "ility": 914,
  "ilk": 49918,
  "ill": 355,
  "illa": 5159,
  "illac": 33692,
  "illan": 42180,
  "illance": 6110,
  "illard": 27837,
  "illary": 49728,
  "illas": 22611,
  "ille": 3156,
  "illed": 3237,
  "illegal": 37030,
  "iller": 4546,
  "illermo": 43003,
  "illery": 14010,
  "illes": 20230,
  "illi": 41634,
  "illian": 31859,
  "illiant": 39788,
  "illin": 38860,
  "illing": 4275,
  "illion": 949,
  "illions": 22672,
  "illo": 13745,
  "illon": 20609,
  "ills": 2637,
  "illusion": 29050,
  "illy": 6078,
  "ilo": 28946,
  "ilogy": 18423,
  "ilon": 37731,
  "ilot": 23914,
  "ils": 5048,
  "ilst": 11426,
  "ilt": 2215,
  "ilton": 7730,
  "ilty": 5891,
  "ilus": 39617,
  "ily": 805,
  "ilyn": 32459,
  "im": 321,
  "ima": 7594,
  "imag": 20070,
  "image": 13331,
  "images": 25750,
  "imagin": 30318,
  "imal": 5090,
  "iman": 22428,
  "imar": 43599,
  "imate": 1736,
  "imated": 15531,
  "imately": 3107,
  "imates": 27283,
  "imating": 34964,
  "imation": 21748,
  "imb": 4947,
  "imbabwe": 19853,
  "imble": 33680,
  "imbledon": 34117,
  "ime": 523,
  "imedia": 18633,
  "imen": 19563,
  "imens": 12580,
  "imensional": 16582,
  "iment": 2937,
  "imental": 16942,
  "imentary": 35194,
  "iments": 6711,
  "imeo": 40053,
  "imer": 19014,
  "imes": 956,
  "imet": 27250,
  "imeter": 15849,
  "imeters": 29996,
  "imetres": 41237,
  "img": 17313,
  "imgur": 43105,
  "imi": 25737,
  "imin": 3140,
  "iminal": 3395,
  "iminals": 41718,
  "imination": 18627,
  "imir": 10940,
  "imity": 17723,
  "imize": 10498,
  "imm": 8102,
  "immer": 10723,
  "immers": 31208,
  "immigrant": 32327,
  "immigration": 36078,
  "imming": 26691,
  "immune": 39795,
  "imo": 22816,
  "imon": 25413,
  "imony": 37075,
  "imore": 7967,
  "imos": 43953,
  "imoto": 40788,
  "imov": 35910,
  "imp": 7297,
  "impact": 46390,
  "imperial": 41803,
  "impl": 32341,
  "imple": 47882,
  "import": 15197,
  "important": 21531,
  "imposed": 30036,
  "impro": 30367,
  "imps": 25577,
  "impse": 16454,
  "ims": 12235,
  "imson": 25224,
  "imum": 3518,
  "in": 259,
  "ina": 1339,
  "inal": 1348,
  "inally": 3265,
  "inals": 9397,
  "inance": 13372,
  "inant": 44875,
  "inar": 45258,
  "inary": 3367,
  "inas": 21819,
  "inate": 14445,
  "inated": 3876,
  "inating": 9162,
  "ination": 1899,
  "inational": 20778,
  "inations": 7204,
  "inator": 46181,
  "inators": 45663,
  "inberg": 33542,
  "inburgh": 18857,
  "inc": 1798,
  "incarn": 36957,
  "ince": 881,
  "incent": 35881,
  "inch": 8709,
  "incher": 44776,
  "inches": 43743,
  "incial": 11447,
  "incible": 38761,
  "incidentally": 49299,
  "incinn": 12678,
  "incinnati": 12765,
  "include": 27143,
  "including": 8405,
  "inclusive": 47419,
  "inco": 47455,
  "incoln": 10333,
  "income": 10662,
  "incre": 22879,
  "increasing": 34161,
  "inct": 4555,
  "inction": 8921,
  "inctions": 28588,
  "ind": 537,
  "inda": 20148,
  "indal": 31195,
  "indeer": 44415,
  "independence": 48175,
  "independent": 31458,
  "inder": 7658,
  "inders": 29118,
  "index": 16095,
  "inding": 7354,
  "individual": 42812,
  "indle": 40067,
  "indler": 46965,
  "induced": 19080,
  "inducing": 40144,
  "indust": 18946,
  "industrial": 24385,
  "industry": 40060,
  "ine": 514,
  "inea": 18504,
  "ined": 1375,
  "inee": 47012,
  "inejad": 33646,
  "inel": 19925,
  "inelli": 35526,
  "inem": 6483,
  "inement": 19374,
  "inen": 33726,
  "inence": 29750,
  "inent": 5417,
  "inental": 18662,
  "iner": 7103,
  "ineries": 37590,
  "iners": 18236,
  "inery": 14630,
  "ines": 1090,
  "inese": 3247,
  "iness": 1208,
  "inet": 45098,
  "inez": 15386,
  "inf": 8779,
  "infect": 30316,
  "infeld": 36053,
  "inflamm": 31632,
  "inflammatory": 34554,
  "inflation": 43315,
  "inflicted": 44222,
  "influ": 40222,
  "info": 15645,
  "inform": 42882,
  "information": 15712,
  "informed": 28792,
  "ing": 278,
  "inge": 10746,
  "inged": 29677,
  "ingen": 29419,
  "inger": 4034,
  "ingers": 38447,
  "inges": 23781,
  "ingham": 19874,
  "inging": 13095,
  "ingle": 17137,
  "ingling": 45339,
  "ingly": 4113,
  "ingo": 28719,
  "ingrich": 17557,
  "ings": 654,
  "ington": 9146,
  "ingu": 6851,
  "inguishable": 35935,
  "inguished": 42360,
  "ingwood": 49271,
  "inho": 15405,
  "ini": 5463,
  "inia": 46173,
  "inian": 19227,
  "inians": 44876,
  "inic": 43952,
  "inical": 39174,
  "ining": 3174,
  "inion": 24432,
  "inis": 15541,
  "inished": 29878,
  "init": 25994,
  "inite": 11218,
  "initely": 12452,
  "initial": 34607,
  "inition": 25833,
  "inity": 7292,
  "ink": 667,
  "inka": 45448,
  "inke": 30466,
  "inker": 26488,
  "inki": 36528,
  "inking": 7747,
  "inkle": 20261,
  "inks": 3072,
  "inky": 32404,
  "inn": 3825,
  "innacle": 34503,
  "innamon": 24397,
  "inner": 17846,
  "inness": 24260,
  "inney": 44991,
  "inning": 32764,
  "innon": 33332,
  "ino": 2811,
  "inoa": 43941,
  "inoids": 30662,
  "inois": 8206,
  "inos": 14105,
  "inosaur": 44249,
  "inous": 26918,
  "inoza": 47464,
  "input": 25293,
  "inqu": 20105,
  "ins": 1058,
  "inse": 45990,
  "insert": 38878,
  "inside": 49265,
  "insk": 33108,
  "inski": 19013,
  "insky": 20098,
  "inson": 6911,
  "inspired": 20197,
  "inst": 10958,
  "install": 26876,
  "installed": 38598,
  "instead": 37661,
  "instein": 10090,
  "insula": 14265,
  "insurgency": 45665,
  "int": 596,
  "intage": 15715,
  "integr": 18799,
  "intellectual": 45577,
  "intelligence": 26646,
  "intend": 7055,
  "intendent": 18785,
  "intendo": 8471,
  "intensity": 47678,
  "intensive": 30637,
  "intention": 33966,
  "intentioned": 48423,
  "inter": 4797,
  "interest": 7951,
  "interested": 29910,
  "interesting": 43607,
  "intern": 26480,
  "internal": 45613,
  "international": 43048,
  "interpret": 24865,
  "interrupted": 42029,
  "inters": 20516,
  "intestinal": 41962,
  "inth": 22362,
  "into": 19842,
  "inton": 1936,
  "intosh": 37543,
  "introdu": 25863,
  "ints": 42865,
  "intuitive": 33777,
  "inty": 45352,
  "inus": 48381,
  "inv": 19275,
  "invent": 38378,
  "invest": 21034,
  "investment": 40566,
  "involved": 38493,
  "inx": 32933,
  "iny": 3823,
  "inyl": 19661,
  "io": 976,
  "ioch": 47823,
  "iod": 2277,
  "iol": 1579,
  "iola": 23830,
  "iolet": 22172,
  "iological": 16220,
  "iologist": 25333,
  "iology": 13854,
  "ion": 297,
  "iona": 31938,
  "ionable": 46119,
  "ionage": 19640,
  "ional": 1550,
  "ionally": 5894,
  "ione": 8900,
  "ioned": 14110,
  "ioneered": 32129,
  "ioni": 43157,
  "ionic": 34540,
  "ions": 507,
  "iop": 14187,
  "ior": 1467,
  "iors": 11748,
  "ios": 4523,
  "iose": 45010,
  "iosis": 45796,
  "iosity": 13696,
  "iot": 5265,
  "iotic": 27849,
  "iotics": 44405,
  "iots": 13605,
  "iott": 18151,
  "ious": 689,
  "iously": 1683,
  "iov": 20042,
  "iovascular": 23386,
  "iox": 11470,
  "ioxide": 13694,
  "ip": 560,
  "ipal": 23876,
  "ipe": 4311,
  "iped": 41561,
  "ipedia": 10604,
  "ipeg": 17203,
  "ipel": 35241,
  "ipelago": 40253,
  "iper": 13371,
  "ipers": 28654,
  "ipes": 24439,
  "iph": 13587,
  "iphany": 46756,
  "iphate": 27772,
  "ipher": 12202,
  "ipiac": 41477,
  "iping": 32323,
  "ipl": 6773,
  "iple": 2593,
  "iples": 31276,
  "iplier": 43379,
  "ipment": 30187,
  "ipp": 4591,
  "ipped": 4462,
  "ipper": 29967,
  "ippers": 26707,
  "ippi": 11039,
  "ipping": 5454,
  "ipple": 19984,
  "ipples": 33586,
  "ippy": 47793,
  "ipras": 38497,
  "ips": 2714,
  "ipse": 16235,
  "ipt": 14985,
  "ipur": 39671,
  "iq": 35331,
  "iqu": 1628,
  "ique": 2417,
  "iqued": 45461,
  "iqueness": 42167,
  "iques": 6372,
  "iquette": 40346,
  "ir": 341,
  "ira": 8970,
  "irable": 13158,
  "iral": 28112,
  "iration": 18163,
  "irc": 2035,
  "ircraft": 31738,
  "ird": 1389,
  "irds": 6267,
  "ire": 580,
  "irect": 1066,
  "irection": 20167,
  "ired": 1248,
  "irement": 34321,
  "iren": 47868,
  "ires": 2657,
  "irez": 25116,
  "irgin": 4447,
  "iri": 14829,
  "irie": 26999,
  "iries": 17747,
  "iring": 3740,
  "iris": 37055,
  "irk": 13732,
  "irl": 2132,
  "irled": 48633,
  "irlf": 9348,
  "irlfriend": 9366,
  "irlines": 15786,
  "irling": 23026,
  "irm": 2450,
  "irmation": 44292,
  "irmed": 15669,
  "irming": 26663,
  "irms": 7145,
  "iro": 6893,
  "iron": 1837,
  "iropr": 48053,
  "irre": 36667,
  "irrel": 24239,
  "irs": 11746,
  "irst": 649,
  "irsty": 25467,
  "irt": 2422,
  "irted": 39998,
  "irteen": 21542,
  "irth": 3522,
  "irties": 47166,
  "irting": 33352,
  "irts": 9136,
  "irtual": 14580,
  "irty": 6145,
  "irus": 18519,
  "iry": 8445,
  "is": 271,
  "isa": 9557,
  "isable": 42032,
  "isal": 30019,
  "isals": 46002,
  "isan": 7265,
  "isance": 30122,
  "isans": 21254,
  "isation": 4835,
  "isations": 31928,
  "isc": 2407,
  "iscal": 7361,
  "iscer": 49934,
  "isch": 23299,
  "ische": 45495,
  "ischer": 21045,
  "isco": 18384,
  "isconsin": 7369,
  "iscopal": 37326,
  "iscovered": 35328,
  "isd": 10613,
  "isdom": 10175,
  "ise": 741,
  "iseach": 48698,
  "ised": 1320,
  "isel": 44498,
  "isen": 12827,
  "iser": 5043,
  "iseries": 38418,
  "isers": 13160,
  "ises": 2765,
  "iseum": 33139,
  "isexual": 18724,
  "isf": 4924,
  "ish": 707,
  "isha": 19283,
  "ishable": 29448,
  "isham": 49454,
  "ished": 1292,
  "isher": 5448,
  "ishers": 10945,
  "ishes": 5879,
  "ishi": 24723,
  "ishing": 2970,
  "ishly": 27074,
  "ishment": 19687,
  "ishop": 9476,
  "ishops": 19973,
  "isi": 19316,
  "isible": 13775,
  "isin": 41661,
  "isine": 24102,
  "ising": 1540,
  "ision": 1104,
  "isions": 3228,
  "isite": 19151,
  "isites": 48598,
  "isition": 10358,
  "isitions": 26540,
  "isive": 11551,
  "isk": 9688,
  "isky": 42868,
  "isl": 2612,
  "islav": 47235,
  "isle": 18040,
  "isly": 30793,
  "islyak": 42516,
  "ism": 923,
  "isman": 22585,
  "ismo": 33716,
  "isms": 11578,
  "isner": 42830,
  "iso": 30048,
  "isode": 11654,
  "isodes": 38543,
  "isoft": 28111,
  "isol": 30243,
  "ison": 1605,
  "isons": 9173,
  "isp": 8041,
  "ispens": 30054,
  "ispensable": 31456,
  "ispers": 33666,
  "isphere": 19666,
  "ispr": 49414,
  "iss": 761,
  "issa": 14118,
  "issan": 21003,
  "issance": 13948,
  "isse": 19560,
  "ission": 1489,
  "issioned": 39928,
  "issions": 4774,
  "isson": 28601,
  "issors": 33960,
  "issue": 22943,
  "issued": 32234,
  "issues": 41386,
  "ist": 387,
  "ista": 11688,
  "istair": 46552,
  "istan": 2886,
  "istance": 11190,
  "istant": 10392,
  "istar": 40735,
  "istas": 31149,
  "iste": 36686,
  "isted": 5247,
  "istence": 22383,
  "istent": 7708,
  "ister": 1569,
  "isters": 5780,
  "istic": 2413,
  "istical": 19982,
  "istically": 14734,
  "istics": 4457,
  "istine": 28580,
  "isting": 8597,
  "istle": 10798,
  "iston": 33342,
  "istries": 27390,
  "istro": 48086,
  "istry": 4127,
  "ists": 925,
  "isty": 45614,
  "isure": 21052,
  "isy": 23892,
  "it": 270,
  "ita": 5861,
  "itability": 33688,
  "itable": 4714,
  "itably": 12717,
  "itage": 8846,
  "ital": 1230,
  "itals": 7471,
  "itan": 19626,
  "itans": 49326,
  "itant": 22860,
  "itar": 7513,
  "itarian": 6931,
  "itars": 28657,
  "itary": 9440,
  "itas": 20057,
  "itat": 42174,
  "itate": 12305,
  "itated": 13714,
  "itates": 36878,
  "itating": 21348,
  "itation": 3561,
  "itational": 18905,
  "itations": 16487,
  "itative": 13250,
  "itatively": 45551,
  "itators": 43725,
  "itbart": 13231,
  "itch": 3200,
  "itched": 26732,
  "itches": 16135,
  "ite": 574,
  "itech": 48783,
  "itect": 5114,
  "ited": 832,
  "itely": 3816,
  "item": 21011,
  "itement": 11363,
  "items": 46326,
  "itent": 47261,
  "iter": 2601,
  "iterranean": 16174,
  "ites": 2729,
  "itez": 45052,
  "ith": 343,
  "ithe": 28454,
  "ither": 1621,
  "ithing": 48290,
  "ithmetic": 30706,
  "ithner": 41321,
  "ithub": 15223,
  "iti": 8280,
  "itia": 41300,
  "itial": 14581,
  "itially": 18008,
  "itiated": 44295,
  "itic": 32415,
  "ities": 849,
  "itim": 46919,
  "itimate": 24433,
  "itime": 18542,
  "iting": 1752,
  "ition": 660,
  "itional": 1911,
  "itionally": 8413,
  "itions": 1833,
  "itious": 23972,
  "itiously": 46625,
  "itis": 14360,
  "itism": 46567,
  "itive": 1766,
  "itiveness": 25522,
  "itives": 19437,
  "itivity": 12219,
  "itiz": 2654,
  "itized": 38965,
  "itizen": 39057,
  "itizens": 29832,
  "itizing": 35661,
  "itled": 32412,
  "itness": 3592,
  "itnesses": 20066,
  "ito": 10028,
  "itol": 9554,
  "iton": 42950,
  "itor": 3495,
  "itoring": 30428,
  "itors": 6154,
  "itos": 44260,
  "itous": 17867,
  "its": 934,
  "itsch": 38864,
  "itsky": 44943,
  "itsu": 22975,
  "itt": 674,
  "itta": 46163,
  "ittal": 34528,
  "ittance": 42743,
  "itte": 24036,
  "itted": 2184,
  "ittee": 2619,
  "ittees": 14299,
  "itten": 2640,
  "ittens": 38322,
  "itter": 9144,
  "ittered": 28392,
  "ittering": 44803,
  "itters": 47437,
  "itting": 2449,
  "ittle": 1232,
  "itto": 36263,
  "itton": 38711,
  "itty": 11604,
  "itu": 32904,
  "itual": 9598,
  "itud": 31384,
  "itude": 4096,
  "itudes": 9811,
  "itudinal": 34378,
  "iture": 9876,
  "itures": 21617,
  "itus": 20308,
  "itute": 3430,
  "itutes": 15354,
  "itution": 2544,
  "itutional": 4911,
  "ity": 412,
  "itz": 4903,
  "itzer": 18309,
  "itÃ©": 34002,
  "iu": 20001,
  "ium": 1708,
  "ius": 4716,
  "iuses": 39539,
  "iv": 460,
  "iva": 13063,
  "ivable": 20867,
  "ivably": 39456,
  "ival": 2379,
  "ivalence": 49828,
  "ivalent": 30100,
  "ivals": 8698,
  "ivan": 12215,
  "ivari": 45177,
  "ivas": 27732,
  "ivate": 43662,
  "ivated": 26773,
  "ivating": 34174,
  "ivation": 37556,
  "ive": 421,
  "ived": 1543,
  "ivel": 44472,
  "ively": 2154,
  "iven": 1453,
  "iveness": 6672,
  "iver": 1727,
  "ivered": 5684,
  "ivering": 37423,
  "iverpool": 8546,
  "ivers": 1121,
  "iversal": 26805,
  "iversary": 8276,
  "iverse": 4013,
  "iversity": 1421,
  "ivery": 23500,
  "ives": 1025,
  "ivia": 19403,
  "ivic": 13582,
  "ivid": 1776,
  "ividual": 1939,
  "ivier": 29924,
  "ivik": 49877,
  "ivil": 2211,
  "iving": 1370,
  "ivision": 31842,
  "ivism": 21835,
  "ivist": 23885,
  "ivists": 32061,
  "ivities": 23469,
  "ivity": 3629,
  "ivo": 21956,
  "ivor": 23258,
  "ivors": 43779,
  "ivot": 48576,
  "iw": 33240,
  "ix": 917,
  "ixed": 8770,
  "ixel": 11285,
  "ixels": 17185,
  "ixir": 39139,
  "ixon": 10316,
  "ixt": 6873,
  "ixties": 39446,
  "ixture": 10205,
  "ixtures": 24405,
  "ixty": 19919,
  "iy": 8731,
  "iya": 23663,
  "iyah": 44980,
  "iz": 543,
  "iza": 24480,
  "izabeth": 9154,
  "izable": 13173,
  "izard": 12701,
  "izards": 15189,
  "izarre": 10817,
  "ization": 1614,
  "izations": 11171,
  "ize": 1210,
  "ized": 1158,
  "izen": 36479,
  "izens": 37191,
  "izer": 9753,
  "izers": 16427,
  "izes": 4694,
  "izing": 2759,
  "izo": 44704,
  "izon": 7742,
  "izons": 28869,
  "izont": 14310,
  "izontal": 47720,
  "izoph": 18491,
  "izophren": 18682,
  "izu": 47064,
  "izz": 6882,
  "izza": 10112,
  "izzard": 16552,
  "izzer": 49920,
  "izzle": 40163,
  "izzy": 35827,
  "iÃ¨re": 49227,
  "iÃ³n": 18246,
  "iÄĩ": 29900,
  "j": 106,
  "ja": 8450,
  "jack": 26209,
  "jad": 24461,
  "jah": 23432,
  "jal": 45594,
  "jam": 38071,
  "jamin": 11561,
  "jan": 12635,
  "jandro": 38743,
  "jango": 46576,
  "jani": 43540,
  "jans": 42528,
  "jar": 13730,
  "jas": 29142,
  "jav": 31850,
  "java": 23281,
  "jay": 31831,
  "je": 16197,
  "ject": 786,
  "jected": 34579,
  "jection": 32281,
  "jee": 28958,
  "jen": 42918,
  "jer": 38199,
  "jerk": 44365,
  "jet": 25961,
  "jev": 49718,
  "ji": 9503,
  "jiang": 31413,
  "jin": 28916,
  "jit": 45349,
  "jitsu": 49466,
  "jo": 8050,
  "job": 29209,
  "jobs": 46229,
  "john": 33753,
  "join": 28781,
  "joined": 49713,
  "joining": 39626,
  "jon": 48434,
  "journal": 23280,
  "joy": 2723,
  "jp": 49682,
  "jpg": 17091,
  "jri": 29470,
  "jriwal": 30136,
  "js": 9904,
  "json": 24055,
  "ju": 17254,
  "jud": 9291,
  "judge": 38802,
  "judicial": 38111,
  "jug": 30693,
  "jun": 45281,
  "junk": 45274,
  "jured": 38211,
  "juries": 44345,
  "jury": 24015,
  "just": 3569,
  "justed": 22899,
  "justice": 28564,
  "juven": 34776,
  "k": 107,
  "ka": 5234,
  "kah": 47900,
  "kai": 44972,
  "kamp": 33513,
  "kan": 26643,
  "kar": 17670,
  "kara": 19908,
  "kart": 45378,
  "kas": 44707,
  "kat": 48915,
  "kay": 6244,
  "kaya": 35335,
  "ke": 361,
  "ked": 7451,
  "kee": 10071,
  "keep": 8737,
  "keeper": 12883,
  "keepers": 20085,
  "keeping": 17832,
  "kees": 13672,
  "kef": 25658,
  "kefeller": 26097,
  "kel": 6627,
  "keley": 11194,
  "kell": 16757,
  "ken": 3761,
  "kens": 15023,
  "kept": 38151,
  "ker": 7434,
  "kered": 26920,
  "kernel": 44393,
  "kers": 16839,
  "kes": 11259,
  "ket": 5657,
  "ketch": 23344,
  "key": 2497,
  "keye": 42619,
  "keys": 14115,
  "kg": 13997,
  "kh": 14924,
  "khaz": 47848,
  "ki": 4062,
  "kick": 23470,
  "kid": 48927,
  "kids": 41412,
  "kie": 45639,
  "kies": 37130,
  "kil": 26508,
  "kill": 15002,
  "killed": 39859,
  "killer": 34771,
  "killers": 36635,
  "killing": 36720,
  "kin": 4950,
  "kind": 11672,
  "king": 9270,
  "kins": 4687,
  "kinson": 21914,
  "kirk": 45608,
  "kish": 23523,
  "kit": 18928,
  "kl": 48986,
  "km": 12465,
  "kn": 16625,
  "knee": 49960,
  "knit": 40805,
  "know": 16155,
  "knowledge": 42429,
  "known": 4360,
  "ko": 6997,
  "kok": 27068,
  "kom": 40711,
  "kos": 37253,
  "kov": 18926,
  "kowski": 21124,
  "krit": 40946,
  "ks": 589,
  "ksen": 42014,
  "ksh": 45064,
  "kson": 32360,
  "kt": 28653,
  "ktop": 23135,
  "ku": 29033,
  "kus": 40579,
  "kward": 11620,
  "ky": 2778,
  "l": 108,
  "la": 4589,
  "lab": 26474,
  "label": 26043,
  "labor": 46458,
  "lace": 32178,
  "lack": 44581,
  "lad": 8272,
  "lade": 42346,
  "laden": 32020,
  "ladimir": 48346,
  "lag": 32733,
  "lage": 46645,
  "lah": 8602,
  "lahoma": 8943,
  "laim": 11292,
  "lain": 21439,
  "lake": 26870,
  "laki": 45097,
  "lam": 2330,
  "lamation": 43430,
  "lamb": 41551,
  "lambda": 44687,
  "lamm": 27949,
  "lan": 8025,
  "lance": 18139,
  "land": 994,
  "lander": 20722,
  "landers": 28793,
  "landish": 35442,
  "lando": 9834,
  "lands": 4469,
  "lane": 25571,
  "lang": 23249,
  "language": 18346,
  "lant": 4402,
  "lantic": 21502,
  "lap": 36665,
  "lar": 26147,
  "lared": 38423,
  "larg": 15453,
  "large": 11032,
  "largest": 20890,
  "las": 13150,
  "lash": 13755,
  "lass": 16013,
  "lasses": 27983,
  "last": 12426,
  "lasting": 27123,
  "lat": 19157,
  "latan": 49473,
  "late": 21976,
  "lated": 23948,
  "later": 28909,
  "lation": 15821,
  "lau": 43508,
  "laughs": 23528,
  "laughter": 24268,
  "launch": 36672,
  "launched": 49158,
  "laus": 33729,
  "lav": 38078,
  "lavery": 47624,
  "law": 6241,
  "laws": 26457,
  "lay": 15480,
  "layer": 35309,
  "layout": 42905,
  "lb": 25866,
  "lbs": 36061,
  "ld": 333,
  "lda": 19474,
  "lder": 7201,
  "ldom": 23649,
  "ldon": 22717,
  "le": 295,
  "lead": 25291,
  "leader": 25157,
  "leaders": 29739,
  "leading": 11074,
  "leaf": 37344,
  "league": 17017,
  "leaguered": 40598,
  "lean": 37941,
  "leaning": 20901,
  "leans": 10295,
  "lear": 2508,
  "learn": 41773,
  "learning": 34262,
  "lease": 3639,
  "leased": 15780,
  "leases": 35343,
  "leave": 45927,
  "leck": 30183,
  "lect": 809,
  "lected": 12144,
  "lectic": 36695,
  "lection": 1449,
  "lections": 30980,
  "lectric": 47279,
  "led": 1002,
  "ledge": 3038,
  "ledged": 29320,
  "ledon": 33335,
  "lee": 9631,
  "leen": 17448,
  "leep": 10847,
  "lees": 47757,
  "left": 9756,
  "leg": 1337,
  "legal": 16294,
  "legate": 38305,
  "legates": 28520,
  "lege": 2458,
  "legged": 36639,
  "legitimate": 46940,
  "leground": 23048,
  "lehem": 37810,
  "leigh": 37702,
  "lein": 30417,
  "leine": 43635,
  "lem": 14168,
  "lema": 46285,
  "leman": 36699,
  "lemen": 46875,
  "lement": 1831,
  "lementary": 14031,
  "lements": 3790,
  "len": 14270,
  "lene": 26036,
  "leneck": 39263,
  "length": 16379,
  "ler": 1801,
  "lers": 7397,
  "lert": 43543,
  "les": 826,
  "lesh": 11795,
  "lesi": 42393,
  "lesias": 45844,
  "less": 1259,
  "lessly": 8090,
  "lessness": 16140,
  "lest": 32861,
  "let": 1698,
  "letcher": 25072,
  "lete": 7842,
  "leted": 10984,
  "letes": 30448,
  "leth": 48545,
  "lethal": 43726,
  "letico": 38845,
  "letion": 24230,
  "leton": 12366,
  "lets": 5310,
  "lett": 14862,
  "lette": 20521,
  "letter": 14432,
  "leum": 18710,
  "lev": 2394,
  "levant": 13923,
  "levard": 17953,
  "level": 4413,
  "leveland": 8328,
  "levision": 3895,
  "lewood": 44108,
  "lex": 2652,
  "ley": 1533,
  "leys": 20514,
  "lez": 34684,
  "lf": 1733,
  "li": 948,
  "lia": 21800,
  "liable": 23265,
  "liament": 4158,
  "liance": 39661,
  "lib": 13305,
  "liber": 19954,
  "liberal": 27235,
  "library": 47601,
  "lic": 636,
  "lication": 15686,
  "lications": 24626,
  "licensed": 32230,
  "lich": 23049,
  "licia": 34023,
  "lick": 3945,
  "lickr": 14966,
  "lict": 20009,
  "licted": 26790,
  "liction": 43398,
  "lid": 47626,
  "lide": 23683,
  "lides": 47566,
  "lie": 13871,
  "lied": 11518,
  "lient": 14700,
  "lier": 2107,
  "liers": 15852,
  "lies": 6929,
  "liest": 10063,
  "lif": 30821,
  "life": 5650,
  "lifer": 39922,
  "liferation": 42301,
  "lift": 28004,
  "lifting": 30875,
  "lig": 4872,
  "liga": 27971,
  "light": 2346,
  "lighting": 40612,
  "lightly": 33546,
  "lights": 14040,
  "lihood": 10660,
  "lik": 30789,
  "like": 2256,
  "likely": 33745,
  "lim": 2253,
  "lime": 34781,
  "liminary": 12277,
  "limit": 39733,
  "limited": 10682,
  "limits": 46360,
  "lin": 2910,
  "line": 1319,
  "linear": 29764,
  "lined": 9458,
  "liner": 21691,
  "liners": 26124,
  "lines": 5739,
  "liness": 26271,
  "ling": 1321,
  "linger": 37558,
  "lings": 20797,
  "lington": 14809,
  "lining": 16574,
  "link": 11232,
  "linked": 24470,
  "links": 34433,
  "lins": 21100,
  "linson": 43267,
  "linux": 32005,
  "lio": 30751,
  "lip": 45717,
  "lipped": 47362,
  "liqu": 32700,
  "lique": 36808,
  "liquid": 41215,
  "lis": 25948,
  "lisberger": 40623,
  "lish": 2285,
  "list": 6938,
  "listed": 17195,
  "lists": 23851,
  "lit": 18476,
  "lite": 42805,
  "liter": 16199,
  "literally": 36144,
  "little": 30073,
  "lium": 28089,
  "liv": 18068,
  "live": 13574,
  "lived": 19991,
  "liver": 12227,
  "living": 28241,
  "ll": 298,
  "lla": 9866,
  "llah": 17929,
  "llan": 40064,
  "lled": 2678,
  "llen": 41233,
  "ller": 5621,
  "llers": 12649,
  "lli": 12110,
  "lling": 2036,
  "llington": 22018,
  "llo": 13656,
  "llor": 11235,
  "lls": 7014,
  "llular": 35078,
  "lly": 13100,
  "ln": 22739,
  "lo": 5171,
  "load": 2870,
  "loaded": 19240,
  "loader": 38196,
  "loading": 28342,
  "loads": 41921,
  "lob": 34606,
  "loc": 25398,
  "local": 16238,
  "localhost": 39491,
  "location": 38642,
  "lock": 7363,
  "locked": 28284,
  "locks": 38058,
  "loe": 29749,
  "log": 7856,
  "login": 48301,
  "loid": 31125,
  "lon": 15800,
  "long": 6014,
  "loo": 26796,
  "look": 5237,
  "looking": 10987,
  "loop": 28038,
  "lop": 42312,
  "lopp": 27056,
  "lor": 4739,
  "lord": 24983,
  "lords": 37391,
  "lore": 32657,
  "los": 36084,
  "loss": 24284,
  "lost": 30650,
  "lot": 27645,
  "lov": 32612,
  "love": 22980,
  "loved": 44457,
  "loving": 28296,
  "low": 8825,
  "lower": 24611,
  "lp": 913,
  "ls": 10459,
  "lt": 2447,
  "ltry": 29199,
  "lu": 11968,
  "luck": 40169,
  "lud": 749,
  "lude": 13677,
  "luded": 17289,
  "ludes": 21460,
  "ludge": 45790,
  "luding": 6646,
  "luence": 40158,
  "luent": 24161,
  "lund": 31783,
  "lus": 26804,
  "lusconi": 36285,
  "lusion": 47567,
  "lux": 45873,
  "lv": 6927,
  "lves": 27793,
  "lvester": 46187,
  "ly": 306,
  "lying": 3245,
  "lymp": 5512,
  "lyn": 5534,
  "lynn": 10865,
  "lyt": 47693,
  "lÃ©": 43689,
  "m": 109,
  "mAh": 41348,
  "mL": 42838,
  "ma": 3057,
  "mac": 30433,
  "machine": 35543,
  "mad": 8515,
  "made": 9095,
  "mag": 25399,
  "mage": 25031,
  "magic": 28538,
  "maid": 23520,
  "mail": 4860,
  "mailed": 48052,
  "mails": 20832,
  "main": 12517,
  "maine": 43681,
  "mainly": 48480,
  "major": 19385,
  "majority": 28352,
  "make": 18559,
  "maker": 8743,
  "makers": 4972,
  "makes": 44618,
  "making": 7686,
  "mal": 8243,
  "mala": 25428,
  "male": 26891,
  "malink": 26717,
  "mallow": 39410,
  "man": 755,
  "mana": 34859,
  "managed": 35432,
  "management": 23641,
  "manager": 45641,
  "mand": 19427,
  "manent": 41829,
  "mani": 44627,
  "mania": 26385,
  "mann": 7721,
  "manned": 23235,
  "mans": 9375,
  "manship": 23777,
  "manuel": 14551,
  "manufact": 48040,
  "many": 19075,
  "map": 12081,
  "maps": 38776,
  "mar": 3827,
  "mare": 12196,
  "mares": 27358,
  "marg": 38407,
  "margin": 49241,
  "marijuana": 47971,
  "marine": 40045,
  "mark": 4008,
  "marked": 21462,
  "market": 9848,
  "markets": 28434,
  "marks": 13986,
  "marriage": 37846,
  "married": 28569,
  "mart": 12540,
  "mary": 8463,
  "mas": 5078,
  "mass": 20336,
  "massive": 37197,
  "master": 13072,
  "masters": 41650,
  "mat": 9281,
  "match": 20982,
  "matched": 30528,
  "mate": 7922,
  "material": 46675,
  "mates": 5957,
  "math": 9824,
  "matic": 12289,
  "matter": 49781,
  "max": 17466,
  "may": 13566,
  "maybe": 25292,
  "mb": 2158,
  "mber": 1651,
  "mberg": 41334,
  "mble": 10768,
  "mbuds": 36383,
  "mbudsman": 37373,
  "mc": 38636,
  "md": 27418,
  "me": 2674,
  "meal": 27821,
  "mean": 35020,
  "meaning": 22523,
  "measures": 43265,
  "meat": 42274,
  "med": 1119,
  "medi": 2425,
  "media": 12051,
  "mediate": 28001,
  "mediated": 40436,
  "mediately": 23504,
  "medical": 37662,
  "medium": 41252,
  "meet": 47422,
  "meg": 25928,
  "megapixel": 45367,
  "meh": 49615,
  "meier": 40923,
  "mel": 14979,
  "melon": 47174,
  "mem": 16788,
  "member": 16815,
  "members": 31041,
  "memory": 37175,
  "men": 3555,
  "mency": 48000,
  "mens": 40242,
  "ment": 379,
  "mental": 17899,
  "mentation": 15730,
  "mente": 43581,
  "mented": 10819,
  "mentia": 23738,
  "mentioned": 15897,
  "ments": 765,
  "menu": 43249,
  "mer": 581,
  "merce": 10731,
  "mercial": 16667,
  "mere": 36952,
  "merga": 32596,
  "meric": 829,
  "mers": 9568,
  "mert": 38152,
  "mes": 6348,
  "mese": 42303,
  "mess": 41910,
  "message": 28348,
  "met": 4516,
  "meta": 43999,
  "metal": 31962,
  "meter": 26645,
  "method": 32423,
  "metic": 17872,
  "metics": 32203,
  "metre": 37479,
  "metric": 28325,
  "metrical": 33921,
  "metry": 21393,
  "meyer": 44721,
  "mg": 20672,
  "mi": 13909,
  "mia": 22681,
  "mic": 10219,
  "micro": 39065,
  "mid": 12766,
  "middle": 26137,
  "midt": 17230,
  "mie": 41324,
  "might": 40799,
  "mil": 32119,
  "mile": 14718,
  "military": 27559,
  "mill": 16675,
  "millan": 49700,
  "million": 11178,
  "mills": 49068,
  "min": 1105,
  "minate": 36910,
  "mination": 14271,
  "mind": 9454,
  "minded": 12287,
  "mine": 4199,
  "mined": 15062,
  "minent": 16350,
  "mines": 14290,
  "ming": 1871,
  "mingham": 14780,
  "mington": 29387,
  "mini": 46980,
  "minimum": 46856,
  "mining": 17543,
  "minist": 1947,
  "ministic": 44562,
  "minster": 15995,
  "mint": 37665,
  "minus": 36120,
  "minute": 9293,
  "mir": 10359,
  "mire": 38168,
  "mis": 24222,
  "mish": 46325,
  "miss": 19917,
  "missing": 47877,
  "mission": 16917,
  "missions": 41481,
  "mist": 36510,
  "mit": 3384,
  "mitage": 49858,
  "mite": 29459,
  "mith": 25217,
  "mitt": 19913,
  "mitted": 21105,
  "mittedly": 35360,
  "mix": 37102,
  "mixed": 49497,
  "ml": 6548,
  "mm": 5728,
  "mmm": 38528,
  "mn": 21828,
  "mo": 7119,
  "mobile": 27629,
  "mod": 7437,
  "mode": 26300,
  "model": 24363,
  "moderate": 38117,
  "modern": 20359,
  "modified": 47827,
  "modo": 43971,
  "module": 34093,
  "modules": 49712,
  "moil": 20440,
  "mology": 38257,
  "mom": 36602,
  "mon": 2809,
  "monary": 40824,
  "mond": 5743,
  "monds": 36734,
  "monella": 47522,
  "money": 23385,
  "mong": 25547,
  "mongering": 37306,
  "mons": 11771,
  "mont": 7406,
  "month": 7566,
  "monton": 15312,
  "mony": 9111,
  "moon": 22718,
  "mor": 21958,
  "moral": 38503,
  "more": 3606,
  "morning": 42815,
  "morph": 33083,
  "mort": 24056,
  "mortem": 40976,
  "mos": 15290,
  "mosp": 5714,
  "most": 1597,
  "mostly": 25708,
  "mot": 24440,
  "mother": 12400,
  "motion": 36821,
  "mount": 17293,
  "mountable": 41654,
  "mounted": 32515,
  "mouse": 48429,
  "mouth": 13222,
  "move": 22148,
  "movement": 35789,
  "movie": 41408,
  "moving": 27756,
  "mp": 3282,
  "mph": 18013,
  "ms": 962,
  "msg": 40121,
  "mson": 23363,
  "mt": 23911,
  "mu": 33486,
  "much": 25893,
  "mud": 40400,
  "mult": 20907,
  "multi": 49194,
  "multiple": 46504,
  "mun": 12459,
  "mund": 15810,
  "munition": 13864,
  "mur": 29790,
  "mus": 16288,
  "music": 34591,
  "must": 28356,
  "mut": 26166,
  "my": 1791,
  "myra": 44659,
  "mys": 34046,
  "n": 110,
  "na": 2671,
  "naev": 32018,
  "nah": 39314,
  "nai": 32314,
  "nail": 36240,
  "nails": 31630,
  "naire": 26820,
  "naires": 43967,
  "naissance": 35093,
  "nam": 6585,
  "name": 6547,
  "named": 11662,
  "names": 14181,
  "namese": 18007,
  "namo": 36337,
  "nan": 11179,
  "nance": 44824,
  "nant": 37074,
  "nar": 17722,
  "nard": 34181,
  "nas": 23206,
  "nasa": 44630,
  "nat": 48204,
  "natal": 36637,
  "natic": 32311,
  "nation": 25140,
  "national": 14332,
  "native": 35605,
  "natural": 11844,
  "nature": 48885,
  "nav": 30139,
  "nc": 21343,
  "nce": 1236,
  "nces": 3279,
  "nd": 356,
  "nda": 39756,
  "nder": 691,
  "ndering": 19623,
  "nders": 26053,
  "ndez": 39757,
  "ndra": 18874,
  "ne": 688,
  "nea": 42364,
  "neapolis": 15801,
  "near": 38326,
  "nearly": 41377,
  "neath": 13838,
  "neau": 34747,
  "nec": 33854,
  "necess": 10114,
  "necessary": 43603,
  "neck": 27546,
  "nect": 1755,
  "ned": 1189,
  "nedy": 8227,
  "nee": 28747,
  "need": 33093,
  "needed": 23472,
  "needs": 49036,
  "neg": 11422,
  "negative": 33253,
  "negie": 25942,
  "nel": 4754,
  "nell": 5753,
  "nelly": 33573,
  "nels": 17590,
  "nen": 25741,
  "ner": 1003,
  "nered": 12854,
  "nerg": 30296,
  "nergy": 5952,
  "ners": 2471,
  "nery": 30489,
  "nes": 1956,
  "nesday": 2808,
  "nesia": 34319,
  "nesium": 32501,
  "nesota": 6996,
  "ness": 1160,
  "nesset": 39805,
  "nesty": 14149,
  "net": 3906,
  "netes": 39050,
  "netic": 10021,
  "nets": 42799,
  "nette": 40105,
  "network": 32385,
  "neutral": 27833,
  "never": 12709,
  "new": 3614,
  "news": 10378,
  "nex": 15210,
  "next": 25042,
  "ney": 1499,
  "neys": 19166,
  "nez": 44080,
  "ng": 812,
  "nga": 44968,
  "ngen": 46235,
  "ngth": 20150,
  "ni": 8026,
  "nia": 16939,
  "niak": 47281,
  "nian": 35913,
  "nic": 6580,
  "nice": 40716,
  "nicious": 44048,
  "nick": 23550,
  "nie": 11132,
  "night": 4644,
  "nik": 14493,
  "nikov": 35435,
  "nin": 36191,
  "nine": 27866,
  "ning": 719,
  "nings": 19793,
  "nington": 43806,
  "nis": 17668,
  "nish": 43471,
  "nl": 35122,
  "nm": 27133,
  "nn": 44917,
  "no": 4284,
  "nob": 32493,
  "node": 27398,
  "nom": 23172,
  "nominated": 46443,
  "non": 11432,
  "none": 31547,
  "noon": 5435,
  "nor": 12377,
  "norm": 42535,
  "normal": 13184,
  "normally": 45030,
  "north": 48707,
  "nos": 45948,
  "not": 1803,
  "notch": 44348,
  "note": 12917,
  "notes": 23170,
  "nothing": 24061,
  "noticed": 26578,
  "nour": 44973,
  "nov": 31116,
  "nova": 36705,
  "now": 2169,
  "nown": 3817,
  "nox": 32909,
  "np": 43289,
  "ns": 2514,
  "nsic": 17944,
  "nsics": 42558,
  "nt": 432,
  "ntil": 8989,
  "nton": 23252,
  "nu": 35148,
  "nuclear": 32856,
  "null": 19479,
  "num": 25981,
  "number": 21580,
  "numbered": 31262,
  "nut": 15451,
  "nutrition": 36630,
  "nuts": 29699,
  "ny": 3365,
  "nyder": 16737,
  "nyk": 48258,
  "nz": 44737,
  "o": 111,
  "oS": 42767,
  "oa": 13432,
  "oad": 1524,
  "oan": 20114,
  "oard": 12268,
  "oat": 18812,
  "ob": 664,
  "oba": 17830,
  "obacter": 39034,
  "obal": 2232,
  "obalt": 43466,
  "obar": 31152,
  "obb": 6570,
  "obby": 5183,
  "obe": 5715,
  "ober": 1829,
  "obi": 15775,
  "obia": 30215,
  "obic": 21421,
  "obil": 23888,
  "obile": 6869,
  "obiles": 30556,
  "obj": 45202,
  "object": 21101,
  "obo": 27750,
  "obos": 41478,
  "obs": 8156,
  "obsessed": 45589,
  "obviously": 49676,
  "oby": 25634,
  "obyl": 38061,
  "oc": 428,
  "oca": 9987,
  "ocal": 4941,
  "ocally": 33602,
  "ocaly": 13793,
  "ocalypse": 19583,
  "ocalyptic": 23954,
  "ocamp": 25529,
  "ocate": 12781,
  "ocated": 10647,
  "ocating": 23234,
  "ocation": 7000,
  "ocations": 28134,
  "ocative": 42855,
  "ocaust": 13883,
  "occ": 13791,
  "occup": 17828,
  "occupation": 44135,
  "occupied": 25105,
  "ocene": 28687,
  "ocent": 33051,
  "ocese": 24839,
  "och": 5276,
  "oche": 28414,
  "ochem": 22347,
  "ochond": 23202,
  "oci": 1770,
  "ocial": 9975,
  "ociate": 46377,
  "ociated": 19540,
  "ociation": 41460,
  "ocide": 14413,
  "ocin": 40454,
  "ocious": 30390,
  "ocity": 14097,
  "ock": 784,
  "ocked": 3620,
  "ocker": 12513,
  "ocket": 6439,
  "ockets": 12501,
  "ockey": 6584,
  "ocking": 5460,
  "ocks": 3957,
  "ocl": 48264,
  "oco": 24318,
  "ococ": 42854,
  "ocol": 5070,
  "ocolate": 9344,
  "ocon": 49873,
  "ocr": 4245,
  "ocracies": 26415,
  "ocracy": 4786,
  "ocrat": 1578,
  "ocratic": 6201,
  "ocrats": 14893,
  "ocre": 24150,
  "ocrine": 43723,
  "ocrity": 45242,
  "oct": 48192,
  "ocument": 9086,
  "ocumented": 14057,
  "ocur": 11994,
  "ocus": 12335,
  "ocused": 19004,
  "ocusing": 42182,
  "ocy": 16670,
  "ocytes": 36755,
  "od": 398,
  "oda": 11995,
  "oday": 3913,
  "odd": 5622,
  "odder": 31849,
  "oddy": 33117,
  "ode": 1335,
  "odeau": 47931,
  "oded": 8866,
  "odeon": 43982,
  "oder": 18860,
  "odes": 4356,
  "odge": 10484,
  "odi": 34725,
  "odiac": 43067,
  "odic": 26024,
  "odie": 44920,
  "odied": 28330,
  "odies": 4963,
  "oding": 8348,
  "odka": 27044,
  "odo": 23340,
  "odon": 43022,
  "odor": 26476,
  "odore": 21963,
  "odox": 9885,
  "ods": 21650,
  "odus": 23356,
  "ody": 1185,
  "odynam": 22714,
  "odynamic": 32006,
  "odynamics": 39317,
  "oe": 2486,
  "oen": 7990,
  "oenix": 9247,
  "oes": 3556,
  "oeuv": 33465,
  "oey": 42786,
  "of": 1906,
  "ofer": 48256,
  "off": 2047,
  "offensive": 36290,
  "office": 29521,
  "official": 15555,
  "officially": 44797,
  "offs": 11165,
  "offset": 49396,
  "ofi": 45931,
  "ofsky": 46300,
  "oft": 11160,
  "often": 25315,
  "og": 524,
  "oga": 10314,
  "ogan": 6878,
  "ogen": 7839,
  "ogene": 21790,
  "ogeneity": 37855,
  "ogeneous": 32462,
  "ogenesis": 32859,
  "ogenetic": 43016,
  "ogenic": 17145,
  "ogenous": 30157,
  "ogens": 25416,
  "ogether": 7768,
  "ogg": 12041,
  "oggle": 30947,
  "oggling": 40452,
  "ogh": 48484,
  "ogi": 33401,
  "ogical": 44346,
  "ogie": 39143,
  "ogle": 2309,
  "oglob": 45995,
  "oglu": 38342,
  "ogly": 40701,
  "ogn": 2300,
  "ognitive": 28985,
  "ogo": 24643,
  "ogram": 22725,
  "ograms": 23896,
  "ograp": 1946,
  "ograph": 2290,
  "ographed": 35470,
  "ographer": 16540,
  "ographers": 28865,
  "ographic": 6641,
  "ographical": 16522,
  "ographically": 28488,
  "ographics": 19999,
  "ographies": 35698,
  "ographs": 31562,
  "ography": 4543,
  "ogs": 9026,
  "ogue": 5605,
  "ogy": 9965,
  "ogyn": 17974,
  "oh": 1095,
  "oha": 28235,
  "ohan": 23158,
  "ohl": 38014,
  "ohn": 1406,
  "oho": 39362,
  "ohyd": 22257,
  "oi": 24022,
  "oia": 48597,
  "oice": 9667,
  "oid": 2305,
  "oids": 20315,
  "oil": 21867,
  "oiler": 35318,
  "oin": 34873,
  "oine": 36091,
  "oing": 42723,
  "oint": 1598,
  "ointed": 18977,
  "oir": 17812,
  "oirs": 30404,
  "ois": 9483,
  "oise": 29743,
  "oit": 26726,
  "oitation": 48805,
  "oitte": 45199,
  "oj": 12336,
  "oji": 26832,
  "ojima": 42222,
  "ojure": 27784,
  "ok": 486,
  "oka": 21095,
  "okane": 38026,
  "oke": 2443,
  "oked": 6324,
  "oken": 5880,
  "oker": 10626,
  "okers": 39361,
  "okes": 2662,
  "oki": 31610,
  "okia": 16502,
  "oking": 5690,
  "okingly": 39016,
  "oko": 16219,
  "okovic": 44028,
  "oks": 25615,
  "oku": 16983,
  "ol": 349,
  "ola": 5137,
  "olan": 14417,
  "oland": 47460,
  "olar": 9951,
  "olas": 11224,
  "olate": 31717,
  "olated": 48901,
  "olation": 21699,
  "old": 770,
  "older": 44466,
  "oldown": 22410,
  "olds": 9317,
  "oldt": 41542,
  "ole": 2499,
  "olean": 26219,
  "olen": 8058,
  "oler": 13363,
  "olerance": 36393,
  "oles": 3993,
  "olester": 20053,
  "olesterol": 21427,
  "oley": 39066,
  "olf": 4460,
  "oli": 10302,
  "olia": 21511,
  "oliath": 39059,
  "oliberal": 22036,
  "olic": 3909,
  "olicited": 47128,
  "olics": 16746,
  "olicy": 24667,
  "olid": 10790,
  "olin": 31385,
  "oline": 13376,
  "oling": 44100,
  "olini": 34779,
  "olis": 7893,
  "olit": 5122,
  "olitan": 11474,
  "olitano": 37696,
  "olith": 19621,
  "olithic": 25791,
  "olitical": 10937,
  "olitics": 17955,
  "olition": 47619,
  "olk": 13012,
  "olkien": 27254,
  "oll": 783,
  "olla": 27860,
  "ollah": 13385,
  "ollar": 11100,
  "ollen": 30346,
  "oller": 38738,
  "ollip": 37647,
  "ollipop": 40725,
  "ollo": 16677,
  "ollow": 982,
  "olls": 24800,
  "ollum": 45954,
  "olly": 4762,
  "ollywood": 6371,
  "oln": 9940,
  "olo": 13606,
  "olog": 902,
  "ologic": 27699,
  "ological": 2747,
  "ologically": 12067,
  "ologies": 5231,
  "ologist": 6475,
  "ologists": 8182,
  "ologne": 26340,
  "ologue": 31947,
  "ologues": 38907,
  "ology": 1380,
  "olon": 40291,
  "olph": 9036,
  "olphin": 25831,
  "olphins": 13759,
  "ols": 10435,
  "olson": 27165,
  "olt": 7231,
  "oltz": 44323,
  "olulu": 33610,
  "olute": 3544,
  "olutely": 14548,
  "olution": 2070,
  "olutions": 13826,
  "olve": 6440,
  "olved": 5461,
  "olver": 33259,
  "olves": 9232,
  "olving": 9958,
  "oly": 4368,
  "olyn": 30580,
  "om": 296,
  "oma": 6484,
  "omac": 45857,
  "omach": 11940,
  "omal": 35818,
  "oman": 4597,
  "omans": 45819,
  "omas": 4508,
  "omatic": 15022,
  "omayor": 48567,
  "omb": 2651,
  "ombie": 48089,
  "ombo": 41277,
  "ombs": 35300,
  "ome": 459,
  "omed": 9668,
  "omeday": 20817,
  "omedical": 32578,
  "omen": 3517,
  "omer": 11648,
  "omers": 16618,
  "omes": 9120,
  "omet": 884,
  "ometer": 16636,
  "ometers": 36345,
  "ometh": 48750,
  "omething": 8218,
  "ometime": 44910,
  "ometimes": 6400,
  "ometown": 15428,
  "ometric": 21705,
  "ometrics": 49274,
  "ometry": 34617,
  "omever": 42730,
  "omey": 41872,
  "omez": 24649,
  "omi": 15774,
  "omial": 43691,
  "omic": 10965,
  "omical": 20132,
  "omics": 32588,
  "omin": 6208,
  "ominated": 46988,
  "omination": 26201,
  "oming": 6467,
  "ominium": 41474,
  "omm": 2377,
  "omme": 36530,
  "ommend": 27811,
  "ommended": 33462,
  "ommod": 8478,
  "omnia": 36819,
  "omo": 15309,
  "omon": 18295,
  "omore": 17506,
  "omorph": 24990,
  "omorphic": 40577,
  "omp": 3114,
  "ompl": 5691,
  "ompson": 9329,
  "oms": 4874,
  "omsday": 38998,
  "omsky": 31030,
[...]
