#version: 0.2
Ġ t
Ġ a
h e
i n
r e
Ġt he
o n
e r
Ġ s
Ġ w
a t
Ġ o
e n
Ġ c
i t
i s
a n
o r
Ġ b
e d
e s
Ġ f
in g
Ġ p
o u
Ġa n
Ġt o
a l
a r
Ġ m
Ġ in
Ġo f
Ġ h
Ġ d
â Ģ
a s
Ġan d
i c
Ġt h
l e
o m
i on
l l
en t
Ġ n
Ġ l
Ġ re
s t
v e
Ġ e
l y
Ġb e
r o
Ġ g
i d
u t
a c
o t
Ġ T
Ġ I
Ġth at
Ġ on
a y
Ġ is
Ġ S
i m
e t
a m
a d
o w
s e
Ġf or
i g
âĢ Ļ
Ġ A
v er
c t
l d
u r
Ġ C
Ġ u
Ġs t
Ġ y
Ġ it
Ġ he
i r
at ion
it h
Ġw h
Ġ M
c e
t er
Ġw e
o l
i l
Ġw ith
Ġa s
Ġ B
c h
i ll
n d
Ġw as
Ġ P
Ġy ou
er s
k e
Ġ âĢ
Ġc on
Ġd e
Ġ r
he r
i f
at e
Ġa t
a g
Ġh a
Ġ W
Ġs e
Ġ H
o re
Ġp ro
u l
p p
m ent
Ġa re
r i
Ġ D
Ġ 1
es t
Ġc om
u s
is t
an d
Ġ R
a in
o p
ĠT he
Ġ 2
ig h
r om
en d
Ġ (
t e
t h
o d
Ġn e
Ġ F
Ġe x
u m
u n
re s
âĢ Ŀ
a b
Ġn ot
Ġ N
Ġ v
Ġha ve
es s
it y
ou ld
Ġo r
Ġb y
or t
o s
Ġ G
i ve
Ġf rom
Ġa l
an t
' s
Ġs u
o c
ar t
Ġ L
e l
Ġs h
Ġth is
e m
q u
n t
igh t
p e
u st
Ġ le
i es
Ġ E
Ġc h
Ġs a
Ġa b
T he
ou t
al l
i e
ac k
re d
ĠâĢ ľ
Ġh as
al ly
0 0
Ġp l
Ġ J
Ġg o
ar d
Ġh is
om e
i v
g h
o st
a p
e ar
Ġ O
Ġt r
ou r
Ġ j
a k
Ġw or
u d
as t
Ġd o
Ġthe y
Ġb ut
Ġc an
r ou
Ġw ill
g e
Ġsa id
Ġw he
Ġ U
ic h
Ġ k
Ġa ll
o k
Ġ "
Ġwh o
id e
am e
t her
an s
Ġo ut
i al
Ġthe ir
f f
on g
ic e
p l
u re
Ġm ore
on e
ag e
ion s
ac t
Ġu p
i ke
Ġm e
ou s
Ġa d
in e
e p
Ġab out
at ed
r a
b er
Ġon e
p t
Ġwe re
Ġs o
Ġu s
e ct
im e
o g
Ġh ad
Ġ K
a re
i a
u b
c c
Ġw ould
Ġc l
Ġ2 0
Ġ im
Ġwh ich
in d
x t
a ke
u e
ver y
Ġa g
i z
Ġt e
Ġof f
Ġcom p
Ġbe en
Ġu n
Ġin t
Ġ en
s o
p er
ig n
Ġcon t
a u
ĠT h
ar y
Ġy ear
ac e
i p
Ġl ike
e w
v en
Ġin c
o ok
ay s
Ġm an
Ġp e
ĠI n
o se
r y
Ġre s
Ġp er
ab le
it e
as s
or d
Ġs p
Ġo ther
i re
m er
Ġs ome
i le
en ce
op le
ĠS t
i b
Ġ20 1
ation s
k s
Ġo ver
Ġthe re
ic al
res s
Ġd is
ul t
Ġne w
ow n
Ġal so
Ġth an
Ġa r
Ġbe c
Ġthe m
an ce
ou gh
r u
Ġa pp
p ort
ou nt
Ġyou r
a il
Ġp art
re e
Ġwhe n
in t
Ġwh at
f ter
or m
Ġpe ople
on d
Ġs c
Ġ qu
as e
ĠC h
a v
Ġan y
Ġj ust
Ġit s
Ġ Y
Ġt ime
ct ion
ac h
Ġk n
o f
ĠI t
Ġhe r
Ġ 3
Ġre c
l ic
Ġm y
en s
re at
Ġ if
Ġg et
. âĢĿ
Ġint o
Ġ V
Ġwor k
i an
Ġt w
ou nd
ir st
ve l
Ġn o
d u
ing s
e re
or y
Ġo ur
ic k
id ent
or s
it ion
Ġ -
Ġp re
o b
o ve
Ġpl ay
an g
in k
au se
w n
te xt
am p
ad e
h ing
at es
ar k
Ġ ro
Ġp ol
Ġs he
ver s
Ġc o
Ġa fter
, âĢĿ
Ġf irst
Ġc ould
Ġh ow
Ġ1 9
ĠH e
n e
i ous
Ġa cc
nd er
i ld
Ġh im
' t
on s
Ġp o
a w
| >
end of
endof text
< |
Ġon ly
Ġf e
ic t
he d
Ġp r
Ġtw o
r it
o v
Ġcom m
is h
Ġs pe
âĢ ľ
f orm
Ġa ct
Ġs er
Ġb l
w e
Ġbe t
Ġde c
. "
n ing
Ġb ack
Ġm ost
c es
f t
o od
c k
ĠâĢ ĵ
Ġa m
Ġd id
o y
rou gh
if f
rou nd
at er
Ġag ain
Ġ 4
d ay
u al
Ġw ant
Ġu nder
Ġd es
is e
u ll
se l
Ġcon s
ĠâĢ Ķ
Ġbec ause
Ġn ow
l ud
ent s
Ġyear s
ub lic
ter n
Ġne ed
m an
Ġ $
. .
Ġe ven
Ġin v
e c
is s
Ġat t
Ġkn ow
ĠW e
Ġse e
ment s
Ġad d
c ed
, "
Ġin d
o ld
t ing
Ġse c
f ore
u ch
Ġe very
ur n
Ġ 5
Ġsu pp
Ġm ake
pe ct
ĠU n
Ġthe se
Ġe m
o ll
oc k
Ġwhe re
I n
j ect
ation al
ver n
Ġb u
Ġl ook
ĠA nd
Ġd on
T h
os s
Ġe v
Ġw ay
at ing
um p
Ġbe ing
Ġre m
Ġm ay
i ly
Ġthe n
Ġr ight
Ġman y
ro w
le ct
Ġ [
ie w
n g
Ġd iff
as on
Ġde f
Ġc all
Ġre l
ĠB ut
as ed
Ġinc lud
Ġth ink
ĠT r
i ed
ak ing
l es
Ġre g
) .
mer ic
Ġth rough
Ġim p
it ed
ri b
on t
Ġs y
Ġsh ould
at h
Ġs ay
Ġp res
ur ing
Ġl ast
Ġth ose
Ġf l
Ġ very
ow er
t y
ot her
Ġm uch
it ies
if ic
Ġst ate
ĠTh is
Ġsh ow
at ive
t le
Ġb r
he n
s s
ar g
Ġwe ll
ot h
v ed
ĠW h
Ġp h
Ġ2 00
Ġdo es
Ġc ount
al s
Ġd own
ar ly
Ġ end
Ġu se
Ġo wn
Ġas s
u nd
Ġbe l
ic s
an ge
ĠA meric
Ġl ong
in ce
t s
ter s
Ġbe fore
om et
Ġm on
w ard
Ġgo vern
g r
Ġst art
Ġre port
ib le
Ġ ke
u es
ĠN ew
u p
Ġf in
ou n
Ġte am
Ġm ade
b le
if e
ol og
) ,
Ġsu ch
en er
re n
c om
ers on
Ġs m
re st
Ġgo ing
l p
il ity
- -
Ġwor ld
f ul
u ally
i x
Ġst ud
e k
Ġgo od
m s
âĢ Ķ
Ġa c
ist s
t ain
Ġsu b
Ġe ff
Ġagain st
Ġs ur
I t
Ġg ame
Ġs et
Ġg u
it s
Ġpo int
or k
Ġ 6
Ġ ent
g an
st em
ar s
y s
Ġst ill
00 0
rou p
l i
Ġwh ile
ill ion
Ġhe lp
Ġle ad
Ġm in
we en
. <|
v ing
is m
Ġs ays
im es
Ġo b
al k
Ġpro du
a x
e ll
an k
c y
Ġin te
Ġin st
Ġin ter
Ġg r
Ġst r
Ġs im
e f
c ess
Ġcon f
sel f
Ġt ake
Ġc ol
u res
Ġs ame
Ġth ough
Ġoff ic
Ġbet ween
oll ow
ar ch
e ver
Ġdiff ere
Ġc r
Ġpro v
l and
i o
ut ion
Ġdis c
us s
o ol
Ġo p
Ġ ed
Ġh igh
Ġl aw
Ġs ign
a ir
Ġn um
re ad
w ay
Ġgovern ment
l ed
n er
ĠR e
h ip
g g
at ch
am es
he s
an y
Ġt er
Ġs omet
vel op
c ent
t ed
t en
a h
Ġre f
Ġtr ans
Ġin s
Ġr un
W e
Ġf ound
Ġth ree
iv es
Ġa round
Ġhe re
Ġm em
at her
a ve
Ġm ed
Ġus ed
Ġre al
Ġ1 0
ou se
Ġex p
Ġsy stem
ĠY ou
ce pt
ĠA r
Ġre ally
o ot
v es
Ġm od
Ġg roup
Ġsupp ort
c i
c er
c on
Ġc our
a z
Ġ 7
et s
Ġc ar
Ġh and
Ġre t
Ġp ublic
al e
Ġspe c
in s
ĠL e
y ing
Ġg reat
p r
Ġex t
. [
en se
ire ct
p h
Ġf am
Ġc ur
t on
al th
ĠC om
Ġha pp
Ġf act
Ġex per
ĠThe y
ĠTr ump
Ġw om
Ġf r
Ġc ap
ĠI s
Ġb oth
Ġd ay
Ġf ind
Ġre ad
Ġd et
ul ar
in es
ĠA l
Ġl it
ic es
Ġs l
Ġre p
ut h
Ġd uring
o h
ĠA s
Ġ 0
ĠS h
Ġmon th
Ġde velop
Ġb ig
is ion
m in
Ġf ollow
Ġp erson
Ġ 8
ak es
Ġc re
Ġis s
t he
Ġto ld
ĠC l
Ġs ince
a red
Ġwe ek
m ed
ic ally
ag es
i vers
Ġf ew
Ġw ar
ord ing
Ġc ent
Ġle g
Ġpol it
g et
e x
Ġex pl
Ġl ot
a j
e red
as h
Ġg ener
Ġbel ie
Ġto o
r ic
Ġ 9
Ġo pp
Ġre qu
re nt
d er
Ġcont in
Ġf il
W h
at a
b ers
i et
ent ion
Ġc or
Ġc le
an c
Ġres p
Ġp ut
ĠI f
Ġan other
iz ed
Ġin f
n ess
Ġsomet hing
ch ool
Ġdiffere nt
Ġl oc
Ġinv est
ut e
Ġs oc
ĠD e
Ġp ower
Ġc he
2 0
Ġ '
Ġp ass
Ġcomm un
Ġl ife
Ġpl an
Ġre le
ĠF r
od y
Ġhe ad
Ġth ings
i ence
Ġf ar
th ing
Ġar t
u c
Ġp oss
n ed
Ġm et
Ġc amp
ro ss
Ġb o
Ġv ot
ar ge
Th is
Ġm ight
Ġch ild
Ġas k
Ġ .
v iew
Ġe ach
Ġde p
ant s
Ġne ver
in ess
iz e
i er
Ġne xt
ĠF or
Ġsec ond
Ġm ark
Ġqu est
Ġad v
Ġb us
ĠA n
ie ld
Ġcom e
Ġde m
Ġg ot
ĠâĢ ĺ
Ġop en
Ġb est
Ġall ow
i ent
re t
it al
ĠTh at
Ġse em
Ġp ost
Ġfe el
p le
n ce
te m
ĠU S
r at
ĠP ro
Ġp ri
Ġper cent
gr am
i k
Ġh ome
Ġd irect
Ġd ist
u g
i red
Ġcont ro
Ġinc re
ĠR ep
c l
l ess
os ed
er v
s on
Ġres ult
Ġh ard
or n
Ġc are
Ġm illion
ate ly
Ġcomp le
Ġpl ace
ch n
Ġwith out
Ġinclud ing
Ġin form
Ġim port
Ġa v
Ġh um
con om
Ġpro ble
Ġ ide
Ġbu ild
Ġto p
Ġnum ber
Ġcount ry
a im
am a
one y
g y
ĠB l
ab ly
r al
Ġf our
Ġst and
Ġe l
Ġg l
is hed
ri end
u ro
w ays
Ġle t
Ġpart ic
Ġbet ter
Ġrec ent
Ġt ri
B ut
Ġinte rest
Ġm ov
Ġse ason
r ation
t t
c o
Ġl ess
Ġt urn
Ġlit tle
Ġbe h
Ġapp ro
Ġm il
r act
Ġb ro
Ġcall ed
l ine
e ad
is ed
l ing
Ġc ase
Ġle ft
a pp
Ġd r
Ġre st
Ġan n
ĠI nd
Ġp op
Ġm ove
Ġatt ack
en cy
ĠThe re
Ġke ep
Ġf ull
od e
Ġdid n
Ġser v
in a
er ing
Ġf un
aj or
Ġm ain
1 0
Ġeff ect
Ġ Z
Ġpro gram
in al
Ġus ing
Ġpre v
t o
Ġt est
le g
Ġp ay
b e
Ġe ar
Ġv al
at ure
re m
Ġpol ice
Ġw rit
Ġfor m
Ġe conom
Ġd ata
Ġp os
Ġnew s
Ġw in
Ġch ar
ĠAmeric an
Ġle vel
Ġs it
iv ing
ain s
Ġsm all
in ed
read y
Ġl ist
Ġs chool
H e
u ck
olog y
id ed
' re
m it
pl oy
Ġe as
Ġpro cess
Ġ =
r ap
Ġch ange
g er
Ġwom en
ir d
Ġre ce
Ġcur rent
Ġp rom
Ġd ri
Ġh ist
Ġpres ident
or th
_ _
Ġcomp any
re en
us ed
i ans
Ġal ready
Ġm at
ĠUn ited
ru ct
oh n
Ġt y
Ġwh y
w it
Ġb re
Ġu nt
Ġm oney
Ġte chn
Ġex pect
Ġl ater
Ġal ways
ĠS o
Ġs ol
ĠH ow
Ġoffic ial
Ġbus iness
ivers ity
Ġb ook
st and
ĠO b
Ġth ing
a ign
Ġpro ject
as es
Ġcl aim
ĠP h
Ġj ob
Ġinform ation
Ġcl ass
Ġor gan
Ġt alk
Ġ Q
r on
ĠS he
ard s
a ff
Ġdes ign
Ġm ajor
Ġch ang
Ġ- -
Ġab le
Ġst ory
ĠB e
Ġpro f
er tain
iv en
Ġre se
le ction
Ġhe alth
Ġf ree
Ġv is
Ġo per
ou th
ur s
he re
ĠA d
Ġa way
ĠC an
Ġm ust
Ġc ity
amp le
i or
.. .
Ġhapp en
ur al
uth or
Ġ1 8
Ġimport ant
ur ity
Ġk ill
Ġp ast
r ist
ac y
Ġp at
Ġo ld
u red
Ġs k
Ġ est
pt ion
Ġdoes n
ĠS e
end ing
ur y
iss ion
Ġle ast
s c
Ġg row
Ġv ar
Ġed it
Ġc ost
ĠG o
ain ed
Ġd ays
Ġte ll
id es
id er
Ġh op
ne y
Ġst re
s ide
Ġcamp aign
Ġ1 2
Ġm en
Ġc ame
Ġcon st
Ġa ff
o x
Ġen ough
Ġv iew
res ident
ĠM ar
Ġk ind
cc ess
Ġm aking
Ġrec ord
Ġl arge
o ad
Ġfam ily
ĠS p
Ġf riend
Ġm ar
er n
el s
Ġe lect
Ġpol ic
er al
Ġ1 5
Ġt ax
us h
le y
pp ed
âĢ ¦
is ing
al ity
iv ed
if ied
Ġunt il
Ġv ide
are nt
Ġde al
r or
Ġpolit ical
ion al
A s
b y
at or
ri es
al f
Ġ ve
Ġwork ing
au gh
u ed
ĠRep ublic
Ġto ok
Ġde b
Ġl ine
I f
ain ing
ĠJ ohn
is ter
Ġin tern
Ġa ir
Ġf ore
b s
Ġ es
Ġact ually
Ġbec ome
i ol
oc rat
Ġme an
ap s
Ġf und
w ork
on y
an e
w are
Ġof ten
Ġfor mer
ĠS c
ĠE uro
ĠP l
Ġw on
Ġg ive
Ġacc ording
Ġe ver
y ear
m ost
Ġpro te
ar ing
ot t
Ġhum an
Ġg ames
en g
Ġwor d
Ġb as
is on
Ġret urn
an n
w h
Ġt imes
Ġor der
Ġn ame
1 9
Ġb it
ĠR uss
iz ation
ĠD em
Ġse ver
ĠA ll
ic le
g in
Ġde v
o int
ĠC on
Ġp ar
it her
ut ure
Ġ19 9
S t
ĠA t
Ġw r
i qu
Ġs ing
Ġper form
f or
Ġmark et
Ġchar ac
ĠM c
Ġf ac
ra ft
The re
ĠM ay
Ġdo ing
Ġapp ear
ĠS y
Ġr a
id d
Ġplay ers
ĠO r
c hed
Ġn ight
Ġle ar
Ġl a
m ber
ak en
Ġto day
Ġe arly
Ġse en
Ġ ,
Ġha ving
Ġmed ia
Ġp ot
Ġchild ren
Ġev ent
Ġc rit
Ġcontro l
ĠP resident
Ġsever al
/ /
ro p
Ġwhe ther
Ġsoc ial
at s
id ence
1 1
Ġme et
Ġp ress
Ġw ent
Ġmil it
Ġyou ng
art ment
Ġf ive
5 0
or ies
Ġe qu
Ġsu re
-- --
ious ly
Ġquest ion
Ġpro p
en e
Ġo cc
Ġlike ly
Ġmem bers
Ġc ertain
un e
ĠY ork
ver t
Ġex ample
Ġw ater
and s
Ġen g
Ġar g
Ġs ide
ot s
Ġd one
ĠC ol
Ġ vers
Ġinv ol
E R
Ġan t
ĠEuro pe
ĠSt ates
end ed
Ġal ong
Ġsu ccess
Ġsh ort
i um
b r
ĠM r
Ġmonth s
ent ial
Ġh our
en n
Ġ1 1
i ally
s h
ĠS te
b all
Ġse x
i ver
le t
A nd
Ġdes c
Ġwith in
Ġf ight
im ate
l f
Ġcour se
ag ue
Ġam ong
Ġon ce
Ġact iv
ur ch
Ġf uture
ub l
Ġinvest ig
Ġposs ible
Ġcon cer
ul ation
Ġunder stand
e e
ĠOb ama
Ġch o
st er
Ġ ]
it ing
u ff
Ġproble m
n ect
ort un
re w
ĠO n
Ġme ans
ĠC ar
on es
Ġv iol
Ġpri v
Ġa uthor
gg est
it ive
âĢ ĵ
Ġav ail
ĠB r
ĠN o
oc i
Ġkn own
Ġthough t
Ġprodu ct
iv id
our n
Ġy et
Ġac ross
g ress
Ġh old
Ġloc al
Ġf ail
Ġn on
ĠSt ate
Ġcommun ity
ĠW hen
Ġre ason
Ġor ig
ĠT e
m y
Ġsu ggest
Ġ &
Ġm akes
al d
ver age
in c
l er
Ġask ed
p or
n ot
Ġ201 6
b ack
Ġreport ed
b ook
ens ive
ed eral
Ġg iven
Ġ i
Y ou
ag ed
or ld
Ġpro b
Ġstr ong
Ġm us
Ġvide o
Ġother s
Ġbelie ve
ĠH ouse
Ġget ting
i ber
Ġb en
Ġann oun
an ces
Ġl ight
ĠUn iversity
o ber
Ġ3 0
ore d
Ġ ident
1 2
it ions
Ġc ut
Ġs ent
Ġl im
ir on
Ġc a
ĠCh rist
iet y
ĠC o
ur ther
Ġs our
Ġc reat
Ġcon d
' ve
Ġn et
Ġb at
as hing
Ġcl ose
Ġstart ed
Ġn ational
Ġsa f
Ġde ath
am ent
. ,
Ġavail able
am s
Ġiss ue
Ġb ased
Ġh ig
Ġ X
Ġind ust
ĠDem ocrat
as ter
Ġfollow ing
Ġacc ount
Ġl and
res ent
m ing
F or
ĠM in
ĠC ent
Ġl ow
Ġl ove
Ġ201 5
Ġag o
Ġ #
Ġem ploy
Ġhist ory
sel ves
Ġm om
ort s
3 0
u se
Ġpart y
Ġser ies
Ġcom es
u ly
Ġal most
Ġtr ying
u ment
ab ility
ut es
get her
ĠA m
Ġto gether
in ation
ĠAmeric a
Ġacc ess
Ġide a
Ġf oc
ie f
il ar
her s
Ġcomm it
re ed
ail s
Ġis n
ĠF l
ĠS en
ition al
Ġcle ar
Ġpr act
ĠO ne
Ġ1 6
Ġtr ad
th ough
ĠWh at
Ġadd ed
Ġimp ro
p ro
Ġexper ience
ere nce
e b
Ġh alf
r ing
Ġh it
wit ter
ust om
r ict
g ed
ĠB ro
Ġ201 4
Ġpro t
Ġan al
Ġr ul
Ġlook ing
ivid ual
Ġs ix
Ġl ive
Ġany thing
un ch
int on
Ġcomple te
min ist
Ġm iss
Ġare a
er man
A T
og rap
ĠCom m
Ġf av
tem pt
ra el
Ġr is
Ġpres ent
ĠE x
n es
Ġsay ing
ĠCan ad
Ġv ict
ru g
ot e
ci ally
Ġb ad
ra w
Ġt aken
u ge
1 5
a f
Ġent ire
ĠW ar
a id
ĠE ng
ow s
Ġcomp et
Ġb ill
Ġm or
Ġbeh ind
' m
at ors
Ġph ot
Ġcour t
ĠP r
Ġtr y
Ġne ar
ĠT o
ward s
Ġf ace
Ġmilit ary
Ġsec urity
Ġa ut
er t
pl ay
Wh at
Ġpro per
Ġ er
Ġm ult
Ġ1 4
os p
ĠP ol
Ġfil m
Ġdisc uss
i en
Ġth reat
a i
Ġind ividual
Ġsing le
Ġr ather
Ġstud y
ĠA f
p s
ĠB rit
Ġqu ick
Ġs w
Ġto t
Ġ z
le ment
Ġ Â
Ġm ind
ĠD on
ĠS ec
am ed
Ġm ess
Ġpolic y
Ġp ubl
ap er
Ġwant ed
ĠN orth
Ġf all
al es
at ic
Ġbl ack
Ġsome one
ir c
Ġf ood
ar m
Ġ /
Ġs um
ll ing
e v
ĠD ep
Ġke y
p ar
Ġcom b
Ġc ult
Ġ |
Ġspec ial
r is
Ġplay er
o ff
A n
Ġbr ing
id s
ĠM an
Ġre du
Ġcomp an
Ġ1 3
p ly
O n
Ġ1 7
I N
Ġat tempt
ro te
ĠG r
Ġt aking
ĠB ar
Ġ :
ĠN ational
W hen
: //
Ġf oot
v iron
if y
Ġel se
ĠC al
ol ution
Ġsp ace
Ġb ody
Ġpre t
Ġprob ably
. )
Ġc oun
Ġnot hing
Ġfr ont
ic ult
Ġc ou
ĠW orld
ĠI m
ashing ton
o ver
Ġcon nect
ĠC ity
Ġrese arch
el t
c hes
s y
Ġcom ing
Ġpoint s
ĠCl inton
Ġhow ever
Ġdesc rib
d d
ĠIs rael
Ġj o
Ġsim ilar
Ġsign ific
li er
Ġben ef
Ġdec ision
ĠA ust
rem e
c ing
Ġim m
Ġe ither
ac es
Ġm ass
Ġt arg
Ġfe at
g o
a ult
ull y
Ġs us
Th at
ĠH ar
Ġex ist
Ġcon v
* *
Ġen c
Ġ201 3
Ġright s
Ġserv ice
Ġd oc
O N
Ġw rote
Ġf urther
as ing
ir l
Ġch all
Ġf ire
Ġf ig
Ġprote ct
Ġh ouse
ro du
Ġth ird
y n
Ġb an
Ġw a
Ġcre ate
ĠS u
Ġst op
Ġp ick
Ġf ield
1 6
w w
Ġ )
an a
m b
R E
ive ly
o on
Ġiss ues
Ġcom pl
Ġre pl
Ġbe gin
s w
ĠW ith
Ġme as
Ġst ep
ri ed
n ow
Ġseem s
1 4
Ġwho le
pp ing
a pe
Ġrel ations
ent ly
Ġsu per
Ġex ec
pe cially
Ġd ue
Ġcompan ies
Ġevery thing
Ġc and
Ġt em
Ġe y
Ġf ederal
Ġtr a
am er
Ġw atch
Ġst ates
Ġro om
e al
Ġlead ers
ĠHow ever
p ite
Ġc ustom
u ation
ĠW ashington
ĠJ an
Ġro le
un g
Ġ201 2
ĠG u
Ġinf l
Ġs ound
Ġl ab
Ġd am
a ul
ĠG e
iv il
Ġrele ased
Ġofficial s
Ġse lf
Ġst ri
Ġt re
ib ility
id ay
Ġbe gan
il t
S o
ĠD av
ĠIn st
I S
ĠS outh
he ad
Ġo pt
ĠA pp
Ġen er
Ġpos ition
Ġfin al
Ġt reat
ob al
Ġcharac ter
Ġstud ents
Ġmat ter
r an
Ġout side
Ġd ou
Ġdevelop ment
Ġstate ment
viron ment
Ġhim self
Ġab ove
Ġ1 00
ad es
Ġst at
Ġbre ak
Ġam ount
se c
Ġ201 7
Ġprov ide
l im
Ġin it
end er
Ġhour s
l ike
Ġit self
er y
Ġoff ice
Ġ19 8
Ġrep resent
Ġthem selves
Ġa ction
ĠIn tern
Ġbec ame
Ġcount ries
Ġgener al
Ġadd ress
Ġcontin ue
Ġd i
Ġ2 5
Ġg un
Ġne g
Ġtr ue
ĠP art
A N
te e
Ġspec ific
i od
ac ed
1 3
ar ter
Ġsim ply
Ġl arg
Ġsignific ant
' ll
l ish
Ġwas n
ĠA ss
C h
at t
um b
ace book
ograp h
ĠR es
Ġinter view
as k
re g
Ġg round
Ġdiff icult
Ġad minist
Ġev idence
Ġrun ning
og n
ĠJ ust
Ġr ad
o id
Ġvers ion
Ġc op
og le
Ġd rug
Ġag ree
Ġb ar
il i
Ġbuild ing
e ks
Ġneed s
Ġgroup s
ĠE d
idd le
Ġcomm on
ĠCh ina
Ġprof ess
Ġty p
Ġshow s
B C
Ġresp ons
l am
ang u
re am
Ġd om
Ġevery one
Ġneed ed
Ġd est
Ġb all
ĠG erman
Ġl at
ĠS ep
Ġwom an
Ġbel ow
Ġrele ase
Ġmus ic
Ġex c
Ġin j
r ight
ourn al
Ġpret ty
rib ut
l ight
Ġinclud e
if t
ĠM ed
Ġsa w
Ġde ep
ĠA b
Ġplay ed
b ody
Ġener gy
Ġqu ite
Ġindust ry
Ġch arg
Ġplay ing
Ġm ot
Ġa p
Ġ5 0
Ġcand id
Ġph ys
Ġm ag
Ã ©
Ġl ate
Ġs ense
Ġal leg
Ġleg al
Ġwh ite
ĠH is
Ġfriend s
Ġg en
s er
iv al
Ġan im
ĠA fter
1 7
at ur
Ġinst ead
H ow
Ġab s
w here
Ġval ue
y le
Ġb illion
Ġl ost
Ġes pecially
Ġre d
le v
ĠW est
ĠM us
os ing
Ġh ost
om m
t ime
Ġh om
Ġwe eks
or ing
ĠN ot
ĠNew s
Ġp le
cc ording
Ġfor ward
is c
ep end
b o
Ġdet er
ag er
Ġrecent ly
iqu e
ist ic
Ġe lection
ĠT witter
Ġob ject
Ġj ud
Ġtr ack
Ġ {
Ġvot e
Ġsu ff
Ġchang es
ĠO ct
Ġopp ortun
med i
Ġper iod
ĠWh ite
Ġlong er
1 8
Ġs ite
Ġp ain
A R
Ġso on
ac hed
Ġac cept
Ġe p
ir t
l t
A S
ĠC ong
Ġsh oot
Ġhop e
Ġeconom ic
o ke
h od
ir m
ri pt
ar c
Ġmom ent
Ġdec l
Ġp ie
ĠW ill
le ge
Ġche ck
Ġcons um
Ġt it
Ġpot ential
ĠM arch
Ġwr ong
Ġbl ock
ĠDep artment
Ġc red
Ġon line
du ct
n ers
o e
Ġhig her
on se
Ġfoc us
anc ial
Ġ2 4
Ġcons ider
Ġwor ks
Ġed uc
Ġp arent
Ġsh are
id ing
Ġrel ig
Ġc irc
Ġhe ld
Ġw alk
c ial
Ġp red
Ġl ed
Ġwe bs
ul arly
ĠM y
Ġl o
m e
o le
Ġre ve
Ġgo al
ĠD r
ove red
ĠThe se
Ġst ru
Ġst ay
ke y
ĠA ug
Ġcont ract
Ġword s
le ar
ĠRepublic an
op h
Ġris k
Ġso ld
Ġresult s
Ġc ode
Ġre view
n s
The y
Ġre v
Ġserv ices
Ġlaw s
ĠM ich
Ġfun ction
Ġw ind
Ġa ud
Ġapp lic
Ġtot al
Ġart icle
c il
ic ro
f ect
Ġc e
ĠSy ri
Ġa ge
Ġmin utes
Ġperson al
il ities
ĠJ une
Ġany one
u ary
ur d
p ut
i j
as ons
i ents
it ution
Ġtarg et
ate g
Ġear lier
Ġd en
a ut
Ġfav or
Ġpr im
h aps
Ġup d
Ġan sw
pr il
Ġexp ress
Ġcomp ut
ang er
ĠM e
Ġde ad
Ġr ate
Ġpop ular
Ġtechn ology
Ġne cess
u le
Ġv ol
ag ing
Ġres pect
Ġ201 1
Ġen vironment
f er
Ġrece ived
A d
ap an
Ġexpect ed
Ġh y
ĠP e
Ġsur pr
Ġcre ated
Ġant i
em ber
2 5
Ġb ase
end s
ĠJ uly
v al
h am
Ġproble ms
ĠP ar
__ __
Ġw ays
ĠS m
Ġcom ment
ip le
ud e
Ġsc ient
Ġincre ase
Ġp ort
u el
re et
Ġpriv ate
Ġannoun ced
ĠN e
Ġeas y
Ġsh ot
Ġcan not
act ion
ĠD o
is l
Ġquest ions
ĠCong ress
P h
ater ial
Ġfor ce
al t
c he
et er
Ġimp act
Ġ +
pl es
ĠE n
ĠF acebook
Ġp ack
Ġl angu
r ay
ĠM ond
her n
= =
Ġe t
at ives
ĠG od
Ġp ur
b it
Ġinvol ved
av ing
ct or
ĠAust ral
h ood
A l
ill s
Ġexec ut
Ġd iv
Ġmod el
ues day
Ġst aff
on st
Ġex act
Ġspe ak
Ġty pe
Ġc ivil
Ġs en
le x
it iz
om b
Ġne arly
i res
Ġ19 7
Ġcont ent
Ġter ror
E S
our t
Ġc ases
Ġorig inal
ok es
ĠGo ogle
Ġrelations hip
n a
Ġle ave
Ġins ide
Ġresp onse
Ġcap t
ĠFr iday
Ġf ans
ĠA pril
Ġ <
Ġintern ational
ll ed
ll ig
Ġco ll
ĠR ed
Ġhe art
Ġar rest
Ġa verage
Ġbro ad
Ġus ers
ĠC ount
Ġwor th
A t
Ġc ell
Ġ201 0
Ġl iving
Ġso ft
Ġc al
ot o
T o
Ġbec om
Ġreport s
Ġkill ed
Ġ ur
Ġn ation
Ġsour ce
ĠMond ay
Ġsub ject
re l
c ast
g ing
ĠT uesday
Ġwork ed
ĠE m
ip s
at ural
Ġim medi
Ġass oci
tem ber
Ġgl obal
est s
Ġcl ub
Ġest ab
Ġresp ond
b or
6 0
j oy
ĠAmeric ans
Ġch ance
Ġab ility
Ġo il
ĠA ct
Ġt akes
Ġde l
Ġpr ice
Ġwe ap
e ch
rough t
ĠP al
a el
Ġdirect or
ĠP er
ĠJ apan
Ġwork ers
op s
Ġt ou
Ġter ms
olog ical
Ġpubl ished
ĠWh ile
it es
Ġro ad
Ġfin ancial
Ġph one
Ġcol lect
Ġdec ided
Ġm id
Ġm other
Ġl ack
Ġs qu
ĠRuss ia
ĠW ed
Ġdef in
ĠS ome
os ition
iz ing
Ġst ore
ove mber
he l
is es
Ġg ave
Ġbu y
Ġg irl
Ġinfl u
Ġ4 0
m on
ĠCal if
r ain
Ġhappen ed
Ġrequ ire
Ġl og
ĠN ow
k y
Ġe mer
ĠS an
Ġf em
cl us
Ġcap ital
Ġfore ign
Ġcurrent ly
b ased
ĠO ff
Ġgo es
vert ise
Ġ @
ov ed
Ġind ic
Ġm aterial
Ġsit uation
Ġoff er
Ġwho se
Ġl ives
ĠB y
ĠC or
ĠGe or
Ġt al
ough t
Ġpl ans
Ġaff ect
nes day
Ġar ri
Ġmem ber
in o
Ġrec ogn
ro wn
Ġev ents
Ġp ict
Ġnet work
urs day
Ġpartic ip
ru ction
ĠJan uary
Ġteam s
Ġturn ed
Ġmet hod
ĠF eb
E N
es e
" .
Ġmeet ing
ct ions
f ully
Ġint rodu
ĠH ill
Ġsim ple
Ġb ank
ĠS und
ĠIs lam
Ġn orm
O ne
ĠSep tember
Ġ ill
un t
Ġh uge
Ġreg ard
Ġare as
ĠA g
ord er
Ġcou ple
Ġc y
O R
Ġcare er
ĠT V
Ġappro ach
ĠAf ric
" ,
Ġr ace
Ġde li
ĠG l
Ġp age
ĠDav id
tt p
Ġperform ance
ĠN ovember
ou d
Ġto ol
Ġ2 1
Ġem ail
Ġquick ly
Ġf elt
Ġnum bers
l oad
ist an
et y
Ġadminist ration
Ġor d
Ġm is
ĠE l
Ġvict im
ĠWed nesday
Ġte xt
Ġimpro ve
Ġh on
Ġeng ine
a ily
ĠP aul
e es
Ġv ia
Ġr ound
Ġp ull
ap t
o or
a ur
ch ie
Ġf re
ĠEurope an
Ġl oss
orn ia
Ġ2 2
Ġbu ilt
Ġf ather
Ġp ers
ĠTh ursday
ĠA ng
Ġd ig
Ġth ous
l in
Ġb oy
av y
Ġprodu ction
Â Ń
en ed
Ġhe ard
ruct ure
um e
Ġeconom y
ĠAug ust
Ġtr ade
Ġen joy
Ġbo ard
Ġm atch
Ġw ide
d own
Ġwebs ite
Ġco ver
Ġreve al
Ġhand s
Ġtra vel
e ed
Ġsp ent
Ġallow ed
Ġsec ret
ce mber
Ġre pe
ĠC ourt
Ġpo ll
f ace
Ġinclud ed
ĠOct ober
im ent
Ġleg isl
Ġl ower
Ġb i
Ġst e
or ters
Ġkn ew
at ory
Ġne igh
4 0
Ġbeh av
Ġwant s
us es
ict ion
ight s
Ġto wn
Ġse par
ĠBrit ish
? âĢĿ
ĠS ch
b l
en ces
ĠCanad a
Ġper fect
es tern
re ct
Ġget s
Ġvis it
Ġmove ment
Ġtri ed
Ġ }
ess ion
an ks
age ment
Ġc ause
is hing
Ġfor ces
g est
ĠSund ay
âĢĿ .
g round
Ġen s
W ith
ra z
A fter
] [
for ce
ce ed
Ġpartic ular
Ġatt ention
Ġve h
Ġf ear
ĠCalif ornia
Ġb ud
ĠU K
Ġre ach
Ġlook s
Ġpop ulation
en ing
Ġvar ious
Ġb rought
Ġl ink
ib ly
ĠK ore
) ;
ur ning
Ġv o
Ġ2 3
ĠI S
ar ily
Ġprev ious
' d
Ġm ention
ĠRuss ian
Ġmor ning
Ġgrow th
Ġf air
Ġtr aining
ide red
Ġpro gress
und red
S h
Ġfe ll
y ond
se qu
all ed
c le
ĠS w
Ġs ong
ĠDe cember
Ġs ize
ak er
ident s
A L
ĠQ u
Ġdem and
2 00
ĠBl ack
Ġcont act
Ġim age
led ge
c ies
Ġr ac
Ġh or
Ġrul es
Wh ile
h old
ec ause
Ġlead er
ific ation
Ġl iber
Ġse arch
ĠH er
Ġpre p
i am
Ġ ess
Ġh ot
f ield
ĠP ost
ĠSt reet
m a
Ġc itiz
Ġlat est
Ġup on
Ġstru gg
Ġind epend
u ments
c ome
Ġco ach
Ġfeat ures
ond on
Ġtalk ing
ĠJ ew
in ks
Ġf ast
s et
z e
ĠSen ate
Ġadd ition
Ġst ar
ĠP ark
ĠC ont
ar th
Ġex am
---- ----
Ġw ond
g es
Ġspe ed
Ġcons idered
ra q
ic les
ĠP at
Ġre b
ar ies
ĠT imes
i ant
E D
R e
Ġlevel s
Ġinvestig ation
ĠCount y
Ġsl ow
llig ence
Ġcon duct
Ġmed ical
Ġc ard
b ed
Ġlangu age
im ately
Ġa chie
O S
ĠK ing
Ġm ach
atur day
ĠPart y
ĠCent er
Ġcrit ic
Ġs ort
Ġp aper
Ġp en
f l
Ġs n
Ġu nd
Ġparent s
Ġ200 8
ĠT ex
Ġsystem s
om p
ĠInd ia
w o
ys is
ap h
v ent
Ġpri or
Ġsex ual
u k
A C
Ġwrit ten
U S
Ġdo ll
im in
Ġsaf e
p ir
Ġdoc ument
Ġbo x
T r
op e
Ġsp okes
Ġsee k
d e
Ġd raw
e ared
ig r
et h
Ġincre asing
Ġhe ar
il le
Ġs ens
Ġeff ort
ĠMus lim
Ġse ven
un k
u it
9 9
at form
ru ary
Ġs on
Ġjob s
Ġcons erv
Ġlear n
id ge
as c
Ġext reme
he t
sy ch
ĠI ran
Ġprev ent
Ġser ious
Ġreg ul
I T
Ġr ange
in ing
Ġviol ence
r ast
our ces
Ġcomplete ly
ĠI raq
Ġ ...
Ġ200 9
Ġin n
u f
Ġmess age
ĠM ark
Ġcon c
Ġsur ve
Ġinterest ing
ro om
Ġob v
Ġsc reen
reed om
Ġopportun ity
ĠCh ar
it ch
Ġcl imate
Ġmajor ity
Ġpartic ularly
Ġclaim s
Ġdou b
Ġ â
ab or
Ġdes pite
an ced
ĠL ondon
Ġj ournal
S he
ĠR om
Ġansw er
ic o
e ff
Ġdef ense
Ġcar ry
Ġgu y
Ġsoc iety
ent ially
Ġattack s
ĠK e
an i
vertise ment
ens ion
Ġbig gest
is ions
Ġexact ly
am ing
Ġext ra
ĠDon ald
Ġrequ ired
ĠE ast
ren ch
Ġare n
Ġp aid
Ġexper ien
ĠM ore
ines e
h a
Ġqu arter
2 2
Ġc ross
ly ing
Ġrem ain
ill ed
uc lear
Ġmod ern
O P
Ġoffic ers
Ġpract ice
Ġh undred
I C
Ġex cept
Ġn atural
ib r
i ers
Ġcertain ly
m p
ut ions
in ally
Ġt able
Ġm iddle
Ġst ories
Ġ2 8
t r
ĠS aturday
ĠN et
Ġd ro
Ġ2 7
Ġg as
o o
Ġlook ed
Ġsur v
os es
Ġus er
Ġproduct s
Ġsomet imes
Ġhist or
Ġst uff
n ces
er c
Ġfin ally
Ġbl ood
Ġmov ie
Ġsc ience
Ġsum mer
Ġl ay
u x
Ġlead ing
Ġchang ed
Ġon es
Ġdescrib ed
osp ital
Ġcommun ic
Ġe ight
Ġter m
Ġa w
Ġdet ails
Ġim ag
Ġcon vers
ĠFeb ruary
Ġpr ison
ous ly
av es
Ġstart ing
Ġocc ur
ĠS pe
Ġn amed
Ġqu ality
Ġshow ed
h ib
Ġg iving
ic ks
Ġrem ains
Ġprov ided
Ġp an
ĠMc C
Ġcost s
u ing
Ġreg ion
ĠS and
Ġu lt
ĠS oc
Ġf it
Ġdam age
Ġd anger
Ġp ath
Ġm ob
Ġch ief
augh t
ak ers
Ġpo or
Ġcontin ued
Ġmult iple
Ġ *
Ġeduc ation
ad d
Ġdem onst
Ġgrow ing
pp er
Ġcom ments
en ge
ĠT H
ĠM or
2 4
Ġpart s
ar i
Ġ2 6
Ġwrit ing
ĠT ur
Ġm ent
Ġass ist
Ġmain tain
ar r
Ġthink ing
N o
Ġit em
ĠRepublic ans
ĠE ven
Ġpur p
in ary
n y
Ġp urch
Ġrequ est
Ġimp lement
ĠC he
ĠD es
Ġwr ite
Ġd ied
Ġread y
ĠC oun
Ġf ix
Ġwould n
Ġcult ure
ab les
id a
Ġeff orts
Ġincre ased
ĠDemocrat ic
co in
Ġread ing
Ġvot ers
ag o
mit ted
Ġm ill
Ġsp ot
Ġus ually
ĠS er
A M
im inal
Ġeffect s
Ġcall s
Ġf ile
Ġper haps
Ġal one
Ġc amer
op er
ĠLe ague
et t
F L
ĠG ener
ĠB ill
ĠF irst
Ġal though
Ġse lect
Ġgu ys
Ġcons ist
Ġto wards
p re
Ġdirect ly
Ġstand ard
Ġbe yond
ĠMich ael
Ġsub st
ĠCh inese
Ġh ous
f ort
ĠTex as
al y
Ġ( @
b an
Ġreal ity
Ġpl atform
Ġce le
ĠM on
us ing
it ute
Ġspe ech
Ġthrough out
Ġav oid
ic ated
te red
il es
Ġstud ent
Ġfoot ball
y l
ar ian
Ġk ids
ĠJ ames
Ġcould n
8 0
I m
row d
Ġimmedi ately
Ġinclud es
Ġun f
Ġro b
Ġcon cept
Ġcent er
Ġchall eng
Ġcomple x
Ġcho ice
Ġsc ene
Ġc at
Ġcl os
Ġadd itional
Ġw ife
f ord
Ġrese arc
Ġrec omm
Ġep is
Ġt ro
ĠC ons
an ch
B I
he st
Ġsoft ware
ĠâĢ ¦
ĠMin ister
Ġdesign ed
ur t
Ġcor por
z z
Ġrem ember
Ġsaf ety
ĠInd ian
Ġg one
ou l
ĠJ ack
Ġs le
Ġoffic er
Ġse ll
Ġto ward
Ġ il
w ise
Ġpie ce
Ġt en
Ġag ency
Ġbat tle
ac hes
it or
Ġfig ure
Ġdeb ate
Ġop in
Ġthous ands
ast ic
Ġcoun ter
Ġbr ain
ress ion
Ġa head
Ġ ver
ic ient
Ġrece ive
ru pt
A ll
air s
Ġrel ative
Ġlet ter
ad em
amp ions
Ġbl og
om en
ag on
N ow
ar a
st on
Ġpress ure
port s
ir th
im um
Ġappear s
ur g
il ies
Ġo ption
2 3
ĠB o
Ġ >
Ġmov ed
Ġla unch
Ġs il
ĠPl ay
Ġcle an
Ġpass ed
Ġproper ty
Ġ6 0
ol ute
Ġst age
ate ver
ĠI I
Ġpre c
Ġhelp ed
Ġ ut
Ġtw e
ro y
Ġdri ve
Ġalleg ed
Ġt our
ĠApp le
m en
s p
Ġro ck
ĠG reen
Ġdis app
Ġmean ing
ĠAss oci
Ġmov ing
Ġd ate
.. ..
ĠR ich
augh ter
Ġcr is
o es
ĠDemocrat s
Ġsus pect
Ġdo g
Ġtou ch
Ġsc ore
Ġcond itions
j ust
Ġd ark
Ġorgan ization
? "
it ation
ĠThe n
Ġcomm and
Ġbud get
Ġs at
Ġre asons
Ġp ark
Ġ ign
Ġn uclear
Ġmy self
Ġhapp y
Ġ x
Ġdev ice
Ġmay be
Ġbegin ning
Ġde g
ri ef
Ġn om
Ġdiffere nce
Ġcharac ters
n ew
ber g
Ġenc our
Ġfail ed
Ġcomput er
Ġc ast
ch an
Ġn ature
Ġcop y
Ġf an
Ġle ague
m ore
ĠS erv
am b
ĠS im
Ġtit le
Ġa im
Ġcomp ared
Ġw all
ock ed
Ġest im
Ġsh own
er ve
Ġey es
ĠSu per
ĠEng lish
Ġcol lege
ĠD ay
Ġpower ful
Ġcent ury
y an
w ood
iv ity
ĠSt ar
O T
ĠV al
Ġlim ited
Ġy es
Ġcont ribut
Ġpos itive
le ase
Ġb al
Ġref er
ain t
Ġsc he
Ġfor ced
Ġnecess ary
Ġcandid ate
Ġb and
Ġbook s
Ġdis p
Ġst ra
Ġlarg est
ĠH ere
ĠR ober
Ġnot e
Ġconf erence
Ġtr ust
ĠF rench
ent y
ci ent
Ġar ch
Ġanal ysis
uf act
Ġs al
our ce
Ġpresident ial
Ġcitiz ens
Ġsp ending
Ġh ar
ven ue
Ġth row
Ġme ant
ig ration
Ġschool s
Ġexecut ive
Ġphys ical
ĠSyri a
Ġa ware
Ġevent ually
Ġfollow ed
ĠW ind
Ġfe ature
ĠM art
or ks
Ġf irm
ĠO f
Ġc rowd
a ud
Ġtreat ment
Ġconf ir
ĠT or
Ġstre ng
ĠB en
Ġm ix
Ġb ott
ĠA ir
Ġ2 9
Ġrelig ious
Ġaut om
Ġeas ily
or ney
Ġ19 6
Ġgr ad
Ġco ol
Ġil leg
Ġfam ilies
ĠD is
Ġp us
A D
a res
ress ed
Ġes c
Ġg ives
r ated
Ġact ions
ĠM ex
2 7
) :
Ġallow s
Ġover all
Ġfe ed
b and
Ġd raft
bo ard
Ġyour self
c raft
M y
Ġsus p
Ġapp eared
er o
Ġinc ome
Ġdet ail
c ul
Ġsign ed
Ġsm art
ir ing
et ro
Ad vertisement
Ġanal y
ub e
A P
b um
Ġide as
Ġcent ral
en cies
ĠÂ £
Ġweap ons
Ġsen ior
Ġan g
B e
ĠB el
Ġfre qu
Ġdis play
ĠGo vern
Ġcred it
Ġprom ot
Ġdec ades
Ġn ice
Ġp sych
k en
Ġpolit ics
I s
Ġcr ime
B y
Ġus es
Ġdis e
ĠIntern ational
ut y
Ġs ales
Ġal tern
Ġun ique
Ġd rop
D on
A ccording
Ġdevelop ed
Ġrel ated
Ġdo or
Ġl if
Ġbenef its
Ġs we
Ġcustom ers
Ġconf lic
ur ance
ĠS chool
Ġnot ed
ĠAustral ia
Ġcris is
i able
N ew
Ġgo als
Ġpred ict
res h
ĠC ap
ĠJ er
Ġm ist
ĠE U
Ġtr uth
ĠAr ab
Ġindividual s
Ġcontin ues
ĠUn ion
ĠE arth
on ents
Ġch arge
Ġl ic
Ġbe aut
Ġchall enge
Ġr ap
Ġapp arent
Ġst o
ĠSm ith
ĠAng el
Ġproject s
ite ly
3 5
in y
m ar
Ġpe ace
4 5
in n
Ġman ager
Ġmeas ure
Ġr ule
Ġcor rect
ĠPol ice
n own
b ox
p art
Ġinte lligence
2 6
ĠGerman y
ĠChrist ian
Ġfull y
Ġr ates
Ġprev iously
Ġadv ant
Ġbro ther
Ġcle arly
ri age
Ġl ines
Ġre form
Ġsuccess ful
Ġtr aff
I D
Ġexp and
ot i
Ġhigh ly
ch ange
E C
Ġlarg er
r s
Ġseem ed
Ġsp read
ound s
Ġprogram s
ĠCoun cil
Ġstra ight
Ġres ources
Ġinc ident
ĠFr anc
i ance
S ome
Ġem b
Ġcr iminal
ic ed
Ġmin or
ĠT om
ĠGeor ge
Ġgreat er
Ġprim ary
Ġstud ies
at tle
in ated
Ġknow ledge
Ġsa ve
wh ile
ĠFl or
ĠCom p
ow ers
Ġatt ract
Ġke pt
or ter
ant ly
O M
Ġsp ir
Ġem ot
Ġre ached
ĠIntern et
Ġcol or
ate gy
Ġwe b
Ġfe et
Ġr are
lev ision
sec ut
ĠH igh
ĠBro wn
n et
Ġreg ular
Ġpl aces
d om
Ġar m
Ġfavor ite
ĠR ec
ol ic
ĠB er
2 1
se y
Ġman ufact
e an
ĠC r
Ġs end
w ide
ĠD ef
id ers
od ay
Ġla un
Ġpre m
Ġactiv ity
Ġknow s
Ġshoot ing
E T
Ġsour ces
Ġp un
ĠH am
Ġnorm al
ic it
Ġstat us
Ġfight ing
ter m
I A
Ġvo ice
Ġf ine
ot a
lic k
U n
ic ago
Ġca used
Ġclaim ed
Ġr ise
Ġown ers
Ġ200 7
Ġlit er
on ent
Ġen em
Ġopt ions
eng th
ĠA nt
ĠGener al
b on
ĠR ob
Ġinte gr
ĠG old
qu e
ro ll
ĠU p
Ġc ities
Ġsp end
oc ks
Ġorgan iz
a ith
ĠM ac
Ġresearc hers
Ġcall ing
Ġend ed
m iss
2 9
us ion
Ġsh ut
2 8
Ġref lect
E O
il ed
Ġpr ices
v ille
âĢĿ ,
ĠEng land
1 00
m ission
Ġfem ale
Ġwill ing
ĠF rom
ww w
ĠE very
os h
Ġra ised
Ġal bum
Ġha ven
Ġemploy ees
ĠL a
if ying
Ġsupp osed
Ġadd ing
mit tee
Ġj ump
Ġv irt
Ġe le
Ġhapp ens
it ness
u ana
Ġn ames
Ġcharg es
Ġpolic ies
ro id
ol es
Ġtr ou
Ġconcer ns
m ark
or g
iver se
Ġpro s
Ġbas ic
Ġtrad itional
Ġwa it
Ġabs olute
rib ution
Ġac qu
Ġpl ant
ĠB re
ĠA P
Ġfund ing
Ġsl ight
A r
ĠB ay
Ġh ospital
Ġauthor ities
Ġpat ients
Ġcreat ing
Ġmin ister
Ġpr int
um an
Ġcom mer
Ġf reedom
Ġme chan
ro l
ĠM ag
ing er
Ġsc en
ad o
Ġh ttp
ve re
Ġsee ing
N ot
Ġbe at
Ġl ik
Ġgr and
Ġst yle
Ġst ation
Ġp ush
Ġle aving
. âĢĻ
ĠSc ott
Ġbe g
ij uana
ĠM o
Ġb irth
ĠFlor ida
Ġim pl
Ġagree ment
Ġens ure
k i
Ġbehav ior
ri an
Ġoff ered
se e
Ġact ual
so ft
Ġm er
Ġe th
on a
Ġwe ight
Ġpost ed
ac ing
Ġweek end
Ġg reen
Ġc ry
Ġgo ld
Ġ ir
ic a
Ġey e
ĠM ost
Ġval ues
Ġapplic ation
r am
Ġdeter min
ĠHill ary
Ġmost ly
ĠRe g
ĠWe ll
Ġob ser
Ġreveal ed
Ġprop os
al se
. '
Ġad op
Ġr ank
ĠA lex
Ġv ac
H ere
ĠA ccording
p en
ĠS un
IN G
Ġrecord s
Ġad ult
it ude
y a
Ġestab l
tt ps
ab y
Ġen force
ear ch
Ġb rief
Ġbelie ved
Ġpict ure
Ġlear ned
ĠL et
Ġinst all
P ro
ing ly
ĠL aw
Ġapp l
Ġstr ategy
Ġqu al
Ġcho ose
S c
p ri
Ġd ire
Ġwond er
Ġmass ive
Ġw ild
5 00
ist ry
ign ed
ĠPe ople
Ġ ;
Ġarrest ed
Ġlaw y
Ġpart ies
Ġdev ices
Ġbenef it
Ġc ars
ĠPh il
ĠCh icago
Ġwh om
Ġwh atever
u ild
Ġm ount
Ġprov ides
Ġw at
Ġstre et
Ġun s
li ament
ĠO h
ĠFr ance
Ġass ault
Ġoper ations
ĠM at
Ġl ose
t ies
Ġm ission
Ġjud ge
Ġfeel ing
ĠTr ans
Ġinflu ence
Ġask ing
7 0
Ġf at
Ġcrit ical
Ġprodu ced
Ġshow ing
Ġneg oti
Ġent er
ĠL ou
ĠB ush
Ġtem per
Ġconfir med
ĠSec ret
Ġim ages
Ġdist rict
Ġrun s
ĠSt ud
Ġpat tern
p oint
S A
Ġt end
Ġb order
ĠP ort
O U
Ġres idents
c her
3 3
Ġdeb t
or ial
How ever
Ġse ction
ri ption
ĠCom mittee
c ont
g en
Ġc ru
m ine
ĠHe alth
Ġet c
Ġcele br
ĠComm ission
Ġprodu ce
u gg
Ġte ac
Ġdef end
Ġopp osition
Ġindepend ent
ĠP ress
ak ed
ent ed
Ġc ore
est ic
ĠWh y
ĠW all
Ġdr ink
Ġhe ro
Ġt ick
Ġadv oc
Ġbr and
ĠIn te
Ġ Ð
Ġdoll ars
Ġdig ital
Ġsol ution
E L
st e
Ġeffect ive
ic ial
r ont
ĠKore a
Ġhig hest
ri al
Ġinterest ed
ce ll
Ġv ill
Ġopen ing
ĠM od
ĠB it
Ġtri al
Ġwor se
ra v
ag s
Ġk ick
Ġrespons ible
ud d
Ġthe ory
Ġoff ers
oc r
Ġlear ning
icro soft
Ġmem ory
Ġrepl ace
Ġrest rict
Ġd aily
ĠS am
ĠPal est
Ġag reed
ĠOff ice
Ġte levision
ĠO ther
ĠFranc is
Ġtr ain
ord s
ĠB ecause
ĠM al
Ġocc as
Ġinvest ment
Ġdet ect
Ġm ur
Ġtyp es
ur ies
et ty
Ġmill ions
ill ing
Ġmil es
ĠC up
Ġv s
Ġch air
E x
ĠM ike
Ġche m
ĠJust ice
ĠW estern
i ation
ic ians
Ġprop osed
Ġbas is
n o
ci ence
The se
Ġgener ally
Ġexpl ained
Ġhe avy
L e
ĠO ur
Ġ8 0
Ġopin ion
Ġm ap
ĠD el
Ġb ur
ĠM il
B A
Ġpart ners
Ġon to
Ġprot est
Ġd er
C l
Ġdef e
Ġl oad
Ġbecom es
Ġassoci ated
ĠN FL
az ing
i pe
as te
ĠAd d
ĠSec urity
ak s
Ġob tain
Ġm ale
Ġadvant age
Ġdest roy
Ġre ject
ad ing
Ġannoun ce
ĠF ound
Ġass um
a e
Ġco al
Ġhundred s
Ġcond ition
r ate
out hern
Ġachie ve
ĠWind ows
Ġopen ed
I L
and er
ĠL iber
Ġunderstand ing
com ing
ĠJohn son
Ġsur round
Ġinit ial
el ine
ic ip
F C
ort hern
w in
Ġmar riage
od es
v est
Ġth us
Ġeas ier
Ġman agement
Ġb orn
Ġlim it
o om
Ġlegisl ation
Ġsle ep
Ġelect ric
r ig
Ġbecom ing
Ġsh ip
Ġspec ies
Ġacc used
ĠB ig
ĠM any
Ġun like
9 0
Ġcontro vers
ĠG reat
Ġ ice
Ġdou ble
Ġphot o
o ly
we ll
Ġsh ared
k nown
Ġs pl
Ġneigh bor
Ġr at
re y
Ġ3 1
Ġjo in
Ġ200 6
Ġilleg al
ĠT er
Ġdoc uments
ber t
Ġser ved
Ġextreme ly
Ġcamer a
u pp
r ad
wit ch
Ġfr ame
ĠIslam ic
ĠL ab
ĠA M
Ġact ive
Ġloc ation
Ġmach ine
Ġaud ience
C on
Ġscient ists
Ġstri k
Ġser ve
Ġvictim s
Ġbott om
Ġn ine
Ġprofess ional
Ġ3 5
ĠD ist
Ġcommun ities
le vel
Ġwin ning
Ġredu ce
Ġneg ative
M r
Ġres ist
or row
Ġreturn ed
Ġmar ijuana
Ġwe alth
Ġsol id
3 2
ortun ately
âĢ ¢
B S
Ġch urch
ĠInst itute
if ul
Ġinc red
Ġveh icle
l ant
Ġbelie f
gh an
Ġpurp ose
Ġb ed
Ġvict ory
Ġr an
ĠP M
Ġdep artment
Ġ9 0
Ġleaders hip
i pped
Ġintern et
ĠH all
G B
ĠU k
Ġmob ile
ir gin
Ġam b
ĠComm un
Ġb omb
land s
Ġinst ance
ear s
Ġexist ing
ist ics
Ġd ie
Ġnot ice
Ġsepar ate
Ġdoub t
ol f
P A
Ġhe aring
ĠY our
Ġepis ode
ĠCanad ian
Ġexpl ain
C C
Ġnot es
Ġf aith
Ġte ach
Ġwatch ing
at ically
Ġarg ument
ĠB ank
ĠSand ers
ĠIn c
ĠF in
Ġcom fort
S T
Ġconserv ative
Ġf resh
ĠS l
Ġp urs
Ġview s
Ġput ting
ac ity
Ġsupp orters
Ġun c
ĠF ox
sc rib
Ġitem s
ĠA tt
Ġapp eal
ili ar
Ġlaun ched
h ouse
Ġrad io
ĠE v
Ġcommit tee
m et
Ġdefin itely
om as
Ġdanger ous
as y
w orks
ar an
Ġdire ction
ĠAr t
res p
Ġiss ued
z a
wh ich
Ġco verage
ar io
Ġcharg ed
Ġ Ã
Ġfl oor
Ġs un
ĠM ad
Ġm ax
Ġdrug s
i os
Ġm icro
Ġback ground
Ġcompet ition
Ġst ated
P S
Ġtraff ic
Ġtre nd
v ention
ĠF BI
ĠD irect
ĠO ver
Ġc ards
ĠCh urch
Ġt ask
Ġtrans fer
ĠCar ol
ampions hip
Ġsp oke
Ġsuggest ed
Ġcommer cial
____ ____
Ġsit es
ill er
Ġh us
ĠS ince
Ġh arm
and om
Ġset t
== ==
Im age
in ct
Ġre act
Ġdec ade
ograph y
ct ors
Ġanim als
Ġrepe ated
Ġst ructure
Ġn orth
Ġrest aur
ĠG ame
go ing
ĠL ike
Ġlab or
ur b
Ġdri ver
Ġno vel
Ġd aughter
Ġcont ain
z en
Ġcl osed
Ġwor st
rib ute
ak istan
Ġentire ly
4 4
Ġd ed
Ġdri ving
ant ed
Ġdise ase
ad y
ĠBrit ain
g ency
l a
Ġtell ing
ĠL os
Ġsmall er
Ġdisc overed
Ġn or
Ġc ash
i pp
Ġconcer ned
b ut
il ing
Ġf alse
ĠQ ue
Ġpl ays
3 6
om an
Ġh ack
N A
f erence
Ġsupport ed
ĠW il
Ġtool s
ann el
ĠP ri
Ġsur face
Ġcomp ar
Ġfind ing
i h
A meric
Ġc ateg
Ġexper iment
se mb
Ġtrans port
ĠCh ris
oy al
ul ated
Ġas pect
ĠJ ones
Ġbusiness es
e qu
! âĢĿ
s pe
Ġple ase
Ġold er
Ġg e
s erv
ul f
Ġrequ ires
Ġfar m
Ġ7 0
and on
Ġactiv ities
ad a
az on
Ġstreng th
Ġex erc
ph one
n ight
ibr ary
Ġg ay
Ġwe l
Ġlarge ly
Ġc aught
Ġcon sequ
Ġins urance
Ġmur der
Ġallow ing
Ġcandid ates
Ġann ual
g u
ĠA re
ĠRober t
h ow
Ġra ise
Ġtest ing
o very
ĠIsrael i
g a
Ġacc ur
oss ible
Ġstr ateg
Ġbl ue
ĠU N
he m
Ġcon text
k ins
Ġf uel
E M
Ġdec isions
ic y
Ġst ock
Ġconcer n
ĠK en
ic i
Ġbelie ves
7 5
ĠS up
Ġtr uly
Ġaff ord
Ġun it
ĠA c
os ure
Ġconst ruction
ĠM er
Ġhigh light
Ġgener ation
d o
a it
Ġjust ice
igr ants
ĠUk rain
ĠJew ish
iz es
3 8
ĠAf ghan
Ġl ength
Ġt im
Ġpres ence
ĠM iss
Ġgu ess
Ġw itness
r ick
Ġhold ing
ĠAfric a
ang ing
B l
Ġplan ning
Ġref uge
ĠS il
ĠG ree
ck now
i us
it able
ĠT re
ĠAssoci ation
Ġestab lish
Ġpl aced
an cy
ĠT y
ter y
Ġsc ale
Ġse qu
Ġc atch
N N
ĠAfric an
Ġspokes man
Ġr ough
Ġjo ined
cept ion
Ġtell s
ĠM icrosoft
Ġatt end
O L
âĢ ĺ
Ġs an
Ġcell s
Ġinterest s
n el
Ġhas n
pect ive
l or
Ġab use
Ġenforce ment
Ġmention ed
it t
ĠG OP
Ġintrodu ced
Ġr out
Ġdeli ver
Ġinit i
ĠJ im
Ġconflic t
ĠP C
Ġk id
3 4
Ġupd ate
Ġprov iding
Ġmiss ing
M ore
Ġwa iting
Ġcan cer
oll y
Ġrecomm end
r im
ĠAngel es
Ġoff ensive
Ġ200 5
S P
Ġe at
Ġph il
Ġrem oved
Ġocc up
ĠFr ank
ĠF ore
Ġestabl ished
in ter
Ġinj ury
ĠV er
av a
ĠInst ead
ĠJ eff
Ġsp orts
ĠP re
Ġdiscuss ion
ocr acy
Ġdown load
Ġuse ful
Ġconvers ation
Ġtrans l
Ġhom es
Ġc ook
b re
Ġf ant
b our
ĠC EO
Ġs outh
# #
Ġoper ation
Ġass ess
Ġobv ious
ĠY es
Ġnews p
ron ic
Ġfil es
Ġmod els
ĠG roup
Ġsto pped
Ġfour th
Ġban ks
form ation
ic on
ic ations
ont o
Ġmeas ures
se ason
ĠCon st
Ġst ick
Ġha ir
ĠLou is
O ur
Ġman aged
ĠP akistan
is ation
wh at
Ġb ul
v ant
Ġfig ures
ot ed
Ġfin ished
Ġgirl s
ĠPalest in
Ġident ified
D A
az ine
ul a
Ġgr aph
Ġ201 8
app ed
ĠMex ico
Ġconc lud
Ġset ting
Ġfund s
ig an
um n
Ġappro pri
Ġhous ing
Ġve ter
c ks
Ġsk ills
Ġthere fore
l ig
Ġarri ved
ĠJ ud
Ġpart ner
ĠT im
Ġpre fer
Ġfoc used
Ġcommit ted
m ail
Ġa cknow
Ġspir it
ĠTH E
Ġkeep ing
om s
ĠLe g
Ġex clus
and a
ul ate
ĠV irgin
ens es
ro s
ĠR ock
5 5
Ġt ough
Ġear th
ĠJapan ese
ĠS al
ĠAnd roid
g ers
Ġident ity
Ġfeel s
e y
Ġ200 0
Ġother wise
Ġrelative ly
it er
up s
ĠSup reme
ĠR yan
pl ace
3 7
re al
out s
ĠK h
it z
Ġprote ction
Ġex change
Ġown er
Ġhus band
w ing
Ġstep s
Ġsurve y
Ġtwe et
C H
ow l
4 8
Ġtri p
itution al
Ġwe ak
! !
ic ation
ĠM P
Ġslight ly
Ġconnect ion
ĠM et
ĠPro f
Ġcl ick
ĠIn ter
ĠAr my
Ġdef ensive
e ah
ere nces
Ġele ments
ĠGovern ment
is f
Ġcirc um
k in
D es
ĠRich ard
ver se
Tr ump
oc al
Ġstri ke
Ġme re
Ġphot os
ĠN or
Ġf le
Ġdep end
ag n
" :
im b
dd en
Ġg ain
Ġro ll
Ġcor ner
Ġcol lection
Ġkill ing
ĠCol lege
Ġgu ard
Ġag gress
anc ing
od ies
g ar
igh ter
Ġsuggest s
u ct
uck y
ĠAl though
ĠMart in
Ġcomm ission
hen s
ony m
Ġd at
Ġment al
Ġam azing
pro f
Ph oto
am m
Ġsupp ly
Ġplan et
m akers
ĠS ur
Ġstart s
r ange
Ġbig ger
Ġfail ure
P l
Ġg ender
r d
ic ide
Ġfam iliar
ĠJ ose
Ġrem ind
Ġsu st
Ġs ides
hed ul
ĠI r
Ġwind ow
ĠD ec
Ġspe ct
re es
Ġspe aking
Ġtal ks
u ate
Ġh ate
ĠJ oe
** **
ren cy
Ġhappen ing
Ġorganiz ations
Wh y
ĠO ut
ĠG ood
Ġst ruct
ĠTe am
Ġtax es
Ġn one
Ġplan ned
Ġthan ks
R A
an ia
Ġw ish
Ġdec ide
gy pt
ĠS ub
Ġar my
G o
4 7
Ġcre w
ost on
Ġsu dden
w ith
ag ues
Ġcar ried
Ġreg ist
3 9
Ġa ward
ĠM ary
Ġp it
Ġhelp ing
id ering
Ġ3 2
ĠWe b
L ast
is er
Ġstand ards
Ġenvironment al
Ġqu e
Ġmult i
il s
ĠM ont
ĠTh omas
u ke
yn am
oc ol
ĠF ire
Ġsc ript
Ġsecond s
ĠRes earch
Ġimm igration
Ġstand ing
Ġrev olution
Ġscient ific
Ġp air
ĠThe ir
Ġdom estic
a wn
ĠB ern
m as
im al
Ġac adem
ad ium
ars h
ĠAl so
ut ers
Ġvar iety
Ġdro pped
Ġmark ets
Ġ4 5
ĠSecret ary
st ream
] .
Ġter rit
Ġfil ed
Ġco ld
Ġaccount s
Ġbe er
4 9
Ġt ack
! "
Ġbal ance
ĠU s
Ġr ou
Ġinter act
Ġimp ossible
Ġneighbor hood
er ous
r un
p m
Ġdeg ree
Ġvot es
Ġoper ating
g n
Ġturn s
Ġapp re
Ġaltern ative
Ġposs ibly
h i
H L
ĠAt lant
Ġv ul
it ect
el ess
a ven
y m
Ġdevelop ers
T C
Ġpr inc
Ġser ver
Ġfell ow
Ġapp ly
Ġs ch
Ġcut s
Ġ= >
Ġprofess or
Ġwor ry
Ġincreasing ly
Ġun its
Ġapparent ly
ol it
Ġun ion
ru it
rast ructure
Ġhon est
ĠServ ice
Ġhum ans
Ġl ived
ĠPr ime
Ġchang ing
ill a
are n
Ġtest s
c ious
ar ks
Ġun ivers
ĠSyri an
Ġr ich
R ead
ol a
l o
ore s
ack s
ĠT wo
ict ed
Ġtw ice
Ġag encies
ĠIm ages
Ġauthor ity
ĠCarol ina
Ġhealth y
Ġl osing
Ġanim al
ad ed
Ġult imately
Ġsound s
Ġat h
Ġset tle
ĠFound ation
Ġsc hedul
ad er
as hed
Ġsold iers
Ġcorpor ate
Ġabsolute ly
Ġpay ing
Ġequ ip
i ams
Ġclos er
ste in
Ġcol le
ĠCent ral
Ġphil os
an o
ĠD en
Ġinn ov
Ġdevelop ing
ob by
ay er
f e
v is
Ġsk in
rel ated
ĠT ime
Ġse a
Ġexp ensive
Ġseek ing
ĠM os
F rom
Ġsol ar
rou d
Ġm ut
Ġposs ibility
Ġexper ts
Ġy ards
Ġwrit er
ab b
Ġfund ament
Ġregard ing
Ġfl ight
Ġbeaut iful
Ġv ast
ĠP et
Ġap art
Ġintern al
ĠDist rict
c oh
Ġrelig ion
Ġde ploy
ans ion
ĠP eter
Ġimag ine
Ġad just
ĠFrancis co
Ġapplic ations
ĠL ast
ĠUS A
Ġv ision
ĠJ on
ĠL at
ĠU nder
ĠPl an
ap ers
olog ies
Ġcap acity
ĠTor onto
Ġun less
Ġtr ail
k a
ĠJ es
l ook
Ġrespons ibility
âĢĶ âĢĶ
Ġer ror
Ġ200 4
E ven
os en
Ġsy mb
Ġsit ting
Ġg ar
ĠM iddle
Ġhe at
st ate
Ġar ms
ist ed
4 6
Ġc overed
i ot
at ures
Ġf ol
Ġfor ms
Ġt ight
p ire
ĠC amp
idd en
3 1
ort ion
Ġapp oint
Ġun iversity
ĠD an
Ġpresent ed
Ġfam ous
Ġear n
ĠB ur
Ġsurpr ise
d en
Ġp il
ov ing
en ced
Ġconv ention
ain e
Ġatt orney
ĠE gypt
o ch
ĠA ri
ĠP ublic
Ġte en
ĠP ut
Ġf if
Ã ¡
Ġelect ions
Ġestim ated
ĠB oston
Ġint ended
O f
Ġveh icles
.âĢĿ <|
ĠAm azon
Ġinst it
Ġhelp s
rib le
t op
Ġoccur red
Ġsp ort
Ġo dd
Ġstre ets
Ġdeter mine
J ust
Ġr id
ress ive
u zz
Ġhy p
Ġexper t
Ġbro ken
ĠS ol
Ġdom in
ĠBit coin
Ġsh all
ur ation
Ġcons ult
Ġgu aran
I V
ro ad
I M
= "
Ġt on
Ġfl ow
Ġf ired
ust er
i as
por ary
ĠS T
L et
A A
Ġtro ops
ĠTh ose
u nder
Ġpie ces
Ġprep ared
all s
w ar
ter day
ĠM ur
Ġn ar
le ts
Ġrap id
ĠCh ief
p erson
h and
Ġb aby
ĠM ass
ed er
Ġcon clus
ĠC ath
Ġbring ing
Ġr andom
Ġloc ated
in te
ĠJ o
anc he
ĠG al
Ġspecific ally
Ġpot entially
Ġp et
ĠA N
or age
ĠAn y
Ġpro ve
ĠO nce
Ġse ctor
ĠSoc ial
Ġequ al
Ġj ail
Ġbo ost
Ġhe av
Ġst ress
Ġsc r
Ġst ars
Ġgovern ments
Ġpropos al
Ġse lling
Ġpl enty
Ġequip ment
ĠV e
Ġcar bon
ĠS pr
Ġinf rastructure
Ġcl in
Ġfact ors
Ġf aster
Ġvot ed
Ġer a
Ð ¾
ve y
ot y
cl ass
end ment
Ġvul ner
ĠJ ournal
Ġcl ot
Ġcomb at
Ġoff ering
ĠR ub
Ġcoun cil
ri e
Ġpro secut
I P
ĠVirgin ia
Ġrul ing
ph as
ĠPar is
in ent
Ġbro ke
Ġsec ure
Ġexpress ed
Ġdr am
Ġb reat
ĠF ederal
ce an
Ġse asons
( )
Ġchalleng es
ure au
Ġelect ed
use um
ĠR iver
Ġpoint ed
ĠGu ard
Ġrem ove
Ġconduct ed
n oon
Ġret ail
Ġ3 6
E very
Ġref used
Ġmethod s
ĠIs land
Ġm aster
ĠO pen
, '
Ġweap on
Ġpr ime
g l
U p
Ġpos itions
Ġb row
ĠAustral ian
Ġtr ig
ĠMed ic
Ġrem ained
our s
ĠP lease
Ġinf ect
Ġcult ural
Ġst ret
Ġappear ance
Ġs ale
Ġd in
i pping
Ġorig inally
Ġwere n
ĠD uring
I ON
Ġsignificant ly
in i
ol ved
D o
is her
ĠLe e
F irst
Ġfin ish
ock ing
Ġfac ing
Ġaffect ed
Ġt ourn
Ġyou th
ĠI N
Ġpercent age
t ion
Ġgreat est
ĠM el
Ġb ought
Ġdetermin ed
Ġc as
ĠF e
ĠC ru
Ġsign s
ĠS ant
Ġinvol ve
A b
Ġ5 00
Ġchem ical
Ġthan k
ash ion
et ic
on om
Ġsh ape
ĠWh o
th at
Ġv ir
N e
Ġrem aining
Ġreg ime
ĠPh oto
Ġg rew
ĠSte ve
ro g
Ġind eed
Ġte le
stand ing
Ġmin imum
ĠS aud
ĠC ur
S ince
ce l
D P
p ired
Ġd ream
Ġher self
h t
ĠS ing
L E
Ġm arg
ĠB oth
ri er
Ġvot ing
ly mp
O W
Ġobv iously
ĠFor ce
Ġ199 0
al ing
Ġmod e
re ens
Ġwe aring
ĠCol or
Ġt act
ly n
Ġrecord ed
Ġre venue
Ġlead s
Ġh un
ĠR em
Ġredu ced
Ġw ood
ĠWill iams
Ġarg ued
Ġcont rast
ord in
Ġpolit icians
Ġpro ced
Ġpurch ase
Ġs witch
ĠN ov
T H
igh ters
Ġappre ci
Ġcon cent
Ġvide os
Ġhand le
Ġth r
Ġag ent
Ġexperien ced
Ġpl us
Ġexc ited
Ġh urt
S te
Ġident ify
g ment
Ġsupport ing
Ġmin ute
h ttp
ĠP ac
ĠR o
Ġsurpr ising
Ġh ttps
s en
coh ol
Ġre nt
0 1
Ġair craft
Ġexpl os
Ġbel ong
Ġafter noon
Ġcons idering
EN T
Ġbas ically
Ġdiffere nces
ĠF ree
Ġpull ed
Ġa id
ow nt
Ġconsum ers
Ġend s
ll er
Ġfil ms
Ġt urning
ed s
y r
ĠH aw
Ġsh ift
Ġgl ass
Ġb ound
I G
Ġpros pect
ess ions
Ġacc ident
Ġsp ring
c ol
Ġdep art
og ue
Ġse at
, [
ĠCons erv
ĠB ook
Ġcomb ined
ĠChar l
Ġmot iv
Ġtre ated
Ġlist en
ru ption
Ġ19 5
Ġopportun ities
Ġser iously
Ġpriv acy
Ġeven ing
od d
Ġlot s
he red
Ġpan el
ĠP ower
Ġconst ruct
Ġcomple ted
Ġpass ing
Ġapp s
Ġstrugg le
pt ed
ĠD aily
ar p
Ġhop es
Ġvis ual
ed ia
Ġenem y
ĠR ad
Ġtalk ed
H is
ĠSte p
Ġcal cul
app ing
Ġwide ly
os ite
Ġemer gency
l ife
An other
k et
ens ions
Ġb urn
h ab
Ġm ort
Ġ id
or al
Ġpl ants
Ġdisc l
ĠB BC
Ġe lement
Ġi Ph
Ġsu it
Ġsub s
Ġp owers
Ġliber al
ĠO lymp
Ġfl at
ĠSh ow
Ġ200 3
ĠR el
Ġa st
ang ed
Ġadv ance
Ġopp osed
Ġpro ceed
Ġcopy right
ra ud
al ed
u ous
uc ks
ive red
W ell
ut s
Ġdef ault
Ġdis miss
Ġfact or
0 5
Ġt un
ĠJack son
Ġz one
Ġdist ance
om pl
Ġattempt s
ĠH ol
ĠPro ject
Ġup gr
as p
Ġenc oun
ab ilities
ĠSp ace
Ġtrou ble
ribut ed
Ġcoll abor
ok ing
Ġrep orters
Ġwrit es
ĠR oad
ra wn
ain ts
pl om
ap ter
Ġfr ust
Ġinst ruct
Ġh ol
ĠM em
ob e
C L
Ġp ages
resp ond
Ġre action
ĠG et
p et
ĠT oday
Ġst orm
m ond
Ġtyp ically
P e
Ġb odies
m osp
-------- --------
I nd
S p
Ġmat ters
Ġref erence
Ġpack age
P D
id el
Ġden ied
er ved
un ction
Ġdisapp oint
ne ll
l ines
Ġexpl o
Ġqu ant
tern al
st s
Ġqu iet
Ġrespond ed
Ġad vert
ĠN AS
ĠDirect or
Ġopt im
Ġappro ved
Ġent ertain
Ġre new
Ġdis s
ap ed
Ġinstit utions
et te
m m
Ġel imin
6 4
Ġs ac
Ġbroad cast
Ġ200 1
Ġstand s
Ġval id
ad ow
Ġsat isf
Ġset s
> >
es ters
ĠOh io
ed d
Ġp itch
Ġspl it
ĠTur key
est ival
Ġcapt ion
y th
Ġse vere
ĠP enn
Ġ //
Ġtechn ical
Ġcap able
ĠWill iam
ĠM att
Ġl oved
Ġg iant
c are
9 5
ĠAfghan istan
raz y
Ġm al
Ġcl oud
Ġreported ly
is ters
Ġtrad ition
Ġconf ident
Ġconf idence
Ġse m
Ġfac es
Ġtrans ition
at o
ell y
T V
er ry
Ġnum erous
ani el
Ġf ly
] ,
Ġwe ather
Ġb ull
ab in
ĠSy stem
Ġpers pective
6 5
Ġcan n
f ree
ĠLab our
raz il
Ġun able
A m
Ġwas te
ĠMed ia
un te
ĠY et
Ġcre ation
." <|
ac he
Ġrou te
P R
ang ers
Ġfor get
Ġsubst ant
h ost
ĠAnd rew
Ġpict ures
w ater
z er
Ġmess ages
4 2
amp ion
Ġviol ent
em ploy
as tern
p ass
ĠS qu
Ġsuff ered
Ġappro x
Ġc raft
Ġcr imes
ĠL in
Ġco ast
Ġfl ag
Ġexperien ces
Ġco oper
Ġadv ice
ĠH uman
Ġp roud
S S
Ġdecl ared
Ġm and
w rit
it a
Ġev al
is hes
Ġex cell
Ġreport ing
Ġord ered
ok en
Ġdecl ined
Ġcircum st
R ep
A pp
us iness
Ġfind ings
Ġexpl ains
ab led
U T
ĠF ollow
ul ations
Ġco ff
Ġshould n
Ġmov ies
du le
Ġnewsp aper
Ġon going
Ġpick ed
Ġconnect ed
r ant
Ġdel ay
il ty
ev in
res ents
ĠW al
Ġv an
ĠSc ot
ound ed
ov es
Ġad mitted
r id
il it
Ġdel ivered
Ġmar ried
Ġwalk ing
D uring
Ġgun s
Ġg ra
Ġarch itect
Ġa uth
Ġedit or
ĠM L
Ġag ents
ion ally
Ġappropri ate
Ġupd ates
ĠM a
se x
c alled
Ġpr in
Ġthough ts
ĠL ake
ans as
Ġed ge
Ġquarter back
u ations
Ġem ails
Ġem phas
ĠMuslim s
Ġle aves
C ont
Ġs ession
Ġfor g
Ġinj ured
Ġacc ompl
Ġ \
O ver
Ġg ather
Ġpublic ly
ĠTe chn
ĠS ov
o oth
ĠT ra
ĠS cience
ĠGr and
Ġper man
ĠW ood
Ġour selves
Ġstate ments
Ġconf irm
Ġleg it
Ġro t
Ġreal ize
Ġdri vers
Ġar med
ess or
Ġ198 0
re land
O ther
, âĢĻ
ner gy
ĠMich igan
Ġr ail
Ġarg ue
Ġalleg ations
Ġd ial
Ġlawy er
c os
Ġcont ains
our ney
Ġread ers
Ġf illed
m ates
Ġpo ol
Ġbuild ings
Ġwe ar
ĠRe ad
D e
Ġterror ist
Ġexerc ise
Ġd ynam
ĠD ou
Ġlab el
ĠB ack
Ġactiv ists
Ġtrans form
Ġs ad
T ube
4 3
Ġtal ent
c an
Ġpract ices
Ġeffect ively
ĠS um
ell ow
ĠA v
Ġcr ack
ĠJ ul
ĠA T
ĠChrist mas
ĠSe attle
Ġsub sequ
ĠRe v
Ġobject s
Ġexam ples
M any
Ġt ree
ĠSe e
ĠR on
Ġmiss ed
Ġf ish
c ons
4 1
Ġcritic ism
ent ure
Ġca uses
Ġsh op
Ġpat ient
Ġfl o
Ġsecret ary
Ġr ain
Ġinj uries
Ġdeb ut
Ġte ch
ĠI ll
end a
Ġess entially
d ate
Ġs am
Ġmot or
ĠR od
ord ers
Ġcent re
ĠW ork
F ollow
as ure
ĠV ict
ar ters
l ong
ĠSt an
R es
ĠI D
Ġmor al
Ġcl ient
Ġth inks
ĠS her
ic ing
Ġart ist
O h
ac ter
ĠUkrain e
Ġb ond
ul s
Ġfact s
I I
g ia
Ġmaterial s
ĠSaud i
ou ston
ĠG en
Ġp ure
ill y
w ord
ag ers
Ġfr anch
Ġdes ire
Ġs ke
Ġlink ed
Al though
Ġperform ed
ĠiPh one
Ġsu c
Ġnecess arily
or ry
ar n
Ġvar i
ĠG M
d ef
Ġinit ially
Ġdec re
Ġgovern or
ĠPh ot
Ġhe ll
Ġphilos oph
Ġschedul ed
ar l
ĠT O
Ġwar ned
Ġexpl an
ĠS ign
Ġevery body
Ġincre ases
Ġab andon
ĠH y
Ġadv anced
or se
Ġn ations
es ome
Ġinc or
Ġmy ster
Ġj oint
Ġexp ansion
ill ance
Ġaccept ed
Ġdi plom
Ġfollow s
Ġdat ab
Ġfac ed
Ġplay off
ĠM ount
Ġnear by
en ger
Ġannounce ment
ĠF er
Ġath let
ĠCol umb
Ġne ither
ad or
Ġmag azine
Y es
Ġ ing
ĠL ife
Ġb are
am in
b ur
Ġres olution
Ġdist ribution
ĠSec ond
Ġyes terday
Ĥ ¬
Ġappl ied
Ġconsequ ences
Ġsurpr ised
r um
Ġrad ical
M ost
ir ty
Ġlist ed
ĠC NN
Ġoff ense
Ġbeg ins
Ġdo ctor
Ġrep resents
Ġsp ons
ĠJew s
Ġm ir
Ġfor t
Ġthreat s
Ġmov es
ĠB at
ot ic
Ġat mosp
Americ an
Ġadd s
i at
g ent
Ġen h
az a
ĠB razil
ĠB et
ĠWe ek
Ġfl ood
M A
Ġrem ark
semb ly
Ġbehav i
it ors
ath an
S pe
Ġsong s
ĠDe velop
Ġwar m
Ġent ry
Ġr ide
T A
Ġwith d
Ġp hen
Ġconf ig
Ġbr ings
Ġout put
Ġsub scrib
Ġimpro ved
Ġro w
ed y
Ġal cohol
i est
Ġa f
ĠA ff
om in
Ġgu ilty
r ich
Ġb ot
Ġ3 8
ĠRom ney
Ġst ood
ĠBl ue
Ġsh ots
ĠN BA
Ġpus hed
w hel
ĠI reland
Ġboy s
Ġf ill
Ġdem ocracy
ĠR E
ĠBo ard
ĠH en
Ġp ra
Ġmanufact ure
Ġrece iving
T e
ĠK im
Ġs ought
Ġdiscuss ed
Ġtot ally
Ġal t
Ġlaws uit
ĠOn ly
Ġcor respond
Ġsc ored
Ġ3 3
ĠBar ack
ac le
ĠSw ed
The n
Ġr ising
Ġent ered
t witter
Ġrestaur ant
Ġst orage
Ġhistor ical
ĠIS IS
Ġconsist ent
Ġcomb ination
Ġsymb ol
ĠV ol
ocrat ic
Ġ3 00
Ġinvest ors
Ġdeath s
C an
Ġre in
l aw
Ġfun ctions
k ay
Ġnet works
Ġplan e
Ġstr ing
Ġsuc ceed
Ġbr ight
Ġ3 7
ĠDe v
st ood
ird s
Ġunlike ly
Ġcreat ive
Ġt rib
Ġbut ton
Ġn ative
Ġis land
Ġart icles
al ty
Ġhead s
Ġsqu are
Ġb oss
Ġ200 2
Ġl ie
Ġclass es
ER S
ide o
ĠF ar
Ġin put
ĠAn other
ĠAs ia
ĠMay be
Ġheav ily
Ġcont est
iss ions
ĠP rem
Ġres ident
Ġrough ly
Ġfair ly
Ġsa v
f ortunately
ard en
ri p
pt y
Ġconsum er
Ġpl ot
ĠM s
Ġexist ence
Ġtarg ets
ĠL ib
ic ian
ĠC ub
Ġch ain
us al
Ġtemper ature
ĠW alk
Ġk it
Ġyoung er
ĠIt s
Ġpar liament
Ġcolle agues
ĠB ob
ĠW he
Ð µ
ic ious
O D
Ġres c
Ġr ally
ĠKore an
Ġl ibrary
Ġprot ests
z ona
Ġany where
ĠS ports
Ġdef ined
Ġl ock
al a
Ġbl ow
Ġwar ning
Ġbre aking
Ġbu ying
Ġgr ab
Ġmarket ing
Ġpro hib
Ġill ust
Ġstore s
Ġb ike
Ġexpress ion
ok ed
Ġsy m
ĠE ach
du c
ĠSt r
m es
ic an
Ġman age
Ġc ere
u y
Ġclass ic
Ġimport ance
Q u
Ġadult s
Ġf raud
ĠCl ub
Ġregul ations
S ee
Ġl inks
Ġch art
Ġsh if
T S
Ġto w
Ġfac ility
Ġs now
Ġ4 8
g reg
Ġsch ol
ĠS ky
Ġhard ware
p ret
Ġcur rency
Ġalleged ly
0 8
A dd
Ġrepl aced
ĠH ist
ĠColor ado
Ġdo ctors
Ġsome what
iqu es
d is
Ġprom ise
ĠR ights
Ġess ential
Ġl augh
on na
ĠD C
b orn
olly wood
ĠD iv
Ġhouse hold
Ġopp onent
' ,
Ġb on
Ġhold s
Ġopp osite
Ġmom ents
ĠEx p
Ġvers ions
Ġh at
etro it
Ġbu g
ĠIm age
Ġfav our
ĠB oy
an ish
Ġv ice
and al
P U
omet imes
Ġcamp us
Ġb ag
Ġrele vant
ter ing
ch o
Ġev olution
ĠYou Tube
Ġindust rial
Ġmet al
Ġmot ion
Ġact s
p ower
Ġs ick
Ġz ero
Ġn av
ag an
Ġclose ly
ĠBro ok
Ġref ere
Ġse es
ĠVal ley
Ġr um
Ġfew er
Ġdiv ision
ĠR am
Ġhard er
Ġhop ing
w est
Ġd ownt
ĠY ear
Ġad m
het ic
ĠH ouston
ock et
Ġemot ional
Ġreturn s
ate ll
Ġparticip ants
hip s
Ġto m
Ġcustom er
Ġh ur
op y
Ġvol unte
P ol
ol ve
Don ald
Ġacknow led
r ac
Ġint ention
ĠE ric
Ġf ashion
ĠAn n
l lect
Ġsqu ad
Ġexcell ent
er ves
Ġext ent
ĠSov iet
ĠE lect
Ġis ol
M an
Ġauth ors
g ame
ĠG ra
al ian
Ġimmedi ate
olog ist
Ġsuff ering
Ġcircumst ances
om ing
ul ous
O b
ĠG ames
Ġl ies
it tle
Ġsy n
Ġg rown
om a
Ġimm igrants
Ġt iny
6 6
ĠD ie
Ġbat t
Ġm ine
Ġche ap
Ġdetail ed
Ġkind s
in em
ĠW atch
Ġcarry ing
ĠG ar
Ġcy cle
en a
Ġme at
Ġfeat ured
Ġcompet itive
is ms
Ġfor med
Ġdescrib e
Ġ4 9
ot al
ord an
Ġsign ing
Ġtr ick
Ġfundament al
Ġgu ide
Ġun us
Ġter min
Ġw ave
Ġtourn ament
Ġear ned
ĠM ot
Ð °
cer tain
ay ers
Ġw ins
ĠI P
pr int
ut ch
m l
Ġdec line
7 7
st yle
Ġrelationship s
ef ully
ĠCath olic
Ġem br
Ġc razy
Ġinst ru
g as
Ġreg ional
ĠJes us
f riend
ĠA ut
ĠC IA
Ġob serv
Ġfrequ ently
Ġeff icient
Ġstr ange
Ġsk ill
Ġsh aring
n ame
ĠW ik
Ġpus hing
n am
Ġan cient
Ġman ner
Ġact ing
ĠPut in
ig er
ĠW ay
ĠH ome
c hen
Ġp ip
ens us
oc key
ĠPalestin ian
ĠH el
ob b
Ġown ed
Ġcomfort able
Ġalong side
Ġw ire
rom e
Ġc ert
ĠE conom
Ġrefer red
Ġcommit ment
Ġart ists
ĠC y
u ated
ĠE r
ĠL ong
E n
ĠC ard
Ġcontrovers ial
ĠDav is
G et
ĠO F
an es
Ġrepeated ly
Ġm outh
ĠL ord
Ġdep th
Ġupd ated
% )
Ġattempt ed
c hers
Ġpre gn
ĠT op
n ic
we ight
r ison
ĠE ll
Ġsche dule
Ġsent ence
O RE
I F
Ġfem in
0 6
Ġup coming
Ġ3 4
Ġe gg
Ġded icated
00 00
ĠS ar
Ġr ing
ĠO ld
Ġj ourney
Ġstru ck
Ġpl ed
ĠN Y
Ġc art
Ġcol umn
Ġreal ized
ĠD own
u able
Ġch annel
Ġdes k
Ġpost s
Ġwalk ed
ĠP S
es c
Des pite
ĠA L
ĠE nergy
ce ived
Ġtarget ed
ad el
Ġvirt ual
8 8
ĠAri zona
lud ing
Ġun iverse
p an
Ġmed ic
Ġrep ut
O C
Ġur ban
iam i
or a
Ġser ving
Ġass ets
ĠChar les
Ġnews let
Ġk ing
Ġstud io
D S
Ġins pired
v a
Ġwat ched
h us
Ġhot el
Ġsu icide
Ġsurve illance
Ġstre am
Ġt ort
ĠSu pp
ke l
Ġus ual
Ġag enda
Ġca using
f oot
u gh
Ġlat ter
Ġint ent
iven ess
am ily
ĠD i
ĠJ ava
um ber
L ike
F P
Ġopp onents
Ġrem ote
I R
Ġchair man
g or
0 9
T wo
ĠR ight
ĠW ars
ĠC le
Ġl iqu
Ġd u
ograph ic
ri ve
Ġs ister
Ġknow ing
Ġfol ks
Ġord ers
ph y
ĠW ild
Ã Ń
Ġover whel
Ġmain stream
Ġsurround ing
ĠDef ense
ĠAg ain
Pe ople
Ġliter ally
Ġh all
im ents
Ġobser ved
Ġsubs id
aw a
Ġs and
v in
y ou
u a
Ġnot iced
so le
ĠM en
Ġappro val
Ġform at
Ġbas ket
Ġexc iting
P er
ĠYou ng
Ġteac hers
r ations
Ġcon gress
ici ency
ren ce
Ġdeal ing
Ġs ending
Ġwin ter
ĠT al
Ġdeep ly
Ġ7 5
Ġprotect ed
Ġrequire ments
Ġg ang
Ġsim pl
Ġprec ise
Ġfor th
Ġfix ed
ĠCru z
Ġas ide
Ġproper ties
Ġf asc
0 7
ĠJ r
Ġ197 0
ĠV an
Ġal ive
ĠCh ild
Ġcommunic ation
Ġd iet
ay lor
Ġe ating
Ġsk y
az i
x ual
i pl
Ġbat tery
all as
Ġn arr
Ġnar row
Ġra pe
r ors
ens ity
Ġpass ion
Ġexpl ore
onym ous
Ġw ake
Ġprom ised
Ġw al
b ar
az e
Ġvol ume
Ġext ended
Ġse lection
av or
x y
Ġmist ake
ĠP an
Ġrefuge es
Ġw age
Ġris ks
b el
Ġex hib
Ġfl u
Ġinvol ving
ĠK evin
ĠD etroit
ĠEn ter
al le
Ġcoff ee
Ġdefe at
Ġphen omen
Ġany way
w art
ĠAr ch
Ġput s
Ġswe et
Ġtest ed
Ġun employ
Ġhe ight
ĠStep hen
Ġterrit ory
Ġn orthern
ĠBr ad
w oman
Ġbl ame
ab is
Ġapprox imately
Ġwel come
Ġloc ations
Ġne ut
Ġre ward
Ġimp ressive
Ġg od
ĠPol it
Ġs ample
ĠM ax
Ġdestroy ed
ap se
Ġselect ed
Ġcr ash
M ay
ĠM iller
b urg
et her
Ġg ap
ĠW at
as ks
Ġprom ote
0 4
Ġrequ ests
Ġret ire
Ġfranch ise
Ġmax imum
ult ure
Ġw est
ĠCl ass
ger y
m un
Ġattack ed
Ġmat ches
Ġpro of
âĢĻ .
ack ing
S e
F r
Ġtyp ical
Ġmere ly
Ġlic ense
Ġw id
p ost
ac c
Ġass ume
Ġsudden ly
Ġproper ly
ĠC amer
Ġslow ly
Ġprot esters
b oy
ang es
Ġshe l
Ġcon ver
i ro
ĠWil son
Ġwor ried
ing u
ĠT it
Ġab ortion
ĠW omen
um s
Ġd ry
ĠF il
Ġterror ism
Ġch ose
i xt
ĠIn s
Ġun known
ob ile
Ġdis ag
Ġsh o
Ġall ies
Ġteac her
Ġmod er
Ġarg uments
0 2
Ġthem e
Ġsust ain
Ġdisc over
Ġrecogn ize
Ġfac ilities
Ġsupport s
Ġconf ront
uild ing
og an
or ation
Ġad apt
as er
Ġob lig
ow ered
ĠM ic
ver ty
Ġequ ival
ĠIt aly
a ire
st one
ins on
Ġobtain ed
ĠB est
Ã ³
ĠJer sey
iz z
Ġtop ic
st r
Ġe ast
l v
ar ry
Ġcrit ics
ĠAg ency
Ġcontro lled
Ġf uck
ĠSoc iety
5 9
Ġpo verty
Ġfe es
R el
Ġnom ine
Ġunder stood
Ġde als
l ies
Ġr ub
Ġpun ish
Ġso le
6 8
i i
ĠP R
ĠH ollywood
Ġd ress
Ġdi agn
ĠL u
g ender
ĠF ord
O r
ĠAd minist
it arian
ra id
Ġlik es
Ġvill age
ĠComp any
Ġp al
ax y
ig ure
Ġev il
Ġtrans p
Ġjournal ists
ar ity
ig g
Ġsche me
Ġb unch
Ġexp osed
l ist
ĠN HL
Ġlim its
Ġsome how
Ġcommunic ations
d ro
Ġresist ance
ĠF our
f ire
st ers
ĠGeor gia
Ġstrong ly
Ġst im
Ġreg ions
red it
Ġdr ag
Ġch ampion
ĠNAS A
Ġhon or
os is
k o
ce ler
ll s
Ġperson ally
Ġconst ant
Ġcond em
Ġdec k
N C
c ript
Ġph ase
Ġesc ape
ĠD am
ĠSt and
ast s
ĠCar l
Ġprof it
Ġfall ing
ĠNet work
ĠF ort
Ġp ed
p ool
oc ation
ĠL abor
rim ination
Ġtr uck
Ġb id
Ġsome where
Ġbe ar
Ġem issions
ĠD un
Ġvac c
Ġcompar ison
Ġdefin ition
ĠSp anish
Ġemploy ee
Ġhar ass
Ġencour age
Ġdec ent
Ġpoll s
Ġh its
J ohn
nes ota
al o
pect ed
ci ples
c ers
Ġs outhern
GB T
ĠN ight
Ġin qu
ort ed
ĠC D
V ER
Ġdirect ed
ĠV iew
ick en
Ġem pty
ĠK n
ĠM iami
0 3
Ġwin ner
Ġelectric ity
Ġcomp rom
Ġf lex
au g
ĠC am
Ġsp in
ĠL ove
Ġdatab ase
7 8
at i
Ġstret ch
Ġmeet ings
z ens
ĠT urn
Ġp ic
Ġinte llect
ĠL and
ĠD aniel
Ã ¶
a o
Ġoffic ially
ow a
Ġ3 9
ĠDes pite
end ers
Ġgot ten
ĠE nd
Ġben ch
Ġstrong er
ĠD NA
Ġcut ting
Ġpurp oses
c ow
Ġch osen
Ġan x
ost er
p es
ig ation
ret t
m o
if orm
int end
Ġdevelop er
Ġtre es
ĠB ell
Ġide al
Ġext ensive
r ary
or ic
Ġgood s
p o
ĠAs ian
Ī Ĵ
Ġf old
ĠO k
Ġamount s
Ġdes per
Ġfif th
ĠTur k
ĠServ ices
Ġclaim ing
Ġpay ments
Ġpar am
in er
Ġcol on
ĠJ ordan
te en
Ġcapt ured
ad s
Ġre tain
ĠN ations
Ġdri ven
ĠTh ank
Ġs oul
Ġt ies
Ġsome body
Ġd rawn
Ġreason able
Ã ¼
ĠTh ough
Ġinc l
Ġcho ices
Ġfind s
Ġde leg
Ġse ats
Ġend ing
ĠIr ish
Ġrul ed
Ġdog s
ĠSe a
Ġs ight
Ġth read
Ġthreat ened
ĠS C
Ġprim arily
un ning
Ġb le
Ġperfect ly
w an
ĠAc adem
Ġeng age
ir ms
ĠScot land
An y
Ġf ighters
Ġansw ers
Ġpay ment
ï ¿
Ġr ival
ow ed
Ġconst antly
Ġtrad ing
Ġpark ing
Ġtechn ologies
ep ing
as ters
Ġaspect s
ĠD ar
Ġp od
Ġfield s
ĠG all
Ġreject ed
ĠAtt orney
Ġf lying
Ġad mit
Ġelse where
Ġcomp onents
Ġdist inct
a un
ĠMo ore
Ġestim ates
Ã ¤
Ġ icon
Ġsol utions
Ġact or
ĠH un
ĠU t
Ġresult ing
ĠO S
Ġconst it
Ġany more
Ġworld wide
Ġprov ince
Ġreg ularly
ĠRe al
Ġr ig
se a
Ġcour ts
Ġaw esome
ĠD ark
Pol ice
Ġb oot
f ast
O nce
Ġno body
ĠW ater
Ġmix ed
Ġcontrol s
5 8
Ġenem ies
Ġnarr ative
ĠC at
Ġhous es
ĠSte ven
in ations
ĠDis ney
Ġt ur
Ġmay or
ĠIn f
Ġout come
ĠB rian
reg on
Ġ4 2
ĠAd am
ic er
." [
Ġlet ters
Ġcon tem
< /
ĠM S
ĠC ast
ĠCh ampionship
ag ram
ld er
Ġprof ile
Ġcontribut ed
Ġconclud ed
ĠB ru
Ġt ank
Ġfound er
Ġex ists
Ġap artment
Ġm urd
Ġaccur ate
ol t
ĠA uthor
s hip
ĠL ew
Ġlo an
Ġsit uations
ĠW here
Ġcoal ition
ĠT em
C om
ĠVict or
Ġatmosp here
ĠB as
Ġbase ball
Ġcontin uing
ĠL ight
Ġgener ate
Ġincred ible
Ġinform ed
Ġtick et
Ġcon ven
adel ph
is an
ĠConst itution
r ates
se ll
Ġun p
Ġang ry
Ġt ied
Ġcateg ory
ĠD allas
Ġkeep s
6 7
M L
ear ing
Ġcl ients
ĠR og
ot ten
ĠIt alian
il arly
ap es
ĠS outhern
Ġrout ine
Ġra ising
Ġregist ered
5 7
Ġincred ibly
Ġemploy ment
ĠOr gan
Ġbre w
Ġt aste
Ġpro ved
Ġsign al
Al so
ĠT w
ĠI d
Ġmach ines
im p
Ġcru cial
Ġter rible
ot es
Ġwe ird
the re
r as
Ġcons cious
Ġdem ands
ĠSp ain
Ñ Ĥ
ĠC ivil
Ġconsum ption
Ġest ate
Ġman ip
Ġ %
in ity
Ġst uck
Ġfeed back
Ġs atell
Ġu pper
Ġnew ly
Ġg aming
Ġbill s
m od
Ġent hus
Ġdo zen
ĠJose ph
adelph ia
Ġk il
Ġwrit ers
Ġret urning
ian a
ĠC ross
Ġorig in
Ġpain t
Ġpl astic
Ġaggress ive
Ġst ead
Ġinn oc
ĠTh anks
S ec
on ic
Ġcomp ens
Ġconclus ion
Ġr us
r age
Ġex cess
Ġpen alty
Ġrep orter
Ġorgan ized
ĠB owl
v y
ĠA R
Ġim per
Ġassist ant
Ġro ster
Ġrepresent ed
C A
ific ations
Ġcons pir
Ġ Î
E W
ur a
gor ith
3 00
Ġcapt ure
if er
Ġexplan ation
Ġinter pret
Ġprogram ming
ĠCon f
ï¿ ½
ep t
ind ing
ĠMin nesota
ĠS k
C S
C E
ĠPro gram
T oday
Ġdrink ing
ĠRom an
Ġn ut
l ock
isc al
Ġg ro
Ġch ances
ons in
Ġcompl aint
Ġassist ance
ĠPar liament
ar on
isc onsin
ack ed
ess ed
Ġgr anted
Ġcount y
ĠO per
B ecause
Ġext ract
Ġcompl icated
ĠCont in
Ġt all
Ġr u
ĠZ eal
Ġ199 9
Ġsh ares
Ġmag ic
of t
ã Ģ
s m
Ġsuccess fully
Ġrec overy
em en
Ġtechn iques
5 6
Ġaud io
Ġ( $
ĠE duc
Ġveter an
ann y
ĠG i
anche ster
l s
m ont
Ġdeg rees
Ġ iron
Ġpil ot
Ġhe l
Ġad s
Ġscen es
Ġmy th
Ġoper ate
Ġlaw makers
re te
ĠI T
Ġpass es
es y
Ġpriv ile
Ġaim ed
ĠC are
act ions
Ġw estern
ĠLin ux
Ġsym pt
Ġr ating
r ating
Ġthe rap
ĠW in
the w
id ency
ab ama
Ġha bit
! <|
Ġdoll ar
ĠF re
Ġph r
k er
Ġacadem ic
Ġautom atically
ri a
Ġteach ing
st ar
k ed
ĠPac ific
Ġext rem
ĠFore ign
ĠT est
Ġeng aged
Ġsurv ive
Ġbl ocks
Ġperman ent
ĠH ot
Ġen able
ĠSen ator
re p
Ġinst alled
Ġind ex
l ers
Ġant icip
Ġmark ed
ib ilities
rap h
Ġch ampionship
Ġd uty
ĠO s
Ġmon it
Ġatt ended
Ġt aught
Ġacc omp
ever al
ĠSpe cial
Ġval uable
Ġh idden
Ġel ite
Ġequival ent
Ġp ace
it als
ĠN BC
ĠB ull
Ġ5 5
ch ain
Ġb om
Ġtit les
Ġdep ending
Ġperson nel
Ġlawy ers
r ific
Ġdownt own
ĠB usiness
Ġro ot
M P
ĠL ook
Ġvulner able
it ar
Ġover se
ĠV iet
Ġch at
Ġwar ming
O ff
ĠE p
U R
Ġcomp re
Ġsol ve
ĠK elly
atur ally
Ġun certain
Ġgener ated
Ġenjoy ed
Ġreput ation
ĠN ick
Ġf ake
Ġsuff icient
ĠT aylor
Ġvis ited
Ġbit coin
Ġrec ording
Ġph ones
u ine
Ġc able
Ġprin ciples
Ġadv is
Ġregard less
Ġnegoti ations
Ġcollect ed
D r
act ive
G etty
ĠA venue
Ġdis aster
Ġ6 4
Ġwork er
Ġp in
M S
9 8
In st
ĠAn th
re ams
Ġp ounds
ĠT ake
Ġrac ial
y e
Ġdef ence
Ġe lev
Ġpattern s
Ġaf raid
Ġposs ession
Ġd ict
a ed
he nt
Ġc up
z y
er a
ĠT ony
Ġexp osure
Ġmain ly
Ġ6 5
qu arters
ĠCo ast
mon th
Ġins pir
ĠJ osh
Ġport ion
Ġtrack s
Ġprom inent
Ġbus y
Ġsur gery
m al
im a
Ġint ense
Ġth in
f rom
ĠSer ies
Ġfun ny
ĠE astern
% .
ĠSt ill
b al
Ġap olog
ĠS n
E d
Ġengine ering
ĠC oll
Ġ âĢĻ
Ġtrou b
u an
ĠL GBT
Ġext ension
ĠA h
Ġdescrib es
Ġcom ic
ĠK urd
Ġtax p
ĠR ay
ĠK ent
ĠMos cow
ĠZeal and
Ġunus ual
Ġresult ed
ath y
Ġent it
as hes
ĠM ars
Ġprocess es
Ġb es
Ġemer ged
ĠN ation
Ġco ordin
or ne
ĠI owa
Ġsh it
et ary
ĠC ome
ĠA D
Ġprop ag
Ġbr ut
Ġadop ted
Ġf ought
pr ise
Ġrec ru
Ġbl ind
Ġcompet e
ĠIn vest
ĠO regon
Ġcor ruption
Ġhad n
ul es
Ġgr ant
Ġst ations
ĠG er
Ġevery where
Ġg all
Ġadvert ising
Ġf irms
Ġcontract s
Ġfeel ings
Ġdisc ipl
ĠC all
ĠPhil adelphia
ĠB alt
Ġ4 00
Ġd im
idel ines
Ġm ail
al i
ĠDe ad
ind er
M ean
Ġimplement ation
L A
th is
Ġminor ity
ĠN orthern
Ġrare ly
Ġexpl icit
he rent
H S
E A
Ġc ited
f all
Ġen orm
ĠR ick
ĠBe fore
âĢĻ ,
ic ate
Ġstr ict
Ġsp r
ll a
ĠPol icy
Ġexpect ations
Ġshort ly
ĠI nt
cl ing
up id
Ġsan ctions
il er
m aking
c les
Ġfin ance
ĠN avy
v iously
ĠA li
Ġth ick
or ough
Ġl oud
sc ape
Ġscen ario
ĠGree k
Ġne uro
man n
Ġcamer as
Ġpl ug
Ġthous and
Ġrec ip
Ġphot ograph
if ies
Ġbr idge
Ġbrow ser
f ront
Ġcry pt
Ġve get
ĠW isconsin
re f
Ġin ev
Ġaff ili
Ð ¸
Ġal gorith
ist ent
Ġcreat es
t es
ĠF ood
Ġvis ible
Ġob st
Ġlight s
ĠPro te
g un
Ġprior ity
ĠF oot
c r
Ġag ric
Ġt ag
c us
il ton
t est
Ġh o
ask a
Ġper mission
8 6
5 1
ĠL ive
Ġparticip ate
Ġdo zens
Ġv en
Ġcomput ers
as ion
Ġw ing
Ġla id
Ġsu p
ant ic
Ġloss es
) )
ĠGl obal
Ġbasket ball
Ġmed ium
ã ģ
ĠKing dom
Ġun w
ur rent
ĠAs h
ink ing
Ġsc oring
iz on
b ro
Ġcoun sel
Ġac celer
ĠDevelop ment
Ġform al
og ether
at hered
Ġstrik es
5 2
Ġto ler
ĠH om
Ġprinc iple
wh o
ĠAm endment
Ġt or
Ġinter face
Ġhistor ic
prof it
Ġ4 4
Ġbeh alf
Ġwonder ful
L C
R ec
ĠS af
ĠG reg
ĠM u
ĠH as
t a
w orld
Ġm el
Ġsh ock
Ġun com
Ġ15 0
ĠTh us
Ġestablish ment
Ġfound ation
Ġfound ed
ĠAl abama
Ġair port
Ġmanufact uring
Ġfe e
Ġre ly
ĠM ajor
ili pp
Ġ- >
ĠHen ry
Ġb orrow
P r
==== ====
ĠE SP
AT E
ĠH it
5 4
Ġclub s
ĠO ak
le te
rat ors
et ime
og en
Ġg ained
Ġgen uine
ĠP ay
Ġdraw ing
Ġhead ed
Ġcomp onent
Ġy ield
Ġrel ief
Ġrid ic
Ġf ault
Ġsa ved
Be fore
Ġh ole
d a
r ative
ĠM oh
Ġindic ate
Ġjournal ist
Ġ4 7
az z
Ġg ift
M e
em s
ĠO l
ĠR oyal
Ġj u
e lect
ose xual
ent h
Ġwithd raw
Ġrecogn ized
Ġr iver
Ġ19 60
ar lier
Ġban ned
Ġcann abis
Ġun iform
Ġstrugg ling
p read
am ber
ĠAcadem y
Ġwhe el
Ġdo ors
ĠS P
Ġst able
Ġsh ips
epend ent
Ġmag n
Mean while
ĠM id
Ġachie ved
ĠKe y
C ol
Ġfoot age
ĠH T
b ell
y stem
Ġsp ark
Ġneigh b
Ġed ition
ĠF C
Ġcont aining
Ġwall s
Ġmove ments
an ing
ĠA S
Ġro les
Ġdeli ber
Ġcy ber
ĠV is
oun ced
l og
port ion
ĠPrem ier
Ġexcept ion
Ġepis odes
Ġsh arp
we et
Ġp ump
Ġ199 8
ĠR and
ĠRe view
ĠS now
ĠTh ree
: <|
Ġpl ate
ides pread
et ts
ol is
Ġdest ruction
ab s
ou red
Ġh ired
Ġneut ral
op her
Ġlangu ages
ig en
Ġent ering
Ġprofess ion
ĠR et
ĠF red
ĠV R
Ġprodu cer
M ar
Ġback ed
Ġfl aw
Ġlik ed
ĠF und
um er
ul ating
inte rest
a us
e z
ĠM anchester
rou s
Ġg onna
ĠN ob
u ce
Ġar range
sy lv
c ar
Th ose
Ġinterview s
Ġleg end
m ate
Ġto x
ĠDie go
U s
Ġphilosoph y
ĠCon ference
ĠAdminist ration
ĠJ ac
Ġtack le
.... ....
Ġb ath
ĠN ote
ĠMc G
Ġst adium
Ġbelief s
s he
im ore
Ġf inger
Ġc rop
ĠAtlant a
Ġredu ction
bur gh
Ġstruct ures
Ġdin ner
b a
Ġh ang
u er
ĠJ ason
P ost
Ġ4 1
Ġa ver
ĠK ir
l an
S ub
Ġcont ained
Ġconv in
c ription
U L
Ġfarm ers
Ġbare ly
ĠCent re
ach ing
Ġprocess ing
ĠTurk ish
Ġnomine e
ĠRep ort
Ġintellect ual
o en
Ġdeli very
ĠB ry
Ġinc ent
Ġdisc rimination
E P
Ġsy nt
ĠAr m
Ġch a
ĠO K
C o
AT O
ĠF ield
ĠO tt
ĠF air
ri ers
ĠPer haps
B O
9 6
Ġrestrict ions
sylv ania
Ġup set
em an
i el
Ġchalleng ing
abin et
5 3
ĠChrist ians
um in
Ġfore ver
Ġhit ting
Ġill ness
t hen
ĠRad io
ĠEduc ation
ĠD id
Ġpro ven
os a
Ġo cean
ams ung
4 00
Ġelect ronic
h ttps
ĠL o
Ġindic ated
P resident
ĠD ata
Ġsm ooth
Ġret ired
j o
Ġconv icted
Ġtechn ique
p age
Ġun ex
is p
ĠH ay
us ive
Ġ4 3
Ġrecogn ition
Ġprodu cing
Ġrapid ly
ĠF ed
ol en
Ġrob ot
ĠP oint
Ġassoci ation
Ġl oyal
ĠRe uters
Ġh ide
Ġ4 6
ĠAb out
Ġut il
g ener
aw ay
Ġreview s
ĠM ir
Ġbeg un
Ġlist ening
Ġcorpor ations
sel s
Ġro se
eng ers
Ġcl imb
Ġnot ion
ĠH or
Ġwebs ites
ĠJud ge
ĠK ansas
am i
Ġmil k
y ard
Ġper pet
ĠU FC
U N
ow ing
less ly
Ġtick ets
Ġe uro
Ġreach ing
ĠP ack
ach us
9 7
Ġdesc ription
Ġsuggest ing
ĠMay or
Ġas ks
Ġb ail
ay ing
n i
ĠN C
Ġfl ash
Ġb urd
Ġprep are
Ġexclus ive
ĠR ose
R S
Ġequ ally
ou ver
Ġw idespread
ĠR us
Ġprogress ive
ĠA BC
ĠHar ry
Ġcampaign s
Ġeth nic
Ġhard ly
ĠMcC ain
ĠS at
Ġex ceed
ĠN ic
Ġcont ribute
% ,
Ġb ra
Ġre n
Ġpract ical
Ġbr anch
Ġnorm ally
ĠArab ia
Ġunc lear
Ġiniti ative
Ġex ternal
Ġsens itive
Ġex em
Ġcare fully
ri k
ĠF ull
ĠC irc
ust ed
Ġredu cing
ĠMark et
D av
Ġfr ag
Ġm o
Ġgr ass
Ġinv ent
Ġfriend ly
ĠP en
ĠH ard
f ound
Ġrepresent ative
Ġrac ist
St ar
Ġcoll apse
ud es
h y
b ec
L ook
ob s
Wh o
Ġconvin ced
Ġrespect ively
enn y
ĠF urther
Ġwe lf
Ġinvolve ment
ri ent
Ġrec over
r ical
um es
ĠL uc
Ġview ers
Ġt ail
c a
Ġth rown
arr ass
rat or
igr ant
olog ists
Ġh ook
Ġstrateg ic
ĠL ind
anc ouver
ĠMus ic
Ġoverwhel ming
Ġindepend ence
Ġsettle ment
Ġbehavi our
f are
ĠBe ach
he ast
Ġsm oke
pl oad
Ġterror ists
ĠLat in
Ġwelf are
ut ies
Ġl ists
ĠESP N
app y
Ġfant asy
achus etts
Ġconnect ions
Ġw ine
Ġfeat uring
Ġv ital
im m
ĠBern ie
Ġstat istics
Ġmind s
Ġv ary
ĠR ef
ĠO nt
ĠB attle
Ġcompl aints
ik es
ĠC O
ĠPenn sylvania
Ġdep uty
Ġinv ited
Ġan ger
ino is
Ġf iscal
ec ut
ĠD ig
Ġdeep er
ĠT own
u per
Ġjo ining
Ġdev ast
ro lled
: :
st ract
Ġw ars
ĠSqu are
Ġst eal
Ġel ig
Ġsu gar
ĠL y
ned y
omet hing
um a
Ġdef ine
Ġany body
ĠNe xt
Ġar ray
Ġinvestig ate
R ef
Ġscore s
es ter
ĠII I
Ġschol ars
ĠS ir
Ġl obby
ĠP it
Ġframe work
Ġconst itutional
ĠAN D
Ġi OS
Ġin ject
ion e
ĠDiv ision
Ġal ien
ĠAnt on
ivers ary
Ġmen u
Ġunemploy ment
________ ________
Ġsc reens
if est
Ġsubject s
Ġpe ak
l ad
ick ing
Ġt asks
ĠSt one
Ġimprove ments
Ġl uck
ĠT enn
Ġdisc overy
ĠG ov
ĠCamer on
ĠMin istry
it i
Ġfail ing
Ġsc andal
Ġcitiz en
level and
Ġowners hip
Ġcas ual
P G
ĠS S
Ġcompre hens
ĠN ever
w orth
P M
ĠU lt
Ġtr ained
Ġdynam ic
c ore
ĠN SA
Ġtrans gender
â ĸ
Ġtest im
Ġrem em
ĠBro ther
ĠJ ay
ĠX box
7 6
Ġcontrovers y
un ior
Ġreg ister
ĠIn formation
Ġimplement ed
Ġf ab
Ġroad s
Ġj ury
Ġsam ples
ĠL ittle
ĠPh ilipp
ĠSep t
Ġg athered
Ġest imate
Ġc os
Ġdem ocratic
Ġcap tain
ĠCommun ity
ou ch
Ġguaran te
ĠMed ical
Ġf iction
Ġ199 7
Ġser ves
Ġneigh bour
Ġpro sec
Ġfear s
Ġdisag ree
ab il
Ġleg s
Ġsp aces
Ġs oph
Ġ199 6
ĠSant a
ih ad
os it
Ġrefer ring
Ġt rem
Ġtouch down
ĠI ce
Ġincor por
ĠK at
Ġhyp ot
Ġcollect ive
Ġre ven
Ġcivil ians
Ġt one
Ġrem arks
Ġvers us
ast y
Ġt ip
U nder
Ġtem porary
od ing
Ġrecomm ended
Ġst upid
Ġw ages
ĠB rew
ĠH D
Ġacc us
c ific
ĠWalk er
Ġreg ulation
Ġattack ing
Ġs in
Ġaware ness
Ġhand ful
ĠAll en
Ġvisit ors
ĠO N
Ġplatform s
ĠMat thew
Ġhead ing
Ġrep rodu
Ġno ise
ick et
Ġover t
Ġaff airs
ĠE s
ĠSpr ing
Ġext end
ĠVe gas
Ġlic ens
20 14
ĠAnth ony
Ġattempt ing
Ġatt ached
ĠA ction
d em
Ġr aw
Ġsal ary
inc luding
Ġult imate
ĠColumb ia
Ġr aces
p at
Ġi P
el and
Ġgen etic
ĠPat rick
ĠC ore
Ġhor se
Ġexpand ed
ĠC ook
8 5
Ġign ore
ĠQue en
ann a
ition ally
Ġsett ings
ph ones
h o
Ġdiscuss ions
Ġr ural
Ġtweet ed
B ack
ĠM ah
b n
Ġg ear
Ġsympt oms
Ġsuff er
Ġrank ed
Ġfact ory
j a
Ġpurch ased
Ġhol iday
W ill
Ġprom pt
Ġinter vention
ĠGuard ian
ĠR oy
Ġpublic ation
Ġdis pl
Ġne ck
ĠAP I
Ġrec all
h our
ĠM ake
ir y
Ġro of
ĠP ent
Ġenorm ous
Ġthe at
ty pe
ĠAust in
Ġview ed
Ġbr ill
ac on
Ġsuspect ed
Ġpres um
Ġlog ic
ĠProf essor
ĠMass achusetts
Ġimprove ment
F A
Ġentertain ment
omm od
m ary
Ġeas tern
Ġw ww
Ġact ors
' .
" )
Ġsubstant ial
Ab out
Ġlay er
Ġro ok
Ġlegit imate
Ġres ource
ict ions
Ġbrother s
yth on
c ase
intend o
Ġing red
ult ural
Ġlo ans
. -
Ġinvol ves
Ġco aches
Ġs orry
Ġst ake
Ñ ģ
Ġinvestig ating
ĠB udd
ĠSe ason
Ġseem ingly
Ġground s
Ġch apter
Ġconspir acy
re pre
Ġhuman ity
Ġres ign
Ġliqu id
Ġâ Ĥ¬
Ġ201 9
Ġabs ence
ag g
Ġmon itor
Ġdram atic
Ġadvoc ates
Ġfall en
Ġtom orrow
Ġc ro
Ġinvestig ators
Ġout s
Ġprov iders
iver pool
m ad
8 7
Ġr ational
ĠAl bert
ĠChe ck
Ġbo at
Ġmiss ile
ĠGree ce
Ġmedic ine
ĠConserv ative
oty pe
Ġco vers
Ġsusp ended
ar ms
Ġf ulf
Ġb ureau
ĠM useum
Ġc oc
ĠGold en
Ġfore st
Ġp apers
Ġactiv ist
Ġopin ions
S en
ĠB all
are t
M c
Ġoffic es
Ġover s
Ġb ars
ov al
W here
repre ne
ĠS uch
u ction
ĠCh air
Ġstay ed
C he
x it
ĠCont rol
Ġemb arrass
ĠRev olution
Ġprot ocol
Ġj ur
ĠS ony
Ġd iversity
Ġpre ced
20 16
ang el
ĠH ospital
Ġj e
+ +
v ard
ple te
ĠF reedom
am med
ĠHe ad
R I
Ġam id
Ġcare ful
Sc ript
Ġdis rupt
ĠR oss
Ġcele b
Ġc ogn
Ġ5 2
ĠSh are
cl aim
A ss
ist ing
Ġclot hes
h ot
ĠW W
Rel ated
H A
S m
Ġg am
Ġhand ed
ĠHist ory
ĠIran ian
ge on
Ġtransport ation
ĠV ancouver
i ability
P C
Ġconsist ently
l ah
co ver
R uss
Ġmin ing
ect ion
ĠA cc
Ġnot ing
our se
Ġread s
ĠIll inois
re ts
we red
ĠH o
Ġaddress ed
ĠKen nedy
Ġh am
Ġ 00
ĠP ot
8 9
Ġpet ition
ĠA le
Ġcol ors
Ġmount ain
un es
d it
Ġp orn
ĠF amily
Ġrefere nd
Ġent r
Ġprinc ip
Ġdep ends
Ġpre f
ĠC BS
ĠSt at
Ġlow est
ĠAnd erson
Ġatt itude
Ġwar rant
Ġcon ce
Ġaut hent
Ġf ruit
Ġste el
Ġsh r
Ġvirt ually
Ġ _
Ġf oss
ĠSt adium
ĠMe an
ĠA p
Ġthrow ing
Ġspeak s
Ġbu ff
Ġst one
ĠBalt imore
G O
Ġappreci ate
Ġread er
B oth
pt ions
Ġperson ality
ĠG aza
Ġguaran tee
Ġsur f
ĠEng ine
Ġcl osing
! )
ĠIraq i
Ġin ner
Ġte a
Ġconvers ations
it ting
" .[
Ġhor ror
Ġpo ly
Ġdep ression
Ġmar ks
ĠC leveland
Ġk m
Ġspirit ual
ĠT ri
Ġb acter
ien ces
Ġprof its
Ġcontribut ions
pt on
ĠEn vironment
Ġhand ling
Ġtri es
Ġfant astic
Ġg rav
Ġg ains
ES T
in ch
d ri
Ġacc ommod
ĠBro ad
Ġh int
ĠG etty
Ġjud ges
es h
Ġcover ing
Ġsubsequ ent
ĠP o
Ġl ands
ut ed
rop ri
Ġencour aged
re c
sen al
ĠE xt
Ġast ron
Ġw rest
ĠHar ris
ĠHow ard
New s
iv als
Ġcon sole
Ġinc idents
Ġshould er
Ġd rew
ord on
ĠLew is
ke ep
Ġgu est
Ġsp oken
sc ale
P art
ĠR a
Ġl ucky
6 9
ĠC re
u its
Ġinfl ation
ĠB ang
ĠPat ri
Ġr anks
Ġm aps
Ġr het
ĠInte lligence
Ġdr ama
m aker
ĠT ro
Ġinnov ation
ĠC A
Ġbro wn
ed ing
Ġphot ograp
ij ing
ab eth
ĠMex ican
ĠR en
Ġc ust
Ġ199 5
ĠInd eed
z ed
Ġper mit
G E
i y
in f
ĠâĢ ¢
ĠB ad
Ġdiv ided
ann els
Ġdist ributed
P lease
qu est
## ##
am ac
Ġsw ing
port ed
ic ity
R C
un icip
Ġeff iciency
ix ed
ĠUn fortunately
Ġport ray
ĠAd v
Ġre vel
Ġpar alle
ĠN ATO
ĠWh ich
Ġprom ises
Ġinstru ment
Ġ5 1
ĠL as
Ġspokes person
Ġd ance
Ġl ying
7 2
Ġcl im
Ġd ump
fl ix
Ġprem ium
Ġball ot
pl ed
av al
Ġj oy
pp ers
d ated
Ġl ocked
Ġimpro ving
Ġreplace ment
Ġth rew
Ġsh out
N ote
pl ate
ĠK ong
Ġcom edy
Ġg al
Ġprote in
Ġtemper atures
Ġcop ies
Ġacknowled ged
Ġprotect ing
ak a
Ġvot er
ĠWith out
Ġmus ical
d es
ĠMar vel
Ġbreak s
Ġhom eless
Ġcommon ly
H er
Ġbar rel
Ġmist akes
it age
Ġrespons es
Ġd ad
Ġabandon ed
Ġle ts
Ġche cks
Ġpass engers
l ow
ĠS amsung
20 15
Ġn aturally
ĠPl us
ĠCon nect
Ġleg acy
ĠB uff
ĠB a
er ted
Ġjo ke
Ġnom ination
oun ce
Ġmeas ured
h an
b i
back s
Ġd iverse
ĠPr ince
ĠFoot ball
ĠS cient
ĠD et
Ġy ellow
iet ies
Ġdemonst rated
Ġstud ied
hel sea
amac are
Ġupgr ade
ĠSt art
Ġsil ver
Ġ ?
Ġmat hem
Ġsc an
Ġacqu ired
ĠM oon
ĠL yn
Ġre ar
Ġcount s
er ies
Ġfund ed
Ġst olen
hes is
Ġmid field
od ed
ĠA C
7 4
Ġhead quarters
Ġ( âĢľ
Ġpl ain
Ġr om
Ġbl ast
Ġass ert
Ġl es
ĠU se
ĠM arsh
Ġord inary
ap ing
Ġ199 4
Ġm ad
Ġf estival
Ġm arch
ĠN ev
Â Ĵ
ĠN OT
Ġreferend um
Ġgr id
Ġso il
ĠC ost
Ġt ape
Ġliter ature
Ġign ored
Ġpartners hip
Ġex it
Ġsc ope
Ġarri ve
ĠH ind
Ġhelp ful
ĠAtlant ic
aw are
Ġcap abilities
Ġfall s
Ġcom pe
Ġvir us
Ġst ages
est y
he im
Ġtw enty
Y our
ĠA I
ĠB ron
arg o
Ġcl ock
Ġa x
Ġconserv atives
ĠM aster
Ġwat ers
ĠA ud
Ġus age
Ġgu itar
ĠD ave
ĠDo es
S ource
m at
ir a
con f
h igh
Ġin equ
ass ador
ĠG un
ĠEm pire
h op
ugh t
Ġmechan ism
Ġhop ed
Ġtrack ing
Ġconvention al
8 00
ĠT rib
Ġassess ment
Ġun ions
Ġr amp
Ġm oon
in ction
Ġsy mp
C ons
Ġtrans actions
ĠIndian a
lah oma
et ers
Ġrepresent ing
com es
aed a
al ia
ĠDen ver
il a
Ġdist ract
Ġsho pping
F acebook
Ġmonit oring
Ð¾ Ð
Ġf ro
Ġtr ave
Ġrat io
ĠAb b
Ar t
Ġrel iable
ĠS ometimes
Ġske pt
Ġst y
Ġr if
ĠE ag
ĠPro v
Ġpropos als
en cing
Ġunivers ities
Ġrac ism
ct ic
Ġrepl ied
d oor
nt il
Ġrece iver
ecut ive
ĠC H
Ġ20 20
d ney
Ġcritic ized
ĠB ureau
Ġappear ances
Ġh ung
i ate
7 9
Ġintrodu ction
Ġappoint ed
z ing
ĠP op
ĠF orm
ĠTechn ology
d og
Ġb ub
the less
Ġt ie
Ġsupp lies
ĠL ine
ĠPort land
Ġins isted
Ġperform ing
Ġconc rete
Ġex ch
ĠS us
Ġsw im
m ade
P P
Ġbeaut y
Ġlet ting
Ġblock ed
Ġh ockey
y er
or ge
on ly
ile y
Ġsequ ence
ĠP ass
y o
Ġvis iting
r imin
ol ph
ĠDe ath
Ġdef icit
US T
Ġabs or
Ġre nder
ĠUt ah
Ġprogram me
Ġpres idency
Ġclass ified
ĠC apt
Ġdro ve
Ġdom ain
ack et
sh ire
ĠGal axy
Ġaccompl ish
ĠSwed en
Ġrock et
B M
Ġdismiss ed
ĠHe ll
ĠF all
ĠAssoci ated
ĠA st
oc ument
ie ce
ĠT our
Ġland scape
Ġab road
Ġsen ator
Ġtrig ger
ag ic
Ġpredict ed
Ġbon us
Ġwar n
Ġcent ers
Ġpers ons
ĠA ge
Â °
F F
Ġcan ce
Ġm useum
Ġaut o
Ġd ates
br idge
c rib
f und
Ġrequest ed
Ġart ific
Ġequ ality
Ġdocument ary
Ġtestim ony
ĠAlex ander
Ġspokes woman
ĠCo oper
m ony
ĠCor por
Ġcongress ional
Ġentit led
ĠL A
K e
Ġveter ans
Ġe c
ĠJ am
Ġd ust
a ver
ĠS et
Ġv es
ĠOr ig
Ġur ged
Ġass ign
pl us
ĠOnt ario
om es
Ġp atch
Ġd ub
er g
Ġtrans it
p ress
6 1
ult ane
ĠOlymp ic
arch y
Ġresc ue
Ġtact ics
ĠR os
Ġsatell ite
ĠN intendo
ĠFr ont
ĠB on
ĠâĢ Ŀ
Ġwhen ever
Ġpop ulations
Ġw ider
ir ts
Ġcl ar
Ġs alt
Ġbreat h
Ġf iring
St ill
Ġac id
or gan
Ġtarget ing
ĠB ible
Ġviol ation
Y et
V E
Ġpurs ue
iz abeth
Ġw edd
r ite
ĠA ward
k ing
Ġm ole
room s
Ġretire ment
6 3
Ġcomp are
ĠC ode
Ġpolit ically
Ġser vers
ĠRober ts
Ġb read
c ut
is ons
in ating
ac co
Ġemploy ed
ĠBe ijing
Ġprison ers
ound ing
ĠL ow
ĠL iverpool
ĠJust in
Ġsurv ival
6 2
usal em
Ġrestaur ants
th rough
Ġsoc cer
Ġexper iments
ĠM ill
f ol
R L
Ġhy per
Ñ Ģ
Ġob s
Ġcont rad
Ġintrodu ce
ĠL ist
ĠG irl
or ous
Ġbrill iant
Ġphr ase
ian o
Ġscient ist
Ġappro ached
Ġrepresent atives
ct r
ĠS el
A re
ect ive
Ġqu ote
orm al
Ġsub mit
ra pped
Ġent reprene
ĠMary land
Ġtit led
Ġch annels
Ġfocus ing
ĠBr idge
Ġf ighter
Ġpopular ity
Ġch icken
Ġmonth ly
ĠW H
Ġab ilities
the y
enn is
ene z
ag a
Ġt ips
Ġth orough
Ġchild hood
Ġpip eline
ĠH ur
Ġsa ving
ĠHar vard
ĠM ach
Ġbank ing
Ġc ul
Ġr ush
Ġinvestig ations
Ġb ab
Ġc ig
ol ves
Th ough
Ġdesign s
Ġobject ive
Ġpre par
Ġsh adow
ord inary
em ed
eder ation
Ġm it
ĠGovern or
Ġmembers hip
Ġunex pected
Ġdemand ing
Ġsm ell
Ġh osp
Ġlo ose
Ġarg ues
Ġoverse as
ĠP D
Ġlegisl ative
Ġenc ry
ĠB ase
ĠBe ck
ing ton
af e
er ts
" >
Ġphenomen on
Ġanx iety
oen ix
Ġact ively
Ġsett led
Ġden y
ĠD utch
ĠC ro
Ġprep aring
ĠY OU
Ġprodu cers
Ġdist urb
Ġke ys
Ġfore cast
Ġ9 5
ĠC lick
Ġrat ings
Ġgener ations
H T
ĠT ed
Ġsh ame
el a
ĠH ave
Ġunivers al
Ġcelebr ate
Ġweek ly
Ġinnoc ent
Ġbut t
Ġsm oking
âĢĶâĢĶ âĢĶâĢĶ
Ġprov ision
Ġbroad er
7 1
omp son
Ġencoun ter
Ġsmart phone
Ġdis order
min ute
ĠD O
6 00
Ġ ~
ĠDes ign
Ġfl ags
ĠAm ong
Ġarg uing
ĠH a
Ġwe igh
ĠV ill
Ġfor cing
old s
Ġmaintain ed
Ġsh ield
Ġsure ly
Ġdead ly
Ġre verse
j ud
ĠW as
b ow
Ġp ig
p ed
Ġmort g
ĠU r
Ġcivil ian
Ġf ool
at ar
ou ri
Ġsecond ary
x x
Ġwealth y
Ġquestion ed
Ġt ens
ĠViet nam
ĠLe ft
he ld
Ġann iversary
Dav id
Ġtort ure
Ġm os
Ġrele ases
ĠH op
Ġsav ings
ir lf
tr ans
ĠRub y
AN D
Ġar bit
ĠPro p
Ġton ight
Ġun pre
ocol ate
el son
Ġs orts
d ed
S E
Ġmin i
irlf riend
d on
ar re
Ġroom s
ĠP A
Ġ5 3
Ġreve als
ĠC ow
Ġex ha
Ġqu oted
Ġthreat ening
bre ak
ber ry
Ġl unch
Ġse vent
ten ance
ĠG ulf
ĠOb amacare
ĠEd ward
Ġst ability
Ġf ate
Ġround s
Ġsp ots
Ġdifferent ly
Ġf ur
Ġsub mitted
Ġout rage
Ġst ored
m ans
ht ml
Ġreform s
m ers
Ġo kay
Ġinstruct ions
Ġwind ows
ĠC ry
Ġprosecut ors
Ġpropag anda
Ġharass ment
Ġer rors
9 2
Ġrel ax
ĠGra ham
**** ****
ĠBel g
ĠSar ah
ent er
ore t
Ġodd s
Ġ199 2
Ġp uzz
av ed
Ġp icks
Ġm ac
ĠCar ter
Ġa er
vern ment
Ġsil ence
w alk
Ġt ab
ĠB ra
in als
ĠBl oom
Ġde lic
Ġstre aming
Ġafford able
Ġstrik ing
ĠWar ren
ĠOk lahoma
Ġgrad uate
Ġass ass
Ġcomprehens ive
Ġcooper ation
re ction
or ious
Ġf ing
ĠJer usalem
Ġstrugg led
Ġcirc le
ors hip
ail ed
a is
h ar
Ġcere mony
Ġposs ess
Ġpers u
Ġimportant ly
Ġse ar
ĠH on
Ġland ing
m ind
ĠK ar
Ġexec ution
Ġarchitect ure
ĠL t
ĠLiber al
Ġdemonst rate
C omp
Ġcal m
l ined
Ġhealth care
Ġc ow
ĠPr ice
Ġassum ed
j i
Ġrook ie
Ġste pped
it ter
Ġhy dro
as ury
Ġh al
it ary
Ġag es
Ġg ent
Ġpr on
9 3
Ġdes erve
ĠMag ic
Ġint im
ĠSil ver
Re uters
Ġdist ingu
ĠP erson
Ġal ter
Ġadv enture
ĠLe ader
9 4
Ġb orders
se ct
Ġpoint ing
Ġconsider ation
Ġtrem end
w as
D em
Ġaward ed
S L
ĠR un
Ġdri ves
Ġdial ogue
Ġd ying
act s
Ġche st
Ġw aves
cept ions
Ġgreat ly
ĠA k
ĠScott ish
Ġrepe at
ĠS om
ĠS ab
Ġproced ure
Ġnewslet ter
ĠMean while
Ġprecise ly
Ġkil omet
Ġb irds
ish op
Ġprom ising
row s
7 3
e als
ĠV ice
Ġb urning
ĠSt ory
Ġwant ing
Ġanaly st
S im
Ġaut onom
ĠM ORE
Ġcons ent
Ġdifficult y
ah u
ik i
Ġdon ations
ĠB ud
Ġexecut ives
ĠEx pl
Ġcont ribution
es see
Ġhighlight s
Ġplayoff s
Ġbi as
Ġinter f
ater n
p a
ĠComm on
ier ce
W atch
ut en
ĠW olf
ĠT en
e le
Ġg if
Ġkn ee
Ġsim ultane
C O
Ġinf o
Ġvo ices
rib utes
te l
ĠSy dney
as ant
ic ism
Ġfrequ ency
Ġtr illion
Ġwhere as
Ġimpl ications
ĠM ain
all ing
a fter
ĠInd ust
ĠPalestin ians
ĠDe b
ap olis
Ġsm ile
ĠBer lin
Ġf et
ĠTe le
Ġstay ing
Ġremark able
Ġform ation
d iv
ĠNet flix
ĠJon athan
Ġfollow ers
Ġinc hes
it ual
scrib e
ĠL ink
part y
ig ious
is a
hold ers
Ġass igned
ĠTe ch
Ġjud gment
Ġstrateg ies
Ġsem i
Ġemer ging
it ol
Ġt iss
Ġcontact ed
ag h
port ation
Ġcateg ories
ĠH ong
Ġsuper ior
Ġaccess ible
ra ig
ĠBru ce
ĠE ff
o is
Ġop ens
Ġphys ically
O K
et he
ĠAr k
Ġcre am
Ġman aging
Ġcent uries
Ġindic ates
vertise ments
ĠY emen
Ġgu idelines
ĠCap ital
Ġcr imin
Ġgr ade
b ered
iff s
Ġst em
Ġclot hing
ĠP res
ĠBre xit
Ġmeaning ful
Ġâ ĪĴ
ĠAff airs
Ġg ross
h att
Ġmarg in
Ġspe ll
Ġdefe ated
Ġ5 4
ĠSt ore
c est
Ġw ounded
Ġr iding
St ory
Ġmin istry
Ġan s
ie v
Ġtri als
Ġthe ories
Ġco inc
ced ented
st al
ik a
Ġpass age
Ġe ase
o ice
ĠMr s
ĠS ix
Ġpo ison
Go ogle
st ep
Ġparticip ation
ann on
Ġph arm
om ed
Ġ199 3
y es
Ġb in
ĠC redit
ĠHam ilton
Ġdisp ute
ĠA z
ĠC helsea
Ġbl ank
Ġhost ed
Ġrec ipe
Ġag ed
Ġfac ilit
ĠInst agram
Ġ19 50
Ġdam aged
b ury
Ġinvest ments
Ġ1 20
Ġcompet ing
v ision
op en
a uthor
Ġcust ody
Ġpromot ing
ĠG T
E l
u h
ĠH old
Ġclin ical
ĠT es
Ġl apt
Ġdr one
um ble
Ġsubst ance
Ġre vers
ere my
Ġmem ories
r if
Ġaddress es
is k
Ġn ic
V D
ig ate
Ġ9 9
Ġopen ly
ĠTr ade
Ġmiss ions
Ġleg ally
Ġ2 50
Ġsuspect s
Ġdis h
Ġend orse
ch ild
Ġmem o
Ġeduc ational
Ġelig ible
M s
Ġcons ensus
Ch rist
Ġstud ying
e ven
Ġd ating
Ġins pect
Ġchar ity
Ġt ables
ĠCr ime
ĠV ik
b its
ar ation
Ġman ifest
Ġfoss il
ĠLe on
Ġspect rum
ĠChild ren
Ġbatt les
Ġt ired
Ġathlet es
er ia
Ġn in
ri ors
le e
h ard
ĠF al
ond er
ĠAs sembly
Ġenthus i
8 4
ĠSt ation
con st
Ġcounter part
Ġtherap y
Ġg ate
ĠMan agement
ĠSe an
le ft
Ġdisc ount
Ġbe ings
Ġpresent ation
Ġhe lic
om y
v an
ĠP ict
Ġdomin ant
s es
Ġdiscuss ing
ater al
Ġenh ance
Ġburd en
Ġl ux
ĠHaw ai
Ġstop s
ere nt
Ġper ceived
Ġunder lying
we ek
Ġmus cle
Ġdef ending
se ction
b ase
Ġrec ruit
yl um
Ġexpand ing
Ġback ing
ĠL am
Ġfund ra
Ġpick ing
ass y
Ġbot tle
ĠTh rough
ĠD er
Ġman agers
ĠEx per
Ġn a
Ġrac ing
m ath
it udes
ge red
ĠU ber
Ġh ip
Ġm ood
Ġt ap
Ġv ig
ĠF estival
ak h
H z
Ġproced ures
ĠC S
Ġtrans action
Ġcreat ures
ĠE th
Ġpoll ution
ĠT ok
ĠE qu
ĠM it
Ġhop efully
ĠG ary
N S
ĠLib ya
Ġst ere
ĠMar x
Ġp ocket
Ġrec re
Ġrequire ment
Ġcr us
Ġinst itution
I nt
G A
or able
Ġscr ut
Ġorgan ic
f r
land o
Ġimp ression
8 3
Ġarri val
- >
ĠV ideo
Ð ½
M us
Ġgather ing
ĠOak land
Ġgl ad
Ġpunish ment
ĠO p
Ġro y
ang le
Ġtim ing
ĠW ales
iz er
ar ia
ĠEl izabeth
Ġe ager
ĠRep resent
Ġcomp at
it ure
Ġindust ries
al ysis
mark et
ĠT ai
Ġsurv iv
Ġ5 6
Ġsh ipping
Ġunf air
Ġdise ases
Ġins ult
ac hel
Ġshe ll
ĠS on
T P
Ġfood s
Ġcapital ism
ĠB oe
Ġkit chen
Ġmod ule
ĠPent agon
Ġb owl
Ġn erv
ĠAnd re
Ġdiv or
od ox
ĠM etro
Ġcoach ing
igen ous
ĠAss ad
miss ions
ĠK ick
Ġfl ed
Ġhelic op
ag ger
ĠMor gan
Ġregul atory
Ġh ire
ri x
Ġstat ist
ad ers
j s
ĠB al
Ġm ice
play er
alt ies
i ac
Ġexpl aining
ab et
Ġob sc
Ġ( "
Ġbe ating
Ġbe ach
ĠC reat
Ġvar iable
ĠY eah
ol ar
Ġgraph ics
ative ly
Ġso vere
Ġb ow
Ġst ance
O ut
Ġengine ers
Ġt ons
Ġter r
ac her
T ER
Ġse ed
am ous
A ct
Ġhosp itals
Ġsign ature
Ġrhet oric
ĠEm ail
ĠM ess
ĠBat man
ĠCome y
Ġacknow ledge
cos ystem
opy right
Ġint r
Ġs ed
Ġt ut
b ing
Ġprincip al
ĠKe ep
ak i
Ġover come
T y
ĠTh ompson
Ġpull ing
Ġconv ince
C lick
9 1
ĠMic hel
Ġans wered
ol ving
Ġsearch ing
Ġtrend s
Ġinter action
Ġpsych ological
Ġmer ch
ĠRus sell
Ġsix th
ĠMur ray
ro ph
} }
Ġd ies
ĠF riend
ĠUs ing
Ġadv iser
og y
Ġ !
e en
Ġ199 1
Ġperiod s
F O
ri or
em ic
ĠB i
s l
Ġe cho
ĠS ure
Ġprefer red
ĠR oll
ol n
oc ial
P re
ĠEx ecutive
ĠCharl ie
ĠML S
8 2
ĠY an
du ction
Ġline up
ĠKent ucky
ĠH oll
ĠJ ean
oc a
Ġbill ions
Ġl oves
Ġsign als
ĠTenn essee
Ġrequ iring
Ġp ill
Ġsent enced
F inally
ĠO x
Ġevery day
Ġreb els
net ic
Ġweak ness
Ġeconom ics
R em
Ġbad ly
Ġm ath
8 1
Ġinv asion
Ġout lets
Ġset up
ĠG il
Ġre nd
Ġgen es
Ġunder t
ĠH art
ov a
Ġcommand er
Ġpart ly
Ġrem oval
br id
Ġam endment
Ġtop ics
unicip al
ĠDel hi
** *
Ġinqu iry
D ef
Ġtwe ets
Ġse gment
o z
Ġfab ric
A F
Ġu pload
Ġtem por
Ġg ene
C al
N BC
Ġb old
Ġegg s
Ġcompens ation
ts burgh
Ġinst ant
Ġbul let
Ġconcept s
Ġse ctions
Ġar ts
ĠR ather
enez uel
ĠS ound
E X
Ġar r
Ġesc al
Ġ ).
s a
V iew
in stein
Ġattract ive
Ġm igrants
w atch
Ġblock chain
Ġfrequ ent
E arlier
Ġut ility
Ġspeak er
Ġocc urs
ĠB ox
Ġsh oes
Ġc iting
li est
iz za
ĠCl ark
ĠI ron
Ġcar ries
Ġpost ing
20 13
Ġtal ented
p g
ĠF inally
Ġengine er
ĠS a
Ġro lling
Ġridic ulous
M ich
Ġg ig
aren cy
ĠInte l
d y
Ġelimin ate
ĠZ e
Ġl ad
Ġun ve
ĠThere fore
Ġnot able
Ġcl er
Ġcor rupt
Ġm ask
ne cess
Ġdead line
ĠF inal
Ġle ct
Ġcoll aps
Ġappro aches
ĠPh ill
Ġgen re
ĠL i
gr ade
ĠDr agon
Ġc ens
ĠE T
Ġinst ances
Ġr h
Ġunpre cedented
Ġmain tenance
Ġpri ze
AL L
Ġanaly sts
Ġs its
s ub
ĠSim on
Ġins ight
Ġf o
Ġcol our
ĠPh oenix
Ġtox ic
Ġe lder
Ġb ene
Ġdram atically
ĠHe art
ke e
che ck
g us
Ġneighb ors
Ġhom osexual
ent al
Ġpubl ishing
Ġc ock
Ġro ots
it o
Ġdi am
Ġcollabor ation
ib an
ĠPri v
Ġper ception
? ?
ĠB M
ĠWhe ther
ĠE vent
Ġtown s
Ġinterview ed
sc reen
Ġassoci ate
Ġencour aging
T op
Ġdeploy ed
row ing
Ġse ized
ĠS av
ĠHar per
ĠBel ow
Ġconstit u
Ġche aper
ĠMc K
Ġcamp s
ĠG ordon
âĢ Ĳ
v ia
Ġshe et
Ġviol ations
ĠCap tain
Ġinequ ality
Ġar c
Ġemploy ers
Ġres erved
ĠG O
ĠP sych
Ġd reams
Ġextra ordinary
Ġlo op
is dom
m ic
Ġmyster y
Ġcom ics
Ġex port
Ġpar ad
Ġdisplay ed
en ess
Ġg est
Ġbu ck
Ġoccas ionally
M od
Ġaim s
A Y
Ġfunction al
Ġprom pted
w ill
Ã ±
ĠRe agan
ixt ure
Ġhero es
Ġv end
ap ore
Ġtr aged
ĠG ro
Ġcou p
Ġde light
ric ane
ĠEconom ic
Ġcontem porary
Ġfat al
Ġinter pre
est ed
ĠB ow
C omm
est yle
Ġcorrect ly
Ġexc lud
ĠCo le
Ġe cosystem
Ġprospect s
re ll
ĠA ccess
Ġad equ
Ġmanufacture rs
V P
ĠG DP
Re g
Ġbirth day
igh th
Ġn ose
Ġdemand ed
arg et
ĠL ibrary
ĠJ enn
Ġrecommend ations
Ġmoder ate
ĠRes erve
Ġple ased
Ġcogn itive
ĠBrook lyn
Ġdisappoint ed
Ġconst itution
Ġparalle l
ĠAnton io
Ġaccomp an
P aul
Ġ5 7
Ġdiplom atic
ĠSt aff
ot ing
Ġmod ified
Ġkn ock
Ġlab our
Ġfight s
Ġcommunic ate
Ġwedd ing
Ġkick ed
ĠE PA
ĠD ick
Ġlif etime
Ġ5 8
Ġbi ological
ĠO cean
ĠE ver
Ġrep air
ĠMont real
Ġrepresent ation
ĠOr der
S C
Ġrel ation
ĠT ax
Ġartific ial
le ans
Ġsp an
G e
Ġl ift
Ġconscious ness
ĠP ers
Ġland ed
ĠD og
p ack
ĠDig ital
Ġown s
Ġs essions
ĠAuthor ity
ĠCh annel
h as
end ar
Ġless ons
ĠG iven
Ġsub sc
Ġexplos ion
Ġadop t
St ate
Ġpod cast
ĠCon vention
Ġ8 5
Ġconcer ning
Ġdr unk
Ġdef ender
Ġst amp
": "
ol i
Ġdesign er
m ir
Ġmaintain ing
Ġgu ests
Ġche ese
d s
Ġemot ions
ĠPhot os
Ġp unch
Ġh anging
og a
ĠE st
ail able
Ġcreat ure
Ġp a
Ġsh irt
ĠAn na
Ġpregn ant
Th anks
Ġimp osed
Ġan onymous
Ġres olve
Ġs li
ad i
new s
on z
Ġless on
Ġinte llig
Ġsh ocked
Ġrec on
ĠKh an
Ġvolunte ers
ĠL ear
Ġopp ose
Ġsum mit
Ġv ocal
Ġperform ances
ll y
c or
Ġcou ples
ĠProte ction
ĠR ome
Ġem p
ĠAl an
Ġg irlfriend
el ing
2 50
Ġingred ients
) <|
Ġab stract
ĠF ive
ĠAr gent
ĠB ol
Ġinter ior
ĠJava Script
ĠB urn
Ġsold ier
app ropri
ult y
Ġir re
Ġjump ed
Ġann oy
f it
Ġm ile
is ition
c re
ix on
Ġacc um
Ġgu id
Ġdesk top
Ġn urs
Ġstim ul
bour ne
ac re
inc oln
Ġunder ground
th rop
h uman
Ġref ers
Ġlog o
Inst ead
Ġbut ter
Ġfor um
ist ant
20 17
Ġj ihad
Ġopp osing
P L
ĠC ase
Ġtravel ing
Ġisol ated
F i
Ġst ack
Ġs wit
Ġprofession als
Ġmilit ants
M ark
ch ing
Ġadvoc ate
ĠD ur
s ome
ows ki
W he
Ġrec alled
Ġconf used
Ġdescrib ing
ĠOr leans
Ġconfig uration
ĠB ul
ĠL im
Ġexist ed
Ġst ro
ac les
ĠC B
Ġp m
w ed
Ġmin imal
T ON
g ets
Ġ6 00
ĠInd ones
Ġbox es
ĠMiss ouri
own ed
St ation
gr aph
w ich
b in
ĠS D
tain ment
at us
Up date
ĠC ustom
Ġintegr ity
T R
Ġintegr ation
ĠR s
Ġpeace ful
ear ly
hatt an
Ġl ibr
Ġ198 9
Ġass et
ial s
us er
Ġsurround ed
Ġcl ip
Ġat he
ĠCo al
Ġb ands
u z
ĠF ant
Ġide ology
ĠNev ada
Is rael
st arter
g al
Ġinspir ation
Ġsub ur
Ġsil ent
Ġcred its
Ġteam mates
ĠH an
Ġd ual
Ġexp ense
Ġbur ied
Ġh oles
Ġin herent
ro ck
Ġs ne
ĠE ve
Ġme al
Ġsusp ic
ĠMar ine
ast ing
ĠK now
ĠCap itol
aw ks
od ge
ĠTr ust
Ġregist ration
Ġfle et
ĠW ord
ĠM ail
Ġsc ream
ĠS U
ĠDo ctor
Ġdesper ate
ump h
ĠHit ler
h ist
Ġcho osing
ĠBar b
ĠH al
G ener
im ize
Ġte eth
ĠP age
ĠPlay er
Ġcon vert
Ġ vert
ĠOr lando
Ġelect oral
ag en
Ġkey board
Ne xt
Ġy ell
Ġsubscrib e
Ġgu ards
Ġaccept able
ĠAre a
Ġan cest
w ind
ĠLe ban
Ġbrut al
ĠO cc
Ġref erences
Ġexp enses
ĠSte el
ol s
Ġmoment um
Ġwond ering
ĠÂ ±
Ġstrugg les
Ġbom bs
Ġpro be
Ġpromot ion
Ġqu it
u i
ĠAr senal
Ġrefuge e
ĠM ove
e lection
Spe aking
ĠN on
Ġkn ife
Ġmon ster
Ġsc ar
Ġev ident
Ġbank rupt
Ġj er
Ġorgan isation
Ste p
1 50
he ro
Ġjournal ism
( "
Ġsubsequ ently
ĠOn line
Ġut ter
Ġor bit
ĠAll iance
Ġclos est
Ġoccas ional
Ġembr ace
Ġb ird
Ġdistrict s
to o
Ġinterpret ation
ĠFollow ing
m its
ĠH and
Ġas sembly
ib l
che ll
ĠPit tsburgh
Ġrem oving
T ime
ã ĥ
Ġy eah
ĠW right
Ġprof ound
ĠV enezuel
g ate
Ġcomprom ise
ĠP y
ik h
Ġst ating
Ġl obb
ĠPort ug
i ens
Ġsurv ived
Ġexclus ively
ĠH amp
com mun
Ġdom inated
f ather
Ġth ro
D is
Ġconsider able
e xt
ĠW rit
20 12
âĢ¦ .
ĠC ould
Ġpr ide
Ġnerv ous
Ġload ed
Ġeng aging
Ġref use
Ġsustain able
Ġtremend ous
Ġjust ify
Ġcharacter istics
h ire
Ġbrief ly
ars on
Ġmin isters
ĠInd ependent
Ġmathem at
Ġexecut ed
Ġas ylum
Ġrout es
book s
ĠMount ain
ĠS ource
ĠN azi
Ġsex ually
Ġdisapp ear
ĠV en
at tered
Ġcont rary
E E
str ong
F l
Ġ7 2
gr ad
Ġl in
st op
ĠEvery one
is d
ip edia
Ġg ri
Ġh arsh
Ġconf usion
ok er
ĠA aron
t ra
ĠM un
Ġch ip
Ġpro portion
Ġgame play
orne ys
Ġcur ious
ĠTre asury
Ġphys ics
Ġpro st
Ġfle e
Ġp ir
Th ank
Ġsoph istic
ĠTal iban
ĠR est
ĠB an
Ġch ronic
Ġatt ending
Ġdon ors
ĠAnd y
Sh are
Ġconcer t
ĠiP ad
oc ated
Ġfl our
Ġnow here
ĠF A
Ġ8 00
Ġspeak ers
Ġrevolution ary
C D
Ġout comes
b ound
lim ited
Ġelect ron
Ġprint ed
li hood
Ġcharg ing
Ä ĥ
ĠI M
Ġeng ines
ĠD ream
He y
ĠRob inson
v i
Ġcert ific
Ġv oid
ab e
ĠR ou
H P
ĠH aving
ĠOff icer
ubl ished
Ġstreng then
Ġstead y
Ġpass enger
sec urity
ĠA ren
Ġfail s
. ]
AR T
ĠMan hattan
im mer
Ġcrimin als
ut ter
Ġde emed
th ood
ĠSher iff
ur se
inc ome
ĠTes la
ĠJ un
Ġc abinet
ĠB u
Ġrob ust
el ve
c al
Ġcheck ing
Ġbr ands
ĠCur rent
Ġspec ulation
Ġsp o
Ġmir ror
ast ed
b en
ĠK ings
ĠG ib
Ġh iring
Ġdro pping
Ġo rient
ĠR aj
ĠSing apore
Ġend ors
f unction
ĠGi ants
Ġchalleng ed
ĠSh ort
Ġintegr ated
Ġpat ent
ĠT el
Q L
sc ar
Ġav o
Ġrad iation
Ġbacter ia
ĠAd ams
Ġsusp ension
mer ce
re ck
Ġvari ables
Ġguarante ed
ot te
Ġhun ting
ĠNet her
ree k
Ġeng agement
Ġbomb ing
Ġsl ot
Ġep ic
ĠCh ange
Ġb its
ĠA lp
Ġcha os
ĠD uke
am ine
ar o
Ġpack ages
Ġle aked
ĠC raig
Ġwitness es
Ġrec overed
ĠL ater
ist le
Ġf ert
res hold
ĠC ON
Ġpres ents
Ġpat ri
w a
Ġple asure
Ġpack ed
Ġl os
ĠSp ir
Ġal ert
Ġdevelop ments
Ġdef ended
Ġbo om
Ġprodu ces
ĠJ eremy
Ġw et
Ġf el
Ġtaxp ayers
ĠUS B
ĠP ant
Ġattract ed
ĠK l
m ble
ing e
ĠH ung
wh ite
ĠN orm
ĠB and
Ġd a
Ġfig ured
ĠEnter tainment
Ġhost s
Ġexam ine
ĠPer ry
Ġedit orial
Ġresearc her
ol id
Ġall iance
Ġsimultane ously
ĠS H
Ġcap s
ĠRuss ians
Ġblock ing
A B
ĠM ult
Ġ5 9
Ġem bed
Ġo xy
ĠL og
ate ful
ĠN one
à ¤
Ġc inem
Ġv it
ĠStud ies
ment ed
iz arre
ĠH oly
Ġburn ed
ĠR angers
Ġcor rel
Ġaccur acy
Ġimpact s
r ics
app er
Ġqual ified
Ġt ear
Ġsol o
T E
Ġj unior
le ep
B N
Ġfl ights
Ġ6 2
ĠF uture
c ap
an im
Ġmet h
Ġpubl ish
r ition
Ġen act
Ġdist ribut
ĠMP s
Tr ans
Ġra ises
N et
Ġsurprising ly
secut ive
ades h
Ġang le
ĠL incoln
Ġev olved
ĠV lad
Ġfing ers
ĠChair man
Ġdecre ase
Ġfl av
Ġexpect s
ĠPol and
Ġun necess
ĠL es
ou b
ï ¼
ĠT ower
Ġas semb
ĠS ci
Ġv ent
Ġident ical
Ġen abled
ard o
ĠSte wart
S U
G l
g ly
ress ing
7 00
Ġb arg
ĠGr iff
G u
ĠUkrain ian
lyn n
Ġr ic
Ġcourt esy
on ed
Ġ6 6
Ġagree ments
Ġv oc
Ġbl amed
re nd
Ġ `
Ġev ac
Ġtransfer red
ĠEd ition
Ġexpect ing
Ġdepend ent
ĠMiss iss
oph ob
Ġacc ord
g ood
Ġdepart ure
ĠH IV
ĠK it
Ġproduct ive
ĠO R
ah oo
Ġintim id
ĠW ould
in st
if ier
Ġrest ore
Ġbre ast
ethe less
Ġant ib
ut er
ĠC PU
Ġrepe al
gg ed
Ġforg otten
Ġcrit eria
Ġfl avor
ĠH u
Ġv enture
ĠG ill
Ġoccup ied
ĠU b
Ġsc ared
Ġl ane
Ġsh ops
Ġalgorith m
v ation
Ġconflic ts
d r
Ġpromot ed
R ight
Ġign or
Ġinflu enced
d ep
Ġvis its
ter ror
ĠO pp
ĠComm and
ĠTh ink
im ir
el le
Ġback s
Ġconcent ration
Ġcy cl
v as
Ġfunction ality
Ġin her
ĠT otal
Ġo ught
Ġmotiv ated
Ġprivile ge
ick ed
ER E
ĠD ak
Ġkill er
th odox
N ame
Ġbab ies
Ġt anks
op t
Ġstri p
Ġcheck ed
M AN
ĠRed dit
ĠB or
Ġorgan is
Ġnation wide
ĠG h
Ġanal ys
Ġcour age
Ġre ass
Ġst ats
Ġtele phone
d ict
Ġrele asing
Ġoccas ion
is hers
olit ical
P al
ĠTh ings
ĠSh ould
Ġexplicit ly
C or
Ġanim ation
ĠStand ard
le ted
Ġhousehold s
Ġst atic
Ġrank ing
L ist
AT CH
look ing
Ġimp rison
ĠR h
ĠWar ner
ĠB C
Ġentr ance
K E
Ġtrail er
ern and
ĠPl ace
Ġres erv
Ġmet ers
am ents
ĠN i
ag ine
ĠW i
ul se
Ġsen ators
ĠPro duct
h r
G r
Ġpain ting
om ic
m ay
ond uct
Ġinvestig ated
For mer
u ating
ipp i
ĠT s
ĠMod el
Ġform ula
ĠSupp ort
Ġh ub
Ġsub tle
ĠJer ry
Ġb ases
ĠMore over
b ian
ĠH ug
ĠC C
Ġw ise
ĠChrist opher
Ġtow er
ĠQue ens
l arge
ĠCanad ians
Ġprov ider
Ġbel t
Ġdes p
Ġbat ter
Ġimm une
R ed
A g
Ġuncertain ty
ĠP ope
le ading
Ġinvest ed
Ġoper ator
Ġover l
Ġappl ies
Th ree
Ġsc rew
Ġmod est
Ġprov isions
ĠEgypt ian
Ġdest ination
Ġinflu ential
J P
ĠN O
ĠC old
ĠAl aska
art ed
ĠN iger
ri ke
Ġinfect ion
Ġin aug
ĠM ap
Ġsole ly
ĠD u
id en
Ġins ist
Ġsing er
Ġinev itable
Bl ack
Ġall y
ĠPlay Station
t own
ĠUn ivers
Ġtransp arency
Ġch ips
Ġpolit ician
Ġm art
un ity
unt u
Ġd imin
Ã³ n
ĠO il
oll ar
Ġin box
Ġbo ards
u ccess
Y eah
bre aking
for ward
Ġdis abled
Ġuncom fort
amp a
Ġcol leg
be ing
Ġlif estyle
Ġimp ressed
D R
ie re
ĠCor p
ach ment
Ġcontin u
ab out
Ġthe ft
Ġhand led
" ,"
ĠJ ane
Ġhead lines
ĠE b
Ġball s
ou p
Ġm ouse
Ġsim ilarly
Ġregard ed
z one
Ġg ym
Ġphotograph s
ĠSt ock
iz ations
Ġ6 3
C ar
Ġvol unt
ĠNether lands
ĠOlymp ics
ĠOtt awa
ĠLouis iana
Ġl ens
Ġsa ke
Ġcon secutive
rif ice
ĠD rug
ist ance
Ġrel uct
Ġdet ention
off s
ĠTre k
ĠS N
c itation
Ġlaunch ing
Ġke en
Ġfil ter
n an
Ġt ent
il ation
s uch
I E
Ġprosecut or
S upp
Ġoper ated
Ã ¢
ĠM other
Ġb ol
m illion
f ish
). [
ĠStan ley
Ġkid n
Ġcontro ller
Ġ< /
ĠUn like
o vers
ĠStan ford
Ġprosec ution
Ġguid ance
Ġle an
Ġk iss
id al
ĠM arg
bit ious
Ob ama
Ġmiss iles
ĠCorpor ation
on ing
Ġsu ck
ĠFore st
Ġconv iction
th ur
t arian
ĠPhilipp ines
ĠT R
Ġt ears
ĠN elson
Ġch ocolate
Ġro lled
Ġtraged y
ĠH ans
in ite
ĠF O
U C
Ġun re
ac o
Ġbul k
n ie
ar med
G ood
B ook
Ġb ags
? âĢĻ
Ġearth qu
Ġneighborhood s
Ġabs urd
b at
ol as
Ġpres erve
g ov
Ġaccept ing
ass ion
Ġin ex
Ġj et
Ġbene ath
ĠTy pe
ĠCapt ion
Ã §
tr ack
ke ley
Ġ1 000
ĠCl oud
ĠF ather
ĠS everal
Ġparticip ating
Ġreflect s
ĠP a
Ġle ak
ix el
c ard
F urther
Ġcompl ained
ur ches
ll or
Ġcompe lling
Ġb other
ĠS EC
viron ments
Ġdest ro
Ġpo et
ĠT able
Ġexam ined
Ġlux ury
ĠHamp shire
ĠB ir
ĠVictor ia
eral d
Ġen for
Ġpost er
Ġn u
act or
l aim
Ġrec k
Ġel abor
? )
Ġf its
ĠEd it
ĠBe ing
Ġsy nd
Ġpo lling
Ġthe ater
l ink
ĠBl ood
ĠMar c
ĠMedic are
ĠMedic aid
Ġsignific ance
ĠGr ant
m ons
Ġwire less
Ġreal istic
ĠFl ash
d f
angu age
Ġback up
Ġad ap
Ġshel ter
Ġoccas ions
Ġsto pping
ĠSnow den
Ġsee ks
spe ed
Ġass ists
Ġmand ate
Ġexc use
Ġm ales
Ġaccus ations
Ġa wards
Ġposs ibilities
D own
Ġcons ists
Ġrese mb
Ġb one
Ġt ension
ra h
ĠK r
ĠTok yo
v ol
Ġfin ishing
Ġjur isd
k es
T O
Ġin hab
M B
ust ing
ry ing
Ġaccompan ied
Ġthe oret
w all
Ġp ose
Ġbet a
ĠIm m
ĠMal ays
ĠCh ampions
amb ling
E ach
Ġg arden
Am ong
friend ly
ĠM orm
Ġoper ators
ĠSc he
ous es
ĠNot hing
Per haps
Ġd ressed
boy s
ite ment
ĠAb u
ĠW inter
Ġbeat en
ĠS ection
Ġ3 60
ĠFin ancial
ĠD E
Ġer u
ĠFil m
ĠMod i
ĠK night
Ġcook ing
or ate
Ġemphas is
ĠG ard
ut her
Ġne ur
Ġsust ained
ĠP ear
Ġadv ent
ĠContin ue
bl ock
uck er
Ġsupposed ly
Ġinnov ative
ĠN S
Ġdr um
ĠQu est
ĠW y
Ġproject ed
Ġaffect s
ĠV in
Ġprevent ing
ĠEvery thing
Ġconstruct ed
i ar
ĠT am
ĠOrgan ization
Ġpol ar
Ġpass word
Follow ing
Ġrec ession
Ġb ump
ĠHam as
ĠMar io
Ġdocument ation
ĠJim my
Ġout standing
ĠPatri ots
com p
âĢĿ )
B el
Ġlong time
ĠI V
pp y
ĠN ich
ber y
Ġtrad ed
Ġg ut
ĠC R
Ġfuck ing
B r
b es
Ġent ity
ne g
Ġman ual
ĠS port
f irst
Ġint rig
Ġlay ers
ĠC L
Ġdocument ed
Ġrenew able
ĠCh ron
Ġf ed
Ġspeed s
r c
ĠN ature
Ġresident ial
ĠRub io
Ġw isdom
ĠL ocal
Ġspot ted
Ġf er
ll i
Ġreven ues
Ġsur ge
ĠAb d
Ġold est
ĠH ad
Ġmortg age
ĠD al
ĠSte am
Ġoccup ation
Ġwal ks
Ġpra ised
IL L
ĠComm ons
ĠD a
Ġdeal t
Ġco in
ĠC as
ĠM ind
Ġcalcul ated
il st
Ġinf ant
Ġautom atic
Ġfavour ite
Ġd irty
any ahu
Ġaw ful
Ġf ut
ĠTh ird
Ġexperiment al
p ing
Ġmyster ious
ĠKurd ish
Ġg olf
Ġpan els
v ar
Ġinteract ions
cent ury
te x
ĠAir port
Ġtr ains
inc ial
Ġcop s
ug by
Ġcle ared
Ã ¨
n on
J o
x ide
Ġreview ed
Ġ6 1
Ġt ale
Ġtiss ue
ĠP ython
Ġliber ty
olit an
ĠOther s
Ġgraph ic
ĠL ad
ĠN ash
Ġ6 7
Ġconven ient
Ġmother s
Ġrob ots
l ied
th al
Ġgl obe
ĠC itiz
Ġ6 8
Ġth reshold
Ġpain ful
Ġtri ps
Ġthe r
Ġcross ed
Ġ198 8
Ġb icy
c ott
Ġdispl ays
c ular
ĠE mer
ĠWay ne
Ġr anging
Ġam bitious
Ġicon ic
Ġearn ings
ard ed
ect s
te ch
Ġadminist rative
Ġcirc uit
ch arg
er r
Ġsec ular
Ġen vironments
Ġhost ing
ĠCl imate
Ġdes ert
Ġhe s
ĠS oft
ĠTr ue
Ġdrop s
Ġb izarre
ĠF le
Ġpred ec
Ġp our
Ġres erve
ĠRed s
Ġconver ted
Ġexplo it
Ġcross ing
sel ess
Ġs ons
ĠM A
Ġsent iment
st ra
ig e
ia h
qu es
Ġdo ctr
Ġr iders
Ġsafe ly
Ġit er
E m
ĠMc Donald
Ġl ady
re qu
Ġsp ray
ot ion
? <|
Ch ina
ã Ĥ
ĠA FP
ĠL arry
Ġfil ing
Ġcreat or
Ġunf ortunately
Ġrestrict ed
cel ona
ĠF OR
be at
ĠMur phy
Ġres ort
ĠSum mer
ow der
Ġadop tion
is ive
r ons
Ġp ension
Ġaddress ing
Ġ= =
Ġcontain er
Ġh iding
Ġscrut iny
w ords
u ably
Ġan ch
Ġw ore
j amin
D C
Ġatt orneys
ĠN ik
Ġdevast ating
Ġd uties
ĠP ir
Ġpregn ancy
Ġarrest s
ĠWh it
Ġsleep ing
B ar
ĠK a
Ġnewslet ters
Ġavail ability
Ġbur st
Ġappear ing
Ġwh is
Ġover night
â Ĥ¬
On ly
ĠMad rid
Ġcomb ine
Ġto ss
Ġproduct ivity
k ward
Ġre ign
sh ore
D id
ĠD rive
om er
for mer
Ġre cept
---------------- ----------------
t wo
Ġlight ing
Ġdepart ments
ist a
ĠMan ning
Ġdisc rimin
Ġmurd ered
Ġcompet itors
Ġview ing
Ġreg ret
Ġindic ation
Ġlibr aries
Ġm isc
ĠFurther more
IC E
l u
Ġal ign
ĠMag azine
Ġf ishing
Ġt orn
Ġrel ie
ĠDe an
Ġreflect ed
Ġt um
Ġnewsp apers
Ġuncomfort able
ar ians
ĠS ac
ph an
EM ENT
Ġparam eters
Ġear ning
i per
Ġequ ipped
i ated
g ence
Ġbuild s
Ġhor rible
Ġm unicipal
oy d
Ġpubl isher
Ġchemical s
Ġwin ners
Ġv iable
ĠDe ep
n amed
Ġr itual
Ġsepar ated
ĠS in
k ind
v o
Ġact ed
Ġcar rier
Ġre wards
c at
put er
ail ing
ari os
May be
go vernment
Ġ198 4
Ġrel atives
Ġin du
Ġpr icing
Ġsl ide
Ġdes erves
Ġfire arms
ĠPh ys
Ġco ins
Ġmechan isms
Ġprepar ation
b ably
ĠRon ald
ĠSing h
Ġr ivals
ac cept
Ġ) ;
ight ing
Ġsophistic ated
ĠF ig
Ġlimit ations
ell o
Ġm m
Ġc ave
u els
ĠWik i
un a
20 11
ĠD omin
Ġme ets
Ġsuggest ions
Ġco ord
ĠK al
ir s
ĠB ah
ern el
Ġcomplex ity
ĠF ederation
ĠMississ ippi
Ġab und
Ġan onym
Ġdelay ed
ĠTai wan
ĠL uke
ĠCh rome
Ġtou g
Ġamong st
ĠN ative
ĠColl ins
Ġcomm od
Ġpe er
ĠBl u
Ġexpl oring
Ġintellig ent
ĠHT ML
Ġinter ven
Un fortunately
Ġquiet ly
ĠT an
i ors
Ġb ip
Ġdet ained
vers ion
P s
P I
Ġens uring
Ġnight s
M art
Ġtransl ation
Ġdesign ated
ĠE nt
win ning
Ġcelebr ated
Ġstart up
Ġ198 6
a very
ay a
em it
ĠQue bec
ĠN az
Ġdeliver ing
prof ile
Ġcollect ing
Ġpled ge
ĠMcC on
Ġrad ar
Ġcur ve
Ġinstall ation
Ġcat ast
Ġce ase
AT ION
Ġg host
ĠLe vel
B en
ĠD VD
s ize
ĠM and
ĠP oll
les h
or ia
S D
Ġt u
ĠIn n
ĠS aint
Ġcomm ands
Ġcount less
Ġreb el
ĠS E
Ġthem es
Ġbe ef
ut o
Ġbug s
Ġgold en
Ġmean while
ell er
c ount
Ġor ange
Ġpsych iat
Ġworld s
DA Y
Ġca ution
Ġgrad ually
p in
Ġm igration
d ata
Ġnot ably
Ġcour ses
ĠMel bourne
Ġwitness ed
Ġdeb ates
Ġw rap
ĠCoal ition
Ġcomment ary
Ġemploy er
Ġtable t
âĢ ³
Ġann ually
are r
Ġt ends
ĠE C
Ġp ending
ĠBl ock
Ad vertisements
ĠEag les
ĠCub a
Ġdem o
d ev
N D
Ġobserv ations
ag u
Ġquestion ing
Ġcont ents
ĠD isc
Ġviol ated
Ġoff season
Ġto b
Ġpat rol
ĠC rit
n atural
at ter
AT ED
Ġf ires
Ġsupp lement
ĠF R
Ġfor b
Ġrepl acing
Ġdemonst ration
qu er
AS H
Ġimp ose
Che ck
Ġdiscipl ine
wit zer
Ġgr ants
ĠS ex
Ġhighlight ed
ĠBl ake
Ġremem bered
Ġcor n
Ġhapp iness
b urn
form ance
op les
Ġh unt
u ates
arent ly
ĠPe ace
ĠSwed ish
Ġfrust ration
Ġse eds
ĠMarsh all
ĠR ound
em in
Ġver ify
ĠN ap
ĠHe at
ĠExp ress
Ġpre view
/ .
Ġas pir
Ġexpl oration
Ġgra ve
or ical
Ġven ue
Ġbath room
Ġcom ed
ĠHun ter
Ġcru el
Mich ael
r in
Ġpoor ly
ĠO w
ĠL ady
Ġpr ayer
Ġare na
el come
TH E
Ġtechn ological
ren cies
o op
Sec ond
ĠAr ts
Ġact ress
Ġsuggest ion
Ġinst antly
ĠW ard
ĠNC AA
Ġalt ogether
om ach
ĠKick starter
Ġper mitted
Ġpart ially
Ġf urn
ĠSm art
Ġcon ced
ude au
Ġcult iv
Ġprevent ed
ath on
Ġincor rect
ĠB ab
ĠP el
Ġs izes
Ġlapt op
Ġlog ical
Ġvacc ine
Ġst arter
. ),
c ode
en cer
Ġamb assador
Ġprotect ions
ĠRog er
Ġplan es
Ġgent le
Ġpra ise
Ġoxy gen
is ode
ĠT oy
b et
Ġfasc inating
Ġagric ulture
ĠPro gress
st ring
Ġdeleg ates
out ing
Ġdisapp eared
Ġbond s
ĠH uff
ĠMit chell
ur ities
ĠFer gus
ĠAdd itionally
Ġfle w
Ġ7 6
Ġw ound
ĠCamp bell
Ġsupp orter
Ġadv ised
ĠBer keley
ĠQ ual
Ġch amber
appropri ate
ĠL ions
Ġsing ing
W orld
ĠM uch
ra it
ers ion
Ġdr inks
Ġpro l
Ġmet aph
ĠChristian ity
ĠJ en
ĠEnvironment al
es ides
Ġsum mary
Ġmarg inal
ĠH ann
al id
Ġal ike
ĠHawai i
M on
ĠP od
Ġun l
ĠG ene
Ġenter prise
ĠMot or
Ġtrans mission
Wh ite
Ġhonest ly
ĠFor ces
m id
ĠJ ess
Ġad j
Rep ublic
ĠCongress ional
Ġcomp r
ond a
Ġto ll
ĠSpe aker
Ġc ous
ĠL en
ĠN a
Ġheart s
The ir
Ġreact ions
Ġsevent h
Le aks
anc hes
Ġeth ics
Ġsty les
Ġha z
Ġpar ks
ĠSt orm
med ia
ier re
Ġce iling
au cus
ĠT odd
Ġst unning
arm a
Ġd il
ĠMan ager
Ġfac ulty
ĠOr ange
Ġst ressed
T witter
ru p
D E
ĠAm b
W ar
ĠVlad imir
Ġder ived
od a
Ġcap ability
Ġp owered
ĠL aur
oc ur
Ġelect rical
Ġra id
ĠWat son
Ġdam n
Ġm akers
m ap
ĠAren a
ĠR T
Ġappoint ment
Ġmount ains
Ġtravel ed
Ġpros per
ct ive
ĠEd itor
Ġess ay
Ġend less
pl ing
P at
fl ow
Ġarg uably
ug s
Ġdraft ed
ĠA y
ĠM as
ĠCor ps
ĠU I
Ġt ar
Ġwe aken
g ments
Ġtob acco
Ġcompl ain
M edia
ĠR ow
ĠIm p
I d
Ġapp lying
Ġceleb ration
Ġin eff
olog ically
Ġsac rifice
ĠV ar
Ġsk et
Ġc rown
ĠBr us
Ġep id
Ġbre ach
Ġmechan ics
Ġadvoc acy
ĠRe id
Ġpress ing
ĠS essions
ĠG ab
ĠCommission er
ĠF lynn
ĠN ame
Ġaw kward
ĠB enn
ĠBe at
Ġfr act
Ġshoot er
ĠR ap
Ġbub ble
witzer land
Ġbuy ers
Ġaccompl ished
S everal
lect ed
ro t
Ġhost ile
Ġdev oted
Ġdep os
Ġas h
ĠB aker
at al
Ġr ice
ĠOx ford
Ġexpert ise
Ġg reet
ĠK y
ch ron
Ġstrong est
ĠCh all
hand ed
T IS
Ġbu nd
ĠG re
Ġc ats
Ġreveal ing
Ġassum ption
Ġcomput ing
tt es
Ġaud iences
Ġacqu isition
Ġrespect ive
ĠMod ern
ag raph
Ġpen alties
Ġfocus es
ĠMedic ine
Ġcal endar
augh ters
Ġl one
ĠE D
Ġconfirm ation
ĠPark er
Ġconclus ions
h ill
Ġsh ocking
p ot
Ġunnecess ary
T ake
Ġdirect ors
w id
Ġsp y
g roup
H ave
uer to
Ġcirc les
Ġcitizens hip
writ ten
Ġsw ord
Ġline back
Ġfr ank
ĠLaw rence
ue z
at oes
Ġl ung
Ġdr ones
st art
li ver
Ġscr atch
ip her
ĠTem ple
f i
ĠMor ris
ĠBar celona
d am
Ġquant um
Ġcomp osition
g ary
um ing
t it
ĠRec ords
Ġtr ucks
Ġent ities
Ġpartic les
ult s
Ġl yr
ĠD or
Ġhistor ically
ond s
Ġsa uce
Ġy ard
h alf
ĠInd ians
Ġlong est
Ġcontribut ing
ĠDak ota
F S
ĠD ate
G iven
by n
Ġqual ify
Ġbe ars
sh ot
Ġrespond ing
b ie
Ġmotiv ation
Ġfrust rated
f ile
Ġpl acing
Ġsh ake
PD ATE
ĠRes p
ĠR oc
am an
Ġbound aries
m are
Ġbit ter
iv an
Ġfemin ist
ĠLeg isl
ĠFergus on
form ed
Ġunderstand s
Ġgro cer
Ġconvers ion
and ed
ĠF CC
Ġadd iction
ĠSaf ety
ĠSw iss
Ġd uration
Ġst ir
Ġ198 7
Ġcoordin ator
Ġinter rupt
p iece
ĠHot el
Ġoper ates
Ġ197 9
v ious
Ġdec or
it ivity
ĠNet anyahu
Ġpri est
ĠJac ob
Ġovers ight
? '
Ġhack ing
Ġfast est
Ġad vertisement
Ġprob ability
Ġst un
Ġorient ation
Ġdist ant
ore r
Ġd ensity
st orm
Ġn ode
ĠP rom
bor ne
Ġdirect ions
Ġu gly
Ġcontro lling
ĠI an
Ġpain ted
Ġtun nel
lim inary
im s
ĠH end
ĠF ind
Ġped est
on ia
o ard
m atic
Ġconserv ation
M in
mind ed
ĠS ud
Ġv ague
Ġexperien cing
Ġprot otype
ĠU C
ĠY ang
out heast
ĠH us
Ġsaf er
Ġrece ives
Ġilleg ally
oc us
Ġm ild
le ments
Ġspace craft
Ġint ensity
Ġt ill
Ġd ign
ab ling
ĠHis pan
Ġtrans formation
ĠMc M
ĠK as
20 10
Ġpop ul
ĠAbb ott
ĠF if
it ate
Ġg aining
Ġsent ences
Ġc am
ĠBloom berg
H ist
ĠAgain st
Ġcondem ned
Ġdiv ide
ac ular
Ġp or
Ġ198 5
ĠRem ember
Ġcomp osed
Ġm ic
Ġst omach
ĠS ong
b u
Ġemer ge
o j
Ġenjoy ing
spe cific
ĠS ide
Ġachieve ment
E ng
ĠB uilding
ĠR ain
com ed
Ġagric ultural
F igure
Ġmand atory
ac ies
Ġprint ing
Ġbal anced
Ġp ink
Ġsup rem
Ġhe aven
Ġaccept ance
Ġcount ies
Ġdist inction
Ġw ings
Ã ¥
Ġp ione
bo ards
n or
ĠR ice
Ġtou ched
Ġp ays
w estern
Ġover d
Ġscen arios
ĠÂ ©
at in
ĠT ampa
Ġto ile
Ġsc ary
ĠB E
Ġt une
ĠEv ans
Ġimper ial
s ur
ĠC a
ĠC os
Ġins ane
ĠK u
ĠL ie
ĠBl og
oty pes
ĠTe a
Ġinvest ing
Ġres idence
abet es
Ġconst rain
Ġinf ring
Ġide ological
Ġiniti atives
Ġser ial
Ġoper ational
â Ħ
Ġrot ation
Ġmanufacture r
s upp
Ġpe ers
at re
Â Ķ
Ġpress ed
Ġexch anges
Ġnon profit
z es
Ġtreat ing
Ġf illing
Ġanim ated
m other
ĠD J
B re
Ġc ake
Ġrespect ed
Ġacqu ire
st an
Â ·
Ġz omb
con nect
ĠB eng
um m
ĠCo hen
Ġexplos ive
G M
] <|
ĠA wards
Ġl anes
or i
idd ing
abb ing
Ġcomple tion
ĠSte in
Ġsl avery
ĠLa ure
UT ERS
umb led
Ġprior ities
Ġhigh way
or ient
ĠBen jamin
F e
Ġan arch
er ving
ĠR y
ĠR io
h ol
Ġal arm
j an
he alth
d ing
Ġinc omp
le ton
E uro
Ġcrop s
ĠS aints
Ð »
Ġdifficult ies
ĠTe xt
Ġres erves
Ġ6 9
Ġch urches
ĠE lection
Ġe ars
Ġappro ve
in itely
Ġparticip ated
k m
ĠD raft
( );
Ġfree ly
ortun ate
Ġqu otes
ĠCent ury
ĠCh ance
ĠAr ctic
ĠBr andon
Ġtut orial
( '
b ecause
Ġsh orter
Ġb ones
Ġform ally
ĠG a
Ġsubsid ies
Ġmechan ical
âĢ ĭ
ĠR ail
Ġm amm
Ġt el
Ġres igned
b rew
ĠBe h
Ġ19 30
Ġdiscl osure
Ġdes ired
Ġcle ver
ay ed
Ġeconom ies
ĠM obile
Ġ7 7
Ġflex ible
gu ard
Ġis lands
Ġjud icial
Ġvolunte er
B ig
Ġs her
Ġrum ors
Ġinter rog
w hen
ĠK yle
ock ets
N T
i ary
Ġmon etary
Ġworth y
ĠB uck
Ġcon j
Ġdeliber ately
Ġfr ight
ĠS M
Ġro cks
ec onom
Ġin hib
Ġcrowd s
W S
Ġpan ic
Ġatt ributed
Ġhuman itarian
Ġh ier
Ġexp ed
Ġcult ures
Ġrif le
at ile
Ġspread ing
Ġto ken
Ġcr ude
Ġgr ateful
ac er
Ġanticip ated
Ġinc ons
Ġrespond ents
ĠMcCon nell
Ġteen ager
Ġvir al
Ġsec ured
Ġher itage
Ġ7 00
U D
m ain
ĠTer ry
Ġj okes
ĠArt icle
ut t
b les
st ory
ch arge
Ġn aked
Ġconsequ ence
Ġelder ly
m art
l as
Ġinst inct
im ens
and y
ust ers
val id
o ons
Ġre aches
ict s
Ġaltern atives
ĠSm all
-- -
Ġflex ibility
Ġinstru ments
ĠR aid
Ġdis par
Ġdisp os
th ink
Ġfin an
ĠCirc uit
Ġkn ocked
Ġdecl are
s ized
cont rolled
ĠBrus sels
Ġadvant ages
ic ut
r ane
Ġp osed
Ġabs ent
ĠS witzerland
Ġtrig gered
Ġtechn ically
ĠK erry
Ġbu zz
Ġprocess or
ĠT reat
Ġdisturb ing
Wh ich
VER TIS
ĠD om
H ar
ud ge
Ġt ensions
Ġn ull
ock er
Ġattend ance
M en
ow ell
ĠT alk
Ġaff air
ĠF ro
ici ary
Ġs ends
ĠF igure
Ġch ap
pro duct
âĦ ¢
Ġdesign ers
M ed
act ory
d rop
au c
Ġrec y
d ec
Ġdetect ed
Ġexc itement
ĠPost s
Ġz ones
Ġremind ed
ĠKir k
Ġpled ged
Ġequ ity
Ġgreen house
Ġprev al
b art
gl as
val ue
Ġshif ted
Ġflu id
w he
ll ers
Ġw rapped
il ateral
ĠP uerto
ro c
r idge
ĠPro t
ĠE arly
Ġdo se
Ġsatisf ied
c rat
R O
ĠPart ners
Ġport fol
Ġt urb
Ġf are
Ġimm igrant
ĠM D
Ġident ifying
I O
Ġapp eals
Ġref using
Ġab ol
ĠCamp aign
Ġsu itable
Ġhar vest
Ġrep ly
ĠBuff alo
ĠAlbert a
Ġinn ings
Ġannoun cing
Ġwel comed
Ġbreak fast
Ġmag ical
ĠFrank lin
Ġflo ating
B est
ĠP ok
Ġgr asp
Ġdecl aration
Ġres olved
ĠB art
Ġharm ful
Ġavo ided
Ġfit ness
Ġbrow s
Ġb ass
Ġtransp arent
ĠCh ap
pr ising
ĠLyn ch
Ġmut ual
Ġtr apped
ĠAnt i
ĠI C
D ata
Ġlegend ary
urn ed
Ġ7 3
ĠT un
Ġbr ains
Ġminor ities
ĠPhil ip
Ġl un
g t
or ig
L a
Ġoptim istic
Ġem pire
inc inn
Ġrus hed
found er
ĠI ss
Ġcondem n
est one
Ġha bits
Ġhat red
ĠWar riors
C urrent
it ably
Ġhope ful
Ġassum ing
iz ard
are ttes
Ġprov incial
Ġexcess ive
ĠBar ry
IS T
Ġh orm
Ġass ured
Ġfro zen
Ġtempor arily
Ġste ep
f s
Ġ7 4
Ġindic ating
Ġear liest
A ust
ra ham
Ġbel oved
Ġhy brid
Ġconduct ing
ver ning
az y
Ġcast ing
Ġstruct ural
ĠBr ady
Ġve gan
A tt
AC K
Ġpresum ably
Ġdeploy ment
ation ally
Ġsc rap
Ġsupp ose
point s
ne ver
Ġimag ination
oc ate
Ġtour ists
Ġsh ar
Ġcomp os
Ġedit ing
ĠV ery
Ġimm ense
Ġedit ors
ĠJ ets
z b
Ġhead line
Ġst ocks
Ġtrust ed
ĠM ov
ĠM aine
X X
Ġtend ency
P ress
ĠG PU
ĠGr ay
Ġthrow s
Ġr all
Ġgrab bed
Ġbar riers
B L
H aving
incinn ati
greg ation
ig ers
Ġtr ash
Ġbutt ons
Ġl ake
ĠCommun ist
v als
ĠN atural
Th rough
Ġplan ets
Ġathlet ic
N orth
ĠColumb us
Ġa uction
Ġwa ited
Ġdam aging
ed ed
ĠG arden
Ġparliament ary
ĠChrist ie
Ġgar b
Ġcolleg es
Ġclick ing
S et
Ġwh istle
ĠDou g
ĠRog ers
Ġpen et
Ġg rip
Ġdefend ers
p owered
Ġdec iding
Ġwid th
ĠTr udeau
Ġdis g
ĠY ahoo
ch i
ĠM itt
is en
Ġm ixture
Ġf est
Ġwor ship
ors es
ar ound
Ġcompl iance
ig hed
Ġd iver
ĠT a
Ġwh ites
ank ing
au kee
Ġre hab
Ġspark ed
Ġf ru
Ġcolle ague
Ġpurs uit
ĠGu ide
ĠOcc up
og g
qu ality
Ġex ports
z o
per or
N ever
ĠO scar
ne red
Ġtext s
keep er
Ġbar rier
Ġtradition ally
ĠA w
Ġsoc ieties
ous ing
Ġsurviv ors
Ġres on
ĠPr in
Ġatt itudes
not e
ĠB ou
ĠF ried
ĠP ed
Ġcart oon
Ġn ick
ĠSh an
Ġdet ain
Ġarm or
ot ton
Ġess ence
ĠM om
Ġsocial ist
Ġapproach ing
Ġpurch ases
st ock
e or
e u
ĠLiber ty
Ġinfect ed
Ġcrypt ocur
Ġun ity
ĠCor byn
In ter
Ġhum or
Ġch ampions
] :
ĠTurn er
V ideo
ĠKe ith
Ġbl ess
Ġpure ly
ĠH P
ur i
ĠB und
Ġlegisl ature
iff erent
Ġin sect
b est
ĠIs lands
Ġmeant ime
Ġunder mine
Ġpurs uing
Ġlif ted
ĠA th
ĠU ntil
ruct ive
ĠF un
Ġh oney
Ġur ge
d i
Ġgrow s
ĠHar vey
Ġobserv ation
Ġ0 1
Ġdec ides
ab l
ĠWW E
Ġw ishes
enn a
K ey
r ust
d ale
Ġt ong
force ment
Ġoff set
Ġfail ures
m n
Ġmet ab
Ġthere by
ur red
ĠNor way
Ġregul ators
ac ent
Ġpassion ate
ĠB ears
Ġm asc
Ġ7 8
AD VERTIS
ĠH ide
ĠWik ipedia
Ġeconom ists
arent s
af i
Ġremind er
Ġf ont
ĠCh o
Ġemot ion
ĠMor ning
Ġt ang
Ġrom antic
per ial
p ublic
Ġrec ount
w aukee
ĠCh uck
ĠJ e
be it
Ġsac rific
Ġl aser
Ġsec rets
Cl inton
ĠC rown
al og
te es
Ġtreat y
aw s
Ġsqu ee
Ġdecre ased
Ġsucceed ed
Ġfin ancing
Ġa est
ĠAl t
s ign
Ġeth ical
ĠE V
Ġ7 1
Ġliber als
ĠFant asy
ĠJeff erson
or ph
Ġident ification
Ġp ist
Ġfr action
ĠJ u
ĠMad ison
ĠUn iverse
Ġf t
ĠW orks
r ained
Ġdon ated
Ġdraw s
s chool
ĠC orn
Ġ( )
on er
Ġout er
Ġfl ip
N EW
f ox
Ġadm its
back ed
Ġexec ute
Ġhack ers
Ġdivor ce
Ġstr ain
t ics
own ers
icial s
aren thood
ĠE X
ĠArk ansas
st ore
ĠK arl
ĠWiki Leaks
p ace
Ġbott les
Ġfeed ing
Ġl ib
Ġgener ous
ĠM oney
Ġbreak down
ĠPol ish
Ġper mits
Ġarri ving
L ink
g ree
ĠNe il
Ġconclud e
Ġaccount able
Ġdis orders
Ġunf ortunate
Ġ8 2
ĠMem orial
ol k
Ġcomp aring
Ġcomp ound
Ġenh anced
Ġafter math
ĠE ss
Ġvar iation
ĠCam bridge
ing ing
Ġtreat ments
se ud
ĠR aven
Ġche er
ĠRE UTERS
ĠU RL
sec ond
Ġt rop
Ġn ons
iv a
ĠD NC
roll er
Ġsu ed
Ġlicens ed
Ġcomp ly
ĠGu y
ĠM M
ĠPakistan i
ĠTy ler
ĠD ub
ĠRod rig
R T
ĠMil itary
ĠE li
Ġver dict
g ian
m aster
Ġembed ded
Ġcontact s
ĠI RS
Ġrec onst
ĠCommun ications
Ġun h
Ġret reat
C NN
ĠDep uty
rop olitan
s ky
ĠM ission
ig ma
Ġwind s
Ġlack ing
Ġs illy
Ġcorrespond ing
Ġfem ales
b ig
ĠF isher
ĠR oom
Ġsequ el
Ġt at
Ġdestro ying
Ġencoun tered
Ġcre ep
ĠP ap
Ġmass es
Ġhelicop ter
Ġwond ered
ĠK rist
Ġwal let
Ġadv ances
ad vant
Ġfound ing
Ġlast ed
IV E
ĠRob in
ĠLuc as
Ġsens or
ĠMar ia
Ġstatist ical
Ġbatter ies
s k
T ION
P ar
Ġsl ower
Ġwar fare
ĠVenezuel a
T om
N G
Ġ198 3
Ġsl ave
Ġeconom ist
Ġed ited
vis or
Ġre un
Ġund ers
are st
Ġ Ø
Ġvill ages
ĠConserv atives
Ġd aughters
Ġag ing
ĠP ur
t ail
Ġintent ions
Ġtaxp ayer
Ġlobb ying
Ġgif ts
ir able
Ġsepar ation
Ġpre ference
is ers
ĠF DA
ĠHoll and
ĠE mb
ĠConnect icut
s ource
Ġretail ers
Ġsm ugg
Ġf ierce
Ġ198 2
ĠSpe ed
Ġtraff icking
accept able
w al
a a
Ġl ip
F ree
Ġgrav ity
Ġwarn ings
ĠTh under
Ġst abil
Ġins urg
Ġc ub
ĠG host
n ormal
Ġd ys
Ġdiagn osed
Ġam pl
Ġstre ak
f ive
m outh
Ġgo verning
Ġaw a
Us ing
ĠJ ake
Ġcare ers
op es
Ġauthor ized
Ġf ence
iz able
â ĪĴ
ĠAd vent
Ġsuspic ion
Ġvert ical
Ġcapital ist
ĠStud ios
S outh
ĠPri ze
Ġh ill
Ġcont am
Ġcontin uous
Ġking dom
g iving
Ġorganis ations
Ġdem ol
Ġmill enn
en c
d irect
Ġinst ruction
Ġc odes
Ġtr agic
ĠDown load
Ġdis pro
pl an
Ġtransform ed
p ath
Ġscreen ing
ple x
ard less
Ġcommission er
Ġf ib
Ġcl uster
it ative
Ġ' '
h aul
ĠSus an
Ġfar ms
Ġ vel
Ġal ph
ĠSci ences
Ġb oring
Ġdam ages
ĠMer kel
ĠP interest
ĠB h
Ġwork place
Ġcons iders
Ġten ure
Ġclean ing
ĠBr and
Ġele ph
crib ed
ĠSt ars
ĠPlay ers
Ġcount ing
Ġfe ared
Ġhe nce
Ġcred ibility
es is
it bart
ĠC z
im age
Ġa ired
ĠH ub
ĠSc ar
ĠD anny
Ġincl usion
Ġisol ation
Ġde ce
ear chers
Ġcivil ization
elt a
Ġinv ite
l ib
G ame
g i
Ġmag netic
Ġte ens
ank ed
F our
h ave
ut ical
Ġwrest ling
Ġinter ference
ll o
Ġrus hing
ĠS alt
Ġdon ation
F ig
Ġdirect ory
ĠLt d
r int
Ġhypot hesis
ĠP i
Ġinst itutional
ĠUb untu
air y
Ġboy friend
Ġgam ers
Ġden ial
d ig
Ġdec ks
Ġfun eral
Ġinv ented
ĠN av
Ġmon sters
Ġur ging
claim ed
ort heast
ol ine
Ġcollaps ed
ĠWith in
ham mad
uss ion
Ġbenef icial
Ġdoub led
u j
ĠSpir it
ĠIndones ia
Ġp izza
Ġste am
ĠTh or
ol er
Ġout right
âĸ Ī
Ġen ables
Ġind ict
Ġsoon er
in ance
ue ller
Ġentreprene urs
Ġth irty
Ġnovel s
. :
ĠIslam ist
ĠB os
Ġcomp iled
In te
Ġjust ified
Ġgr ace
Ġev angel
ch ar
ad ows
her ic
Ġorgan izing
Ġlab els
Ġelimin ated
A V
Ġsusp icious
Ġreal m
id ays
Ġeval uate
Ġle verage
Ġbelie ving
ĠO liver
Ġcry ing
Ġtem plate
ĠPr inc
ĠInte rest
ĠD est
writ er
ð Ł
Ġexp end
Ġmed ian
ĠC arson
Ġspec ified
Ġroutine ly
Ġspons ored
ĠBrad ley
Ġincent ive
Ġrecru iting
ĠMorm on
ĠHind u
Ġag rees
Ġd umb
ĠK le
Ġpsych ology
ank a
Ġeduc ated
ere r
Ġsp awn
ĠLe af
. âĢľ
Ġ: :
Ġdisc our
ADVERTIS EMENT
Ġm ock
Ref erences
th an
wid th
Ġult ra
Ġtra its
ĠH ills
op ard
Ġ8 8
Ġr ib
Ġcompar able
ur able
co ins
ĠPet ers
Ġlay out
Ġv ibr
on i
Ġsn aps
ĠCharl otte
Ġjump ing
Ġalbum s
Ġbr anches
Ġunve iled
Ġsolid arity
th a
c s
st age
Ġple aded
Ġbreat hing
ĠC incinnati
ĠF arm
Whe ther
ĠThe atre
Ġc ents
Ġadequ ate
A nt
Gener al
W ork
ace utical
ĠSol ar
Ġmidfield er
oll ah
Ġshif ts
ĠC ass
Ġtermin al
Ġpath s
Ġarrange ment
Ġpe oples
ĠB ash
Ġl au
ast ically
ĠFor mer
ĠMc L
rodu ction
Ġrh yth
ĠP ence
â Ķ
Ġsmart phones
ĠL ED
J an
Ġgl ob
Ġcr icket
ĠSen ior
Ġtem ple
Ġpre liminary
Is lam
Ġpil ots
dri ven
Ġclimb ing
ĠT D
Ġscream ing
Ġmagn itude
ĠB uy
ess ional
Ġmon op
ah l
Ġconnect ing
ur l
Ġexcept ions
Ġfirm ly
U E
ĠGl ass
ĠWe iss
Ġpart ial
Ġwhe els
Ġcoc aine
re nder
ĠC ut
Ġd irt
Ġch ains
ĠFriend s
ck er
Ġam end
Ġgen et
ĠStud io
ĠBrazil ian
Ġintrodu cing
ol o
E G
Ġd io
Ġincent ives
ĠSo x
ĠTrib une
arth y
Ġlyr ics
Ġcomment ed
ĠVer mont
Ġbe ers
ĠF el
Ġmatch ing
Ġdetermin ation
ĠVer izon
Ġcounterpart s
St art
Ġd ivers
S er
Ġle agues
O rig
h ome
Ġtransl ated
Ġcount ed
Ġac res
Ġvis a
Ġappeal ing
ĠLeban on
Ġwild life
ĠProf ile
Ġpl aint
p op
Ġcreat ors
Ġbet ray
U PDATE
an ium
Ġlicens ing
Ġpar agraph
Ġthreat en
Ġreg ards
Ġtrad itions
ĠCow boys
S ign
Ġme als
ĠB L
ul ative
ĠZ h
ĠCount ry
Â £
Ġsc ul
ĠBook s
Ġb ust
ĠG onz
H ill
ĠP AC
Ġkill s
umb ling
Ġinvest or
Ġlike lihood
B R
Ġsens ors
1 10
Ġtw ist
Ġp upp
Ġprec ious
Ġshe er
p y
Ġconv inc
Ġcomp assion
ord able
Ġto y
Ġmotor cy
200 9
Ġtri ple
Ġ19 20
ĠN ixon
re r
f ly
Ġsl aves
Ġun rest
un ct
amp s
Ġavoid ing
A lex
Ġvac ation
Ġn an
Ġprohib ited
Ġdisappoint ing
Ġfold er
ĠO d
Ġendors ed
ĠBelg ium
ĠJ oy
iv ic
t able
Ġtr ace
ip h
B et
ĠG arc
Ġaccur ately
ĠUnivers al
Ġlength y
Ġshif ting
Ġtouchdown s
Ġtrans f
Ġgr ain
ĠAM D
ool s
ĠAr thur
ĠN in
Ã© mon
ĠB Y
i ots
ias m
Ġaccount ing
ĠB JP
ĠR osen
Ġ198 1
Ġind irect
Ġj ew
Ġwilling ness
Ġdis m
S y
c end
res a
D B
Ġcertific ate
ĠR ams
Ġun st
ĠArgent ina
Ġsh aped
Ġin mates
ĠT ob
f old
Ġsp are
Ġment ally
ĠPolit ical
Ġshe d
Russ ia
Ġover look
Ġgener ating
Ġint u
Ġproceed ings
J ames
ĠEb ola
ant o
Ġr iot
Ġrel ating
St ud
Ġimplement ing
ĠBro s
Ġm erc
agh d
ĠK am
ĠT ar
Ġdub bed
Ġwork force
if ting
Ġf ict
M ake
Ġinteract ive
o pp
s ki
Ġassum ptions
Ġsevere ly
ĠGl enn
======== ========
ate ur
Ġn it
Ġd ivid
Ġrenew ed
Ġestabl ishing
ĠH unt
Ġan ime
ke es
Ġcreat ivity
Ġswim ming
Ġmar ine
Ġshould ers
ch a
l ive
O s
Euro pe
b ull
ri ving
ĠF ab
ugg ed
Ġfundra ising
V al
Ġnegoti ate
Ġcelebr ity
ios ity
S ometimes
ĠSer ge
US A
Ġse ctors
ubl in
RE AD
r ament
Ġconsum ed
Ġaccomp any
Ġor g
Ġp owder
Ġb ite
Ġtrad em
o a
cc a
Ġadjust ed
Ġref lection
O ct
ĠAn im
ill o
N ET
Ġ196 7
Ġobser ve
fe ld
G od
ĠFin ance
Ġdi abetes
Ġh ij
ĠM ust
lud e
Ġfil ming
Ġaver aged
A h
Ġdis k
Ġmount ed
red ict
ĠM O
ĠG ates
Ã Ĺ
Ġwor n
it ated
ĠAr men
ĠA ve
Ġfire f
Ġroy al
ĠBull s
Ġsa il
ĠCl ar
C ap
Ġdetect ion
Ġbra ve
Ġhe aling
ĠT ell
Ġrec alls
ĠMil waukee
ĠA B
Ġadapt ation
ĠB ond
ĠQ aeda
Ġcor ners
ĠP L
Ġlaws uits
is ible
ĠSp ider
Ġclin ic
Ġsubsc ription
Ġaffect ing
Ġspecial ist
olph ins
eng u
Ġtrans cript
Ġrep ublic
Ġm aker
ri en
ĠBl ues
u ced
Ġconsult ant
l ash
Ġesc aped
R ober
ab ul
Ġf uels
Ġfol k
Ġproblem atic
Ġcompat ible
L Y
Ġfar ming
ĠCol omb
oc c
ul ent
Ġ1 30
Ġpredict ions
ĠPh one
ĠN ex
Ġearthqu ake
Ġorig ins
ĠE dd
Ġind igenous
ĠGold man
U M
ĠL ane
Ġtri umph
Ġeval uation
dis play
D ec
Ġmusic ians
Ġdel ays
ĠAn ne
Ġaggress ion
Ġwood en
Ġwhere ver
Ġh oly
Ġp ants
Ġliter ary
ĠRe ading
ĠDou glas
M al
ĠSt re
ull ivan
Ġimp ress
ugg ing
Ġp ub
mun ition
p se
Ġsh ore
ir k
Ġv on
m i
d ays
ĠM ason
Ġad mission
out ube
Ġsuper hero
Ġcontin ent
i ology
ĠBron cos
Ġless er
pr ing
Ġvulner ability
Ġdesc ript
aff e
R ich
Ġmar ry
ĠC her
S ON
cl osure
OS T
ĠHigh way
Ġunder way
ĠGer mans
Ġindepend ently
au x
Ġle af
ne ath
Ġblack s
f il
ĠGall ery
Ġbankrupt cy
Ġaud it
ĠSuper man
ĠD M
) (
ec hes
ĠC reek
oot ing
ĠMar co
p ur
ac ious
Ġin ch
Ġ1 10
ĠR C
W est
oc aly
Ġsher iff
J ack
ss on
Ġsl ip
au er
Ġle ather
Ġab used
ack er
Ġsw ift
Ġse iz
Ġtr ap
Ġve to
Ġ7 9
ol utions
Ġt ub
G erman
Ġw reck
ale y
Ġsk illed
Ġmort ality
W A
ĠH um
ĠB B
pe ople
ul um
ĠP arenthood
Ġdark ness
Ġresign ation
Ġin appropriate
Ġorgan ize
ĠBern ard
ĠC elt
Ġout fit
H igh
Ġshoot ings
es ity
lev ant
se lling
Ġle aks
qu al
ili ation
B rit
Ġtim eline
Ġres et
Ġafter wards
Ġ196 8
at on
Ġ18 0
ro se
Ġcy cling
Russ ian
l ie
Ġ] <|
T unes
ĠV A
Ġinter cept
Ġaltern ate
ig nt
ĠEx change
ĠSe ah
Ġb ind
ĠIs a
ĠSp encer
Ġform ing
ĠBud get
ĠE c
oca ust
Ġk ernel
Ġthorough ly
Ġtest ified
Ġlaugh ing
Ġattack er
Ġpract ically
iss ance
Ġcr ashed
Ġsupport ive
Mus lim
Ġp y
ah a
Ġs ie
pe red
umb l
Ġteen age
Ġsu its
Ch ris
orn s
Ġloc ally
Ġ19 40
ather ine
Ġbroad band
Ġlabor atory
Ġreb ell
Ġins ists
Ġres ume
ĠJ oh
ail and
Ġexha ust
ĠS omething
at ers
row th
G reen
Ġexp ose
Ġkill ings
Ġap ology
Ġdoctr ine
Ġcost ly
Ġsound ed
Ġdis advant
Ġun e
U I
Ġcolon ial
Ġun anim
j ar
ph p
al ph
Ġreason ing
ĠS or
et ing
W rit
S M
Ġlect ure
Ġpro x
ĠM ort
Ġdemonst rations
ĠSystem s
Ñ ĥ
ect or
Americ ans
ĠT ry
Ġveget ables
Ġgod s
Ġes p
erv ation
ĠL iving
Ġloc als
Ġc m
e ast
Ġinf er
Ġautonom ous
ra pe
Ġgarb age
ĠM ember
Ġclass ical
Ġphotograp her
ĠPalest ine
Ġemb assy
Ġanalys es
S ch
Ġhe d
Ġpre st
Ġne at
Ġint end
ĠAg ree
Ġcons olid
Ġed ges
Ġ197 6
Ġpurch asing
Ġportfol io
Ġbehavi ors
T or
Ġr ated
ian g
lement ary
ĠB ased
k g
N Y
Ġswit ched
he w
Ġ10 1
fund ed
Ġoff shore
Ġmat ched
Ġcorpor ation
ble m
Ã© s
Ġoblig ation
Ġgr ay
Ġfor ums
Ġmob il
Ġstraight forward
ĠJohn ny
Ty pe
Ġchart s
Ġdeal ers
Ġfl owers
Ġ Ï
be an
ocument ed
ĠBet ween
Ġencry ption
ĠD iam
ett a
cul es
ĠVik ings
Ã £
ĠL oad
oub ted
light s
ĠMichel le
Ġatt ributes
Ġath lete
ĠRe ed
ĠW R
Ġqu ery
ĠHom eland
ĠK och
D ay
mar ks
Ġterrit ories
Ġout break
Ġpriv ately
Ġinf amous
ĠQ B
n ames
ĠT ory
act ic
Ġelabor ate
Ġl oving
Ġunf old
ĠWal ter
ill ery
Ġl ap
ĠL ess
Ġ197 5
ar ming
Ġbus es
Ġtra uma
Every one
Ġdem on
ĠM MA
Ġstat ue
ID S
M et
Ġclos ure
Ġair line
Ġd ated
Ġmed ication
f our
Ġh alt
Ġbes ides
ĠS W
Ġfrust rating
ĠS oul
Ġ9 8
epend ence
ort ions
ĠMu hammad
Ġn uts
ĠS ad
ĠUn it
Ġo h
ĠI l
.. ."
ĠAl f
Ġeffect iveness
Ġmod es
ik ing
Ġf ame
Ġb urg
ion ed
ĠK ind
h is
ignt y
Ġ ^
Â ®
Ġaccommod ate
As ked
Ġint ake
iss a
Ġpred omin
Ġor che
Ġsp ill
an te
Ġpe pper
g el
ĠL ock
Ġstrik er
Ġlim iting
t or
Ġmis leading
oc ity
ĠSub scribe
g ro
ĠEm ploy
Ġunc ons
O G
pe lled
Ġst ays
ĠDen mark
ĠG ate
in os
Ġrank ings
Ġsear ches
Ġwithdraw al
ĠMove ment
ro lling
ri el
ĠF at
u um
Ġimag ined
Ġmem orial
Ġple a
Ġnom inated
az ed
ap y
RE L
re ach
Ġrespons ibilities
Ġs ink
Ġe ighth
ĠV eter
S uch
ĠK el
pro te
Ġenthus iasm
Ġexam ination
Ġs isters
Ġm ph
pro of
Ġd rought
ĠL uck
1 20
Ġstr ings
Ġmeasure ments
ĠRel ations
2 000
Ġdio xide
Ġwh ilst
ĠBr un
ĠG ear
Ġsubstant ially
Ġdiagn osis
n esty
ĠG PS
ĠW ATCH
Ġst ab
Ġblood y
P N
Ġ197 3
Ġgr at
Ġrev ised
ĠCal gary
ĠGM T
ĠCom ics
Art icle
Ġhistor ian
Ġobser vers
Ġcon vey
Ġam munition
D oes
Ġal tered
Ġ8 1
ĠM erc
oth y
ĠR ace
Ġd angers
Ġsymbol s
Ġdelic ious
Ġcar riers
Ġw and
H D
Ġlist ing
ĠN umber
ĠP T
ĠH at
Ġign oring
Ġloyal ty
Ġqual ities
ĠB uild
Ġent ries
Ġd ash
ĠR ico
Ġh ood
Ġhe ter
Ġmaintain s
u cc
resp ons
Ġmod ules
ĠHar rison
Ġex agger
ĠConf eder
ĠP ere
S emit
Ġlock er
Ġvol umes
C OM
ĠS A
Ġhung ry
Ġsac red
Ġpubl ishers
ak u
Ġdiscl ose
Ġbrief ing
v iol
op ing
add y
ĠCarl os
ĠB uzz
Ġformer ly
writ ing
Ġh orses
Ġinev itably
i op
min ation
Ġrel ies
Ġc her
Ġyour s
ĠH ockey
ĠBrook s
Ġinhab it
Ġalgorith ms
ro ots
Ġcelebr ating
Ġn odes
sh irt
Look ing
ab ad
Ġoccur ring
Ġsk ull
Ġshut down
ĠPal in
Ġmet res
ĠUp date
Ġhero in
ĠA qu
ĠA CL
Ġves sel
l en
m ines
Ġ197 2
Ġdiff er
Ġexerc ises
ĠIn v
ĠSoft ware
Ġp orts
Ġp ile
ĠA my
ĠSeah awks
ĠSh adow
Ġfriends hip
Ġag greg
Q aeda
ur u
âĢ¦ âĢĿ
Ġvari ations
S ep
Ġmid st
Ġfundament ally
ĠTe h
ĠP ick
Ġfulf ill
Ġdem ographic
ĠVill age
Ġf lesh
Ġdesper ately
ke ys
Ġdisp ens
ĠTrans portation
Ð º
Ġ8 4
ins ula
Ġb ikes
Ġ197 8
Ġde leted
we alth
ĠPlan ned
ĠH em
Ġf iber
h al
ĠTer ror
Ġgall ery
Ind eed
Ag ain
id ges
Ġch ase
Ġarch ae
ĠW oman
osit ory
Ġredu ces
Ġgar age
art isan
Ġout door
Ġsol ved
Ġrein for
Ġpres cription
Ġaccount ability
Ġw ip
ĠLiber als
Ġtw in
Ġclass room
Ġrap ed
rep resent
ĠD ennis
n ational
Ġt ribute
Ġsche mes
Ġsh y
Ġconsum e
Ġspect acular
Ġlineback er
ential s
Ġtrib al
ĠL isa
Ġplay back
Ġdecl ining
Ġnew est
Ġgovern ance
Ġphot ography
ĠR ah
ĠM i
ĠD R
M ike
ĠM ueller
~ ~
bl ack
ĠB us
Ġexpress ing
Ġbelong s
Ġr age
iz ont
Ġrub ber
it is
Ġth umb
Ġp ipe
oubted ly
Ġfil med
Ġexhib ition
Ġto ys
IT Y
ĠRaid ers
C ity
Ġun limited
ur ring
Ġins ure
ĠJenn ifer
Ġqu ad
>> >>
Ġju ice
h ner
Ġarr anged
Ġaccident ally
Ġtoler ance
ĠSil icon
ĠH ud
Ġ8 3
ĠP as
pt s
oc ide
Ġa ide
as m
Ġl oses
w ear
ĠSer ver
ING TON
Ġconf using
ĠM C
!! !
ĠEl sa
ĠL ost
Ġc od
B ay
Ġre ception
Ġsh apes
ĠSun ni
Ġw ounds
Ġspir its
Ġb inding
ĠD ublin
ft en
put ed
Ġpresident s
C opyright
Ġmisc onduct
Ġun le
ĠCo ach
Ġperman ently
Ġexcept ional
ãĢ Ĥ
ĠMalays ia
uls ion
W H
Ġsell s
Ġpuzz le
al so
Ġbed room
Ġlabel ed
Ġfresh man
li ent
Ġstrict ly
h ole
S uper
Ġchem istry
Ġfin es
ĠF ame
ĠPok Ã©mon
ĠN A
Ġsh ipped
bl og
in ate
ĠBl air
ĠWall ace
Ġbillion aire
ag ging
let ter
ĠG it
ell ar
ĠPhot ograph
Ġg rey
ĠJ a
Ġman ages
Ġskept ical
App le
Ġ9 6
Ġt ier
rem lin
Ġl uc
run ner
Ġlast ing
heim er
de gree
ĠEd wards
9 00
Ġ8 6
ĠFor um
200 8
ĠA ld
Ġdemonst rates
ĠA gr
ĠAut o
p it
Ġpro c
ĠJ ar
Ġsan ct
ab el
ig a
Ġconsider ably
Ġbo ats
Ġprocess ed
Ġregul ate
ĠTr uth
b ul
Ġtack les
B it
Ġfan cy
as i
Ġmed al
Ġmilit ant
Ġlin ear
Ġpre jud
ĠHer o
se mble
ch air
Ġsub mar
Ġlove ly
ĠT ill
ĠN PR
ane ous
aret te
ĠV irt
ĠUr ban
Ġp seud
ĠCh ile
ĠW onder
Ġreason ably
Ġorganiz ers
n ik
ĠF ly
Ġvig il
Ġstre ams
Ġsp ite
ĠSt ring
Ġden ying
th irds
ĠD od
olute ly
ĠPal ace
ĠZ ion
ell a
Ġsexual ity
A ug
ĠR oth
work ing
ĠM ack
M I
Ġteen agers
man uel
Ġmid night
Ġi Tunes
ĠV iol
Ġgenuine ly
ie val
ĠOper ation
ĠJ uan
com m
Ġfacilit ate
Ġfin als
Ġcance lled
Ġrest ored
Ġout lined
le m
Ġext ends
Ġm ature
Ġad vers
Ġret rie
ĠN DP
Ġle ap
Ġmon ument
ung le
ĠY ears
ĠG and
ĠGriff in
ol an
ĠShe l
Ġoblig ations
Ġun acceptable
ĠBill y
ow een
on ge
Pro f
re ated
ĠRepresent atives
Ġautom ated
Ġtun ed
Ġbattle field
Ġf art
D ep
w er
Ġsp ends
ard ing
Ġsuccess or
Ġd ancing
ĠRes ources
Ġtour ism
Ġdr illing
un s
Ġspot light
ĠMcC arthy
Ġp ound
ĠSp urs
he lp
ĠR ic
Ġ{ \
Ġhear ings
E arly
OR T
form ing
el f
Ġqu o
Ġrel ate
ĠÂ ĵ
ĠF ile
s is
ret ion
in ery
Ġgener ic
Ġdiv isions
ĠC ond
Ġunder neath
Ġrecommend ation
Ġf oul
ĠSh ar
ĠAr n
ĠBang l
Ġsubject ed
uk i
ĠCh arg
Ġdefin ing
ĠÃ Ĺ
R et
ĠRet urn
Ġab oard
L ife
Ġp iv
ap or
Ġad verse
ĠRec ord
Ġin ability
ĠTh ailand
ĠR ush
ĠBenn ett
ĠIn valid
Ġname ly
ĠCz ech
Ġtong ue
ul u
ov ic
sc he
Ġinc umb
Ġrender ing
ĠRich mond
Ġtransl ate
cl osed
ĠSe ven
à ¸
clus ion
ĠOb viously
Ġsal aries
Ġconsist ency
ĠH ope
Ġsurve ys
Ġ> >
Ġfrank ly
Ġspe eches
ĠBe yond
Ġembr aced
Ġgu ilt
ĠSh ield
ĠBry ant
Ġart if
Ġinc oming
Ġtrave lling
Ġm elt
p rom
Ġprem iere
ĠL LC
Ġover haul
Ġsn ap
Ġanonym ity
Ġ8 7
Ġvict ories
Ġcontract ors
ĠP ad
ri pp
Ġb inary
Ġl ined
ĠBet ter
A uthor
Ġris en
ai ro
Ġpit cher
Ġconfront ed
m ile
Ġste pping
Ġstro ke
ĠG B
Ph ot
Ġcor rid
ĠS F
ĠPack ers
ĠR at
ĠM VP
Ġr ings
ĠCom merce
th s
ĠSo on
Ġdef ic
bor ough
ĠTit le
= âĢĿ
rane an
ah n
âĢĿ âĢĶ
Ġbe ll
Ġl iability
ĠSoc cer
ĠML B
âĢ¦ âĢ¦
ĠF itz
Ġm as
ĠZ ero
Ġd ot
ĠChron icle
ĠSur vey
ĠHur ricane
Ġ0 2
Ġg ard
sp ace
Ġ196 9
Ġexhib it
ĠBre itbart
Ġarri ves
Ġconfident ial
Ġpublic ations
Ġtact ical
Ġpl ates
Ġlic enses
Ġc argo
Ġdisc on
Ġse ct
head ed
Ġanaly zed
Ġem power
ĠH BO
ĠC ape
Ġun ited
Ġvend ors
Ġpar ade
ĠG ay
Ġsign atures
Ġgrocer y
ĠReg ional
Ġpart isan
ming ham
Ġd ive
ĠS i
IN E
ier ra
Ġred e
Ġobject ives
Ġfunction ing
ĠWork ers
Ã£ o
Ġcon cess
S an
ic ers
hold er
p x
pro v
Down load
ist ically
Ġnegoti ating
#### ####
Ġdoub ts
RE S
Ġsteal ing
Ġback lash
Ġm ate
Ġ9 11
ĠElect ric
Ġme g
R ob
ĠNe ed
Ġac ute
IT H
Ġcloud s
ĠAcc ount
r ong
ĠCh amber
Ġprem ier
ĠI v
Ġbureau crat
ĠPr int
Ġaut ism
Ġdign ity
Ġj ack
Ġdefend ants
r us
d el
ĠG as
Ġcasual ties
w rite
ĠIce land
Ġdon ate
c ost
uster ity
Ġment ions
there um
ling ton
Ġsport ing
ĠBrother s
Ġliber tarian
ĠCub an
Post ed
Ġhe al
pp o
Ġpre season
c ill
Ġ9 7
Ġ197 7
ex p
Ġgl ory
ĠS ay
Ġdiscl osed
acc ur
ĠP un
ĠStud y
Ġhon our
Ġsovere ignty
Ġv ib
ĠDef ence
IF A
ĠG reens
Ġlack s
Ġcoast al
ĠM aj
Ġves sels
Ġn od
Ġcl arity
ĠPhill ips
Ġ9 3
âĶ Ģ
Ġc ute
Ġart ic
Ġu seless
Ġarrange ments
Ġind ef
{ \
ĠMet hod
orient ed
ĠH alf
A v
Ġprotect ive
Ġcatch ing
ag ged
ai res
ĠBarb ara
bs ite
Fr ank
M M
Ġfel ony
ĠT ib
Ġfl ows
w ick
ed ge
ĠR AM
al in
ĠM all
ps y
M er
ĠB P
Ġprop ri
A ng
Ġscul pt
u ity
ĠQ atar
ĠAL L
M at
Ġout let
ocrat s
V A
or ity
Ġstimul us
Ġcharacter ized
Ġutter ly
ut ing
ĠTit an
ĠT igers
Ġret ro
ĠS earch
Ġfort un
Ġconvinc ing
az ines
Ġim pe
Ġnecess ity
Ġlegisl ators
P oint
L D
Ġbl own
ou st
Ġspe lls
Ġmarket place
Ġdetermin ing
Ġtw elve
Ġprev ention
ĠBe ast
Ġevolution ary
Ġp ale
Ġint ens
Ġelectron ics
ĠSim ilarly
Ġdr ill
ĠB obby
ĠK ill
Ġ ),
Ġfore sts
ĠNob ody
Ġtheoret ical
ĠAtt ack
ir i
Ġflood ing
Ġpret end
Ġantib iot
ĠBry an
u v
ĠEvent ually
Ġlegit im
C R
Ġs lic
Ġglass es
ĠBut ler
ĠPant hers
m el
Ġspons ors
ent ions
k h
Ġd ense
Ġmus cles
Ġmet a
ĠSh ah
T ur
uff icient
ĠC M
Ġhun ger
Ġt ube
Ġadap ted
Ġqu arters
Ġswitch ing
ter ior
Ġen abling
aug hed
Ġco at
Ä ģ
IG HT
Ġhas h
Ġse am
Ġcomple ting
Ġc ure
Ġw are
d b
Ġl ighter
te am
H ouse
ĠSh i
Ġinfl amm
Ġ197 4
ang o
Ġastron aut
ick ets
Ġcool ing
le tt
Ġgen ius
Ġr am
Ġtable ts
k ens
M em
ĠOb ject
Ġca res
Ġun ch
Ġsubscrib ers
um ns
const itutional
raw l
Ġlist ened
EC T
ĠS ent
ron es
Ġequ ation
ĠI b
pl ess
ĠS L
Ġ9 2
it ial
Ġread ily
W ashington
Ġspec ify
ĠArab ic
out ed
ĠAl tern
A FP
AR D
Ġhe m
Ġfire arm
lick r
Ġfr ames
ant i
Ġdu o
em ail
Ġdeb ris
Ġreb uild
Ġexplo itation
ĠBrown s
ul ator
ĠM IT
ĠM ode
Ġcous in
ĠNever theless
Ġsens itivity
Ġbarrel s
Ġachie ving
Ġelect ro
om atic
Ġspons or
Ġrefere n
ĠAust ria
Ġpredec essor
ser ver
ĠL E
Ġglob ally
Ġmist aken
ĠCol on
Ġsubscrib ing
ĠJ av
Ġext ending
S ur
Ġair pl
d isc
ĠCl ay
Ġarbit rary
Ġaffili ate
Ġhold ers
k ill
Ġins ights
uten ant
Ġmurd ers
ĠC OM
Ġred ist
ĠFr an
g reen
ant ing
Ġf ond
b uilding
Ġassoci ations
Ġl aughed
ĠSud an
z i
ĠSand y
Ġroll s
Ġmal ware
Ġswe eping
Ġh ind
Ġbip artisan
ĠPlan et
Ġbe aring
ĠF ast
Ġfinan cially
ĠIn side
Ġp airs
Ġad min
ĠO wn
Ġjurisd iction
id o
ĠTo o
Ġc ab
Ġup side
a ired
ĠJam ie
min ed
Ġha ul
Ġpro port
ic he
Ġcred ible
Ġ197 1
Ġsomet ime
Ġbusiness man
os i
art s
Ġexpect ation
ri ages
Ġhard est
ĠTO DAY
ĠCast le
Ġpers ist
ak y
Ġswe ep
Ġsur pass
Ġref usal
Ġnot orious
cast le
Ġe leg
ĠMar cus
ĠI BM
Ġdomin ate
ĠE S
Ġsynd rome
Ġor al
ĠEd ge
Ġnight mare
ĠD awn
Ġtre asure
Ġreview ing
un ique
Ġprov in
Ġl ately
Ġend e
ĠSel f
Ġcan cel
ab a
Ġdis ability
atic an
ĠInd ex
ĠC SS
S l
Ġv owed
Ġtour ist
Ġdeter ior
Ġportray ed
ĠV i
ĠB ishop
re amed
Ġb atch
ith ub
Ġnew er
ĠJul ian
Ġ3 50
E v
ĠOr thodox
Ġviol ating
Ġa ston
Ġmob ility
ĠW ii
Ġnav igate
ĠB aghd
Ġtrib e
f ar
Ġtroub led
C le
Ġpos es
Ġendorse ment
c ry
Ġw it
Ġtourn aments
ĠSw ift
Ġc ache
ĠWell s
ĠIm perial
Ġwas h
Ġhydro gen
Ġm igr
Ġapolog ize
ĠA x
umbl r
osp el
Ġmem or
Ġattack ers
ASH INGTON
Ġsettle ments
Ġsepar ately
Ġm ush
Ġa ides
Ġdesc end
Ġr ats
S and
M obile
Ġa ster
Ġtr icks
Ġcommit ting
f eed
im port
Ġbi ology
iz ards
amp ed
Ġrevel ation
ĠNew ton
Ġart istic
Ġp ockets
ĠSt op
ĠLe v
ĠQu inn
Ġnation ally
Ġchar ter
Ġ14 0
Ġre ct
G S
res pect
Ġd rown
ĠB order
or us
Ġm all
ĠR achel
ĠContin ued
Ġre iter
cont rol
Ġrel ied
C are
ade qu
Ġpr ay
vel t
Ġpers istent
B ER
ĠTeh ran
Ġkick ing
ĠN ancy
Ġsp at
Ġg au
Ġexclud ed
Ġinter section
Ġover time
Ġinv isible
Ġc u
os ures
Ġpro ving
Ġter rain
p df
ott om
Ġgrad uated
Ġelev ated
Ġassemb led
Ġst ark
Ġdecl aring
Ġtem pt
ĠB iden
pro du
agon ist
pt ic
ĠM ul
ian ces
ĠB R
Ġpre y
ĠD aw
b ad
ĠB ird
Ġrel ent
B uy
ĠAss istant
Ġdistingu ish
Ġst raw
Ġphys ician
ĠD ue
ĠSp ot
Ġinc on
ĠLaur a
ĠLad en
Ġviol ate
fr ame
Ġgal axy
es pecially
Ġvill ain
A K
Ġinter im
Ġvar ied
aus ible
Ġshort age
ĠMach ine
? !
ĠW ade
th ree
et e
ĠN ag
Ġob esity
ĠG R
ĠF L
ĠGl obe
Ġpron ounced
P ut
sy stem
Ġfavor able
ĠK or
Ġident ities
Ġdefin itive
Ġbl end
Ġrun ner
Ġsh ower
ĠPr im
Ġart work
Ġb io
ĠDou ble
ĠSt ra
Ġassass ination
ĠCard inals
ĠFl ight
Ġinflu ences
ĠCh apter
Ġwar r
rament o
ne x
ĠLeg end
Ġtoile t
W ind
d ie
r one
ĠBre ak
Ġneur ons
b uild
at ched
m os
Ġfort une
Ġren ov
Ġles bian
Ġrevel ations
mont on
ernand ez
ĠCl ose
Ġover see
Ġacc using
Ġbes ide
Ġd read
ĠC ab
ar cer
Ġa qu
l ast
ĠNe ither
Ġ ðŁ
alth ough
Ġexpress ions
V ID
Ġal iens
p ic
ĠMem bers
Ġsub way
Ġlay ing
Ġbreak through
ĠJo ined
Ġn urse
ĠB ed
ĠH orn
ĠS O
ĠM B
ĠClass ic
Ġrent al
ĠWh atever
ĠM itch
Ġ8 9
Ġban ner
ul ates
Ġse al
Ġal umin
Ġbul lets
U ntil
ĠT arget
ĠN E
ĠF ish
Ġanal og
rit ical
Ġp uck
Ġcl ause
Ġhel met
G reat
ĠB annon
Ġuns uccess
T im
Ġcred ited
om o
Ġhand y
ĠCol lect
Ġvary ing
ĠR ud
Ġre lying
ĠYan kees
Ġg i
th ird
as ma
Ġfact ories
Ġsubst itute
H ub
P ublic
Ġun aware
Ġimpl ies
Ġvolunt ary
am as
ĠTra vel
Ġrecre ational
P H
Ġins pire
Ġhy d
Ġp etro
Ġanaly ze
Ġp sy
Ġrisk y
rib ly
ĠUS S
Ġdiss ent
II I
un ks
Ġp up
b one
Ġp p
ĠL ang
Ġreluct ant
Ġtrib es
Ġaim ing
Ġmag azines
Ġrecip es
Ġback ers
in ho
ĠJ ong
Ġprovin ces
Ġfam ously
Ġpat ience
ĠSe lect
ah o
Ġmass acre
t alk
n ut
Ġund oubtedly
Ġprof itable
Ġne ural
Ġtrick y
ĠC BC
Ġatt ribute
Ġpr ayers
Ġpref erences
br aska
ĠCle an
ĠW ire
Ġsum mar
ĠP ast
Ġk icks
Ġmeas uring
Ġur gent
ĠGarc ia
Ġve t
Ġal beit
Ġkilomet ers
IM E
Ġdisc ourse
ĠNex us
Ġca ut
Ġtax i
ĠC ou
ĠH R
Ġstar ring
col or
Ġp ause
Ġblog s
it utes
ro gen
IC K
ĠC u
Ġmos que
econom ic
Ġpass ive
Ġcy cles
Ġdefend ant
ĠE ither
Ġsoc ially
Cl ass
Ġrece ivers
Ġpreced ent
ĠAff ordable
ĠBrew ing
) |
omet own
ine z
ĠPet e
Ġf oster
Ġparam eter
ĠHispan ic
g s
s cience
Ġteam mate
l arg
ĠHall oween
ĠDr ag
N ational
Ġcrew s
Ġbuff er
Ġbroad ly
Ġmin im
Ġhe ated
ĠE rd
ĠJ obs
Ġp ars
ose velt
ul k
ĠH ait
Ġsupp lied
Ġintention ally
ĠN at
ash i
Ġo d
so ever
im ated
ĠN EW
Ġauthent ic
CL A
ĠPolit ics
Ġwor ries
he astern
ĠG A
ĠW inn
Ġsum mon
Ġcontract or
A c
Americ a
he tt
Ġval ued
ĠSam uel
Ġattract ion
Ġdynam ics
Ġst icks
Ġman eu
Ġload ing
ĠBir mingham
er ting
ĠAgr icult
ĠEngine ering
y ang
ac hers
Ġtext ure
ĠDe al
Ġdisappoint ment
ĠAgree ment
Ġour s
ĠNob el
D irect
V R
uc le
ĠInvest ig
e very
ĠK remlin
Ġb out
ĠD ra
s im
Ġmem orable
t ic
Ġstr anger
ĠG rey
ĠAl ice
Ġf isher
ĠAr c
ĠHol ocaust
Ġbroad c
l ay
Ġse min
ĠL em
Ġpo le
Ġinterpre ted
ĠAl ong
ĠT her
Ġsw ept
am y
B ased
ur as
in is
Ġstick ing
ĠPh D
ĠEnter prise
p ound
Ġprov es
ĠFour th
Ġfit ting
Ġiniti ated
ES S
Ġsatisf action
Ġw ard
Ġepid emic
Ġsub mission
ul in
ĠCh and
Ġdim ensions
ant le
ĠA bs
' '
y d
Ġentreprene ur
Ġtheat ers
ĠWork ing
Ġinc omes
Ġsear ched
Ġl iv
ĠL uther
Ġmart ial
Ġ9 1
S ports
off icial
E vent
Ġconven ience
Ġtr ump
v ised
Ġmis under
Ġfac ial
Ġne o
ĠPro test
ĠFer r
ĠV atican
Ġcontribut or
J apan
Ġst er
j e
Ġun lock
ĠGirl s
atern al
ĠP il
ĠTra il
am ation
B ill
ĠSn ap
With out
Ġflaw s
RE E
ĠD ays
Ġ9 4
Ġmulti player
REL ATED
Ġyoung est
ĠChief s
ĠNash ville
Ġar ise
Ġevent ual
Ġgrand father
ĠW el
Ġ ic
am o
de velop
ort ing
Ġworry ing
ĠIsrael is
Ġfict ional
app ro
h um
C ong
" ;
Ġmod ify
terror ism
Ġdef ines
ĠRe form
ĠJ oint
ĠN ep
Ġtact ic
Ġdomin ance
Ġinf lic
G old
Ġint act
ĠC hen
Ġmed i
f in
Ġobst acles
Can ada
Ġn est
ĠC row
Ġphilosoph ical
Ġban ning
Ġmal icious
Ġpr isons
F T
roph ic
inf o
Ġbas eline
ĠL ot
op ular
ĠS pect
C r
Ġachieve ments
lic ation
ĠAl most
cul us
Ġdu pl
Ù Ħ
ain ted
ĠBase ball
f ull
c ulation
ĠC our
L aw
Ġle thal
ost al
Ġen roll
ĠT ru
ĠHol mes
Ġsur render
ĠK ate
Ġsk ip
ĠK ath
Ġdisc ont
ĠM ans
Ġm aj
ĠF inn
Ġinvent ory
AN T
int age
L ater
Ġassault ed
Ġfin ale
Ġnational ist
em ale
te lling
Ġthe or
am bers
Ġtw itter
Ġreven ge
ĠCom puter
t ake
ange red
Un like
Ġpred iction
Ġconcent rated
ĠC ant
ĠB ear
Ġwhat soever
in formation
Ġentertain ing
ced es
ĠMo z
ĠE le
Ġshe ets
L ong
ell ing
Ġconsult ing
ĠMat ter
ir med
Ġcorrel ation
ĠDiam ond
ĠM icro
Ġtouch ing
I X
Ġneutral ity
ĠS ach
ĠAl b
Ġnav al
Ġimport s
Ġcost ume
AS T
Ġinter medi
F R
h ots
umb ai
Ġneighbour hood
Ġignor ance
Ã¼ r
Ġan k
ful ness
ĠMot ors
ĠPortug al
Ġeuro s
all ow
Ġopp ression
ĠAn imal
Ġdesign ing
Ġnetwork ing
Ġn asty
Ġcrowd ed
Å į
he nd
ar u
Ġregul ated
ob i
ast rous
ĠP ath
on ies
Ġdiv ine
Rem ember
ĠC ox
Ġmac ro
Ġdr ain
Ġg aps
us hing
ĠG ive
irl ines
ĠN HS
ĠR aw
ĠCar ib
Ġconfront ation
ĠS old
rav is
us cript
D et
ĠUS D
Ġc yn
ment ation
' :
Ġc ra
M arch
ĠT C
Ġc um
Ġorgan ised
Ġvar iant
Ġover r
ĠK az
ĠR ing
St ring
ĠSur v
Ġp add
Ġscript s
In tern
Ġhor izont
gener ation
l ation
Ġse aled
Ġsa ves
Ġdon or
ĠRod gers
Ġover ly
om i
Ġmer it
Ġh ated
Ġarch ive
Ġto oth
ĠBe er
ĠFire fox
Ġcur s
Ġcommit ments
Ġadminist rators
F ox
sp oken
Ġbicy cle
Ġc ord
ĠPict ures
ĠL an
sc ript
Ġbr ick
ĠP oly
Ġinv itation
ĠRodrig uez
le ased
ĠL G
Con f
ĠPal mer
ĠPD F
li ers
ne apolis
as ures
Ch ar
Ġcomprom ised
Ġrob bery
ĠM es
Ġev olve
head s
Ġprec ision
c m
A f
Cal if
Over all
Ġres ur
ah an
Ġnav igation
ĠM E
Ġtrans mit
Ġsk i
Ġfix es
Ġstar ters
ĠHug hes
Ġquant ity
Ġj am
t w
ĠAngel a
Ġw rist
Ġmathemat ical
c lick
Ġ196 5
T ex
Ġflaw ed
Ġembarrass ing
us ions
ĠDun can
Ġn er
ĠD A
Ġris es
as ive
Ġab uses
Ġpresent ing
Ġbelong ing
Ġoff enders
T er
g rav
anc ies
ĠN athan
U P
Ġcomm em
ĠF an
Ġreject ion
ĠR acing
Ġinfect ions
ĠBroad way
ĠSh aw
Ġcontain ers
Ġremem bers
Ġb ats
Ġpack s
an ne
ĠF oster
Ġdig it
ĠRo osevelt
b ot
Ġn erve
ĠK os
ĠFin land
ĠQueens land
ĠR PG
Ġball ots
ĠIndian apolis
Ġcur rencies
Ġover th
igh te
ĠD ise
ic ating
Ġquestion able
Ġ196 4
Ġunc overed
M ac
ch ief
ment ioned
im eter
Ġremind s
Ġcl ash
Pl ay
Ġfree ze
Ġconstrain ts
O pen
m und
ĠK ash
Ġprote ins
Ġrend ered
bel iev
Ġstead ily
Ġins ert
Ġdownload ed
Ġtradem ark
l on
Ġpitch ing
Ġble w
Ġupgr ades
ĠOccup y
Ġun cle
Ġdispro portion
Ġo st
Ġcur ric
Ġdist ribute
ĠMoh ammed
ĠA ven
Ġcont ing
Ġpro xy
gg le
Ġbeh ave
Ġb ay
Ġen v
V er
Ġinc arcer
Ġmanufact ured
serv ice
col m
Ġad oles
ĠMont ana
Ġl as
ĠCh ase
B E
ilit ary
Â ©
Ġmake up
Ġgrand mother
........ ........
ĠAss ange
Ġextrem ist
ed uc
min ster
Ġto kens
ri ved
Ġqual ifying
Ġshar ply
Ġsatell ites
Ġa pt
Ġapp et
ĠS ullivan
ĠP ubl
Ġthro at
Ġevangel ical
r aged
Ġhol idays
ĠC ris
Ġm im
Ġres id
Ġr ab
Ġprison er
Ġbase ment
W ASHINGTON
Ġsu ited
ĠAth let
Ġint imate
Ġpharm aceutical
Ġnons ense
Ġout look
Ġtrack ed
ĠI L
Ġcomple ment
Ġcorrespond ent
Ġlink ing
orig inal
Ġboot s
the m
ere k
Ġst iff
Ġund ere
Ġopt ed
Ġt ire
are z
ĠL l
Ġinj ust
Ġpun ished
Ġa usterity
U lt
Ġinject ion
Ġoff ence
Ġat e
ic ides
Ġaggress ively
Ġhack ed
Ġinv alid
Ġcol umns
Ġbud gets
Ġmet ric
ĠBaghd ad
ĠC abinet
Ġn arc
ĠIn iti
do ing
ibl ical
ide os
Ġcred entials
Ġsurv iving
ĠS ens
rit ies
Ġland l
ĠE RA
ĠNiger ia
Ġhot els
ĠW ol
Ġk g
ĠS ierra
U K
Ġtu ition
Ġcomp ounds
ĠPet erson
ĠZ immer
Ġpress ures
Ġbo oth
ĠA G
Ġback wards
Ġelimin ating
Ġr ivers
Ġde lete
un ge
Ġpl ag
Ġoption al
se en
Ġlif ting
Ġmanip ulation
Ġper ce
Ġhor izon
ĠSac ramento
P erson
Ġwho ever
E r
ĠC op
Ġo ven
child ren
er als
Ġsol ving
ĠBr ig
Ġsecret ly
Ġan throp
ĠC ell
Ġnice ly
ĠBoe ing
ve t
Ġemot ionally
Ġconclud es
ĠJes se
Ġham mer
ĠCl in
ĠH erald
Ġextrem ists
Ġjo ins
ĠJess ica
ĠL ore
00 1
Ġpublic ity
ĠHer itage
ind ex
esc ope
z h
Ġhor rific
Ġlaun ches
Ġcat tle
se arch
Ġprev ents
Ġsubur ban
Ġh ilar
Ġ q
ĠBrother hood
Ġplug in
ĠChance llor
ov ich
Ġch ron
Ġrecon c
ĠCitiz ens
Ġbr ush
ĠCat al
N one
ĠF IFA
our ge
Ġhaz ard
ĠBangl adesh
ĠQu ick
k now
J une
Ġswe at
com pass
Ke ep
ĠP ink
Ġc ups
Ġacc idents
Ġprem ise
Aust ral
ĠStud ents
Ġjust ification
co very
Ġcompl aining
ov o
ĠAlp ha
J on
Ġpict ured
ect ed
Ġadvis ers
Ġamb ul
ĠPresident ial
ĠAle ppo
Ġr ides
pr ises
Ġmess aging
Ġtroub ling
Sm ith
Ġanch or
Up dated
Ġtransf ers
et ition
Ġflo at
iction ary
less ness
s ocial
Ġcompan ion
ĠAnt ar
pl ant
Ġfe as
ĠEd monton
OM E
Ġsovere ign
Ġvac uum
ĠLeg al
ĠHe y
Ġref und
Ġpur ple
ĠP red
ĠD ri
Ġcor ps
atern ity
Hill ary
ĠB elt
ĠCh ip
Ġdest ructive
s qu
st ick
Ġunder go
iter ranean
ĠMS NBC
Ġcommit tees
F ire
ĠCol in
ĠOver all
Ġneighb oring
Ġj acket
Ġbrew ery
S O
Ġannoy ing
ĠCom b
at isf
ĠEp isode
E mail
[ /
Ġdis astrous
ĠS ave
ertain ly
Ġnon etheless
ĠA round
Ġtroub les
l iter
G N
Ġun constitutional
Ġo un
Ġent ers
Ġsle e
Ġ0 3
zb ollah
Ġs ab
D I
Ġrecord ings
In vest
Ġcommission ed
Ġfor k
ĠCr iminal
Ġcens orship
se in
ĠC T
eal ous
ok o
pri v
Ġte aches
Ġ19 45
Ġvirt ue
ĠG ot
ĠRe ally
ĠZ one
est a
ĠInc re
ĠAh med
Ġden ies
Ġsince re
Ġp el
Ġam ateur
Be ing
.âĢĻ âĢĿ
i ological
ĠH TC
EL L
Ġrandom ly
OR K
g om
ĠL ives
ĠCub s
ĠM urd
S um
Ġby pass
Ġtrad es
l ocal
Ġdim ension
ĠAn aly
Ġexam ining
Ġp ad
ĠR O
sp ons
ens on
leg al
ĠAll ah
Ġir rit
Ob viously
as a
Ġle ase
Ġlegal ization
Ġin adequ
ĠBre nd
Ġcalcul ate
Ġb er
ĠF ac
ĠG P
Ġdeli vers
ĠIm agine
ĠChall enge
ĠA irlines
ĠClar ke
sh ow
Ġ Å
Ġcat ches
Ġintegr ate
Sc ott
ĠPict ure
M C
um atic
Ġhand gun
Ġâ Ĩ
Ġunemploy ed
ĠM ine
ĠSh in
us hed
ĠOb serv
ĠE arlier
clus ive
Ġirre levant
Ġexpl ored
ĠM ong
av ailable
Ġdisp utes
ĠP H
ĠFO X
vent ions
Ġimpl icit
Ġg reed
Ġprom in
ĠCost a
P ort
Ġg re
ĠNe braska
ĠC av
ĠR ivers
ĠAr med
m us
Ġl iver
Ġb ans
oun cing
ific ant
ĠD rew
Ġo x
Ġforeign ers
c all
ĠL ic
c d
if ully
ag ain
Ġboss es
Ġin accur
ĠO z
Ġdef enses
F ull
Ġencour ages
w ould
Ġh ike
ĠTele graph
Ġretain ed
ust ain
ĠWhe el
ĠPot ter
Ġmole cules
oot s
Ġpriv at
v ial
Ġaccord ance
Ġcl ashes
uff ed
Ġprop ose
ĠR af
Ġmed itation
Ġmor ality
augh s
Ġload s
Ġop io
Ġo k
Ġd war
worth y
l ength
Ġcomp act
Ġint ends
ĠNaz is
Ġintrig uing
Ġreal ised
Ġintern ationally
Ġhomosexual ity
ĠBar n
Ġch unk
ĠSen ators
Ġ16 0
Ġnin th
if iable
Ġaff irm
Ġl azy
ver ted
Ġover head
Ġrecru ited
Ġhyp oc
y our
Ġgu ided
at hetic
Ġadj acent
Ġcal ories
ĠTib et
Ġprof iles
Ġcalcul ations
ĠComm ander
min ent
Ġenact ed
Ġdep ict
K K
g reat
ĠG round
ĠPro cess
ĠSteven s
ĠCurrent ly
Ġsan ction
play ing
Ġstri pped
L ear
Ġgrad uates
Ġr ugby
ĠG ore
Ġterr ifying
Ġshe ep
Ġsub t
anche z
ĠTr aining
Ġcampaign ing
Ġdiscon nect
undred s
uff y
Ġcou pled
Ġeconom ically
M uch
ass es
Ġ: )
Ġatt ach
ĠBoe hner
ĠM aur
ĠEff ect
Ġhed ge
ĠZ ach
Ġfav ored
Ġcoll ision
ĠC art
av i
Ġland mark
pe ction
v or
Ġclar ify
iz ers
Ġcrit ique
Ġsc are
Ġsubur bs
b oth
ĠAct iv
N AS
Ġkn ees
fl u
R eal
Ġproceed s
Ġinvestig ative
ĠD ynam
Ġnot ified
Ġtoug her
Ġconf erences
Ġspecial ized
Ġsymb olic
ãĢ ģ
op ic
Ġsl ice
Ġlight ning
ĠWeek ly
o ven
ĠP in
Ġinc om
ur ry
G R
Ġstud ios
Ġn aming
Ġpres erved
ĠW ing
Ġfurn iture
ĠO P
ĠU ser
ĠEv il
ur ious
ĠÂ °
Ġcent res
Ġbre ed
Ġpro long
B ron
Ġflow ing
Ġcig arettes
ĠT ogether
ĠCarib bean
Ġfar mer
âĸĪ âĸĪ
Ġnorm s
Ġrelig ions
Ġexpl oded
U se
Ġassess ed
ĠM I
Ġinfring e
ĠS em
d esc
if iers
Ġst ones
Ġimag ery
imp se
] )
ie ve
ok ia
ĠH E
Ġgl impse
Ġencoun ters
Ġsubst ances
ĠY e
Ġfif ty
oc y
Ġcrit ically
ĠWe ather
qu ire
Ġsequ ences
p ay
ĠN ar
T able
Ġsc roll
yl an
Ġdrag ged
ĠF am
ĠPrin cess
Ġdeliber ate
E xt
G en
ĠAny one
Ġsocial ism
it ations
Ġa ug
Ġplace ment
Ġunw illing
Ġen velop
Ġprosper ity
Ġco pper
Ġoffer ings
ĠAlex and
J uly
ed e
am pton
ĠMed iterranean
Ġreal ise
ĠI de
Ġst ole
Ġpot ent
p os
ĠHung ary
Ġfl ower
Ġpack aging
ig ue
ia z
Ġl ending
ĠPro s
Ġple asant
> <
b b
Ġindict ment
Ġch airs
Ġh ometown
ograph ical
ĠV oice
Ġsimpl er
C ount
Ġgl ance
Ġincorpor ated
] ;
per t
Ġmind set
Ġcur b
ĠJo el
ew s
Ġrevers ed
Ġind ie
|> âĢľ
ed In
ĠMil an
Ġemphas ized
ĠK an
Ġcryptocur rency
Hist ory
Ġhe y
Ġ12 5
os ity
Ġor b
ĠB ald
Ġm old
F eb
Ġtri o
Ġstrength s
ain er
Ġref uses
ĠP owell
k n
ĠC ulture
âĢĿ :
Ġâ ĸ
i ably
ĠBe aut
ograp her
lin ing
f an
Ġsket ch
Ġa irst
p her
ĠCons ider
ab i
Ġcop e
Ġdis gr
Ġporn ography
Ġturn out
Ġdes ires
ĠMin neapolis
Ġany time
ond e
ĠE thereum
ip se
ĠChe m
ophob ia
Ġtravel s
ul ously
ĠImm igration
Ġdisc retion
Ġdr agon
Ġtal ents
imens ional
r ams
m em
Ġcance led
Ã¡ n
c urrent
at able
ĠLu is
Ġrest rain
on est
p ol
G L
ĠT u
ost ic
Ġfather s
Ġha un
ĠZ en
Ġthr illed
ident ified
Ġs add
m ill
ĠK er
Ġcontrad ict
Ġpract icing
ĠM umbai
gh ai
om ers
ĠCh an
Ġg ambling
A pril
Ġmin ers
Ġgest ure
S am
Ġapplic able
ĠC and
Ġe rect
Ġcontin ually
ĠF ight
. ).
Ñ ı
et on
Ġdecent ral
Ġflee ing
J im
Ġins pection
ĠPriv acy
Ġl ing
ĠEdd ie
ĠGO OD
Ġres il
ĠH ig
ri ans
Ġnot ification
Ġconv ictions
ĠM ull
Ġind ivid
cont ent
Ġfru its
ĠH S
Ġv ag
Ġcommun ist
Ġte lev
by e
Ġhas ht
Ġman uscript
Ġder iv
ĠW or
Ġshare holders
ig s
Ġvo iced
Ġaccount ed
omet er
Ġra ids
Ġsc al
ĠEurope ans
mer cial
Ġscholars hip
Ġfact ions
Ġtow ers
ar in
Ġreb ounds
Ġimport ed
ĠGib son
ĠR u
Un ited
Ġab ortions
oll o
Ġlack ed
Ġcritic ised
Ġhabit at
ous ands
Ġcon tempt
Ġref res
K ing
Ġbe ans
________________ ________________
asc us
Ġsu ite
Ġoverwhelming ly
Ġl ips
ĠAn a
Ġsu cc
Ġorder ing
Ġcollect ions
izz ard
ĠD ian
iber al
em et
rik es
ĠM aking
Ġmeasure ment
Ġthread s
ĠErd ogan
Ġhead er
gh azi
ere n
ĠP ic
Ġwas ted
Ġ9 00
ĠCast ro
Ġsw ap
ĠTex ans
M icrosoft
ĠHT TP
he ll
Ġdict ators
it ted
ĠPro per
on ut
Ġel ites
ĠLook ing
Ġfe ver
ĠCh ad
ues e
ĠLat ino
ĠJ ared
Ġsur plus
Ġd airy
Ġpurs ued
sh aped
sec ution
Â Ģ
F eed
Ġlit igation
ĠAdd ed
Ġrall ies
ĠStr ong
Ġdep icted
ab lo
Ġpredict able
Ġpost ers
ĠAdv anced
ĠL akers
ens en
gr at
H el
ĠB esides
Ġcolumn ist
Ġt ender
ĠB ak
Ġoff s
Ġactiv ated
ĠTra ff
Ġh urd
H ead
Ġs id
Ġappreci ated
Ġforth coming
Ġm g
ĠJeff rey
O kay
Ġfin ances
ĠM ath
Ġiss uing
ĠMus k
u art
S H
s i
Ġsatisf y
ĠE P
ĠT ask
Ġefficient ly
Ġkilomet res
Ġch ick
Ġfemin ism
V M
Ġj ets
Ġprogress ion
ĠK ay
ĠÃ ł
ĠMart inez
Ġsup reme
Ġfinger print
J eff
and ing
Ġorg ans
charg ed
Ġuncons cious
Ġwe aker
Ġdist ress
ĠW es
Ġconst itute
ĠWood s
ol ics
Ġcont rac
et a
ĠMc D
Ġun law
Ġru in
d eb
ĠUn ity
ny der
Ġbe ast
ug ar
um my
us c
P ac
on al
ĠStud ent
re cy
Ġschol ar
Ġtr im
B rien
Ġactiv ation
Ġj unk
Ġcons cience
ĠB aby
Ġpoet ry
ĠSum mit
ĠN ine
Ġguarante es
Ġcar ing
ĠW a
Ġamb ig
an ies
Ġliber ties
ĠHel p
Rober t
Ġsec uring
M o
ĠA ub
ce ans
ok u
ateg ory
Ġle ver
Ġactiv ism
gom ery
Ġsc attered
Ġstart ups
otten ham
Ġpat ents
Ġobsc ure
ĠCo ff
ĠPal m
ĠNY C
k ers
Ġcomp iler
ud a
Ġdepos its
Ġconfir ms
Ġinstall ing
Ġsh oe
ĠTh ai
ch ant
ĠLight ning
Ġhel m
ĠVis it
Ġd awn
ĠMer cedes
ĠC urt
Ġthreat ens
m ember
ib les
Ġfre el
ĠMag n
Ġwhe at
T w
ĠDem ocracy
ask et
Ġrock ets
âĢĶâĢĶâĢĶâĢĶ âĢĶâĢĶâĢĶâĢĶ
p resident
Ġg ly
Ġinf inite
Ġpass port
ĠNorm an
Ġt ast
Ġneed ing
Ġwood s
Ġaccording ly
tr ue
Ġconcent rations
Ġ| |
Ġport rait
Ġcrack down
ĠPoint s
ĠJ ed
Ġunh appy
ĠT ouch
Te am
ĠFred er
Ġneg lig
Ġremain der
Ġinstruct ed
Ġtransport ed
am mar
_ {
ĠD w
Ġun int
Ġcustom s
UL L
ro d
ĠCreat ive
s omething
******** ********
Ġint ensive
ĠLabor atory
ĠG am
Ġman ually
Ġund ocumented
ĠAh mad
s ight
Ġprofess ors
ĠK enn
Ġmo ist
ĠÐ ²
Ġgot ta
Ġreact or
Ġdes cent
ĠD I
ĠL ion
Ġcry stal
ĠC it
Ġro oted
ĠS ri
h or
Ġb ored
Ġparad ig
ys on
Ġassert ion
b ra
Ġprec ip
Ġdis hes
Ġinf ilt
h u
ĠCan cer
ĠM ade
Ġtra ject
Ġassign ment
emet ery
Ġdress ing
200 7
v oc
ĠToy ota
Ġsp here
h ad
ĠYou th
AM E
ĠMarg aret
ĠMon ster
Ġsh ark
ĠBoy s
ĠGand hi
ĠSpr ings
ĠCom ic
ĠB omb
le ague
Ġaer ial
Ġ196 6
p aid
Ġsurvey ed
raw ling
os ph
Ġir ony
Ġhe ating
Ġnut rition
Ġwat ches
Ġeas iest
Ġfix ing
ĠL arge
Ġhy pe
M att
ĠW ang
Ġcommod ity
ac cess
Ġge omet
ĠMos ul
Ġdis gu
H ello
ĠStat istics
Ġpost season
Ġen vision
Ġbackground s
Ġapart ments
ĠD im
F I
Ġshout ing
Ġc abin
E U
ĠC ool
Ġfavor ites
ĠHud son
Ġadvent ures
ĠAb raham
Ġforg ot
j u
Ġproject ions
Ġment ality
ĠW alt
' )
iment al
Ġbatt ling
Ġc ables
Ġmix ing
ĠOper ations
Ġd ining
Ġgr im
uck ed
Ġbull ying
ĠH onda
Ġtou ches
ĠG aming
ke ll
own er
Ġgrass roots
ĠHe zbollah
Ġshout ed
Ġmarg ins
Ġceleb rities
ris k
Ġcome back
Sh ort
Ġacadem ics
ĠId ent
J oe
Ġmin es
Ġ( -
Ġsu e
Ġdig est
Ġt ennis
ĠI R
ĠInter ior
y on
Ġbl ade
Ġsl ated
Ġwh oles
Ġ( Â£
Ġd ug
ĠS au
en z
ĠB att
Ġsystem atic
ĠY ale
Ġdis puted
Ġindic ator
ĠL ower
Ġhand les
j pg
ĠCol lection
OS E
Ġl ied
ĠPri or
ĠMov ie
M ax
Ġgas oline
Ġcol ony
Ġpark ed
ĠForm ula
Ġbe ats
Ġflags hip
Ġbe es
Ġvacc ines
Ġsound track
g ue
.' "
Ġpromot ional
ĠK um
Ġpr one
Ġconce aled
ĠBM W
Ġsl aughter
ĠCom cast
ĠSqu ad
Ġdep uties
Ġin k
Ġch rom
Ġdispl aced
he y
r ising
at ics
ad ian
Ġremote ly
agg ering
ys ical
P ower
Ġch im
ens ed
ĠBen ghazi
Ġr abb
ĠY ellow
Ġappreci ation
Ġsc ales
and o
Ġsm iling
ogen ic
ĠKen ya
Ġfl ies
Ġc aucus
ĠO pt
Ġcontinu ously
Ġw ra
ĠH im
Ġhe els
ĠTe levision
Ġ0 9
Ġacc laim
ĠSim p
F ive
ĠBelg ian
Ġpolic ing
Ġgen ocide
est on
im g
we b
E nd
Ġmount ing
Ġcle aring
ph is
Ġstaff ers
ĠVin cent
ĠT ree
tit le
Ù İ
Ġill usion
Ġan om
Ind ia
B o
Ġg orge
est e
V I
ĠC P
ĠSat an
ing le
Ġstr angers
Ġble eding
ĠM ons
Ġ0 4
Ġse gments
es ville
ĠP ract
ĠB anks
Ġm apping
ĠB apt
Ġd ough
Ġcent ered
ĠP etro
ĠS id
Ġca f
Ġ196 3
ĠN ad
Ġpull s
ĠMal colm
Ġstat ute
Ġw ield
Ġic ons
ĠTom my
yn c
Ġtrop ical
Ġm ud
Ġpit ched
Ġur anium
Ġmet eor
Ġprompt ing
Ġdis reg
Ġcompet itor
Ġver bal
Ġsc i
Ġ0 8
Ġdig ging
Ġmathemat ics
ĠCry stal
Ġsh ook
Ġcharacter istic
Ã º
ĠInd ependence
Ġfl ames
ĠDam ascus
ĠCoun ter
oul os
Ġl inem
Ġ0 7
Ġapplic ants
Ð ¼
ĠA K
il ia
Ġbr idges
Ġunp redict
Ġto pped
Ġcro re
ĠBr ight
Ġbl unt
w age
Ġport ions
Ġrhyth m
h at
Ġcertain ty
ipe g
Ġimpact ed
ĠRaven s
Ġcontribut ors
ĠFin als
or ically
Ġcompar isons
n ia
ĠWe ap
Ġdispos al
ĠD rop
AC E
ĠCar r
ĠCo in
Ġl i
H C
M D
Ä ĩ
ĠSome one
Ġinherent ly
ix els
mid t
Ġw ished
id ity
Ġview er
Ġsmall est
l isted
ad itional
g on
ĠÂ »
ĠIniti ative
Ġwild ly
Christ ian
Ġmulti pl
ab lish
ĠSch olar
Ġmusic ian
ĠMajor ity
Ġbench mark
yn asty
ĠNew castle
cific ally
ĠC ash
Ġaffili ated
th reat
Ġsh aking
Ġamb itions
Ġfoot print
r ise
Ġreprodu ctive
Ġconnect ivity
m ount
ĠHop efully
ĠH ERE
on gh
Ġmed ieval
ĠUp on
Ġbehavior al
Ġpit ches
ĠNor we
ĠM end
ĠF alls
Ġimm unity
els h
at ility
Ġsynt ax
Ġs od
Ġm ol
Ġve ctor
Ġrep ository
ĠD elta
ĠWh ats
Ġwe ighed
Ġstorm s
Ġ0 5
ĠCont ent
|> (
L ab
Ġup hold
ĠÐ ½
ĠB ren
s un
Â »
ĠB ody
Ġst ub
Ġattend ees
Ġst ap
os aur
sh it
Qu est
ĠW ings
Ġr ipped
lud ed
ĠApp arently
Ġd are
Ġpat ches
Ġfortun ate
ĠM is
AS E
Ġaest hetic
Ġamend ments
W omen
Ġindivid ually
Ġanx ious
Ġas leep
Ġque ue
ĠR ule
ot ive
ean or
run ning
r ace
ĠEm peror
Ġst akes
Ġprior it
Ġcook ed
ud ed
B ro
N E
Ġst int
et ooth
Ġat op
Ġcar n
Ġgl ac
ĠP or
Ph il
igg s
ĠC opyright
Ġeat en
Ġdemonst rators
Ġr anges
Ñ ĭ
ĠG raph
F il
Ġfound ations
el ed
Ġem pir
Ġe go
Ġrecover ing
ĠIm pro
Ġm i
ong yang
Ġcinem a
atch ing
ĠVal ent
Ġadvis ory
Ġim minent
ĠS QL
âĢĿ ).
Ġaver aging
sh aring
Ġcook ies
Ġsh adows
ĠR ank
ĠX i
Ġdis ruption
Ġfe ather
Ġcon grat
ĠRe yn
ĠIndust ry
ĠA er
Ġphys ic
Ġfaith ful
1 30
Ġcert ified
Ġst aring
Ġp und
ĠCar roll
Every thing
P ass
ur ally
cl ub
Ġinspir ing
Ġadjust ments
Ġlegitim acy
ess age
ope z
Ġdistinct ive
p ical
Ġby tes
ĠLegisl ature
Ġdes erved
ON E
ĠDan ish
ĠK aren
ĠA CC
ĠW ere
Ġsufficient ly
Ġâ Ī
ĠK urt
ĠColomb ia
ig ion
ĠOther wise
Ġal erts
Ġcar b
ĠLim ited
ĠSt rip
,' '
Ġpl ausible
Ġd ent
N on
Ġcand y
Ġtheat re
p ie
Ġj azz
Ġhier archy
ĠSh a
Ed itor
Ste ve
ĠUlt imate
ad ata
ĠReds kins
In f
ĠM ann
h art
s ite
Ġpar as
Ġclim bed
en ly
ĠBr ain
Ġjail ed
Ġcr ap
Ġn ail
ĠF ix
Ġab usive
c ourt
w ait
d ollar
Ġsc am
Ġsuprem ac
C all
ĠSimp son
Ġun believ
ĠPer formance
Ġsp ont
Ġmy st
Ġundere st
ĠLe ave
ĠK i
Ġcl ue
ĠCh ampion
ĠS K
ĠWal mart
ĠM ob
Ġcr ashes
Ġsupp ress
Ġshe lf
Ġmetab ol
ĠS anchez
ĠD ame
Ġrail way
akes pe
pect ives
Ġcru ise
ĠB ills
ĠWest minster
Ġdirect ing
ĠArch itect
ĠW ITH
Ġa fore
Ġincumb ent
\ \
s ay
ĠCrime a
Ġrein force
Ġdep osit
Ġblow ing
ĠCommon wealth
Ġt ide
Ġfound ers
Ġju ven
ĠPortug uese
Ġn ucle
ĠR A
m ax
om ore
Ġbon uses
Ġflav ors
Ġamb ition
Ġexplan ations
Ġresc ued
Ġposition ed
ĠShan ghai
Ġlight ly
Ġmotorcy cle
Ġelect orate
% ),
Ġhistor ians
ĠGr an
ĠMet al
ot er
f ix
ort on
ĠTH IS
Ġrow s
P eter
le en
att ack
Ġbox ing
Ġgi ants
chn ology
Ġque en
Ġh ipp
Ġconsist ing
Ġut ilities
Ġro d
min ing
ĠNe uro
Ġhuge ly
Ġmet er
Ġadjust ment
Ġconsult ation
ĠS ale
ould er
Ġincorpor ate
Ġneg lect
ĠId aho
als h
Any one
Ġde ar
Ġmin imize
Ġcollect ively
Ġboy cott
Ġdeleg ation
Ġhalf way
Ġexplo ited
Ġsie ge
ow itz
Ġzomb ie
Ġrecogn ised
ĠSteel ers
Ġphys icians
OU R
Ġansw ering
gg ing
ĠCons umer
Ġplant ed
Ġeduc ate
Ġimprison ment
Ġc age
ĠU CLA
Ġcont ender
Ġpromot ions
Ġaccess ed
Ġop ener
ik o
Ġapp ar
ĠThe ory
âĢĿ ?
Ġcere mon
ĠP orter
ĠU A
Ġgener ates
ĠM asters
Ġelement ary
Ġ __
n els
ĠK ane
B as
g irl
Ġch asing
Ġpersu ade
prising ly
ĠW E
ĠGener ation
Ġab rupt
Ġassoci ates
S ure
Ġintegr al
Ġshow case
Ġal igned
Ġoff enses
Ġvel ocity
ĠO culus
ĠX L
uter te
ĠE ight
Ġv icious
orth y
ĠInte gr
Ġlad der
Ġoff line
12 5
ĠLeon ard
Ġopt imal
Ġsim ulation
O H
he art
ĠS B
Ġp ork
em pt
Ġdies el
T Y
Ġluc rative
ĠK o
Ġnegoti ated
Ġadv ancing
Ġlog s
Not es
ĠEs pecially
g ow
erv ative
Ġsli pped
ĠS witch
ĠH az
ĠG N
Ġcig arette
Ġcurric ulum
ĠCol ts
ĠN ut
M E
ason able
Ġrun ners
ult z
Ġeff ic
Ġrecruit ment
Ġclass ification
Ġancest ors
ant ine
Ġ Ñģ
AS S
Ġabsor b
Ã© e
ĠâĢľ [
ĠArm strong
Ġw itch
ing rich
ĠM oss
OR D
Ġinhabit ants
Ġmanip ulate
Ġmor ph
um per
Ġjer sey
Ġd orm
ĠAn alysis
ĠI Q
Ġautonom y
er ness
Ġs oup
Ġfif teen
ĠY u
ĠL oc
Ġimp osing
Ġmatch up
Ġf reed
Ġport able
Ġillust rate
ĠM add
add afi
ĠConfeder ate
il itation
ĠH ousing
ĠStr ateg
ĠSt alin
ar se
Ġmilit ia
M ENT
S il
AC T
t ax
Ġquant ities
Ġappeal ed
Ġacc ent
Ġunp opular
C AR
Ġmar riages
Ġslow ed
ew ay
am iliar
ad ays
Ġy oga
ĠT ravis
Ġp iano
Ġlow ered
1 000
Ġt ales
ĠK end
Ġprotect s
ĠW ant
Ġche ss
Ġauthor itarian
Ġpay roll
Ass ad
ĠSocial ist
Ġloc ate
ĠEn forcement
z el
def ense
Ġpist ol
F ore
Ġhom icide
ĠTer min
P age
D el
m or
ĠB ent
Ġemb ark
akespe are
Ġquarterback s
3 50
op oulos
ra vel
Ġb ru
c amp
um ed
Ġres ent
Ġwe ed
Ġcrus hed
Ġmet rics
Ġo w
ĠMon th
Ð ´
I ran
ĠV M
Ġper ipher
Ġinv ention
Ġp estic
Ġacadem y
Ġfact ion
Ġar rog
Ġdelight ed
Ġuns upp
Ġalumin um
Ġo we
Ġhon ored
Ġprem ature
Ġblog ger
ĠJ ama
Ġbl at
al one
ĠM ol
ĠMin i
Ġex cer
ĠK il
ĠCre ate
ĠM ills
ĠS add
ach t
Ġconsist ed
Ġno ble
im ity
Ġadminist rator
Ġtrave lled
C onst
ĠEm ir
A G
} ,
Cont act
Ġconsum ing
Ġinstrument al
ĠB rett
ĠÂ Ń
ĠSal v
Ġsatisf ying
v ance
ĠPriv ate
s n
Ġp ond
ĠA F
Ġover view
ĠGreat er
bro ok
Ġtreat s
Ġhapp ily
F ile
ob a
Ġsp ike
Ġcomb o
ĠS outheast
asc ript
Ġp iss
Ġbl oc
ĠG or
an as
ĠAmb assador
Ġprotest ing
road s
Ġfert il
Ġt ended
Ġbr on
Ġt a
ale z
ĠCase y
Ġart illery
Ġdat as
s u
Ø §
per m
ĠDar win
C re
ĠB O
Ġv ic
ir ies
Ġdec isive
S N
ĠD olphins
ĠN GO
am on
Ġdetect ive
Not hing
Ġsimilar ities
Ġseek ers
ĠDel aware
Ġup s
Ġprol ifer
reg ular
ĠPr ison
Ġliv est
Ġdiam eter
Ġpat ron
Ġg ates
Ġprob ation
ĠÐ ¿
ret ty
Ġyield s
Ġconstitu ents
u ber
ĠLeaf s
re ctions
ell ed
ĠF ace
Ġsl ides
Ġsent encing
Ġsl ammed
Ġinvestig ator
Ġc ad
ĠNo ah
ator ial
ĠLoad ing
ich t
it ous
ĠS eth
k ar
ĠS nyder
ke eping
ĠQ ur
Ġrecogn ise
a que
Ġal arming
m ph
ĠE t
ibl ings
Ġlic ence
Ġinc ap
ĠNich olas
Ġu b
Ġclin ics
Ġcontem pl
ĠPar ks
ĠGl as
Ġupgr aded
And rew
Ġprohib ition
Tex as
or um
ĠCath olics
Ġat omic
occ up
Ġpo em
ĠN okia
Ġ( +
Ġrest oration
Le g
Ġun related
ro v
ĠH ence
ment al
ĠO ften
Ġshow c
il ight
Ġmark ing
ĠLear n
Ġh ref
Re view
Ġd ude
ĠWe bsite
st ation
ĠL ate
R yan
Ġr ider
Ġsp ying
ĠT on
Ġven ues
Ġincl ined
Ġincons istent
Ġqu ot
Ġenthusi astic
names e
âĶĢ âĶĢ
S cient
Ġn odd
Ġe cl
W ould
ĠSc reen
Ġappl aud
Ġ196 2
Ġcatast rophic
ĠLouis ville
Ġweakness es
ĠV ent
ourn ament
ĠLe x
Ġbi ased
Ġexp ans
Ġdri ed
ĠRepresent ative
M ad
Ġlad ies
ant om
ll ah
el ong
ĠF o
in ner
" ).
ĠNorth west
ĠGene va
met ic
V is
Ġcl ips
Ġcat alog
ash a
Ġmis er
Ġspe ar
Ġjud ged
Ġtro phy
ĠK ap
lev ard
Ġrif les
Ġapp le
Ġshel ves
ĠMatthew s
n ar
Ġthr ust
ĠDise ase
Ġrecip ients
asc ular
ĠMont gomery
ĠD erek
Ġpr iced
Ġbreat he
d est
dep th
Ġp ul
Ġcon form
Ġtight ly
Ġnurs es
ĠS ie
Ġcor rection
ĠHop kins
H ome
el ines
ĠCan n
Ġpost p
Ġfrag ile
Ġgang s
connect ed
Ġutil ize
Ġl ion
Ġalleg es
Cont in
ĠMe g
Ġvari ants
Ġadvis or
ĠS pl
ĠEll is
Ġremark ably
display style
Ġfart her
ĠD j
Ġend angered
ur bed
ĠO m
Ġdep ressed
Ġsynt hetic
ĠC airo
ĠR ut
ĠSt ories
Ġnic he
Ġr iots
ĠMun ich
ĠHus sein
Ġecho ed
Ġn ostal
ĠT rip
ĠV illa
olit ics
Ġst aggering
Ġev olving
Ġinterven e
N ob
ĠW rest
Ġmon itors
Ġbook ed
M or
Ġmasc ul
ĠRichard son
Ġbail out
ourn als
Ġp oured
Ġair ports
T otal
Ġang les
ĠP ierre
ĠOrig inal
s ix
b ach
he ster
C ome
Ġimm un
Ġpract iced
ĠW ait
Ob ject
Ñ Į
Ġdown s
Ġgen ome
Ġjew el
Ġinsect s
r ational
Ġhum ble
Ġextensive ly
Ġm igrant
Ġc otton
ĠC amb
Ġencry pted
Ġo ath
Ġne arest
ef e
Ġank le
is le
b ling
Ġcooper ate
Ġwhistle bl
ĠHuff ington
ĠAn onymous
ĠUS C
e ree
Ġw ives
amp ire
ĠM ut
ĠC rew
reat ing
Ġbre eding
Ġbre wing
Ġup ward
Ġfor ty
it ially
Ġpract ition
ĠSur face
Ġchap ters
Ġrem inis
Ġrel iability
ans om
ĠK ids
Ġr ip
og yn
Ġsec urities
ĠH appy
Ġsl im
Ġad ul
ball s
D ate
Ġwar ns
Ġint oler
Ġsymp athy
Ġcol ored
Ġpredomin antly
Ġfore most
ĠWord Press
Ġt ires
and als
Ġinterf ere
ĠVeter ans
Ġprop osition
Ġgenet ically
ĠArn old
uff le
ĠSw an
Ġfil ters
Ġincl usive
ĠGr ace
Ġmonit ored
f inal
ĠA br
Ġenfor ced
l av
p ically
ĠCD C
Ġman a
Ġflo ors
s an
Ġfe ud
i ott
ĠP engu
ĠB ach
Ġwell s
ĠSom alia
ĠThanks giving
Ġhor r
Ġoptim ism
Don nell
Ġdefic its
Ġpros pective
he arted
i Ã³n
l iv
ns ic
ĠEag le
ĠP HP
Ġcoord ination
ĠCl int
ĠG az
d imensional
ĠS ter
Ġwe ars
ĠPr ide
ĠV ideos
ĠAg ent
b as
Ġcamp uses
Ġtask ed
Ġcomb ining
Ġcoinc idence
ĠP ew
ĠTri ple
Ġfor wards
ĠN ord
Ġhand ing
ĠFor bes
ot ics
ÃŃ a
ĠW elsh
ĠIS BN
l ance
Ġsens ible
Ġassist ed
Ġun con
Te xt
Ġt ense
Ġinher ited
ĠHend erson
w ent
Ġpositive ly
Ġillust rated
om on
Ġbound ary
ĠKurd s
Ġimpro per
Ġemer gence
Ġscar ce
Ġkind a
Ġautom ation
g ay
ĠHe brew
Ġdescript ions
M ain
Ġs acks
AR K
Ġche f
ann ers
ĠACL U
ĠMem phis
ĠJ in
ĠSchool s
S I
Ġpartic le
ĠE sp
Ã ł
Ġ12 8
Ġd oses
ey ed
Ġg ren
Ġobtain ing
ĠD oc
Ġcl iff
ĠU P
ĠReg ion
ĠGet ting
st ated
h aw
Ġther mal
ĠH ass
ik er
cons cious
Ġsepar at
ĠP ub
ĠB eth
Ġz oom
ĠAct ually
ĠAbd ul
Ġsh ine
r ays
osh i
Ġre nown
Ġg rief
Ġpri ests
Re illy
Ġver b
Ġafore mentioned
ĠWinn ipeg
oun ter
Ġord inance
ĠBudd hist
id i
ĠA FL
iat ric
ĠE A
ent ry
Ġunsupp orted
ĠS r
Ġ196 1
Ġins ufficient
ator ies
ĠRe lease
Ġste ering
Ġcaut ious
a uth
Ġcycl ists
o ir
ĠJ ays
Ġreward ed
p ose
ĠK ush
Ġoverlook ed
y outube
het ical
Ġuncom mon
Ġintu itive
ĠT X
10 1
Ġcul p
Ġupload ed
Ġbelong ed
Ġrelax ed
il ers
Ġdys function
ener ation
Ġbo asts
ek ing
Sp ace
ĠFl a
oy le
Ġexp osing
que z
Ġw oke
ĠH off
Ã© t
Europe an
Ġdeb ts
Ġrespect s
Ġbas ics
Ġpaint ings
Ġtour s
ĠAs k
Ġcirc ulation
Spe cial
Ġgu ides
ĠTun is
Ġc ripp
Ġp aste
ir ation
ĠVis ual
N O
in ers
ĠN uclear
Ch ild
ber ger
b ane
Ġnav ig
Ġreal izing
Ġenjoy s
Ġwh ale
Ġcandid acy
Ġorig inated
b ucks
ĠBar nes
Ġoutrage ous
q a
Ġatmosp heric
Aug ust
ĠF ixed
ĠPy ongyang
ĠP aper
Ġlight weight
Ġawa iting
Ġcomb inations
Ġconv entions
Ġslow ing
Ġreal ities
Ġadd ict
Ġadm ire
l it
Ġth rive
ĠM atch
Ġadd itions
ĠSy n
ĠSte phan
Ġpersonal ities
Ġpo ised
ĠRand y
ĠY am
He alth
Ġrepe ating
ĠMon te
ĠD ust
Ġt ags
Ġext inction
Ġe ld
Ġperform s
Ġener g
Ġcoord inated
Ġquick er
Ġblank et
c ond
ĠL O
ĠDod gers
Ġ10 5
Ġcas ino
Ġgr ades
Ġa in
ĠA pr
Ð ²
Ġag grav
Ġopt ical
f illed
Ġnurs ing
Ġtat too
ĠH A
Ġs way
ĠCur ry
ĠNorwe gian
ĠK iev
Ġred es
Ġvibr ant
ĠE ye
Ġwond ers
ĠBash ar
Ġc oding
ig o
RE D
ĠUn less
Ġh obby
Ġabund ance
Ġass erted
ĠCom plete
De velop
ĠV a
Ġnever theless
Ġse ize
Ġdeal er
.' '
ĠPre vention
am ount
Ġdev il
Ġspr int
ĠB ark
Ġno on
itz er
Ġeval uated
iet h
ĠSt rike
ĠB ec
Ġbo o
Ġbuy er
Ġimm ers
Ġpl um
ĠReg ister
ĠHold er
p ers
g rown
ĠR alph
ĠBer g
Ġcommer ce
Ġdetain ees
Ġim aging
A ir
R ad
Ġman ga
Ġlit eral
b ank
ĠW AR
b ast
Ġd ip
Ġred irect
Ġje opard
Ġmonop oly
is co
Ġform ats
c ock
Ġb ent
Ġbot hered
Ġrecip ient
l anguage
ĠK enny
Ġty r
Ġsoul s
Ġparticip ant
Ġmerch and
ĠSil va
Ġc ensus
pro cess
Ġhilar ious
ĠNov a
S erv
Ġsn ake
ĠFal cons
ĠRe act
ĠEm ily
Ġfl own
ĠT ak
Ġtri vial
Ġredu ctions
200 6
B rown
ĠT ories
ĠE aster
Ġsubject ive
Inte rest
ĠJen kins
Ġtest ify
Ġrece i
ener gy
ĠTit ans
Ġb od
Ġorgan isms
ĠAd rian
Ġmention ing
ĠIsa ac
il ogy
Ġfl uct
acer b
ĠPear l
ID E
ĠH ost
play ed
Ġreflect ing
ĠBudd h
sh adow
Ġc ared
Ġe ternal
ĠR ot
ĠJ unior
Ġliqu or
I ts
Ġwatch dog
Ġwh ales
ĠH ack
ĠVal ue
Ġdatab ases
ĠR ules
Ġinput s
ĠSch ne
Ġtrad ers
T est
ĠâĢ ĭ
ĠAt hens
Wh atever
Ġdemonst rating
Ġcl ues
ĠEmer gency
Ġtast es
d ist
ĠT ab
Ġsc iences
Ġsun light
it ime
Ġg em
xt on
ĠM UST
ĠKle in
ep rint
Ġinher it
Ġunder grad
Ġpick up
" ),
ĠL um
Ġexha usted
un al
Ġpay load
Ġsam pling
ĠSh akespeare
ĠFerr ari
ec d
ĠÎ ¼
ane y
Ġfin est
az or
ĠGab riel
ĠH ob
Ġinadequ ate
Ġemp athy
k it
Ġgr ams
ĠC raw
ĠAgricult ure
ĠProp het
Rich ard
ĠT ottenham
ĠAl z
ad h
Ġc ivic
F orm
Ġsm iled
Ġan ten
ĠMet ropolitan
EN D
ĠViet namese
Q ue
er ie
Ġspin ning
m ake
Ġbarg aining
ĠKash mir
ĠT iger
Ġhur ting
b us
Ġwork out
Ġp unk
Ġunderstand able
Ġobs essed
Ġg ases
Ġunder water
ĠMc N
Ġu m
gg y
Ġsl ogan
Bl ue
ile m
ĠDep ression
Ġprotocol s
Ġaston ishing
Ġlobby ists
Ġde portation
an cer
Ġl oot
ag le
Ġvast ly
Ġpus hes
Ġdark er
Ġserv ants
Ġbl u
Ġconj unction
W elcome
Ġins isting
am ples
ĠCy ber
ĠU l
dri ving
ĠA IDS
ĠJosh ua
Ġvol t
Ġen compass
ĠEr n
Ġcon gest
sex ual
Ge orge
cl ock
Ġdiplom ats
Ġver ified
Ġen light
Ġassault s
S ources
Ġinaug uration
ĠSt uart
an throp
b illion
Ġmicro sc
ĠAustral ians
ĠLe aders
ĠHer oes
ĠSt range
ĠNot es
Ġs iblings
st airs
Ġu mb
es ar
M ap
Ġcou ch
ĠC I
ch at
Ġprox imity
up iter
ĠC ob
L ocal
ĠG ang
Ġoverwhel med
Ġmole cular
ĠS ite
ĠA j
ch t
Ġcapt uring
Ġwrit ings
Ġpar a
ĠEv an
f air
iz oph
os ion
Ġhorizont al
Ġbank ers
Ġalph a
Ġcraft ed
Ġimprison ed
ĠG oth
Ġst agn
ĠH ook
Ġs i
ĠV I
ĠTh rones
Ġdist ances
ĠPro bably
ĠWild life
Ġproceed ed
ĠKas ich
f un
Ġst aged
Ġpromot es
p res
ĠS gt
ruct ed
ĠS weet
ĠPere z
Ġsurf aces
OC K
Current ly
ĠK id
Ġapolog ized
Ġst airs
im ination
ov an
Ġax is
Ġactiv ate
inent al
Ġaccompany ing
ĠHe avy
ĠF uk
Ġsus cept
Ġnational ism
ro e
alk ing
Ġm a
Ġ19 48
Ġathe ist
ut ton
Pl us
ĠJ ob
Ġinjust ice
ach i
Ġb ounce
Ġrebell ion
Ġun named
ĠR ust
ĠAp ollo
eng ine
ĠP oke
Ġstab bed
Ġtra it
Ġsupp liers
rop he
Ġincom plete
W W
Ġshot gun
ĠSach s
Ġsl ots
p ict
ĠB in
ĠF aith
ĠBa iley
Ġimpl ied
Ġmed ications
ĠT win
act iv
M iss
ĠRe x
Ġpremium s
Ġshall ow
ard i
ine a
id y
Ġmet ro
Ġb og
Ġadminist ered
Ġadv ise
ir us
ĠF ew
ĠR B
Ġro pe
Ġbat ting
Ġdr astically
U ser
{ "
Ġj ar
Ġassum es
Ġw olf
Ġam ended
D ou
ĠC F
Ġwho lly
ÂĢ Â
Ġrele g
Ġpa ired
ophob ic
S w
Ġplaint iffs
Ġtr ails
Ġcomp ile
le um
Ġex acerb
Ġind ul
ĠShe ll
Ġb rib
Ġcompl iment
Ġin ning
f a
ĠGT X
0000 0000
Ġhint s
ĠHe aven
ĠD ow
ĠSh op
ĠD ylan
Ġphenomen a
ere rs
st rom
Ġretail er
im edia
Ġsec recy
Ġhur ts
ĠMar ie
p ad
Ġbe am
Ġso y
P ri
ĠB our
ci ation
Ã¶ r
Ġnot or
Ġstate wide
Ġhighlight ing
â Ļ
Ġcont ention
Ġl ingu
Ġnew com
Ġpast or
ĠIM F
Ġeleph ant
Ġdisapp ro
Ġemb ry
ĠEconom ics
ĠG ingrich
ĠIns ider
ise xual
osa urs
Ġ **
Ġobject ions
us p
Ġprim aries
W as
Ġaffect ion
ĠAsh ley
Ġl amb
Ġlo oph
author ized
Ġf lick
inte gr
izoph ren
Con clusion
ĠEll iott
Ġpen is
Ġ0 6
ĠSc ript
Ġc ites
Ġj aw
t i
od er
in burgh
Ġb aking
S ocial
Sand ers
h ouses
D ear
Ġgener ator
Ġgorge ous
Ġout line
Ġg ently
Ġsub urb
Ġadmit ting
Ġgra pp
o at
Ġpop ulated
Ġpass words
Ġmat rix
Ġl enses
ĠFl int
Ġvit amin
Ġcomed ian
Ġb ang
Ġext ensions
the ning
Ġar row
ear th
Ġprob able
Ġfiref ighters
Ġp ets
S QL
ĠTH AT
Ġborrow ing
Ġstand point
ĠU FO
Ġrev is
Ġsyn chron
cy cl
ighte ous
Ġinter ventions
Ġlot tery
Ġcontest ed
ĠS ask
ĠA ur
ĠE ug
Ġ* /
c iously
Ġconf isc
ĠM ix
Ġen rolled
Ġto ggle
intend ent
Ġrespond s
Ġfig uring
s ens
Ġk et
Ġsp am
Ġtort ured
I ES
Ġm asters
ĠPat rol
ĠInd y
x on
Ġmot ive
Ġhelicop ters
Ġback ward
Ġd uck
Ġfit ted
ĠCole man
ĠJ os
Ġanaly tics
Ġc ater
Th us
Ġcat aly
Ġware house
h all
Ġterrit orial
us k
ĠGu ild
rig er
ĠGl en
Ġexplos ives
Ġint ro
Ġco h
Ġobs ession
ĠM our
ĠIndust rial
ĠArab s
ĠVirt ual
Ġan them
Ġse as
amer a
ie ves
step s
s ic
Ġun ified
ĠBur ke
ĠN am
ĠL av
Ġcontro llers
Ġpopul ist
Ġun b
Ġlog ging
ig el
Ġhur ricane
g one
Ġself ish
sh ine
L ine
uss ions
Ġens ures
Ġun equ
ĠN RA
f amily
Ġsum s
Ġeru pted
ĠN um
iet al
r ina
os c
Ġcry st
ĠQu arter
ind ust
E s
Ġp ills
Ġmain land
B ox
G C
Sh ould
Ġconcent rate
Ġth y
nd ra
ĠApp ro
Ġprivile ged
ĠD ad
Ġ ..
ĠTreat y
ĠApp eals
Ġcol ours
ĠD at
Ġsad ly
Ġpsychiat ric
Ġintern ally
ĠLl oyd
ct ed
h it
it ational
ĠW alsh
Ġsand wich
Ġemphas ize
Ġm es
igg ins
Ġlog ged
e i
du llah
Ġsurf aced
Ġprosecut ed
k ov
other apy
Ġide als
AT H
Ġfeed s
are a
ĠR ab
re lla
Ġdistingu ished
ĠO mar
AM Y
ĠW ag
Ġmin ors
mit t
ĠD iet
en es
ĠM t
ĠDra ke
ĠP ul
Ġdes irable
Ġs atur
Ġsoph omore
Ġwel coming
Ġreact ed
Ġdef er
ĠGo ing
Ġo wed
Ġan ecd
D isc
Ġstret ched
Ġsymp athetic
ĠKn ights
T L
sec ret
Ġprot agonist
S un
conf ig
et z
ĠL anc
ĠF ocus
ĠIn g
ĠT PP
Ġselect ing
Ġpartners hips
man y
Col or
Ġincomp et
ar ious
Ġcast le
Sub scribe
ib al
Ġtraject ory
ĠL opez
ins ki
Ġrev ision
Ġen rich
You ng
L ove
Ġval ley
ĠF u
ĠV ersion
Ġconf ined
ut ral
Ġflood ed
ĠP and
Ġo ceans
Ġc el
ĠCro at
ĠSh o
Ġdefin itions
Ġconstit utes
ĠE L
Ġcorrect ed
ĠN aval
Ġpl ots
Ġunder cover
ĠJ agu
ĠSim ply
Ġat roc
Ġgreet ed
Off icials
Ġmos qu
Ġto pp
Ġweek ends
Ä į
Ġpool s
Ġcal culation
Ġhome owners
oc used
Ġcorrid or
). <|
ĠInd igenous
ant a
Ġcons oles
ĠPel osi
v id
ump s
O p
if le
ĠC e
Ġinform al
Ġsens ation
Ġhack er
200 5
ĠD ale
ĠWe instein
Ġ19 00
Add ed
7 50
at tering
ĠOff icial
Ġfin ed
ĠHe ights
ĠCirc le
Ġprov oc
ĠRoberts on
Ġcompl ications
Ġmach inery
commun ications
Ġprop osing
ract ed
Ġvend or
Ġcur iosity
Oct ober
pe ace
ĠH alo
Ġprocess ors
oint ed
ĠCon cer
R ub
Ġup rising
16 0
ĠH od
Ġmag net
Ġjump s
Ġpropri etary
Ġconced ed
Ġd ice
Ġbuck et
Ġsh irts
Ġcool er
ĠE sc
Ġcan on
F ixed
ĠAdvent ure
ĠRe b
ĠN y
com mon
We b
Å ¡
Ġhom eland
ĠGreg ory
Ġgau ge
Ġhar ness
Ġass ure
ĠW end
ĠOr d
Ġbe e
Ġnick name
ĠGu ant
In s
year s
if a
Ġstere otypes
os oph
Ġcell ular
Ġqu eries
ĠL anguage
ook ie
Ġall ocated
Ġvar ieties
Ġcompe lled
ourge ois
B erry
r ill
Ġpl ural
Ġh ills
s uper
ut ic
ĠSt ay
Ġfair ness
Ġg ru
Ġpedest rian
f its
Ġcont ests
yl on
Ġball oon
Ġla wn
ĠMar ines
ĠSt ream
ĠC inem
Ġdeb ated
ĠEm ma
ne ys
ĠN early
ĠSol id
Ġprompt ly
ind uced
Ġl od
im er
ĠW A
Ġreck less
ĠNS W
Ġpres cribed
ĠSC P
Th ink
Ġsex y
ĠPost ed
ĠC AN
Ġsl am
ĠC ensus
ri um
Ġten ants
Ġcompr ised
Ġsuff ers
Ġdelic ate
Ġpur ported
bu ilt
ĠB ot
Ġunlaw ful
p olitical
ĠR idge
Ġcommand ers
re a
Ġo ct
Ġwas hed
n is
ĠCon n
ĠMcC l
U G
Ġcho oses
Ġarm ies
Ġobst acle
Ġvar ies
Ġsing ular
Ġemb od
ela ide
aze era
ĠM aterial
Ġrecru its
Ġcompet itions
Ġliber ation
ĠDub ai
ĠV el
Ġub iqu
o qu
ĠM az
Ġexem pl
ĠM ak
ĠAlz heimer
Ġfemin ists
Ġsuccess es
Ġcolor ful
S ix
Ġc ried
Ġconnect s
ĠInn ov
Ġvis ibility
de ep
Ġcolon ies
Ġha w
âĢĿ ),
. (
ant on
Cl oud
Ġprest igious
ĠU T
ĠSch umer
ĠThe resa
ĠCh a
in v
ĠT at
stan bul
q l
hol m
Ġafter ward
Ġdebut ed
ĠBapt ist
hed ral
Ġcomment ators
set t
Ġbroadcast ing
g mail
ot ine
ĠR BI
S al
Ġstrateg ist
do ors
Ġtrans mitted
Ġsk ate
ĠH ood
Res earchers
is ite
ĠS HA
Ġmax im
osp here
Ġsen iors
Ġstun ned
Ġgl oves
Ġproject ion
Ġ} ,
ĠS ak
Ġairpl ane
Ġpit chers
Ġvoc als
Ġparad ox
C ON
g em
Ġb acon
rist ol
ĠTrans it
Ġcl oth
Ġmis dem
Ġhold er
S aturday
b ps
be cca
Ġsystem ic
Ġambul ance
Ġparadig m
ĠChampionship s
ĠFal con
Ġout reach
Ġmax imize
Ġeleg ant
Ġp ixel
ract ion
ans on
Ġsyn c
Ġcr ises
c ision
m and
Ġmil estone
Ġbless ing
ĠC el
AR Y
Ġnot ifications
ĠEth iop
ĠC li
Ġment or
Ġsm ok
Ġexclus ion
ĠD uterte
Ġmaneu ver
Ġfin ishes
Ġhum ili
f ood
ĠN FC
Ġmethod ology
Ġcr ush
Ġmor ally
af ort
With in
Ġyell ing
respons ible
Ġhasht ag
Ġperce ive
ustain able
ĠE M
ĠPolit ico
M arc
Ġgri ev
Ġbrut ality
Ġtime ly
Ġstory telling
Ġimpro ves
ĠLib yan
Î ±
Ġignor ant
Ġpot atoes
me ga
Ġbrows ers
ĠF ine
Al ong
Ġdest inations
Ġacceler ate
Ġunpredict able
|> "
Ġweigh ing
Ġfool ish
Ġrom ance
ĠF ortunately
se at
cr acy
Ġbarg ain
ĠImp act
Ġhost age
in ian
it ches
Ġl ining
Ġsw orn
Ġconsider ations
ĠB rent
Ġe Bay
c ue
Ġhe ck
aw i
M ass
ĠBou levard
Ġprem ises
ĠE arl
ĠOr acle
Ġco vert
Ġball istic
Ġstruct ured
m ajor
ov ak
Ġburg l
Q U
w ald
ĠB ever
M ORE
ĠBlu etooth
op ath
Ġvulner abilities
Ġphr ases
Ġpreval ence
uff s
Ġneighbour s
ĠWin ston
Ġl ament
ĠLear ning
ĠHar bor
aun ting
iv ia
Ġinfer ior
s um
Ġinterrupt ed
Ġunsuccess ful
Ġrel ates
Ġdown ward
Ġgar lic
Ġincon ven
W ant
ĠK ell
Ġinsure rs
ĠC ele
U TC
In c
ĠAlf red
Ġlo vers
Ġprivile ges
ĠT ol
Ġrenown ed
l at
ri ad
Ġimp ly
ĠL amb
iff e
ĠAven gers
Ġtoler ate
ĠT roy
Ġmin us
Ġel imination
he res
ri ents
asp berry
ar ak
Ġk its
C BS
ĠC able
Ġdiscuss es
Ġteach ings
Ġchampionship s
it ives
al iation
St op
Ġout law
ĠAut om
Ġ" [
Ġdiscover ing
a ic
is i
Ġbund le
or p
vert ising
ĠCharg ers
Ġunw anted
Ġgrad uation
st ud
V C
Ġgr an
ĠA verage
L og
ĠBe gin
Ġexceed ed
Ġtw isted
Ġembarrass ed
ine ment
ĠX P
ĠGOOD MAN
C ent
Ġmar ched
IT E
Ġg odd
ĠBro ck
Ġexc av
n ull
ĠF ear
Ġwrong doing
Ġmeth ane
Ġappropri ately
Ġbr acket
ric anes
ĠMor rison
t ag
Ġper secution
Ġnomine es
ick er
Th ings
Ġappet ite
ĠPri x
ĠL ag
ĠM aps
ĠGonz alez
Ġa kin
ĠM oto
ĠT i
Ġr ust
T T
Ġl end
IC O
ic ans
R P
Ġav iation
Ġvac ant
ĠGlas gow
Ġst ew
ĠF ighter
ĠReyn olds
uk a
ĠSpr int
ĠTh om
Ġ10 80
Ġuniform s
Ġl ur
ĠU pper
r ab
Ġworks hop
! ).
re ra
Ġmer ger
" [
b ird
ĠT weet
id av
R un
Ġspecific s
Ġresist ant
Ġbed s
Ġrecogn izing
Ġsol ic
red ited
Sep tember
Ġaccept s
ĠI van
ld a
Ġright ly
Ġvol can
Ġb ore
Republic an
Ġartif acts
Ġpl asma
ĠSer b
R edd
ĠW ake
O k
ĠN as
Ġcle arer
Ġ1 11
Ġgun man
Ġthr one
ĠThe ater
Ġenjoy able
Ġcorner back
d et
Ġdesp air
ang led
Ġshut tle
âĢĿ ;
ĠSt age
Ġdis respect
Ġfuel ed
ĠLGBT Q
Ġan nex
Ġid iot
Ġthought ful
ĠKn icks
ĠL iqu
Ġoff ences
B ob
ish a
Ġded ication
Ñ ĩ
Ġentire ty
Ġcul min
ĠM ets
Ġextrem ism
Ġs ore
Ġver se
ownt own
Ġnotice able
ĠTurn bull
Ġmis ogyn
Ġrep ay
ou x
Ġthe sis
ĠT E
Ġingred ient
Ġre per
Ġtyp ing
com fort
ĠJ upiter
Ġbl aming
Ġperform ers
ĠE rik
Ġdetail ing
Ġtun nels
Ġric hest
ĠD ana
Ġcon ceived
Ġloc ks
Ġex otic
Ġcondition ing
im en
Ġpip es
ĠIns urance
at ivity
ĠScient ology
ĠH app
ĠEd inburgh
che m
Ġtw ent
ĠAd vis
ĠLeg ends
load ed
Ġmet adata
Ġprohib it
Ġste alth
Ġadop ting
d id
Ġadvoc ating
J ul
oci ated
Ġinflu x
ĠL ux
ĠPar ad
Ġpr ag
ĠFre eman
re view
Ġsens es
ĠTrans port
Ġexem pt
em ption
ĠN ode
ĠL ogan
Ġdiam ond
at ism
Ġfr acking
Ġdis abilities
Ġc ows
ĠDec l
ev al
Ġcritic ize
f ax
Ġp ap
ĠK on
Ġacknowled ges
Ġg rit
Ġband width
ex cept
gu ided
Ġkn ocking
Ġbar red
Ġrecogn izes
Pro ject
Ġwar rior
Ġref eree
Ġexem ption
Ġwip ed
c ur
ĠÂ «
Ġg ad
ĠP le
with out
is se
Ġt il
Ġout field
Ġnum er
udd enly
Ġsur g
Ġun just
Ġhead set
ĠH ab
ĠJ eb
Ġfur ious
Ġmer its
C ourt
Ġprejud ice
vas ive
Ġstory line
ĠP OL
ĠBas ically
ĠD h
ĠN L
Ġalt itude
ĠRep orts
ĠFR OM
ĠB uc
ĠU g
ol ith
red dit
Ġinst itute
Ġexped ition
nder ing
Ġillust ration
ocaly pse
Ġa u
Republic ans
ion age
ĠFil ip
m ut
Ġseason al
an ity
Ġdis asters
Ġround ed
Ġmer cy
ic ularly
Ġl over
Ġtr aces
ard on
G P
ĠB io
Ġmar athon
Ġdisplay ing
ish ment
A ut
it an
Ġcoc onut
Jo in
sh irts
O per
Ġan at
b ard
Ġrest art
ar us
ĠL ith
Ġp ave
ĠEmb assy
o ids
Ġun a
ĠM ik
N or
ĠI CE
Ġatt ain
Ġinaug ural
Ġaggreg ate
H op
Ġf ren
Ġman kind
Ġdet r
ra f
ĠPer l
Ġfor fe
th ouse
ram id
Ġwarr ants
Ġsm arter
ci pl
Ġre dd
Ġaccommod ation
ĠSadd am
isp here
in yl
p arent
Ġp ixels
Ġv ivid
ad os
Ġw ary
Ġer ad
ĠStart ing
ĠFif th
Ġdiet ary
ĠA RE
ĠB uch
Ġposition ing
ic able
Ġmot ives
F ar
int o
ĠF a
Ġsing les
ĠElect ronic
Ġbl essed
b led
g rowing
Ġprolong ed
ĠR ange
Ġsett lers
achel or
ag ne
Ġc raz
ĠI gn
ĠL P
Ġgr in
ĠSat urn
Ġpreval ent
ĠMill enn
Ġgl uc
ĠR hod
ĠSpe aking
Get ting
Ġinaccur ate
Ġcar pet
Ġreb oot
ĠAud io
Ġunst able
Al most
Ġcomb ines
Ġmir acle
Ġab st
ĠSN P
Ġpun ct
) -
ry s
Ġcap ita
Ġcert ification
ĠHait i
Ä ±
Ġprogram mers
Ġt apped
Ġbom ber
ĠCont act
Ġenthusi asts
ĠDev il
ĠPC s
Ġcr ust
200 4
atin um
Ġf ist
work ers
ĠSU V
Ġindu ced
Ġst ems
ĠD ash
14 0
Ġpaper work
Ġfreedom s
Ġsl og
Ġinfringe ment
B ern
Ġdefe ating
ĠS ales
A round
Ġgr ind
ĠPr adesh
ĠSch midt
Ġcritic isms
Ġdil ig
Ġcoordin ate
ian i
Ġlisten ers
Ġsne ak
__ _
Ġupd ating
spe aking
Ġl ag
Ġoccup y
ĠEver ton
Ġreb uilding
Ġrig orous
viol ent
az er
Ġunf amiliar
Ġlength s
D an
re v
Ġsanct uary
Ġbenef ited
com plete
] ]
p aper
Pac ific
ch anging
ĠMoh amed
E p
Ġme ga
Ġcor tex
Ġ> >>
Ġprogram mes
ĠW izards
ĠWH O
al ion
Ġh over
Ġport al
n ings
Cong ress
Ġc ite
ĠC aval
Ġ19 44
ĠBas ic
in el
ĠR uth
ĠR ift
D am
Ġbureau cracy
Th omas
ĠSing le
Ġstatist ically
D aniel
port ing
Ġhost ility
Ġst unt
ĠSe oul
V ery
ĠC ork
Ġ20 30
rest rial
ĠPers ian
ĠR are
Ġhous ed
p ark
Ġsymp ath
Ġpred ators
ĠAng els
ĠT ap
Ġru ined
Ġorche st
ĠV o
Ġvir uses
f light
Ġillust rates
ic ates
ĠA A
ĠSt o
Ġins ider
L ead
Ġsuper visor
ĠRoll ing
IN T
Ġter ribly
Ġantibiot ics
\ /
Ġuns afe
ĠPrinc eton
Ġthere after
Ġrequest ing
op hers
he ed
ĠE N
Ġheav ier
Fr iday
Ġst yl
Ġv est
Ġter rific
Ġintrodu ces
ĠBurn s
Ġobject ion
sequ ently
Ġun m
ĠAub urn
ĠV ince
ĠStar bucks
Ġfat igue
ĠJul ia
ĠGit Hub
Ġreferen ced
ĠH orse
ĠE isen
Ġden ounced
Ġphilos opher
Ġvol atile
ĠFrank en
Ġprost itution
! âĢĻ
l ived
ĠTim othy
Ġcrack ed
Ġforb idden
Ġj ournals
ched el
Ġcoun cill
Ġdet on
ĠNot re
Ġcon qu
ixt y
c ot
Ġpers pectives
H and
Ġd y
An n
Ġsimpl icity
U RE
ab we
Ġmult ip
it as
ĠO kay
rat ives
ren ched
Ġconcess ions
f act
AN S
ĠRich ards
Nob ody
ĠT ournament
ĠRom ania
Ġ11 5
Ġacqu iring
ĠProgress ive
ra ve
c in
Ġbro ker
k ara
Ġident ifies
US E
M ult
ess ors
ish ops
Ġd ilem
Ġsh ade
L ive
P T
an ed
Ġoff ended
ĠSu z
ĠScient ists
ĠCitiz en
ĠS tern
Ġchar itable
imb abwe
ĠLind a
Ġar che
ĠPartners hip
Phot os
Ġend ured
For ce
ing ham
Ġinterrog ation
C rit
b usiness
Ġrec laim
Ġaff idav
ĠMor oc
ĠLe Bron
Ġph osph
Ġche ating
Ġs perm
Ġborrow ed
Ġhealth ier
Ġsubmar ine
Ġreg ain
ĠM iles
âĢ ²
li ber
ĠL ed
ĠK ob
F ind
Ġrecept or
or o
Ex per
ĠO ri
Ġsch izophren
Ġj ungle
Ġaccess ories
ĠN J
Ġtr action
Ġbig ot
Ġintention al
Ġton nes
Be yond
Add itionally
ĠP ist
Ġsuper b
Ġrecomm ends
Pr int
i u
ĠSpace X
Ġdef ect
Ġdiplom acy
ĠChe v
ĠPoke mon
Ġwh it
place ment
as se
lic t
Bel ow
ĠAust rian
ĠAb dullah
p al
ĠS ame
ĠI stanbul
ĠG L
C amp
c ig
Ġth a
Ġrestrict ion
Ġsh red
c ourse
act ed
so ver
Ġanaly zing
ĠC oc
Ġshe lls
M ex
Ġvis as
Ġunch anged
keep ers
ĠMurd och
br and
Ġl aps
Ġterr ified
Ġskept icism
B B
Ġas c
ograph ics
Ġabsor bed
Rec ently
Ġmin eral
Ġsoc io
Ġindic ators
Ġins ulin
ĠOw en
ist ical
Ġcy l
i ov
ĠCl are
Ġcirc ular
Ġfright ening
ĠSher man
G I
Ġfav ors
ĠExper ience
Ġmir rors
ĠDay ton
Ġpsych ologist
af ia
Ġg le
ĠE ST
Sh ow
OU T
fund ing
Ġde er
Ġref riger
Ġback yard
ĠL iter
ount ain
v ity
ĠJul ie
Ġnational s
ĠVictor ian
" ]
ĠSe bast
Ġrec ons
Ġph ases
ĠLet ter
Ġf usion
Ġunder going
or ie
Ġch ill
Ġso ap
p atch
ĠG y
b ial
Ġb ourgeois
> </
ĠAl ways
ĠKum ar
p c
D ev
ĠSask at
im ag
ĠC ad
et c
Ġclean er
Ġhorm one
est ine
ight y
ĠU nd
Ġbet ting
gg ie
Ġtack ling
w ere
Ġv intage
ĠCourt esy
Ġexclud e
ĠN ice
Ġref ined
ĠP os
Ġfilm maker
Ġimper ative
Ġback drop
Ġsub po
Ġdetect ives
Ġdevast ated
Ġgoal keeper
ĠJ ill
og s
Ġ17 0
Ġemail ed
Ġdo i
Ġcell phone
ĠHy per
Ġund is
ĠBet a
ĠTill erson
ters on
ĠPerson al
Ġtour ing
Ġb ast
Ġv ine
Ġfree zing
ĠC raft
h n
ĠMe yer
ipp le
ress es
ond o
Ġtro op
Ġbron ze
Ġn ortheast
Ġbeaut ifully
Ġlower ing
ĠSim mons
on so
Ġpe cul
Ġn avy
Ġsquee ze
Ġsh aping
Ġcap ac
Ġalleg ation
Ġcourt room
ĠCore y
Ġ( .
Ġunus ually
ĠC ities
Ġcommunic ating
Ġ19 41
Ġhand c
Ġret aliation
ĠPl ant
cast ing
et ed
Ġend uring
F in
Ġinterf aces
ink le
Ġmark er
ĠBr is
Ġstr ains
% ).
oy s
Ġ} );
Ġadvoc ated
Ġcontam ination
ĠM ig
Ġinv iting
spons ored
ĠIns pect
g ie
Ġpal m
ign ment
Ġproud ly
Ġp and
pl ates
Ġpos ing
Ġce ment
in qu
ĠAnn ual
om ical
ins ky
Im agine
ill es
Ġhy ster
Ġannounce ments
Ġint ric
Ġ24 0
itness es
Ġ Ù
Ġbal ancing
Ġbrand ed
Ġundert aken
ins pired
Ġhapp ier
Ġinf ants
Ġmodel ing
oles ter
ĠC lear
Ġrival ry
ĠN ak
Ġ- --
ern ame
Ġa rose
Ġs oda
D en
ĠR ugby
Ġaut op
ĠD ani
Ġfact o
Ġhard core
Ġrest ing
Ġdepend ence
Ġl aughter
Ġenter prises
o an
Ġpredict ing
s ided
ind a
Ġswit ches
Ġarch ives
E lect
Ġsc aling
Ġsn apped
Ġun real
ĠH i
Ġgovern ors
oss ibly
Ġstretch ing
Ġtake over
ot ers
ĠIS IL
Ġdeter mines
ĠE instein
Ġconfir ming
ĠEvery body
us ers
av in
Ġcooper ative
ĠON E
ĠDO J
Ġexp on
ĠFried man
ĠD ot
sh ould
ĠEl ite
Ġdevelop s
Ġmerchand ise
ĠHaw ks
Ġimp air
Mc C
Ġpl at
Ġwa ist
ĠMap le
ng th
ĠVal ve
Ġagree ing
Ġreiter ated
ed in
pr im
Ġp ulse
Ġcritic izing
Ġbroadc aster
it us
ĠO t
Ġattract ing
Ġappar atus
ĠSp art
Ġf ost
Ġbe ard
ick y
Ġrespons ive
ĠA V
Brit ish
Ġposs essed
ĠL ay
Ġanticip ate
Ġ19 47
M el
Ġey eb
bal ance
Ġd od
19 90
Ġrev ival
ĠB urg
Ġtravel ers
Ġmet als
Ġstar red
Ġst ellar
ire ction
Ġpot ato
Ġdom ains
Ġp ine
ick ers
Ġwas hing
ĠR abb
Ġengine ered
Ġar senal
ĠH ogan
ie u
gu ards
H y
Ġl av
ĠCo ver
Ġcore s
Ġshort s
Ġobser ving
ĠGil bert
ĠSc ore
Ġspecial ists
Ġcompens ate
Ġele ven
Ġaut umn
av ior
ax ies
Ġep it
mod ern
Ġre ef
Ġcha otic
N OT
Ġst ip
Ġt ant
anc ers
am el
Ġinnov ations
Ġpe an
Ġur gency
ĠUs ers
ĠV ision
gg er
ount y
Ġdece ased
Ġ ì
Ġseiz ure
squ are
ĠNY PD
Ġreg imes
Ġburn s
Ġgall ons
We ek
ĠMan afort
Ġs idelines
Ġill icit
ĠMa o
ĠUlt imately
Ġkidn apped
Ġje ans
Wind ows
ĠBrend an
Ġpri zes
Ġhypot hes
ĠC atherine
Ġradio active
ĠâĨ Ĵ
cent er
Ġdepend ency
ĠPro duction
Ġnodd ed
O O
m g
h l
ent e
ster dam
Ġconcept ion
ump ing
Ġnegative ly
C T
ĠCelt ics
Ġlog in
Ġdump ed
Ġdistract ion
Redd it
Ġfl ame
ĠHay es
Ġvis ually
Ġvisit or
if ted
Ġdeleg ate
Ġd well
Ġprogram mer
Ġec ological
R ock
w ave
y ers
amm ad
ĠH erman
P ict
Ġh orn
Ġend ure
Ġwar riors
Ġbl ows
Ġbull shit
Ġb ilateral
Ġauthent ication
Ġvan illa
ĠH arm
Ġcontract ed
Ġpen al
er k
T urn
Ġvolunt arily
Ġw ipe
Ġinst ability
AN K
ort ium
Other s
Ġwar mer
ia o
ĠCom ment
ĠC ards
Ġsever ity
ĠSim ple
mo il
ĠR apt
S W
ĠSh ane
Ġgood ness
ĠWalk ing
ĠPan ama
Add itional
Ġopio id
ĠGr ad
Ġunbeliev able
ices ter
Ġcontam inated
Ġstret ches
Ġdub ious
ar ium
Ġcapt ures
Ġselect ive
Ġrep airs
rec ord
ed u
Ġscreens hot
ĠRou te
bl ue
Ġcateg or
ĠMerc ury
ĠVe h
Ġastronaut s
ĠCent ers
ien cies
N ovember
Ġclear ance
ĠDet ails
ĠPen insula
Ġlone ly
Ġst al
Ġj ealous
Ġrad ically
Ġpen cil
fol k
Ġpour ing
Ġs ights
let te
ĠR iley
duct ed
P rodu
we ather
ĠSp icer
b uster
Ġcontent ious
Ġcr unch
Ġ& &
Ġacc use
ĠT W
Ġtheir s
verse ly
Ġth wart
ĠLeg acy
et itive
ĠB ristol
Ġro de
Ġside walk
he e
Ġhun ter
ur st
Ġcost ing
bl ood
Ġreact ors
Ġshut ting
Ġf og
Ġsubsid iary
u ador
pl aced
Ġdem ise
ĠHon or
Ġm arsh
ev ent
oster one
ĠBah rain
E ric
Ġrob otic
Ġexplos ions
Ġdig its
J S
ĠW u
Ġfre ak
Ġdisadvant age
ĠVi enna
Up on
Ġ ï¿½
Ġsell er
Ġcook ie
Ġru ins
ĠH ernandez
20 18
Ġd iving
Ġcompet ent
ĠGr ass
More over
Ġprop he
Ġsurpr ises
ĠCraw ford
C ode
abl ished
p arents
Ġrelent less
Ġempir ical
Ġpath way
av an
ĠCris is
c led
Ġineff ective
st atic
Ġr im
Ġreminis cent
Ġins erted
Ġpal ace
ĠEmir ates
200 1
Pl an
ĠBren nan
Ġtransl ates
Ġth under
Ġque er
Ġb isexual
P ay
Ã ª
Ġatt achment
Ġaw aken
Am azon
H i
or ian
Ġv om
Ġmetaph or
Ġthe rape
Ġinto x
ĠReg ardless
Ġto e
Ġtw ins
ĠWeb b
ry pt
Ġassess ments
ĠBru ins
er m
ĠG ross
ĠJ azz
Ġr anged
ĠFr ame
health y
ĠLe o
Ġd ull
land er
Ġdirect ive
ĠP E
Ġher b
Ġo live
ff iti
ple asant
ans ing
Ġviol ates
ĠRe play
ĠPl aza
Ġshel ters
Ġs ack
ĠBr anch
Ġobser ver
Ġf ra
Ġpres ervation
ĠAP Is
Ġh ollow
Ġre he
ĠSu ccess
Ġlau nd
ĠInvest igation
Ġrig id
Ġpr inter
ĠC rist
! '
Ġchar ities
K evin
W il
ĠP ain
Ġdepend encies
Ġwithd rew
ĠCry pt
ĠT B
Ġle aking
Ġneed le
Ġpo pped
OL L
Ġmod ifications
ĠP TS
ĠF lickr
Ch ief
ett ings
Ġdownload s
Ġposs essions
Ġbomb ings
Ġacceler ated
Ġb end
ĠFood s
Ġrem ed
Ġple as
H as
Ġle mon
,âĢĻ âĢĻ
abul ary
ay an
ott esville
le ys
Ġa ven
Ġm asks
Ġmerch ants
Ġchar m
Ġcost umes
Ġ195 9
Ġrese mble
ĠAndre a
ĠAd elaide
Ġâ ī
ĠInvest ment
De cember
Bit coin
Ġredu nd
Ġex terior
ven ant
Ġlaugh s
Ġdo omed
John son
Ġpo inter
Ġappoint ments
Ġs rc
Ġfeas ible
Ġown ing
all ah
200 3
Ġup held
Ġpres erving
Ġbr ig
B esides
ore st
sp an
K en
Ġnot ices
Ġret ros
Ġout dated
Ġren amed
Ġprim itive
Ġmicro phone
ĠG ir
in ters
Ġ10 2
elect ed
Ch inese
ĠSch ultz
Ġtrain er
Ġreward ing
P o
Ġp ensions
Ġall ocation
ĠT M
Ġsp ouse
Ġtr aced
D O
Ġn urt
ĠS hip
Ġprosec ute
S B
l ings
ĠResp ons
P ublished
ĠRock ets
ac s
Ġembr acing
ĠKush ner
ĠS end
Ġv andal
Ġathe ists
Ġshoot s
t z
\ -
Ad am
ĠPir ates
any on
H uman
ĠD L
ident ally
Ġacceler ation
ĠB A
ĠCon way
IS A
Ġpar an
ĠT aking
ĠS kin
en berg
Ġcont end
ĠC opy
ĠJud iciary
Ġdiscont in
s il
Ġha iled
K im
ĠE gg
Ġpig s
Ġcont ributes
Res p
Ġall ied
ĠÃ ®
Ġdict ator
ĠL ance
ĠPro du
Ġinspect or
Y ear
Ġte asp
Ġcongress man
Ġiron ic
Ġjuven ile
Ġenroll ment
Ġmer ge
Ġ18 00
Ġnegoti ation
it em
ĠS aw
ill on
Ġtoss ed
ĠTro phy
Ġt ally
Ġmechan ic
Ġat oms
,âĢĻ âĢĿ
um i
ĠExpl orer
rah im
Ġmod ification
ĠDam age
Ġp ier
Ġin ad
ĠR S
ĠF act
Ġrepl icate
Ġcop ied
Ġl b
Ġr apper
ĠNe g
12 3
ĠDev ils
Le ague
ĠConserv ation
ĠS ah
ĠAr row
Ġoper a
ant ry
Ġcrypt o
Ġveget able
Ġfest ivals
m ass
m ult
J ones
Ã ¸
Ġdwar f
ĠD ell
ĠProf essional
ĠBeh ind
ĠS oph
ĠF M
Ġl ou
Ġal lev
Ġmamm als
ĠJed i
ĠBl izzard
be h
Ġhun ters
s rc
OW N
Ġextract ed
Ġforecast s
Ġfert ility
B Y
ĠSpe cifically
as is
Ġle aning
Ġuns ure
Ġup wards
ĠChe ney
ĠSter ling
Ġhop eless
Ġwithd rawn
Ġres olutions
Ġaccess ing
ĠGe off
Ġdis se
oun ge
Ġper tain
ĠB un
Ġout spoken
w ic
ĠZ ucker
ĠObserv atory
Ġch uck
R ay
Ġsal ad
ĠDis covery
at ured
Ġgif ted
Ġde af
Ġs om
ĠAct ive
Ġt outed
Ġre jo
omed ay
Ġtur moil
w ife
Ġy east
Ġ10 4
Ġdoub les
ĠFl ag
Ġcos mic
Ġr uth
Ġd un
Ġdisappear ance
ĠM ead
Ġg aze
Ġsmooth ly
Ġspir al
Ġdiscover ies
Bet ween
Ġe man
ĠK iss
Ġoccur rence
Ġv inyl
ĠTw enty
isc her
Ġaster oid
m atch
iv able
Ġv ault
Ġt am
in ational
ĠMan uel
Ġstim ulation
t ier
ĠNational s
h ops
Ġshr ink
S ave
Ġnar ratives
Ġfore front
sec ure
Ġalleg ing
Ġairst rikes
c ified
ĠD LC
ĠD uty
Ġcan cell
ĠR F
Ġiter ation
18 0
ĠUs ually
Ġoffs pring
f alls
Ġimm ort
S ar
S omething
aw ays
Dem ocrats
Ġsex ist
Ġmyth s
own s
ile aks
Ġmilit ias
Ġneuro log
ĠH ond
Ġmy riad
Ġna ive
larg est
) ?
Ġm s
Ġfr amed
w en
Ġâ Ķ
T ech
ro ot
Ġv apor
OR Y
H ard
Ar ch
op ed
Ġrad ius
Ġexch anged
Ġdimin ished
Ġanticip ation
ĠQual ity
F inal
( $
ĠE lementary
ĠKurd istan
Ġinter val
I ll
Ġr ansom
ĠAd obe
Ġadequ ately
ĠRec ently
ĠMe et
ĠMon ica
Ġtrig gers
Ġcompat ibility
r h
le aning
t imes
Ġjud ging
ĠZimmer man
B uild
c ould
ĠTh an
Ġadoles c
Ġstamp s
Ġacknowled ging
ĠCle arly
a ft
in vest
m ails
Ġw ires
Ġpod ium
Ġext rad
ĠWhats App
Ġche ek
ret urn
Ġcelebr ations
v ideo
Ġpret ending
Ġnarrow ly
E ver
ĠMount ains
Ġch amp
Ġper ceptions
Ġrad i
Semit ism
ate l
ĠB irth
B P
ob ject
ĠSouth west
10 5
J ew
f ight
Ġcr ashing
ĠCom edy
f ired
Ġ 000
Ġhe ft
os er
Ġcur se
Ġplace bo
ĠMir ror
ĠT rent
ĠC ord
ĠZ imbabwe
K it
p i
Ġground ed
Ġintr ins
C raft
ĠSim ilar
Ġvalid ity
Ġdecentral ized
Ġmark ers
Ġhypot hetical
Val ue
Ġcollabor ative
ĠBeat les
Ġemploy s
Ġsustain ability
Ġdec ay
Ġind oor
over ty
Ġrecy cling
Islam ic
Ġo lig
Ġ19 39
Ġelev ator
Ġap ost
ĠSky pe
ĠEx cept
ĠB oss
l ins
ĠA be
Ġbit coins
ĠKenn eth
Ġcreep y
Ġun armed
Ġvolt age
is ure
Ġdepth s
Ġind o
Ġspe cially
ĠTr ain
Ġclean ed
Through out
I AL
ĠT L
W R
Ġperfect ion
ĠBeng als
Ġsuper vision
Supp ort
^ {
Ġcomp ares
ĠTr ack
Ġbol ster
k owski
Ġsle pt
ĠCamb od
ĠR ew
part isan
Ġho ax
ĠAl ger
Ġleft ist
Ġfore nsic
Ġretrie ve
S und
ĠEv olution
ĠVol ume
ĠMons anto
ĠJ et
ĠAli en
Ġdisg usting
f alse
Ġb idding
Ġvers atile
V ict
ĠZ oo
Ġpredict s
ĠJo in
ĠLeban ese
iss an
Ġsuccess ion
. ;
ĠJ SON
Ġun ite
Ult imately
V e
ĠG rowth
Ġm ast
Ġstreng thening
Ġash amed
ustom ed
Ġperpet rators
Ġcan s
ĠP ars
ors i
ĠÐ ¸
Ġnorth west
Ġoverl ap
ĠO val
ĠMem ory
or f
Ġgovern ed
Ġnight club
ĠG ul
Ġdom ination
Ġnut rients
Ġh alls
our ing
Ġpart ition
Ġrel iance
Ġdefe ats
ĠScient ific
ĠCurt is
Ġrefres hing
st atus
Ġr ack
Ġregul ator
AC A
Ġsuper st
ĠCom ing
Ġrep s
Ġtop s
Ġblast ed
ĠK em
Ġdis charge
Ġ2 20
Ġresearch ing
Ġmeaning less
Ġsign aling
Ġgrant ing
Ġtang ible
Ġcl o
Ġhonest y
ĠA part
ĠB ert
ĠFl oyd
ĠCh oice
ĠTer rit
Ġlun ar
ĠBuzz Feed
.. .<|
Ġexp ired
Ġlo oming
Ġ4 50
Ġcorrespond ence
Ġe ject
Ġde ported
Ġer r
Ġevac uated
Ġsc andals
Ġfut ures
ors che
Ġconstitu ency
List en
he id
pro ject
Ġextract ion
L ou
Ġjust ices
Ġconcept ual
bor o
ĠBeng al
ĠN an
Ġdecl ines
ĠB orn
Ġrele vance
Ġst ing
ĠC ros
Ġpo orest
Ġg it
Ġramp ant
read ing
ĠBudd ha
ĠEx xon
Ġrelie ved
Ġlivest ock
ĠL ud
ĠAn cient
C redit
d oes
an ol
be fore
ĠJackson ville
A BC
Ġbe aches
ĠBald win
Ġe cc
ĠUp dated
Ġaccum ulated
he ard
ĠCh arter
ĠN ike
Ġcruel ty
ĠN est
ĠHel en
ucc i
Ġto dd
Ġembarrass ment
Ġresemb les
Ġwe ights
ess a
Sub ject
ĠK in
Ġjudge ment
Ġeval uating
Ġre print
Ġmem br
Ġsusp end
Ġso ber
Jan uary
ĠB T
ĠSh ot
Ġdism ant
W ow
ĠCoff ee
Ġfrequ encies
ĠRe ce
M aking
Ġstake holders
am ic
Ġk in
n c
Ġreal ization
ĠAny thing
ĠMid west
ĠSalv ador
ve red
Ġfalse ly
Ġsect arian
Ġw anna
ush i
ĠE lder
Ġf rog
ĠMy ster
Ġfirm ware
ari at
Ġindirect ly
d oc
Ġpr ince
ok a
F rench
is ans
ĠF resh
Ġdistract ed
Ġhook ed
Ġsp ine
Pr ime
Ġid ol
Ġunder went
ĠAbb as
Ġturn over
ĠÂ ·
En ter
Ġun cover
W in
Ġreinfor ced
Ġsex ism
Yes terday
Ġac ids
AT A
Ġsell ers
Ġnom inations
whe el
b ands
c ro
ĠRes ults
ass is
Ġdivor ced
reg or
Ġbi ography
Ġtax ation
Ġbom bers
els en
Ġout raged
Ġsound ing
Ġmiss es
Ġd os
Ġcan vas
Ġdest abil
c ulture
ĠEv ents
Ġstuff ed
J osh
Ġdr ums
ĠPer fect
Ġparent al
ot on
ĠCan ucks
ĠC ertainly
Ġfilm makers
N ick
ĠLe ad
Ġsuper market
st y
Ġsh iny
Ġbr ass
L ittle
Ġillness es
ul atory
ĠBris bane
ĠT ier
Ġbur ial
L ess
Ġs ung
ĠF ans
ĠIS Ps
ĠB TC
oust ic
ĠB ass
ĠD ucks
P rior
ĠCan on
Ġgoal t
ĠCr us
met ry
Ġdiplom at
En large
Ġstat istic
Scient ists
ac a
Ġg room
Ġsur geon
b ag
Ġj oked
h agen
ĠJ ur
ĠViol ence
ĠIr ving
Top ics
ĠPlan ning
ĠTechn ologies
Ġlapt ops
Ġsuscept ible
ĠB og
Ġcomp uls
Ġair lines
G H
r ance
Ġgl oss
IS S
Further more
Ġmel ting
ĠAR M
secut ors
Ġutil ized
Ġanal ogy
Ġtr ilogy
Ġm ant
Ġst acked
Ġex ile
Ġgl ow
rict ed
Ġwholes ale
ĠKind le
Ġindef initely
Ġfundra iser
Se ason
Ġoverth row
ĠCharl ottesville
,' "
Ġfraud ulent
dog s
ĠD S
Ġpop e
ush ima
Ġcomment ator
Ġbelie vers
ent ric
ĠV P
Ġgl orious
Ġinter ceptions
Ġs outheast
Ġmiser able
Ġbu ys
Ġreconst ruction
Ġt apes
ĠAnd ers
Ġoff ender
t v
ĠDar ren
ud s
be e
ĠUlt ra
ĠCh in
ĠF ernand
Ġyell ed
ĠG ri
ĠIll ust
import ant
id able
Ġj ugg
Ġst oring
Ġpro claim
Un iversity
g age
ĠJ azeera
ob ic
Ġf aint
Ġkidn apping
Ġrec urring
ĠInd ividual
W estern
w s
ac ial
f ill
D ig
Ġdisp ers
mark ed
Ġir rational
lud es
ĠDes ert
vention al
Ġ195 8
Ġobs ess
Ġsh arks
qu arter
count ry
Ġheight ened
Ġcho pped
Ġthe ology
ĠLa unch
g ae
Ġunique ly
Ġsurround ings
Ġvalid ation
Ġfrag ments
ĠJohn s
ĠRh ode
Ġhe ights
st ru
Ġ19 42
cre ate
Ġh ats
the med
ĠB ened
Ġcur tain
pl aces
are ndra
Ġmit igate
ĠK oh
Th ird
Ġshr inking
s cient
Ġs ang
ul ed
ĠB le
ĠPan el
Ġreg ression
ĠC anyon
ĠE asy
ĠHe ath
ring ton
Ġinqu iries
ĠRhod es
Ġdest ined
Ġweaken ed
Ġe ch
ĠAd mir
Ġwith hold
Ġun pleasant
Ġelig ibility
it ating
right s
Ġur ine
Ġremark ed
ĠGen esis
Feb ruary
H R
ĠBar rett
Ġgal axies
Ġprop onents
Ġlike wise
Ġmilit ar
Le vel
Ġhon ors
Ġcr acks
Ġsuper natural
Ġded uct
Ġcatast rophe
c am
ĠC E
ĠN ate
Ġcont enders
ĠCustom s
ĠBlack Berry
ĠP v
ĠB row
t urn
em a
Ġoper atives
qual ified
C ustom
ĠM illion
ĠB il
Ġp ent
Ġchar ism
Ġrev olt
em ade
Ġintermedi ate
Ġovert urned
Ġcom r
Ġdesign ation
lant ic
Ġ195 6
F OR
f rac
Ġg y
ett i
art en
ĠO L
ĠM int
ol ia
Ġpl ague
Ġgr abbing
F ederal
Ġsurviv or
Ġpund its
ĠF REE
ĠAm sterdam
Ġspat ial
ĠF X
arr ison
Ġhint ed
Ġphotograp hed
Ġret ention
ĠIn qu
Ġdis like
Ġcouncil s
ĠH ag
Ġcease fire
c oll
Ġmad ness
Ġende av
ir teen
ĠTre vor
Ġlif elong
âĢ¦ ]
ĠS ig
od s
board ing
Ġworth while
ĠLike wise
Ġto mb
ĠK ot
per ing
Ġcrus hing
Ġsc oop
a unch
Ġsc outing
Ġclos et
Ġpun ched
ĠWy oming
200 2
ĠEconom y
c ross
ig ators
ĠYOU R
n umber
en ment
Ġsl ap
L in
ĠAr s
Ġconver ting
Ġb ounds
ĠBre aking
Ġch ambers
Ġauthor ization
ĠBay ern
ĠC oy
ĠSchne ider
um bs
ĠAdd itional
ĠBl ade
ĠPart icip
re z
uff er
Ġl bs
ĠCl iff
w ire
Ġdiscipl inary
ĠCon c
ĠDav ies
Ġhero ic
Ġab normal
Ġrehab ilitation
ĠM oy
L ee
ĠÂ §
lin er
ĠH ugh
ĠL il
ĠEc uador
- $
ĠS V
pir acy
c ity
ĠRe becca
Cons ider
Ġsh am
Ġpo orer
Ġdraw ings
olester ol
ĠT ah
Ġ10 3
Ġcompos er
Ġfair y
Ġ\ (
Ġunp aid
Ġdisagree ment
ĠBer ry
ĠTest ament
ex per
Ġlaw maker
Ġprepar ations
te chn
Ġun authorized
ĠGall up
Ġz oo
Ġhel pless
Ġpedest rians
V ol
a verage
ĠW id
ĠAng ular
ĠQuest ion
st ad
ĠG iant
ex pl
ĠRest aur
ĠProtest ant
Ġtub es
Ġheter osexual
Ġconting ent
A ri
Ġrum or
art z
ĠThrough out
ĠV ers
Ġon set
d in
ĠFort une
ĠR ating
Ġwor s
Ġad vertisements
ĠSh ia
Ġfranch ises
Ġreb ound
Ġver ification
Ġeffic acy
st ill
ĠProv ince
Ġmar vel
ĠW orth
ĠD owntown
Ġby te
ern ick
Ġan th
ot he
Ġlung s
Ġfore see
Ġspl ash
C ard
ĠW er
ump ed
Ġmin erals
sm all
ĠDian e
Ġco erc
ĠP ierce
ĠJack ie
ĠN ortheast
Ġspec ulate
Ġreconc iliation
Ġre op
ĠSaf e
Ġch lor
ĠIntern al
ĠP rest
Ġreject ing
ĠMy ers
Ġtelev ised
c ule
Ġt enth
Ġw inger
ul ators
pl er
Ġdifferent ial
ĠPir ate
Ġabund ant
Ġs aga
em y
ĠCh i
ific ent
qu et
Ch icago
Ġgluc ose
B rian
t arians
ĠD iff
P E
Ġinstall ment
Ġrecept ors
C y
Ġfall out
Ġchance llor
Ġt in
ba um
Ġaspir ations
Ġsu ing
ph oto
ĠAm anda
ĠIm port
Ġex h
M ur
Ġforg ive
ris y
it ures
Ġinfant ry
ĠM ate
B rad
Ġ195 4
D eb
ic idal
ĠC er
ĠRep ly
Ġprint s
ol ation
ott est
Ġdi agram
ĠHass an
Ġcl one
Ġzomb ies
Ġg ays
ra red
Ġcomp ilation
Ġcoll ar
ĠM oses
ĠN ear
d ue
Ġsm ashed
S orry
Ġdraft ing
l ain
h ig
O ld
s afe
Ġland sc
osp ace
Ġedit ions
Ġsouth west
G roup
ĠS hen
C ould
Ġdismiss al
ĠNep al
ĠD ance
omet ric
Ġmanip ulated
PD F
Ġsab ot
ood y
L ondon
Ġimag in
Ġapp les
Ġexc uses
Ġroll er
P O
em er
Ġtel escope
R ather
Ġmer ged
Mart in
D ue
Ġalign ment
ĠHug o
Ġst umbled
ĠStand ing
Ġsm oked
Ġb unk
Ġblu eprint
ĠPrem ium
Ġco herent
Ġtor rent
Ġorganiz er
ĠT ag
Ġres h
Ġanarch ist
o it
ĠF ell
Ġsupp ression
f ocused
ĠWar rior
Ġcock tail
al ong
Ġd ots
umn i
ĠP ep
Ġv oy
c od
v able
" );
ĠD B
stand ard
Ġch orus
ĠV ita
Ġsuper star
Ġplay ground
Ġstri ve
Ġcirc ulated
ĠMe ga
Ġprotest ed
Ġdisag reed
Ġprem ie
Ġse gregation
ĠO g
Ġcraft ing
Ġcontin uation
ĠD iaz
ÑĤ Ð¾
ĠLyn n
Ġs omeday
Ġstaff er
Ġsqu at
ave z
On line
ĠGu inea
Ġaccus ation
Ġsuprem acy
Ġb iblical
Ġplag ued
Ġinstruct or
ĠP ine
ĠAt las
ĠOs borne
ĠH aven
Ġmortg ages
Ġunanim ously
Donald Trump
Ġcountry side
Ġkid ney
Ġaffidav it
ass ed
Ġaccomplish ments
ĠColon el
ĠF argo
ĠBur ton
Ġm esh
Ġd ess
id ate
Ġdis able
Ġro gue
Ġdest iny
Ġunders c
kins on
ĠMot ion
ĠKit chen
Ġumb rella
Ġpersu aded
Ġ10 6
Ġfant as
Ġreprodu ction
ĠLink edIn
Ġc ort
icult ural
Israel i
Ġ Ã©
ĠL akes
ĠYork er
Ġtele com
educ ated
ĠT as
ĠW it
Ġgl uten
Ġdr astic
Ġf ade
tr ade
Ġprohib its
Ġw olves
iv o
Ġbad ge
F oot
D ist
R om
Ġstap le
Ġdictators hip
Ġpro claimed
ĠCom plex
Ġpecul iar
Ġcl usters
Ġmess y
Cre ate
Ġunl ocked
he avy
Prof essor
il ib
ĠG ur
Ġintimid ation
N early
ĠRe venue
Ġ} ;
ĠG em
Ġind icted
l ate
ĠR ol
ĠJud a
Ġrational e
eff icient
Ġbrows ing
c irc
ĠH uck
Ġsc out
ĠV as
ĠCoun sel
e g
re ne
ĠLi u
d eter
Ġmult inational
Ġpol ite
Ġre imb
ĠW ine
ĠPl atform
wart z
Ġubiqu itous
m ove
Ġm int
Ġl akes
Ġback pack
Ġswift ly
Ġost ens
j ah
ĠIndust ries
im ation
Ġfreel ance
ĠS R
Ġtherape utic
ĠE R
ĠH amb
ĠT IME
Ġener get
M a
c ano
ĠRef uge
Ġsh attered
Ġlear ns
iv ism
Ġinnoc ence
rel igious
bel ief
g io
ĠJ ak
Ġmaj ors
Ġmon arch
Ġ-- >
ĠRock y
person al
ĠG addafi
ub a
Ġcommod ities
Ġb ark
Ġm aid
ĠB ast
= '
Ġcross es
J UST
Ġl ith
Ġcomp ression
Ġhead phones
ĠN PC
Ġinteract ing
ĠR SS
h ash
ĠN OW
b ons
Ġp anc
Ġprogress ives
ĠA WS
Ġmarch ing
ĠEug ene
10 2
Ġdial og
ĠL az
Ġg ospel
Calif ornia
ĠAv iv
com b
Ġscan ning
O pp
Ġ ion
ĠQu ant
ĠIs is
ĠCl aire
D i
H am
ĠC AP
ĠP RE
Ġest e
Ġprop oses
Ġp uls
ĠMan ufact
Ġb un
ĠMan it
ĠMour inho
J es
ed ience
Ġhe x
ĠComp anies
Ġl ob
Ġtr aps
Ġadvert isers
Pr ice
ot le
ol iberal
ĠArmen ian
Ġdisreg ard
ang ular
Ġt sun
ĠRel igious
ĠH our
bour g
Ġ195 7
Ġbr ace
de ath
pher d
NAS A
ĠO C
ĠR ise
Ġcar ved
Ġresist ed
Ġcler k
ĠLuck ily
Ġrep ression
Ġund en
Ġaccident al
ĠInter view
ĠKore ans
Ġfr inge
Ġkill ers
Ġric her
Ġdownload ing
G ov
Ġacc ustomed
Ġant it
Austral ia
ĠP ra
Ġadjust ing
Ġneg lected
ĠLe h
!! !!
ĠNew man
ĠCON T
Ġsk ies
ĠOff icials
Ġsett ling
ĠW on
à ¥
if ax
ĠN arendra
Ġdecor ated
Ġw ax
Ġl iable
Every body
ĠEuro pa
Ġadvert ised
Ġl enders
Ġbe lly
Ġopp oses
c f
ĠP am
Ġco hes
Ġ19 17
ĠDem s
Ġw aking
Ġang el
Ġmisdem eanor
Ġreprodu ce
Ġweigh s
Ġne oc
lling ton
ĠW ave
Ġc ros
Ġst alled
ĠM ist
Ġthank ful
Author ities
Ġox id
enz ie
reat ment
In side
Ġpoison ing
11 5
f iction
Ġemer ges
rat t
affe ine
ak is
Ġgovernment al
in as
ĠH av
ĠFe el
Ġdoub ling
ĠSerb ia
Ġant agon
ĠIS O
ET A
ĠS ugar
io let
cho ice
r ine
u ilt
Ġrem ake
ĠRap ids
Ġmight y
Ġd ock
Ġpar ole
Ġearn est
A cc
ĠPer iod
ablish ment
Ġsub missions
ĠPun j
Ġshoot ers
she et
th y
real DonaldTrump
Ġdilem ma
s or
Ġexist ential
Ġspons orship
Ġstation ed
ĠV ern
ĠOut side
ĠStr ategy
od ore
og ene
Ġunt o
Ġthank ed
Ġsol itary
ur ations
ĠNob le
Ã Ĥ
ĠHung arian
pro duction
E nt
ĠF ri
J ournal
Ġy e
12 8
Ġschedul es
ĠAmeric as
ĠE ston
Ġst air
ĠN W
Ġcertific ates
en za
Ġsp ider
hen ko
Ġver ge
Ġharm ony
Ġbrew eries
ĠB oot
ĠGu jar
ĠLab s
W ater
B at
Ġpir acy
ve ment
N umber
are l
ĠPer u
Ġg el
ĠSt ark
Ġ7 50
Ġrepl ies
ĠBor is
Eng lish
Ġst igma
Ù Ĩ
ĠRe y
ĠA zer
ger ald
Ġpsy chedel
ĠW ald
ĠWag ner
ci um
Ġveget arian
r anking
ĠF ury
Ġgard ens
yr us
G ET
gener al
ĠR unning
A ud
Ġy a
Ġsurg ical
ast ics
Ġwild erness
Ġgar nered
ĠI F
Ġanim ations
ĠAng lo
Ġscreens hots
ĠOrig inally
ĠFreder ick
ub s
Ġarchitect ural
o il
te enth
ari us
r ice
Ġcl utch
Ġcyn ical
ĠPR O
Ġ195 3
ĠSt yle
a qu
id ad
Ġwas ting
ĠR ising
Qu ery
// //
Ġl akh
Ġ19 55
Ġdown side
ĠLe icester
or ously
Ġ< <
Ġl id
Ġcollect or
ĠS orry
Ġsent iments
coh olic
Ġdin osaurs
Ġlog istics
ĠB ag
Ġrem edy
us ra
C ore
Ġcomment ing
Ġf ried
Ġcrack ing
Ġa ka
Ġo mn
Ġinject ed
p ensive
Ġs or
Ġm ansion
ĠFle et
Ġpolicy makers
Ġn as
ĠSh awn
f ashion
ace y
ĠA FC
um en
Ġrest ruct
ĠG E
4 50
Ġenfor cing
Ġimp art
ĠWat ers
ĠMarx ist
Ġge ographic
be y
Ġmyth ology
old own
Ġign ores
10 4
Ġsystem atically
F ort
Ġproc ure
Ġacclaim ed
ĠLeg ion
Ġexagger ated
f aced
the ir
ĠConst itutional
ĠKat ie
Ġsc ans
Ġconcer ts
oc hem
Ġblog gers
gr and
spe cial
Ġd amp
Ġform idable
ĠC W
Ġv ow
art icle
Ġchar ming
Ġgoal ie
ĠCons ult
Ġcongest ion
Ġt iles
Ġm um
ĠHe ather
Ġp ads
ĠC ert
ĠSyri ans
Ġpath ways
Ġunanim ous
ag netic
Ġdepict ing
J ose
ĠLen in
Ġcl oses
Start ing
ĠV ir
Ġshort ages
Ġtrans plant
ĠÂ Ĺ
ĠCom bat
Ġref resh
ĠL ar
ĠIn come
Ġdiv isive
udd y
Ġdem ocrat
ĠHam mond
Ġloud ly
ĠV ic
ĠRes earchers
ĠM aid
Ġir regular
Ġseiz ures
d ies
ĠCong o
ĠLaure n
Ġam ple
Ġret iring
I B
Any way
Mem bers
Ġaggrav ated
ĠHans en
Ġindu ce
ĠHig her
Ġeven ly
ĠAp ache
t ar
Ġth riving
ĠNe igh
f acebook
ĠZ omb
Ġspecific ations
Ġarchitect s
Ġenvelop e
anger ous
Ġtweet ing
Ġske let
Ġconce al
ĠL SU
ott i
Ġcann on
Ġse ated
ĠCongress man
Sec ret
h ou
Ġbrand ing
Ġs ized
Ġmass ively
Con nor
ĠRay mond
ĠAn kara
h h
product ive
ĠWrit ing
st ro
ed a
ic us
Ġover c
Ġdr ills
ĠK ub
ON D
cript ions
Ġsupp lier
Ġmedic ines
Ġa rom
he rence
ĠO UT
ĠD ocker
Ġserv ant
Sund ay
Ġar ises
Ġimp ending
Ġfire works
ĠAn s
Ġann ot
gl ass
Ġ( #
Ġbur ger
Ġp ac
ĠFor ward
ĠOff icers
Ġsoc ietal
at ri
ab ase
Ġref rain
ĠD NS
wh y
ĠSav age
Ġpat rons
Ġincap able
ĠHe in
al ine
ab ee
Ġinc arn
Ġbu cks
Ġmerch ant
enc ia
Ġplum met
oh yd
ill as
T em
Ġwhere by
ruct ions
me aning
Ġdeep est
Ġsw all
Ġcounsel ing
Ġjurisd ictions
ĠAndrew s
sole te
ĠF eed
Ġcompan ions
ĠL anka
B ur
ĠâĢ ķ
in th
Ġexplo its
Ġreg istry
De ath
Ġn g
im an
ad ic
Ġper imeter
ĠV ote
Ġc it
ĠP owers
ĠRC MP
Ġf al
Ġevac uation
Ġcl an
Go vern
R on
Ġ19 43
Ġun identified
Ġdesc ended
ĠInspect or
ĠS it
ĠSh ut
Â Ĺ
IL E
ĠRE AD
Ġiniti ate
Ġp act
ĠL enn
Ġcommun al
ĠSy nd
Ġbr akes
Ġspect acle
Ġtum or
Ġproport ions
Ġch unks
pr us
ĠZe lda
ĠGard ner
Ġun in
Ġrun time
ĠP orsche
Ġaver ages
I r
ĠBuddh ism
ĠBra ves
ĠB rief
ĠProduct ions
ist ence
un ion
ord e
ik ed
AC H
I tem
ĠL TE
ĠÐ ¾
Ġfor ged
Ġrent ed
Ġreserv ations
Ġrenew al
ĠMin ority
C ast
ĠRe ich
St r
ĠCor nell
ep ernick
C BC
ĠM T
Ġwho pping
ĠRoy als
ĠC ous
ĠVict ory
Ġde gr
ĠF ighting
Ġbod ily
ig ger
Ġund o
ih il
ĠT ool
Ne ill
Ġfasc ist
Ġd itch
ĠM ale
orm an
Ġgrad ual
w ild
Ġrul ers
Ġpredec essors
Ġatroc ities
ĠP resent
Ġflood s
Ġs ir
is man
I ron
ĠEll en
ĠWheel er
Ġhe mp
Le ft
ĠVen us
F und
b ishop
Ġm ans
Ġtruth s
Ġspeed ing
ĠRel ated
Ġal ley
ĠRe ality
ĠJoy ce
Ġrem n
W all
Ġt apping
Ġaw ake
z an
Ġmed d
ĠCard inal
ĠS ans
ĠS onic
Ġhal ted
Ġstr ongh
IN D
d ependent
Ġ19 49
Ġnit rogen
ĠMed al
Ġchick ens
11 1
priv ate
l ia
Ġne p
Ġca fe
10 3
Ġcirc ulating
ĠG ent
com pet
Ġtransform ing
Ġ10 8
ĠRes istance
y ll
ody nam
Ġpo pping
Ġsw ear
Ġb ree
Ġgrab s
Ġv ou
open hagen
Ġanten na
ĠRock et
ĠMah m
F un
Ne ither
Ġculp rit
ĠT umblr
Ch arl
Ġrespect ful
Ġaffili ation
Ġall erg
Ġgest ures
Ä Ł
Ġstub born
ĠWe ight
Ġprolifer ation
y et
ĠM AR
Ġsuccess ive
ĠR i
ĠI o
Ġlim bs
Ġir responsible
f ires
Ġopp ressed
Ġstri ps
ĠE manuel
cl ose
l n
ov y
Ġplay able
Ġlast s
Ġst all
ĠEn joy
Ġlim itation
Semit ic
ur istic
Ġpup ils
Ġinad vert
ĠC ultural
ĠM TV
Ġmem e
Ġc ough
Ġtri angle
Ġphotograp hers
Ġdi ets
J ason
Ġhigh s
Ġon ion
ass er
ĠSant os
Ġplanet ary
Ġgrat itude
Ġexpend iture
ĠP u
ĠSuper ior
ĠT ay
Ġeleph ants
Ġrest oring
Ġinter ception
ĠA ce
ĠCelt ic
ong o
ef ined
Ġel bow
Ġsens ory
Ġdem ons
h un
Ġ10 7
Ġpseud o
edd y
Ġmicro bi
Ġsad ness
Ġincorrect ly
.âĢĿ )
Ġbre asts
f ig
ĠAl ban
Ġsafe guard
Ġlau ndering
ĠBel fast
ĠSex ual
Ġf ier
Ġphil anthrop
W al
t arget
ĠRel igion
ĠP ip
ĠS leep
ĠSm ash
Ġpiv otal
p resent
Ġhit ter
Ġ ï
Ġcomfort ably
ĠE cho
Ġundergrad uate
Ġsur real
ex isting
ĠJo an
Ġr ude
Ġsl ope
Ġ11 2
S u
ĠPh ase
Ġalleg iance
l ass
Ġprofound ly
ĠD ifferent
m ia
ĠP O
ĠKu wait
Ġdisrupt ive
sc ill
AN G
p rop
Ġmon key
Ġsl ate
U r
ĠNe o
Ġrev ive
Ġdepart ed
t ical
z ip
S ad
Ġfor c
Ġcommer cially
Ġmut ations
ĠElect oral
Ġun official
Ġsp ur
Ġgener als
ĠB om
ĠD re
ĠCharl eston
ĠMar athon
just ed
L ight
Ġsimpl est
se ys
ĠS ikh
Ġper former
. /
Ġmut ation
Ġimpe achment
Ġs ins
Ġrob bed
Ġgood bye
ill ions
com merce
Ġwork load
Ġdecre ases
ep tion
Reg ardless
s ince
Ġp oker
Ġmed als
Ġdisc ern
ĠGar rett
ĠN iet
Ġauthent icity
Ġmemo ir
Ġbud dy
Ġvill ains
ub arak
Ġdr ift
Ġharass ed
Ġinc ub
M ond
Ġexcept ionally
L ocation
ort heastern
Ġsu cks
Ġsl iding
ĠTechn ical
D F
Ġh ug
ĠRep orter
Ġess ays
ĠR aspberry
N P
Pro v
im o
ĠIndones ian
m oon
r ue
Ġassess ing
ic ular
as io
Ġinflamm ation
) [
P an
ĠJ ail
Ġrem oves
ĠW enger
com mittee
Intern ational
Ġspec ulated
Ġge ek
Ġc ove
ri o
ĠD uck
ru gged
ĠMoh ammad
any e
Ġnep hew
Ġd op
ĠSt ur
Ġresp ir
Ġcontinu ity
Ġinter vals
Ġdisc rep
ĠCom put
ĠJuda ism
B er
ĠM Y
Ġpharm ac
osh op
ĠT SA
ĠD EA
ĠSp ark
Ġhypoc risy
ĠFly ers
Ġcor related
Ġexecut ing
Ġske leton
inc re
M ary
ĠN olan
ĠPed ro
Ġem pt
Ġprovoc ative
d ain
re lease
Ġbl oom
ott a
Ġdis comfort
Ġsit uated
pict ured
Ġequ als
ĠList en
at ical
Ġtiss ues
Gl obal
ĠFro st
VID IA
iz a
ĠPod esta
Ġdec omp
Ġcampaign ed
ĠFl ore
ĠPop ular
og ram
Ġ19 46
Ġprep ares
ĠTH C
ĠCamer a
op ia
ĠGree ks
Ġtest osterone
gu y
Ġpuzz les
Serv ice
Ġl ure
ass ing
Ġinj unction
B usiness
ĠMe chan
ĠExt ra
ĠMarket ing
ĠG ut
g ithub
Pl ayer
Ġsynt hes
Ġconf essed
Can adian
Tr ue
Ġsh ining
Ġrain fall
ld on
Ġgra ffiti
Ġcoll usion
Ġworld view
Ġgr ains
Ġboard ing
iss ue
IS IS
ĠMed ium
ĠK re
Ġinv asive
Ġsy rup
ĠApp lication
ĠNot ice
Ġinv aded
Ġper t
ĠD HS
Ġun aff
Ġse af
ĠG olf
ĠDur ant
et r
ik ers
B T
Ġinc idence
Ġspec s
ĠT ucker
Ġrail road
ar is
threat ening
Ġbigot ry
Ġb aff
ĠNic ole
ĠC aucus
Ġdev ote
Ġe lic
W ed
Ġcamp ing
ĠRevolution ary
ew orthy
Ġge op
ut ory
s kin
Ġprol ific
S ky
Con nect
r t
Ġt abs
Ġnot ions
act ly
Ġam en
Ġtoug hest
Ġtheoret ically
Ġo z
ĠBrad ford
it ant
au f
Ġ/ *
E st
Ġn ud
Ġz ip
r itional
ĠArch ives
Ġqu ir
gress ive
l ove
Ġtot als
Ġfil ib
Ġdict ate
asket ball
ĠHar old
ver ts
ĠLe eds
Ġmis ery
ĠPre p
H en
ĠPatri ot
en ame
Ġre play
ĠS aid
os lav
ĠG ET
ĠEth ics
c reat
ĠChrist ine
Ġx en
Ex p
ĠStrateg ic
Step hen
at ra
ĠR ole
ĠAm nesty
IC S
ĠBl ocked
ĠCar p
b order
ĠTh ing
Ġvill agers
ĠCal vin
Ġschizophren ia
ang a
Ġrul er
Ġk ings
Ġpair ing
ĠP retty
Ġtempor al
char acter
Ġper il
Ġincarcer ation
Ġst ain
ĠFe atures
Ġpro w
ĠRec ent
Ġbra ke
utter stock
Ġtend encies
P ER
Ġsm iles
Ġins iders
Ġwh ip
Ġconflic ting
Ġpref ers
Ġnew born
ĠA id
ĠSe vent
Ġpreced ing
Ġhall uc
Ġst d
D ark
u ously
Ġspecial ty
Ġinex pensive
ĠLie utenant
D D
its u
ĠF en
ĠSh ore
ĠCol bert
Never theless
ran ch
Ġem ission
cent ric
IN K
ĠPeters burg
ĠChurch ill
ĠE z
auc as
ĠP oor
idel ity
ĠFull er
t aking
ĠSebast ian
ĠTe en
h awks
ĠP av
W ait
ĠU E
Ġmail ing
ĠZh ang
ĠAv ailable
Ġgr ammar
Ġinstall ations
Ġur ges
Ġb aked
ĠS ize
Ġpl ight
Ġsal mon
but ton
Ġneighbour ing
b ai
ĠF actory
Ġscore r
Ex pl
Ġ) :
Ġand roid
ĠBut ter
v on
ĠP ale
Ġapp end
r aining
Ġgig antic
Ġvoc abulary
ĠJ S
Ġcoun ters
Ġaccum ulation
Ġcl ay
Ġsim ulations
Ġdevelopment al
ĠM R
Ġex pelled
ĠHe b
hib ition
Ġbo il
hard t
Ġrestrict ive
ous se
ĠC OU
Ġsm ash
Ġguess ing
Go ing
l ich
st ant
ĠD uc
Will iams
Ġunivers ally
Ã± o
Ġpack ing
Ġout we
Ġsur rog
ĠDrag ons
ron ics
Ġyear ly
Ġrot ating
ĠV oy
Ġpl ac
Ġexpl ores
Ġspecific ation
Ġche at
ĠD y
ĠGu ate
OS S
ĠBill board
Ġlect ures
ĠBul gar
ĠL ac
st re
Ġadmin ister
ĠDis play
k top
ich i
Ġlaw ful
Ġo v
Ġr app
C ru
Ġc emetery
Ġl ocking
Ġremember ing
Ġc ues
ĠG amer
Ġlif es
ĠGro ve
Ġcelebr ates
Ġjihad ists
M ic
sp ot
Ġpass er
ĠMult i
Ġritual s
oh an
sw er
Ġgl am
ĠMel issa
ĠN R
Ġexpl ode
ĠP itt
tt a
Ġdefense man
ĠJoh ann
Ġimper fect
Ġd ictionary
r ath
ir ling
Ġ2 30
ĠFuk ushima
Ġs ou
Ġappl ause
Ġexp ire
Sen ator
Ġperson a
Ġcommun ism
ĠAud i
Ġpil gr
w on
Ġh ates
ct ica
ĠL B
Ġam azed
d uty
Ġcondemn ation
Ġat om
ĠGod s
Ġpolit ic
Ġcris p
ĠPhilipp ine
Ġcommercial s
Ã¡ s
Ġpractition ers
th ose
ĠBay lor
ĠWh ole
Ġbr ink
ĠSt am
Ġstr at
Ġf ox
OU ND
c ritical
ĠUA E
Ġal erted
ĠLes lie
Ġdisproportion ately
c ats
g ering
German y
Ġrat ios
ĠSh arks
Ġconfig ure
Ġsmugg ling
Ġgl owing
oot er
ĠPat terson
c ounter
ĠFitz gerald
ĠJ as
Ġpost ure
het ics
ĠMar ijuana
ĠMy an
Ġste er
Ġvacc ination
Ġa we
Ġsubsid y
ĠZion ist
P ath
Ġnow adays
ĠC ain
ĠD ocument
Ġinfect ious
n om
Ġh ottest
Ġinsult ing
li able
ĠWi Fi
che wan
Ġfo am
ch in
LA Y
Ġf ills
Ġconfig ured
Ġunder mining
ĠInf o
ĠIss ue
ĠLiber tarian
Ġdescend ants
ĠCu omo
Ġoil s
ĠEp ic
Ġsle w
ĠS ara
Sen ate
Ġco ached
M ont
Ġdist urbed
ĠLind sey
j ournal
ĠLic ense
et ics
l ang
ĠCh ang
ĠM ental
Ġhands ome
ĠStephan ie
ĠM AN
ĠLam ar
Ġch illing
Ġext inct
ext reme
Ġconstruct ive
cr ime
Ġther m
ĠG erald
ĠCh avez
S n
v s
Ġimp aired
Ġnic otine
17 0
Fr ance
Sim ilarly
Ġinsurg ents
ĠSol utions
Ġpatri ot
ĠSor os
nt on
c amera
Ġch olesterol
ap i
Ġmot ors
ĠSol omon
Ġdecre asing
ric ks
ĠNic olas
Ġdefin ite
Ġsal v
ĠShe ikh
Ġmush rooms
Ġ10 9
ĠW ash
Ġrestrain t
ĠOper a
ĠC openhagen
alk er
f ounded
ra its
Ġrum ored
ĠR ash
Ġfam ed
Ġtrans cend
Ġt ipped
rent ice
ĠMyan mar
ĠJ ab
Ġbub bles
Ġair ing
.âĢĻ âĢĻ
Ġm ocked
ĠT yson
ym es
Ġd ynasty
ĠH os
ĠZ ika
R ev
M ajor
ett es
Ġfort unes
Ġdiscrimin atory
Ġpro se
ĠKey stone
cap ital
3 60
Ġexpend itures
ĠP izza
man ned
ĠS ettings
iv or
ĠUnder ground
Will iam
! ),
K now
Ġprin cess
ĠOs ama
Ġhorm ones
Ġexhib ited
ĠTw ilight
ĠW AS
Ġtra umatic
n as
Ġout doors
is ch
T en
ĠW itch
od o
rend ered
Ġp etty
ĠCy prus
Go vernment
och ond
ĠResp onse
ĠW yn
Ġimp uls
Ġqu ar
oc ating
Ġrest s
not es
Ġcler gy
ro b
ĠV ander
Ġrecons ider
Ġconsult ed
ĠW ong
ĠCom ments
od us
rain e
Ġexperiment ing
ĠUn known
t xt
ĠS ke
ĠSS D
ĠValent ine
Â ½
Ġsand wic
ĠL un
Ġunre asonable
ĠStand ards
gl obal
ĠB ug
Ġ13 5
Ġmillenn ials
ĠV it
Ġinterpret ations
Ġle v
Ġfr iction
Ġcyber security
ĠC ed
ĠN om
ĠNAS CAR
T aking
Ġschedul ing
Ġmunicipal ities
Ġrent s
Ġplug ins
ĠH oney
ri ented
Ġins ign
g ard
ĠL L
ĠArt ist
Des ign
ign ant
Sec urity
Ġr av
ĠChap man
ĠBrig ade
ĠF ail
Ġcontrad iction
Ġinstinct s
ĠGujar at
Ġf aded
Ġpass ages
Ġgeomet ry
Ġpol ished
ĠK ur
Orig inally
m oney
ĠFranc o
com pl
Ġboost ing
UC K
Ġhome work
ket ch
uper t
Ġrevers al
Ġhist ories
ĠOb server
Ġdiscour age
Ġ195 2
a ude
ĠSt rat
Ġsl ash
Ġgrand parents
Ġconf ess
Pal est
ag ent
I Z
ĠL ords
ĠShort ly
Mus ic
iov ascular
Ġecosystem s
Ġjud iciary
Ġconc ussion
ĠÃ ¢
Ġmon uments
Ġemploy ing
Ġrun way
ĠSh ir
ĠOpp osition
Ġcher ry
Ġtr act
W E
m is
Ġdistribut ing
Ġcommem or
m aid
Ġt earing
ĠConst ruction
Ġkind ness
Ġouts iders
Ã± a
ĠAr ist
10 9
ĠPh arm
iv ities
ĠTe ams
Ġpart nered
Ġs ulf
C ost
ĠOrig in
vid ia
ms on
L oad
ĠHell o
Ù Ĭ
Ġp ins
ĠG C
ĠTr inity
en ary
ĠBe e
Ġuns pe
T it
f inals
Ġclar ified
Ġdisp atched
Ġdrag ging
Ġp ains
ĠA CA
ĠC oul
ĠX ia
Ġphenomen al
ĠBened ict
M R
ĠInnov ation
ĠAss ass
ij i
Ġesp ionage
am bo
Ġheavy weight
if ts
ĠJohn ston
ĠNon etheless
am oto
ĠRoc hester
Ġpe as
Ġra ided
Ġfront s
Ġgen res
Ġs acked
C arl
an amo
Ġcollect ors
ĠFred die
ĠPsych ology
ĠDog s
Ġstart ling
Ġrac ially
am my
es que
Ġtr unk
Ġmar itime
Ġfemin ine
ĠCy cling
Ġread ings
k ish
Ġjewel ry
ĠN issan
ĠV PN
Ġfin anced
ĠFr aser
Ġgun fire
Ġlong standing
Ġfulf illing
Ġinflamm atory
at hing
r anked
ber ries
25 6
ĠMig uel
ĠArch ive
our cing
Ġpres crib
19 99
av ier
ĠM alt
Com ment
Ġblat ant
ĠE VER
Ġsub set
medi ately
Ġobst ruction
Ġtsun ami
ĠCon nor
Ġsupp lements
Ġsort ed
ĠAs ked
ĠFront ier
ne eded
Ġregul ating
Ġstrengthen ed
Ġindic ations
Ġch ased
Ġl amp
ess im
Ġfulf illed
ĠC V
Ġoptim ized
Ġexcell ence
B ad
H E
Ġhe ars
Ġ1 19
Ġcompet ed
ĠSol o
Mat thew
Ġrab bit
ar ations
OL D
ĠY ug
ĠInterest ingly
def ault
ĠJac obs
Ġrock y
ĠUn block
f ed
Ġyouth s
Ġpestic ides
Ġcart oons
Ġin mate
ĠDecl aration
az ingly
Ġge ography
Ġethnic ity
all ic
ĠAst ros
IC A
Ġs inking
em on
W orks
h m
Ġun available
ĠCh icken
ĠFr ances
ĠEx pect
bro ken
IG N
te ms
Ġmand ated
el o
reg ulated
Ġpenet ration
pat rick
Ġkn ives
Ġh amm
ĠW ILL
ĠMon roe
Ġpump ing
Ġ15 00
Ġtrail ing
ĠAst ron
Ġsh ale
ĠR um
Ġgu iding
Ġparent ing
tle ment
Ġreal izes
ĠSh arp
ĠOtt oman
h on
Ġ19 33
uc ing
orn ings
ĠGold berg
Ġmanifest o
Ġmis represent
ĠArt icles
ĠM K
ĠP P
Ġr ighteous
h ma
ĠR id
Ġoun ce
ĠJav ascript
Ġs arc
ĠH ers
ĠTre nd
Ġoptim ization
T B
U t
re b
f ell
Ġdef ects
umb les
ĠHas kell
E conom
ĠMotor ola
Pri v
ĠB end
Ġfat ally
Ġinv oked
ĠIs n
ON G
q qa
Ġb ully
Orig inal
ĠStock holm
c orn
Ġf ixture
Ġbacter ial
l aughs
bo at
en h
Ġhand ler
Ġ25 6
ĠAv iation
ĠPay Pal
U B
Ġsp un
Ġconc urrent
Ġleg ends
Ġd wind
Ġgate way
ĠPre vious
i very
p ng
est ablished
man agement
Ġgrand children
Ġexplo iting
Ġeth ic
Ġs unk
Ġworks hops
ov able
Ġout going
ov sky
ĠAr ms
Pre vious
Ġopen ness
Ġslog ans
Ġm und
Ġframe works
Ġlabel ing
j ava
Ġad missions
oy a
Ġcontrac eption
sh ort
w omen
Ġstat ues
Ġceremon ies
Ġorganiz ational
ut sche
Ġproceed ing
Ġunexpected ly
J udge
ĠTor res
Ġarc ade
N ov
ĠK abul
Ġpar cel
ĠIb rahim
Ġfront ier
osoph y
ĠDe V
Ġt ac
ĠW rite
i ating
Ġhes itate
Ġw ishing
Ġb apt
ĠI PA
Ġch assis
Ġbl ues
ĠAny way
ĠCustom er
Ġbur nt
Ġunle ashed
Ġsplit ting
Ġm aternal
ĠG IF
ĠO dd
Ġplant ing
F ast
Ġch ord
Ġchall enger
Ġimpl ication
k ick
ĠJan et
Ġastron omers
Ġdeploy ing
ĠPubl ishing
p ires
ĠAfric ans
ĠSh annon
ĠL ok
mans hip
act ivity
ĠAll ied
R a
l ists
Ġc ant
ĠA AA
Ġob ese
cept ive
Ġcoh ort
Ġwor m
w agen
Ġen cl
Jew ish
c uts
Ġvib e
Ġoversee ing
us ually
ĠKir by
Ġexc luding
Ġvisual s
Ġabrupt ly
Ã ¯
ĠA W
Ġens l
Bre aking
ĠAthlet ic
ys ics
Ġpen insula
Ġpr aying
Ġyield ed
Ġsummon ed
ĠSch war
S ystem
Ġh iking
Ġtermin ation
Ġoblig ed
Ġf erry
Ġe ve
Ġfil ings
ĠMac ron
m t
ĠT ank
Ġbl ink
... ]
ing es
Ġad am
ĠSpot ify
n ick
Ġnot ify
Ġmotiv ations
Ġdecl ares
Ġsn ipp
E arth
ip al
ĠReg ist
Ġmod ular
ĠKa epernick
Ġmetab olic
M il
R B
z ero
Ġto re
ĠK ris
Ġwith stand
Ġnotor iously
Ġunder mined
ld om
ĠBar on
ĠBur ger
Ġhe ap
Ġpe aks
Ġfl ipped
ob il
Ġoverr ide
ĠNew ark
Ġdemol ition
C ase
ĠX in
Ġcon ve
ĠE ld
att led
Cle arly
ĠCom mercial
uck land
Ġwand ering
ĠWATCH ED
Ġsid eline
Ġmoist ure
Ġbe verage
Ġill umin
ï¿½ ï¿½
ĠPengu ins
ĠDo om
Ġcentral ized
ĠInt o
Ġp enny
Ġas semble
ĠG ren
her ty
iol a
Ġsil icon
Ġhold ings
Ġbl ur
Ġret ali
Ġdatas et
Ġf eder
Ġk idding
Ġob solete
udd le
ĠTown s
get own
ig ated
10 6
EM A
ĠMoz illa
ĠChar acter
Ġgener ators
Ġkey word
Ġbl onde
Ġprogress ed
vis ors
ĠDet ective
v ine
Ġper vasive
Ġdiss atisf
Ġenerget ic
C oll
E ast
Ġw izard
Ġmis guided
Ġspont aneous
Ġs lick
an an
ĠSec urities
ĠO T
ĠField s
att a
Ġproced ural
i ya
ĠO ption
go ogle
g all
Event ually
F lor
ent on
ĠC ec
ment ia
Ġbeh old
Ġphilos ophers
Ġtrig gering
Ġmic row
Ġstr anded
ĠG ru
Ġdisc arded
ĠPer th
Ġcancell ation
ĠM W
Ġgl ue
Ġb ids
AR S
ar ray
ĠHann ity
Ġ17 5
Ġretain ing
Ġsynt hesis
Ġsod ium
l ide
x imately
oss ip
Ġcar te
Ġun ins
Ġnarc iss
Ġbroadcast s
Ġlos ers
Ġcub ic
ĠF ry
Ġsoc ks
Ġrese ar
sh are
Ġhom emade
. *
ĠS ally
ĠAl bum
Ġsuper f
Ġarbit ration
ĠPTS D
St and
be ck
Ġtom atoes
ĠM ubarak
reg ulation
z illa
Ġsp rawling
ĠB ath
Ġrespect able
Ġvan ished
N F
ev il
Ġcos m
Ġor thodox
bet ween
Ġmat urity
ĠA ber
rac use
Ġev id
ĠMad uro
ĠV on
ĠHar b
To o
Oh io
Ġutil izing
S k
t im
ĠAl v
Ġdom est
Ġstress ful
aid a
ĠD raw
Ġtest ament
and ro
H appy
ĠPod cast
ĠL uk
is y
Ġaw ait
M rs
ĠN igel
Ġpione er
ĠS ark
ĠH B
Ġprev ailing
Ġa isle
Ġs igh
if ty
Ġescal ation
ĠAC T
Ġrespir atory
not hing
ĠLu cy
ĠAdvis ory
reat h
Ġcor ro
st own
Ġf uzz
Ġd urable
Ġ19 14
ĠAna heim
Ġbureaucrat ic
Ġl ord
ĠAur ora
Ġsmok ers
ĠGuant anamo
Ġle isure
og rams
Ġhigh ways
Ġreject s
Ġresist ing
Ġmet ropolitan
Ġre write
ĠV C
Ġvers a
ĠSte ele
ĠAN Y
c hens
ĠCre ated
St ream
ĠSw ord
Ġimag inary
ĠBoy d
ĠGreen e
ĠStat us
U MP
Ġstandard ized
Ġ195 1
l ated
Ġexp ands
Ġsat ir
ĠHor izon
ĠHoff man
11 2
Ġtro lls
Ġpack et
Ġsin ister
Pro t
ĠM Hz
Ġbi om
ĠAntar ctica
ĺ ħ
Ġstat utory
Ġab using
ALL Y
dig it
Ġassist ing
V ia
" ?
Ġse ating
L uc
Ġd ental
Ġblock ade
Ġass im
Ġcon quer
at ible
ic ially
Ġsqu ares
iv ist
ĠP ure
/ -
Ġvis ions
il ot
ows hip
ĠL I
ĠLaw s
Ġrestrict ing
P op
Ġlik ing
M O
Ġpir ates
d an
o i
ĠWe ber
Ġdem ographics
Ġlive lihood
ĠJoe y
Ġ iv
Ġ19 38
Ġrel iably
ĠH iro
Ġsc aled
13 5
e ur
Ġst ared
Ġad here
ack ers
ĠPhys ics
Ġpir ate
ĠS ina
Ġlaund ry
Ġjud gments
Ġchrom os
10 7
Ġinsist ence
he a
Ġsubst it
sm ith
Ġpromin ence
Ġbus h
acc ount
it ious
ĠRes cue
Ġth ieves
ĠSc out
Ġaut obi
Ġar rows
ĠSant orum
o os
Writ ten
Ġend urance
ĠAr ray
ĠRut gers
are th
Ġimp over
Ġce ased
rec ogn
onge vity
Ġne oliberal
Ġobject ed
Ġund ec
ĠKaz akh
S oon
Ġ[ âĢ¦]
Ġac oustic
ĠCom pl
Ġtheat rical
Ġsacrific es
D L
ĠSub ject
Ġincons ist
Ġde port
Ġmod s
ĠTon ight
c p
ir rel
f at
al most
ve illance
Ġconf ession
Ñģ ÑĤ
he ne
Ġfear ful
Ġpresum ed
ĠManit oba
ĠQuest ions
Ġa ided
ĠD as
ĠOpp ortun
Ġche ering
Ġmagn ificent
Ġdisrupt ed
ĠSch wartz
CL OSE
ocaly ptic
Ġbal ances
j ury
oc re
uck ing
Ġpun ches
E ff
j son
Ġde ception
ess ment
Th ursday
ron ting
Ġelect rons
t ree
ĠAl leg
Ġpump ed
Ġimpress ions
ilib rium
ĠH il
oc o
ud get
Ġalph abet
Ġc av
Ġteasp oon
ĠR andom
ĠElect ions
ÑĢ Ð°
Ġdiff ers
let ion
ĠWol ver
i ago
Ġcondem ning
is ine
Ġl ent
ĠD ew
Ġprov oked
raft ed
ĠFinn ish
ĠMar riage
Ġn ap
Ġarm ored
ĠZucker berg
Ġswing ing
ĠUg anda
ĠF ah
Ġrum ours
ĠL is
Mond ay
in av
Ġtem pted
â Ĺ
ĠF usion
ĠMon itor
Ġelev ation
ĠDani els
Ġth igh
ĠP ool
ĠH ang
Ġv or
Ġun for
Ġlab s
g it
Ġ11 4
Ġpossess es
Ġrehe ars
Ġconserv atism
oper ation
ĠF it
Ġtermin ated
ier i
Short ly
go ers
ĠSad ly
Ġhur ry
Com ments
ĠR iot
Sc roll
Ġtele communications
Ġrot ate
Ġjihad ist
s ch
aw k
ĠSc and
ĠWill ie
Ġconsult ants
ĠKn ox
ĠR NA
Ġ19 18
ĠÂ ĸ
Ġres umed
ĠCrit ics
ĠW ool
Ġun sett
ĠWik ileaks
ĠN er
Ġre written
Ġbet s
Ġing en
l aughter
Ġguess ed
Ġburd ens
l oss
ĠV II
fashion ed
D M
ĠT witch
ĠHist orical
Ġstim ulate
re ally
Ġ12 3
lu ent
Ġout ward
Ġcan cers
ĠSy racuse
Ġdownt urn
Ġoverse es
Ġbull pen
Ġsky rock
Ġunfair ly
ĠI X
uss y
Ġnostal gia
S ean
ĠHann ah
avor ite
: \
Ġcirc uits
Ġrou ter
Ġmim ic
e on
Ġcomp ute
Ġgrad uating
ĠAg es
Ġo riented
id as
Ġe in
ĠP ull
Ġwheel chair
Ġmon st
Ġc apped
Ġpol es
ĠOri oles
P akistan
ĠA gg
ord ered
Ġdisgr ace
Ġsc outs
Ġmetabol ism
Ġtrans itions
Ġecl ipse
G T
Ġw aving
Ġp as
at ts
ĠF i
pe x
Ġun used
Ġfold ed
Ġheft y
ĠProper ty
f est
ĠRe ason
d rive
at z
ow ler
ĠF ul
Ġl ays
Ġpro let
Ġgun shot
ĠHard y
Ġinsult s
Ġmel ted
Ġt ones
Ġtext ures
Ġ( (
Ġtransfer ring
Ġcollabor ate
ĠRom ans
Ġpip elines
Ġostens ibly
ĠY ORK
ym ph
Ġgrav itational
ble ms
ĠN I
inn amon
ĠCB D
ĠDri ver
ĠSaskat chewan
ĠC ory
ĠP ixel
Ġviol ently
Japan ese
ĠCont ract
ang ling
ĠDevelop er
Ġb ishops
ic z
Ġex ert
indust rial
Ġer osion
r Ã©
com ment
Ġb olt
ĠSouth ampton
Ġn ause
Ġban ana
Ġlegal ized
Ġresent ment
ixt ures
ĠR anch
ĠDI Y
ĠH ours
Ġharm less
ĠJ P
Ġsp ies
Ġundert ake
L im
ĠF E
ĠWhe never
p osition
ĠM H
Ġclass ics
Ġguitar ist
Ġbo ast
cl air
mod el
Ġrec ap
Act ually
Ġcum ulative
S ize
c ool
ff ield
St ay
Ġg n
out heastern
ĠPer kins
g ot
à ²
Ġfun nel
Ġconf inement
Ġesc aping
ĠS inger
ĠA HL
ĠL inks
Ġjoint ly
on ial
che t
ĠS uff
Ġthink ers
ĠID F
Ġt an
ru ce
ĠWorld s
AN C
Ġam p
ĠVol ks
Ġentit lement
Ġfil tering
Res earch
Ġc affeine
hy d
Ġg ast
Ġbe gging
Ġdr ank
Ġcor al
Ġdeb unk
ah on
Ġext r
ĠBar cl
Ġmis con
Ġcommand ing
bet ter
ĠIran ians
Ġsal vation
ĠB oulder
Ġmon keys
Ġmut ually
Ġexerc ising
Ġwid ow
Ġmelt down
Ġant iqu
ĠR OM
R est
Ġmarket ed
ĠRiver a
Ġout lines
Ġrev ol
ad an
Ġsepar ating
ut able
ib o
in ness
ay ette
Ġter med
ĠMic key
f urt
Ġpe aked
Ġdeb ating
Ġspe lling
ĠHer bert
Ġteam ed
ĠL imb
Ġspec ulative
ĠJagu ars
ĠM au
Ġhazard ous
m ot
ĠN eal
F M
c ause
ĠW elcome
per fect
ĠN u
ĠPOL IT
10 8
s aving
Ġd ur
ĠF AA
ĠK ol
Ġmarginal ized
Ġm og
us ch
ĠBook er
g ic
ĠBlack s
it imate
[...]
