{
  "!": 33,
  "!!": 4925,
  "!!!": 14414,
  "!!!!": 22038,
  "!\"": 5095,
  "!'": 20612,
  "!)": 8685,
  "!),": 23279,
  "!).": 19474,
  "!,": 26617,
  "!<|": 7459,
  "!âĢĻ": 19909,
  "!âĢĿ": 4636,
  "\"": 34,
  "\")": 8488,
  "\"),": 18479,
  "\").": 17919,
  "\");": 21790,
  "\",": 2858,
  "\",\"": 11162,
  "\".": 2831,
  "\".[": 8691,
  "\":": 4955,
  "\":\"": 10334,
  "\":{\"": 30060,
  "\";": 15629,
  "\">": 9284,
  "\"?": 24000,
  "\"[": 19477,
  "\"]": 20085,
  "\"âĢĶ": 30878,
  "#": 35,
  "##": 4812,
  "###": 31142,
  "####": 8786,
  "########": 14769,
  "################": 24698,
  "$": 36,
  "$$": 27656,
  "%": 37,
  "%)": 6600,
  "%),": 17491,
  "%).": 20184,
  "%,": 8139,
  "%.": 7601,
  "&": 38,
  "'": 39,
  "''": 15570,
  "')": 17009,
  "');": 26357,
  "',": 6396,
  "'.": 8487,
  "':": 15777,
  "';": 25574,
  "']": 31677,
  "'d": 3013,
  "'ll": 2295,
  "'m": 1987,
  "'re": 1387,
  "'s": 425,
  "'t": 697,
  "'ve": 1852,
  "(": 40,
  "(\"": 10582,
  "($": 20928,
  "('": 12500,
  "((": 31695,
  "()": 5425,
  "().": 25642,
  "();": 12491,
  "({": 28791,
  ")": 41,
  ")\"": 25437,
  ")(": 13846,
  "))": 7766,
  "));": 27870,
  "),": 909,
  "),[": 30743,
  "),âĢĿ": 30029,
  ")-": 19758,
  ").": 833,
  ").<|": 19025,
  ").[": 11211,
  ").âĢĿ": 27665,
  ")/": 30580,
  "):": 3717,
  ");": 3006,
  ")<|": 10384,
  ")?": 20910,
  ")[": 22754,
  ")]": 30362,
  "){": 31422,
  ")|": 15458,
  ")}": 31482,
  ")âĢĶ": 24908,
  "*": 42,
  "**": 2135,
  "***": 10058,
  "****": 5012,
  "********": 9423,
  "****************": 16914,
  "*,": 31608,
  "*.": 31413,
  "+": 43,
  "++": 8585,
  "++++": 28538,
  "+,": 29869,
  "+.": 30907,
  ",": 44,
  ",\"": 774,
  ",'": 5444,
  ",'\"": 21349,
  ",''": 17402,
  ",,": 28574,
  ",[": 5617,
  ",âĢĻ": 5971,
  ",âĢĻâĢĻ": 20640,
  ",âĢĻâĢĿ": 20764,
  ",âĢĿ": 685,
  "-": 45,
  "-$": 21582,
  "-)": 30093,
  "-,": 29724,
  "--": 920,
  "---": 12595,
  "----": 1690,
  "--------": 3086,
  "------------": 25092,
  "----------------": 5739,
  "--------------------------------": 11654,
  "----------------------------------------------------------------": 27582,
  "->": 9864,
  ".": 46,
  ".\"": 724,
  ".\")": 30835,
  ".\"<|": 5839,
  ".\"[": 7229,
  ".'": 4093,
  ".'\"": 17074,
  ".''": 18355,
  ".'âĢĿ": 30261,
  ".(": 19197,
  ".)": 2089,
  ".),": 11962,
  ".).": 16638,
  ".)<|": 25978,
  ".*": 23886,
  ".,": 1862,
  ".-": 8503,
  "..": 762,
  "...": 1476,
  "...\"": 14110,
  "...)": 31163,
  "....": 3564,
  ".....": 28722,
  "........": 7970,
  "..........": 26938,
  "................": 15957,
  "................................": 31363,
  "...<|": 21130,
  "...]": 23749,
  "./": 22706,
  ".:": 13343,
  ".;": 21071,
  ".<|": 960,
  ".[": 1075,
  ".]": 10733,
  "._": 27411,
  ".ÂĶ": 27114,
  ".âĢĶ": 25014,
  ".âĢĻ": 4050,
  ".âĢĻâĢĻ": 23256,
  ".âĢĻâĢĿ": 16226,
  ".âĢľ": 13392,
  ".âĢĿ": 645,
  ".âĢĿ)": 22638,
  ".âĢĿ<|": 5301,
  ".âĢĿ[": 25814,
  "/": 47,
  "/-": 24012,
  "/.": 11913,
  "//": 1672,
  "////": 22211,
  "0": 48,
  "00": 454,
  "000": 951,
  "0000": 6619,
  "000000": 28263,
  "00000000": 18719,
  "001": 16081,
  "003": 26691,
  "01": 5584,
  "02": 6898,
  "03": 7052,
  "04": 6843,
  "05": 5696,
  "06": 6614,
  "07": 6756,
  "08": 6376,
  "09": 6693,
  "1": 49,
  "10": 1348,
  "100": 3977,
  "1000": 17680,
  "101": 18234,
  "102": 21969,
  "103": 22549,
  "104": 22258,
  "105": 20977,
  "106": 23818,
  "107": 24045,
  "108": 24421,
  "109": 23412,
  "11": 1678,
  "110": 13554,
  "111": 22544,
  "112": 23985,
  "113": 25393,
  "114": 24588,
  "115": 22080,
  "116": 26643,
  "117": 25668,
  "118": 26954,
  "119": 25718,
  "12": 1838,
  "120": 14179,
  "121": 27536,
  "122": 27206,
  "123": 20779,
  "124": 27878,
  "125": 17587,
  "126": 28833,
  "127": 25544,
  "128": 22137,
  "129": 26905,
  "13": 2290,
  "130": 17368,
  "131": 28875,
  "132": 29863,
  "133": 27297,
  "134": 28946,
  "135": 24034,
  "136": 30870,
  "137": 29556,
  "138": 30883,
  "139": 30505,
  "14": 2180,
  "140": 19780,
  "141": 31172,
  "144": 29028,
  "145": 27727,
  "147": 31294,
  "148": 31713,
  "149": 29357,
  "15": 1976,
  "150": 10579,
  "155": 27291,
  "16": 2161,
  "160": 19066,
  "165": 29675,
  "168": 25335,
  "17": 2391,
  "170": 23218,
  "175": 24984,
  "18": 2441,
  "180": 20891,
  "19": 1616,
  "190": 27945,
  "192": 29482,
  "1970": 29170,
  "1980": 25140,
  "1989": 29914,
  "199": 27957,
  "1990": 20305,
  "1991": 29984,
  "1992": 28802,
  "1993": 28928,
  "1994": 27507,
  "1995": 26826,
  "1996": 26317,
  "1997": 26562,
  "1998": 25947,
  "1999": 23492,
  "2": 50,
  "20": 1181,
  "200": 3038,
  "2000": 14183,
  "2001": 20553,
  "2002": 21542,
  "2003": 20670,
  "2004": 19772,
  "2005": 19038,
  "2006": 18417,
  "2007": 16951,
  "2008": 14482,
  "2009": 13565,
  "201": 30786,
  "2010": 12336,
  "2011": 11742,
  "2012": 10628,
  "2013": 10108,
  "2014": 8409,
  "2015": 8856,
  "2016": 8581,
  "2017": 10420,
  "2018": 20529,
  "2019": 27056,
  "202": 29080,
  "21": 3906,
  "210": 28771,
  "22": 3247,
  "220": 25766,
  "225": 29379,
  "23": 3531,
  "230": 26929,
  "24": 3351,
  "240": 25098,
  "25": 2589,
  "250": 10382,
  "255": 25090,
  "256": 23487,
  "26": 3829,
  "260": 30687,
  "27": 3716,
  "270": 30539,
  "28": 3969,
  "280": 29783,
  "29": 3966,
  "3": 51,
  "30": 1890,
  "300": 7370,
  "31": 5270,
  "32": 4431,
  "320": 27446,
  "33": 4191,
  "34": 4770,
  "35": 3814,
  "350": 17705,
  "36": 4610,
  "360": 23271,
  "37": 4906,
  "370": 27480,
  "38": 4709,
  "380": 31669,
  "39": 5041,
  "4": 52,
  "40": 2951,
  "400": 8048,
  "41": 6024,
  "42": 5852,
  "43": 6000,
  "44": 4588,
  "446": 30215,
  "45": 3818,
  "450": 22248,
  "46": 5260,
  "47": 5033,
  "48": 4921,
  "49": 5093,
  "5": 53,
  "50": 1686,
  "500": 4131,
  "51": 7754,
  "52": 7786,
  "53": 8034,
  "54": 7830,
  "55": 4888,
  "550": 28882,
  "56": 7421,
  "57": 7293,
  "58": 7212,
  "59": 6935,
  "6": 54,
  "60": 2728,
  "600": 9324,
  "61": 9140,
  "62": 9196,
  "63": 9177,
  "64": 5772,
  "65": 5827,
  "650": 25128,
  "66": 6495,
  "67": 7280,
  "68": 6946,
  "69": 8749,
  "7": 55,
  "70": 4166,
  "700": 10923,
  "71": 9317,
  "72": 8809,
  "73": 9539,
  "74": 8900,
  "75": 4691,
  "750": 19043,
  "76": 8325,
  "77": 6536,
  "78": 7062,
  "79": 9025,
  "8": 56,
  "80": 3447,
  "800": 8971,
  "81": 10040,
  "82": 10015,
  "83": 9862,
  "84": 9775,
  "85": 8430,
  "850": 30469,
  "86": 7753,
  "87": 8535,
  "88": 6645,
  "89": 8638,
  "9": 57,
  "90": 4374,
  "900": 14479,
  "91": 9977,
  "92": 9420,
  "93": 9495,
  "94": 9506,
  "95": 5801,
  "96": 8026,
  "97": 8109,
  "98": 7560,
  "99": 3165,
  "999": 25948,
  ":": 58,
  ":\"": 27237,
  "://": 2078,
  "::": 8248,
  ":<|": 7921,
  ":[": 24922,
  ":\\": 24231,
  ";": 59,
  ";[": 27662,
  "<": 60,
  "</": 7232,
  "<<": 29150,
  "<|": 704,
  "<|endoftext|>": 31998,
  "<|pad|>": 31999,
  "=": 61,
  "=\"": 5329,
  "='": 21952,
  "==": 2635,
  "====": 4561,
  "========": 7826,
  "================": 13659,
  "================================": 26143,
  "=>": 30788,
  "=âĢĿ": 14706,
  ">": 62,
  "><": 16530,
  "></": 20099,
  ">>": 5781,
  ">>>>": 14394,
  ">>>>>>>>": 29041,
  "?": 63,
  "?!": 15261,
  "?\"": 3578,
  "?'": 12282,
  "?)": 11306,
  "?),": 30992,
  "?).": 27002,
  "?<|": 11592,
  "??": 10177,
  "???": 31191,
  "?]": 27940,
  "?âĢĻ": 11254,
  "?âĢĿ": 2960,
  "@": 64,
  "A": 65,
  "AA": 5338,
  "AB": 10851,
  "ABC": 21173,
  "ABLE": 29671,
  "AC": 3138,
  "ACA": 21107,
  "ACE": 17217,
  "ACH": 22471,
  "ACK": 12774,
  "ACP": 27436,
  "ACT": 17664,
  "AD": 3708,
  "ADA": 27302,
  "ADE": 30966,
  "ADVERTIS": 12965,
  "ADVERTISEMENT": 13395,
  "AF": 10065,
  "AFP": 14996,
  "AFTA": 24946,
  "AG": 17751,
  "AGE": 27585,
  "AI": 25810,
  "AK": 15255,
  "AL": 3035,
  "ALE": 27402,
  "ALL": 10148,
  "ALLY": 23996,
  "AM": 3395,
  "AMA": 24729,
  "AME": 16957,
  "AMP": 27091,
  "AMY": 18945,
  "AN": 2285,
  "ANC": 24360,
  "ANCE": 30169,
  "AND": 9369,
  "ANG": 22678,
  "ANK": 20426,
  "ANN": 24459,
  "ANS": 19936,
  "ANT": 15686,
  "AP": 3740,
  "APD": 30871,
  "API": 31876,
  "APP": 26799,
  "AR": 2444,
  "ARA": 29249,
  "ARC": 26619,
  "ARD": 14997,
  "ARK": 18162,
  "ARL": 31923,
  "ARP": 29228,
  "ARR": 31365,
  "ARS": 23865,
  "ART": 10734,
  "ARY": 19270,
  "AS": 2451,
  "ASE": 17304,
  "ASH": 11883,
  "ASHINGTON": 15162,
  "ASS": 17625,
  "AST": 15729,
  "AT": 1956,
  "ATA": 21249,
  "ATCH": 11041,
  "ATE": 7828,
  "ATED": 11875,
  "ATH": 18938,
  "ATION": 11805,
  "ATO": 8019,
  "ATT": 25418,
  "AU": 31493,
  "AV": 13357,
  "AX": 31358,
  "AY": 10225,
  "AZ": 31732,
  "Aaron": 28245,
  "Ab": 5494,
  "About": 8490,
  "Above": 29619,
  "Abs": 25241,
  "Ac": 15500,
  "Acc": 22106,
  "Access": 25061,
  "According": 3773,
  "Across": 31748,
  "Act": 9953,
  "Action": 24539,
  "Activity": 25780,
  "Actually": 24334,
  "Ad": 2580,
  "Adam": 20716,
  "Add": 6377,
  "Added": 19042,
  "Adding": 29670,
  "Additional": 20442,
  "Additionally": 20005,
  "Adv": 29070,
  "Advertisement": 3737,
  "Advertisements": 11857,
  "Advertising": 25314,
  "Af": 15837,
  "After": 2986,
  "Ag": 11095,
  "Again": 14330,
  "Age": 26620,
  "Ah": 13717,
  "Air": 18380,
  "Al": 2646,
  "Alan": 31888,
  "Alex": 13576,
  "Ali": 25807,
  "All": 3511,
  "Almost": 19752,
  "Along": 19308,
  "Also": 7301,
  "Altern": 28288,
  "Although": 6080,
  "Am": 5833,
  "Amazon": 20564,
  "Americ": 4624,
  "America": 15501,
  "American": 6164,
  "Americans": 13985,
  "Among": 11369,
  "An": 2059,
  "Analy": 30117,
  "Analysis": 27755,
  "And": 1736,
  "Andre": 26497,
  "Andrew": 17857,
  "Android": 27229,
  "Andy": 28910,
  "Ang": 14869,
  "Ann": 19925,
  "Anna": 26974,
  "Another": 5658,
  "Ant": 13431,
  "Anth": 25580,
  "Anthony": 26847,
  "Anti": 26499,
  "Any": 7157,
  "Anyone": 17523,
  "Anyway": 22322,
  "Ap": 29355,
  "Apart": 31389,
  "App": 5885,
  "Apparently": 25200,
  "Apple": 14469,
  "April": 16629,
  "Ar": 4022,
  "Arab": 26204,
  "Arch": 20920,
  "Are": 9221,
  "Ari": 21623,
  "Around": 19788,
  "Ars": 28593,
  "Art": 8999,
  "Arthur": 26698,
  "Article": 14202,
  "As": 1557,
  "Ash": 26989,
  "Aside": 26279,
  "Ask": 28527,
  "Asked": 14124,
  "Ass": 8602,
  "Assad": 17688,
  "Associated": 26980,
  "Ast": 30400,
  "At": 2695,
  "Att": 12773,
  "Aud": 22183,
  "Aug": 14537,
  "August": 18284,
  "Aust": 12762,
  "Austral": 16119,
  "Australia": 22033,
  "Australian": 30398,
  "Aut": 19671,
  "Author": 14684,
  "Authorities": 22074,
  "Av": 14848,
  "Available": 27926,
  "Average": 31427,
  "Aw": 27100,
  "Az": 29596,
  "B": 66,
  "BA": 4306,
  "BB": 20047,
  "BBC": 27412,
  "BC": 2335,
  "BE": 15952,
  "BER": 15206,
  "BI": 3471,
  "BL": 12807,
  "BLE": 26179,
  "BM": 9079,
  "BN": 10879,
  "BO": 8025,
  "BP": 20974,
  "BR": 13552,
  "BS": 4434,
  "BSD": 25229,
  "BT": 22866,
  "BU": 26225,
  "BY": 20812,
  "Back": 8441,
  "Background": 25640,
  "Bad": 23518,
  "Bal": 30873,
  "Ball": 30956,
  "Ban": 30380,
  "Bank": 25926,
  "Bar": 11632,
  "Bas": 17563,
  "Base": 24577,
  "Based": 15549,
  "Basically": 27292,
  "Bat": 22154,
  "Battle": 27463,
  "Bay": 14418,
  "Be": 3749,
  "Because": 7404,
  "Before": 7848,
  "Begin": 30321,
  "Beh": 26796,
  "Being": 16225,
  "Bel": 11431,
  "Below": 20020,
  "Ben": 11808,
  "Ber": 22778,
  "Bern": 19785,
  "Bernie": 26233,
  "Berry": 19108,
  "Besides": 20674,
  "Best": 12701,
  "Bet": 13590,
  "Better": 29056,
  "Between": 20860,
  "Beyond": 20004,
  "Bi": 27765,
  "Big": 12528,
  "Bill": 15603,
  "Bit": 14500,
  "Bitcoin": 20657,
  "Bl": 4721,
  "Black": 11126,
  "Block": 24439,
  "Blood": 30901,
  "Bloom": 29630,
  "Blue": 18531,
  "Bo": 17136,
  "Bob": 19525,
  "Bon": 24512,
  "Book": 11252,
  "Books": 31977,
  "Born": 24934,
  "Boston": 27914,
  "Both": 8677,
  "Box": 18904,
  "Boy": 29154,
  "Br": 11441,
  "Brad": 21709,
  "Brazil": 30964,
  "Bre": 12434,
  "Breaking": 23730,
  "Brexit": 31441,
  "Brian": 21686,
  "Brien": 16822,
  "Bring": 30844,
  "Brit": 13899,
  "Britain": 28000,
  "British": 20296,
  "Bro": 17322,
  "Broad": 29498,
  "Bron": 16457,
  "Brown": 18418,
  "Bs": 30130,
  "Build": 20946,
  "Building": 27380,
  "Bur": 22417,
  "Bush": 28290,
  "Business": 22830,
  "But": 1306,
  "Buy": 15240,
  "By": 3763,
  "C": 67,
  "CA": 7363,
  "CAR": 17670,
  "CB": 25874,
  "CBC": 22485,
  "CBS": 19394,
  "CC": 4477,
  "CD": 10704,
  "CE": 7383,
  "CH": 4919,
  "CI": 31320,
  "CL": 5726,
  "CLA": 15492,
  "CLOSE": 24105,
  "CNN": 13104,
  "CO": 9575,
  "COM": 14243,
  "COMMENT": 30134,
  "CON": 19241,
  "CP": 27880,
  "CR": 14924,
  "CS": 7382,
  "CT": 20389,
  "Cal": 10069,
  "Calif": 15838,
  "California": 21973,
  "Call": 17435,
  "Cam": 25583,
  "Camp": 20027,
  "Can": 6252,
  "Canada": 15645,
  "Canadian": 22839,
  "Cap": 13733,
  "Captain": 28113,
  "Car": 11177,
  "Card": 21651,
  "Care": 15201,
  "Carl": 23459,
  "Case": 23782,
  "Cast": 22480,
  "Cat": 27040,
  "Cent": 19426,
  "Center": 26947,
  "Central": 29061,
  "Certainly": 29416,
  "Ch": 2299,
  "Change": 26113,
  "Chapter": 27325,
  "Char": 15829,
  "Charl": 22571,
  "Charles": 24978,
  "Charlie": 31281,
  "Chat": 30184,
  "Che": 8571,
  "Check": 11885,
  "Chicago": 21684,
  "Chief": 20628,
  "Child": 18270,
  "Children": 26726,
  "China": 11593,
  "Chinese": 20688,
  "Cho": 29142,
  "Chris": 13942,
  "Christ": 9747,
  "Christian": 17238,
  "City": 14388,
  "Civil": 29928,
  "Cl": 4311,
  "Class": 15453,
  "Cle": 15143,
  "Clearly": 23787,
  "Click": 9976,
  "Client": 29195,
  "Climate": 26187,
  "Clinton": 12988,
  "Close": 29292,
  "Cloud": 19199,
  "Co": 8018,
  "Code": 20537,
  "Coin": 27543,
  "Col": 7889,
  "Cola": 26192,
  "Coll": 23832,
  "Color": 18980,
  "Com": 7257,
  "Comb": 25091,
  "Come": 18013,
  "Coming": 25255,
  "Comm": 10246,
  "Comment": 23495,
  "Comments": 24180,
  "Common": 25160,
  "Commun": 27888,
  "Community": 29524,
  "Comp": 9477,
  "Con": 4409,
  "Conclusion": 18770,
  "Conf": 15823,
  "Config": 30782,
  "Cong": 15628,
  "Congress": 19831,
  "Connect": 22888,
  "Connell": 29612,
  "Connor": 22352,
  "Cons": 8979,
  "Conservative": 31751,
  "Consider": 21587,
  "Const": 17749,
  "Cont": 5942,
  "Contact": 17753,
  "Content": 24513,
  "Context": 29789,
  "Contin": 17965,
  "Continue": 26648,
  "Control": 29111,
  "Controller": 26924,
  "Cook": 30898,
  "Copyright": 14429,
  "Cor": 11033,
  "Core": 22228,
  "Cost": 23418,
  "Could": 21742,
  "Coun": 25033,
  "Count": 16538,
  "Court": 19632,
  "Courtesy": 27286,
  "Cover": 27989,
  "Cr": 15659,
  "Craft": 20996,
  "Cre": 17795,
  "Creat": 28914,
  "Create": 21880,
  "Credit": 21168,
  "Crit": 19973,
  "Critics": 26077,
  "Cross": 25622,
  "Cru": 23076,
  "Cruz": 30597,
  "Cs": 29987,
  "Cur": 30263,
  "Current": 12743,
  "Currently": 18628,
  "Custom": 21481,
  "Cut": 30269,
  "Cy": 21692,
  "D": 68,
  "DA": 4848,
  "DAY": 11834,
  "DB": 13618,
  "DC": 11622,
  "DD": 22976,
  "DE": 12064,
  "DER": 25687,
  "DF": 22739,
  "DI": 16200,
  "DL": 24080,
  "DM": 24210,
  "DNA": 29448,
  "DO": 20698,
  "DP": 5520,
  "DR": 11154,
  "DS": 6662,
  "DT": 26456,
  "Da": 31087,
  "Daily": 27900,
  "Dam": 19839,
  "Dan": 19810,
  "Daniel": 19844,
  "Dar": 27578,
  "Dark": 22971,
  "Data": 12720,
  "Date": 18066,
  "Dav": 8158,
  "Dave": 26289,
  "David": 9360,
  "Davis": 28835,
  "Day": 14064,
  "De": 5989,
  "Dead": 25072,
  "Dear": 18784,
  "Death": 22422,
  "Deb": 21711,
  "Dec": 13789,
  "December": 20656,
  "Deep": 29099,
  "Def": 10060,
  "Defense": 27124,
  "Del": 17699,
  "Dem": 9513,
  "Democratic": 25278,
  "Democrats": 20899,
  "Den": 20228,
  "Dep": 14583,
  "Der": 29163,
  "Des": 4943,
  "Description": 25046,
  "Design": 23349,
  "Despite": 6638,
  "Det": 15773,
  "Details": 28676,
  "Detroit": 31974,
  "Dev": 20103,
  "Develop": 18350,
  "Di": 21982,
  "Did": 11649,
  "Die": 31212,
  "Dig": 21395,
  "Digital": 29778,
  "Direct": 15522,
  "Director": 25789,
  "Dis": 10624,
  "Disc": 18963,
  "Disney": 31464,
  "Dist": 21871,
  "Do": 5471,
  "Doc": 30853,
  "Does": 14207,
  "Dom": 31117,
  "Don": 3772,
  "Donald": 6460,
  "DonaldTrump": 21827,
  "Donnell": 18105,
  "Dou": 18699,
  "Down": 11341,
  "Download": 14766,
  "Dr": 7551,
  "Drive": 28299,
  "Due": 21762,
  "Dun": 31714,
  "During": 5917,
  "E": 69,
  "EA": 7683,
  "EC": 3848,
  "ECD": 25326,
  "ECT": 14981,
  "ED": 3098,
  "EE": 10658,
  "EG": 13494,
  "EL": 4229,
  "ELD": 30595,
  "ELECT": 28194,
  "ELL": 16229,
  "EM": 4683,
  "EMA": 23819,
  "EMENT": 11684,
  "EN": 2829,
  "ENCE": 25257,
  "END": 18510,
  "ENS": 24879,
  "ENT": 5590,
  "EO": 3971,
  "EP": 8013,
  "EPA": 31968,
  "ER": 1713,
  "ERC": 30812,
  "ERE": 11003,
  "ERN": 25609,
  "ERO": 31965,
  "ERS": 6280,
  "ERT": 26935,
  "ERY": 25097,
  "ES": 2667,
  "ESPN": 27433,
  "ESS": 15560,
  "EST": 8711,
  "ET": 3921,
  "ETA": 22094,
  "ETH": 29235,
  "ETT": 31889,
  "EU": 16998,
  "EV": 26036,
  "EW": 7367,
  "EX": 10083,
  "EXT": 25351,
  "EY": 28748,
  "Each": 11367,
  "Earlier": 10095,
  "Early": 14601,
  "Earth": 23758,
  "East": 23833,
  "Econom": 23604,
  "Ed": 7606,
  "Edit": 28760,
  "Editor": 17412,
  "Educ": 29395,
  "Eff": 24112,
  "Egypt": 29073,
  "Eight": 26050,
  "Either": 27947,
  "El": 9714,
  "Ele": 30272,
  "Elect": 20244,
  "Element": 24763,
  "Ell": 29742,
  "Em": 11586,
  "Email": 16183,
  "Employ": 30513,
  "En": 6588,
  "End": 17124,
  "Energy": 31764,
  "Eng": 12364,
  "Engine": 28940,
  "English": 22165,
  "Enjoy": 30757,
  "Enlarge": 21306,
  "Ent": 22133,
  "Enter": 21242,
  "Environment": 29836,
  "Ep": 19820,
  "Episode": 30626,
  "Equ": 28774,
  "Er": 16058,
  "Eric": 20514,
  "Error": 25211,
  "Es": 18901,
  "Ess": 29051,
  "Est": 22901,
  "Euro": 12475,
  "Europe": 13675,
  "European": 18252,
  "Ev": 15132,
  "Even": 5250,
  "Event": 15583,
  "Eventually": 23848,
  "Ever": 20966,
  "Every": 5438,
  "Everybody": 22051,
  "Everyone": 14085,
  "Everything": 17373,
  "Ex": 4283,
  "Example": 25751,
  "Except": 30039,
  "Exception": 30912,
  "Exit": 30628,
  "Exp": 22929,
  "Exper": 19994,
  "Experts": 29378,
  "Expl": 23015,
  "Ext": 16500,
  "F": 70,
  "FA": 8480,
  "FB": 28139,
  "FBI": 31935,
  "FC": 4351,
  "FE": 25206,
  "FF": 9100,
  "FI": 16995,
  "FK": 25930,
  "FL": 3406,
  "FM": 24415,
  "FO": 10000,
  "FOR": 21494,
  "FP": 6687,
  "FR": 15731,
  "FS": 12232,
  "FT": 15652,
  "FW": 30165,
  "FX": 24584,
  "Facebook": 8992,
  "Fact": 27818,
  "Fair": 29559,
  "Fall": 31717,
  "Family": 25596,
  "Fans": 29297,
  "Far": 19723,
  "Fast": 23692,
  "Fe": 12463,
  "Feb": 16562,
  "February": 21456,
  "Federal": 21504,
  "Feed": 16742,
  "Few": 25342,
  "Fi": 10427,
  "Field": 27783,
  "Fig": 13298,
  "Figure": 12369,
  "Fil": 17338,
  "File": 17770,
  "Film": 30193,
  "Fin": 20178,
  "Final": 20927,
  "Finally": 10030,
  "Find": 19991,
  "Finding": 31801,
  "Fire": 16172,
  "First": 5474,
  "Fit": 31349,
  "Five": 17117,
  "Fix": 28509,
  "Fixed": 19078,
  "Fl": 10660,
  "Flor": 23849,
  "Florida": 26039,
  "Follow": 6046,
  "Following": 11420,
  "Food": 26305,
  "Foot": 21870,
  "For": 1877,
  "Force": 19970,
  "Ford": 31186,
  "Fore": 17695,
  "Foreign": 29043,
  "Form": 18506,
  "Former": 11068,
  "Fort": 22260,
  "Fortunately": 25881,
  "Four": 13289,
  "Fox": 15810,
  "Fr": 6859,
  "Frame": 28345,
  "Franc": 31925,
  "France": 23219,
  "Frank": 14855,
  "Fre": 25232,
  "Fred": 27881,
  "Free": 13186,
  "French": 21230,
  "Friday": 19886,
  "Friend": 24702,
  "From": 5203,
  "Full": 16317,
  "Fun": 22567,
  "Fund": 22518,
  "Further": 11282,
  "Furthermore": 21330,
  "Future": 29939,
  "G": 71,
  "GA": 9855,
  "GB": 4454,
  "GBT": 7040,
  "GC": 18905,
  "GE": 8776,
  "GEL": 25763,
  "GET": 22180,
  "GG": 30014,
  "GH": 21326,
  "GHz": 25249,
  "GI": 20064,
  "GL": 16611,
  "GM": 12446,
  "GN": 16192,
  "GO": 8674,
  "GP": 19666,
  "GR": 16443,
  "GS": 15190,
  "GT": 24256,
  "Gal": 29127,
  "Gall": 28130,
  "Game": 13284,
  "Games": 30630,
  "Gar": 25450,
  "Gary": 29181,
  "Gate": 24714,
  "Ge": 10307,
  "Gen": 16501,
  "Gener": 10530,
  "General": 13432,
  "Georg": 29960,
  "George": 18560,
  "Ger": 25558,
  "German": 13873,
  "Germany": 23145,
  "Get": 6592,
  "Getting": 19746,
  "Getty": 7553,
  "Girl": 29443,
  "Give": 25105,
  "Given": 12234,
  "Gl": 10920,
  "Global": 22807,
  "Go": 5032,
  "God": 13709,
  "Going": 23042,
  "Gold": 15639,
  "Good": 11251,
  "Google": 9682,
  "Got": 31817,
  "Gov": 22030,
  "Govern": 22434,
  "Government": 23297,
  "Gr": 11062,
  "Grand": 26423,
  "Graph": 27705,
  "Great": 15354,
  "Green": 13958,
  "Greg": 26658,
  "Group": 21740,
  "Gs": 29696,
  "Gu": 10926,
  "Guard": 25850,
  "Gun": 28379,
  "H": 72,
  "HA": 8608,
  "HC": 17221,
  "HD": 14218,
  "HE": 23519,
  "HF": 30908,
  "HI": 25918,
  "HL": 5114,
  "HO": 28473,
  "HP": 10723,
  "HR": 21457,
  "HS": 7682,
  "HT": 9303,
  "Ha": 26742,
  "Hack": 31483,
  "Had": 25066,
  "Half": 31446,
  "Hall": 27920,
  "Ham": 21983,
  "Hand": 19923,
  "Happy": 23926,
  "Har": 12625,
  "Hard": 20919,
  "Harry": 26721,
  "Has": 20638,
  "Have": 12189,
  "Having": 12808,
  "Haw": 29364,
  "Hay": 28585,
  "He": 1383,
  "Head": 16764,
  "Health": 18306,
  "Hel": 16755,
  "Hell": 30308,
  "Hello": 16988,
  "Help": 28265,
  "Hen": 22918,
  "Henry": 27873,
  "Her": 8844,
  "Here": 4098,
  "Hey": 10716,
  "Hi": 20565,
  "High": 13891,
  "Hill": 13546,
  "Hillary": 16162,
  "His": 5650,
  "Hist": 12345,
  "History": 16555,
  "Hit": 25578,
  "Ho": 29157,
  "Hol": 26650,
  "Hold": 25740,
  "Hom": 31450,
  "Home": 17955,
  "Hon": 27054,
  "Hop": 19692,
  "Hopefully": 25412,
  "Hor": 31975,
  "Host": 29615,
  "Hot": 26211,
  "House": 14959,
  "Houston": 30993,
  "How": 2394,
  "However": 4194,
  "Hub": 15371,
  "Human": 20719,
  "Hun": 27777,
  "Hundreds": 28140,
  "Hy": 20324,
  "Hz": 9833,
  "I": 73,
  "IA": 3930,
  "IAL": 21033,
  "IAN": 26973,
  "IB": 22321,
  "IC": 3258,
  "ICA": 23545,
  "ICE": 11669,
  "ICH": 26925,
  "ICK": 15444,
  "ICO": 19456,
  "ICS": 22935,
  "ID": 3843,
  "IDE": 18437,
  "IDS": 14089,
  "IE": 11202,
  "IES": 18836,
  "IF": 6612,
  "IFA": 14828,
  "IFF": 31011,
  "IG": 5608,
  "IGH": 25563,
  "IGHT": 14950,
  "IGN": 23555,
  "II": 6066,
  "III": 15389,
  "IL": 4341,
  "ILE": 22443,
  "ILL": 11476,
  "IM": 5328,
  "IME": 15431,
  "IN": 2069,
  "INAL": 28996,
  "IND": 22538,
  "INE": 14753,
  "ING": 4102,
  "INGS": 29090,
  "INGTON": 14411,
  "INK": 22985,
  "INN": 29781,
  "INS": 25527,
  "INT": 19874,
  "IO": 12684,
  "ION": 5467,
  "IP": 5411,
  "IR": 6690,
  "IS": 2232,
  "ISA": 20725,
  "ISE": 29509,
  "ISH": 24817,
  "ISIS": 22850,
  "ISS": 21329,
  "IST": 12752,
  "IT": 3181,
  "ITE": 19428,
  "ITH": 14781,
  "ITION": 29915,
  "ITY": 14386,
  "IV": 5326,
  "IVE": 13133,
  "IX": 15722,
  "IZ": 23385,
  "Ice": 30235,
  "Id": 12108,
  "If": 1570,
  "Il": 28613,
  "Ill": 20932,
  "Im": 3448,
  "Image": 4562,
  "Images": 26600,
  "Imagine": 20205,
  "Imm": 31757,
  "Imp": 29146,
  "Import": 26931,
  "Impro": 26936,
  "In": 793,
  "Inc": 19373,
  "Incre": 24988,
  "Ind": 5740,
  "Indeed": 14329,
  "Index": 28815,
  "India": 17135,
  "Indian": 26048,
  "Inf": 17417,
  "Info": 29149,
  "Information": 28019,
  "Initially": 31179,
  "Ins": 19095,
  "Inside": 22078,
  "Inst": 7561,
  "Install": 31219,
  "Instead": 10416,
  "Int": 9854,
  "Inte": 13347,
  "Inter": 12910,
  "Interest": 18422,
  "Interestingly": 26290,
  "Intern": 15791,
  "International": 22760,
  "Internet": 28702,
  "Introdu": 29840,
  "Introduction": 25494,
  "Invest": 16202,
  "Investigators": 25505,
  "Ir": 22462,
  "Iran": 17718,
  "Iraq": 25190,
  "Iron": 22512,
  "Is": 3761,
  "Islam": 13461,
  "Islamic": 21011,
  "Israel": 10490,
  "Israeli": 21854,
  "Iss": 30447,
  "It": 937,
  "Item": 22472,
  "Its": 18448,
  "J": 74,
  "JP": 11110,
  "JS": 20518,
  "JUST": 21954,
  "Jac": 25849,
  "Jack": 13859,
  "Jackson": 25913,
  "Jam": 27519,
  "James": 13636,
  "Jan": 13455,
  "January": 21199,
  "Japan": 15594,
  "Japanese": 24298,
  "Jason": 22610,
  "Jay": 27621,
  "Jeff": 16793,
  "Jeremy": 31085,
  "Jes": 21993,
  "Jess": 31084,
  "Jesus": 28698,
  "Jew": 20978,
  "Jewish": 23718,
  "Jim": 16643,
  "Jo": 11511,
  "Joe": 17034,
  "John": 7033,
  "Johnson": 20663,
  "Join": 19674,
  "Jon": 16126,
  "Jonathan": 25279,
  "Jones": 20792,
  "Jordan": 28944,
  "Jose": 22294,
  "Joseph": 29064,
  "Josh": 21272,
  "Journal": 22135,
  "Jud": 26326,
  "Judge": 23664,
  "Jul": 19577,
  "July": 16513,
  "June": 16111,
  "Just": 5312,
  "Justice": 24453,
  "Justin": 27751,
  "K": 75,
  "KA": 27043,
  "KE": 11048,
  "KK": 16375,
  "KO": 28966,
  "KS": 30095,
  "Kat": 26243,
  "Ke": 9121,
  "Keep": 16114,
  "Kelly": 28625,
  "Ken": 20677,
  "Kevin": 20614,
  "Key": 12947,
  "Kim": 20736,
  "King": 16693,
  "Kit": 20992,
  "Kn": 29906,
  "Know": 23280,
  "Ky": 28125,
  "L": 76,
  "LA": 7675,
  "LAND": 30009,
  "LAY": 23178,
  "LC": 7799,
  "LD": 14894,
  "LE": 5526,
  "LGBT": 28005,
  "LINE": 30401,
  "LL": 25793,
  "LO": 25261,
  "LY": 13770,
  "La": 12731,
  "Lab": 17283,
  "Labour": 25013,
  "Land": 25977,
  "Large": 29806,
  "Last": 5049,
  "Lat": 28213,
  "Late": 24591,
  "Later": 15688,
  "Laughs": 27600,
  "Law": 15671,
  "Lay": 30015,
  "Le": 4298,
  "Lead": 19871,
  "League": 20781,
  "Leaks": 12043,
  "Lear": 16384,
  "Learn": 25461,
  "Lee": 21576,
  "Left": 22516,
  "Leg": 17868,
  "Les": 31616,
  "Less": 21292,
  "Let": 5337,
  "Lev": 29962,
  "Level": 21463,
  "Lew": 28224,
  "Lib": 30489,
  "Liber": 27481,
  "Life": 14629,
  "Light": 22701,
  "Like": 6686,
  "Lim": 24323,
  "Lin": 21550,
  "Line": 18886,
  "Link": 13052,
  "LinkedIn": 29904,
  "Linux": 28690,
  "List": 11040,
  "Listen": 21143,
  "Little": 21286,
  "Live": 19955,
  "Lo": 29347,
  "Load": 23422,
  "Local": 18588,
  "Location": 22734,
  "Log": 19418,
  "London": 21751,
  "Long": 15713,
  "Look": 8174,
  "Looking": 14273,
  "Lord": 26134,
  "Los": 26148,
  "Lou": 21147,
  "Louis": 27409,
  "Love": 18992,
  "Low": 24816,
  "Lu": 25275,
  "Luc": 24002,
  "Luck": 29502,
  "M": 77,
  "MA": 6174,
  "MAN": 11013,
  "MB": 11355,
  "MC": 16271,
  "MD": 17222,
  "ME": 17615,
  "MENT": 17662,
  "MG": 31257,
  "MI": 14541,
  "ML": 7281,
  "MM": 14856,
  "MO": 24021,
  "MON": 31779,
  "MORE": 19346,
  "MP": 7517,
  "MR": 23442,
  "MS": 7559,
  "MT": 27526,
  "Ma": 21930,
  "Mac": 15906,
  "Mad": 17912,
  "Made": 30371,
  "Mag": 26075,
  "Mail": 30851,
  "Main": 18160,
  "Major": 23264,
  "Make": 13652,
  "Making": 21207,
  "Mal": 13801,
  "Malley": 26857,
  "Man": 6475,
  "Manager": 26124,
  "Manchester": 31545,
  "Many": 6017,
  "Map": 18581,
  "Mar": 7940,
  "Marc": 19295,
  "March": 15779,
  "Marcus": 29618,
  "Mark": 10432,
  "Market": 31610,
  "Mart": 11782,
  "Martin": 21761,
  "Mary": 22791,
  "Mass": 19332,
  "Master": 25794,
  "Mat": 14874,
  "Matt": 16981,
  "Matthew": 23524,
  "Max": 17063,
  "May": 6835,
  "Maybe": 11713,
  "Mayor": 28266,
  "Mc": 8560,
  "McC": 20273,
  "Me": 7858,
  "Mean": 7673,
  "Meanwhile": 7885,
  "Med": 12643,
  "Media": 12105,
  "Meet": 26772,
  "Mel": 20301,
  "Mem": 14972,
  "Members": 22323,
  "Men": 12631,
  "Mer": 14866,
  "Merit": 29832,
  "Message": 24976,
  "Met": 14090,
  "Method": 25938,
  "Mex": 20038,
  "Mexico": 26109,
  "Mic": 23086,
  "Mich": 10116,
  "Michael": 11923,
  "Michel": 30315,
  "Microsoft": 16722,
  "Mid": 25341,
  "Mike": 14369,
  "Mil": 23764,
  "Mill": 30772,
  "Miller": 30384,
  "Min": 12311,
  "Mind": 29175,
  "Mir": 30032,
  "Miss": 18676,
  "Mo": 16839,
  "Mobile": 15170,
  "Mod": 10223,
  "Model": 25391,
  "Modern": 26568,
  "Moh": 30238,
  "Mom": 28769,
  "Mon": 12017,
  "Mond": 22732,
  "Monday": 24153,
  "Money": 24655,
  "Mont": 23193,
  "Moore": 29422,
  "Mor": 17999,
  "More": 4774,
  "Moreover": 20533,
  "Mos": 28738,
  "Most": 6147,
  "Mot": 29672,
  "Mother": 30508,
  "Move": 30497,
  "Moving": 28916,
  "Mr": 4424,
  "Mrs": 23931,
  "Ms": 9745,
  "Much": 16399,
  "Mult": 19950,
  "Multiple": 31810,
  "Mur": 21703,
  "Mus": 9867,
  "Music": 23388,
  "Muslim": 13934,
  "Muslims": 29905,
  "My": 3726,
  "N": 78,
  "NA": 4613,
  "NAS": 16422,
  "NASA": 22014,
  "NBA": 27425,
  "NBC": 10070,
  "NC": 7000,
  "ND": 11862,
  "NE": 17323,
  "NET": 13705,
  "NEW": 13025,
  "NF": 23902,
  "NFL": 28453,
  "NG": 13147,
  "NI": 25657,
  "NN": 4739,
  "NO": 18267,
  "NOT": 20342,
  "NOTE": 30432,
  "NP": 22744,
  "NPR": 28920,
  "NR": 24942,
  "NS": 9845,
  "NT": 12535,
  "NY": 14023,
  "Na": 29223,
  "Name": 11007,
  "National": 15471,
  "Naz": 30470,
  "Nazi": 25410,
  "Ne": 5505,
  "Nearly": 21887,
  "Need": 25589,
  "Neil": 24626,
  "Neill": 22498,
  "Neither": 22568,
  "Net": 10893,
  "Never": 12873,
  "Nevertheless": 22981,
  "New": 3788,
  "News": 8734,
  "Newsletter": 25846,
  "Next": 10541,
  "Nic": 27964,
  "Nick": 21280,
  "Night": 28217,
  "No": 3362,
  "Nob": 17995,
  "Nobody": 19938,
  "Node": 30621,
  "Non": 17405,
  "None": 16104,
  "Nor": 19687,
  "North": 12821,
  "Not": 4042,
  "Note": 8825,
  "Notes": 17603,
  "Nothing": 17805,
  "Notice": 30265,
  "Nov": 23667,
  "November": 20465,
  "Now": 3520,
  "Num": 29467,
  "Number": 22157,
  "Nusra": 30372,
  "O": 79,
  "OB": 27010,
  "OC": 6652,
  "OCK": 18627,
  "OD": 6320,
  "ODE": 31449,
  "OG": 14143,
  "OH": 17591,
  "OK": 9634,
  "OL": 4748,
  "OLD": 23527,
  "OLL": 20624,
  "OM": 3883,
  "OME": 16151,
  "ON": 2141,
  "OND": 22364,
  "ONE": 17387,
  "ONG": 23611,
  "OO": 20381,
  "OP": 3254,
  "OPA": 31873,
  "OR": 2853,
  "ORD": 17633,
  "ORE": 6611,
  "ORK": 16231,
  "ORN": 25841,
  "ORS": 31767,
  "ORT": 14602,
  "ORTS": 30961,
  "ORY": 20918,
  "OS": 3112,
  "OSE": 17059,
  "OSS": 23063,
  "OST": 13831,
  "OT": 3633,
  "OTH": 25113,
  "OTUS": 31531,
  "OU": 4188,
  "OUND": 23137,
  "OUR": 17537,
  "OUT": 20074,
  "OW": 5532,
  "OWN": 20808,
  "Ob": 6486,
  "Obama": 11226,
  "Object": 18017,
  "Obs": 31559,
  "Obviously": 16250,
  "Occ": 28420,
  "Oct": 13702,
  "October": 19058,
  "Of": 5299,
  "Off": 7525,
  "Office": 27968,
  "Officers": 25976,
  "Official": 31286,
  "Officials": 19015,
  "Oh": 6060,
  "Ohio": 23915,
  "Ok": 19501,
  "Okay": 16770,
  "Old": 21734,
  "On": 2067,
  "Once": 7207,
  "One": 2842,
  "Online": 21814,
  "Only": 11641,
  "Op": 19032,
  "Open": 15915,
  "Oper": 19676,
  "Operation": 28915,
  "Opp": 21977,
  "Or": 6955,
  "Organ": 24442,
  "Orig": 13513,
  "Original": 23614,
  "Originally": 23364,
  "Os": 13674,
  "Other": 5970,
  "Others": 20428,
  "Our": 4835,
  "Out": 9945,
  "Outside": 26392,
  "Over": 5948,
  "Overall": 15839,
  "Own": 30069,
  "P": 80,
  "PA": 4471,
  "PC": 8618,
  "PD": 5745,
  "PDATE": 12246,
  "PDF": 21748,
  "PE": 21689,
  "PER": 22959,
  "PG": 8307,
  "PH": 15379,
  "PHOT": 30090,
  "PI": 11779,
  "PL": 10423,
  "PM": 8312,
  "PN": 14195,
  "PO": 21756,
  "PORT": 26513,
  "PP": 9046,
  "PR": 5842,
  "PRE": 30540,
  "PRO": 30967,
  "PS": 4537,
  "PT": 19956,
  "PU": 6412,
  "Pa": 29606,
  "Pac": 16816,
  "Pacific": 19817,
  "Pack": 25689,
  "Pad": 26991,
  "Page": 17698,
  "Pakistan": 24248,
  "Pal": 11029,
  "Palest": 23383,
  "Palestinian": 25711,
  "Pan": 22755,
  "Par": 13142,
  "Park": 25359,
  "Part": 8746,
  "Pass": 17374,
  "Pat": 12091,
  "Path": 23165,
  "Patrick": 27141,
  "Paul": 10278,
  "Pay": 20560,
  "Pe": 5736,
  "Pen": 29564,
  "People": 6714,
  "Per": 6732,
  "Perhaps": 11376,
  "Permalink": 31283,
  "Person": 16056,
  "Personal": 27838,
  "Pet": 30458,
  "Peter": 17500,
  "Ph": 2619,
  "Phil": 17330,
  "Phone": 25679,
  "Phot": 14693,
  "Photo": 4982,
  "Photos": 19968,
  "Pict": 20409,
  "Picture": 25656,
  "Pierre": 28022,
  "Pinterest": 27731,
  "Pl": 4992,
  "Plan": 20554,
  "Play": 15912,
  "Player": 22836,
  "Players": 26520,
  "Playing": 31950,
  "Please": 8784,
  "Plus": 18648,
  "Po": 20692,
  "Point": 14893,
  "Pol": 6458,
  "Police": 7204,
  "Polit": 30207,
  "Political": 26574,
  "Pop": 24019,
  "Port": 16294,
  "Post": 7989,
  "Posted": 14810,
  "Pot": 27312,
  "Power": 17094,
  "Pr": 7825,
  "Pre": 10011,
  "Prem": 27494,
  "Pres": 26327,
  "President": 8053,
  "Press": 12800,
  "Previous": 23646,
  "Previously": 29855,
  "Pri": 18736,
  "Price": 22000,
  "Prime": 21236,
  "Prince": 30979,
  "Print": 20009,
  "Prior": 21300,
  "Priv": 23606,
  "Pro": 4118,
  "Probably": 31539,
  "Produ": 20480,
  "Product": 29567,
  "Prof": 14576,
  "Professor": 21883,
  "Program": 31749,
  "Project": 19610,
  "Prom": 27288,
  "Prop": 24684,
  "Proper": 28451,
  "Pros": 31745,
  "Prosecutors": 29478,
  "Prot": 23989,
  "Prote": 28367,
  "Prov": 22745,
  "Ps": 11778,
  "Public": 15372,
  "Published": 20705,
  "Put": 15271,
  "Putin": 28679,
  "Q": 81,
  "QL": 10774,
  "QU": 19343,
  "Qaeda": 14299,
  "Qaida": 29356,
  "Qu": 6355,
  "Que": 18512,
  "Queen": 29729,
  "Query": 22210,
  "Quest": 17295,
  "Question": 25955,
  "Quick": 24687,
  "R": 82,
  "RA": 5025,
  "RB": 23765,
  "RC": 8791,
  "RE": 2166,
  "READ": 13690,
  "REAK": 31353,
  "RED": 18344,
  "REE": 15607,
  "REL": 14163,
  "RELATED": 15611,
  "RES": 14771,
  "RI": 8591,
  "RL": 9204,
  "RNA": 28445,
  "RO": 12676,
  "RP": 19458,
  "RS": 8123,
  "RT": 13091,
  "RY": 26205,
  "Ra": 23708,
  "Rad": 18381,
  "Radio": 28149,
  "Ram": 30450,
  "Rather": 21759,
  "Ray": 20834,
  "Re": 3099,
  "Read": 5153,
  "Real": 16425,
  "Really": 25779,
  "Reb": 31227,
  "Rec": 7800,
  "Recent": 24881,
  "Recently": 20051,
  "Record": 27051,
  "Red": 11094,
  "Redd": 19499,
  "Reddit": 20394,
  "Ref": 8264,
  "References": 13397,
  "Reg": 10259,
  "Regardless": 22717,
  "Reilly": 18201,
  "Rel": 6938,
  "Related": 8607,
  "Release": 28953,
  "Rem": 10037,
  "Remember": 15758,
  "Ren": 29940,
  "Rep": 5884,
  "Report": 26127,
  "Reports": 30774,
  "Republic": 12030,
  "Republican": 19495,
  "Republicans": 19653,
  "Request": 29934,
  "Res": 6052,
  "Research": 24365,
  "Researchers": 19226,
  "Residents": 31563,
  "Resp": 20740,
  "Rest": 24389,
  "Results": 28146,
  "Ret": 14626,
  "Return": 27367,
  "Reuters": 9500,
  "Rev": 23263,
  "Review": 17879,
  "Reviewer": 29162,
  "Rich": 13826,
  "Richard": 18501,
  "Rick": 28484,
  "Right": 10981,
  "Ro": 24761,
  "Rob": 14778,
  "Rober": 13764,
  "Robert": 16837,
  "Rock": 20404,
  "Rod": 24804,
  "Rog": 27003,
  "Rom": 21872,
  "Roman": 29210,
  "Romney": 30533,
  "Ron": 22435,
  "Rose": 30259,
  "Rou": 28896,
  "Round": 26244,
  "Roy": 26927,
  "Rs": 29206,
  "Rub": 19064,
  "Ruby": 27435,
  "Run": 19481,
  "Running": 28955,
  "Rus": 29505,
  "Russ": 8622,
  "Russia": 13631,
  "Russian": 13908,
  "Ryan": 17884,
  "S": 83,
  "SA": 4184,
  "SAN": 25154,
  "SB": 20702,
  "SC": 10301,
  "SD": 11815,
  "SE": 9378,
  "SEC": 30948,
  "SH": 16776,
  "SI": 18169,
  "SL": 9515,
  "SM": 13977,
  "SN": 17800,
  "SO": 16178,
  "SON": 13829,
  "SP": 4783,
  "SQL": 18808,
  "SS": 5871,
  "ST": 4489,
  "SU": 10919,
  "SW": 20437,
  "Sad": 22688,
  "Sadly": 29026,
  "Sah": 30749,
  "Sal": 19220,
  "Sam": 16632,
  "Samsung": 28353,
  "San": 14761,
  "Sand": 15169,
  "Sanders": 18782,
  "Sar": 20896,
  "Sarah": 25055,
  "Sat": 24807,
  "Saturday": 19249,
  "Saudi": 28925,
  "Save": 20879,
  "Say": 28981,
  "Sc": 4125,
  "Sch": 14005,
  "School": 26384,
  "Science": 25191,
  "Scient": 17895,
  "Scientists": 21308,
  "Score": 28300,
  "Scott": 16269,
  "Script": 8594,
  "Scroll": 24182,
  "Se": 6858,
  "Sean": 24228,
  "Search": 25675,
  "Season": 21346,
  "Seattle": 29516,
  "Sec": 7346,
  "Second": 11935,
  "Secret": 22347,
  "Secretary": 31251,
  "Section": 28963,
  "Security": 23351,
  "See": 6360,
  "Select": 26550,
  "Self": 28847,
  "Semit": 14240,
  "Semitic": 22599,
  "Semitism": 20971,
  "Sen": 8557,
  "Senate": 23191,
  "Senator": 23110,
  "Send": 30613,
  "Senior": 28304,
  "Sep": 14303,
  "September": 19488,
  "Ser": 13511,
  "Series": 31062,
  "Serv": 18408,
  "Server": 27812,
  "Service": 22826,
  "Set": 12833,
  "Seven": 27155,
  "Several": 12139,
  "Sex": 24778,
  "Sh": 3023,
  "Sham": 29218,
  "Share": 10694,
  "She": 3216,
  "Shell": 29598,
  "Sher": 25784,
  "Short": 17031,
  "Shortly": 24176,
  "Should": 18906,
  "Show": 20073,
  "Side": 28439,
  "Sign": 13535,
  "Sil": 17663,
  "Sim": 9546,
  "Similar": 26669,
  "Similarly": 23220,
  "Simon": 31241,
  "Since": 5518,
  "Sing": 27381,
  "Sir": 25136,
  "Six": 19188,
  "Size": 24336,
  "Sk": 23917,
  "Sky": 22887,
  "Sl": 15119,
  "Sm": 8609,
  "Small": 24488,
  "Smart": 26783,
  "Smith": 16137,
  "Sn": 23214,
  "Snow": 27889,
  "So": 2229,
  "Social": 18781,
  "Soft": 27833,
  "Some": 3861,
  "Someone": 25020,
  "Something": 20897,
  "Sometimes": 13685,
  "Sony": 28055,
  "Soon": 24074,
  "Sorry": 21730,
  "Sound": 26639,
  "Source": 8956,
  "Sources": 18566,
  "South": 13216,
  "Sov": 31542,
  "Soviet": 31946,
  "Sp": 5741,
  "Space": 18244,
  "Spe": 6180,
  "Speaking": 10569,
  "Special": 18260,
  "Sports": 15581,
  "Spot": 30476,
  "Squ": 28251,
  "St": 1632,
  "Stack": 28661,
  "Staff": 28027,
  "Stan": 28257,
  "Stand": 23892,
  "Star": 8169,
  "Stars": 30463,
  "Start": 13509,
  "Starting": 22297,
  "Stat": 28151,
  "State": 10326,
  "Station": 10460,
  "Stay": 24339,
  "Ste": 5571,
  "Step": 10578,
  "Stephen": 22931,
  "Steve": 17413,
  "Steven": 25109,
  "Still": 9160,
  "Stock": 28365,
  "Stop": 19401,
  "Story": 9666,
  "Str": 22482,
  "Stream": 23971,
  "String": 15787,
  "Stud": 13641,
  "Students": 26440,
  "Sty": 28880,
  "Su": 22667,
  "Sub": 7994,
  "Subject": 21191,
  "Subscribe": 18984,
  "Such": 14169,
  "Sum": 16236,
  "Summary": 26287,
  "Sun": 18970,
  "Sund": 21054,
  "Sunday": 22373,
  "Super": 14448,
  "Supp": 11204,
  "Support": 21039,
  "Sur": 15031,
  "Sure": 17572,
  "Sus": 27551,
  "Sw": 18706,
  "Swed": 31323,
  "Sy": 13615,
  "System": 23738,
  "T": 84,
  "TA": 6186,
  "TB": 23597,
  "TC": 5122,
  "TE": 10876,
  "TER": 9950,
  "TH": 5559,
  "THE": 11931,
  "TI": 25957,
  "TION": 13141,
  "TIS": 12157,
  "TL": 18967,
  "TM": 24985,
  "TO": 11353,
  "TON": 10453,
  "TOR": 26425,
  "TP": 9897,
  "TR": 10470,
  "TS": 6364,
  "TT": 19454,
  "TV": 5816,
  "TY": 17597,
  "Table": 16493,
  "Take": 12184,
  "Taking": 23338,
  "Tal": 29444,
  "Talk": 26251,
  "Target": 31146,
  "Tax": 27146,
  "Taylor": 29198,
  "Te": 6222,
  "Team": 16899,
  "Tech": 20915,
  "Techn": 25908,
  "Ted": 31588,
  "Tele": 27906,
  "Tell": 24520,
  "Tem": 22404,
  "Ten": 23291,
  "Ter": 15870,
  "Tes": 31791,
  "Test": 18458,
  "Tex": 15857,
  "Texas": 17859,
  "Text": 18142,
  "Th": 801,
  "Thank": 10685,
  "Thanks": 10354,
  "That": 2131,
  "The": 445,
  "Their": 12040,
  "Then": 6236,
  "There": 1644,
  "Therefore": 26755,
  "These": 4294,
  "They": 2523,
  "Things": 19444,
  "Think": 19140,
  "Third": 21430,
  "Thirty": 30797,
  "This": 1205,
  "Thomas": 19841,
  "Those": 7958,
  "Though": 9258,
  "Thousands": 28159,
  "Thread": 29123,
  "Three": 11103,
  "Through": 12818,
  "Throughout": 21032,
  "Thursday": 24116,
  "Thus": 18850,
  "Tim": 15357,
  "Time": 10603,
  "Times": 25209,
  "Tit": 23431,
  "Title": 28483,
  "To": 2702,
  "Today": 7385,
  "Tom": 13146,
  "Tony": 25216,
  "Too": 23914,
  "Top": 10186,
  "Topics": 21318,
  "Tor": 14017,
  "Toronto": 25771,
  "Torrent": 27770,
  "Total": 18006,
  "Tr": 3147,
  "Tra": 26404,
  "Track": 29990,
  "Trans": 10891,
  "Travel": 31621,
  "Tre": 26713,
  "Tri": 26385,
  "True": 22840,
  "Trump": 4946,
  "Try": 27482,
  "Ts": 25288,
  "Tube": 5999,
  "Tuesday": 24851,
  "Tumblr": 31956,
  "Tunes": 13911,
  "Tur": 14937,
  "Turkey": 24509,
  "Turn": 20422,
  "Tw": 16876,
  "Twenty": 28488,
  "Twitter": 12062,
  "Two": 6694,
  "Ty": 9972,
  "Type": 14039,
  "U": 85,
  "UB": 23626,
  "UC": 11245,
  "UCK": 23369,
  "UD": 12571,
  "UE": 13476,
  "UG": 19164,
  "UI": 13967,
  "UK": 16035,
  "UL": 7998,
  "ULL": 16910,
  "ULT": 30000,
  "UM": 13784,
  "UMP": 23977,
  "UN": 8101,
  "UP": 15874,
  "UPDATE": 13527,
  "UR": 7527,
  "URE": 19927,
  "US": 3140,
  "USA": 13687,
  "USD": 31736,
  "USE": 19949,
  "USH": 29363,
  "UST": 9063,
  "UT": 5890,
  "UTC": 19372,
  "UTERS": 12457,
  "Uk": 25001,
  "Ult": 16006,
  "Ultimately": 21074,
  "Un": 3935,
  "Under": 8377,
  "Unfortunately": 11771,
  "United": 16684,
  "University": 21383,
  "Unless": 26189,
  "Unlike": 15701,
  "Until": 15345,
  "Up": 5448,
  "Update": 10467,
  "Updated": 16139,
  "Upon": 20523,
  "Ur": 22682,
  "Us": 7964,
  "Use": 16467,
  "User": 18693,
  "Users": 28607,
  "Using": 13203,
  "Ut": 23598,
  "V": 86,
  "VA": 14877,
  "VC": 19415,
  "VD": 9730,
  "VE": 9167,
  "VEL": 26330,
  "VER": 7045,
  "VERTIS": 12623,
  "VI": 17139,
  "VID": 15322,
  "VIDIA": 22809,
  "VM": 16785,
  "VO": 30061,
  "VP": 10257,
  "VR": 15523,
  "Va": 31940,
  "Val": 13681,
  "Value": 21002,
  "Van": 24824,
  "Var": 30067,
  "Ve": 21075,
  "Ver": 15943,
  "Version": 28842,
  "Very": 19849,
  "Via": 23999,
  "Vict": 21064,
  "Video": 12915,
  "View": 10088,
  "Virgin": 30658,
  "Vis": 17923,
  "Vol": 21610,
  "Vs": 29063,
  "W": 87,
  "WA": 13878,
  "WAR": 27005,
  "WASHINGTON": 15981,
  "WATCH": 28273,
  "WC": 26976,
  "WE": 23401,
  "WH": 14438,
  "WN": 31797,
  "WR": 21035,
  "WS": 12548,
  "WW": 18664,
  "Wait": 22998,
  "Wal": 22648,
  "Wall": 22528,
  "Want": 19368,
  "War": 12066,
  "Ware": 31960,
  "Was": 18761,
  "Washington": 14991,
  "Watch": 9567,
  "Water": 22153,
  "Way": 25795,
  "We": 1031,
  "Web": 19083,
  "Wed": 22879,
  "Wednesday": 25547,
  "Week": 20362,
  "Welcome": 18547,
  "Well": 5691,
  "West": 13856,
  "Western": 21391,
  "Wh": 1156,
  "What": 2002,
  "Whatever": 18461,
  "Whe": 10438,
  "When": 2077,
  "Whenever": 29014,
  "Where": 8565,
  "Whether": 13427,
  "Which": 12622,
  "While": 3047,
  "White": 12024,
  "Who": 8176,
  "Why": 5016,
  "Wil": 20615,
  "Wild": 27167,
  "Will": 8452,
  "William": 23278,
  "Williams": 23046,
  "Wilson": 30523,
  "Win": 21244,
  "Wind": 15295,
  "Windows": 20370,
  "Wire": 30035,
  "With": 2984,
  "Within": 19287,
  "Without": 15605,
  "Women": 17307,
  "Wood": 26413,
  "Word": 31255,
  "Work": 13433,
  "Working": 26003,
  "Works": 23548,
  "World": 12000,
  "Would": 17898,
  "Wow": 21203,
  "Writ": 13976,
  "Write": 25463,
  "Writing": 27887,
  "Written": 24061,
  "X": 88,
  "XX": 12798,
  "Y": 89,
  "YS": 26834,
  "Yeah": 11144,
  "Year": 20747,
  "Yes": 6131,
  "Yesterday": 21247,
  "Yet": 9166,
  "You": 1817,
  "YouTube": 29959,
  "Young": 18991,
  "Your": 8942,
  "Z": 90,
  "[": 91,
  "['": 30110,
  "[/": 16184,
  "[]": 31760,
  "\\": 92,
  "\\\"": 25857,
  "\\)": 30155,
  "\\-": 20715,
  "\\/": 19877,
  "\\\\": 17466,
  "]": 93,
  "])": 16477,
  "],": 5821,
  "],\"": 28321,
  "],âĢĿ": 31617,
  "].": 5087,
  "]:": 12913,
  "];": 16541,
  "]<|": 12447,
  "][": 2987,
  "]]": 19815,
  "^": 94,
  "^{": 21040,
  "_": 95,
  "__": 1405,
  "___": 19798,
  "____": 2597,
  "________": 4553,
  "________________": 8284,
  "________________________________": 16695,
  "_{": 16906,
  "`": 96,
  "a": 97,
  "aa": 13184,
  "ab": 408,
  "aba": 15114,
  "abad": 14274,
  "abama": 7457,
  "abase": 22387,
  "abb": 5211,
  "abbing": 12452,
  "abe": 10721,
  "abee": 22396,
  "abel": 14491,
  "aber": 31724,
  "abet": 9931,
  "abetes": 12411,
  "abeth": 8768,
  "abi": 16581,
  "abil": 8354,
  "abilities": 5708,
  "ability": 1899,
  "abin": 5824,
  "abinet": 8033,
  "abis": 6820,
  "abit": 29854,
  "abl": 12943,
  "able": 574,
  "abled": 5889,
  "ables": 3381,
  "abling": 12331,
  "ablish": 17240,
  "ablished": 20538,
  "ablishment": 22108,
  "ablo": 16748,
  "ably": 1291,
  "abor": 3211,
  "abortion": 25129,
  "about": 11159,
  "abouts": 25509,
  "above": 28552,
  "abs": 7927,
  "abul": 13765,
  "abulary": 20641,
  "abwe": 19928,
  "aby": 4109,
  "abytes": 31613,
  "ac": 312,
  "aca": 21309,
  "acas": 31970,
  "acc": 6865,
  "accept": 11730,
  "acceptable": 13182,
  "access": 16984,
  "accessible": 30755,
  "acco": 9187,
  "account": 24052,
  "accur": 14821,
  "ace": 559,
  "acebook": 2302,
  "aced": 2289,
  "acent": 12960,
  "acer": 12561,
  "acerb": 18435,
  "aces": 2123,
  "aceutical": 13434,
  "acey": 22243,
  "ach": 632,
  "acha": 31680,
  "ache": 5840,
  "ached": 2446,
  "achel": 9894,
  "achelor": 19734,
  "acher": 9949,
  "achers": 15515,
  "aches": 3496,
  "achi": 18651,
  "achine": 24506,
  "aching": 8002,
  "achment": 11157,
  "acht": 17743,
  "achus": 8108,
  "achusetts": 8218,
  "acial": 21393,
  "acies": 12371,
  "acing": 4072,
  "acious": 13852,
  "acity": 4496,
  "aciÃ³n": 24793,
  "ack": 449,
  "acked": 7399,
  "acker": 13865,
  "ackers": 24038,
  "acket": 9073,
  "ackets": 27859,
  "acking": 6857,
  "acks": 5157,
  "acle": 6234,
  "acles": 10448,
  "aco": 11247,
  "acon": 8473,
  "aconian": 31005,
  "acre": 10409,
  "acs": 20707,
  "act": 506,
  "acted": 20033,
  "acter": 6061,
  "acters": 27768,
  "actic": 14073,
  "acting": 25329,
  "action": 2614,
  "actions": 7447,
  "activ": 18675,
  "active": 7552,
  "actively": 28179,
  "activity": 23706,
  "actly": 22892,
  "actor": 11302,
  "actory": 12644,
  "acts": 9520,
  "acular": 12349,
  "acy": 1486,
  "ad": 324,
  "ada": 4648,
  "adal": 28949,
  "adan": 24394,
  "adata": 17415,
  "adays": 17675,
  "add": 3343,
  "addafi": 17654,
  "adder": 31234,
  "addy": 14253,
  "ade": 675,
  "aded": 5168,
  "adel": 6643,
  "adelph": 7269,
  "adelphia": 7333,
  "adem": 3515,
  "adena": 31537,
  "adequ": 15202,
  "ader": 5175,
  "aders": 9923,
  "ades": 2254,
  "adesh": 10896,
  "adh": 18504,
  "adi": 10359,
  "adia": 27202,
  "adian": 17090,
  "adic": 22425,
  "adin": 27636,
  "ading": 4328,
  "aditional": 17233,
  "adium": 5077,
  "adjusted": 29640,
  "ado": 4038,
  "ador": 6129,
  "ados": 19712,
  "adow": 5778,
  "adows": 13352,
  "ads": 7122,
  "advant": 13130,
  "ady": 4593,
  "ae": 4332,
  "aed": 7574,
  "aeda": 8986,
  "ael": 2742,
  "af": 1977,
  "afa": 26201,
  "afe": 9282,
  "afer": 30329,
  "afety": 25907,
  "aff": 1449,
  "affe": 13825,
  "affeine": 22084,
  "affer": 26744,
  "affle": 30949,
  "afi": 12970,
  "afia": 20070,
  "afort": 19286,
  "aft": 20953,
  "after": 9589,
  "ag": 370,
  "aga": 9242,
  "again": 16312,
  "against": 27832,
  "agan": 6429,
  "agar": 29131,
  "age": 504,
  "aged": 1818,
  "agement": 2975,
  "agen": 10539,
  "agent": 23384,
  "ager": 2422,
  "agers": 6075,
  "ages": 1130,
  "agg": 8523,
  "agged": 14851,
  "agger": 9917,
  "aggering": 17092,
  "agging": 14460,
  "agh": 9622,
  "aghd": 13645,
  "agher": 24647,
  "agi": 24787,
  "agic": 9092,
  "agine": 11056,
  "aging": 2574,
  "agle": 18540,
  "agn": 4954,
  "agne": 19735,
  "agnetic": 22292,
  "ago": 3389,
  "agog": 28399,
  "agogue": 25670,
  "agon": 3519,
  "agonal": 27515,
  "agonist": 15230,
  "agram": 7236,
  "agrams": 31396,
  "agraph": 12169,
  "ags": 4246,
  "agu": 11864,
  "ague": 1743,
  "agues": 5038,
  "ah": 1026,
  "aha": 13936,
  "ahan": 15841,
  "ahar": 29945,
  "ahi": 31126,
  "ahl": 13471,
  "ahn": 14708,
  "aho": 15407,
  "ahon": 24373,
  "ahoo": 10952,
  "ahu": 9551,
  "ai": 2013,
  "aic": 19406,
  "aid": 1980,
  "aida": 23922,
  "aign": 1435,
  "ail": 611,
  "ailable": 10348,
  "ailand": 13953,
  "ailed": 9460,
  "ailing": 11711,
  "ails": 1914,
  "aily": 2887,
  "aim": 1286,
  "ain": 390,
  "aine": 5285,
  "ained": 1505,
  "ainer": 16565,
  "aining": 1571,
  "ains": 1377,
  "aint": 3642,
  "ainted": 15666,
  "aints": 5718,
  "air": 1006,
  "aird": 27933,
  "aire": 6917,
  "aired": 15072,
  "aires": 14852,
  "airo": 14686,
  "airs": 3512,
  "airy": 13306,
  "ais": 9461,
  "ait": 4703,
  "aith": 3960,
  "aj": 1142,
  "aja": 24766,
  "aji": 26719,
  "ajo": 25963,
  "ajor": 1346,
  "ak": 470,
  "aka": 8835,
  "akable": 28765,
  "ake": 539,
  "aked": 4213,
  "akedown": 26872,
  "aken": 1658,
  "akens": 28218,
  "aker": 3033,
  "akers": 3337,
  "akes": 1119,
  "akespe": 17456,
  "akespeare": 17703,
  "akh": 9832,
  "aki": 9970,
  "akin": 27793,
  "aking": 830,
  "akis": 22085,
  "akistan": 4586,
  "ako": 24491,
  "aks": 4322,
  "aku": 14248,
  "aky": 15090,
  "al": 283,
  "ala": 6331,
  "alach": 28221,
  "alan": 31846,
  "ald": 1802,
  "aldi": 31516,
  "ale": 1067,
  "aleb": 26679,
  "aled": 5687,
  "aleigh": 27023,
  "ales": 2038,
  "aley": 13875,
  "alez": 17787,
  "alf": 1561,
  "ali": 7670,
  "alia": 8987,
  "alian": 6479,
  "aliation": 19400,
  "alid": 12014,
  "alin": 14863,
  "aline": 22395,
  "aling": 5536,
  "alion": 19827,
  "alis": 28350,
  "alities": 25406,
  "ality": 1547,
  "alk": 966,
  "alker": 23243,
  "alking": 18643,
  "all": 447,
  "alla": 27148,
  "allah": 20669,
  "allas": 6771,
  "alle": 6802,
  "alled": 3027,
  "alleng": 29176,
  "allic": 23543,
  "alling": 9588,
  "allow": 15742,
  "alls": 5344,
  "ally": 453,
  "almost": 24089,
  "alo": 7035,
  "alog": 12990,
  "alogue": 28091,
  "alone": 17735,
  "along": 21783,
  "alph": 13972,
  "als": 873,
  "alse": 4092,
  "alsh": 17522,
  "also": 14441,
  "alt": 2622,
  "alth": 1082,
  "although": 15320,
  "alties": 9928,
  "alty": 6273,
  "aly": 3425,
  "alys": 29004,
  "alysis": 9885,
  "am": 323,
  "ama": 1287,
  "amac": 8787,
  "amacare": 8881,
  "aman": 12249,
  "amas": 15376,
  "amation": 15602,
  "amb": 3612,
  "amba": 28115,
  "amber": 7876,
  "ambers": 15695,
  "ambig": 25878,
  "ambled": 26543,
  "ambling": 11366,
  "ambo": 23447,
  "amboo": 29521,
  "ame": 491,
  "amed": 2030,
  "amel": 20346,
  "ament": 1861,
  "amental": 25323,
  "aments": 11054,
  "amer": 2197,
  "amera": 18869,
  "ames": 1017,
  "ami": 8096,
  "amic": 21209,
  "amiliar": 17674,
  "amily": 6682,
  "amin": 6135,
  "amina": 29387,
  "amination": 29251,
  "amine": 10798,
  "aminer": 25942,
  "aming": 3234,
  "amins": 27583,
  "amm": 4983,
  "ammad": 20407,
  "ammar": 16905,
  "ammed": 8589,
  "ammy": 23467,
  "amo": 15620,
  "amon": 17803,
  "among": 30780,
  "amoto": 23452,
  "amount": 18357,
  "amous": 9952,
  "amp": 674,
  "ampa": 11149,
  "amped": 15178,
  "amph": 26229,
  "amphetamine": 31342,
  "ampion": 5853,
  "ampions": 3516,
  "ampionship": 4549,
  "ampire": 18043,
  "ample": 1474,
  "amples": 18549,
  "amps": 13574,
  "ampton": 16515,
  "ams": 1864,
  "amsung": 8047,
  "amus": 26870,
  "amy": 15548,
  "an": 272,
  "ana": 2164,
  "analysis": 24770,
  "anamo": 23460,
  "anan": 23838,
  "anas": 17779,
  "anc": 1163,
  "ance": 604,
  "anced": 3213,
  "ancer": 18538,
  "ancers": 20345,
  "ances": 1831,
  "anch": 3470,
  "anche": 5364,
  "anches": 12044,
  "anchester": 7428,
  "anchez": 16391,
  "ancial": 2482,
  "ancies": 15872,
  "ancing": 4966,
  "anco": 25555,
  "ancouver": 8199,
  "ancy": 4733,
  "and": 388,
  "anda": 4882,
  "andal": 6411,
  "andals": 18075,
  "ande": 30570,
  "anded": 12261,
  "andem": 25893,
  "ander": 4342,
  "andi": 29800,
  "anding": 16794,
  "ando": 17102,
  "andom": 4559,
  "andon": 4646,
  "andra": 24764,
  "andro": 23925,
  "android": 30671,
  "ands": 1704,
  "andum": 24699,
  "andy": 12587,
  "ane": 1588,
  "aned": 19957,
  "aneous": 14514,
  "aneously": 26625,
  "anes": 6594,
  "aney": 18489,
  "ang": 669,
  "anga": 22943,
  "ange": 883,
  "anged": 5681,
  "angel": 8582,
  "anger": 2565,
  "angered": 15700,
  "angerous": 22338,
  "angers": 5843,
  "anges": 6873,
  "anging": 4720,
  "angle": 9874,
  "angled": 19512,
  "angles": 28177,
  "angling": 24300,
  "ango": 14963,
  "angu": 2338,
  "anguage": 11325,
  "anguard": 26158,
  "angular": 22005,
  "ani": 3228,
  "ania": 5026,
  "anic": 25767,
  "anie": 30877,
  "aniel": 5819,
  "anies": 16834,
  "anim": 10884,
  "aning": 7901,
  "anish": 6409,
  "anity": 19658,
  "anium": 13528,
  "ank": 970,
  "anka": 13387,
  "anke": 27714,
  "anked": 13288,
  "ankind": 29225,
  "anking": 12859,
  "anks": 2974,
  "ann": 1611,
  "anna": 8433,
  "annah": 25267,
  "anne": 15886,
  "annel": 4618,
  "annels": 8782,
  "anners": 18164,
  "anni": 27569,
  "annie": 30242,
  "annon": 9685,
  "anny": 7426,
  "ano": 5188,
  "anoia": 26770,
  "anol": 21170,
  "another": 27447,
  "anqu": 28291,
  "ans": 493,
  "ansas": 5934,
  "ansen": 29368,
  "ansing": 20593,
  "ansion": 5224,
  "ansk": 31906,
  "ansom": 18057,
  "anson": 19262,
  "ant": 424,
  "anta": 19027,
  "ante": 14130,
  "anted": 4591,
  "antha": 28454,
  "anthrop": 18569,
  "anti": 15002,
  "antic": 7764,
  "antically": 29652,
  "antics": 28170,
  "antine": 17623,
  "anting": 15046,
  "antle": 15568,
  "antly": 3882,
  "anto": 13638,
  "antom": 17914,
  "anton": 19198,
  "antry": 20786,
  "ants": 1213,
  "any": 1019,
  "anyahu": 11489,
  "anye": 22768,
  "anyon": 20718,
  "anz": 28024,
  "anza": 31354,
  "ao": 7073,
  "ap": 464,
  "apa": 31332,
  "apan": 2581,
  "ape": 2183,
  "aped": 5767,
  "apego": 31362,
  "aper": 2034,
  "apers": 5237,
  "apes": 7288,
  "apest": 30382,
  "aph": 3133,
  "api": 23228,
  "aping": 8911,
  "apolis": 9593,
  "apon": 29266,
  "apor": 14631,
  "apore": 10234,
  "app": 1328,
  "appa": 25332,
  "apped": 4853,
  "apper": 10872,
  "apping": 5653,
  "appings": 29933,
  "apple": 24715,
  "appointed": 26934,
  "appro": 15626,
  "appropri": 10393,
  "appropriate": 11997,
  "approved": 26160,
  "appy": 8216,
  "aps": 1584,
  "apse": 6832,
  "apsed": 31742,
  "apt": 2893,
  "apter": 5720,
  "aptic": 31018,
  "apture": 25924,
  "apy": 14162,
  "aq": 30682,
  "aqu": 22206,
  "aque": 17843,
  "ar": 284,
  "ara": 3521,
  "arag": 27890,
  "arak": 19392,
  "aran": 4516,
  "aration": 9757,
  "arations": 23526,
  "arc": 2460,
  "arcer": 15315,
  "arch": 990,
  "arching": 31008,
  "archs": 29801,
  "archy": 9143,
  "arcity": 27343,
  "arcraft": 28803,
  "ard": 458,
  "arded": 11549,
  "arden": 6296,
  "ardi": 18680,
  "arding": 14586,
  "ardless": 13238,
  "ardo": 10917,
  "ardon": 19665,
  "ards": 1448,
  "ardy": 31068,
  "are": 528,
  "area": 18940,
  "ared": 1126,
  "arel": 22158,
  "aren": 5146,
  "arency": 10118,
  "arendra": 21427,
  "arent": 1552,
  "arenthood": 13036,
  "arently": 11900,
  "arents": 12969,
  "arer": 11852,
  "ares": 3709,
  "arest": 13155,
  "aret": 8559,
  "areth": 24065,
  "arette": 14515,
  "arettes": 12748,
  "arez": 16001,
  "arg": 864,
  "arge": 1204,
  "arget": 10264,
  "argo": 8945,
  "ari": 3353,
  "aria": 9878,
  "arian": 3443,
  "arians": 11681,
  "ariat": 21225,
  "aries": 3095,
  "arily": 3011,
  "arin": 16679,
  "aring": 1602,
  "ario": 4524,
  "arios": 11712,
  "arious": 18982,
  "aris": 22871,
  "arity": 6968,
  "arium": 20450,
  "arius": 22199,
  "ark": 678,
  "arks": 5149,
  "arl": 6097,
  "arlier": 7870,
  "arly": 875,
  "arm": 2044,
  "arma": 12056,
  "armac": 31863,
  "armed": 11250,
  "arming": 14082,
  "arms": 8547,
  "arn": 6086,
  "aro": 10799,
  "aron": 7397,
  "around": 12853,
  "arp": 5643,
  "arr": 3360,
  "arrass": 8192,
  "array": 23866,
  "arre": 9382,
  "arrison": 21511,
  "arro": 29186,
  "arrow": 28016,
  "arry": 6929,
  "ars": 948,
  "arse": 17660,
  "arsh": 5078,
  "arson": 10642,
  "art": 428,
  "arta": 28577,
  "arted": 11114,
  "arten": 21498,
  "arter": 2291,
  "arters": 6049,
  "arth": 3084,
  "arthed": 30459,
  "arthy": 13499,
  "article": 22279,
  "articles": 27634,
  "artisan": 14338,
  "artment": 1684,
  "artney": 31041,
  "arts": 15083,
  "arty": 27820,
  "artz": 21625,
  "aru": 15751,
  "arus": 19680,
  "ary": 557,
  "as": 291,
  "asa": 16251,
  "asant": 9581,
  "asc": 3173,
  "ascal": 25134,
  "ascist": 26909,
  "ascript": 17775,
  "ascular": 17941,
  "ascus": 16696,
  "ase": 623,
  "ased": 825,
  "aser": 6910,
  "asers": 28801,
  "ases": 1437,
  "ash": 1144,
  "asha": 17926,
  "ashed": 5176,
  "ashes": 7627,
  "ashi": 15486,
  "ashing": 1855,
  "ashington": 2097,
  "ashion": 5498,
  "ashtra": 29324,
  "asi": 14502,
  "asia": 31930,
  "asing": 2144,
  "asio": 22752,
  "asion": 7760,
  "asis": 20814,
  "asive": 15865,
  "ask": 2306,
  "aska": 7751,
  "asket": 16878,
  "asketball": 22912,
  "asking": 26272,
  "asks": 6841,
  "asley": 31893,
  "asm": 14407,
  "asma": 15368,
  "ason": 820,
  "asonable": 17616,
  "asonic": 30047,
  "asons": 2549,
  "asp": 5706,
  "aspberry": 19391,
  "asper": 31071,
  "ass": 576,
  "assad": 28664,
  "assador": 8962,
  "assadors": 31481,
  "asse": 20018,
  "assed": 21831,
  "asser": 22613,
  "asses": 16400,
  "assic": 26561,
  "assing": 22828,
  "assion": 11263,
  "assis": 21256,
  "assium": 30521,
  "assuming": 30722,
  "assy": 9815,
  "ast": 473,
  "aste": 4319,
  "asted": 10757,
  "aster": 1871,
  "astered": 29317,
  "astern": 5856,
  "asters": 7169,
  "astery": 28323,
  "astic": 3502,
  "astical": 31304,
  "astically": 13446,
  "astics": 22186,
  "asting": 10510,
  "aston": 31129,
  "astrous": 15754,
  "asts": 7006,
  "asty": 8375,
  "asure": 6047,
  "asures": 15828,
  "asury": 9489,
  "asy": 4514,
  "at": 266,
  "ata": 1157,
  "atable": 16606,
  "atal": 12147,
  "atalie": 27530,
  "atar": 9349,
  "atch": 1016,
  "atched": 15301,
  "atcher": 31170,
  "atches": 26828,
  "atching": 17348,
  "ate": 368,
  "ated": 515,
  "ateful": 10857,
  "ateg": 2553,
  "ategory": 16843,
  "ategy": 3889,
  "atel": 20972,
  "atell": 6450,
  "atellite": 27013,
  "ately": 1269,
  "ater": 739,
  "ateral": 9794,
  "atered": 28476,
  "aterial": 2620,
  "atern": 9563,
  "aternal": 15599,
  "aternity": 16161,
  "aters": 13956,
  "ates": 677,
  "ateur": 13660,
  "atever": 3544,
  "atform": 3166,
  "ath": 842,
  "athan": 6179,
  "athe": 25804,
  "athed": 28431,
  "ather": 1038,
  "athered": 7784,
  "atherine": 13946,
  "athering": 25119,
  "athetic": 16365,
  "athing": 23484,
  "athom": 29109,
  "athon": 11953,
  "athy": 7625,
  "ati": 7063,
  "atible": 24007,
  "atic": 2039,
  "atical": 22805,
  "atically": 4482,
  "atican": 15116,
  "atics": 17089,
  "atile": 12556,
  "atility": 17270,
  "atin": 12392,
  "ating": 805,
  "atinum": 19773,
  "ation": 342,
  "ational": 795,
  "ationally": 12777,
  "ations": 589,
  "atisf": 16181,
  "atism": 19592,
  "ative": 859,
  "atively": 9941,
  "atives": 2637,
  "ativity": 19562,
  "atlantic": 31312,
  "ato": 5814,
  "atoes": 12199,
  "aton": 13904,
  "ator": 1559,
  "atorial": 17833,
  "atories": 18217,
  "atorium": 24686,
  "ators": 1988,
  "atory": 2949,
  "atra": 22932,
  "atre": 12423,
  "atri": 22386,
  "ats": 1676,
  "atsu": 25625,
  "att": 2300,
  "atta": 23842,
  "attack": 17502,
  "attacks": 29850,
  "atter": 11874,
  "attered": 10656,
  "attering": 19044,
  "atti": 27265,
  "attle": 3871,
  "attled": 23786,
  "atts": 24259,
  "atum": 30023,
  "atur": 2392,
  "atural": 2718,
  "aturally": 7531,
  "aturday": 3115,
  "ature": 1362,
  "atured": 20837,
  "atures": 5263,
  "aturing": 30114,
  "atus": 10466,
  "atz": 24269,
  "au": 555,
  "auc": 12646,
  "aucas": 22989,
  "aucus": 12053,
  "aucuses": 27362,
  "aud": 3687,
  "aude": 23378,
  "audi": 27192,
  "auer": 13862,
  "auf": 22899,
  "aug": 7057,
  "augh": 1564,
  "aughed": 14947,
  "aughs": 16337,
  "aught": 3336,
  "aughter": 3566,
  "aughtered": 29579,
  "aughters": 12174,
  "aukee": 12860,
  "aul": 2217,
  "ault": 2128,
  "aun": 7182,
  "aunch": 21537,
  "aunted": 24845,
  "aunting": 19358,
  "aur": 2895,
  "aura": 31190,
  "aus": 7948,
  "ause": 671,
  "ausible": 15258,
  "aut": 2556,
  "auth": 18221,
  "author": 9710,
  "authored": 31393,
  "authorized": 18766,
  "aution": 27474,
  "autions": 30437,
  "aux": 13836,
  "av": 625,
  "ava": 4794,
  "available": 16285,
  "aval": 8816,
  "avan": 20543,
  "ave": 1039,
  "aved": 9431,
  "aven": 5119,
  "aver": 9126,
  "average": 21611,
  "avers": 28892,
  "avery": 11790,
  "aves": 3310,
  "avez": 21813,
  "avi": 16411,
  "avier": 23493,
  "avin": 20260,
  "aving": 2642,
  "avior": 20336,
  "avoid": 25430,
  "avor": 6788,
  "avorite": 24230,
  "avour": 31741,
  "avy": 2911,
  "aw": 700,
  "awa": 6720,
  "aware": 8933,
  "awatts": 31769,
  "away": 8081,
  "aways": 20898,
  "awei": 27438,
  "awi": 19331,
  "awk": 24187,
  "awks": 10513,
  "awn": 5072,
  "aws": 12993,
  "ax": 968,
  "axies": 20337,
  "axis": 26503,
  "axy": 6963,
  "ay": 318,
  "aya": 11791,
  "ayan": 20642,
  "aye": 30578,
  "ayed": 12519,
  "ayer": 5193,
  "ayers": 6529,
  "ayette": 24399,
  "aying": 8115,
  "aylor": 6764,
  "ays": 566,
  "ayson": 28535,
  "az": 1060,
  "aza": 6169,
  "azar": 26845,
  "aze": 6784,
  "azed": 14161,
  "azeera": 19172,
  "azer": 19807,
  "azers": 25313,
  "azi": 6767,
  "azine": 4849,
  "azines": 14889,
  "azing": 4317,
  "azingly": 23540,
  "azon": 4649,
  "azor": 18491,
  "azy": 12768,
  "azz": 7856,
  "b": 98,
  "ba": 7985,
  "bable": 27786,
  "bably": 11726,
  "bach": 18011,
  "back": 1810,
  "backed": 13028,
  "backs": 8870,
  "bad": 15237,
  "bag": 21312,
  "bai": 23012,
  "bal": 7603,
  "balance": 20303,
  "balanced": 27498,
  "ball": 1732,
  "balls": 18065,
  "ban": 3427,
  "band": 3721,
  "bands": 21253,
  "bane": 18272,
  "bank": 18384,
  "bar": 6783,
  "bard": 19678,
  "bart": 12659,
  "bas": 18123,
  "base": 9807,
  "based": 2793,
  "bast": 18386,
  "bat": 11258,
  "baum": 21696,
  "bay": 30124,
  "bb": 16531,
  "bc": 25004,
  "be": 1359,
  "bean": 14044,
  "bearing": 28724,
  "beat": 11603,
  "bec": 8173,
  "because": 12501,
  "becca": 19251,
  "beck": 23893,
  "becue": 27217,
  "bed": 3108,
  "bedroom": 28844,
  "bee": 21371,
  "before": 21171,
  "begin": 31368,
  "beh": 20805,
  "being": 11151,
  "beit": 12984,
  "bel": 6795,
  "belie": 24550,
  "belief": 21938,
  "believ": 15920,
  "bell": 7892,
  "ben": 10758,
  "bench": 26758,
  "ber": 517,
  "bered": 9647,
  "berg": 3600,
  "berger": 18271,
  "berman": 26230,
  "bern": 27408,
  "bernatorial": 30775,
  "berra": 25919,
  "berries": 23486,
  "berry": 9392,
  "bers": 1158,
  "bert": 4394,
  "berto": 26670,
  "bery": 11436,
  "bes": 11442,
  "best": 12925,
  "bet": 11974,
  "better": 24378,
  "between": 23906,
  "bey": 22254,
  "bf": 28922,
  "bi": 8869,
  "bial": 20097,
  "bian": 11080,
  "bians": 26200,
  "bid": 25447,
  "bie": 12240,
  "big": 13115,
  "bike": 28467,
  "bil": 27948,
  "billion": 18570,
  "bilt": 29790,
  "bin": 10463,
  "binding": 31957,
  "bing": 9967,
  "bird": 19478,
  "birds": 31883,
  "birth": 25982,
  "bish": 27375,
  "bishop": 22519,
  "bit": 2640,
  "bitious": 11225,
  "bits": 9756,
  "bl": 2962,
  "black": 14372,
  "blank": 28991,
  "ble": 906,
  "bled": 19729,
  "blem": 14031,
  "blems": 24289,
  "bles": 12577,
  "bley": 31654,
  "blind": 29902,
  "bling": 18035,
  "block": 11401,
  "blog": 14455,
  "blood": 20501,
  "blown": 25714,
  "blue": 20458,
  "bn": 8443,
  "bnb": 26178,
  "bo": 2420,
  "board": 3723,
  "boarding": 21529,
  "boards": 12383,
  "boat": 23620,
  "body": 2366,
  "bomb": 28902,
  "bon": 3949,
  "bone": 15392,
  "bons": 21963,
  "book": 1812,
  "books": 10649,
  "boot": 26907,
  "bor": 2727,
  "border": 22938,
  "borg": 25693,
  "borhood": 29117,
  "born": 6391,
  "borne": 12295,
  "boro": 21150,
  "borough": 14704,
  "bot": 15890,
  "both": 16420,
  "bottom": 27115,
  "bound": 10706,
  "bour": 4809,
  "bourg": 22009,
  "bourne": 10408,
  "bow": 9342,
  "bows": 28511,
  "box": 3826,
  "boy": 6872,
  "boys": 11378,
  "bps": 19250,
  "br": 1722,
  "bra": 16940,
  "brain": 28324,
  "bral": 25695,
  "brance": 31004,
  "brand": 20043,
  "branded": 28986,
  "braska": 15419,
  "bre": 4807,
  "bread": 30422,
  "break": 9391,
  "breaker": 27613,
  "breaking": 11145,
  "breaks": 26136,
  "brew": 12513,
  "brid": 10053,
  "bridge": 9105,
  "bright": 29110,
  "bringing": 29555,
  "bro": 7778,
  "broken": 23554,
  "brook": 17767,
  "brow": 31238,
  "bs": 1577,
  "bsite": 14854,
  "bsp": 27407,
  "bt": 26913,
  "bu": 12357,
  "buck": 29730,
  "bucks": 18279,
  "budget": 28539,
  "build": 15300,
  "building": 15048,
  "built": 19152,
  "bul": 14498,
  "bull": 13676,
  "bum": 3741,
  "buquerque": 29859,
  "bur": 6136,
  "burg": 6837,
  "burgh": 7982,
  "burn": 11895,
  "bury": 9704,
  "bus": 18520,
  "business": 19974,
  "buster": 20483,
  "busters": 24786,
  "but": 4605,
  "button": 23010,
  "buy": 27195,
  "by": 1558,
  "bye": 16662,
  "byn": 12235,
  "c": 99,
  "ca": 8190,
  "cair": 29666,
  "cal": 10750,
  "call": 16308,
  "called": 5930,
  "cam": 21469,
  "camera": 23226,
  "camp": 17709,
  "can": 6002,
  "cann": 29325,
  "cano": 21931,
  "cap": 10883,
  "capital": 23270,
  "caps": 25382,
  "car": 7957,
  "carbon": 24889,
  "card": 11281,
  "cards": 31409,
  "care": 5800,
  "carry": 30764,
  "cars": 31001,
  "cart": 31990,
  "cas": 27181,
  "case": 8498,
  "cast": 2712,
  "caster": 30598,
  "casting": 20175,
  "castle": 15095,
  "cat": 11709,
  "cation": 25324,
  "cats": 23143,
  "cause": 24416,
  "cc": 531,
  "cca": 13699,
  "ccess": 1526,
  "ccording": 2416,
  "cd": 16310,
  "ce": 346,
  "cean": 5423,
  "ceans": 16841,
  "ced": 773,
  "cedented": 9673,
  "cedes": 15709,
  "ceed": 2989,
  "ceived": 6641,
  "cel": 5519,
  "celer": 6994,
  "cell": 4238,
  "celona": 11601,
  "cember": 2935,
  "cence": 31811,
  "cend": 13616,
  "cent": 1023,
  "center": 20377,
  "centric": 22984,
  "century": 11501,
  "cept": 1048,
  "ception": 4744,
  "ceptions": 9523,
  "ceptive": 23713,
  "cer": 1057,
  "cers": 7038,
  "cert": 31434,
  "certain": 6528,
  "cery": 31388,
  "ces": 728,
  "cess": 979,
  "cest": 9663,
  "cester": 28583,
  "cf": 22057,
  "ch": 354,
  "cha": 13672,
  "chain": 7507,
  "chair": 14509,
  "chan": 3605,
  "change": 3847,
  "changing": 19818,
  "channel": 29298,
  "chant": 16863,
  "char": 13351,
  "character": 22949,
  "chard": 28368,
  "charg": 11554,
  "charge": 12579,
  "charged": 16796,
  "charging": 30982,
  "chat": 18584,
  "che": 2623,
  "check": 10163,
  "checked": 25556,
  "ched": 1653,
  "chedel": 19915,
  "chel": 27355,
  "chell": 10600,
  "chem": 19566,
  "chemical": 31734,
  "chen": 6567,
  "chens": 23969,
  "cher": 4190,
  "chers": 6602,
  "ches": 2103,
  "chet": 24353,
  "chewan": 23175,
  "chi": 12846,
  "chie": 2896,
  "chief": 15907,
  "child": 9741,
  "children": 16061,
  "chin": 23177,
  "ching": 10433,
  "chn": 1272,
  "chnology": 17505,
  "cho": 6418,
  "choice": 22097,
  "chool": 1172,
  "chron": 12153,
  "cht": 18594,
  "church": 30103,
  "chy": 28517,
  "ci": 1056,
  "cia": 30644,
  "cial": 2494,
  "cially": 1971,
  "ciation": 18738,
  "cience": 4293,
  "cient": 3659,
  "cier": 27567,
  "cies": 3043,
  "cific": 8386,
  "cifically": 17247,
  "cified": 20885,
  "cig": 20028,
  "cigarettes": 27059,
  "cil": 2534,
  "cill": 14814,
  "cin": 19945,
  "cing": 2120,
  "cious": 5148,
  "ciously": 18824,
  "cip": 25102,
  "cipl": 19703,
  "cipled": 31676,
  "ciples": 7037,
  "circ": 21898,
  "cision": 19265,
  "citation": 11194,
  "city": 21585,
  "cium": 22174,
  "ck": 731,
  "cker": 13487,
  "cknow": 4726,
  "cks": 4863,
  "cl": 1259,
  "clad": 31784,
  "claim": 8601,
  "claimed": 13317,
  "clair": 24331,
  "clamation": 24476,
  "class": 5400,
  "cle": 3028,
  "clean": 28222,
  "clear": 25895,
  "cled": 20545,
  "cles": 7703,
  "click": 15855,
  "client": 26283,
  "cliffe": 30942,
  "cling": 7698,
  "clipse": 31374,
  "clock": 18561,
  "close": 22591,
  "closed": 14649,
  "closure": 13830,
  "cloud": 24877,
  "club": 17376,
  "clus": 2789,
  "clusion": 14652,
  "clusive": 16281,
  "cm": 15836,
  "co": 1312,
  "coal": 28616,
  "cock": 18393,
  "cod": 21788,
  "code": 11963,
  "coh": 5221,
  "cohol": 5582,
  "coholic": 22222,
  "coin": 3386,
  "coins": 13408,
  "col": 5613,
  "coll": 21520,
  "collar": 28215,
  "colm": 15947,
  "color": 15439,
  "colored": 26216,
  "com": 913,
  "comb": 21975,
  "come": 3069,
  "comed": 12367,
  "comes": 8985,
  "comfort": 19546,
  "coming": 4345,
  "comings": 25235,
  "comm": 14551,
  "comment": 24308,
  "comments": 31105,
  "commerce": 22713,
  "committee": 22759,
  "common": 19082,
  "commun": 10620,
  "communication": 31622,
  "communications": 19053,
  "community": 30453,
  "comp": 11429,
  "compass": 16113,
  "compet": 22552,
  "compl": 23367,
  "complete": 19814,
  "computer": 29102,
  "con": 1058,
  "cond": 18318,
  "condition": 31978,
  "conf": 8959,
  "conference": 31624,
  "config": 18971,
  "coni": 30139,
  "connect": 12441,
  "connected": 17961,
  "conom": 1279,
  "cons": 6023,
  "conscious": 18188,
  "const": 9777,
  "constitutional": 14978,
  "consuming": 30057,
  "cont": 4198,
  "content": 16656,
  "contin": 25646,
  "continental": 30111,
  "contract": 27509,
  "control": 15199,
  "controlled": 12607,
  "cook": 31947,
  "cool": 24337,
  "coon": 29543,
  "cop": 27973,
  "cor": 10374,
  "core": 8316,
  "corn": 23616,
  "correct": 30133,
  "cos": 5979,
  "cost": 14801,
  "cosystem": 9962,
  "cot": 19921,
  "cott": 11540,
  "could": 20947,
  "count": 11830,
  "counter": 23153,
  "country": 21406,
  "course": 20032,
  "court": 17430,
  "cover": 8621,
  "covered": 29601,
  "covery": 16122,
  "cow": 7086,
  "cp": 24086,
  "cr": 7744,
  "cracy": 19318,
  "craft": 3725,
  "crat": 12675,
  "cre": 10401,
  "creat": 22926,
  "create": 21421,
  "created": 25215,
  "crib": 9106,
  "cribed": 13261,
  "crime": 23210,
  "cript": 7001,
  "cription": 7997,
  "criptions": 22365,
  "critical": 23138,
  "cro": 21254,
  "croft": 31486,
  "cross": 21544,
  "cry": 15146,
  "cs": 13421,
  "css": 31984,
  "ct": 332,
  "cted": 18922,
  "ctic": 9011,
  "ctica": 23117,
  "ction": 631,
  "ctions": 2833,
  "ctive": 12086,
  "ctor": 2643,
  "ctors": 4567,
  "ctory": 25361,
  "ctr": 9219,
  "ctuary": 29578,
  "cu": 28249,
  "cue": 19329,
  "cul": 3732,
  "cular": 11542,
  "culation": 15669,
  "cule": 21671,
  "cules": 14050,
  "cultural": 26482,
  "culture": 21269,
  "culus": 15663,
  "cup": 28684,
  "cur": 19615,
  "current": 16605,
  "cus": 7747,
  "custom": 30234,
  "cut": 9184,
  "cuts": 23719,
  "cutting": 25167,
  "cy": 971,
  "cycl": 18815,
  "cycle": 29646,
  "cyclop": 25686,
  "cyclopedia": 29250,
  "cz": 27517,
  "cÃ©": 26808,
  "d": 100,
  "da": 7850,
  "daily": 27227,
  "dain": 22796,
  "dale": 12949,
  "dam": 12210,
  "dan": 24023,
  "dar": 26064,
  "dark": 25704,
  "dat": 28305,
  "data": 11839,
  "date": 6039,
  "dated": 8819,
  "dates": 24525,
  "daughter": 27644,
  "day": 742,
  "days": 13813,
  "db": 14956,
  "dc": 30350,
  "dd": 2110,
  "dden": 4957,
  "dding": 30227,
  "de": 3151,
  "dead": 24737,
  "deal": 27082,
  "death": 22012,
  "deb": 16809,
  "dec": 12648,
  "ded": 9377,
  "deen": 31762,
  "deep": 19193,
  "def": 6089,
  "default": 23530,
  "defense": 17693,
  "define": 30082,
  "defined": 25299,
  "degree": 14477,
  "del": 14795,
  "dem": 8414,
  "demand": 24949,
  "den": 5280,
  "dep": 10984,
  "dependent": 22539,
  "depth": 17947,
  "der": 1153,
  "des": 8839,
  "desc": 16472,
  "described": 28868,
  "description": 29875,
  "design": 26097,
  "designed": 26804,
  "dest": 17946,
  "det": 19510,
  "deter": 21906,
  "dev": 11861,
  "develop": 15621,
  "developed": 28080,
  "df": 11324,
  "di": 12937,
  "dict": 11024,
  "did": 19575,
  "die": 15296,
  "dies": 22316,
  "dig": 13310,
  "digit": 23997,
  "dimensional": 18117,
  "din": 21629,
  "ding": 12472,
  "dir": 27753,
  "direct": 13227,
  "directed": 28954,
  "director": 27549,
  "dis": 6384,
  "disc": 15033,
  "discipl": 29681,
  "display": 13788,
  "displaystyle": 17972,
  "dist": 18466,
  "distance": 29538,
  "dit": 8644,
  "div": 9601,
  "division": 30151,
  "dney": 9019,
  "do": 4702,
  "doc": 21227,
  "document": 27807,
  "does": 21169,
  "dog": 9032,
  "dogs": 21351,
  "doing": 16021,
  "dollar": 17432,
  "dom": 3900,
  "dominated": 26198,
  "don": 9381,
  "done": 29403,
  "door": 9013,
  "doors": 19222,
  "dot": 28617,
  "dou": 24530,
  "double": 27133,
  "down": 2925,
  "download": 27746,
  "dr": 10979,
  "dragon": 27929,
  "draw": 25956,
  "dream": 29189,
  "dri": 8713,
  "drive": 24268,
  "driven": 13463,
  "driving": 18552,
  "dro": 6978,
  "drop": 12645,
  "dropping": 30488,
  "drug": 28064,
  "ds": 10341,
  "du": 655,
  "duc": 6346,
  "duct": 2476,
  "ducted": 20479,
  "duction": 10017,
  "due": 21728,
  "duino": 26496,
  "dule": 5896,
  "dullah": 18932,
  "duty": 23120,
  "dy": 10120,
  "e": 101,
  "ea": 25454,
  "each": 30454,
  "ead": 1323,
  "eah": 4936,
  "eal": 2201,
  "ealous": 16209,
  "eals": 9540,
  "ean": 3909,
  "eanor": 17314,
  "ear": 465,
  "earance": 31192,
  "earch": 4111,
  "earchers": 13279,
  "eared": 3153,
  "earing": 7282,
  "early": 10474,
  "ears": 4463,
  "earth": 18804,
  "eas": 26654,
  "east": 13994,
  "eat": 28601,
  "eating": 26575,
  "eb": 1931,
  "ebus": 25899,
  "ec": 765,
  "eca": 29450,
  "ecause": 3049,
  "ecd": 18487,
  "ech": 2739,
  "eches": 13847,
  "econom": 12545,
  "economic": 15447,
  "ect": 523,
  "ected": 16128,
  "ection": 8624,
  "ective": 9222,
  "ector": 13984,
  "ects": 11550,
  "ecut": 8240,
  "ecutive": 9016,
  "ed": 275,
  "edIn": 16550,
  "eda": 22359,
  "edd": 5784,
  "eddy": 22634,
  "ede": 16514,
  "eded": 12826,
  "eder": 5356,
  "ederal": 1814,
  "ederation": 9265,
  "edge": 14861,
  "edia": 5646,
  "edience": 21994,
  "edin": 20281,
  "eding": 8765,
  "edition": 28972,
  "edo": 26022,
  "eds": 5602,
  "edu": 20455,
  "educ": 15960,
  "educated": 21859,
  "edy": 6195,
  "ee": 1755,
  "eed": 2931,
  "eeks": 26694,
  "een": 9997,
  "eer": 27849,
  "ees": 2889,
  "ef": 978,
  "efe": 18032,
  "efeated": 29000,
  "eff": 3220,
  "effect": 28007,
  "effective": 26352,
  "efficient": 21896,
  "efined": 22627,
  "efully": 6539,
  "eg": 21903,
  "ei": 18931,
  "eight": 24470,
  "either": 31738,
  "ek": 926,
  "eking": 18243,
  "eks": 2325,
  "el": 430,
  "ela": 9306,
  "elaide": 19171,
  "eland": 8423,
  "elcome": 11930,
  "ele": 9571,
  "elect": 7863,
  "elected": 20687,
  "election": 10568,
  "electric": 25399,
  "eled": 17340,
  "eless": 5118,
  "elf": 14604,
  "elia": 30096,
  "eligible": 29096,
  "elin": 24718,
  "eline": 4349,
  "elines": 17956,
  "eling": 10381,
  "ell": 969,
  "ella": 14535,
  "ellar": 14463,
  "ellation": 26226,
  "elle": 10991,
  "elled": 17825,
  "eller": 11829,
  "elli": 26588,
  "elling": 15714,
  "ello": 11736,
  "ellow": 6006,
  "elly": 5815,
  "elman": 27070,
  "elo": 23558,
  "elong": 17916,
  "els": 1536,
  "elsen": 21262,
  "elsh": 17269,
  "elsius": 28050,
  "elson": 9375,
  "elt": 2102,
  "elta": 13281,
  "elve": 10749,
  "em": 433,
  "ema": 21478,
  "emade": 21487,
  "email": 15004,
  "emaker": 30977,
  "emale": 15692,
  "eman": 8030,
  "emb": 25742,
  "embed": 31860,
  "ember": 2588,
  "emed": 9264,
  "emen": 7419,
  "emer": 21757,
  "emet": 16707,
  "emetery": 16949,
  "emic": 10002,
  "emies": 30740,
  "emin": 11907,
  "eming": 28442,
  "emit": 11792,
  "emon": 23547,
  "employ": 5855,
  "employment": 28520,
  "empt": 17595,
  "emption": 19588,
  "ems": 7859,
  "emy": 21680,
  "en": 268,
  "ena": 6507,
  "enable": 29974,
  "enabled": 27116,
  "ename": 22920,
  "enary": 23428,
  "enas": 28989,
  "enberg": 20729,
  "enburg": 31340,
  "enc": 13226,
  "ence": 584,
  "enced": 5283,
  "encer": 11964,
  "ences": 2963,
  "ench": 25749,
  "encia": 22400,
  "encies": 3744,
  "encing": 9008,
  "ency": 1336,
  "end": 396,
  "enda": 6037,
  "endant": 27978,
  "endar": 10320,
  "endas": 28182,
  "ended": 1717,
  "ender": 2263,
  "endered": 26528,
  "enders": 7078,
  "endez": 29977,
  "ending": 1495,
  "endment": 5401,
  "endo": 28755,
  "endof": 702,
  "endoftext": 703,
  "endon": 31489,
  "endor": 29720,
  "ends": 2591,
  "ene": 1694,
  "ened": 2914,
  "ener": 911,
  "eneration": 18241,
  "energy": 18426,
  "enery": 26306,
  "enes": 18950,
  "eness": 10219,
  "enez": 9241,
  "enezuel": 10081,
  "enf": 24500,
  "enfranch": 30099,
  "eng": 1606,
  "enge": 3348,
  "engeance": 26507,
  "enger": 6123,
  "engers": 8089,
  "engine": 18657,
  "ength": 3946,
  "engu": 13754,
  "enh": 23621,
  "ening": 3000,
  "enko": 25945,
  "enly": 17423,
  "enment": 21548,
  "enn": 1727,
  "enna": 12946,
  "enne": 28541,
  "ennial": 24608,
  "ennis": 9240,
  "enny": 8179,
  "eno": 25725,
  "enos": 25797,
  "ens": 641,
  "ense": 1076,
  "ensed": 17096,
  "ensen": 16753,
  "enses": 4885,
  "ensible": 28743,
  "ensing": 29160,
  "ension": 3230,
  "ensions": 5660,
  "ensitive": 28286,
  "ensity": 6776,
  "ensive": 1813,
  "enson": 16246,
  "ensor": 31270,
  "ensual": 28505,
  "ensus": 6569,
  "ent": 299,
  "ental": 10167,
  "ente": 20384,
  "ented": 4214,
  "enter": 9426,
  "enth": 7865,
  "enthal": 29413,
  "ential": 1725,
  "entially": 3225,
  "entials": 14358,
  "entin": 31139,
  "enting": 29965,
  "ention": 1160,
  "entions": 14931,
  "ently": 2185,
  "enton": 23850,
  "entric": 21357,
  "entry": 18212,
  "ents": 755,
  "enture": 6026,
  "enty": 3658,
  "env": 31036,
  "enz": 17049,
  "enza": 22144,
  "enzie": 22076,
  "eon": 24235,
  "eor": 12903,
  "ep": 513,
  "epend": 2419,
  "ependence": 14102,
  "ependent": 7883,
  "epernick": 22484,
  "eping": 7168,
  "eprint": 18475,
  "eps": 26683,
  "ept": 7378,
  "eption": 22716,
  "equ": 4635,
  "er": 263,
  "era": 7578,
  "eral": 1539,
  "erala": 27249,
  "erald": 11298,
  "erals": 16062,
  "erate": 27208,
  "erc": 3287,
  "ercise": 27423,
  "ere": 657,
  "ered": 1143,
  "eree": 18041,
  "erek": 15996,
  "erem": 29700,
  "eremy": 9724,
  "eren": 16715,
  "erence": 1930,
  "erences": 4937,
  "erent": 9800,
  "erential": 29310,
  "erer": 13389,
  "erers": 18726,
  "erg": 9137,
  "ergy": 29743,
  "eria": 9766,
  "erie": 18513,
  "eries": 8893,
  "ering": 1344,
  "erion": 29477,
  "erk": 20421,
  "erm": 20578,
  "erman": 1955,
  "ern": 1535,
  "ername": 20225,
  "ernand": 11050,
  "ernandez": 15308,
  "ernaut": 31901,
  "ernel": 11750,
  "erness": 17643,
  "ernick": 21645,
  "erno": 31649,
  "ero": 3729,
  "eroids": 30077,
  "eros": 26473,
  "erous": 5102,
  "err": 11555,
  "error": 26762,
  "erry": 5817,
  "ers": 360,
  "ersion": 12003,
  "erson": 914,
  "ert": 2000,
  "ertain": 1458,
  "ertainly": 16187,
  "erted": 8863,
  "erting": 15511,
  "erts": 9283,
  "erv": 1262,
  "ervation": 13990,
  "ervative": 17606,
  "ervatives": 28681,
  "erve": 3621,
  "erved": 5748,
  "erves": 6470,
  "erving": 12465,
  "ery": 2267,
  "es": 276,
  "esame": 31159,
  "esar": 18580,
  "esc": 6637,
  "escope": 16085,
  "ese": 2830,
  "esh": 8719,
  "esides": 12010,
  "esis": 13268,
  "esity": 13893,
  "esome": 6109,
  "eson": 31585,
  "especially": 15253,
  "esque": 23468,
  "ess": 413,
  "essa": 21190,
  "essage": 17380,
  "esse": 29311,
  "essed": 7400,
  "essee": 9558,
  "essential": 27368,
  "essim": 23513,
  "ession": 2973,
  "essional": 13469,
  "essions": 5610,
  "essler": 27773,
  "essment": 24115,
  "essor": 5967,
  "essors": 19951,
  "est": 384,
  "esta": 16218,
  "established": 23635,
  "estation": 31321,
  "este": 17138,
  "ested": 10244,
  "esteem": 28501,
  "ester": 8266,
  "estern": 2966,
  "esters": 5782,
  "estial": 28391,
  "estic": 4216,
  "estinal": 25008,
  "estine": 20110,
  "estival": 5788,
  "eston": 17121,
  "estone": 12739,
  "estones": 28716,
  "ests": 2723,
  "esty": 8939,
  "estyle": 10247,
  "esville": 17148,
  "esy": 7443,
  "et": 322,
  "eta": 16805,
  "etary": 7637,
  "etc": 20107,
  "ete": 15264,
  "eted": 20176,
  "eteen": 30784,
  "eteenth": 25017,
  "eter": 2624,
  "etermined": 28397,
  "eters": 8983,
  "eth": 3155,
  "ethe": 9635,
  "etheless": 10959,
  "ether": 6838,
  "ethical": 26602,
  "ethyl": 30033,
  "etic": 5499,
  "etics": 23198,
  "eties": 25799,
  "etime": 7835,
  "eting": 13975,
  "etition": 16141,
  "etitive": 20493,
  "eto": 31101,
  "eton": 16640,
  "etooth": 17325,
  "etr": 22864,
  "etro": 3736,
  "etroit": 6404,
  "ets": 1062,
  "etsk": 25155,
  "ett": 3405,
  "etta": 14049,
  "ette": 5769,
  "ettes": 23265,
  "etti": 21497,
  "ettings": 20629,
  "etts": 7924,
  "etty": 4276,
  "etus": 25721,
  "ety": 2876,
  "etz": 18972,
  "eu": 12904,
  "eur": 24035,
  "ev": 2048,
  "eval": 19597,
  "even": 9749,
  "event": 20511,
  "ever": 991,
  "everal": 7496,
  "every": 15526,
  "evil": 23903,
  "evin": 5904,
  "ew": 562,
  "eway": 17673,
  "eworthy": 22882,
  "ews": 16546,
  "ex": 1139,
  "example": 28571,
  "exc": 27256,
  "except": 19605,
  "exe": 24790,
  "existent": 28890,
  "existing": 22662,
  "exp": 14817,
  "exper": 21601,
  "expl": 21617,
  "ext": 10626,
  "extreme": 23208,
  "extremely": 30906,
  "ey": 4897,
  "eye": 27599,
  "eyed": 18175,
  "ez": 7949,
  "f": 102,
  "fa": 18717,
  "face": 2939,
  "facebook": 22333,
  "faced": 22265,
  "facing": 25099,
  "fact": 19935,
  "fair": 18599,
  "fake": 26256,
  "fall": 7685,
  "falls": 20894,
  "false": 21061,
  "family": 18891,
  "fan": 16576,
  "far": 15141,
  "fare": 8205,
  "fashion": 22242,
  "fashioned": 24209,
  "fast": 7206,
  "fat": 24088,
  "father": 10622,
  "fax": 19599,
  "fc": 31884,
  "fd": 29799,
  "fe": 5194,
  "fect": 2536,
  "fed": 23534,
  "feed": 15174,
  "feeding": 25570,
  "feld": 13708,
  "fell": 23600,
  "felt": 28110,
  "female": 28647,
  "femin": 29876,
  "fer": 2578,
  "ference": 4614,
  "fest": 24266,
  "fet": 27214,
  "few": 27523,
  "ff": 497,
  "ffield": 24338,
  "ffiti": 20591,
  "fi": 12207,
  "fiction": 22081,
  "field": 3059,
  "fields": 28518,
  "fif": 29271,
  "fig": 22640,
  "fight": 20979,
  "fighting": 25638,
  "figure": 24938,
  "fil": 13840,
  "file": 12243,
  "files": 26596,
  "fill": 21394,
  "filled": 18329,
  "film": 25634,
  "fin": 15643,
  "final": 18087,
  "finals": 23432,
  "find": 25137,
  "finder": 29406,
  "fing": 31961,
  "fire": 6981,
  "fired": 20982,
  "fires": 22587,
  "first": 11447,
  "fish": 11210,
  "fit": 10398,
  "fits": 19118,
  "fitting": 30070,
  "five": 13199,
  "fix": 17496,
  "fl": 3122,
  "flation": 28657,
  "flies": 28549,
  "flight": 19865,
  "flix": 8812,
  "float": 26354,
  "floor": 26759,
  "flow": 12092,
  "flower": 29037,
  "flu": 16424,
  "fly": 13570,
  "focused": 21780,
  "fol": 9203,
  "fold": 13626,
  "folk": 20474,
  "follow": 27799,
  "font": 27499,
  "foo": 28862,
  "food": 19281,
  "foot": 6677,
  "for": 1638,
  "force": 2988,
  "forcement": 12951,
  "ford": 3464,
  "fore": 779,
  "forest": 30231,
  "forestation": 31271,
  "form": 717,
  "formance": 11896,
  "format": 29433,
  "formation": 4825,
  "formed": 12257,
  "former": 11652,
  "formers": 25777,
  "forming": 14603,
  "forms": 27797,
  "fort": 3423,
  "forth": 24659,
  "fortunately": 6295,
  "forward": 11146,
  "found": 8166,
  "founded": 23244,
  "founder": 12736,
  "four": 14095,
  "fox": 13026,
  "fr": 9859,
  "frac": 21495,
  "frame": 15251,
  "fre": 28116,
  "free": 5829,
  "frey": 30879,
  "fried": 29628,
  "friend": 6547,
  "friendly": 11370,
  "from": 7597,
  "front": 7724,
  "fs": 12758,
  "ft": 729,
  "ften": 14426,
  "fter": 617,
  "ftime": 26478,
  "fu": 27758,
  "fuel": 25822,
  "ful": 922,
  "full": 15668,
  "fully": 2834,
  "fulness": 15738,
  "fun": 18618,
  "function": 10767,
  "fund": 9107,
  "funded": 14027,
  "funding": 20075,
  "furt": 24402,
  "fy": 27111,
  "g": 103,
  "ga": 4673,
  "gaard": 28798,
  "gae": 21411,
  "gage": 21384,
  "gal": 10492,
  "galitarian": 31786,
  "gall": 23847,
  "gam": 25506,
  "game": 6477,
  "games": 28039,
  "gan": 946,
  "gang": 26767,
  "gar": 4968,
  "gard": 23346,
  "gars": 26125,
  "gary": 12213,
  "gas": 6544,
  "gat": 28975,
  "gate": 10609,
  "gay": 18157,
  "ge": 480,
  "geant": 25858,
  "gebra": 29319,
  "ged": 1938,
  "gel": 14132,
  "gem": 19242,
  "gen": 4199,
  "gence": 11690,
  "gencies": 30957,
  "gency": 4595,
  "gender": 6953,
  "gener": 8080,
  "general": 22181,
  "generated": 28301,
  "generation": 15793,
  "gent": 6167,
  "gently": 28982,
  "geon": 8614,
  "geoning": 26324,
  "geons": 31428,
  "ger": 1395,
  "gerald": 22170,
  "gered": 9825,
  "geries": 25065,
  "gering": 23144,
  "gers": 4894,
  "gery": 6851,
  "ges": 3088,
  "gest": 2979,
  "get": 1138,
  "gether": 1901,
  "getown": 23816,
  "gets": 10454,
  "gg": 1015,
  "gged": 10964,
  "gger": 20352,
  "ggest": 1773,
  "ggie": 20114,
  "gging": 17539,
  "ggle": 15939,
  "ggles": 31612,
  "ggy": 18529,
  "gh": 462,
  "ghai": 16625,
  "ghan": 4442,
  "ghazi": 16714,
  "gi": 13285,
  "gia": 6067,
  "gian": 13095,
  "gic": 24430,
  "gie": 20193,
  "giene": 27550,
  "gin": 1624,
  "ging": 2713,
  "gio": 21939,
  "girl": 17564,
  "git": 24167,
  "github": 22835,
  "give": 30107,
  "given": 31806,
  "giving": 13222,
  "gl": 5447,
  "glas": 12660,
  "glass": 22379,
  "global": 23326,
  "glomer": 28203,
  "gly": 10921,
  "gmail": 19217,
  "gment": 5573,
  "gments": 12102,
  "gn": 5108,
  "go": 2127,
  "goal": 27823,
  "goers": 24177,
  "going": 4574,
  "gold": 25096,
  "gom": 16232,
  "gomery": 16846,
  "gon": 17234,
  "gone": 18883,
  "good": 10946,
  "google": 23846,
  "gor": 6692,
  "gorith": 7369,
  "got": 24343,
  "gotten": 28529,
  "gov": 11261,
  "government": 11714,
  "governmental": 27047,
  "gow": 17605,
  "gr": 894,
  "grad": 10662,
  "gradation": 24838,
  "grade": 10139,
  "gram": 1249,
  "grand": 22273,
  "graph": 10461,
  "grass": 28818,
  "grat": 16754,
  "grav": 15871,
  "gre": 31246,
  "great": 16376,
  "gree": 13053,
  "green": 15045,
  "greg": 6369,
  "gregated": 25384,
  "gregation": 12810,
  "gren": 27974,
  "gress": 1787,
  "gression": 29787,
  "gressive": 22907,
  "grid": 27925,
  "gro": 14140,
  "ground": 2982,
  "group": 12188,
  "groups": 29695,
  "growing": 19730,
  "grown": 18374,
  "growth": 25861,
  "gs": 15465,
  "gt": 12729,
  "gu": 4665,
  "guard": 12524,
  "guards": 20323,
  "gue": 17073,
  "guided": 19606,
  "gun": 7741,
  "gus": 10164,
  "guy": 22824,
  "guyen": 30686,
  "gy": 1289,
  "gypt": 5029,
  "h": 104,
  "ha": 3245,
  "hab": 5662,
  "habi": 27664,
  "had": 16955,
  "hagen": 21314,
  "haired": 28912,
  "hal": 14326,
  "half": 12227,
  "hall": 18853,
  "ham": 2594,
  "hammad": 13322,
  "hammer": 27699,
  "han": 8868,
  "hand": 5353,
  "handed": 12156,
  "hander": 31962,
  "hang": 30792,
  "hani": 29503,
  "haps": 2559,
  "har": 9462,
  "hard": 9770,
  "hardt": 23036,
  "harm": 28006,
  "hart": 17419,
  "has": 10319,
  "hash": 21961,
  "hat": 17204,
  "hate": 30859,
  "hatt": 9657,
  "hattan": 10475,
  "haul": 13244,
  "haus": 25815,
  "have": 13290,
  "haw": 18184,
  "hawks": 22996,
  "he": 258,
  "hea": 24047,
  "head": 2234,
  "headed": 14737,
  "heading": 30393,
  "heads": 15834,
  "health": 12471,
  "healthy": 20583,
  "heard": 21179,
  "heart": 17592,
  "hearted": 18108,
  "heast": 8207,
  "heastern": 15495,
  "heat": 30327,
  "heavy": 21882,
  "hed": 708,
  "hedral": 19213,
  "hedul": 5001,
  "hee": 20497,
  "heed": 19883,
  "heid": 21144,
  "height": 26078,
  "heim": 8940,
  "heimer": 14476,
  "heit": 26655,
  "hel": 2771,
  "held": 9358,
  "hell": 16724,
  "hello": 31331,
  "help": 14597,
  "helps": 30611,
  "helsea": 8880,
  "hem": 4679,
  "hement": 28855,
  "hemy": 31705,
  "hen": 862,
  "hend": 15750,
  "hene": 24093,
  "henko": 22146,
  "hens": 4976,
  "hensive": 28899,
  "hent": 7575,
  "her": 366,
  "here": 1468,
  "hered": 5633,
  "herence": 22369,
  "herent": 7681,
  "heres": 19389,
  "heric": 13353,
  "hern": 2634,
  "hero": 10580,
  "hers": 1911,
  "herty": 23804,
  "hes": 1018,
  "hesda": 30427,
  "hesis": 8896,
  "hest": 3472,
  "hester": 18012,
  "het": 3175,
  "hetamine": 25921,
  "hetic": 6445,
  "hetical": 18230,
  "hetically": 28447,
  "hetics": 23157,
  "hett": 15502,
  "hetti": 31385,
  "hetto": 31640,
  "hew": 14025,
  "hey": 17087,
  "hh": 22355,
  "hi": 5113,
  "hib": 3317,
  "hibition": 23034,
  "hift": 24516,
  "hig": 21733,
  "high": 8960,
  "highest": 28167,
  "hill": 12180,
  "hin": 26168,
  "hing": 676,
  "hip": 1014,
  "hips": 6452,
  "hire": 10640,
  "his": 14119,
  "hist": 10526,
  "historic": 27670,
  "history": 31831,
  "hit": 18923,
  "hl": 20383,
  "hm": 23549,
  "hma": 23589,
  "hn": 20147,
  "hner": 14396,
  "ho": 8437,
  "hod": 2457,
  "hof": 29147,
  "hol": 12468,
  "hold": 3048,
  "holder": 14763,
  "holders": 9612,
  "hole": 14447,
  "holes": 25086,
  "holm": 19209,
  "hom": 29487,
  "home": 13514,
  "hon": 23578,
  "hood": 2645,
  "hop": 8965,
  "hops": 20877,
  "hor": 16935,
  "horn": 29136,
  "horse": 28252,
  "host": 5846,
  "hot": 8605,
  "hots": 15732,
  "hou": 22348,
  "hour": 8462,
  "hours": 30759,
  "house": 4506,
  "houses": 18783,
  "how": 4668,
  "hower": 26546,
  "hp": 28831,
  "hr": 11061,
  "ht": 5524,
  "htaking": 29139,
  "htm": 27848,
  "html": 9409,
  "http": 5576,
  "https": 8050,
  "hu": 16944,
  "hua": 27405,
  "hum": 15627,
  "human": 10413,
  "hun": 22631,
  "hurst": 28971,
  "hus": 6666,
  "hy": 8172,
  "hyd": 24367,
  "hydro": 31028,
  "i": 105,
  "ia": 529,
  "iability": 8617,
  "iable": 3787,
  "iably": 16572,
  "iac": 9929,
  "iago": 24136,
  "iah": 11580,
  "iak": 26483,
  "ial": 495,
  "ially": 1729,
  "ials": 10479,
  "iam": 3056,
  "iami": 6654,
  "iams": 5182,
  "ian": 649,
  "iana": 7337,
  "iance": 3860,
  "iances": 15233,
  "iang": 14019,
  "iani": 19795,
  "iann": 27811,
  "iano": 9215,
  "ians": 1409,
  "iant": 3097,
  "iao": 20430,
  "iar": 11415,
  "iary": 12536,
  "ias": 5334,
  "iasm": 13606,
  "iat": 6166,
  "iate": 9024,
  "iated": 11689,
  "iates": 30063,
  "iating": 23676,
  "iation": 4288,
  "iatric": 18210,
  "iatus": 28863,
  "iaz": 16526,
  "ib": 587,
  "iba": 24801,
  "ibal": 18985,
  "iban": 10174,
  "iband": 26013,
  "ibe": 25270,
  "iber": 1828,
  "iberal": 16706,
  "ibi": 26809,
  "ibilities": 7487,
  "ibility": 2225,
  "ibl": 10599,
  "ible": 897,
  "ibles": 16872,
  "ibli": 26320,
  "iblical": 16022,
  "ibling": 28995,
  "iblings": 17847,
  "ibly": 3004,
  "ibo": 24397,
  "ibr": 3261,
  "ibrary": 4654,
  "ibus": 30688,
  "ic": 293,
  "ica": 4078,
  "icable": 19721,
  "icago": 3936,
  "ical": 593,
  "ically": 1129,
  "icals": 27431,
  "ican": 6349,
  "icans": 19457,
  "icate": 7690,
  "icated": 3437,
  "icates": 19867,
  "icating": 15902,
  "ication": 4926,
  "ications": 4827,
  "ice": 499,
  "iced": 3864,
  "icer": 7228,
  "icers": 14762,
  "ices": 1102,
  "icester": 20446,
  "ich": 484,
  "iche": 15077,
  "ichever": 24914,
  "ichi": 23072,
  "ichick": 31102,
  "icht": 17835,
  "ici": 4689,
  "icia": 29988,
  "icial": 4232,
  "icially": 24008,
  "icials": 13035,
  "ician": 6305,
  "icians": 4289,
  "iciaries": 25964,
  "iciary": 12636,
  "icidal": 21712,
  "icide": 4995,
  "icides": 16010,
  "iciency": 6737,
  "icient": 3508,
  "icing": 6058,
  "icio": 31992,
  "icious": 6319,
  "icip": 4350,
  "icism": 9582,
  "icit": 3926,
  "icity": 8790,
  "ick": 660,
  "icked": 11002,
  "icken": 7048,
  "icker": 19443,
  "ickers": 20316,
  "icket": 8401,
  "ickets": 14965,
  "icking": 8290,
  "icks": 3319,
  "icky": 20293,
  "icle": 1623,
  "icles": 3092,
  "ico": 3219,
  "icon": 4826,
  "icro": 2535,
  "icrosoft": 4254,
  "ics": 882,
  "ict": 707,
  "icted": 5159,
  "icter": 28646,
  "iction": 2955,
  "ictionary": 16143,
  "ictions": 8495,
  "icts": 12592,
  "icular": 22751,
  "icularly": 19662,
  "icult": 2093,
  "icultural": 21853,
  "icus": 22360,
  "icut": 12610,
  "icy": 4685,
  "icz": 24303,
  "id": 310,
  "ida": 3382,
  "idable": 21379,
  "idad": 22207,
  "idal": 11223,
  "idan": 28157,
  "idant": 30732,
  "idas": 24240,
  "idate": 21838,
  "idation": 29588,
  "idav": 19480,
  "iday": 2226,
  "idays": 13360,
  "idd": 1650,
  "idden": 5269,
  "idding": 12451,
  "iddle": 2329,
  "iddled": 30244,
  "iddles": 28374,
  "iddy": 31392,
  "ide": 490,
  "ided": 1386,
  "idel": 5746,
  "idelines": 7668,
  "idelity": 22991,
  "iden": 11122,
  "idence": 1677,
  "idency": 7456,
  "ident": 661,
  "idental": 31314,
  "identally": 20721,
  "identified": 16618,
  "idents": 3034,
  "ideo": 6281,
  "ideos": 16023,
  "idepress": 25602,
  "ider": 1509,
  "idered": 3020,
  "idering": 5046,
  "iders": 3914,
  "ides": 1508,
  "idespread": 7923,
  "idge": 3172,
  "idges": 14331,
  "idi": 18208,
  "idian": 25566,
  "iding": 2489,
  "idious": 29889,
  "idis": 25311,
  "idity": 17229,
  "ido": 15068,
  "ids": 2061,
  "idy": 18682,
  "ie": 448,
  "iece": 9086,
  "ied": 829,
  "ief": 1909,
  "iegel": 29762,
  "iel": 8031,
  "ield": 1226,
  "ielding": 31730,
  "iem": 29769,
  "ien": 2011,
  "ience": 1192,
  "ienced": 24523,
  "iences": 8701,
  "iencies": 20464,
  "iens": 10616,
  "ient": 1234,
  "ients": 2550,
  "ier": 1217,
  "ierce": 9566,
  "iere": 11155,
  "ieri": 24175,
  "ierra": 14754,
  "ierre": 12051,
  "iers": 3262,
  "iership": 29351,
  "ies": 440,
  "iesel": 27558,
  "iest": 6197,
  "iet": 1159,
  "ietal": 18895,
  "ieth": 18364,
  "ieties": 8877,
  "iets": 25614,
  "iety": 1846,
  "ieu": 20322,
  "iev": 9669,
  "ieval": 14548,
  "ieve": 16478,
  "ieves": 18870,
  "iew": 817,
  "if": 367,
  "ifa": 19097,
  "ifax": 22046,
  "ife": 907,
  "ifer": 7372,
  "ifest": 8286,
  "iff": 737,
  "iffany": 31687,
  "iffe": 19383,
  "ifference": 25884,
  "ifferent": 12923,
  "iffs": 9648,
  "ifi": 25442,
  "ifiable": 16356,
  "ific": 855,
  "ificant": 16304,
  "ification": 3051,
  "ifications": 7364,
  "ificent": 21682,
  "ificial": 29321,
  "ified": 1549,
  "ifier": 10956,
  "ifiers": 16473,
  "ifies": 7721,
  "ifle": 19033,
  "iform": 7094,
  "ift": 2360,
  "ifted": 20399,
  "ifting": 13650,
  "ifts": 23449,
  "ifty": 23939,
  "iful": 4437,
  "ifully": 16311,
  "ify": 2081,
  "ifying": 3990,
  "ig": 328,
  "iga": 14492,
  "igan": 4858,
  "igans": 31467,
  "igate": 9731,
  "igated": 23817,
  "igating": 25880,
  "igation": 7091,
  "igator": 26089,
  "igators": 21545,
  "ige": 11579,
  "igel": 18881,
  "igen": 7933,
  "igenous": 9911,
  "iger": 6564,
  "igers": 12811,
  "igg": 6969,
  "igger": 22494,
  "iggins": 18929,
  "iggle": 26199,
  "iggs": 17331,
  "igh": 394,
  "ighed": 12855,
  "ight": 436,
  "ighte": 15900,
  "ighteen": 25624,
  "ighteous": 18816,
  "ighter": 4969,
  "ighters": 5560,
  "ighth": 10261,
  "ighting": 11732,
  "ights": 2956,
  "ighty": 20111,
  "igi": 30005,
  "igible": 26234,
  "igion": 17396,
  "igious": 9610,
  "igma": 13109,
  "ign": 553,
  "ignant": 23350,
  "igned": 4133,
  "ignment": 20195,
  "ignt": 13915,
  "ignty": 14120,
  "igo": 18343,
  "igr": 3154,
  "igrant": 8194,
  "igrants": 4705,
  "igrated": 30544,
  "igration": 3672,
  "igs": 16668,
  "igue": 16525,
  "igure": 6964,
  "ih": 4623,
  "ihad": 8360,
  "ihar": 28621,
  "ihil": 22496,
  "ii": 6947,
  "iii": 29042,
  "ij": 2548,
  "ija": 30615,
  "iji": 23445,
  "ijing": 8767,
  "ijuana": 4053,
  "ik": 1250,
  "ika": 9675,
  "ike": 508,
  "iked": 22470,
  "iker": 18187,
  "ikers": 22865,
  "ikes": 8232,
  "ikh": 10612,
  "ikhail": 31921,
  "iki": 9552,
  "iking": 14114,
  "iko": 17550,
  "il": 350,
  "ila": 8989,
  "ilant": 31793,
  "ilar": 1910,
  "ilarly": 7287,
  "ilated": 30080,
  "ilater": 30173,
  "ilateral": 12667,
  "ilaterally": 30783,
  "ilation": 11200,
  "ild": 695,
  "ilda": 28492,
  "ile": 583,
  "ileaks": 20903,
  "iled": 3972,
  "ilem": 18532,
  "iler": 7701,
  "ilers": 18239,
  "iles": 3439,
  "iley": 9054,
  "ili": 2323,
  "ilia": 17194,
  "ilian": 31618,
  "iliar": 4504,
  "iliary": 31408,
  "iliated": 26139,
  "iliation": 13898,
  "ilib": 21884,
  "ilibrium": 24123,
  "ilies": 3529,
  "ilight": 17875,
  "iling": 4606,
  "ilingual": 31339,
  "ilion": 26896,
  "ilipp": 7821,
  "ilit": 5913,
  "ilitary": 15953,
  "ilitating": 30012,
  "ilitation": 17656,
  "ilities": 2542,
  "ility": 919,
  "ill": 355,
  "illa": 5145,
  "illance": 6114,
  "illard": 27622,
  "illas": 22403,
  "ille": 3158,
  "illed": 3251,
  "iller": 4555,
  "illery": 14078,
  "illes": 20206,
  "illian": 31740,
  "illing": 4278,
  "illion": 955,
  "illions": 22712,
  "illo": 13704,
  "illon": 20758,
  "ills": 2647,
  "illusion": 29108,
  "illy": 6073,
  "ilo": 28813,
  "ilogy": 18433,
  "ilot": 24014,
  "ils": 5055,
  "ilst": 11484,
  "ilt": 2228,
  "ilton": 7748,
  "ilty": 5903,
  "ily": 810,
  "im": 321,
  "ima": 7594,
  "imag": 20105,
  "image": 13271,
  "images": 25435,
  "imagin": 30379,
  "imal": 5075,
  "iman": 22424,
  "imate": 1740,
  "imated": 15489,
  "imately": 3110,
  "imates": 27269,
  "imation": 21922,
  "imb": 4956,
  "imbabwe": 19964,
  "ime": 524,
  "imedia": 18729,
  "imen": 19559,
  "imens": 12586,
  "imensional": 16600,
  "iment": 2942,
  "imental": 17010,
  "iments": 6717,
  "imer": 19134,
  "imes": 964,
  "imet": 27186,
  "imeter": 15909,
  "imeters": 30154,
  "img": 17122,
  "imi": 25491,
  "imin": 3142,
  "iminal": 3396,
  "imination": 18632,
  "imir": 10990,
  "imity": 17746,
  "imize": 10531,
  "imm": 8223,
  "immer": 10736,
  "immers": 31211,
  "imming": 26618,
  "imo": 22746,
  "imon": 25484,
  "imore": 7977,
  "imp": 7305,
  "import": 15175,
  "important": 21378,
  "imposed": 29884,
  "impro": 30417,
  "imps": 25598,
  "impse": 16476,
  "ims": 12303,
  "imson": 25219,
  "imum": 3526,
  "in": 259,
  "ina": 1343,
  "inal": 1352,
  "inally": 3266,
  "inals": 9441,
  "inance": 13338,
  "inary": 3367,
  "inas": 22087,
  "inate": 14456,
  "inated": 3872,
  "inating": 9186,
  "ination": 1904,
  "inational": 20872,
  "inations": 7218,
  "inav": 24154,
  "inburgh": 18779,
  "inc": 1804,
  "ince": 886,
  "inch": 8712,
  "incial": 11505,
  "incinn": 12734,
  "incinnati": 12809,
  "include": 27354,
  "including": 8417,
  "incoln": 10410,
  "income": 10743,
  "incre": 22790,
  "inct": 4563,
  "inction": 8977,
  "inctions": 28789,
  "ind": 537,
  "inda": 20241,
  "indal": 31560,
  "independent": 31571,
  "inder": 7672,
  "inders": 28909,
  "index": 16084,
  "inding": 7379,
  "induced": 19132,
  "indust": 18900,
  "industrial": 24305,
  "ine": 512,
  "inea": 18681,
  "ined": 1379,
  "inel": 19836,
  "inem": 6502,
  "inement": 19423,
  "inence": 29703,
  "inent": 5416,
  "inental": 18636,
  "iner": 7117,
  "iners": 18268,
  "inery": 14611,
  "ines": 1099,
  "inese": 3244,
  "iness": 1215,
  "inez": 15460,
  "inf": 8778,
  "infect": 30283,
  "inflamm": 31384,
  "info": 15654,
  "information": 15707,
  "informed": 28807,
  "ing": 278,
  "inge": 10831,
  "inged": 29748,
  "ingen": 29639,
  "inger": 4036,
  "inges": 23750,
  "ingham": 19971,
  "inging": 13069,
  "ingle": 17142,
  "ingly": 4119,
  "ingo": 28623,
  "ingrich": 17631,
  "ings": 656,
  "ington": 9281,
  "ingu": 6879,
  "inho": 15401,
  "ini": 5469,
  "inian": 19322,
  "ining": 3183,
  "inion": 24437,
  "inis": 15551,
  "inished": 29944,
  "init": 26044,
  "inite": 11243,
  "initely": 12487,
  "inition": 25690,
  "inity": 7321,
  "ink": 670,
  "inke": 30574,
  "inker": 26587,
  "inking": 7775,
  "inkle": 20180,
  "inks": 3075,
  "inn": 3819,
  "innamon": 24291,
  "inner": 17918,
  "inness": 24398,
  "inning": 30558,
  "ino": 2815,
  "inoids": 30397,
  "inois": 8238,
  "inos": 14148,
  "inous": 26908,
  "input": 25034,
  "inqu": 20201,
  "ins": 1069,
  "inski": 18988,
  "insky": 20204,
  "inson": 6919,
  "inspired": 20216,
  "inst": 10955,
  "install": 26865,
  "instein": 10089,
  "insula": 14318,
  "int": 615,
  "intage": 15687,
  "inte": 5362,
  "integr": 18768,
  "intelligence": 26651,
  "intend": 7095,
  "intendent": 18829,
  "intendo": 8499,
  "intensive": 30559,
  "inter": 4791,
  "interest": 7947,
  "interested": 29892,
  "intern": 26579,
  "inters": 20685,
  "inth": 22419,
  "into": 19724,
  "inton": 1950,
  "introdu": 25952,
  "inv": 19205,
  "invest": 20954,
  "iny": 3815,
  "inyl": 19708,
  "io": 996,
  "iod": 2288,
  "iol": 1581,
  "iola": 23805,
  "iolet": 22096,
  "iological": 16227,
  "iologist": 25297,
  "iology": 13819,
  "ion": 297,
  "ionage": 19654,
  "ional": 1556,
  "ionally": 5925,
  "ione": 8277,
  "ioned": 14117,
  "ions": 505,
  "iop": 14260,
  "ior": 1475,
  "iors": 11774,
  "ios": 4532,
  "iosity": 13684,
  "iot": 5262,
  "iotic": 27846,
  "iots": 13605,
  "iott": 18097,
  "ious": 692,
  "iously": 1691,
  "iov": 20059,
  "iovascular": 23389,
  "iox": 29750,
  "ip": 560,
  "ipal": 23759,
  "ipe": 4318,
  "ipedia": 10667,
  "ipeg": 17206,
  "iper": 11687,
  "ipers": 28644,
  "ipes": 24581,
  "iph": 13589,
  "iphate": 27995,
  "ipher": 12205,
  "ipl": 6769,
  "iple": 2601,
  "iples": 31114,
  "ipment": 30174,
  "ipp": 4603,
  "ipped": 4451,
  "ipper": 30072,
  "ippers": 26647,
  "ippi": 11070,
  "ipping": 5463,
  "ipple": 20149,
  "ips": 2717,
  "ipse": 16591,
  "iqu": 1635,
  "ique": 2424,
  "iques": 6383,
  "ir": 341,
  "ira": 8958,
  "irable": 13167,
  "iral": 28010,
  "iration": 18265,
  "irc": 2042,
  "ircraft": 31708,
  "ird": 1397,
  "irds": 6265,
  "ire": 580,
  "irect": 1077,
  "irection": 20312,
  "ired": 1255,
  "ires": 2663,
  "irez": 25269,
  "irgin": 4457,
  "iri": 14916,
  "irie": 27109,
  "iries": 17798,
  "iring": 3735,
  "irk": 13810,
  "irl": 2145,
  "irlf": 9366,
  "irlfriend": 9380,
  "irlines": 15765,
  "irling": 23104,
  "irm": 2458,
  "irmed": 15717,
  "irming": 26534,
  "irms": 7155,
  "iro": 6876,
  "iron": 1843,
  "irrel": 24087,
  "irs": 11748,
  "irst": 652,
  "irsty": 25490,
  "irt": 2449,
  "irteen": 21523,
  "irth": 3525,
  "irts": 9155,
  "irtual": 27590,
  "irty": 6148,
  "irus": 18687,
  "iry": 8464,
  "is": 271,
  "isa": 9611,
  "isal": 30166,
  "isan": 7270,
  "isance": 30202,
  "isans": 21231,
  "isation": 4838,
  "isations": 31929,
  "isc": 2418,
  "iscal": 7390,
  "isch": 23290,
  "ischer": 20866,
  "isco": 18391,
  "isconsin": 7398,
  "isd": 10666,
  "isdom": 10212,
  "ise": 747,
  "ised": 1324,
  "isen": 12848,
  "iser": 5050,
  "isers": 13170,
  "ises": 2772,
  "isexual": 18755,
  "isf": 4940,
  "ish": 714,
  "isha": 19526,
  "ishable": 29376,
  "ished": 1297,
  "isher": 5472,
  "ishers": 11027,
  "ishes": 5877,
  "ishi": 24799,
  "ishing": 2977,
  "ishly": 27376,
  "ishment": 19670,
  "ishop": 9536,
  "ishops": 19952,
  "isi": 19407,
  "isible": 13747,
  "isine": 24138,
  "ising": 1546,
  "ision": 1114,
  "isions": 3232,
  "isite": 19227,
  "isition": 10400,
  "isitions": 26554,
  "isive": 11609,
  "isk": 9728,
  "isl": 2616,
  "isle": 18034,
  "isly": 30932,
  "ism": 962,
  "isman": 22511,
  "isms": 6511,
  "iso": 30198,
  "isode": 11972,
  "isoft": 28176,
  "isol": 30058,
  "ison": 1609,
  "isons": 9185,
  "isp": 8062,
  "ispens": 30105,
  "ispensable": 31536,
  "isphere": 19707,
  "iss": 766,
  "issa": 14126,
  "issan": 21069,
  "issance": 13931,
  "isse": 19620,
  "ission": 1497,
  "issions": 6289,
  "isson": 28674,
  "issue": 22849,
  "ist": 387,
  "ista": 11658,
  "istan": 2875,
  "istance": 11188,
  "istant": 10419,
  "istas": 31165,
  "isted": 5259,
  "istence": 22467,
  "istent": 7733,
  "ister": 1573,
  "isters": 5807,
  "istic": 2425,
  "istical": 20057,
  "istically": 14767,
  "istics": 4465,
  "istine": 28637,
  "isting": 8603,
  "istle": 10806,
  "istries": 27439,
  "istry": 4132,
  "ists": 931,
  "isure": 21026,
  "isy": 23929,
  "it": 270,
  "ita": 5875,
  "itable": 4728,
  "itably": 12744,
  "itage": 8847,
  "ital": 1236,
  "itals": 7503,
  "itan": 19672,
  "itant": 22898,
  "itar": 7520,
  "itarian": 6957,
  "itars": 28718,
  "itary": 9491,
  "itas": 19930,
  "itate": 12340,
  "itated": 13725,
  "itating": 21451,
  "itation": 3579,
  "itational": 18924,
  "itations": 16504,
  "itative": 13242,
  "itbart": 13269,
  "itch": 3204,
  "itched": 26612,
  "itches": 19323,
  "ite": 575,
  "itect": 5117,
  "ited": 837,
  "itely": 3813,
  "item": 20756,
  "itement": 11379,
  "iter": 4901,
  "iterranean": 16169,
  "ites": 2753,
  "ith": 343,
  "ithe": 28551,
  "ither": 1629,
  "ithmetic": 30725,
  "ithub": 15128,
  "iti": 8300,
  "itial": 14989,
  "itially": 18051,
  "ities": 854,
  "itimate": 24432,
  "itime": 18470,
  "iting": 1760,
  "ition": 663,
  "itional": 1918,
  "itionally": 8434,
  "itions": 1839,
  "itious": 24053,
  "itis": 14379,
  "itive": 1774,
  "itiveness": 25441,
  "itives": 19399,
  "itivity": 12277,
  "itiz": 2660,
  "itizens": 29803,
  "itness": 3998,
  "itnesses": 20211,
  "ito": 10171,
  "itol": 9619,
  "itor": 3497,
  "itoring": 30514,
  "itors": 6178,
  "itous": 17836,
  "its": 941,
  "itsu": 22977,
  "itt": 4760,
  "itted": 16726,
  "itter": 9487,
  "itting": 8690,
  "ittle": 6489,
  "itual": 9606,
  "itud": 31513,
  "itude": 4105,
  "itudes": 9824,
  "iture": 9883,
  "itures": 21706,
  "itus": 20286,
  "itute": 3433,
  "itutes": 15442,
  "itution": 2551,
  "itutional": 4923,
  "ity": 414,
  "itz": 4910,
  "itzer": 18362,
  "iu": 20010,
  "ium": 1721,
  "ius": 4727,
  "iv": 461,
  "iva": 13079,
  "ivable": 20869,
  "ival": 2388,
  "ivalent": 29949,
  "ivals": 8735,
  "ivan": 12253,
  "ivas": 27566,
  "ivated": 26785,
  "ive": 421,
  "ived": 1548,
  "ively": 2167,
  "iven": 1459,
  "iveness": 6681,
  "iver": 1734,
  "ivered": 5690,
  "iverpool": 8533,
  "ivers": 1131,
  "iversal": 26696,
  "iversary": 8281,
  "iverse": 4009,
  "iversity": 1430,
  "ivery": 23633,
  "ives": 1034,
  "ivia": 19359,
  "ivic": 13586,
  "ivid": 1783,
  "ividual": 1945,
  "ivier": 30091,
  "ivil": 2219,
  "iving": 1376,
  "ivism": 21935,
  "ivist": 24010,
  "ivities": 23414,
  "ivity": 3631,
  "ivo": 21868,
  "ivor": 23276,
  "ix": 924,
  "ixed": 8794,
  "ixel": 11280,
  "ixels": 17226,
  "ixon": 10402,
  "ixt": 6888,
  "ixture": 10231,
  "ixtures": 24315,
  "ixty": 19920,
  "iy": 8777,
  "iya": 23844,
  "iz": 543,
  "iza": 22810,
  "izabeth": 9169,
  "izable": 13209,
  "izard": 12747,
  "izards": 15177,
  "izarre": 10864,
  "ization": 1619,
  "izations": 11175,
  "ize": 1216,
  "ized": 1168,
  "izer": 9877,
  "izers": 16416,
  "izes": 4708,
  "izing": 2768,
  "izon": 7777,
  "izons": 28885,
  "izont": 14377,
  "izoph": 18600,
  "izophren": 18769,
  "izz": 6924,
  "izza": 10103,
  "izzard": 16704,
  "iÃ³n": 18109,
  "iÄĩ": 29733,
  "j": 106,
  "ja": 8449,
  "jack": 26042,
  "jad": 24497,
  "jah": 21920,
  "jamin": 11621,
  "jan": 12470,
  "jar": 13970,
  "jas": 29217,
  "java": 23652,
  "je": 15596,
  "ject": 794,
  "jee": 29075,
  "jet": 25892,
  "ji": 9484,
  "jiang": 31451,
  "jin": 28525,
  "jo": 8057,
  "job": 29103,
  "join": 28838,
  "journal": 23196,
  "joy": 2729,
  "jpg": 17057,
  "jri": 29527,
  "jriwal": 30221,
  "js": 9924,
  "json": 24113,
  "ju": 17005,
  "jud": 9340,
  "jug": 30524,
  "jury": 24108,
  "just": 3575,
  "justed": 22700,
  "justice": 28543,
  "k": 107,
  "ka": 5243,
  "kan": 26848,
  "kar": 17838,
  "kara": 19947,
  "kay": 6256,
  "ke": 361,
  "ked": 7469,
  "kee": 10162,
  "keep": 8742,
  "keeper": 12877,
  "keepers": 20041,
  "keeping": 17840,
  "kees": 13667,
  "kef": 25343,
  "kefeller": 25803,
  "kel": 6673,
  "keley": 11271,
  "kell": 17022,
  "ken": 3759,
  "kens": 14971,
  "ker": 7463,
  "kered": 27094,
  "kers": 16855,
  "kes": 11352,
  "ket": 5659,
  "ketch": 23371,
  "key": 2510,
  "keys": 14313,
  "kg": 14022,
  "kh": 14932,
  "ki": 4060,
  "kick": 23696,
  "kil": 26442,
  "kill": 15038,
  "kin": 4942,
  "kind": 11704,
  "king": 9173,
  "kins": 4681,
  "kinson": 21843,
  "kish": 23474,
  "kit": 18496,
  "km": 12489,
  "kn": 16568,
  "know": 16110,
  "known": 4383,
  "ko": 6993,
  "kok": 27176,
  "kov": 18935,
  "kowski": 21044,
  "ks": 590,
  "kt": 28530,
  "ktop": 23071,
  "ku": 28933,
  "kward": 11646,
  "ky": 2785,
  "l": 108,
  "la": 4596,
  "lab": 26665,
  "label": 25694,
  "lace": 31855,
  "lad": 8289,
  "lah": 8620,
  "lahoma": 8982,
  "laim": 11303,
  "lain": 21732,
  "lake": 26748,
  "lam": 2337,
  "lamm": 27733,
  "lan": 7993,
  "lance": 18138,
  "land": 995,
  "lander": 20586,
  "landers": 28911,
  "lando": 9860,
  "lands": 4461,
  "lane": 25508,
  "lang": 23199,
  "language": 18397,
  "lant": 4440,
  "lantic": 21492,
  "lar": 26065,
  "larg": 15468,
  "large": 11087,
  "largest": 20909,
  "las": 12584,
  "lash": 13762,
  "lass": 22670,
  "lasses": 30485,
  "last": 15317,
  "lasting": 27083,
  "lat": 19379,
  "late": 21892,
  "lated": 23980,
  "later": 28893,
  "lation": 15794,
  "laughs": 23619,
  "laughter": 24204,
  "lav": 18090,
  "law": 6254,
  "laws": 26422,
  "lay": 15540,
  "lb": 25654,
  "ld": 333,
  "lda": 19491,
  "lder": 7237,
  "ldom": 23772,
  "ldon": 22843,
  "le": 295,
  "lead": 25325,
  "leader": 25184,
  "leaders": 29499,
  "leading": 11098,
  "league": 16966,
  "leaning": 20942,
  "leans": 10305,
  "lear": 2514,
  "lease": 3639,
  "leased": 15821,
  "leck": 29010,
  "lect": 815,
  "lected": 12140,
  "lection": 1461,
  "lections": 31065,
  "led": 1011,
  "ledge": 3042,
  "ledged": 29463,
  "lee": 9769,
  "leen": 17501,
  "leep": 10878,
  "left": 9783,
  "leg": 1357,
  "legal": 16247,
  "legates": 28612,
  "lege": 2465,
  "lein": 30256,
  "lem": 14557,
  "lement": 2025,
  "lementary": 14020,
  "lements": 12326,
  "len": 14285,
  "lene": 26131,
  "length": 16343,
  "ler": 1805,
  "lers": 7484,
  "les": 831,
  "lesh": 11813,
  "less": 1260,
  "lessly": 8103,
  "lessness": 16144,
  "let": 1735,
  "letcher": 25083,
  "lete": 7833,
  "leted": 11036,
  "letes": 30551,
  "letion": 24134,
  "leton": 12474,
  "lets": 5349,
  "lett": 14967,
  "lette": 20477,
  "letter": 14461,
  "leum": 18710,
  "lev": 2403,
  "levant": 13894,
  "levard": 17932,
  "level": 4420,
  "leveland": 8304,
  "levision": 3893,
  "lex": 2659,
  "ley": 1543,
  "leys": 20644,
  "lf": 1741,
  "li": 953,
  "lia": 22546,
  "liable": 23173,
  "liament": 4152,
  "lib": 13283,
  "liber": 19988,
  "liberal": 27254,
  "lic": 639,
  "lication": 15661,
  "lications": 24449,
  "lich": 23043,
  "lick": 3934,
  "lickr": 15000,
  "lict": 20019,
  "licted": 26861,
  "lide": 23872,
  "lie": 13909,
  "lied": 11528,
  "lient": 14445,
  "lier": 2115,
  "liers": 15826,
  "lies": 6942,
  "liest": 10102,
  "lif": 30618,
  "life": 5657,
  "lift": 27990,
  "lifting": 30535,
  "lig": 4866,
  "liga": 28028,
  "light": 2358,
  "lights": 14055,
  "lihood": 10710,
  "lik": 30960,
  "like": 2265,
  "lim": 2261,
  "liminary": 12302,
  "limited": 10707,
  "lin": 2909,
  "line": 1322,
  "linear": 29912,
  "lined": 9479,
  "liner": 21578,
  "liners": 26152,
  "lines": 5752,
  "liness": 26368,
  "ling": 1325,
  "lings": 20703,
  "lington": 14805,
  "lining": 16575,
  "link": 11313,
  "linked": 24518,
  "lins": 21019,
  "lio": 30537,
  "lis": 25764,
  "lish": 2296,
  "list": 6973,
  "listed": 17232,
  "lists": 23709,
  "lit": 18296,
  "liter": 16191,
  "little": 30203,
  "lium": 28011,
  "liv": 18110,
  "live": 13673,
  "lived": 19910,
  "liver": 12203,
  "living": 28255,
  "ll": 298,
  "lla": 7693,
  "llah": 17915,
  "llect": 6467,
  "llectual": 26074,
  "lled": 2684,
  "ller": 5599,
  "llers": 12665,
  "lli": 11464,
  "llig": 2685,
  "lligence": 3104,
  "lling": 2047,
  "llington": 22068,
  "llo": 13294,
  "llor": 11285,
  "lls": 6995,
  "lly": 10373,
  "ln": 22592,
  "lo": 5155,
  "load": 2874,
  "loaded": 19570,
  "loading": 28411,
  "loc": 28136,
  "local": 16239,
  "lock": 7389,
  "locked": 28308,
  "loe": 29305,
  "log": 7908,
  "loid": 31221,
  "lon": 15925,
  "long": 6050,
  "loo": 26839,
  "look": 5245,
  "looking": 11042,
  "loop": 27516,
  "lopp": 26977,
  "lor": 4756,
  "lord": 25007,
  "loss": 24207,
  "lost": 30606,
  "lot": 27647,
  "love": 22908,
  "loving": 28334,
  "low": 8854,
  "lower": 24746,
  "lp": 918,
  "ls": 7429,
  "lt": 2450,
  "ltry": 29094,
  "lu": 11670,
  "lud": 754,
  "lude": 13714,
  "luded": 17298,
  "ludes": 21399,
  "luding": 6647,
  "luent": 24216,
  "lus": 26527,
  "lv": 6928,
  "lves": 27796,
  "ly": 306,
  "lying": 3249,
  "lymp": 5531,
  "lyn": 5542,
  "lynn": 10928,
  "m": 109,
  "ma": 3062,
  "mac": 27588,
  "mad": 8534,
  "made": 9045,
  "mag": 25512,
  "mage": 24997,
  "magic": 28037,
  "maid": 23405,
  "mail": 4874,
  "mails": 20955,
  "main": 12572,
  "major": 19340,
  "majority": 28247,
  "make": 18515,
  "maker": 8760,
  "makers": 4986,
  "making": 7702,
  "mal": 7593,
  "mala": 25272,
  "male": 26835,
  "malink": 24820,
  "man": 760,
  "management": 23636,
  "mand": 19266,
  "mania": 26373,
  "mann": 7715,
  "manned": 23274,
  "mans": 9408,
  "manship": 23705,
  "manuel": 14543,
  "many": 18979,
  "map": 12079,
  "mar": 3816,
  "mare": 12251,
  "mares": 27440,
  "mark": 4007,
  "marked": 21397,
  "market": 9886,
  "markets": 28398,
  "marks": 14065,
  "married": 28448,
  "mart": 12583,
  "mary": 8483,
  "mas": 5074,
  "mass": 20790,
  "master": 13096,
  "mat": 8957,
  "match": 20868,
  "matched": 30530,
  "mate": 7961,
  "mates": 5984,
  "math": 9823,
  "matic": 12309,
  "max": 17479,
  "may": 11065,
  "maybe": 25221,
  "mb": 2165,
  "mber": 1657,
  "mble": 10830,
  "md": 27031,
  "me": 2501,
  "meal": 27854,
  "meaning": 22407,
  "med": 1128,
  "medi": 2437,
  "media": 12050,
  "mediate": 27923,
  "mediately": 23499,
  "meg": 26261,
  "mega": 19305,
  "mel": 14929,
  "mem": 16602,
  "member": 16871,
  "members": 30974,
  "men": 3555,
  "ment": 379,
  "mental": 17872,
  "mentation": 15776,
  "mented": 10863,
  "mentia": 23852,
  "mentioned": 15908,
  "ments": 771,
  "mer": 581,
  "merce": 10781,
  "mercial": 16675,
  "meric": 834,
  "mers": 9411,
  "mes": 6348,
  "message": 28268,
  "met": 4510,
  "meter": 26852,
  "metic": 17922,
  "metric": 28129,
  "metry": 21304,
  "mg": 20382,
  "mi": 13812,
  "mia": 22673,
  "mic": 10213,
  "mid": 12027,
  "middle": 26376,
  "midt": 17227,
  "mile": 14689,
  "military": 27676,
  "mill": 16620,
  "million": 11209,
  "min": 1115,
  "mination": 14261,
  "mind": 9470,
  "minded": 12312,
  "mine": 4201,
  "mined": 15074,
  "minent": 16372,
  "mines": 14286,
  "ming": 1876,
  "mingham": 14750,
  "mington": 29580,
  "mining": 17511,
  "minist": 1952,
  "minster": 15961,
  "minute": 9322,
  "mir": 10337,
  "mis": 23402,
  "miss": 3965,
  "missible": 24474,
  "mission": 3978,
  "missions": 9913,
  "mit": 1388,
  "mite": 29002,
  "mith": 25148,
  "mits": 10596,
  "mitt": 18948,
  "mitted": 3390,
  "mittee": 3993,
  "ml": 6534,
  "mm": 5770,
  "mn": 12954,
  "mo": 7093,
  "mobile": 27681,
  "mod": 7329,
  "mode": 26165,
  "model": 24332,
  "modern": 20339,
  "moil": 20435,
  "mon": 2778,
  "mond": 5734,
  "money": 23365,
  "mong": 25533,
  "mons": 11320,
  "mont": 7430,
  "month": 7585,
  "monton": 15307,
  "mony": 9116,
  "moon": 22748,
  "mor": 17700,
  "more": 3610,
  "mos": 15302,
  "mosp": 5738,
  "most": 1600,
  "mostly": 25659,
  "mot": 24413,
  "mother": 12432,
  "mount": 17257,
  "mouth": 13200,
  "move": 21914,
  "moving": 27779,
  "mp": 3264,
  "mph": 17845,
  "ms": 928,
  "mson": 23421,
  "mt": 23746,
  "much": 26072,
  "mult": 20791,
  "mun": 6852,
  "mund": 15916,
  "munition": 13807,
  "mur": 29725,
  "mus": 16300,
  "must": 28375,
  "mut": 19656,
  "my": 1798,
  "n": 110,
  "na": 2674,
  "naev": 31602,
  "naire": 26841,
  "nam": 6559,
  "name": 6556,
  "named": 11700,
  "names": 14071,
  "namese": 17893,
  "nan": 11198,
  "nar": 17937,
  "nas": 23288,
  "nation": 25079,
  "national": 14351,
  "natural": 11873,
  "nav": 30160,
  "nc": 21211,
  "nce": 1242,
  "nces": 3286,
  "nd": 356,
  "nder": 694,
  "ndering": 19649,
  "nders": 26052,
  "ndra": 18909,
  "ne": 691,
  "neapolis": 15827,
  "neath": 13838,
  "necess": 10130,
  "neck": 27684,
  "nect": 1763,
  "ned": 1198,
  "nedy": 8256,
  "nee": 28721,
  "needed": 23507,
  "neg": 11444,
  "negie": 25965,
  "nel": 4753,
  "nell": 5751,
  "nels": 17561,
  "nen": 25347,
  "ner": 1012,
  "nered": 12875,
  "nerg": 30149,
  "nergy": 5972,
  "ners": 2477,
  "nery": 30647,
  "nes": 1965,
  "nesday": 2812,
  "nesota": 7034,
  "ness": 1170,
  "nesty": 14190,
  "net": 3897,
  "netic": 10034,
  "neutral": 27856,
  "never": 12781,
  "new": 3599,
  "news": 10360,
  "nex": 15292,
  "next": 25027,
  "ney": 1511,
  "neys": 19128,
  "ng": 818,
  "ngth": 20277,
  "ni": 8116,
  "nia": 17213,
  "nic": 6605,
  "nick": 23753,
  "nie": 11249,
  "night": 4653,
  "nik": 14523,
  "nine": 27930,
  "ning": 725,
  "nings": 19830,
  "nis": 19161,
  "nm": 27328,
  "nn": 28526,
  "no": 4292,
  "node": 27089,
  "nom": 23170,
  "non": 11510,
  "none": 31699,
  "noon": 5435,
  "nor": 12384,
  "normal": 13194,
  "not": 1808,
  "note": 12887,
  "notes": 23305,
  "nothing": 23943,
  "noticed": 26567,
  "nov": 31124,
  "now": 2178,
  "nown": 3825,
  "ns": 2522,
  "nsic": 18111,
  "nt": 435,
  "ntil": 9014,
  "nton": 23225,
  "null": 19432,
  "num": 25862,
  "number": 21547,
  "numbered": 31437,
  "nut": 15410,
  "nuts": 29760,
  "ny": 3368,
  "nyder": 16811,
  "o": 111,
  "oa": 13698,
  "oad": 1530,
  "oan": 20238,
  "oard": 12308,
  "oat": 18792,
  "ob": 666,
  "oba": 17771,
  "obal": 2241,
  "obar": 31061,
  "obb": 6573,
  "obby": 5192,
  "obe": 5725,
  "ober": 1834,
  "obi": 15753,
  "obia": 30279,
  "obic": 21386,
  "obil": 23778,
  "obile": 6891,
  "obiles": 30683,
  "object": 20975,
  "obo": 28128,
  "obs": 8175,
  "oby": 25522,
  "oc": 427,
  "oca": 10022,
  "ocal": 4947,
  "ocaly": 13857,
  "ocalypse": 19651,
  "ocalyptic": 24106,
  "ocamp": 25772,
  "ocate": 12783,
  "ocated": 10697,
  "ocating": 23303,
  "ocation": 7014,
  "ocations": 25832,
  "ocaust": 13924,
  "occ": 13773,
  "occup": 17863,
  "occupied": 25243,
  "ocene": 28793,
  "ocese": 24595,
  "och": 5288,
  "oche": 28461,
  "ochem": 22271,
  "ochond": 23298,
  "oci": 1779,
  "ocial": 10010,
  "ociated": 19578,
  "ocide": 14405,
  "ocious": 30326,
  "ocity": 14138,
  "ock": 791,
  "ocked": 3618,
  "ocker": 12629,
  "ocket": 6447,
  "ockets": 12534,
  "ockey": 6570,
  "ocking": 5476,
  "ocks": 3958,
  "oco": 24125,
  "ocol": 5060,
  "ocolate": 9374,
  "ocr": 4252,
  "ocracies": 26268,
  "ocracy": 4800,
  "ocrat": 1582,
  "ocratic": 6248,
  "ocrats": 14876,
  "ocre": 24109,
  "ocument": 9085,
  "ocumented": 14045,
  "ocur": 12073,
  "ocus": 12324,
  "ocused": 19023,
  "ocy": 16486,
  "od": 400,
  "oda": 12069,
  "oday": 3915,
  "odd": 5631,
  "odder": 31972,
  "ode": 1340,
  "oded": 8898,
  "oder": 18778,
  "odes": 4355,
  "odge": 10514,
  "odic": 26213,
  "odied": 28405,
  "odies": 4967,
  "oding": 8379,
  "odka": 27151,
  "odo": 23293,
  "odor": 26184,
  "odore": 22123,
  "odox": 9908,
  "ods": 21528,
  "odus": 23313,
  "ody": 1189,
  "odynam": 22557,
  "odynamic": 31895,
  "oe": 2478,
  "oen": 8008,
  "oenix": 9287,
  "oes": 3568,
  "of": 634,
  "off": 2058,
  "office": 29362,
  "official": 15582,
  "offs": 11191,
  "oft": 7414,
  "often": 24802,
  "og": 525,
  "oga": 10346,
  "ogan": 6907,
  "ogen": 7836,
  "ogene": 22124,
  "ogenic": 17104,
  "ogenous": 30190,
  "ogens": 25401,
  "ogether": 7783,
  "ogg": 12868,
  "oggle": 31026,
  "ogle": 2319,
  "ogn": 2313,
  "ognitive": 29047,
  "ogo": 24612,
  "ogram": 22816,
  "ograms": 23959,
  "ograp": 1957,
  "ograph": 2303,
  "ographer": 16574,
  "ographers": 29003,
  "ographic": 6700,
  "ographical": 16535,
  "ographically": 28533,
  "ographics": 20049,
  "ographs": 31310,
  "ography": 4566,
  "ogs": 20131,
  "ogue": 5615,
  "ogy": 9995,
  "ogyn": 18060,
  "oh": 1107,
  "oha": 28153,
  "ohan": 23091,
  "ohn": 1414,
  "ohyd": 22402,
  "oi": 24024,
  "oice": 9678,
  "oid": 2316,
  "oids": 19684,
  "oil": 22197,
  "oin": 26445,
  "oint": 1626,
  "ointed": 19062,
  "oir": 18223,
  "oirs": 31307,
  "ois": 9631,
  "oise": 30239,
  "oit": 21777,
  "oj": 12359,
  "oji": 26749,
  "ojure": 27661,
  "ok": 487,
  "oka": 21229,
  "oke": 2456,
  "oked": 6343,
  "oken": 5881,
  "oker": 10671,
  "okes": 2671,
  "oki": 31432,
  "okia": 16479,
  "oking": 5713,
  "oko": 16210,
  "oks": 25526,
  "oku": 16842,
  "ol": 349,
  "ola": 5154,
  "olan": 14569,
  "olar": 9939,
  "olas": 11259,
  "olate": 31866,
  "olation": 21716,
  "old": 776,
  "oldown": 22256,
  "olds": 9334,
  "ole": 2502,
  "olean": 25953,
  "olen": 8070,
  "oler": 13332,
  "oles": 4004,
  "olester": 20220,
  "olesterol": 21591,
  "olf": 4470,
  "oli": 10335,
  "olia": 21501,
  "oliberal": 22002,
  "olic": 3904,
  "olics": 16803,
  "olicy": 24592,
  "olid": 10844,
  "olin": 31829,
  "oline": 13319,
  "olis": 7925,
  "olit": 5135,
  "olitan": 11519,
  "olith": 19645,
  "olithic": 25738,
  "olitical": 11028,
  "olitics": 17991,
  "olk": 13061,
  "olkien": 27363,
  "oll": 790,
  "olla": 27858,
  "ollah": 13437,
  "ollar": 11140,
  "ollen": 30550,
  "ollo": 16686,
  "ollow": 989,
  "olls": 24839,
  "olly": 4777,
  "ollywood": 6392,
  "oln": 10009,
  "olo": 13493,
  "olog": 908,
  "ologic": 27608,
  "ological": 2750,
  "ologically": 12112,
  "ologies": 5238,
  "ologist": 6481,
  "ologists": 8195,
  "ologne": 26014,
  "ologue": 31949,
  "ology": 1385,
  "olph": 9060,
  "olphin": 25960,
  "olphins": 13753,
  "ols": 10555,
  "olson": 26983,
  "olt": 7248,
  "olute": 3542,
  "olutely": 14532,
  "olution": 2084,
  "olutions": 13871,
  "olve": 6459,
  "olved": 5470,
  "olves": 9257,
  "olving": 9980,
  "oly": 4380,
  "olyn": 30694,
  "om": 296,
  "oma": 6492,
  "omach": 11943,
  "oman": 4611,
  "omas": 4512,
  "omatic": 15018,
  "omb": 2661,
  "ome": 460,
  "omed": 9687,
  "omeday": 20844,
  "omen": 3518,
  "omer": 11651,
  "omers": 16626,
  "omes": 9134,
  "omet": 890,
  "ometer": 16671,
  "omething": 8257,
  "ometimes": 6413,
  "ometown": 15459,
  "ometric": 21746,
  "omez": 24755,
  "omi": 15800,
  "omic": 11064,
  "omical": 20203,
  "omin": 6200,
  "omination": 26111,
  "oming": 6484,
  "omm": 2408,
  "ommend": 27457,
  "ommod": 8482,
  "omo": 15359,
  "omon": 18149,
  "omore": 17480,
  "omorph": 25448,
  "omp": 3129,
  "ompl": 5701,
  "ompson": 9318,
  "oms": 4879,
  "omsky": 30532,
  "omy": 9788,
  "on": 262,
  "ona": 4069,
  "onal": 16817,
  "once": 26505,
  "ond": 620,
  "onda": 12033,
  "onde": 16589,
  "onder": 9772,
  "onding": 31125,
  "ondo": 20151,
  "ondon": 3072,
  "onds": 12224,
  "ondu": 30182,
  "onduct": 11066,
  "one": 503,
  "oned": 10931,
  "onel": 24445,
  "oneliness": 31231,
  "onen": 30275,
  "onent": 3943,
  "onents": 3802,
  "oner": 13022,
  "ones": 1769,
  "onest": 16609,
  "oney": 1288,
  "ong": 498,
  "onge": 14575,
  "ongevity": 24069,
  "ongh": 17260,
  "ongo": 22626,
  "ongs": 30820,
  "ongyang": 17346,
  "oni": 13412,
  "onia": 12307,
  "onial": 24352,
  "onian": 28412,
  "onic": 7347,
  "onies": 15756,
  "oning": 11229,
  "online": 30333,
  "only": 9053,
  "onna": 6389,
  "onnaissance": 25629,
  "ono": 29286,
  "onom": 5500,
  "onomous": 30991,
  "onomy": 29966,
  "ons": 698,
  "onse": 2480,
  "onsin": 7393,
  "onso": 20158,
  "onst": 2653,
  "onsters": 27819,
  "onstruction": 30068,
  "ont": 839,
  "onte": 28836,
  "onto": 4828,
  "onut": 16728,
  "ony": 1587,
  "onym": 4977,
  "onymous": 6779,
  "onz": 10361,
  "oo": 3277,
  "ood": 730,
  "oody": 21750,
  "ook": 565,
  "ookie": 19103,
  "ooks": 31586,
  "ool": 1000,
  "ools": 13600,
  "oom": 4362,
  "oon": 2168,
  "oons": 12590,
  "oop": 11934,
  "oor": 2894,
  "oos": 24060,
  "oot": 1051,
  "ooter": 23151,
  "ooth": 5953,
  "ooting": 13849,
  "oots": 16327,
  "op": 391,
  "opa": 29419,
  "opal": 29001,
  "opard": 13403,
  "opath": 19348,
  "opathy": 28792,
  "ope": 3148,
  "oped": 20921,
  "open": 9709,
  "openhagen": 22563,
  "opening": 31538,
  "oper": 3403,
  "operation": 24172,
  "operative": 27628,
  "opers": 27316,
  "opes": 13206,
  "opez": 17381,
  "oph": 2516,
  "opher": 7931,
  "ophers": 19882,
  "ophile": 26792,
  "ophob": 10944,
  "ophobia": 16593,
  "ophobic": 18705,
  "opia": 22821,
  "opian": 31347,
  "opic": 16435,
  "oping": 14252,
  "ople": 585,
  "oples": 11897,
  "opoulos": 17706,
  "opp": 13654,
  "oppable": 31442,
  "oppy": 29636,
  "ops": 2747,
  "opsis": 31657,
  "opt": 11010,
  "option": 26581,
  "opular": 15657,
  "opus": 28408,
  "opy": 6456,
  "opyright": 9963,
  "oqu": 19180,
  "or": 273,
  "ora": 6655,
  "orable": 9856,
  "orage": 5370,
  "oral": 5665,
  "orate": 11392,
  "oration": 6908,
  "ord": 577,
  "ordable": 13562,
  "ordan": 6516,
  "orde": 22469,
  "order": 2850,
  "ordered": 24250,
  "ordering": 30656,
  "orders": 6043,
  "ordin": 5553,
  "ordinarily": 25456,
  "ordinary": 9263,
  "ordinate": 24929,
  "ordinates": 30952,
  "ordination": 29926,
  "ordinator": 29947,
  "ording": 1134,
  "ordon": 8740,
  "ords": 4267,
  "ore": 375,
  "orean": 26630,
  "ored": 1836,
  "orem": 26122,
  "oren": 26371,
  "orer": 12290,
  "orers": 28610,
  "ores": 5156,
  "orest": 20675,
  "oret": 9427,
  "orf": 21090,
  "org": 4008,
  "organ": 9162,
  "organized": 26102,
  "orge": 9052,
  "ori": 12450,
  "oria": 11814,
  "orial": 4193,
  "orian": 20566,
  "oric": 7102,
  "orical": 11917,
  "orically": 17211,
  "orie": 20092,
  "orient": 12461,
  "oriented": 14846,
  "ories": 1687,
  "orig": 12730,
  "original": 15993,
  "oring": 2412,
  "orious": 9454,
  "ority": 14878,
  "ork": 943,
  "orks": 3683,
  "orkshire": 25317,
  "orld": 1819,
  "orm": 618,
  "ormal": 9224,
  "ormally": 27726,
  "orman": 22502,
  "orn": 1266,
  "orne": 7634,
  "orney": 3700,
  "orneys": 10678,
  "ornia": 2900,
  "ornings": 23581,
  "orns": 13943,
  "oro": 19993,
  "orough": 7709,
  "orous": 9212,
  "orously": 22216,
  "orp": 19409,
  "orph": 13007,
  "orrh": 31133,
  "orrow": 4426,
  "orry": 6085,
  "ors": 662,
  "orsche": 21141,
  "orse": 6107,
  "orses": 12852,
  "orship": 9459,
  "orsi": 21084,
  "orst": 24890,
  "ort": 418,
  "orted": 7043,
  "orter": 3881,
  "orters": 2947,
  "orth": 1404,
  "ortheast": 13318,
  "ortheastern": 22735,
  "orthern": 4352,
  "orthy": 17583,
  "orting": 15622,
  "ortion": 5271,
  "ortions": 14103,
  "ortium": 20427,
  "ortmund": 24860,
  "orton": 17497,
  "orts": 1889,
  "ortun": 1764,
  "ortunate": 12493,
  "ortunately": 4432,
  "orum": 17860,
  "orus": 15194,
  "ory": 658,
  "os": 419,
  "osa": 8045,
  "osate": 31027,
  "osaur": 17293,
  "osaurs": 18756,
  "osc": 18897,
  "ose": 570,
  "osed": 1261,
  "osen": 5251,
  "oser": 20985,
  "oses": 3280,
  "osevelt": 15480,
  "osexual": 7864,
  "osh": 3984,
  "oshi": 18197,
  "oshop": 22781,
  "osi": 15082,
  "osing": 2406,
  "osion": 18601,
  "osis": 6992,
  "osit": 8361,
  "osite": 5655,
  "osition": 2767,
  "ositories": 31839,
  "ository": 14335,
  "osity": 16558,
  "oslav": 22923,
  "oso": 30752,
  "osoph": 19099,
  "osophy": 23672,
  "osp": 2007,
  "ospace": 21737,
  "ospel": 15159,
  "osph": 16972,
  "osphere": 19230,
  "ospital": 3299,
  "oss": 802,
  "ossible": 4675,
  "ossibly": 20250,
  "ossier": 24821,
  "ossip": 23874,
  "ost": 463,
  "ostal": 15673,
  "oster": 7089,
  "osterone": 20512,
  "ostic": 16613,
  "oston": 5035,
  "osure": 4697,
  "osures": 15217,
  "ot": 313,
  "ota": 3933,
  "otal": 6515,
  "otally": 25707,
  "ote": 1970,
  "otech": 28870,
  "otechnology": 27108,
  "oted": 4843,
  "oter": 17495,
  "oters": 20253,
  "otes": 7308,
  "oth": 866,
  "othe": 21647,
  "other": 852,
  "otherapy": 18936,
  "othing": 29428,
  "oths": 26530,
  "othy": 14211,
  "oti": 3845,
  "otic": 6162,
  "otics": 18134,
  "otine": 19218,
  "oting": 10282,
  "otion": 11591,
  "otional": 26093,
  "otive": 17313,
  "otle": 22001,
  "oto": 2701,
  "oton": 21276,
  "ots": 1708,
  "ott": 1603,
  "otta": 22799,
  "ottage": 29825,
  "otte": 10785,
  "otted": 27011,
  "otten": 7285,
  "ottenham": 16849,
  "ottest": 21717,
  "ottesville": 20643,
  "otti": 22343,
  "otto": 27032,
  "ottom": 15221,
  "otton": 12896,
  "oty": 5399,
  "otype": 8544,
  "otypes": 12407,
  "ou": 280,
  "oub": 10909,
  "oubted": 14054,
  "oubtedly": 14382,
  "ouch": 8344,
  "ouched": 27512,
  "oud": 2867,
  "ouf": 31164,
  "oufl": 27488,
  "ough": 605,
  "ought": 2809,
  "oul": 3484,
  "ould": 415,
  "oulder": 17518,
  "oulos": 17188,
  "oun": 903,
  "ounce": 8866,
  "ounced": 7907,
  "ounces": 28463,
  "ouncing": 16303,
  "ound": 651,
  "ounded": 5909,
  "ounder": 26086,
  "ounding": 9191,
  "ounds": 3853,
  "ounge": 20826,
  "ouns": 26063,
  "ount": 609,
  "ountain": 20080,
  "ounter": 18205,
  "ounty": 20353,
  "oup": 11167,
  "our": 468,
  "ourage": 26962,
  "ource": 3664,
  "ourced": 24861,
  "ources": 3186,
  "ourcing": 23490,
  "oured": 7928,
  "ourge": 16106,
  "ourgeois": 19107,
  "ouri": 9350,
  "ouring": 21097,
  "ourn": 1784,
  "ournal": 2355,
  "ournals": 18003,
  "ournament": 17906,
  "ourney": 5981,
  "ours": 5455,
  "ourse": 8627,
  "ourt": 2668,
  "ous": 510,
  "ousand": 31922,
  "ousands": 16690,
  "ouse": 1044,
  "oused": 27735,
  "ouses": 11374,
  "ousing": 12882,
  "ously": 3309,
  "ousse": 23038,
  "oust": 14896,
  "oustic": 21297,
  "ouston": 6070,
  "out": 446,
  "outed": 14994,
  "outh": 1466,
  "outheast": 12319,
  "outheastern": 24341,
  "outhern": 4337,
  "outine": 30790,
  "outing": 11980,
  "outs": 4908,
  "outube": 13816,
  "ouver": 8125,
  "oux": 19540,
  "ov": 712,
  "ova": 10049,
  "ovable": 23642,
  "ovak": 19341,
  "ovakia": 24654,
  "oval": 8564,
  "ovan": 18633,
  "ove": 667,
  "oved": 2798,
  "ovember": 2770,
  "oven": 16439,
  "over": 2098,
  "overed": 2506,
  "overs": 11217,
  "overty": 21009,
  "overy": 4671,
  "oves": 5910,
  "ovic": 14643,
  "ovich": 16098,
  "ovie": 26941,
  "oving": 5282,
  "ovo": 16124,
  "ovsky": 23644,
  "ovy": 22593,
  "ovych": 30019,
  "ow": 325,
  "owa": 7075,
  "owd": 26628,
  "owder": 11607,
  "owed": 7163,
  "oween": 14574,
  "owell": 12632,
  "ower": 850,
  "owered": 6912,
  "owers": 3878,
  "owing": 8102,
  "owitz": 17532,
  "owl": 4920,
  "owler": 24270,
  "owment": 31739,
  "own": 598,
  "owned": 10459,
  "owner": 17023,
  "owners": 13034,
  "owns": 20902,
  "ownt": 5596,
  "owntown": 19535,
  "ows": 1982,
  "owship": 24015,
  "owski": 10437,
  "ox": 1520,
  "oxic": 28783,
  "oxide": 31207,
  "oxy": 30183,
  "oy": 735,
  "oya": 23654,
  "oyal": 4630,
  "oyd": 11694,
  "oyle": 18246,
  "oys": 20185,
  "oz": 10063,
  "ozy": 24463,
  "p": 112,
  "pa": 9564,
  "pace": 13042,
  "pack": 10313,
  "pad": 18733,
  "page": 8060,
  "paid": 16969,
  "pal": 20023,
  "pan": 6649,
  "panz": 29303,
  "paper": 19816,
  "par": 2051,
  "parable": 26918,
  "paralle": 29067,
  "param": 27984,
  "pard": 27492,
  "pared": 26521,
  "parent": 19709,
  "parents": 20539,
  "park": 19856,
  "part": 3827,
  "particularly": 26740,
  "partisan": 21048,
  "party": 9609,
  "pass": 5857,
  "pat": 8421,
  "patch": 20095,
  "path": 13235,
  "patient": 28371,
  "patrick": 23561,
  "pay": 16491,
  "payer": 26232,
  "paying": 25796,
  "pc": 20102,
  "pdf": 15220,
  "pe": 437,
  "peace": 19059,
  "pecially": 2188,
  "pect": 786,
  "pected": 7036,
  "pecting": 30475,
  "pection": 16413,
  "pective": 4755,
  "pectives": 17457,
  "ped": 9344,
  "peer": 29551,
  "pelled": 14144,
  "pen": 4100,
  "pensive": 22235,
  "pent": 25274,
  "people": 13881,
  "per": 552,
  "perature": 30353,
  "percent": 24466,
  "pered": 13938,
  "perfect": 24418,
  "performance": 26040,
  "performing": 26260,
  "perhaps": 25489,
  "peria": 29956,
  "perial": 12978,
  "pering": 21534,
  "perm": 17793,
  "peror": 12872,
  "pers": 18373,
  "person": 5352,
  "personal": 21945,
  "pert": 16542,
  "perture": 31771,
  "pes": 7090,
  "pet": 5731,
  "pex": 24261,
  "pg": 10110,
  "ph": 1078,
  "phal": 29097,
  "phan": 11683,
  "phas": 5414,
  "phasis": 28057,
  "pher": 16579,
  "pherd": 22013,
  "phies": 26984,
  "phil": 30241,
  "phis": 17127,
  "phone": 4652,
  "phones": 8436,
  "phot": 31528,
  "photo": 21699,
  "php": 13971,
  "phy": 6706,
  "pi": 20993,
  "pic": 15324,
  "pical": 17383,
  "pically": 18091,
  "pick": 31097,
  "pict": 18668,
  "pictured": 22802,
  "pie": 17408,
  "piece": 12271,
  "pill": 29747,
  "pin": 11837,
  "ping": 11494,
  "pir": 3144,
  "piracy": 21584,
  "pire": 5267,
  "pired": 5521,
  "pires": 23701,
  "piring": 31046,
  "pit": 14487,
  "pite": 2204,
  "pl": 500,
  "place": 4905,
  "placed": 20507,
  "placement": 20017,
  "places": 21426,
  "plan": 13233,
  "plane": 29309,
  "planned": 30929,
  "plant": 16148,
  "plate": 8826,
  "plates": 20198,
  "platform": 25875,
  "play": 2001,
  "played": 18439,
  "player": 9927,
  "playing": 16382,
  "plays": 31153,
  "ple": 1241,
  "pleasant": 20592,
  "pled": 8815,
  "plement": 26405,
  "pler": 21675,
  "ples": 2627,
  "pless": 14986,
  "plete": 8587,
  "plex": 13237,
  "pling": 12090,
  "pload": 8209,
  "plom": 5719,
  "plot": 31119,
  "ploy": 1389,
  "plus": 9132,
  "ply": 2066,
  "pm": 5104,
  "png": 23634,
  "po": 7104,
  "pocket": 31985,
  "point": 4183,
  "points": 12780,
  "poke": 31969,
  "pol": 16610,
  "policy": 30800,
  "polit": 26738,
  "political": 19155,
  "politics": 28983,
  "poll": 28699,
  "pool": 7013,
  "poon": 28021,
  "poons": 29722,
  "poor": 31403,
  "pop": 13524,
  "por": 1807,
  "pora": 29689,
  "porary": 5335,
  "porate": 31136,
  "port": 608,
  "portation": 9623,
  "ported": 8789,
  "porting": 19845,
  "portion": 7909,
  "ports": 3524,
  "pos": 16521,
  "pose": 18226,
  "position": 24326,
  "positive": 24814,
  "post": 6864,
  "posts": 25433,
  "pot": 12182,
  "pound": 15555,
  "power": 6425,
  "powered": 12840,
  "pp": 378,
  "ppe": 24708,
  "pped": 1544,
  "pper": 3346,
  "ppers": 8818,
  "ppery": 26378,
  "pping": 2182,
  "ppo": 14812,
  "ppy": 11434,
  "pr": 1073,
  "pract": 25152,
  "pre": 3415,
  "pread": 7875,
  "pres": 18621,
  "present": 22655,
  "president": 16881,
  "press": 9139,
  "pret": 6373,
  "pri": 4126,
  "price": 25224,
  "priced": 26498,
  "pril": 2562,
  "prim": 20282,
  "prime": 26716,
  "pring": 13822,
  "print": 6532,
  "prise": 7644,
  "prises": 16134,
  "prising": 12714,
  "prisingly": 17567,
  "priv": 16211,
  "private": 22545,
  "pro": 1928,
  "probably": 24740,
  "process": 18405,
  "proclaimed": 31336,
  "produ": 15229,
  "produced": 25619,
  "producing": 30919,
  "product": 12640,
  "production": 22132,
  "productive": 22356,
  "prof": 4981,
  "professional": 29485,
  "profile": 11796,
  "profit": 7795,
  "profits": 25201,
  "program": 27778,
  "project": 21145,
  "prom": 14670,
  "pron": 31322,
  "proof": 14176,
  "prop": 22679,
  "proper": 25464,
  "prot": 28099,
  "prote": 14171,
  "protected": 24930,
  "prov": 14765,
  "prus": 22455,
  "ps": 2019,
  "pse": 13808,
  "psons": 27505,
  "psy": 14865,
  "psych": 25557,
  "pt": 519,
  "pta": 26338,
  "pted": 5641,
  "ptic": 15231,
  "ption": 1492,
  "ptions": 8678,
  "ptive": 25473,
  "pton": 8704,
  "pts": 14404,
  "pty": 6298,
  "pub": 25327,
  "public": 12979,
  "published": 26949,
  "punk": 30044,
  "pur": 13851,
  "purpose": 28857,
  "pus": 26477,
  "push": 30525,
  "put": 2547,
  "puted": 14427,
  "puter": 11710,
  "px": 14764,
  "py": 13559,
  "q": 113,
  "qa": 18282,
  "ql": 19208,
  "qqa": 23612,
  "qu": 434,
  "qual": 13897,
  "qualified": 21480,
  "quality": 12869,
  "quar": 26514,
  "quarter": 21405,
  "quarters": 7583,
  "que": 3953,
  "quel": 27821,
  "quer": 11882,
  "querque": 29479,
  "query": 28103,
  "ques": 11581,
  "quest": 8785,
  "question": 25078,
  "quet": 21683,
  "quez": 18248,
  "quire": 16489,
  "quirer": 30768,
  "quist": 25701,
  "quite": 30825,
  "quote": 27134,
  "r": 114,
  "ra": 516,
  "rab": 19472,
  "rac": 6462,
  "race": 17316,
  "racial": 29233,
  "ract": 1319,
  "racted": 19055,
  "raction": 19261,
  "ractions": 31510,
  "racuse": 23909,
  "rad": 4399,
  "rade": 26866,
  "rae": 24624,
  "rael": 1961,
  "raeus": 30534,
  "raf": 19696,
  "raft": 1643,
  "rafted": 24142,
  "rag": 25968,
  "rage": 7351,
  "raged": 15973,
  "rah": 11346,
  "raham": 12763,
  "rahim": 20767,
  "raid": 6958,
  "raig": 9628,
  "rail": 30978,
  "rain": 2780,
  "raine": 23314,
  "rained": 13016,
  "raining": 23022,
  "raising": 26992,
  "rait": 12002,
  "raits": 23245,
  "ral": 1292,
  "ram": 4083,
  "ramble": 27231,
  "rament": 13691,
  "ramento": 15291,
  "ramid": 19700,
  "rams": 16601,
  "ran": 2245,
  "rance": 21327,
  "ranch": 22982,
  "rand": 25922,
  "random": 31364,
  "rane": 12611,
  "ranean": 14707,
  "range": 4989,
  "ranged": 30915,
  "ranging": 25790,
  "ranked": 23485,
  "ranking": 22176,
  "rans": 27309,
  "rant": 5901,
  "rap": 1393,
  "rape": 13997,
  "raper": 25057,
  "raph": 7488,
  "rapped": 9226,
  "rapping": 31414,
  "raq": 3091,
  "rar": 24923,
  "rared": 21723,
  "rary": 7101,
  "ras": 7311,
  "rase": 24950,
  "rast": 3185,
  "rastructure": 5138,
  "rat": 1245,
  "rate": 4336,
  "rated": 3713,
  "rates": 7272,
  "rath": 23103,
  "rather": 30186,
  "ratic": 27882,
  "rating": 7452,
  "ration": 1310,
  "rational": 18023,
  "rations": 6735,
  "rative": 7851,
  "ratives": 19932,
  "rator": 8193,
  "rators": 7834,
  "ratory": 29673,
  "ratt": 22083,
  "ratulations": 29199,
  "raud": 5686,
  "rav": 4245,
  "rave": 19944,
  "raved": 30821,
  "ravel": 17707,
  "raven": 24719,
  "ravis": 15771,
  "ravity": 25716,
  "ravo": 28254,
  "raw": 1973,
  "rawl": 14979,
  "rawling": 16971,
  "rawn": 5717,
  "rax": 28347,
  "ray": 2632,
  "rays": 18196,
  "raz": 2985,
  "razil": 5831,
  "razy": 5803,
  "rb": 30703,
  "rc": 11456,
  "rd": 4994,
  "re": 260,
  "rea": 19158,
  "reach": 14164,
  "reaching": 24951,
  "read": 1008,
  "reading": 21161,
  "ready": 1380,
  "real": 4907,
  "realDonaldTrump": 22114,
  "really": 24214,
  "ream": 2339,
  "reamed": 15126,
  "reams": 7563,
  "reat": 642,
  "reated": 14577,
  "reath": 23946,
  "reating": 18046,
  "reatment": 22077,
  "reb": 23599,
  "rec": 8727,
  "reci": 26711,
  "reck": 10782,
  "recogn": 24068,
  "record": 20454,
  "rect": 2967,
  "rection": 9453,
  "rections": 17824,
  "recy": 16819,
  "red": 450,
  "reddit": 19646,
  "redible": 28236,
  "redict": 13720,
  "redients": 26626,
  "redit": 6987,
  "redited": 19487,
  "redits": 26119,
  "ree": 613,
  "reed": 1913,
  "reedom": 3201,
  "reek": 10788,
  "reen": 1407,
  "reens": 5538,
  "rees": 5006,
  "reet": 2607,
  "ref": 7728,
  "reg": 2307,
  "regist": 29011,
  "regn": 27460,
  "regon": 7225,
  "regor": 21258,
  "regular": 17811,
  "regulated": 23559,
  "regulation": 23896,
  "rehens": 25074,
  "rehensible": 29924,
  "rel": 2711,
  "reland": 5969,
  "related": 5197,
  "release": 22797,
  "released": 26883,
  "reli": 27142,
  "religious": 21937,
  "rell": 10253,
  "rella": 18942,
  "rem": 1363,
  "reme": 2119,
  "remlin": 14472,
  "ren": 912,
  "rence": 6738,
  "rench": 3239,
  "renched": 19933,
  "renches": 29811,
  "rencies": 11933,
  "rency": 5013,
  "rend": 10936,
  "render": 13482,
  "rendered": 23294,
  "rene": 21904,
  "renn": 25540,
  "rent": 1152,
  "rentice": 23251,
  "reon": 27220,
  "rep": 7481,
  "repe": 30240,
  "report": 26836,
  "reported": 26388,
  "repre": 8516,
  "reprene": 8566,
  "represent": 14349,
  "represented": 29753,
  "requ": 11589,
  "requency": 30085,
  "rer": 13569,
  "rera": 19475,
  "rero": 27956,
  "rers": 27911,
  "res": 406,
  "resa": 13617,
  "rescent": 26750,
  "resent": 1875,
  "resents": 5905,
  "resh": 3791,
  "reshold": 10808,
  "resident": 1523,
  "resistant": 25548,
  "resolution": 27098,
  "resp": 4519,
  "respect": 15191,
  "respond": 5728,
  "respons": 14234,
  "response": 30428,
  "responsible": 19289,
  "ress": 594,
  "ressed": 3710,
  "resses": 20150,
  "ressing": 10922,
  "ression": 3505,
  "ressive": 5314,
  "rest": 916,
  "rested": 27936,
  "restrial": 19852,
  "result": 30916,
  "ret": 1235,
  "retch": 30006,
  "retched": 29230,
  "rete": 7440,
  "retion": 14610,
  "rets": 8630,
  "rett": 7092,
  "retty": 17819,
  "return": 20961,
  "rev": 19811,
  "review": 19584,
  "reviewed": 28275,
  "revolution": 27928,
  "rew": 1765,
  "rey": 4387,
  "rez": 21564,
  "rh": 20941,
  "ri": 381,
  "ria": 7466,
  "riad": 19380,
  "riage": 3838,
  "riages": 15085,
  "rial": 4236,
  "rian": 4062,
  "rians": 16651,
  "rib": 838,
  "ribe": 26209,
  "ribed": 27657,
  "riber": 25338,
  "rible": 5305,
  "ribly": 15386,
  "ribut": 2357,
  "ribute": 4585,
  "ributed": 5711,
  "ributes": 9578,
  "ribution": 4015,
  "ric": 1148,
  "rica": 27189,
  "rical": 8185,
  "ricane": 10239,
  "ricanes": 19438,
  "rice": 22200,
  "rich": 6202,
  "riched": 28279,
  "ricia": 25122,
  "rick": 4717,
  "ricks": 23232,
  "rics": 10871,
  "rict": 1937,
  "ricted": 21341,
  "rid": 5912,
  "ride": 25844,
  "ridge": 12670,
  "rie": 5409,
  "ried": 2177,
  "rief": 3595,
  "riel": 14154,
  "rien": 13758,
  "riend": 1298,
  "rient": 8183,
  "riented": 23344,
  "rients": 19390,
  "rier": 5529,
  "riers": 8023,
  "ries": 1560,
  "rif": 9726,
  "rific": 7513,
  "rifice": 11186,
  "rig": 4366,
  "riger": 18857,
  "right": 2354,
  "rights": 21452,
  "rik": 8152,
  "rike": 11116,
  "rikes": 16708,
  "ril": 24776,
  "rill": 19109,
  "rily": 29257,
  "rim": 4779,
  "rimin": 9059,
  "riminal": 25565,
  "rimination": 7016,
  "rimp": 25760,
  "rin": 11924,
  "rina": 18896,
  "rine": 22098,
  "ring": 1933,
  "rington": 21441,
  "rint": 13301,
  "rio": 22764,
  "rior": 10001,
  "riors": 9768,
  "rip": 6297,
  "ripp": 14680,
  "ript": 2459,
  "ription": 4196,
  "rique": 25667,
  "rir": 30576,
  "ris": 2056,
  "rise": 17254,
  "rises": 25828,
  "rising": 17088,
  "risk": 17029,
  "rison": 6607,
  "rist": 1485,
  "ristol": 19244,
  "rists": 30604,
  "risy": 21705,
  "rit": 711,
  "rite": 9171,
  "rites": 27540,
  "ritical": 15350,
  "rities": 16027,
  "rition": 10887,
  "ritional": 22904,
  "ritis": 29449,
  "ritz": 26347,
  "rium": 19146,
  "rive": 6701,
  "rived": 15963,
  "river": 29597,
  "riving": 13677,
  "rix": 9921,
  "rm": 30925,
  "rne": 27337,
  "ro": 308,
  "road": 5327,
  "roads": 17782,
  "rob": 23307,
  "robe": 27147,
  "roc": 12669,
  "rock": 10504,
  "rod": 16911,
  "rodu": 2151,
  "roduction": 13449,
  "roe": 18642,
  "rog": 5511,
  "rogen": 15443,
  "roid": 4003,
  "rol": 4034,
  "rolet": 26816,
  "roll": 3954,
  "rolled": 8247,
  "roller": 13081,
  "rolling": 14153,
  "rolls": 24806,
  "rolog": 30378,
  "rom": 395,
  "rome": 6578,
  "ron": 1446,
  "rone": 15297,
  "rones": 14983,
  "rong": 14784,
  "ronic": 4818,
  "ronics": 23053,
  "rons": 11610,
  "ront": 4233,
  "ronting": 24117,
  "room": 3198,
  "rooms": 9175,
  "root": 20916,
  "roots": 14269,
  "rop": 1673,
  "roph": 9989,
  "rophe": 18662,
  "rophic": 15653,
  "ropical": 27026,
  "ropolis": 26794,
  "ropolitan": 13106,
  "ropri": 8725,
  "ropy": 29129,
  "ror": 1554,
  "rors": 6775,
  "ros": 4886,
  "rose": 13906,
  "ross": 1201,
  "rost": 27164,
  "rot": 12141,
  "rote": 2071,
  "rots": 25294,
  "rou": 478,
  "roud": 5205,
  "rough": 736,
  "rought": 2740,
  "round": 738,
  "roup": 952,
  "rous": 7951,
  "rov": 17870,
  "rovers": 25519,
  "row": 814,
  "rowd": 3449,
  "rowing": 10188,
  "rown": 2817,
  "rows": 9538,
  "rowth": 13957,
  "roy": 3550,
  "rs": 3850,
  "rt": 22889,
  "ru": 606,
  "ruary": 3167,
  "rub": 29873,
  "ruce": 24358,
  "ruck": 31648,
  "ruct": 1413,
  "ructed": 18623,
  "ruction": 2823,
  "ructions": 22406,
  "ructive": 12933,
  "ructure": 2916,
  "rue": 22749,
  "rued": 26310,
  "rug": 1969,
  "rugged": 22766,
  "rugu": 24842,
  "ruit": 5137,
  "rule": 27340,
  "ruly": 31429,
  "rum": 6145,
  "run": 5103,
  "runner": 14474,
  "running": 17315,
  "rup": 12063,
  "rupal": 31497,
  "rupt": 3510,
  "ruption": 5625,
  "rus": 14794,
  "rust": 12948,
  "ry": 571,
  "ryan": 26877,
  "rying": 11357,
  "ryn": 29320,
  "rypt": 20575,
  "rys": 19759,
  "rÃ©": 24307,
  "s": 115,
  "sa": 10087,
  "sac": 30503,
  "safe": 21735,
  "sal": 25616,
  "san": 18095,
  "save": 27201,
  "saving": 24422,
  "say": 17467,
  "sburg": 28843,
  "sc": 1499,
  "scale": 8745,
  "scape": 7711,
  "scar": 10775,
  "scars": 31360,
  "scenes": 24867,
  "sch": 24186,
  "sche": 14644,
  "school": 13019,
  "science": 15466,
  "scient": 21432,
  "scill": 22677,
  "scope": 31964,
  "screen": 10183,
  "scrib": 4500,
  "scribe": 9607,
  "script": 15816,
  "se": 326,
  "sea": 7200,
  "search": 16090,
  "season": 4830,
  "seat": 19317,
  "sec": 2258,
  "second": 13076,
  "secret": 18968,
  "sect": 9508,
  "section": 9806,
  "sections": 28993,
  "sector": 27347,
  "secure": 20882,
  "security": 10730,
  "secut": 3894,
  "secution": 16740,
  "secutive": 10895,
  "secutor": 27467,
  "secutors": 21333,
  "see": 4064,
  "seek": 28094,
  "seen": 16050,
  "sein": 16207,
  "sel": 749,
  "select": 25419,
  "seless": 11574,
  "self": 981,
  "sell": 7273,
  "seller": 28114,
  "selling": 13895,
  "sels": 8087,
  "selves": 1887,
  "semb": 4627,
  "semble": 14508,
  "sembly": 6176,
  "sen": 5581,
  "senal": 8728,
  "sens": 18832,
  "sensitive": 28588,
  "sequ": 3026,
  "sequently": 19893,
  "ser": 2387,
  "series": 24524,
  "serious": 26932,
  "serv": 4641,
  "server": 15023,
  "service": 15946,
  "serving": 25162,
  "ses": 9792,
  "set": 3077,
  "sett": 19215,
  "setting": 30511,
  "seud": 13071,
  "seven": 24919,
  "sever": 25992,
  "sewhere": 26961,
  "sex": 5929,
  "sexual": 18559,
  "sey": 3907,
  "seys": 22703,
  "sh": 1730,
  "shadow": 18442,
  "shaped": 16739,
  "share": 23884,
  "sharing": 17355,
  "shaw": 27459,
  "she": 7976,
  "shed": 30267,
  "sheet": 22112,
  "shield": 30334,
  "shine": 18885,
  "ship": 7250,
  "ships": 24780,
  "shire": 9074,
  "shirt": 14272,
  "shirts": 19675,
  "shit": 17294,
  "shoot": 27095,
  "shop": 31501,
  "shore": 11648,
  "short": 23656,
  "shot": 12238,
  "shots": 25551,
  "should": 20267,
  "show": 16265,
  "si": 16777,
  "sic": 18872,
  "side": 1513,
  "sided": 20240,
  "sight": 16921,
  "sign": 13000,
  "signed": 30480,
  "significant": 28919,
  "sil": 20734,
  "sim": 15530,
  "sin": 30850,
  "since": 22718,
  "sis": 14609,
  "site": 17420,
  "six": 18010,
  "size": 11810,
  "sized": 12606,
  "sk": 13140,
  "ski": 13655,
  "skin": 22885,
  "sky": 13107,
  "sl": 10004,
  "slaught": 28302,
  "slist": 31452,
  "sm": 7416,
  "small": 21655,
  "smart": 26171,
  "smith": 24049,
  "sn": 17762,
  "so": 551,
  "soc": 29807,
  "social": 16145,
  "soever": 15488,
  "soft": 4066,
  "sold": 24661,
  "sole": 6726,
  "solete": 22413,
  "some": 10436,
  "something": 16913,
  "sometimes": 27702,
  "son": 1263,
  "song": 29084,
  "sonian": 29679,
  "soon": 28303,
  "sor": 22116,
  "sound": 30997,
  "source": 13175,
  "sover": 20034,
  "sp": 3556,
  "space": 14724,
  "span": 20676,
  "spe": 4637,
  "speaking": 19800,
  "special": 22274,
  "specific": 12361,
  "speed": 11333,
  "spir": 25864,
  "spl": 27006,
  "spoken": 15811,
  "spons": 16245,
  "sponsored": 20191,
  "spot": 23087,
  "squ": 16166,
  "square": 20357,
  "src": 20807,
  "ss": 863,
  "sson": 13860,
  "st": 303,
  "stack": 30819,
  "stad": 21615,
  "staff": 27351,
  "stage": 13422,
  "stairs": 18578,
  "stakes": 31386,
  "stal": 9674,
  "stan": 12438,
  "stanbul": 19207,
  "stand": 1432,
  "standard": 21792,
  "standing": 5514,
  "stant": 23044,
  "star": 7468,
  "stars": 29925,
  "start": 12202,
  "starter": 10491,
  "stasy": 31128,
  "stat": 28658,
  "state": 5257,
  "stated": 18183,
  "statement": 24452,
  "states": 26997,
  "static": 20547,
  "station": 17882,
  "status": 21104,
  "stay": 28386,
  "ste": 4230,
  "stead": 25429,
  "sted": 25752,
  "steen": 31426,
  "stein": 5184,
  "stellar": 28931,
  "stem": 947,
  "sten": 24645,
  "step": 9683,
  "steps": 18871,
  "ster": 1758,
  "sterdam": 20385,
  "sters": 6982,
  "stick": 16167,
  "still": 21639,
  "stock": 12902,
  "ston": 3522,
  "stone": 6918,
  "stones": 28532,
  "stood": 6264,
  "stop": 10664,
  "store": 13039,
  "storm": 12292,
  "story": 12578,
  "stown": 23948,
  "str": 6926,
  "stra": 11578,
  "stract": 8249,
  "strap": 27313,
  "stre": 23068,
  "stream": 5086,
  "street": 28174,
  "strike": 26493,
  "string": 11978,
  "stro": 22358,
  "strom": 18727,
  "strong": 10659,
  "stru": 21419,
  "struct": 27938,
  "sts": 5756,
  "stud": 19414,
  "sty": 21283,
  "style": 6537,
  "su": 17791,
  "sub": 10151,
  "success": 27016,
  "such": 11201,
  "sum": 19361,
  "sun": 17287,
  "super": 19112,
  "supp": 12421,
  "support": 26196,
  "supported": 30818,
  "sur": 12400,
  "sw": 2173,
  "swer": 23092,
  "swick": 26475,
  "sworth": 27649,
  "sy": 2104,
  "sych": 3176,
  "sylv": 7956,
  "sylvania": 8028,
  "syn": 30443,
  "system": 15272,
  "t": 116,
  "ta": 7805,
  "tab": 25445,
  "table": 13587,
  "tag": 19440,
  "tail": 13162,
  "tailed": 29788,
  "tails": 24999,
  "tain": 932,
  "tainment": 10465,
  "take": 15699,
  "taker": 28404,
  "taking": 22993,
  "tale": 25047,
  "talk": 15409,
  "tank": 25837,
  "tar": 22330,
  "target": 22649,
  "tarian": 11234,
  "tarians": 21687,
  "tax": 17665,
  "td": 28775,
  "te": 398,
  "team": 14958,
  "tec": 27952,
  "tech": 11551,
  "techn": 21604,
  "ted": 1024,
  "tee": 2286,
  "teen": 7120,
  "teenth": 22198,
  "tees": 12991,
  "tel": 9579,
  "tell": 26099,
  "telling": 15693,
  "tem": 1243,
  "tember": 2721,
  "temporary": 26447,
  "tempt": 1960,
  "tems": 23556,
  "ten": 1025,
  "tenance": 9395,
  "ter": 347,
  "terday": 5346,
  "tered": 3438,
  "tering": 6417,
  "terior": 14945,
  "term": 3929,
  "tern": 758,
  "ternal": 5755,
  "terns": 29941,
  "terror": 10986,
  "terrorism": 15631,
  "terrorist": 31174,
  "ters": 888,
  "terson": 20140,
  "tery": 4735,
  "tes": 7735,
  "tesque": 31526,
  "test": 7749,
  "testing": 31265,
  "tex": 11502,
  "text": 673,
  "th": 399,
  "tha": 13420,
  "thal": 11529,
  "than": 13398,
  "thanks": 30710,
  "that": 5503,
  "the": 1122,
  "their": 22266,
  "theless": 9034,
  "them": 15995,
  "themed": 21423,
  "then": 8040,
  "thening": 18802,
  "ther": 492,
  "there": 7310,
  "thereum": 14804,
  "these": 25672,
  "thew": 7455,
  "they": 9239,
  "thia": 30903,
  "thing": 1194,
  "think": 12601,
  "thinkable": 29655,
  "thinking": 24656,
  "third": 15367,
  "thirds": 14530,
  "this": 7676,
  "thodox": 11006,
  "thood": 10740,
  "thora": 29025,
  "those": 23130,
  "though": 1924,
  "thought": 25003,
  "thouse": 19699,
  "thread": 25905,
  "threat": 17250,
  "threatening": 22872,
  "three": 15263,
  "throp": 10412,
  "through": 9199,
  "ths": 14701,
  "thur": 11233,
  "thus": 31941,
  "thy": 22113,
  "ti": 18777,
  "tic": 15532,
  "tical": 22686,
  "tick": 26062,
  "tics": 13033,
  "tier": 20875,
  "ties": 4159,
  "tight": 30358,
  "tim": 23918,
  "time": 2409,
  "times": 20943,
  "ting": 777,
  "tingham": 29735,
  "tingly": 28482,
  "tion": 5483,
  "tit": 12215,
  "title": 17131,
  "tle": 860,
  "tlement": 23574,
  "tles": 28751,
  "tlet": 24866,
  "tml": 25233,
  "to": 1355,
  "ton": 1081,
  "too": 10593,
  "toos": 25745,
  "top": 5306,
  "tor": 14136,
  "total": 25723,
  "touch": 29016,
  "town": 11129,
  "tox": 29412,
  "tr": 3271,
  "tra": 10673,
  "track": 11270,
  "trade": 21865,
  "traditional": 30211,
  "train": 25931,
  "trained": 30506,
  "trans": 9367,
  "tre": 25298,
  "tree": 24119,
  "tri": 24704,
  "trl": 28845,
  "tro": 25479,
  "true": 16890,
  "ts": 887,
  "tsburgh": 10074,
  "tsky": 31282,
  "tt": 1311,
  "tta": 23098,
  "ttes": 12164,
  "ttle": 31423,
  "ttp": 2864,
  "ttps": 4108,
  "tun": 26237,
  "turn": 21477,
  "turned": 25617,
  "tv": 21368,
  "tw": 15851,
  "twitter": 6239,
  "two": 11655,
  "txt": 23317,
  "ty": 851,
  "tyard": 31838,
  "type": 8469,
  "types": 26469,
  "tz": 20714,
  "u": 117,
  "ua": 6724,
  "uable": 6631,
  "uably": 11618,
  "uador": 20506,
  "ual": 743,
  "ually": 923,
  "uan": 7611,
  "uana": 3999,
  "uania": 28025,
  "uant": 29427,
  "uart": 16775,
  "uary": 2545,
  "uate": 5009,
  "uated": 6585,
  "uates": 11899,
  "uating": 11069,
  "uation": 2206,
  "uations": 5937,
  "ub": 530,
  "uba": 21947,
  "ubarak": 22728,
  "ube": 3739,
  "uber": 17822,
  "ubl": 1749,
  "uble": 28423,
  "ublic": 757,
  "ublin": 13689,
  "ublished": 10726,
  "ubs": 22195,
  "uc": 1196,
  "ucc": 14233,
  "uccess": 11143,
  "ucci": 21185,
  "uce": 7954,
  "uced": 13760,
  "uch": 780,
  "uchi": 27857,
  "uchs": 29205,
  "ucing": 23580,
  "uck": 1384,
  "ucked": 17017,
  "ucker": 11402,
  "ucking": 24110,
  "uckland": 23789,
  "ucks": 5689,
  "ucky": 4972,
  "ucle": 15524,
  "uclear": 3252,
  "uct": 4971,
  "uction": 8568,
  "uctions": 26757,
  "ud": 472,
  "uda": 16857,
  "udd": 4249,
  "uddenly": 19624,
  "uddle": 23814,
  "uddled": 28316,
  "uddy": 22307,
  "ude": 2602,
  "udeau": 11950,
  "uded": 17321,
  "uder": 27417,
  "udes": 8171,
  "udge": 12626,
  "udget": 24126,
  "udic": 25855,
  "uding": 24750,
  "udo": 24536,
  "uds": 21370,
  "ue": 540,
  "ued": 1565,
  "uel": 2606,
  "ueless": 31744,
  "ueller": 13339,
  "uels": 11739,
  "uer": 7987,
  "uerto": 12190,
  "ues": 899,
  "uesday": 2651,
  "uese": 16733,
  "uez": 12198,
  "uf": 3192,
  "ufact": 3662,
  "uff": 1761,
  "uffed": 16332,
  "uffer": 21565,
  "ufficient": 14938,
  "uffle": 18081,
  "uffled": 29388,
  "uffs": 19352,
  "uffy": 16396,
  "ug": 1254,
  "ugar": 16813,
  "ugby": 11507,
  "uge": 1975,
  "ugg": 4207,
  "uggage": 28733,
  "ugged": 13679,
  "ugger": 24455,
  "uggets": 25170,
  "ugging": 13805,
  "uggish": 30407,
  "ugh": 6678,
  "ught": 8966,
  "ugin": 26126,
  "ugs": 12094,
  "uh": 9715,
  "ui": 10564,
  "uild": 4146,
  "uilding": 6906,
  "uilt": 22099,
  "uine": 7544,
  "uing": 3325,
  "uit": 3164,
  "uitive": 28787,
  "uits": 8751,
  "uity": 14871,
  "uj": 13326,
  "uk": 3137,
  "uka": 19465,
  "uke": 5058,
  "ukes": 28122,
  "uki": 14622,
  "ul": 377,
  "ula": 4850,
  "ular": 1098,
  "ularly": 2498,
  "ulars": 28822,
  "ulas": 29201,
  "ulate": 4883,
  "ulated": 4631,
  "ulates": 15341,
  "ulating": 7946,
  "ulation": 1753,
  "ulations": 5892,
  "ulative": 13538,
  "ulator": 15009,
  "ulators": 21674,
  "ulatory": 21288,
  "ule": 2572,
  "uled": 21434,
  "ulence": 29992,
  "ulent": 13774,
  "ules": 7652,
  "ulf": 4642,
  "ulic": 27490,
  "ulin": 15565,
  "ulk": 15481,
  "ull": 748,
  "ullah": 27221,
  "ulled": 30930,
  "ulling": 30199,
  "ullivan": 13803,
  "ulls": 31916,
  "ully": 2129,
  "ulous": 6485,
  "ulously": 16595,
  "uls": 6064,
  "ulse": 11058,
  "ulsion": 14437,
  "ult": 596,
  "ultan": 24736,
  "ultane": 9141,
  "ults": 12220,
  "ultural": 8501,
  "ulture": 6848,
  "ulty": 10394,
  "ultz": 17618,
  "ulu": 14642,
  "ulum": 13882,
  "ulus": 26468,
  "uly": 1895,
  "ulz": 26860,
  "um": 404,
  "uma": 8258,
  "umably": 27341,
  "uman": 4030,
  "umat": 25398,
  "umatic": 16272,
  "umb": 2301,
  "umbai": 15733,
  "umber": 6685,
  "umbered": 25198,
  "umbing": 30210,
  "umbl": 13939,
  "umble": 9721,
  "umbled": 12458,
  "umbles": 23602,
  "umbling": 13549,
  "umblr": 15158,
  "umbo": 24902,
  "umbs": 21560,
  "ume": 2917,
  "umed": 17710,
  "umen": 22245,
  "ument": 1898,
  "uments": 3068,
  "umer": 7945,
  "umers": 25496,
  "umes": 8186,
  "umi": 20765,
  "umin": 8036,
  "uming": 12214,
  "umm": 12443,
  "ummy": 16814,
  "umn": 4859,
  "umni": 21785,
  "umns": 14977,
  "ump": 806,
  "umped": 21653,
  "umper": 17637,
  "umph": 10524,
  "umping": 20387,
  "umps": 19031,
  "umption": 27404,
  "umpy": 31704,
  "ums": 6883,
  "un": 405,
  "una": 11741,
  "unal": 18482,
  "unch": 1949,
  "unciation": 25157,
  "unct": 13573,
  "unction": 5749,
  "uncture": 28298,
  "und": 880,
  "under": 5341,
  "undred": 3022,
  "undreds": 16395,
  "une": 1699,
  "unes": 8643,
  "ung": 2210,
  "unge": 16047,
  "unged": 24568,
  "ungle": 14565,
  "unicip": 8792,
  "unicipal": 10056,
  "unicipality": 26018,
  "union": 22468,
  "unior": 8327,
  "unique": 15108,
  "unit": 27306,
  "unity": 11135,
  "unk": 3163,
  "unks": 15390,
  "unky": 25886,
  "unless": 27232,
  "unning": 7149,
  "uns": 14592,
  "unt": 2845,
  "untary": 27103,
  "unte": 5836,
  "until": 27418,
  "untu": 11136,
  "uo": 31572,
  "uous": 5688,
  "uously": 22972,
  "up": 901,
  "update": 30773,
  "uper": 8244,
  "upert": 23372,
  "upid": 7699,
  "upiter": 18586,
  "upload": 29514,
  "upon": 29818,
  "upp": 4398,
  "ups": 4902,
  "ur": 334,
  "ura": 7368,
  "urable": 13407,
  "urai": 24812,
  "ural": 1478,
  "urally": 17375,
  "urance": 3782,
  "urances": 25423,
  "uras": 15550,
  "uration": 5323,
  "urations": 22128,
  "urb": 4577,
  "urban": 30760,
  "urbed": 17976,
  "urch": 1747,
  "urchase": 26286,
  "urches": 11284,
  "urd": 2546,
  "urdue": 25839,
  "urdy": 26594,
  "ure": 501,
  "ureau": 5427,
  "ured": 1489,
  "uren": 30324,
  "urer": 30223,
  "urers": 31420,
  "ures": 984,
  "urg": 3528,
  "urger": 27722,
  "uri": 12920,
  "uries": 4275,
  "uring": 845,
  "urious": 16452,
  "uristic": 22600,
  "urities": 11985,
  "urity": 1482,
  "url": 13473,
  "urn": 782,
  "urned": 12722,
  "urning": 3007,
  "uro": 1299,
  "urous": 27745,
  "urp": 30863,
  "urrection": 28017,
  "urred": 12957,
  "urrent": 7773,
  "urring": 14390,
  "urry": 16442,
  "urs": 1467,
  "ursday": 2821,
  "urse": 10742,
  "ursed": 30917,
  "ursor": 25289,
  "urst": 20499,
  "urt": 3477,
  "urther": 1848,
  "uru": 14300,
  "ury": 1496,
  "us": 386,
  "usa": 24586,
  "usable": 29024,
  "usal": 6308,
  "usalem": 9197,
  "usat": 26461,
  "usc": 16815,
  "usch": 24428,
  "uscript": 15772,
  "use": 1891,
  "used": 1408,
  "usement": 26047,
  "user": 10480,
  "users": 20259,
  "uses": 2954,
  "useum": 5429,
  "ush": 1542,
  "ushed": 16278,
  "ushes": 25469,
  "ushi": 21220,
  "ushima": 21354,
  "ushing": 15763,
  "usiness": 5886,
  "using": 3432,
  "usion": 3967,
  "usions": 15860,
  "usive": 8064,
  "usk": 18855,
  "usp": 18759,
  "usr": 24594,
  "usra": 22227,
  "uss": 999,
  "ussed": 26801,
  "ussen": 27527,
  "ussia": 26024,
  "ussian": 31871,
  "ussion": 13323,
  "ussions": 18887,
  "ussy": 24226,
  "ust": 438,
  "ustain": 16323,
  "ustainable": 19292,
  "usted": 8155,
  "uster": 5333,
  "usterity": 14802,
  "usters": 12588,
  "usting": 11356,
  "ustom": 1936,
  "ustomed": 21080,
  "usually": 23722,
  "ut": 311,
  "uta": 30622,
  "utable": 24396,
  "utan": 31926,
  "utation": 30217,
  "utch": 6533,
  "ute": 1176,
  "uted": 8724,
  "uten": 9568,
  "utenant": 15040,
  "uter": 10961,
  "uters": 5080,
  "uterte": 17580,
  "utes": 1900,
  "uth": 1105,
  "uther": 11395,
  "uthor": 1479,
  "utic": 19113,
  "utical": 13291,
  "uties": 8213,
  "util": 30260,
  "uting": 14882,
  "ution": 997,
  "utions": 3265,
  "uto": 11825,
  "uton": 26506,
  "utory": 22884,
  "utral": 18997,
  "uts": 5692,
  "utsche": 23661,
  "utt": 12576,
  "utter": 10738,
  "utterstock": 22957,
  "utton": 18647,
  "uture": 1630,
  "uty": 3767,
  "utz": 24832,
  "uu": 30216,
  "uum": 14156,
  "uv": 14921,
  "ux": 3294,
  "uxe": 28381,
  "uy": 6352,
  "uz": 10486,
  "uzz": 5315,
  "uzzle": 26838,
  "v": 118,
  "va": 6664,
  "vable": 21789,
  "vae": 31994,
  "vag": 28776,
  "val": 2593,
  "valid": 12589,
  "vals": 12816,
  "value": 12661,
  "van": 9789,
  "vana": 31845,
  "vance": 17760,
  "vant": 4841,
  "var": 11499,
  "vard": 8586,
  "vari": 28457,
  "vas": 10995,
  "vasive": 19634,
  "vation": 10977,
  "vd": 25370,
  "ve": 304,
  "ved": 867,
  "veillance": 24090,
  "vel": 653,
  "velength": 25117,
  "vell": 28908,
  "velop": 1022,
  "velt": 15204,
  "vement": 22156,
  "ven": 563,
  "venant": 20660,
  "venge": 30486,
  "vent": 3134,
  "vention": 4540,
  "ventional": 21401,
  "ventions": 16289,
  "ventus": 27844,
  "venue": 3669,
  "ver": 331,
  "verage": 1803,
  "verages": 25413,
  "vere": 4040,
  "vered": 21216,
  "vern": 796,
  "verning": 12767,
  "vernment": 9436,
  "vers": 682,
  "verse": 4945,
  "versely": 20490,
  "version": 11777,
  "vert": 1701,
  "verted": 16359,
  "vertise": 2796,
  "vertisement": 3229,
  "vertisements": 9641,
  "vertising": 19410,
  "verts": 22914,
  "verty": 6914,
  "very": 541,
  "ves": 1052,
  "vest": 4356,
  "vet": 16070,
  "vette": 29650,
  "vey": 5398,
  "veyard": 24590,
  "vez": 25515,
  "vi": 10718,
  "via": 10199,
  "vial": 16329,
  "vic": 28168,
  "vict": 30555,
  "vid": 19030,
  "video": 20963,
  "vidia": 23420,
  "vie": 25029,
  "view": 1210,
  "vig": 31330,
  "vik": 30322,
  "ville": 3974,
  "vin": 6722,
  "vine": 23828,
  "ving": 961,
  "viol": 14251,
  "violence": 31382,
  "violent": 19806,
  "vious": 12275,
  "viously": 7706,
  "viron": 2080,
  "vironment": 2250,
  "vironments": 11289,
  "vis": 5195,
  "vised": 15586,
  "visible": 28202,
  "vision": 9708,
  "visor": 13152,
  "visors": 23826,
  "vity": 20081,
  "vm": 30834,
  "vo": 11705,
  "voc": 16952,
  "vol": 11349,
  "volent": 27534,
  "volume": 30864,
  "von": 23019,
  "vor": 16414,
  "vote": 28015,
  "vous": 29053,
  "vs": 23215,
  "vy": 7357,
  "w": 119,
  "wa": 10812,
  "wage": 17201,
  "wagen": 23716,
  "wait": 17431,
  "wal": 13183,
  "wald": 19344,
  "walk": 9438,
  "walker": 25498,
  "walks": 24628,
  "wall": 11360,
  "wan": 7152,
  "war": 5345,
  "ward": 892,
  "wards": 1995,
  "ware": 1589,
  "wart": 6807,
  "wartz": 21912,
  "was": 9512,
  "watch": 10092,
  "water": 5849,
  "waukee": 12981,
  "wave": 20405,
  "waves": 25840,
  "way": 1009,
  "ways": 1300,
  "wd": 27570,
  "we": 721,
  "wealth": 14322,
  "wear": 14409,
  "weather": 20481,
  "web": 17123,
  "wed": 10451,
  "week": 9803,
  "ween": 959,
  "weet": 7914,
  "weight": 6606,
  "well": 4381,
  "welling": 25291,
  "wen": 20913,
  "went": 18146,
  "wer": 14584,
  "were": 20116,
  "wered": 8631,
  "west": 6441,
  "western": 12388,
  "wh": 1612,
  "what": 4839,
  "whe": 12664,
  "wheel": 21252,
  "whel": 6211,
  "whelming": 30995,
  "when": 12532,
  "where": 2396,
  "whether": 24732,
  "which": 4522,
  "while": 3875,
  "white": 10833,
  "who": 7790,
  "why": 22390,
  "wi": 27036,
  "wic": 20830,
  "wich": 10462,
  "wick": 14860,
  "wid": 12186,
  "wide": 3912,
  "width": 13399,
  "wife": 20846,
  "wig": 24810,
  "wik": 25579,
  "wiki": 26190,
  "wild": 22504,
  "will": 10228,
  "win": 4353,
  "wind": 10548,
  "wing": 4915,
  "winning": 11786,
  "wire": 21568,
  "wise": 3491,
  "wit": 1417,
  "witch": 4400,
  "with": 5037,
  "without": 19619,
  "withstanding": 25872,
  "witter": 1935,
  "witz": 25353,
  "witzer": 11887,
  "witzerland": 12136,
  "wives": 31438,
  "wn": 672,
  "wo": 3131,
  "wolf": 28049,
  "wolves": 31598,
  "woman": 6818,
  "women": 23657,
  "won": 23115,
  "wood": 3630,
  "word": 6074,
  "words": 11617,
  "work": 1586,
  "worked": 28409,
  "worker": 26538,
  "workers": 19775,
  "working": 14539,
  "works": 4515,
  "world": 7806,
  "worm": 25360,
  "worth": 8311,
  "worthy": 16342,
  "would": 16319,
  "wp": 26386,
  "wright": 25222,
  "writ": 5874,
  "write": 14798,
  "writer": 13370,
  "writers": 25869,
  "writing": 14257,
  "written": 12193,
  "wrote": 31989,
  "ws": 21392,
  "ww": 2162,
  "www": 3982,
  "wy": 26106,
  "wyn": 25440,
  "x": 120,
  "xc": 30670,
  "xd": 28480,
  "xi": 31260,
  "xide": 11512,
  "ximately": 23873,
  "xit": 8572,
  "xml": 27332,
  "xon": 18840,
  "xt": 538,
  "xton": 18472,
  "xual": 6768,
  "xx": 9352,
  "xxxx": 24547,
  "xy": 6789,
  "y": 121,
  "ya": 4106,
  "yan": 3629,
  "yang": 15514,
  "yard": 8098,
  "yards": 30673,
  "yd": 15571,
  "ye": 7567,
  "year": 1599,
  "years": 19096,
  "yer": 9051,
  "yers": 20406,
  "yes": 9689,
  "yet": 22580,
  "yg": 25002,
  "ying": 1071,
  "yl": 3442,
  "ylan": 16495,
  "yle": 2398,
  "yll": 22556,
  "ylon": 19120,
  "ylum": 9809,
  "ym": 5120,
  "ymes": 23259,
  "ymph": 24287,
  "yn": 2153,
  "ynam": 5059,
  "ynasty": 17245,
  "ync": 17166,
  "ynchron": 25036,
  "ynchronous": 29418,
  "yo": 9057,
  "yon": 17042,
  "yond": 3025,
  "you": 6723,
  "your": 16363,
  "youtube": 18229,
  "yr": 5603,
  "yre": 24818,
  "yrr": 24456,
  "yrrha": 25075,
  "yrus": 22179,
  "ys": 949,
  "ysc": 26479,
  "ysical": 17093,
  "ysics": 23732,
  "ysis": 3132,
  "yson": 16938,
  "yssey": 26490,
  "ystem": 7893,
  "yth": 5790,
  "ython": 8497,
  "yton": 25961,
  "z": 122,
  "za": 4521,
  "zai": 26276,
  "zan": 22531,
  "zb": 12792,
  "zbollah": 16198,
  "ze": 3078,
  "zed": 8774,
  "zel": 17692,
  "zen": 4582,
  "zens": 7066,
  "zer": 5850,
  "zero": 23766,
  "zes": 12428,
  "zh": 16086,
  "zhou": 29020,
  "zi": 15052,
  "zilla": 23897,
  "zing": 9028,
  "zip": 22687,
  "zman": 26523,
  "zo": 12871,
  "zon": 27535,
  "zona": 6326,
  "zone": 11171,
  "zos": 30868,
  "zsche": 31584,
  "zy": 7577,
  "zyme": 27166,
  "zz": 3479,
  "zza": 29814,
  "{": 123,
  "{\"": 18694,
  "{\\": 14844,
  "{{": 27421,
  "|": 124,
  "|>": 701,
  "|>\"": 19312,
  "|>(": 17282,
  "|>[": 31235,
  "|>âĢľ": 16549,
  "}": 125,
  "},": 17752,
  "}\\": 26060,
  "}{": 25328,
  "}}": 9990,
  "~": 126,
  "~~": 14371,
  "~~~~": 24638,
  "¡": 161,
  "¢": 162,
  "£": 163,
  "¤": 164,
  "¥": 165,
  "¦": 166,
  "§": 167,
  "¨": 168,
  "©": 169,
  "ª": 170,
  "«": 171,
  "¬": 172,
  "®": 174,
  "¯": 175,
  "°": 176,
  "±": 177,
  "²": 178,
  "³": 179,
  "´": 180,
  "µ": 181,
  "¶": 182,
  "·": 183,
  "¸": 184,
  "¹": 185,
  "º": 186,
  "»": 187,
  "»¿": 28468,
  "¼": 188,
  "½": 189,
  "¾": 190,
  "¿": 191,
  "À": 192,
  "Á": 193,
  "Â": 194,
  "Â¢": 25676,
  "Â£": 13541,
  "Â¨": 30696,
  "Â©": 15954,
  "Â®": 14122,
  "Â°": 9099,
  "Â±": 27698,
  "Â´": 26516,
  "Â·": 12439,
  "Â»": 17288,
  "Â½": 23321,
  "ÂĢ": 16741,
  "ÂĢÂ": 18702,
  "ÂĢÂĻ": 28223,
  "ÂĴ": 8917,
  "ÂĶ": 12424,
  "ÂĹ": 22442,
  "ÂĿ": 26855,
  "ÂŃ": 2913,
  "Ã": 195,
  "Ã¡": 5294,
  "Ã¡n": 16604,
  "Ã¡s": 23128,
  "Ã¢": 11206,
  "Ã£": 14052,
  "Ã£o": 14759,
  "Ã¤": 7185,
  "Ã¤r": 30314,
  "Ã¥": 12381,
  "Ã¦": 31430,
  "Ã§": 11269,
  "Ã§Ã£o": 30771,
  "Ã¨": 11509,
  "Ã¨re": 27680,
  "Ã©": 2378,
  "Ã©e": 17627,
  "Ã©mon": 13603,
  "Ã©n": 26223,
  "Ã©s": 14032,
  "Ã©t": 18251,
  "Ãª": 20561,
  "Ã«": 28318,
  "Ã¯": 23727,
  "Ã±": 10229,
  "Ã±a": 23410,
  "Ã±o": 23048,
  "Ã³": 6922,
  "Ã³n": 11138,
  "Ã´": 25949,
  "Ã¶": 7072,
  "Ã¶r": 18739,
  "Ã¸": 20793,
  "Ãº": 17183,
  "Ã¼": 7132,
  "Ã¼r": 15736,
  "ÃĤ": 22130,
  "Ãī": 31552,
  "ÃĹ": 13723,
  "ÃŁ": 25040,
  "Ãł": 18172,
  "ÃŃ": 6708,
  "ÃŃa": 18135,
  "ÃŃn": 30872,
  "Ä": 196,
  "Ä«": 28615,
  "Ä±": 19763,
  "Äģ": 14949,
  "Äĥ": 10712,
  "Äĩ": 17223,
  "Äį": 19019,
  "ÄŁ": 22576,
  "ÄŁan": 31152,
  "Å": 197,
  "Å¡": 19084,
  "Å£": 31859,
  "Å«": 27654,
  "Å¾": 25011,
  "ÅĤ": 28930,
  "Åį": 15749,
  "ÅŁ": 26249,
  "Æ": 198,
  "Ç": 199,
  "È": 200,
  "ÈĻ": 26284,
  "É": 201,
  "Ê": 202,
  "Ë": 203,
  "Ì": 204,
  "Í": 205,
  "Î": 206,
  "Î±": 19302,
  "Î²": 29857,
  "Î½": 26007,
  "Î¿": 27215,
  "Ï": 207,
  "Ð": 208,
  "Ð°": 6527,
  "Ð±": 28758,
  "Ð²": 18326,
  "Ð³": 29340,
  "Ð´": 17717,
  "Ðµ": 6318,
  "ÐµÐ½": 25069,
  "ÐµÑĤ": 28591,
  "Ð·": 24986,
  "Ð¸": 7731,
  "Ð¹": 27874,
  "Ðº": 14316,
  "Ð»": 12478,
  "Ð¼": 17192,
  "Ð½": 9866,
  "Ð¾": 5397,
  "Ð¾Ð": 8994,
  "Ð¾Ð²": 26034,
  "Ð¾Ð»": 30695,
  "Ð¿": 29761,
  "Ñ": 209,
  "ÑĢ": 9206,
  "ÑĢÐ°": 24132,
  "ÑĢÐµ": 31334,
  "Ñģ": 8508,
  "ÑģÑĤ": 24092,
  "ÑĤ": 7315,
  "ÑĤÐ¾": 21808,
  "Ñĥ": 13983,
  "Ñħ": 29586,
  "Ñĩ": 19528,
  "Ñĭ": 17336,
  "ÑĮ": 18018,
  "Ñı": 16639,
  "Ò": 210,
  "Ó": 211,
  "Ô": 212,
  "Õ": 213,
  "Ö": 214,
  "×": 215,
  "Ø": 216,
  "Ø§": 17792,
  "Ø±": 26183,
  "Ù": 217,
  "ÙĦ": 15665,
  "Ùħ": 26487,
  "ÙĨ": 22167,
  "Ùĩ": 31792,
  "ÙĪ": 31678,
  "ÙĬ": 23424,
  "Ùİ": 17132,
  "ÙĲ": 27875,
  "Ú": 218,
  "Û": 219,
  "Ü": 220,
  "Ý": 221,
  "Þ": 222,
  "ß": 223,
  "à": 224,
  "à¤": 10859,
  "à¥": 22045,
  "à²": 24344,
  "à´": 28261,
  "à¸": 14651,
  "á": 225,
  "â": 226,
  "âĢ": 290,
  "âĢ¢": 4433,
  "âĢ¦": 1545,
  "âĢ¦\"": 24438,
  "âĢ¦.": 10629,
  "âĢ¦<|": 31505,
  "âĢ¦]": 21526,
  "âĢ¦âĢ¦": 14714,
  "âĢ¦âĢ¦âĢ¦âĢ¦": 29121,
  "âĢ¦âĢĿ": 14301,
  "âĢ²": 19987,
  "âĢ³": 11850,
  "âĢĭ": 12508,
  "âĢĲ": 10198,
  "âĢĵ": 1775,
  "âĢĵâĢĵ": 31785,
  "âĢĶ": 929,
  "âĢĶâĢĵ": 31220,
  "âĢĶâĢĶ": 5247,
  "âĢĶâĢĶâĢĶâĢĶ": 9314,
  "âĢĶâĢĶâĢĶâĢĶâĢĶâĢĶâĢĶâĢĶ": 16880,
  "âĢĶâĢľ": 29770,
  "âĢĺ": 4749,
  "âĢĻ": 329,
  "âĢĻ)": 30653,
  "âĢĻ,": 7689,
  "âĢĻ.": 6856,
  "âĢľ": 716,
  "âĢľ[": 24896,
  "âĢĿ": 407,
  "âĢĿ)": 11430,
  "âĢĿ),": 19196,
  "âĢĿ).": 17353,
  "âĢĿ,": 3975,
  "âĢĿ.": 2981,
  "âĢĿ:": 16570,
  "âĢĿ;": 19514,
  "âĢĿ?": 17553,
  "âĢĿâĢĶ": 14709,
  "âĤ¬": 11640,
  "âĤ¬âĦ¢": 25381,
  "âĦ": 12418,
  "âĦ¢": 12641,
  "âĪ": 28341,
  "âĪĴ": 13210,
  "âĶ": 13452,
  "âĶĢ": 14838,
  "âĶĢâĶĢ": 17894,
  "âĸ": 8319,
  "âĸĪ": 13334,
  "âĸĪâĸĪ": 16463,
  "âĸł": 29316,
  "âĹ": 24156,
  "âĹı": 31934,
  "âĺħ": 30345,
  "âĻ": 18743,
  "ã": 227,
  "ãĢ": 7415,
  "ãĢģ": 16434,
  "ãĢĤ": 14435,
  "ãĢĮ": 30567,
  "ãĢį": 30700,
  "ãģ": 7770,
  "ãĤ": 11594,
  "ãĥ": 10604,
  "ãħ": 28418,
  "ä": 228,
  "ä¸": 27426,
  "å": 229,
  "æ": 230,
  "ç": 231,
  "è": 232,
  "é": 233,
  "ê": 234,
  "ë": 235,
  "ì": 236,
  "ìĿ": 29408,
  "í": 237,
  "î": 238,
  "ï": 239,
  "ï¼": 10910,
  "ï¼Į": 25507,
  "ï½": 30519,
  "ï¿": 7161,
  "ï¿½": 7377,
  "ï¿½ï¿½": 23796,
  "ð": 240,
  "ðŁ": 13371,
  "ñ": 241,
  "ò": 242,
  "ó": 243,
  "ô": 244,
  "õ": 245,
  "ö": 246,
  "÷": 247,
  "ø": 248,
  "ù": 249,
  "ú": 250,
  "û": 251,
  "ü": 252,
  "ý": 253,
  "þ": 254,
  "ÿ": 255,
  "Ā": 0,
  "ā": 1,
  "Ă": 2,
  "ă": 3,
  "Ą": 4,
  "ą": 5,
  "Ć": 6,
  "ć": 7,
  "Ĉ": 8,
  "ĉ": 9,
  "Ċ": 10,
  "ċ": 11,
  "Č": 12,
  "č": 13,
  "Ď": 14,
  "ď": 15,
  "Đ": 16,
  "đ": 17,
  "Ē": 18,
  "ē": 19,
  "Ĕ": 20,
  "ĕ": 21,
  "Ė": 22,
  "ė": 23,
  "Ę": 24,
  "ę": 25,
  "Ě": 26,
  "ě": 27,
  "Ĝ": 28,
  "ĝ": 29,
  "Ğ": 30,
  "ğ": 31,
  "Ġ": 32,
  "Ġ!": 9996,
  "Ġ!=": 24789,
  "Ġ\"": 488,
  "Ġ\"\"": 27992,
  "Ġ\"...": 30741,
  "Ġ\"/": 29264,
  "Ġ\"[": 19404,
  "Ġ#": 1884,
  "Ġ##": 27739,
  "Ġ$": 761,
  "Ġ%": 7320,
  "Ġ&": 1800,
  "Ġ&&": 20486,
  "Ġ'": 1182,
  "Ġ''": 13243,
  "Ġ(": 397,
  "Ġ(\"": 9933,
  "Ġ(#": 22380,
  "Ġ($": 7423,
  "Ġ((": 24280,
  "Ġ()": 13021,
  "Ġ();": 31611,
  "Ġ(+": 17866,
  "Ġ(-": 17036,
  "Ġ(.": 20167,
  "Ġ(@": 3426,
  "Ġ(Â£": 17046,
  "Ġ(âĢľ": 8902,
  "Ġ)": 2163,
  "Ġ))": 25287,
  "Ġ),": 14911,
  "Ġ).": 10086,
  "Ġ):": 23016,
  "Ġ);": 11731,
  "Ġ*": 3341,
  "Ġ**": 18757,
  "Ġ***": 29860,
  "Ġ*/": 18823,
  "Ġ+": 2626,
  "Ġ+=": 29289,
  "Ġ,": 1662,
  "Ġ-": 664,
  "Ġ--": 1453,
  "Ġ---": 20224,
  "Ġ-->": 21943,
  "Ġ->": 7822,
  "Ġ.": 1209,
  "Ġ..": 18913,
  "Ġ...": 3189,
  "Ġ....": 27591,
  "Ġ..........": 30738,
  "Ġ./": 31056,
  "Ġ/": 2045,
  "Ġ/*": 22900,
  "Ġ//": 5793,
  "Ġ/>": 25474,
  "Ġ0": 1109,
  "Ġ00": 8636,
  "Ġ000": 20983,
  "Ġ01": 12941,
  "Ġ02": 14722,
  "Ġ03": 16197,
  "Ġ04": 17146,
  "Ġ05": 17280,
  "Ġ06": 18773,
  "Ġ07": 17190,
  "Ġ08": 17177,
  "Ġ09": 17114,
  "Ġ1": 383,
  "Ġ10": 1043,
  "Ġ100": 2253,
  "Ġ1000": 11272,
  "Ġ101": 14026,
  "Ġ102": 20686,
  "Ġ103": 21593,
  "Ġ104": 20848,
  "Ġ105": 18321,
  "Ġ106": 21848,
  "Ġ107": 22632,
  "Ġ108": 22554,
  "Ġ1080": 19468,
  "Ġ109": 23238,
  "Ġ11": 1728,
  "Ġ110": 13854,
  "Ġ111": 19504,
  "Ġ112": 22666,
  "Ġ113": 25236,
  "Ġ114": 24168,
  "Ġ115": 19941,
  "Ġ116": 25562,
  "Ġ117": 25889,
  "Ġ118": 26383,
  "Ġ119": 23521,
  "Ġ12": 1515,
  "Ġ120": 9706,
  "Ġ1200": 28763,
  "Ġ121": 27555,
  "Ġ122": 27353,
  "Ġ123": 24215,
  "Ġ124": 28486,
  "Ġ125": 16557,
  "Ġ126": 28859,
  "Ġ127": 25885,
  "Ġ128": 18173,
  "Ġ129": 29180,
  "Ġ13": 2065,
  "Ġ130": 13775,
  "Ġ131": 31454,
  "Ġ132": 29425,
  "Ġ133": 30423,
  "Ġ134": 31298,
  "Ġ135": 23328,
  "Ġ136": 31973,
  "Ġ137": 31348,
  "Ġ138": 31177,
  "Ġ14": 2006,
  "Ġ140": 15188,
  "Ġ144": 28155,
  "Ġ145": 26978,
  "Ġ15": 1540,
  "Ġ150": 7810,
  "Ġ1500": 23567,
  "Ġ155": 27609,
  "Ġ16": 1922,
  "Ġ160": 16354,
  "Ġ1600": 28162,
  "Ġ165": 28819,
  "Ġ17": 2068,
  "Ġ170": 20132,
  "Ġ175": 23868,
  "Ġ18": 1480,
  "Ġ180": 13905,
  "Ġ1800": 20754,
  "Ġ185": 27390,
  "Ġ1880": 30214,
  "Ġ1890": 28578,
  "Ġ19": 689,
  "Ġ190": 24464,
  "Ġ1900": 19041,
  "Ġ1910": 26395,
  "Ġ1911": 29877,
  "Ġ1912": 29398,
  "Ġ1913": 30614,
  "Ġ1914": 23951,
  "Ġ1915": 27060,
  "Ġ1916": 26114,
  "Ġ1917": 22060,
  "Ġ1918": 24193,
  "Ġ1919": 26753,
  "Ġ192": 26892,
  "Ġ1920": 13567,
  "Ġ1921": 29887,
  "Ġ1922": 29997,
  "Ġ1923": 31632,
  "Ġ1924": 30826,
  "Ġ1925": 31475,
  "Ġ1927": 31953,
  "Ġ1928": 30030,
  "Ġ1929": 26322,
  "Ġ1930": 12515,
  "Ġ1931": 30536,
  "Ġ1932": 27834,
  "Ġ1933": 23579,
  "Ġ1934": 26765,
  "Ġ1935": 27454,
  "Ġ1936": 24606,
  "Ġ1937": 25426,
  "Ġ1938": 24030,
  "Ġ1939": 21013,
  "Ġ1940": 13945,
  "Ġ1941": 20171,
  "Ġ1942": 21420,
  "Ġ1943": 22436,
  "Ġ1944": 19834,
  "Ġ1945": 16213,
  "Ġ1946": 22817,
  "Ġ1947": 20300,
  "Ġ1948": 18645,
  "Ġ1949": 22540,
  "Ġ195": 5626,
  "Ġ1950": 9702,
  "Ġ1951": 23979,
  "Ġ1952": 23377,
  "Ġ1953": 22204,
  "Ġ1954": 21710,
  "Ġ1955": 22213,
  "Ġ1956": 21493,
  "Ġ1957": 22010,
  "Ġ1958": 21402,
  "Ġ1959": 20650,
  "Ġ196": 3701,
  "Ġ1960": 7869,
  "Ġ1961": 18215,
  "Ġ1962": 17901,
  "Ġ1963": 17158,
  "Ġ1964": 15904,
  "Ġ1965": 15856,
  "Ġ1966": 16968,
  "Ġ1967": 13706,
  "Ġ1968": 13903,
  "Ġ1969": 14725,
  "Ġ197": 2664,
  "Ġ1970": 6758,
  "Ġ1971": 15079,
  "Ġ1972": 14287,
  "Ġ1973": 14196,
  "Ġ1974": 14962,
  "Ġ1975": 14081,
  "Ġ1976": 14013,
  "Ġ1977": 14816,
  "Ġ1978": 14320,
  "Ġ1979": 12274,
  "Ġ198": 2269,
  "Ġ1980": 5968,
  "Ġ1981": 13610,
  "Ġ1982": 13179,
  "Ġ1983": 13148,
  "Ġ1984": 11715,
  "Ġ1985": 12351,
  "Ġ1986": 11789,
  "Ġ1987": 12268,
  "Ġ1988": 11538,
  "Ġ1989": 10477,
  "Ġ199": 1631,
  "Ġ1990": 5535,
  "Ġ1991": 9998,
  "Ġ1992": 9429,
  "Ġ1993": 9688,
  "Ġ1994": 8912,
  "Ġ1995": 8772,
  "Ġ1996": 8358,
  "Ġ1997": 8348,
  "Ġ1998": 7916,
  "Ġ1999": 7411,
  "Ġ2": 393,
  "Ġ20": 534,
  "Ġ200": 870,
  "Ġ2000": 4898,
  "Ġ2001": 5775,
  "Ġ2002": 6277,
  "Ġ2003": 5678,
  "Ġ2004": 5249,
  "Ġ2005": 4782,
  "Ġ2006": 4390,
  "Ġ2007": 3941,
  "Ġ2008": 3126,
  "Ġ2009": 3190,
  "Ġ201": 588,
  "Ġ2010": 2697,
  "Ġ2011": 2576,
  "Ġ2012": 2211,
  "Ġ2013": 2137,
  "Ġ2014": 1940,
  "Ġ2015": 1882,
  "Ġ2016": 1809,
  "Ġ2017": 2259,
  "Ġ2018": 4852,
  "Ġ2019": 8521,
  "Ġ202": 30219,
  "Ġ2020": 9018,
  "Ġ2021": 28158,
  "Ġ2022": 26291,
  "Ġ2025": 26094,
  "Ġ2030": 19851,
  "Ġ205": 29404,
  "Ġ2050": 25149,
  "Ġ21": 2869,
  "Ġ210": 26389,
  "Ġ215": 26128,
  "Ġ22": 2901,
  "Ġ220": 21115,
  "Ġ225": 26674,
  "Ġ23": 3009,
  "Ġ230": 23105,
  "Ġ24": 2483,
  "Ġ240": 20210,
  "Ġ25": 2280,
  "Ġ250": 9737,
  "Ġ255": 30038,
  "Ġ256": 23623,
  "Ġ26": 3354,
  "Ġ260": 26996,
  "Ġ27": 3275,
  "Ġ270": 26488,
  "Ġ28": 3270,
  "Ġ280": 28388,
  "Ġ29": 3696,
  "Ġ3": 637,
  "Ġ30": 1835,
  "Ġ300": 6249,
  "Ġ3000": 24483,
  "Ġ31": 4388,
  "Ġ32": 5047,
  "Ġ320": 26661,
  "Ġ33": 6232,
  "Ġ330": 29755,
  "Ġ34": 6616,
  "Ġ35": 4417,
  "Ġ350": 15131,
  "Ġ36": 5437,
  "Ġ360": 11384,
  "Ġ365": 26492,
  "Ġ37": 6262,
  "Ġ38": 6204,
  "Ġ39": 7076,
  "Ġ4": 741,
  "Ġ40": 2777,
  "Ġ400": 7666,
  "Ġ401": 29232,
  "Ġ41": 7990,
  "Ġ42": 7226,
  "Ġ43": 8065,
  "Ġ44": 7796,
  "Ġ45": 5084,
  "Ġ450": 21133,
  "Ġ46": 8077,
  "Ġ47": 7855,
  "Ġ48": 6368,
  "Ġ480": 31457,
  "Ġ49": 6514,
  "Ġ5": 783,
  "Ġ50": 2374,
  "Ġ500": 5495,
  "Ġ5000": 29520,
  "Ġ501": 30837,
  "Ġ51": 8804,
  "Ġ512": 27284,
  "Ġ52": 8599,
  "Ġ53": 9385,
  "Ġ54": 9661,
  "Ġ55": 7506,
  "Ġ550": 29456,
  "Ġ56": 9889,
  "Ġ57": 10279,
  "Ġ58": 10293,
  "Ġ59": 10853,
  "Ġ6": 944,
  "Ġ60": 3541,
  "Ġ600": 10455,
  "Ġ61": 11514,
  "Ġ62": 10881,
  "Ġ63": 11176,
  "Ġ64": 7556,
  "Ġ65": 7582,
  "Ġ650": 25912,
  "Ġ66": 10932,
  "Ġ67": 11524,
  "Ġ68": 11532,
  "Ġ69": 12482,
  "Ġ7": 1061,
  "Ġ70": 4645,
  "Ġ700": 12570,
  "Ġ71": 13003,
  "Ġ72": 10661,
  "Ġ720": 31015,
  "Ġ73": 12723,
  "Ġ74": 12759,
  "Ġ75": 6744,
  "Ġ750": 22162,
  "Ġ76": 11989,
  "Ġ77": 12522,
  "Ġ78": 12964,
  "Ġ79": 13870,
  "Ġ8": 1118,
  "Ġ80": 4300,
  "Ġ800": 10701,
  "Ġ81": 14209,
  "Ġ82": 13059,
  "Ġ83": 14402,
  "Ġ84": 14317,
  "Ġ85": 10329,
  "Ġ86": 14480,
  "Ġ87": 14676,
  "Ġ88": 13404,
  "Ġ89": 15339,
  "Ġ9": 1149,
  "Ġ90": 4449,
  "Ġ900": 16718,
  "Ġ91": 15580,
  "Ġ911": 14775,
  "Ġ92": 14988,
  "Ġ93": 14837,
  "Ġ94": 15609,
  "Ġ95": 9299,
  "Ġ96": 14470,
  "Ġ97": 14815,
  "Ġ978": 28278,
  "Ġ98": 14101,
  "Ġ99": 9732,
  "Ġ:": 2075,
  "Ġ:)": 16401,
  "Ġ::": 13393,
  "Ġ:=": 25648,
  "Ġ;": 4135,
  "Ġ<": 2682,
  "Ġ<-": 27211,
  "Ġ</": 11215,
  "Ġ<<": 22217,
  "Ġ=": 1392,
  "Ġ==": 11613,
  "Ġ=>": 5129,
  "Ġ>": 3533,
  "Ġ>>": 14658,
  "Ġ>>>": 19823,
  "Ġ?": 8885,
  "Ġ@": 2797,
  "ĠA": 330,
  "ĠAA": 19868,
  "ĠAAA": 23711,
  "ĠAAP": 24471,
  "ĠAB": 13740,
  "ĠABC": 8129,
  "ĠAC": 8899,
  "ĠACA": 23437,
  "ĠACC": 17390,
  "ĠACL": 14283,
  "ĠACLU": 18165,
  "ĠACT": 23941,
  "ĠAD": 7639,
  "ĠADHD": 27954,
  "ĠAF": 17764,
  "ĠAFC": 22244,
  "ĠAFL": 18209,
  "ĠAFP": 11595,
  "ĠAG": 16042,
  "ĠAH": 31886,
  "ĠAHL": 24349,
  "ĠAI": 8943,
  "ĠAIDS": 18553,
  "ĠAJ": 26333,
  "ĠAK": 17193,
  "ĠAL": 6639,
  "ĠALL": 14873,
  "ĠAM": 4404,
  "ĠAMC": 27638,
  "ĠAMD": 13599,
  "ĠAN": 5369,
  "ĠAND": 8274,
  "ĠANY": 23968,
  "ĠAP": 4019,
  "ĠAPI": 8460,
  "ĠAPIs": 20603,
  "ĠAR": 7358,
  "ĠARE": 19718,
  "ĠARM": 21332,
  "ĠAS": 7902,
  "ĠAT": 6010,
  "ĠATM": 28481,
  "ĠAU": 26800,
  "ĠAV": 20295,
  "ĠAW": 23728,
  "ĠAWS": 21966,
  "ĠAZ": 28226,
  "ĠAad": 28542,
  "ĠAaron": 10672,
  "ĠAb": 2364,
  "ĠAbb": 8998,
  "ĠAbbas": 21239,
  "ĠAbbey": 28749,
  "ĠAbbott": 12338,
  "ĠAbd": 11467,
  "ĠAbdel": 27529,
  "ĠAbdul": 18194,
  "ĠAbdullah": 20022,
  "ĠAbe": 21020,
  "ĠAber": 23908,
  "ĠAboriginal": 24992,
  "ĠAbout": 8078,
  "ĠAbove": 24574,
  "ĠAbr": 18088,
  "ĠAbraham": 17003,
  "ĠAbrams": 26103,
  "ĠAbs": 15569,
  "ĠAbsolutely": 25068,
  "ĠAbstract": 25692,
  "ĠAbu": 11380,
  "ĠAbuse": 26747,
  "ĠAby": 31874,
  "ĠAc": 4696,
  "ĠAcadem": 7153,
  "ĠAcademy": 7877,
  "ĠAcc": 8625,
  "ĠAccept": 29922,
  "ĠAccess": 10254,
  "ĠAccording": 4099,
  "ĠAccount": 14783,
  "ĠAccountability": 30843,
  "ĠAce": 22624,
  "ĠAch": 24617,
  "ĠAchie": 28269,
  "ĠAcross": 27207,
  "ĠAct": 2734,
  "ĠAction": 8413,
  "ĠActiv": 16421,
  "ĠActive": 20841,
  "ĠActor": 24871,
  "ĠActually": 18193,
  "ĠAd": 1469,
  "ĠAdam": 7227,
  "ĠAdams": 10779,
  "ĠAdd": 4320,
  "ĠAdded": 16744,
  "ĠAdding": 27395,
  "ĠAdditional": 21561,
  "ĠAdditionally": 11987,
  "ĠAddress": 24977,
  "ĠAdelaide": 20653,
  "ĠAdminist": 6956,
  "ĠAdministration": 7967,
  "ĠAdministrator": 30548,
  "ĠAdmir": 21447,
  "ĠAdmiral": 24573,
  "ĠAdobe": 20934,
  "ĠAdolf": 29263,
  "ĠAdrian": 18430,
  "ĠAdult": 26754,
  "ĠAdv": 8797,
  "ĠAdvance": 27675,
  "ĠAdvanced": 16751,
  "ĠAdvent": 13211,
  "ĠAdventure": 19079,
  "ĠAdventures": 26846,
  "ĠAdvertisement": 26438,
  "ĠAdvis": 19568,
  "ĠAdvisory": 23945,
  "ĠAdvoc": 31683,
  "ĠAer": 17365,
  "ĠAf": 2018,
  "ĠAff": 6199,
  "ĠAffairs": 9655,
  "ĠAffordable": 15456,
  "ĠAfgh": 30830,
  "ĠAfghan": 4710,
  "ĠAfghanistan": 5802,
  "ĠAfric": 2857,
  "ĠAfrica": 4719,
  "ĠAfrican": 4740,
  "ĠAfricans": 23702,
  "ĠAfter": 2390,
  "ĠAg": 2849,
  "ĠAgain": 6713,
  "ĠAgainst": 12346,
  "ĠAge": 9098,
  "ĠAgency": 6931,
  "ĠAgent": 18122,
  "ĠAgents": 30406,
  "ĠAges": 24238,
  "ĠAgg": 24249,
  "ĠAgr": 14485,
  "ĠAgree": 14010,
  "ĠAgreement": 15519,
  "ĠAgricult": 15512,
  "ĠAgriculture": 18499,
  "ĠAgu": 26426,
  "ĠAh": 7614,
  "ĠAhmad": 16920,
  "ĠAhmed": 16220,
  "ĠAid": 22966,
  "ĠAir": 3695,
  "ĠAirbnb": 28566,
  "ĠAirlines": 16263,
  "ĠAirport": 11503,
  "ĠAj": 18593,
  "ĠAk": 9525,
  "ĠAl": 1100,
  "ĠAlabama": 7815,
  "ĠAlan": 10379,
  "ĠAlaska": 11113,
  "ĠAlb": 15725,
  "ĠAlban": 22641,
  "ĠAlbany": 25266,
  "ĠAlbert": 8537,
  "ĠAlberta": 12693,
  "ĠAlbum": 23888,
  "ĠAlbuquerque": 31155,
  "ĠAlcohol": 25946,
  "ĠAld": 14483,
  "ĠAle": 8640,
  "ĠAleppo": 16132,
  "ĠAlert": 29802,
  "ĠAlex": 4096,
  "ĠAlexa": 28834,
  "ĠAlexand": 16512,
  "ĠAlexander": 9113,
  "ĠAlexandria": 26250,
  "ĠAlexis": 25825,
  "ĠAlf": 14111,
  "ĠAlfred": 19374,
  "ĠAlger": 21050,
  "ĠAlgeria": 29692,
  "ĠAli": 7707,
  "ĠAlice": 15535,
  "ĠAlien": 21059,
  "ĠAlison": 29878,
  "ĠAlive": 31173,
  "ĠAll": 1622,
  "ĠAllah": 16248,
  "ĠAllan": 26824,
  "ĠAlleg": 24120,
  "ĠAllen": 8393,
  "ĠAlliance": 10587,
  "ĠAllied": 23707,
  "ĠAllies": 31276,
  "ĠAllison": 28359,
  "ĠAllow": 30011,
  "ĠAlmost": 15662,
  "ĠAlong": 15545,
  "ĠAlonso": 26465,
  "ĠAlp": 10795,
  "ĠAlpha": 16125,
  "ĠAlready": 25708,
  "ĠAlso": 5079,
  "ĠAlt": 12999,
  "ĠAltern": 14995,
  "ĠAlternative": 25645,
  "ĠAlternatively": 30813,
  "ĠAlthough": 4973,
  "ĠAlto": 31224,
  "ĠAlv": 23919,
  "ĠAlvarez": 28943,
  "ĠAlways": 20100,
  "ĠAlz": 18503,
  "ĠAlzheimer": 19184,
  "ĠAm": 1902,
  "ĠAmanda": 21700,
  "ĠAmazing": 26547,
  "ĠAmazon": 5302,
  "ĠAmb": 12065,
  "ĠAmbassador": 17780,
  "ĠAmber": 25724,
  "ĠAmendment": 7791,
  "ĠAmer": 29841,
  "ĠAmeric": 884,
  "ĠAmerica": 1905,
  "ĠAmerican": 1373,
  "ĠAmericans": 2730,
  "ĠAmericas": 22139,
  "ĠAmnesty": 22934,
  "ĠAmong": 9328,
  "ĠAmsterdam": 21508,
  "ĠAmy": 14294,
  "ĠAn": 1225,
  "ĠAna": 16700,
  "ĠAnaheim": 23952,
  "ĠAnaly": 16241,
  "ĠAnalysis": 17640,
  "ĠAnalytics": 28187,
  "ĠAnat": 27119,
  "ĠAnch": 28250,
  "ĠAncient": 21167,
  "ĠAnd": 799,
  "ĠAnders": 21366,
  "ĠAnderson": 8655,
  "ĠAndre": 9906,
  "ĠAndrea": 20652,
  "ĠAndreas": 30031,
  "ĠAndrew": 5847,
  "ĠAndrews": 22412,
  "ĠAndroid": 4893,
  "ĠAndy": 10693,
  "ĠAnfield": 31485,
  "ĠAng": 2906,
  "ĠAngel": 3811,
  "ĠAngela": 15852,
  "ĠAngeles": 4780,
  "ĠAngels": 19859,
  "ĠAnglo": 22191,
  "ĠAngular": 21613,
  "ĠAnim": 13703,
  "ĠAnimal": 15744,
  "ĠAnimals": 26408,
  "ĠAnimation": 27268,
  "ĠAnkara": 22354,
  "ĠAnn": 6466,
  "ĠAnna": 10352,
  "ĠAnne": 13792,
  "ĠAnnie": 26806,
  "ĠAnniversary": 26902,
  "ĠAnnual": 20202,
  "ĠAnonymous": 18039,
  "ĠAnother": 6284,
  "ĠAns": 22377,
  "ĠAnt": 3947,
  "ĠAntar": 16147,
  "ĠAntarctic": 25458,
  "ĠAntarctica": 23992,
  "ĠAnth": 7562,
  "ĠAnthony": 8410,
  "ĠAnti": 12718,
  "ĠAnton": 8280,
  "ĠAntonio": 10276,
  "ĠAny": 5371,
  "ĠAnyone": 16502,
  "ĠAnything": 21213,
  "ĠAnyway": 23683,
  "ĠAp": 8668,
  "ĠApache": 22329,
  "ĠApart": 21123,
  "ĠApollo": 18656,
  "ĠApost": 27683,
  "ĠApp": 2236,
  "ĠAppalach": 30003,
  "ĠApparently": 17299,
  "ĠAppeal": 29835,
  "ĠAppeals": 18915,
  "ĠApple": 3554,
  "ĠApplication": 22855,
  "ĠApplications": 31772,
  "ĠAppro": 18910,
  "ĠApps": 25644,
  "ĠApr": 18325,
  "ĠApril": 2681,
  "ĠAqu": 14282,
  "ĠAr": 1049,
  "ĠArab": 3797,
  "ĠArabia": 8145,
  "ĠArabian": 27049,
  "ĠArabic": 14993,
  "ĠArabs": 18865,
  "ĠArbor": 30999,
  "ĠArc": 15537,
  "ĠArcade": 30998,
  "ĠArch": 6808,
  "ĠArchae": 30249,
  "ĠArchbishop": 28956,
  "ĠArcher": 27250,
  "ĠArchitect": 17462,
  "ĠArchitecture": 28510,
  "ĠArchive": 23489,
  "ĠArchives": 22905,
  "ĠArctic": 12497,
  "ĠArduino": 28980,
  "ĠAre": 4666,
  "ĠArea": 10546,
  "ĠAren": 10731,
  "ĠArena": 12080,
  "ĠArg": 24451,
  "ĠArgent": 10387,
  "ĠArgentina": 13622,
  "ĠArgentine": 26833,
  "ĠAri": 5289,
  "ĠArist": 23411,
  "ĠArizona": 6646,
  "ĠArk": 9636,
  "ĠArkansas": 13038,
  "ĠArlington": 24911,
  "ĠArm": 8015,
  "ĠArmed": 16299,
  "ĠArmen": 13726,
  "ĠArmenia": 26129,
  "ĠArmenian": 22003,
  "ĠArmor": 27677,
  "ĠArms": 23645,
  "ĠArmstrong": 17629,
  "ĠArmy": 4934,
  "ĠArn": 14619,
  "ĠArnold": 18080,
  "ĠAround": 16189,
  "ĠArray": 24063,
  "ĠArri": 29957,
  "ĠArrow": 20784,
  "ĠArs": 21551,
  "ĠArsenal": 10565,
  "ĠArt": 4518,
  "ĠArthur": 13601,
  "ĠArticle": 12575,
  "ĠArticles": 23585,
  "ĠArtist": 23348,
  "ĠArts": 11936,
  "ĠAs": 1108,
  "ĠAsh": 7774,
  "ĠAshe": 30441,
  "ĠAshley": 18763,
  "ĠAshton": 31401,
  "ĠAsia": 6285,
  "ĠAsian": 7105,
  "ĠAsians": 27941,
  "ĠAside": 25424,
  "ĠAsk": 18258,
  "ĠAsked": 23505,
  "ĠAss": 2298,
  "ĠAssad": 9912,
  "ĠAssange": 15958,
  "ĠAssass": 23444,
  "ĠAssassin": 30129,
  "ĠAssault": 26100,
  "ĠAssembly": 9773,
  "ĠAssessment": 28867,
  "ĠAssistance": 28292,
  "ĠAssistant": 15241,
  "ĠAssoci": 3561,
  "ĠAssociate": 26644,
  "ĠAssociated": 9083,
  "ĠAssociates": 27802,
  "ĠAssociation": 4730,
  "ĠAst": 9084,
  "ĠAston": 25546,
  "ĠAstron": 23569,
  "ĠAstros": 23544,
  "ĠAt": 1633,
  "ĠAth": 12931,
  "ĠAthe": 25273,
  "ĠAthens": 18460,
  "ĠAthlet": 15983,
  "ĠAthletic": 23731,
  "ĠAthletics": 28960,
  "ĠAtlant": 5115,
  "ĠAtlanta": 7980,
  "ĠAtlantic": 8932,
  "ĠAtlas": 21822,
  "ĠAtmosp": 30208,
  "ĠAtomic": 30109,
  "ĠAtt": 4502,
  "ĠAttack": 14915,
  "ĠAttorney": 7176,
  "ĠAub": 16840,
  "ĠAuburn": 19895,
  "ĠAuckland": 24943,
  "ĠAud": 8951,
  "ĠAudi": 23113,
  "ĠAudio": 19750,
  "ĠAug": 2511,
  "ĠAugust": 2919,
  "ĠAur": 18821,
  "ĠAurora": 23955,
  "ĠAust": 2118,
  "ĠAustin": 8470,
  "ĠAustral": 2644,
  "ĠAustralia": 3785,
  "ĠAustralian": 5451,
  "ĠAustralians": 18572,
  "ĠAustria": 15021,
  "ĠAustrian": 20021,
  "ĠAut": 6548,
  "ĠAuthor": 7249,
  "ĠAuthorities": 26717,
  "ĠAuthority": 10317,
  "ĠAuto": 14486,
  "ĠAutom": 19403,
  "ĠAv": 6007,
  "ĠAvailable": 23002,
  "ĠAval": 25387,
  "ĠAvatar": 29821,
  "ĠAve": 13727,
  "ĠAven": 15936,
  "ĠAvengers": 19384,
  "ĠAvenue": 7554,
  "ĠAverage": 19417,
  "ĠAvery": 26970,
  "ĠAviation": 23624,
  "ĠAviv": 21974,
  "ĠAvoid": 28939,
  "ĠAw": 12880,
  "ĠAward": 9172,
  "ĠAwards": 12448,
  "ĠAway": 25612,
  "ĠAwesome": 30890,
  "ĠAx": 15157,
  "ĠAy": 12096,
  "ĠAz": 9694,
  "ĠAzer": 22169,
  "ĠAzerbai": 24640,
  "ĠAzerbaijan": 27892,
  "ĠAzure": 24534,
  "ĠB": 353,
  "ĠBA": 20723,
  "ĠBB": 13880,
  "ĠBBC": 5668,
  "ĠBC": 11046,
  "ĠBCE": 30381,
  "ĠBDS": 30294,
  "ĠBE": 12396,
  "ĠBEL": 30176,
  "ĠBI": 27763,
  "ĠBIG": 30388,
  "ĠBJP": 13608,
  "ĠBL": 13537,
  "ĠBM": 10178,
  "ĠBMI": 30913,
  "ĠBMW": 17079,
  "ĠBO": 17796,
  "ĠBP": 14867,
  "ĠBR": 15234,
  "ĠBS": 27120,
  "ĠBT": 21200,
  "ĠBTC": 21296,
  "ĠBU": 27228,
  "ĠBUT": 28973,
  "ĠBY": 13604,
  "ĠBYU": 31356,
  "ĠBa": 8862,
  "ĠBab": 11955,
  "ĠBaby": 16826,
  "ĠBabylon": 31554,
  "ĠBach": 18099,
  "ĠBachmann": 27776,
  "ĠBack": 5995,
  "ĠBacon": 28581,
  "ĠBad": 8780,
  "ĠBag": 22225,
  "ĠBaghd": 15139,
  "ĠBaghdad": 16017,
  "ĠBah": 11749,
  "ĠBahrain": 20513,
  "ĠBailey": 18671,
  "ĠBain": 26118,
  "ĠBak": 16759,
  "ĠBaker": 12146,
  "ĠBal": 9925,
  "ĠBald": 16560,
  "ĠBaldwin": 21175,
  "ĠBalk": 24472,
  "ĠBall": 8558,
  "ĠBalt": 7665,
  "ĠBaltic": 26893,
  "ĠBaltimore": 8673,
  "ĠBan": 10689,
  "ĠBand": 10835,
  "ĠBang": 8753,
  "ĠBangkok": 28734,
  "ĠBangl": 14620,
  "ĠBangladesh": 16108,
  "ĠBank": 4484,
  "ĠBanks": 17150,
  "ĠBannon": 15355,
  "ĠBapt": 17152,
  "ĠBaptist": 19212,
  "ĠBar": 2074,
  "ĠBarack": 6233,
  "ĠBarb": 10528,
  "ĠBarbara": 14853,
  "ĠBarber": 29533,
  "ĠBarcelona": 12209,
  "ĠBarcl": 24375,
  "ĠBarclays": 29385,
  "ĠBard": 29148,
  "ĠBark": 18360,
  "ĠBarn": 16351,
  "ĠBarnes": 18280,
  "ĠBarnett": 30344,
  "ĠBaron": 23773,
  "ĠBarr": 25123,
  "ĠBarrett": 21458,
  "ĠBarry": 12751,
  "ĠBart": 12706,
  "ĠBarton": 27598,
  "ĠBas": 7260,
  "ĠBase": 9279,
  "ĠBaseball": 15667,
  "ĠBased": 14021,
  "ĠBash": 13444,
  "ĠBashar": 18341,
  "ĠBasic": 19835,
  "ĠBasically": 19637,
  "ĠBasin": 28568,
  "ĠBasketball": 25172,
  "ĠBass": 21298,
  "ĠBast": 21951,
  "ĠBat": 6161,
  "ĠBates": 29243,
  "ĠBath": 23899,
  "ĠBatman": 9959,
  "ĠBatt": 17050,
  "ĠBattalion": 29880,
  "ĠBattery": 28465,
  "ĠBattle": 8230,
  "ĠBattlefield": 30127,
  "ĠBav": 30180,
  "ĠBay": 4023,
  "ĠBayern": 21557,
  "ĠBaylor": 23131,
  "ĠBe": 1456,
  "ĠBeach": 8206,
  "ĠBeacon": 27342,
  "ĠBean": 26203,
  "ĠBear": 15705,
  "ĠBears": 12962,
  "ĠBeast": 14902,
  "ĠBeat": 12131,
  "ĠBeatles": 21004,
  "ĠBeau": 28201,
  "ĠBeaut": 16573,
  "ĠBeautiful": 27052,
  "ĠBeauty": 24712,
  "ĠBec": 18366,
  "ĠBecause": 4268,
  "ĠBeck": 9280,
  "ĠBeckham": 28753,
  "ĠBecome": 29994,
  "ĠBed": 15331,
  "ĠBee": 23429,
  "ĠBeer": 15805,
  "ĠBefore": 7688,
  "ĠBeg": 29642,
  "ĠBegin": 19419,
  "ĠBeginning": 29605,
  "ĠBeh": 12514,
  "ĠBehavior": 27185,
  "ĠBehind": 20797,
  "ĠBeijing": 9189,
  "ĠBeing": 11309,
  "ĠBeir": 29118,
  "ĠBeirut": 30368,
  "ĠBel": 3750,
  "ĠBelarus": 26712,
  "ĠBelfast": 22644,
  "ĠBelg": 9424,
  "ĠBelgian": 17118,
  "ĠBelgium": 13584,
  "ĠBelieve": 30590,
  "ĠBell": 7098,
  "ĠBelle": 30744,
  "ĠBelow": 10192,
  "ĠBelt": 16163,
  "ĠBen": 3692,
  "ĠBend": 23607,
  "ĠBened": 21424,
  "ĠBenedict": 23441,
  "ĠBenef": 25187,
  "ĠBeng": 12442,
  "ĠBengal": 21151,
  "ĠBengals": 21037,
  "ĠBenghazi": 17097,
  "ĠBenjamin": 12462,
  "ĠBenn": 12130,
  "ĠBennett": 14637,
  "ĠBenson": 28582,
  "ĠBent": 17701,
  "ĠBentley": 31161,
  "ĠBer": 3905,
  "ĠBerg": 18376,
  "ĠBerger": 26736,
  "ĠBerkeley": 11994,
  "ĠBerlin": 9595,
  "ĠBern": 5073,
  "ĠBernanke": 31299,
  "ĠBernard": 13888,
  "ĠBernardino": 28962,
  "ĠBernie": 8224,
  "ĠBernstein": 31204,
  "ĠBerry": 21599,
  "ĠBert": 21124,
  "ĠBes": 26450,
  "ĠBesides": 16756,
  "ĠBest": 6921,
  "ĠBet": 6171,
  "ĠBeta": 20138,
  "ĠBeth": 18191,
  "ĠBetter": 14683,
  "ĠBetty": 27261,
  "ĠBetween": 14046,
  "ĠBever": 19345,
  "ĠBeverly": 25085,
  "ĠBeyon": 30462,
  "ĠBeyond": 14661,
  "ĠBh": 13254,
  "ĠBhar": 26930,
  "ĠBi": 10003,
  "ĠBible": 9164,
  "ĠBiblical": 31201,
  "ĠBiden": 15228,
  "ĠBie": 24756,
  "ĠBig": 4371,
  "ĠBike": 25390,
  "ĠBil": 21483,
  "ĠBill": 3408,
  "ĠBillboard": 23064,
  "ĠBillion": 31723,
  "ĠBills": 17459,
  "ĠBilly": 14573,
  "ĠBin": 18669,
  "ĠBing": 25396,
  "ĠBio": 19667,
  "ĠBiology": 27469,
  "ĠBir": 11296,
  "ĠBird": 15238,
  "ĠBirds": 29204,
  "ĠBirmingham": 15510,
  "ĠBirth": 20973,
  "ĠBishop": 15125,
  "ĠBit": 4242,
  "ĠBitcoin": 5321,
  "ĠBitcoins": 28287,
  "ĠBj": 28687,
  "ĠBl": 1290,
  "ĠBlack": 3039,
  "ĠBlackBerry": 21474,
  "ĠBlackhawks": 27801,
  "ĠBlacks": 24431,
  "ĠBlade": 21562,
  "ĠBlair": 14457,
  "ĠBlake": 11891,
  "ĠBlank": 29830,
  "ĠBlasio": 26300,
  "ĠBlazers": 30588,
  "ĠBle": 21435,
  "ĠBless": 29360,
  "ĠBlind": 27800,
  "ĠBlizzard": 20804,
  "ĠBlock": 11856,
  "ĠBlockchain": 24616,
  "ĠBlocked": 22936,
  "ĠBlog": 12406,
  "ĠBlood": 11314,
  "ĠBloom": 9442,
  "ĠBloomberg": 12344,
  "ĠBlu": 11766,
  "ĠBlue": 6207,
  "ĠBlues": 13759,
  "ĠBluetooth": 19347,
  "ĠBlvd": 31410,
  "ĠBo": 3532,
  "ĠBoard": 6217,
  "ĠBoat": 31530,
  "ĠBob": 6316,
  "ĠBobby": 14909,
  "ĠBod": 26560,
  "ĠBody": 17289,
  "ĠBoe": 9900,
  "ĠBoehner": 16403,
  "ĠBoeing": 16069,
  "ĠBog": 21323,
  "ĠBoise": 31252,
  "ĠBoko": 30414,
  "ĠBol": 10388,
  "ĠBold": 26876,
  "ĠBolivia": 31674,
  "ĠBolshe": 28849,
  "ĠBolt": 24646,
  "ĠBolton": 28560,
  "ĠBom": 22696,
  "ĠBomb": 16965,
  "ĠBon": 9150,
  "ĠBond": 13742,
  "ĠBonus": 30258,
  "ĠBoo": 31747,
  "ĠBook": 5619,
  "ĠBooker": 24429,
  "ĠBooks": 13543,
  "ĠBoom": 31912,
  "ĠBoost": 28343,
  "ĠBoot": 22150,
  "ĠBooth": 30592,
  "ĠBor": 11015,
  "ĠBorder": 15193,
  "ĠBorders": 31439,
  "ĠBorg": 30900,
  "ĠBoris": 22164,
  "ĠBorn": 21154,
  "ĠBos": 13345,
  "ĠBosnia": 28556,
  "ĠBoss": 21018,
  "ĠBoston": 5297,
  "ĠBot": 19153,
  "ĠBoth": 5528,
  "ĠBottom": 28328,
  "ĠBou": 12888,
  "ĠBoulder": 24381,
  "ĠBoulevard": 19333,
  "ĠBour": 18737,
  "ĠBow": 10245,
  "ĠBowie": 26680,
  "ĠBowl": 7356,
  "ĠBowman": 31597,
  "ĠBox": 10099,
  "ĠBoy": 6408,
  "ĠBoyd": 23974,
  "ĠBoyle": 29738,
  "ĠBoys": 16961,
  "ĠBr": 1777,
  "ĠBra": 9440,
  "ĠBrad": 6817,
  "ĠBradford": 22897,
  "ĠBradley": 13378,
  "ĠBrady": 12771,
  "ĠBrain": 17424,
  "ĠBranch": 20599,
  "ĠBrand": 13259,
  "ĠBrandon": 12498,
  "ĠBrat": 30886,
  "ĠBraves": 22464,
  "ĠBrazil": 6170,
  "ĠBrazilian": 13491,
  "ĠBre": 4018,
  "ĠBreak": 15298,
  "ĠBreaking": 21554,
  "ĠBreitbart": 14727,
  "ĠBren": 17286,
  "ĠBrend": 16255,
  "ĠBrendan": 20371,
  "ĠBrennan": 20555,
  "ĠBrent": 19327,
  "ĠBrett": 17756,
  "ĠBrew": 8383,
  "ĠBrewer": 30727,
  "ĠBrewers": 27520,
  "ĠBrewery": 25781,
  "ĠBrewing": 15457,
  "ĠBrexit": 9652,
  "ĠBri": 25480,
  "ĠBrian": 7224,
  "ĠBrid": 28528,
  "ĠBridge": 9232,
  "ĠBrief": 22465,
  "ĠBrig": 16064,
  "ĠBrigade": 23354,
  "ĠBright": 17199,
  "ĠBrighton": 28160,
  "ĠBring": 26637,
  "ĠBris": 20182,
  "ĠBrisbane": 21289,
  "ĠBristol": 20494,
  "ĠBrit": 2020,
  "ĠBritain": 4594,
  "ĠBritish": 2959,
  "ĠBritt": 27314,
  "ĠBro": 1939,
  "ĠBroad": 8715,
  "ĠBroadcasting": 26564,
  "ĠBroadway": 15880,
  "ĠBrock": 19430,
  "ĠBrom": 25897,
  "ĠBron": 8944,
  "ĠBroncos": 13820,
  "ĠBronx": 24517,
  "ĠBronze": 30603,
  "ĠBrook": 6431,
  "ĠBrooklyn": 10272,
  "ĠBrooks": 14266,
  "ĠBros": 13643,
  "ĠBrother": 8322,
  "ĠBrotherhood": 16095,
  "ĠBrothers": 14807,
  "ĠBrow": 21476,
  "ĠBrown": 3896,
  "ĠBrowns": 15008,
  "ĠBru": 7241,
  "ĠBruce": 9629,
  "ĠBruins": 20577,
  "ĠBrun": 14186,
  "ĠBruno": 28020,
  "ĠBrunswick": 27122,
  "ĠBrus": 12117,
  "ĠBrussels": 12608,
  "ĠBry": 8010,
  "ĠBryan": 14920,
  "ĠBryant": 14665,
  "ĠBu": 10747,
  "ĠBub": 25428,
  "ĠBuc": 19643,
  "ĠBucc": 28264,
  "ĠBuccane": 30440,
  "ĠBuccaneers": 31944,
  "ĠBuch": 19719,
  "ĠBuchanan": 29571,
  "ĠBuck": 12539,
  "ĠBucks": 26556,
  "ĠBud": 9554,
  "ĠBudd": 8510,
  "ĠBuddh": 18441,
  "ĠBuddha": 21162,
  "ĠBuddhism": 22463,
  "ĠBuddhist": 18207,
  "ĠBudget": 13922,
  "ĠBuff": 8861,
  "ĠBuffalo": 12692,
  "ĠBuffett": 28276,
  "ĠBug": 23327,
  "ĠBuild": 14226,
  "ĠBuilding": 12365,
  "ĠBul": 10444,
  "ĠBulgar": 23066,
  "ĠBulgaria": 24701,
  "ĠBull": 7505,
  "ĠBulldogs": 28764,
  "ĠBullet": 25240,
  "ĠBulls": 13730,
  "ĠBun": 20828,
  "ĠBund": 12921,
  "ĠBundes": 24468,
  "ĠBundesliga": 31077,
  "ĠBundy": 29334,
  "ĠBur": 5278,
  "ĠBureau": 9021,
  "ĠBurg": 20307,
  "ĠBurger": 23774,
  "ĠBurke": 18874,
  "ĠBurlington": 31292,
  "ĠBurn": 10391,
  "ĠBurning": 27959,
  "ĠBurns": 19891,
  "ĠBurr": 31051,
  "ĠBurton": 21835,
  "ĠBus": 14373,
  "ĠBush": 4174,
  "ĠBusiness": 7515,
  "ĠBut": 824,
  "ĠButler": 14927,
  "ĠButter": 23018,
  "ĠButton": 29369,
  "ĠBuy": 13468,
  "ĠBuzz": 14255,
  "ĠBuzzFeed": 21129,
  "ĠBy": 2805,
  "ĠByrne": 30076,
  "ĠByron": 29494,
  "ĠByz": 31218,
  "ĠC": 335,
  "ĠCA": 8763,
  "ĠCAN": 19143,
  "ĠCAP": 21984,
  "ĠCAR": 25300,
  "ĠCB": 10449,
  "ĠCBC": 15415,
  "ĠCBD": 24292,
  "ĠCBO": 28643,
  "ĠCBS": 8652,
  "ĠCC": 11082,
  "ĠCCTV": 27828,
  "ĠCD": 7044,
  "ĠCDC": 18092,
  "ĠCDs": 31899,
  "ĠCE": 21470,
  "ĠCEO": 4810,
  "ĠCEOs": 24853,
  "ĠCF": 18700,
  "ĠCFL": 30750,
  "ĠCG": 31706,
  "ĠCH": 9017,
  "ĠCI": 18583,
  "ĠCIA": 6549,
  "ĠCITY": 28594,
  "ĠCJ": 28575,
  "ĠCL": 11450,
  "ĠCM": 14939,
  "ĠCNBC": 25591,
  "ĠCNN": 6150,
  "ĠCO": 8233,
  "ĠCOL": 29256,
  "ĠCOM": 15042,
  "ĠCON": 10809,
  "ĠCONT": 22040,
  "ĠCOP": 30713,
  "ĠCOU": 23039,
  "ĠCP": 17140,
  "ĠCPS": 30347,
  "ĠCPU": 10962,
  "ĠCR": 11439,
  "ĠCRE": 31662,
  "ĠCS": 9835,
  "ĠCSS": 15118,
  "ĠCT": 16208,
  "ĠCU": 29663,
  "ĠCV": 23515,
  "ĠCW": 22277,
  "ĠCa": 12401,
  "ĠCab": 15314,
  "ĠCabinet": 16018,
  "ĠCable": 19395,
  "ĠCad": 20106,
  "ĠCaesar": 24569,
  "ĠCaf": 31824,
  "ĠCafe": 26037,
  "ĠCage": 24782,
  "ĠCain": 23167,
  "ĠCairo": 17980,
  "ĠCal": 2083,
  "ĠCald": 25758,
  "ĠCalder": 27222,
  "ĠCaldwell": 30338,
  "ĠCalgary": 14199,
  "ĠCalif": 2779,
  "ĠCaliforn": 28414,
  "ĠCalifornia": 2994,
  "ĠCall": 7663,
  "ĠCaller": 26652,
  "ĠCalvin": 22941,
  "ĠCam": 7058,
  "ĠCamb": 18028,
  "ĠCambod": 21046,
  "ĠCambodia": 25641,
  "ĠCambridge": 13068,
  "ĠCamer": 6869,
  "ĠCamera": 22820,
  "ĠCameron": 8298,
  "ĠCamp": 5268,
  "ĠCampaign": 12688,
  "ĠCampbell": 11991,
  "ĠCampus": 25116,
  "ĠCan": 1471,
  "ĠCanad": 1967,
  "ĠCanada": 2964,
  "ĠCanadian": 4475,
  "ĠCanadians": 11088,
  "ĠCanadiens": 25064,
  "ĠCanal": 26430,
  "ĠCanberra": 27750,
  "ĠCance": 27323,
  "ĠCancer": 16945,
  "ĠCand": 16634,
  "ĠCandy": 30325,
  "ĠCann": 17957,
  "ĠCannabis": 25517,
  "ĠCannon": 26055,
  "ĠCanon": 21301,
  "ĠCant": 15704,
  "ĠCanter": 31264,
  "ĠCantor": 31996,
  "ĠCanucks": 21277,
  "ĠCanyon": 21438,
  "ĠCap": 3792,
  "ĠCapcom": 31794,
  "ĠCape": 14741,
  "ĠCapital": 9644,
  "ĠCapitals": 30736,
  "ĠCapitol": 10512,
  "ĠCaps": 31754,
  "ĠCapt": 9070,
  "ĠCaptain": 10202,
  "ĠCaption": 11268,
  "ĠCar": 1768,
  "ĠCarbon": 25169,
  "ĠCard": 6589,
  "ĠCardiff": 25482,
  "ĠCardinal": 22533,
  "ĠCardinals": 15286,
  "ĠCards": 20432,
  "ĠCare": 7446,
  "ĠCarey": 25630,
  "ĠCarib": 15768,
  "ĠCaribbean": 16461,
  "ĠCarl": 7007,
  "ĠCarlos": 14254,
  "ĠCarlson": 26889,
  "ĠCarly": 29693,
  "ĠCarn": 26056,
  "ĠCarnegie": 27017,
  "ĠCarney": 30716,
  "ĠCarol": 4548,
  "ĠCarolina": 5164,
  "ĠCaroline": 27476,
  "ĠCarp": 22937,
  "ĠCarpenter": 27389,
  "ĠCarr": 17218,
  "ĠCarrie": 28233,
  "ĠCarrier": 31524,
  "ĠCarroll": 17372,
  "ĠCars": 25649,
  "ĠCarson": 13374,
  "ĠCart": 16410,
  "ĠCarter": 9434,
  "ĠCas": 11481,
  "ĠCasc": 31641,
  "ĠCase": 10424,
  "ĠCasey": 17788,
  "ĠCash": 17248,
  "ĠCasino": 31850,
  "ĠCass": 13439,
  "ĠCast": 7234,
  "ĠCastle": 15088,
  "ĠCastro": 16719,
  "ĠCat": 7215,
  "ĠCatal": 16103,
  "ĠCatalan": 28850,
  "ĠCatalonia": 31650,
  "ĠCatch": 30608,
  "ĠCategory": 28373,
  "ĠCath": 5358,
  "ĠCathedral": 27528,
  "ĠCatherine": 20374,
  "ĠCatholic": 6540,
  "ĠCatholics": 17861,
  "ĠCats": 29107,
  "ĠCaucas": 24808,
  "ĠCaucus": 22876,
  "ĠCause": 27129,
  "ĠCav": 16297,
  "ĠCaval": 19833,
  "ĠCavaliers": 24614,
  "ĠCave": 24650,
  "ĠCavs": 30468,
  "ĠCay": 27506,
  "ĠCe": 19034,
  "ĠCec": 23851,
  "ĠCed": 23335,
  "ĠCedar": 31574,
  "ĠCel": 19269,
  "ĠCele": 19371,
  "ĠCelebr": 27721,
  "ĠCell": 16067,
  "ĠCelsius": 29137,
  "ĠCelt": 13889,
  "ĠCeltic": 22625,
  "ĠCeltics": 20390,
  "ĠCemetery": 29568,
  "ĠCensus": 19145,
  "ĠCent": 1879,
  "ĠCenter": 3117,
  "ĠCenters": 20463,
  "ĠCentral": 5186,
  "ĠCentre": 8001,
  "ĠCentury": 12495,
  "ĠCer": 21713,
  "ĠCert": 22288,
  "ĠCertain": 31575,
  "ĠCertainly": 21278,
  "ĠCh": 624,
  "ĠCha": 19204,
  "ĠChad": 16732,
  "ĠChain": 28241,
  "ĠChair": 8569,
  "ĠChairman": 10902,
  "ĠChal": 30094,
  "ĠChall": 12155,
  "ĠChallenge": 16262,
  "ĠChamber": 14785,
  "ĠChambers": 28823,
  "ĠChamp": 29087,
  "ĠChampion": 17445,
  "ĠChampions": 11365,
  "ĠChampionship": 7235,
  "ĠChampionships": 19255,
  "ĠChan": 16627,
  "ĠChance": 12496,
  "ĠChancellor": 16097,
  "ĠChand": 15566,
  "ĠChandler": 24555,
  "ĠChang": 23200,
  "ĠChange": 10793,
  "ĠChanges": 24658,
  "ĠChannel": 10318,
  "ĠChaos": 25403,
  "ĠChap": 12713,
  "ĠChapel": 29591,
  "ĠChapman": 23353,
  "ĠChapter": 15289,
  "ĠChar": 3203,
  "ĠCharacter": 23821,
  "ĠCharg": 14623,
  "ĠCharge": 26704,
  "ĠChargers": 19411,
  "ĠCharl": 5621,
  "ĠCharles": 6658,
  "ĠCharleston": 22698,
  "ĠCharlie": 10013,
  "ĠCharlotte": 13414,
  "ĠCharlottesville": 21348,
  "ĠChart": 26316,
  "ĠCharter": 21180,
  "ĠChase": 15951,
  "ĠChat": 27663,
  "ĠChavez": 23213,
  "ĠChe": 3372,
  "ĠCheck": 8538,
  "ĠCheese": 28979,
  "ĠChef": 28444,
  "ĠChelsea": 9695,
  "ĠChem": 16592,
  "ĠChemical": 24828,
  "ĠChen": 15641,
  "ĠCheney": 20818,
  "ĠCher": 13828,
  "ĠChern": 30498,
  "ĠCherry": 25062,
  "ĠChes": 25730,
  "ĠChess": 31529,
  "ĠChester": 25980,
  "ĠChev": 20014,
  "ĠChevrolet": 28208,
  "ĠChi": 21681,
  "ĠChicago": 4143,
  "ĠChick": 31303,
  "ĠChicken": 23551,
  "ĠChief": 5351,
  "ĠChiefs": 15613,
  "ĠChild": 6761,
  "ĠChildren": 9762,
  "ĠChile": 14519,
  "ĠChin": 21373,
  "ĠChina": 2331,
  "ĠChinese": 3421,
  "ĠChip": 16164,
  "ĠCho": 12973,
  "ĠChocolate": 25677,
  "ĠChoice": 21126,
  "ĠChoose": 26515,
  "ĠChris": 4629,
  "ĠChrist": 1845,
  "ĠChristian": 3831,
  "ĠChristianity": 12007,
  "ĠChristians": 8035,
  "ĠChristie": 12829,
  "ĠChristina": 29458,
  "ĠChristine": 22927,
  "ĠChristmas": 6011,
  "ĠChristopher": 11084,
  "ĠChrom": 27087,
  "ĠChrome": 11759,
  "ĠChron": 11453,
  "ĠChronicle": 14719,
  "ĠChronicles": 31083,
  "ĠChrys": 24747,
  "ĠChrysler": 27994,
  "ĠChuck": 12982,
  "ĠChurch": 4545,
  "ĠChurchill": 22987,
  "ĠCi": 31380,
  "ĠCincinnati": 13425,
  "ĠCind": 25130,
  "ĠCinem": 19125,
  "ĠCinema": 27344,
  "ĠCirc": 8154,
  "ĠCircle": 19048,
  "ĠCircuit": 12603,
  "ĠCisco": 29211,
  "ĠCit": 16932,
  "ĠCities": 20169,
  "ĠCitiz": 11531,
  "ĠCitizen": 19961,
  "ĠCitizens": 16101,
  "ĠCity": 2100,
  "ĠCivic": 26545,
  "ĠCivil": 7316,
  "ĠCl": 1124,
  "ĠClaim": 25851,
  "ĠClaire": 21981,
  "ĠClar": 13732,
  "ĠClara": 25856,
  "ĠClare": 20060,
  "ĠClark": 10104,
  "ĠClarke": 16264,
  "ĠClarks": 29158,
  "ĠClarkson": 31763,
  "ĠClass": 6850,
  "ĠClassic": 15335,
  "ĠClaud": 27078,
  "ĠClaus": 30243,
  "ĠClause": 30933,
  "ĠClay": 15034,
  "ĠClayton": 27025,
  "ĠCle": 6697,
  "ĠClean": 15420,
  "ĠClear": 20221,
  "ĠClearly": 20952,
  "ĠClement": 24433,
  "ĠClemson": 25592,
  "ĠCleveland": 8696,
  "ĠCli": 19273,
  "ĠClick": 9300,
  "ĠClient": 29739,
  "ĠCliff": 21567,
  "ĠClimate": 11559,
  "ĠClin": 16075,
  "ĠClinic": 27163,
  "ĠClinical": 28779,
  "ĠClint": 18115,
  "ĠClinton": 2107,
  "ĠClintons": 24499,
  "ĠClippers": 26012,
  "ĠClo": 31447,
  "ĠClock": 26452,
  "ĠClose": 15309,
  "ĠCloud": 11273,
  "ĠClub": 6358,
  "ĠCly": 28546,
  "ĠCo": 1847,
  "ĠCoach": 14432,
  "ĠCoal": 10484,
  "ĠCoalition": 11846,
  "ĠCoast": 7584,
  "ĠCob": 18587,
  "ĠCobb": 27489,
  "ĠCoc": 20036,
  "ĠCoca": 26017,
  "ĠCoch": 29602,
  "ĠCock": 31093,
  "ĠCod": 26495,
  "ĠCode": 9179,
  "ĠCody": 24690,
  "ĠCoff": 16852,
  "ĠCoffee": 21204,
  "ĠCohen": 12444,
  "ĠCoin": 17219,
  "ĠCoke": 31591,
  "ĠCol": 1710,
  "ĠColbert": 22980,
  "ĠCold": 11112,
  "ĠCole": 10250,
  "ĠColeman": 18846,
  "ĠColin": 16173,
  "ĠColl": 7608,
  "ĠCollect": 15361,
  "ĠCollection": 17058,
  "ĠCollective": 31435,
  "ĠColleg": 31928,
  "ĠCollege": 4963,
  "ĠCollins": 11763,
  "ĠCologne": 29167,
  "ĠColomb": 13772,
  "ĠColombia": 17395,
  "ĠColombian": 30794,
  "ĠColon": 15027,
  "ĠColonel": 21833,
  "ĠColor": 5540,
  "ĠColorado": 6380,
  "ĠColts": 17613,
  "ĠColumb": 6127,
  "ĠColumbia": 8419,
  "ĠColumbus": 12822,
  "ĠCom": 1083,
  "ĠComb": 16180,
  "ĠCombat": 22302,
  "ĠCombine": 30467,
  "ĠCombined": 31697,
  "ĠComcast": 17081,
  "ĠCome": 7638,
  "ĠComedy": 20981,
  "ĠComet": 31316,
  "ĠComey": 9960,
  "ĠComic": 16964,
  "ĠComics": 14201,
  "ĠComing": 21109,
  "ĠComm": 1958,
  "ĠCommand": 10988,
  "ĠCommander": 16371,
  "ĠComment": 20431,
  "ĠComments": 23312,
  "ĠCommerce": 14700,
  "ĠCommercial": 23788,
  "ĠCommission": 4205,
  "ĠCommissioner": 12126,
  "ĠCommit": 31010,
  "ĠCommittee": 4197,
  "ĠCommon": 9565,
  "ĠCommons": 11477,
  "ĠCommonwealth": 17472,
  "ĠCommun": 4459,
  "ĠCommunication": 27862,
  "ĠCommunications": 13101,
  "ĠCommunist": 12815,
  "ĠCommunity": 8343,
  "ĠComp": 3877,
  "ĠCompanies": 21996,
  "ĠCompany": 6961,
  "ĠCompar": 31372,
  "ĠCompared": 28495,
  "ĠCompetition": 26150,
  "ĠCompl": 24077,
  "ĠComplete": 18349,
  "ĠComplex": 21876,
  "ĠComput": 22776,
  "ĠComputer": 15698,
  "ĠCon": 1627,
  "ĠConc": 21570,
  "ĠConcept": 26945,
  "ĠConcer": 19063,
  "ĠCond": 14614,
  "ĠConf": 7376,
  "ĠConfeder": 14238,
  "ĠConfederate": 17655,
  "ĠConference": 7966,
  "ĠCong": 2452,
  "ĠCongo": 22317,
  "ĠCongress": 2618,
  "ĠCongressional": 12031,
  "ĠCongressman": 22346,
  "ĠConn": 19162,
  "ĠConnect": 8859,
  "ĠConnecticut": 13174,
  "ĠConnor": 23502,
  "ĠConrad": 31455,
  "ĠCons": 3469,
[...]
