#version: 0.2
Ġ t
Ġ a
h e
i n
r e
Ġt he
o n
e r
Ġ s
Ġ w
a t
Ġ o
e n
Ġ c
i t
i s
a n
o r
Ġ b
e d
e s
Ġ f
in g
Ġ p
o u
Ġa n
Ġt o
a l
a r
Ġ m
Ġ in
Ġo f
Ġ h
Ġ d
â Ģ
a s
Ġan d
i c
Ġt h
l e
o m
i on
l l
en t
Ġ n
Ġ l
Ġ re
s t
v e
Ġ e
l y
Ġb e
r o
Ġ g
i d
u t
a c
o t
Ġ T
Ġ I
Ġth at
Ġ on
a y
Ġ is
Ġ S
i m
e t
a m
o w
a d
Ġf or
s e
i g
âĢ Ļ
Ġ A
v er
c t
l d
u r
Ġ C
Ġ u
Ġs t
Ġ y
Ġ it
Ġ he
i r
at ion
it h
Ġw h
Ġ M
c e
t er
Ġw e
o l
i l
Ġw ith
Ġa s
Ġ B
c h
i ll
n d
Ġw as
Ġy ou
er s
Ġ P
k e
Ġ âĢ
Ġc on
Ġd e
Ġ r
he r
i f
at e
Ġa t
a g
Ġh a
Ġ W
Ġs e
o re
Ġ H
Ġp ro
u l
p p
m ent
Ġa re
r i
Ġ D
Ġ 1
es t
Ġc om
u s
is t
an d
a in
ĠT he
Ġ R
o p
Ġ 2
ig h
r om
Ġ (
en d
or t
t e
o d
Ġn e
Ġ F
Ġe x
u m
u n
re s
âĢ Ŀ
Ġn ot
a b
Ġ v
Ġ N
Ġha ve
es s
it y
ou ld
Ġo r
Ġb y
t h
o s
Ġ G
Ġf rom
i ve
Ġa l
an t
' s
Ġs u
o c
ar t
Ġs h
Ġth is
Ġ L
e l
e m
q u
n t
igh t
p e
u st
Ġ le
i es
Ġ E
Ġc h
Ġs a
Ġa b
T he
ou t
al l
ac k
i e
re d
ĠâĢ ľ
Ġh as
al ly
0 0
Ġp l
Ġ J
Ġg o
ar d
Ġh is
om e
i v
g h
o st
e ar
a p
Ġt r
Ġ O
ou r
Ġ j
a k
u d
as t
Ġd o
Ġthe y
Ġb ut
Ġw or
Ġc an
r ou
Ġw ill
Ġsa id
g e
Ġw he
Ġ U
ic h
Ġ k
Ġa ll
o k
Ġ "
Ġwh o
id e
am e
t her
Ġo ut
an s
i al
Ġthe ir
f f
on g
ic e
p l
u re
Ġm ore
on e
ag e
ion s
Ġu p
ac t
Ġm e
i ke
ou s
Ġa d
in e
e p
Ġab out
at ed
Ġon e
Ġwe re
b er
r a
p t
Ġs o
Ġu s
e ct
im e
o g
Ġh ad
a re
Ġ K
c c
i a
u b
Ġw ould
Ġc l
Ġ2 0
Ġ im
Ġwh ich
a ke
x t
in d
u e
ver y
Ġa g
Ġt e
i z
Ġof f
Ġcom p
Ġbe en
Ġu n
Ġin t
Ġ en
s o
p er
Ġcon t
ig n
ĠT h
a u
ar y
Ġy ear
ac e
i p
Ġl ike
e w
v en
Ġin c
o ok
ay s
Ġm an
Ġp e
ĠI n
o se
r y
Ġre s
Ġp er
ab le
it e
Ġs p
or d
as s
Ġo ther
i re
m er
Ġs ome
i le
en ce
op le
Ġ20 1
ĠS t
i b
ation s
Ġo ver
Ġthe re
k s
ic al
res s
Ġd is
Ġne w
ul t
Ġal so
Ġth an
ow n
Ġbe c
Ġa r
Ġthe m
an ce
ou gh
r u
Ġa pp
p ort
ou nt
Ġyou r
Ġp art
a il
Ġwhe n
re e
Ġwh at
in t
f ter
Ġpe ople
or m
Ġs c
on d
Ġ qu
as e
ĠC h
Ġan y
a v
Ġj ust
Ġit s
Ġ Y
Ġt ime
ct ion
Ġk n
ac h
ĠI t
o f
Ġhe r
Ġ 3
Ġre c
l ic
Ġm y
re at
Ġ if
en s
Ġg et
. âĢĿ
Ġint o
Ġwor k
Ġt w
ir st
ou nd
Ġ V
i an
ve l
Ġn o
d u
ing s
e re
or y
Ġo ur
id ent
it ion
ic k
or s
Ġ -
Ġp re
o ve
Ġpl ay
o b
au se
in k
an g
w n
te xt
am p
ad e
h ing
at es
ar k
Ġ ro
Ġp ol
Ġs he
ver s
Ġa fter
Ġc o
, âĢĿ
Ġf irst
Ġc ould
Ġh ow
Ġ1 9
ĠH e
Ġa cc
n e
i ous
nd er
Ġh im
' t
i ld
Ġp o
on s
| >
end of
endof text
< |
a w
Ġon ly
Ġf e
ic t
he d
Ġp r
Ġtw o
r it
Ġcom m
Ġs pe
âĢ ľ
is h
o v
f orm
Ġa ct
Ġs er
Ġb l
Ġbe t
Ġde c
. "
w e
n ing
Ġb ack
Ġm ost
c es
f t
o od
ĠâĢ ĵ
c k
Ġa m
Ġd id
rou gh
o y
if f
rou nd
at er
Ġag ain
Ġ 4
d ay
u al
Ġw ant
Ġu nder
Ġd es
is e
Ġcon s
se l
ĠâĢ Ķ
u ll
Ġbec ause
Ġn ow
l ud
Ġyear s
ent s
ub lic
ter n
Ġne ed
Ġ $
Ġe ven
m an
Ġin v
Ġat t
Ġkn ow
is s
e c
ĠW e
. .
Ġse e
ment s
Ġad d
c ed
, "
Ġin d
o ld
t ing
Ġse c
f ore
Ġe very
u ch
ur n
Ġ 5
Ġsu pp
Ġm ake
pe ct
Ġthe se
Ġe m
ĠU n
Ġwhe re
o ll
oc k
j ect
I n
ation al
ver n
Ġb u
Ġl ook
ĠA nd
Ġd on
T h
os s
Ġe v
Ġw ay
at ing
um p
Ġbe ing
Ġre m
Ġm ay
i ly
Ġthe n
Ġr ight
Ġman y
Ġ [
ro w
le ct
ie w
Ġd iff
n g
as on
Ġde f
Ġc all
Ġre l
ĠB ut
as ed
Ġinc lud
Ġth ink
i ed
ak ing
ĠT r
Ġre g
l es
) .
mer ic
Ġth rough
Ġim p
it ed
ri b
Ġs y
Ġsh ould
Ġs ay
Ġp res
on t
at h
ur ing
Ġl ast
Ġth ose
Ġf l
Ġ very
ow er
ot her
t y
Ġm uch
it ies
Ġst ate
if ic
ĠTh is
Ġsh ow
at ive
t le
Ġb r
he n
Ġwe ll
s s
ar g
v ed
ot h
ĠW h
Ġp h
Ġ2 00
Ġdo es
Ġc ount
Ġd own
ar ly
Ġ end
Ġu se
Ġo wn
al s
Ġas s
Ġbe l
u nd
ic s
an ge
ĠA meric
Ġl ong
in ce
Ġbe fore
ter s
t s
om et
Ġm on
w ard
Ġgo vern
g r
Ġst art
Ġre port
ib le
Ġ ke
u es
ĠN ew
Ġf in
u p
ou n
Ġte am
Ġm ade
b le
if e
) ,
Ġsu ch
ol og
en er
re n
c om
ers on
Ġs m
re st
Ġgo ing
l p
il ity
Ġwor ld
f ul
u ally
Ġst ud
Ġgo od
i x
e k
Ġa c
m s
t ain
ist s
âĢ Ķ
Ġe ff
Ġsu b
Ġagain st
Ġs ur
Ġg ame
I t
Ġs et
Ġg u
Ġpo int
it s
Ġ ent
or k
Ġ 6
- -
st em
g an
Ġst ill
ar s
rou p
00 0
y s
Ġwh ile
ill ion
Ġhe lp
l i
Ġle ad
we en
. <|
Ġm in
v ing
Ġs ays
im es
Ġo b
is m
Ġpro du
al k
an k
a x
Ġin te
e ll
Ġin st
c y
Ġin ter
Ġg r
Ġst r
Ġs im
c ess
sel f
Ġcon f
e f
Ġt ake
Ġc ol
u res
Ġs ame
Ġth ough
Ġbet ween
Ġoff ic
oll ow
e ver
Ġdiff ere
ar ch
Ġc r
Ġpro v
Ġdis c
ut ion
l and
us s
Ġo p
Ġh igh
Ġ ed
o ol
i o
Ġl aw
Ġs ign
Ġn um
a ir
re ad
w ay
Ġgovern ment
l ed
h ip
n er
g g
ĠR e
at ch
am es
Ġs omet
Ġt er
he s
an y
vel op
c ent
t ed
t en
Ġre f
Ġtr ans
Ġr un
Ġin s
W e
Ġf ound
Ġth ree
Ġa round
a h
Ġhe re
iv es
Ġm em
at her
Ġm ed
a ve
Ġus ed
Ġre al
Ġ1 0
Ġex p
ou se
Ġsy stem
ĠY ou
ce pt
Ġre ally
ĠA r
o ot
v es
Ġm od
Ġg roup
Ġsupp ort
c er
c i
c on
Ġc our
Ġ 7
et s
Ġh and
Ġc ar
Ġre t
Ġp ublic
a z
Ġspe c
al e
y ing
Ġg reat
in s
ĠL e
p r
. [
Ġex t
en se
ire ct
Ġf am
Ġc ur
al th
ĠC om
Ġha pp
p h
t on
Ġf act
Ġex per
ĠThe y
ĠTr ump
Ġw om
Ġf r
Ġc ap
ĠI s
Ġb oth
Ġd ay
Ġf ind
Ġre ad
Ġd et
ul ar
Ġl it
in es
ic es
Ġre p
Ġs l
ĠA l
ut h
Ġd uring
o h
ĠA s
Ġ 0
Ġmon th
Ġde velop
Ġb ig
is ion
Ġf ollow
Ġp erson
m in
ak es
Ġ 8
Ġis s
Ġc re
ĠS h
Ġto ld
ĠC l
Ġs ince
t he
a red
Ġwe ek
ic ally
m ed
i vers
ag es
Ġf ew
Ġw ar
e x
ord ing
Ġc ent
Ġle g
ort h
Ġpol it
g et
Ġex pl
Ġl ot
e red
Ġbel ie
Ġg ener
Ġto o
a j
as h
r ic
Ġo pp
Ġre qu
Ġ 9
Ġcont in
re nt
d er
Ġf il
b ers
W h
i et
ent ion
Ġc le
Ġres p
at a
Ġp ut
an c
ĠI f
Ġan other
Ġin f
iz ed
Ġsomet hing
ch ool
n ess
Ġdiffere nt
Ġc or
Ġl oc
Ġinv est
ut e
Ġs oc
Ġp ower
Ġc he
ĠD e
Ġ '
Ġp ass
Ġcomm un
Ġl ife
Ġpl an
Ġre le
Ġth ings
Ġhe ad
2 0
i ence
od y
ĠF r
Ġf ar
Ġp oss
Ġar t
n ed
th ing
Ġm et
u c
Ġc amp
Ġv ot
ro ss
Ġb o
ar ge
Th is
Ġm ight
Ġch ild
Ġas k
Ġ .
Ġe ach
v iew
Ġde p
ant s
Ġne ver
in ess
iz e
Ġne xt
Ġsec ond
Ġm ark
Ġqu est
Ġad v
Ġb us
i er
Ġcom e
ĠF or
Ġde m
ie ld
Ġg ot
ĠA n
ĠâĢ ĺ
Ġop en
Ġb est
Ġall ow
i ent
ĠTh at
it al
re t
Ġse em
Ġp ost
Ġfe el
n ce
ĠU S
p le
r at
Ġp ri
Ġper cent
ĠP ro
gr am
te m
Ġh ome
Ġd irect
Ġd ist
Ġcont ro
i red
Ġinc re
ĠR ep
u g
l ing
os ed
l ess
i k
s on
er v
Ġres ult
Ġh ard
Ġc are
Ġm illion
ate ly
Ġcomp le
or n
Ġpl ace
Ġwith out
Ġinclud ing
Ġin form
ch n
Ġim port
Ġa v
Ġh um
con om
Ġpro ble
Ġ ide
Ġbu ild
Ġto p
Ġnum ber
Ġcount ry
a im
one y
am a
g y
ab ly
Ġf our
ĠB l
Ġst and
is hed
r al
Ġe l
Ġg l
ri end
Ġle t
Ġpart ic
Ġbet ter
w ays
u ro
Ġrec ent
Ġt ri
Ġinte rest
Ġm ov
B ut
Ġse ason
r ation
Ġl ess
Ġt urn
Ġlit tle
Ġbe h
Ġapp ro
t t
Ġm il
c o
Ġb ro
r act
Ġcall ed
l ine
is ed
Ġc ase
e ad
c l
Ġle ft
Ġre st
Ġd r
Ġan n
ĠI nd
Ġp op
Ġm ove
Ġatt ack
a pp
en cy
ĠThe re
Ġke ep
Ġf ull
Ġdid n
Ġser v
er ing
od e
Ġf un
aj or
Ġm ain
Ġeff ect
in a
Ġpro gram
Ġus ing
Ġpre v
in al
Ġt est
1 0
Ġp ay
le g
t o
Ġe ar
Ġv al
at ure
Ġpol ice
re m
Ġw rit
b e
Ġ Z
Ġfor m
Ġe conom
Ġd ata
Ġp os
Ġnew s
Ġw in
ĠAmeric an
Ġch ar
Ġle vel
Ġs it
iv ing
Ġsm all
ain s
read y
in ed
Ġl ist
Ġs chool
olog y
id ed
H e
' re
u ck
pl oy
Ġe as
Ġpro cess
m it
Ġ =
Ġch ange
Ġwom en
r ap
ir d
Ġre ce
Ġcur rent
Ġp rom
g er
Ġd ri
Ġh ist
Ġpres ident
Ġcomp any
us ed
re en
Ġal ready
ĠUn ited
i ans
Ġm at
ru ct
oh n
Ġwh y
Ġt y
w it
Ġb re
Ġu nt
Ġm oney
Ġte chn
Ġl ater
Ġex pect
Ġal ways
Ġs ol
ĠS o
ĠH ow
Ġbus iness
Ġoffic ial
_ _
ivers ity
Ġb ook
st and
ĠO b
Ġth ing
a ign
Ġpro ject
Ġcl aim
as es
Ġj ob
Ġinform ation
Ġcl ass
Ġor gan
Ġt alk
ĠP h
Ġdes ign
ĠS he
ard s
a ff
Ġm ajor
Ġch ang
Ġab le
Ġ- -
Ġst ory
r on
Ġpro f
Ġ Q
er tain
Ġre se
iv en
ĠB e
Ġhe alth
le ction
Ġf ree
Ġv is
Ġo per
ou th
ur s
Ġa way
he re
ĠA d
Ġm ust
ĠC an
Ġc ity
amp le
i or
Ġhapp en
.. .
uth or
ur al
Ġimport ant
Ġ1 8
ur ity
Ġk ill
Ġp ast
Ġo ld
Ġp at
u red
r ist
Ġ est
ac y
pt ion
Ġs k
Ġdoes n
end ing
Ġle ast
iss ion
ur y
ĠS e
Ġg row
Ġv ar
Ġed it
Ġc ost
ain ed
ĠG o
s c
Ġd ays
Ġte ll
Ġh op
Ġcamp aign
Ġst re
Ġc ame
s ide
Ġm en
id es
ne y
Ġ1 2
Ġcon st
id er
Ġa ff
Ġen ough
res ident
Ġv iew
Ġk ind
cc ess
ĠM ar
Ġm aking
Ġl arge
Ġrec ord
o x
Ġfam ily
Ġf riend
Ġm ar
o ad
ĠS p
Ġpol ic
Ġe lect
el s
er al
Ġt ax
er n
Ġ1 5
pp ed
us h
al ity
is ing
le y
iv ed
if ied
Ġunt il
âĢ ¦
Ġv ide
Ġde al
are nt
Ġpolit ical
r or
ion al
ri es
Ġwork ing
Ġ ve
al f
au gh
ĠRep ublic
A s
b y
u ed
Ġto ok
at or
Ġde b
Ġl ine
I f
ain ing
ĠJ ohn
Ġin tern
Ġa ir
Ġf ore
is ter
Ġact ually
Ġbec ome
b s
Ġ es
oc rat
i ol
Ġme an
Ġf und
ap s
Ġof ten
w ork
w are
Ġfor mer
on y
Ġhum an
ĠE uro
Ġw on
Ġg ive
Ġacc ording
ĠS c
Ġe ver
ĠP l
y ear
m ost
Ġpro te
ar ing
Ġg ames
an e
Ġwor d
Ġb as
Ġret urn
ot t
is on
Ġt imes
Ġor der
en g
Ġn ame
w h
Ġb it
ĠR uss
Ġse ver
ĠD em
iz ation
an n
ĠA ll
ic le
Ġde v
g in
it her
ĠC on
o int
ut ure
1 9
Ġ19 9
Ġp ar
Ġw r
Ġs ing
Ġper form
Ġmark et
ĠA t
Ġchar ac
Ġf ac
The re
i qu
ra ft
Ġdo ing
Ġapp ear
ĠM ay
Ġr a
ĠM c
Ġplay ers
f or
ĠS y
Ġn ight
c hed
Ġle ar
id d
ĠO r
Ġl a
m ber
ak en
Ġto day
Ġe arly
Ġse en
Ġha ving
Ġ ,
Ġmed ia
Ġp ot
Ġchild ren
S t
Ġev ent
Ġc rit
Ġsever al
ĠP resident
Ġcontro l
Ġwhe ther
Ġsoc ial
id ence
ro p
Ġme et
at s
/ /
Ġp ress
Ġw ent
Ġmil it
Ġyou ng
Ġf ive
art ment
or ies
Ġsu re
Ġe qu
ious ly
Ġquest ion
Ġpro p
Ġo cc
Ġlike ly
Ġ1 1
Ġmem bers
Ġc ertain
ĠY ork
5 0
Ġex ample
Ġw ater
en e
un e
ver t
Ġen g
and s
Ġar g
Ġs ide
Ġd one
Ġ vers
ĠC ol
Ġinv ol
ot s
ĠEuro pe
ĠSt ates
end ed
Ġan t
Ġal ong
Ġsu ccess
Ġsh ort
ĠM r
Ġmonth s
ent ial
Ġh our
i um
b r
i ally
Ġse x
1 1
en n
b all
i ver
ĠS te
Ġwith in
Ġdes c
A nd
Ġf ight
le t
Ġcour se
im ate
l f
Ġam ong
Ġon ce
ag ue
Ġact iv
ur ch
E R
Ġf uture
Ġinvest ig
s h
ub l
Ġposs ible
Ġcon cer
Ġunder stand
ĠOb ama
ul ation
Ġch o
Ġ ]
it ing
Ġproble m
-- --
ort un
st er
Ġme ans
n ect
re w
Ġv iol
ĠO n
Ġpri v
u ff
Ġa uthor
gg est
ĠC ar
on es
it ive
Ġav ail
e e
âĢ ĵ
oc i
ĠN o
Ġkn own
Ġthough t
Ġprodu ct
ĠB r
iv id
Ġy et
our n
Ġac ross
g ress
Ġh old
Ġloc al
Ġf ail
ĠSt ate
Ġcommun ity
ĠW hen
Ġre ason
Ġn on
Ġor ig
Ġsu ggest
Ġ &
Ġm akes
ver age
ĠT e
m y
al d
Ġask ed
in c
Ġ201 6
Ġreport ed
ens ive
n ot
ed eral
Ġg iven
p or
b ook
b ack
Y ou
ag ed
Ġpro b
l er
Ġ i
Ġstr ong
Ġm us
Ġvide o
Ġother s
Ġbelie ve
or ld
ĠH ouse
Ġget ting
Ġann oun
Ġb en
i ber
an ces
Ġl ight
ĠUn iversity
o ber
Ġ3 0
ore d
Ġ ident
Ġc ut
it ions
Ġs ent
Ġl im
ir on
Ġc a
ĠCh rist
iet y
ĠC o
ur ther
Ġs our
Ġc reat
1 2
Ġcon d
' ve
Ġn et
Ġb at
as hing
Ġcl ose
Ġstart ed
Ġn ational
Ġsa f
Ġde ath
. ,
Ġavail able
am ent
Ġiss ue
Ġb ased
Ġh ig
Ġind ust
am s
ĠDem ocrat
Ġfollow ing
Ġacc ount
Ġl and
res ent
Ġl ow
Ġl ove
ĠC ent
Ġ201 5
as ter
m ing
Ġag o
ĠM in
Ġ X
Ġem ploy
Ġhist ory
sel ves
Ġ #
Ġm om
F or
ort s
Ġpart y
Ġser ies
Ġcom es
u se
Ġal most
u ly
Ġtr ying
get her
Ġto gether
ut es
u ment
ab ility
ĠAmeric a
in ation
Ġacc ess
Ġide a
3 0
ĠA m
Ġf oc
il ar
ie f
Ġcomm it
her s
Ġis n
re ed
ail s
ition al
Ġcle ar
ĠS en
ĠF l
Ġpr act
ĠO ne
Ġtr ad
th ough
ĠWh at
Ġ1 6
Ġadd ed
Ġimp ro
Ġexper ience
Ġh alf
ere nce
ro du
Ġh it
wit ter
ust om
Ġ201 4
r ict
Ġpro t
g ed
ĠB ro
e b
Ġan al
Ġr ul
r ing
Ġlook ing
ivid ual
Ġs ix
Ġl ive
Ġany thing
Ġcomple te
int on
un ch
Ġm iss
min ist
Ġare a
Ġf av
tem pt
er man
ĠCom m
ra el
og rap
Ġr is
Ġpres ent
ĠE x
Ġsay ing
n es
ĠCan ad
Ġv ict
ci ally
ru g
Ġb ad
Ġt aken
u ge
ro te
ot e
Ġent ire
A T
ra w
ĠW ar
Ġcomp et
ĠE ng
Ġb ill
Ġbeh ind
' m
a id
at ors
Ġcour t
Ġph ot
Ġm or
Ġtr y
Ġne ar
ow s
Ġmilit ary
Ġf ace
ward s
1 5
Ġsec urity
ĠT o
Wh at
ĠP r
Ġpro per
Ġa ut
pl ay
Ġ er
Ġm ult
Ġ1 4
Ġfil m
os p
Ġdisc uss
a f
ĠP ol
Ġth reat
er t
Ġind ividual
Ġr ather
Ġsing le
Ġstud y
i en
ĠA f
Ġqu ick
ĠB rit
ir c
Ġto t
Ġs w
Ġm ind
tt p
ĠD on
Ġ Â
ĠS ec
Ġpolic y
le ment
Ġp ubl
Ġm ess
am ed
Ġwant ed
s y
ĠN orth
ap er
Ġf all
a i
Ġ z
Ġsome one
Ġbl ack
al es
Ġf ood
Ġs um
Ġ /
at ic
ll ing
ĠD ep
Ġcom b
Ġke y
Ġc ult
Ġspec ial
Ġ |
Ġplay er
p ar
Ġbr ing
ar m
Ġre du
Ġcomp an
r is
p ly
ĠM an
Ġ1 3
id s
Ġat tempt
o ff
Ġ1 7
A n
e v
Ġt aking
O n
Ġ :
ĠN ational
ĠG r
W hen
ĠB ar
: //
Ġf oot
v iron
Ġel se
Ġsp ace
Ġb ody
Ġpre t
ol ution
ĠC al
if y
Ġprob ably
. )
Ġnot hing
Ġc oun
Ġfr ont
ic ult
Ġc ou
ĠW orld
ashing ton
Ġcon nect
Ġrese arch
ĠC ity
ĠI m
Ġcom ing
c hes
o ver
Ġpoint s
ĠCl inton
el t
I N
Ġhow ever
Ġdesc rib
ĠIs rael
Ġj o
Ġsim ilar
Ġsign ific
li er
Ġben ef
Ġdec ision
ĠA ust
rem e
c ing
Ġe ither
d d
Ġim m
ac es
Ġm ass
Ġt arg
Ġfe at
Ġs us
ull y
Th at
Ġex ist
Ġcon v
ĠH ar
a ult
g o
Ġ201 3
Ġen c
Ġright s
Ġserv ice
Ġd oc
Ġw rote
Ġf urther
as ing
Ġch all
Ġf ig
Ġprote ct
Ġf ire
Ġh ouse
Ġth ird
ir l
Ġb an
Ġw a
Ġst op
Ġp ick
Ġcre ate
Ġf ield
s w
Ġ )
w w
Ġiss ues
ive ly
Ġcom pl
Ġre pl
Ġbe gin
S o
ĠW ith
Ġme as
ĠS u
m b
Ġst ep
Ġseem s
Ġwho le
Ġrel ations
ri ed
pp ing
ent ly
n ow
Ġex ec
pe cially
Ġd ue
Ġcompan ies
an a
Ġevery thing
a pe
y n
Ġsu per
Ġc and
1 6
Ġt em
O N
Ġf ederal
Ġe y
Ġst ates
Ġw atch
Ġtr a
Ġro om
R E
Ġlead ers
ĠHow ever
p ite
ĠW ashington
Ġc ustom
u ation
e al
am er
ĠJ an
Ġro le
Ġ201 2
1 4
Ġinf l
Ġs ound
Ġd am
Ġl ab
Ġrele ased
Ġofficial s
Ġse lf
iv il
Ġst ri
Ġt re
ĠG u
ib ility
Ġbe gan
* *
id ay
ĠG e
a ul
ĠD av
ĠIn st
il t
ĠS outh
Ġo pt
o on
Ġpos ition
Ġen er
ĠA pp
Ġfin al
Ġt reat
Ġstud ents
Ġcharac ter
Ġmat ter
he ad
un g
ob al
Ġout side
Ġd ou
Ġdevelop ment
Ġstate ment
viron ment
Ġhim self
Ġab ove
Ġam ount
Ġ1 00
Ġbre ak
r an
Ġst at
Ġ201 7
Ġprov ide
ad es
Ġin it
se c
I S
Ġhour s
l im
Ġit self
l ike
Ġoff ice
Ġ19 8
end er
Ġthem selves
Ġrep resent
Ġa ction
Ġbec ame
ĠIn tern
Ġcount ries
Ġgener al
er y
Ġadd ress
Ġcontin ue
Ġ2 5
Ġg un
Ġtr ue
Ġd i
Ġne g
ĠP art
Ġspec ific
te e
ac ed
i od
Ġsim ply
Ġl arg
ar ter
Ġsignific ant
p ro
' ll
Ġwas n
l ish
ĠA ss
ace book
Ġinter view
Ġg round
ĠR es
um b
Ġdiff icult
ograp h
Ġev idence
Ġad minist
Ġrun ning
1 3
ĠJ ust
re g
Ġr ad
Ġvers ion
og n
as k
at t
Ġc op
og le
o id
Ġd rug
Ġag ree
Ġbuild ing
Ġb ar
e ks
Ġneed s
Ġgroup s
Ġcomm on
ĠCh ina
Ġprof ess
idd le
Ġty p
Ġshow s
ĠE d
Ġresp ons
il i
Ġevery one
ang u
Ġd om
C h
A N
Ġneed ed
l am
Ġb all
B C
Ġd est
ĠG erman
Ġl at
Ġbel ow
Ġwom an
re am
ĠS ep
Ġrele ase
Ġmus ic
Ġex c
Ġin j
Ġpret ty
ourn al
r ight
rib ut
Ġinclud e
l ight
Ġsa w
Ġde ep
ĠM ed
if t
Ġplay ed
b ody
Ġener gy
Ġqu ite
ĠA b
Ġindust ry
Ġplay ing
Ġch arg
Ġm ot
Ġ5 0
Ġcand id
Ġa p
Ġph ys
Ġl ate
Ġs ense
Ġal leg
Ġleg al
Ġm ag
Ġwh ite
ĠH is
Ġfriend s
Ġg en
Ġan im
iv al
ĠA fter
Ġinst ead
H ow
w here
Ġab s
at ur
Ġval ue
Ġb illion
Ġl ost
Ġes pecially
s er
y le
Ġre d
ĠW est
Ġh ost
os ing
ĠM us
le v
Ġh om
t ime
Ġwe eks
1 7
or ing
Ġp le
ĠNew s
cc ording
ĠN ot
Ġfor ward
Ġdet er
ep end
om m
Ġrecent ly
Ġe lection
ĠT witter
Ġob ject
Ġj ud
Ġtr ack
ist ic
iqu e
ag er
Ġvot e
Ġ {
is c
Ġsu ff
Ġchang es
Ġopp ortun
Ġper iod
ĠO ct
med i
b o
Ġlong er
ĠWh ite
Ġs ite
Ġp ain
Ġso on
Ġe p
ac hed
Ġac cept
Ã ©
ĠC ong
Ġsh oot
Ġhop e
Ġeconom ic
ir t
ir m
Ġmom ent
o ke
Ġdec l
Ġp ie
h od
ĠW ill
le ge
Ġc irc
l t
Ġche ck
Ġcons um
1 8
ri pt
ar c
Ġt it
Ġpot ential
Ġwr ong
ĠM arch
Ġbl ock
ĠDep artment
Ġc red
Ġon line
Ġhig her
Ġfoc us
n ers
anc ial
Ġcons ider
on se
Ġwor ks
Ġ2 4
Ġed uc
Ġp arent
Ġsh are
A S
Ġrel ig
id ing
Ġhe ld
Ġw alk
o e
A R
Ġl ed
c ial
ul arly
Ġwe bs
Ġp red
Ġre ve
Ġl o
Ġgo al
ĠThe se
ove red
Ġst ay
Ġst ru
ĠA ug
ĠD r
Ġcont ract
Ġword s
ĠRepublic an
Ġris k
Ġso ld
le ar
ĠM y
Ġresult s
Ġc ode
Ġre view
The y
ke y
o le
Ġserv ices
Ġlaw s
Ġre v
ĠM ich
Ġfun ction
Ġw ind
Ġapp lic
Ġart icle
m e
Ġa ud
n s
Ġtot al
c il
op h
ĠSy ri
Ġc e
f ect
Ġa ge
Ġmin utes
Ġperson al
il ities
ĠJ une
Ġany one
ic ro
u ary
as ons
ur d
i ents
it ution
Ġtarg et
Ġear lier
Ġfav or
h aps
ate g
Ġd en
Ġpr im
Ġan sw
Ġup d
Ġexp ress
pr il
Ġcomp ut
p ut
Ġr ate
Ġde ad
Ġpop ular
ang er
Ġtechn ology
Ġne cess
Ġres pect
Ġ201 1
Ġv ol
ag ing
a ut
Ġen vironment
Ġrece ived
ap an
u le
Ġexpect ed
i j
ĠM e
Ġsur pr
Ġcre ated
f er
Ġant i
em ber
ĠJ uly
Ġb ase
end s
A d
Ġproble ms
Ġh y
ĠP e
Ġw ays
Ġcom ment
ip le
Ġp ort
Ġsc ient
Ġincre ase
Ġpriv ate
Ġannoun ced
v al
Ġeas y
ct or
ĠS m
Ġcan not
ĠP ar
Ġsh ot
ud e
h am
re et
u el
Ġquest ions
act ion
is l
ĠD o
ĠCong ress
Ġfor ce
ater ial
Ġimp act
2 5
ĠF acebook
pl es
ĠN e
Ġ +
Ġp ack
Ġl angu
ĠM ond
et er
ĠE n
her n
P h
at ives
al t
Ġe t
ĠG od
Ġp ur
Ġinvol ved
av ing
r ay
b it
ĠAust ral
h ood
Ġexec ut
c he
ill s
Ġmod el
Ġd iv
ues day
Ġst aff
Ġex act
__ __
Ġspe ak
Ġty pe
Ġc ivil
Ġs en
Ġne arly
it iz
on st
A l
Ġ19 7
Ġcont ent
le x
i res
Ġter ror
Ġc ases
Ġorig inal
ok es
ĠGo ogle
our t
Ġrelations hip
om b
Ġle ave
Ġins ide
Ġresp onse
Ġcap t
ĠFr iday
Ġf ans
ĠA pril
Ġ <
Ġintern ational
ll ed
ll ig
Ġhe art
Ġco ll
Ġar rest
Ġa verage
Ġbro ad
Ġus ers
ĠR ed
du ct
n a
Ġw orth
ĠC ount
Ġ201 0
Ġc ell
Ġl iving
Ġso ft
Ġbec om
Ġreport s
Ġkill ed
Ġc al
A t
Ġn ation
Ġsour ce
Ġ ur
ĠMond ay
Ġsub ject
ĠT uesday
ot o
Ġwork ed
E S
= =
Ġim medi
at ural
g ing
Ġass oci
tem ber
Ġgl obal
ĠE m
Ġcl ub
c ast
ip s
Ġest ab
Ġresp ond
re l
est s
ĠAmeric ans
j oy
Ġch ance
Ġab ility
Ġo il
T o
b or
ĠA ct
Ġt akes
Ġpr ice
Ġde l
Ġwe ap
rough t
Ġdirect or
ĠJ apan
Ġwork ers
Ġter ms
Ġt ou
a el
ĠP al
Ġpubl ished
ĠWh ile
e ch
olog ical
ĠP er
Ġro ad
Ġfin ancial
op s
6 0
Ġph one
Ġcol lect
Ġdec ided
Ġm id
Ġm other
Ġl ack
ĠRuss ia
ĠW ed
Ġdef in
Ġs qu
ĠS ome
Ġst ore
it es
ove mber
Ġg ave
os ition
Ġbu y
is es
iz ing
Ġg irl
Ġinfl u
ĠCal if
Ġ4 0
Ġhappen ed
Ġrequ ire
he l
Ġl og
r ain
ĠN ow
Ġe mer
m on
Ġf em
ĠS an
Ġcap ital
Ġfore ign
cl us
Ġcurrent ly
b ased
Ġgo es
vert ise
ĠO ff
Ġind ic
Ġ @
ov ed
Ġm aterial
Ġsit uation
Ġoff er
Ġwho se
Ġl ives
ĠGe or
Ġt al
ough t
ĠB y
Ġpl ans
Ġaff ect
nes day
Ġar ri
Ġmem ber
Ġrec ogn
Ġev ents
Ġp ict
Ġnet work
urs day
Ġpartic ip
ĠJan uary
Ġteam s
ro wn
Ġturn ed
ru ction
Ġmet hod
ĠF eb
" .
Ġmeet ing
ct ions
k y
Ġint rodu
f ully
Ġsim ple
Ġb ank
ĠH ill
ĠIs lam
ĠS und
Ġn orm
es e
ĠSep tember
Ġ ill
Ġh uge
in o
O ne
Ġreg ard
Ġare as
Ġcou ple
Ġcare er
ord er
Ġappro ach
un t
ĠT V
ĠA g
Ġc y
ĠC or
ĠAf ric
Ġr ace
Ġde li
Ġp age
ĠDav id
Ġperform ance
ĠN ovember
Ġto ol
Ġ2 1
Ġem ail
Ġquick ly
" ,
Ġf elt
Ġnum bers
ĠG l
Ġadminist ration
ist an
Ġor d
et y
l oad
E N
ou d
Ġm is
Ġvict im
ĠWed nesday
Ġimpro ve
Ġte xt
e es
Ġeng ine
Ġh on
ĠP aul
Ġv ia
Ġr ound
ĠE l
Ġp ull
a ily
ĠEurope an
Ġl oss
Ġbu ilt
ch ie
orn ia
Ġf re
Ġf ather
ĠTh ursday
Ġp ers
ap t
O R
Ġ2 2
Ġth ous
o or
Ġd ig
ĠA ng
Ġb oy
Ġprodu ction
av y
Â Ń
a ur
Ġhe ard
Ġh ttp
ruct ure
en ed
Ġeconom y
ĠAug ust
Ġtr ade
Ġen joy
um e
Ġbo ard
Ġm atch
Ġw ide
Ġwebs ite
Ġco ver
Ġreve al
Ġtra vel
Ġhand s
Ġsp ent
l in
Ġallow ed
Ġsec ret
ce mber
d own
Ġre pe
ĠC ourt
Ġpo ll
Ġst e
Ġinclud ed
ĠOct ober
Ġleg isl
Ġl ower
or ters
Ġkn ew
Ġne igh
im ent
e ed
f ace
Ġb i
at ory
Ġbeh av
Ġwant s
us es
Ġto wn
Ġse par
ĠBrit ish
ict ion
? âĢĿ
ight s
en ces
ĠCanad a
Ġper fect
es tern
Ġget s
Ġmove ment
Ġvis it
re ct
Ġtri ed
Ġ }
an ks
ess ion
Ġc ause
age ment
Ġfor ces
is hing
ĠSund ay
g est
âĢĿ .
Ġen s
4 0
g round
A fter
] [
for ce
ĠS ch
ce ed
Ġpartic ular
Ġatt ention
W ith
ra z
Ġve h
Ġf ear
ĠCalif ornia
Ġb ud
Ġre ach
b l
ĠU K
Ġlook s
Ġpop ulation
Ġvar ious
en ing
Ġb rought
Ġl ink
ĠK ore
ib ly
ur ning
Ġv o
Ġprev ious
ar ily
ĠI S
Ġ2 3
' d
) ;
Ġm ention
ĠRuss ian
Ġgrow th
Ġmor ning
Ġf air
Ġtr aining
ide red
Ġpro gress
und red
Ġfe ll
y ond
se qu
all ed
Ġs ong
ĠDe cember
Ġs ize
c le
ident s
ĠS w
Ġdem and
Ġcont act
Ġim age
led ge
ĠBl ack
Ġr ac
c ies
Ġrul es
Ġpre p
Wh ile
Ġh or
ec ause
Ġlead er
Ġl iber
Ġse arch
ak er
h old
2 00
Ġ ess
Ġh ot
ific ation
ĠH er
ĠSt reet
ĠP ost
Ġc itiz
Ġlat est
ĠQ u
Ġup on
Ġstru gg
Ġind epend
i am
f ield
u ments
Ġco ach
c ome
Ġfeat ures
ond on
Ġtalk ing
ĠJ ew
Ġf ast
in ks
ĠSen ate
Ġadd ition
S h
Ġst ar
ĠP ark
Ġex am
p s
ĠC ont
Ġw ond
ar th
m a
Ġcons idered
Ġspe ed
sy ch
ra q
ic les
s et
Ġre b
A L
ĠT imes
g es
ar ies
Ġlevel s
Ġinvestig ation
ĠP at
ĠCount y
i ant
Ġsl ow
llig ence
z e
Ġmed ical
Ġc ard
Ġlangu age
im ately
Ġa chie
ĠK ing
Ġm ach
atur day
b ed
ĠPart y
ĠCent er
Ġcrit ic
Ġs ort
Ġp aper
Ġp en
Ġparent s
Ġ200 8
Ġsystem s
ĠT ex
ĠInd ia
Ġu nd
Ġs n
ys is
Ġpri or
Ġsex ual
Ġwrit ten
w o
Ġdo ll
Ġsaf e
R e
Ġdoc ument
Ġbo x
im in
Ġcon duct
E D
ap h
Ġsp okes
Ġsee k
O S
p ir
e ared
v ent
Ġd raw
om p
op e
Ġincre asing
Ġhe ar
Ġeff ort
f l
ĠMus lim
Ġs ens
ig r
Ġse ven
ru ary
at form
Ġs on
Ġjob s
Ġcons erv
Ġlear n
u it
Ġext reme
ĠI ran
Ġprev ent
Ġser ious
Ġreg ul
un k
id ge
U S
Ġr ange
T r
d e
Ġviol ence
he t
Ġcomplete ly
in ing
et h
ĠI raq
as c
Ġ200 9
our ces
Ġ ...
r ast
il le
Ġmess age
Ġin n
---- ----
Ġsur ve
Ġinterest ing
Ġcon c
Ġob v
ĠM ark
Ġsc reen
A C
ro om
Ġopportun ity
reed om
Ġcl imate
Ġmajor ity
Ġpartic ularly
ĠCh ar
Ġclaim s
Ġdou b
u f
Ġdes pite
ab or
an ced
ĠL ondon
Ġj ournal
it ch
Ġansw er
ĠR om
Ġdef ense
Ġcar ry
9 9
Ġgu y
Ġsoc iety
ent ially
u k
S he
Ġattack s
e ff
vertise ment
Ġbig gest
Ġexact ly
is ions
ic o
Ġext ra
ĠDon ald
Ġrequ ired
ens ion
ĠE ast
am ing
I T
Ġ â
Ġare n
Ġp aid
ren ch
Ġexper ien
ĠK e
ines e
Ġqu arter
ĠM ore
Ġrem ain
Ġmod ern
Ġc ross
ly ing
uc lear
ill ed
Ġoffic ers
Ġpract ice
Ġh undred
Ġex cept
Ġn atural
Ġcertain ly
in ally
Ġm iddle
Ġst ories
Ġt able
ib r
ut ions
ĠS aturday
i ers
Ġd ro
Ġg as
Ġ2 8
Ġlook ed
Ġsur v
Ġproduct s
Ġ2 7
os es
ĠN et
Ġsomet imes
Ġus er
Ġst uff
Ġhist or
n ces
Ġfin ally
an i
m p
Ġbl ood
O P
Ġsc ience
Ġmov ie
Ġsum mer
Ġlead ing
Ġchang ed
Ġl ay
Ġon es
Ġdescrib ed
osp ital
Ġcommun ic
er c
Ġe ight
Ġdet ails
Ġter m
2 2
Ġim ag
Ġcon vers
Ġa w
ĠFeb ruary
Ġpr ison
Ġstart ing
t r
Ġocc ur
ous ly
av es
h a
Ġn amed
Ġqu ality
Ġshow ed
Ġg iving
Ġrem ains
Ġprov ided
Ġcost s
h ib
u x
ĠS pe
u ing
Ġp an
Ġreg ion
I C
ic ks
ĠMc C
ĠS and
Ġu lt
Ġdam age
Ġf it
Ġd anger
ĠS oc
Ġp ath
Ġch ief
Ġm ob
augh t
Ġpo or
Ġcontin ued
Ġmult iple
Ġ *
Ġeduc ation
ak ers
Ġgrow ing
Ġdem onst
o o
Ġcom ments
Ġpart s
en ge
Ġwrit ing
ĠT H
Ġ2 6
Ġm ent
pp er
Ġass ist
Ġmain tain
ĠT ur
Ġthink ing
ĠM or
ĠRepublic ans
Ġit em
ĠE ven
Ġpur p
ad d
Ġp urch
Ġimp lement
Ġrequ est
in ary
Ġd ied
Ġread y
Ġwould n
Ġwr ite
Ġf ix
ĠC oun
Ġcult ure
N o
ar r
Ġeff orts
Ġincre ased
ĠDemocrat ic
ĠD es
ĠC he
ab les
2 4
Ġread ing
Ġvot ers
mit ted
Ġsp ot
Ġus ually
Ġm ill
n y
co in
Ġeffect s
ag o
Ġcall s
f ort
Ġper haps
im inal
Ġf ile
Ġal one
ar i
Ġc amer
ĠS er
ĠLe ague
id a
ĠF irst
ĠG ener
Ġal though
ĠB ill
Ġgu ys
op er
Ġto wards
Ġcons ist
Ġse lect
Ġdirect ly
Ġstand ard
Ġbe yond
ĠCh inese
ĠMich ael
Ġsub st
Ġh ous
Ġ( @
ĠTex as
F L
Ġreal ity
Ġpl atform
Ġce le
us ing
Ġspe ech
it ute
Ġthrough out
Ġav oid
p re
Ġstud ent
Ġfoot ball
ic ated
te red
Ġk ids
ĠJ ames
Ġcould n
b an
al y
ĠM on
ar ian
Ġimmedi ately
Ġinclud es
row d
et t
il es
Ġun f
Ġro b
Ġcon cept
Ġcent er
Ġchall eng
Ġcomple x
Ġcho ice
Ġsc ene
Ġcl os
Ġadd itional
Ġw ife
Ġc at
A M
Ġrese arc
Ġrec omm
Ġep is
I m
ĠC ons
Ġt ro
f ord
he st
Ġsoft ware
y l
ĠMin ister
ĠâĢ ¦
Ġdesign ed
Ġcor por
Ġsaf ety
Ġrem ember
an ch
ĠInd ian
Ġg one
ĠJ ack
Ġs le
B I
Ġoffic er
Ġse ll
Ġto ward
ur t
Ġpie ce
Ġag ency
Ġ il
Ġbat tle
Ġt en
w ise
ac hes
8 0
Ġfig ure
Ġdeb ate
Ġthous ands
Ġop in
Ġbr ain
Ġcoun ter
Ġa head
ress ion
it or
ou l
ast ic
Ġrece ive
ic ient
Ġrel ative
Ġlet ter
ru pt
air s
amp ions
Ġbl og
Ġpress ure
ad em
Ġappear s
z z
ir th
il ies
im um
Ġo ption
N ow
Ġ ver
om en
Ġmov ed
st on
Ġ >
Ġla unch
ag on
A ll
port s
Ġpass ed
Ġproper ty
Ġcle an
ĠB o
Ġs il
ol ute
ĠPl ay
Ġst age
Ġ6 0
ate ver
ĠI I
Ġhelp ed
ur g
Ġpre c
Ġtw e
Ġdri ve
Ġ ut
Ġalleg ed
Ġt our
ĠApp le
Ġdis app
Ġro ck
ro y
ĠG reen
Ġmean ing
ĠAss oci
Ġmov ing
Ġd ate
augh ter
Ġcr is
ĠDemocrat s
Ġsus pect
ĠR ich
Ġsc ore
Ġcond itions
Ġtou ch
ar a
Ġdo g
Ġorgan ization
Ġd ark
ĠThe n
Ġcomm and
? "
o es
Ġbud get
j ust
it ation
2 3
Ġre asons
Ġp ark
Ġn uclear
Ġ ign
Ġs at
m en
Ġmy self
Ġhapp y
Ġdev ice
Ġbegin ning
Ġmay be
Ġde g
ri ef
Ġdiffere nce
Ġcharac ters
Ġn om
s p
Ġfail ed
Ġenc our
Ġcomput er
Ġn ature
Ġc ast
Ġcop y
Ġf an
Ġle ague
ch an
ĠS erv
Ġtit le
Ġa im
Ġcomp ared
Ġ x
m ore
Ġw all
Ġest im
ock ed
n ew
ĠS im
Ġsh own
Ġey es
ĠEng lish
Ġcol lege
er ve
Ġpower ful
Ġcent ury
ber g
ĠD ay
Ġlim ited
Ġcont ribut
Ġy es
ĠSu per
ĠSt ar
Ġpos itive
iv ity
am b
Ġref er
w ood
Ġb al
le ase
ĠV al
Ġfor ced
Ġnecess ary
y an
Ġcandid ate
Ġsc he
Ġb and
Ġbook s
ain t
Ġdis p
Ġlarg est
Ġst ra
ĠH ere
ĠR ober
Ġnot e
Ġconf erence
Ġtr ust
ĠF rench
Ġanal ysis
ent y
uf act
Ġar ch
ci ent
Ġpresident ial
Ġcitiz ens
Ġs al
Ġsp ending
Ġme ant
Ġth row
ven ue
Ġschool s
ig ration
Ġh ar
Ġexecut ive
Ġphys ical
O T
ĠSyri a
Ġa ware
Ġevent ually
Ġfollow ed
our ce
Ġfe ature
Ġf irm
ĠW ind
ĠM art
Ġc rowd
ĠO f
Ġtreat ment
Ġconf ir
Ġstre ng
.. ..
Ġm ix
Ġb ott
or ks
Ġrelig ious
Ġeas ily
or ney
Ġaut om
ĠA ir
ĠB en
ĠT or
Ġ2 9
Ġ19 6
Ġgr ad
Ġil leg
Ġco ol
Ġfam ilies
a ud
Ġp us
Ġg ives
Ġact ions
r ated
ĠM ex
ress ed
ĠD is
Ġes c
Ġallow s
Ġover all
) :
Ġfe ed
a res
Ġd raft
Ġyour self
b and
Ġapp eared
Ġsus p
c raft
Ġinc ome
Ġdet ail
bo ard
Ġsign ed
Ġsm art
ir ing
Ad vertisement
Ġanal y
Ġide as
c ul
b um
Ġcent ral
M y
ĠÂ £
en cies
Ġweap ons
Ġsen ior
Ġfre qu
et ro
ĠGo vern
Ġcred it
er o
Ġprom ot
Ġan g
ub e
Ġdec ades
Ġdis play
Ġn ice
ĠB el
Ġpolit ics
Ġp sych
Ġcr ime
Ġus es
Ġdis e
ĠIntern ational
2 7
A D
Ġs ales
Ġal tern
Ġun ique
k en
ut y
Ġd rop
A ccording
Ġdevelop ed
Ġrel ated
Ġdo or
Ġbenef its
Ġl if
Ġs we
D on
Ġcustom ers
Ġconf lic
I s
B e
ĠS chool
Ġnot ed
ur ance
ĠAustral ia
Ġcris is
B y
i able
Ġgo als
Ġpred ict
Ġm ist
Ġtr uth
A P
ĠE U
ĠJ er
Ġindividual s
ĠC ap
ĠAr ab
res h
Ġcontin ues
ĠUn ion
Ġch arge
ĠE arth
on ents
Ġbe aut
Ġchall enge
Ġl ic
Ġapp arent
Ġr ap
Ġst o
ĠSm ith
ĠAng el
Ġproject s
N ew
ite ly
Ġpe ace
Ġman ager
Ġmeas ure
Ġr ule
ĠPol ice
Ġcor rect
Ġinte lligence
ĠGerman y
n own
ĠChrist ian
Ġfull y
in y
Ġr ates
Ġprev iously
Ġadv ant
Ġbro ther
Ġcle arly
Ġsuccess ful
Ġl ines
p art
ri age
Ġtr aff
Ġre form
Ġexp and
Ġhigh ly
Ġlarg er
m ar
ot i
Ġseem ed
ch ange
in n
Ġsp read
b ox
Ġprogram s
ĠCoun cil
Ġres ources
Ġstra ight
Ġinc ident
ound s
ĠFr anc
S ome
Ġcr iminal
Ġem b
i ance
Ġmin or
ic ed
ĠGeor ge
Ġgreat er
Ġprim ary
Ġstud ies
3 5
ĠT om
Ġknow ledge
in ated
wh ile
r s
ĠFl or
Ġke pt
Ġsa ve
Ġatt ract
at tle
ĠCom p
ant ly
ow ers
or ter
4 5
Ġem ot
Ġsp ir
Ġre ached
ĠIntern et
Ġcol or
ate gy
Ġfe et
Ġr are
lev ision
sec ut
2 6
Ġwe b
ĠBro wn
ĠH igh
Ġreg ular
Ġpl aces
E C
Ġfavor ite
Ġar m
Ġman ufact
I D
d om
ĠR ec
Ġs end
w ide
e an
Ġla un
se y
ol ic
ĠB er
id ers
ĠD ef
ĠC r
od ay
Ġknow s
Ġactiv ity
Ġpre m
Ġshoot ing
Ġsour ces
2 1
Ġp un
Ġnorm al
Ġstat us
Ġfight ing
ĠH am
ic it
n et
Ġf ine
Ġvo ice
Ġca used
O M
ter m
ic ago
Ġclaim ed
Ġr ise
Ġown ers
Ġ200 7
Ġlit er
Ġen em
Ġopt ions
ot a
ĠGener al
Ġinte gr
Ġc ities
lic k
ĠG old
eng th
Ġsp end
on ent
ĠU p
ĠR ob
Ġorgan iz
b on
ĠA nt
I A
Ġresearc hers
Ġcall ing
a ith
Ġend ed
Ġsh ut
Ġref lect
m iss
oc ks
us ion
Ġpr ices
il ed
ĠEng land
âĢĿ ,
Ġfem ale
Ġwill ing
m ission
qu e
U n
E O
ĠF rom
ww w
ĠE very
Ġra ised
ĠM ac
Ġal bum
Ġha ven
ro ll
Ġemploy ees
Ġsupp osed
E T
Ġadd ing
mit tee
if ying
Ġj ump
Ġv irt
Ġhapp ens
Ġe le
Ġn ames
u ana
it ness
Ġcharg es
Ġpolic ies
1 00
Ġtr ou
v ille
Ġconcer ns
Ġtrad itional
Ġbas ic
ĠL a
Ġwa it
Ġpro s
iver se
Ġabs olute
rib ution
Ġac qu
ol es
Ġpl ant
ro id
Ġfund ing
Ġsl ight
Ġh ospital
Ġauthor ities
ĠA P
ĠB re
Ġpat ients
Ġcreat ing
ĠB ay
or g
os h
m ark
Ġmin ister
Ġcom mer
Ġf reedom
2 9
Ġme chan
Ġpr int
Ġsc en
2 8
um an
Ġsee ing
ve re
Ġbe at
Ġl ik
Ġst yle
Ġst ation
ing er
Ġgr and
ĠM ag
Ġp ush
Ġle aving
ĠSc ott
. âĢĻ
Ġbe g
ij uana
ro l
Ġb irth
ĠFlor ida
Ġagree ment
Ġens ure
Ġbehav ior
Ġim pl
N ot
Ġoff ered
Ġact ual
ad o
se e
Ġwe ight
Ġpost ed
Ġe th
ri an
so ft
Ġweek end
Ġm er
ac ing
Ġg reen
ĠM o
Ġgo ld
Ġval ues
Ġey e
Ġapplic ation
ĠM ost
Ġc ry
Ġmost ly
ĠHill ary
Ġdeter min
Ġ ir
Ġreveal ed
Ġob ser
on a
Ġprop os
ĠWe ll
Ġad op
al se
Ġr ank
. '
Ġv ac
ĠA lex
ĠA ccording
A r
ĠRe g
H ere
Ġrecord s
Ġad ult
Ġestab l
it ude
Ġen force
ĠS un
h ttp
Ġb rief
Ġbelie ved
Ġpict ure
Ġlear ned
Ġinst all
ĠL et
ab y
r am
ear ch
Ġapp l
Ġstr ategy
ĠL aw
ic a
ing ly
Ġcho ose
Ġqu al
Ġmass ive
Ġwond er
p en
Ġw ild
Ġd ire
Ġarrest ed
p ri
ĠPe ople
ign ed
Ġlaw y
Ġpart ies
ist ry
Ġdev ices
Ġbenef it
Ġc ars
Ġ ;
ĠCh icago
5 00
ĠPh il
Ġwh om
Ġwh atever
Ġprov ides
Ġm ount
Ġw at
Ġstre et
li ament
Ġass ault
ĠFr ance
ĠP ort
Ġoper ations
Ġl ose
Ġun s
ĠO h
Ġjud ge
Ġm ission
Ġfeel ing
Ġinflu ence
Ġask ing
Ġcrit ical
Ġprodu ced
t ies
Ġf at
IN G
Ġshow ing
Ġneg oti
Ġent er
ĠM at
Ġconfir med
Ġtem per
u ild
ĠB ush
ĠTr ans
y a
ĠL ou
ĠSec ret
Ġim ages
Ġdist rict
Ġrun s
Ġpat tern
ĠSt ud
Ġt end
Ġb order
Ġres idents
Ġdeb t
S c
p oint
k i
How ever
Ġse ction
or ial
ĠCom mittee
P ro
ri ption
Ġc ru
Ġet c
ĠHe alth
Ġprodu ce
ĠComm ission
Ġcele br
Ġte ac
m ine
Ġopp osition
S A
Ġdef end
Ġindepend ent
ĠP ress
c her
ĠWh y
ent ed
est ic
Ġc ore
ak ed
ĠW all
Ġdr ink
c ont
Ġhe ro
Ġt ick
Ġadv oc
u gg
7 0
Ġbr and
Ġdoll ars
Ġsol ution
Ġdig ital
O U
ĠIn te
g en
Ġeffect ive
ĠKore a
Ġhig hest
Ġinterest ed
Ġv ill
Ġopen ing
ic ial
Ġtri al
ri al
Ġwor se
r ont
Ġrespons ible
Ġk ick
Ġthe ory
ce ll
Ġoff ers
ĠB it
ĠM od
Ġlear ning
Ġrepl ace
icro soft
Ġmem ory
Ġrest rict
Ġd aily
Ġag reed
Ġte levision
ĠPal est
oc r
ĠOff ice
ĠFranc is
ĠB ecause
Ġtr ain
ĠO ther
3 3
ag s
Ġocc as
Ġinvest ment
Ġdet ect
Ġtyp es
ud d
Ġm ur
ur ies
ra v
Ġmill ions
Ġmil es
st e
ĠS am
ord s
et ty
ĠC up
ill ing
Ġch air
Ġv s
ĠM ike
Ġche m
ĠJust ice
ĠW estern
Ġprop osed
ic ians
Ġbas is
i ation
Ġgener ally
The se
Ġexpl ained
ĠM al
Ġhe avy
ci ence
ĠO ur
Ġopin ion
Ġ8 0
Ġpart ners
Ġon to
Ġb ur
Ġprot est
Ġm ap
Ġdef e
Ġbecom es
Ġd er
Ġassoci ated
ĠN FL
ĠM il
ĠD el
Ġl oad
az ing
ĠSec urity
Ġob tain
Ġm ale
E L
Ġadvant age
ĠAd d
Ġdest roy
Ġre ject
Ġannoun ce
ĠF ound
Ġass um
Ġhundred s
Ġco al
Ġcond ition
Ġachie ve
n o
out hern
ad ing
ĠWind ows
i pe
Ġopen ed
as te
B A
r ate
Ġunderstand ing
ĠJohn son
Ġsur round
ak s
ĠL iber
com ing
Ġinit ial
ort hern
Ġmar riage
ic ip
L e
el ine
Ġth us
Ġeas ier
Ġman agement
Ġb orn
Ġlegisl ation
and er
Ġlim it
Ġelect ric
Ġsle ep
Ġbecom ing
E x
Ġspec ies
Ġacc used
Ġun like
Ġsh ip
Ġcontro vers
ĠM any
od es
w in
v est
ĠG reat
F C
ĠB ig
Ġ ice
Ġdou ble
Ġphot o
Ġsh ared
k nown
Ġneigh bor
Ġs pl
Ġr at
Ġ3 1
Ġjo in
r ig
Ġ200 6
Ġilleg al
Ġdoc uments
C l
o om
Ġser ved
Ġextreme ly
Ġcamer a
ĠIslam ic
Ġfr ame
we ll
Ġaud ience
Ġmach ine
Ġloc ation
Ġact ive
re y
Ġscient ists
Ġstri k
Ġvictim s
Ġser ve
Ġbott om
ĠA M
wit ch
ber t
Ġn ine
Ġprofess ional
ĠL ab
ĠT er
Ġcommun ities
Ġwin ning
ĠD ist
Ġredu ce
Ġneg ative
a e
Ġres ist
le vel
Ġ3 5
Ġreturn ed
Ġmar ijuana
Ġwe alth
o ly
or row
Ġsol id
u pp
ortun ately
M r
I L
Ġch urch
ĠInst itute
Ġveh icle
Ġinc red
if ul
Ġbelie f
âĢ ¢
Ġpurp ose
Ġvict ory
r ad
gh an
Ġr an
Ġdep artment
Ġb ed
l ant
Ġleaders hip
ĠP M
Ġ9 0
Ġintern et
i pped
9 0
Ġmob ile
ĠH all
ir gin
3 2
ĠComm un
ĠU k
Ġb omb
Ġam b
Ġinst ance
Ġexist ing
Ġd ie
Ġnot ice
B S
Ġsepar ate
Ġdoub t
ist ics
Ġhe aring
ear s
Ġepis ode
ĠCanad ian
Ġexpl ain
Ġnot es
land s
ĠY our
G B
Ġf aith
Ġte ach
Ġwatch ing
at ically
ĠIn c
Ġarg ument
ĠB ank
ĠSand ers
Ġcom fort
Ġconserv ative
Ġf resh
Ġview s
Ġp urs
Ġput ting
ĠF in
Ġsupp orters
ol f
ac ity
ĠF ox
Ġitem s
Ġun c
sc rib
Ġapp eal
P A
Ġlaun ched
ili ar
Ġrad io
ĠA tt
Ġcommit tee
Ġdefin itely
Ġdanger ous
Ġdire ction
C on
ĠE v
ĠS l
Ġiss ued
C C
Ġco verage
om as
wh ich
Ġcharg ed
h ouse
Ġfl oor
res p
ĠAr t
Ġdrug s
w orks
Ġs un
as y
Ġback ground
Ġcompet ition
ar io
Ġst ated
Ġtraff ic
Ġtre nd
Ġm ax
ĠF BI
ar an
v ention
ĠD irect
Ġc ards
P S
ĠCh urch
ĠM ad
Ġt ask
ĠCar ol
Ġtrans fer
Ġsp oke
ampions hip
m et
Ġsuggest ed
Ġcommer cial
Ġm icro
Ġsit es
ĠS ince
Ġh us
ĠO ver
Ġset t
Ġh arm
Ġre act
Ġdec ade
in ct
Ġanim als
Ġrepe ated
ct ors
Ġst ructure
Ġn orth
Ġrest aur
ĠL ike
go ing
ill er
Ġlab or
ograph y
Ġdri ver
and om
Ġno vel
Ġd aughter
i os
Ġcl osed
ĠG ame
Ġcont ain
Im age
Ġwor st
Ġentire ly
ak istan
Ġdri ving
z a
Ġd ed
ant ed
rib ute
Ġdise ase
ur b
ĠBrit ain
g ency
Ġtell ing
ĠL os
Ġsmall er
Ġdisc overed
Ġc ash
ad y
Ġconcer ned
Ġn or
z en
Ġf alse
Ġpl ays
S T
il ing
Ġh ack
Ġsupport ed
ĠQ ue
Ġtool s
f erence
Ġsur face
Ġ Ð
Ġfind ing
Ġcomp ar
ĠW il
Ġtrans port
b ut
Ġc ateg
Ġexper iment
ĠCh ris
ĠP ri
ĠJ ones
Ġas pect
Ġbusiness es
oy al
A meric
se mb
ann el
Ġ Ã
ul ated
om an
Ġple ase
Ġold er
! âĢĿ
Ġrequ ires
i pp
Ġfar m
e qu
Ġactiv ities
Ġstreng th
s erv
and on
Ġex erc
____ ____
N A
Ġ7 0
az on
s pe
ul f
Ġlarge ly
Ġc aught
Ġins urance
Ġcon sequ
Ġg ay
Ġwe l
ph one
Ġg e
Ġmur der
Ġallow ing
ibr ary
n ight
Ġcandid ates
Ġann ual
l a
ĠRober t
ĠA re
Ġra ise
ĠIsrael i
Ġtest ing
Ġacc ur
o very
Ġstr ateg
oss ible
h ow
Ġbl ue
4 4
Ġcon text
Ġf uel
Ġdec isions
Ġconcer n
Ġst ock
ic y
Ġbelie ves
k ins
Ġtr uly
Ġaff ord
ĠK en
Ġconst ruction
Ġun it
ĠU N
os ure
Ġhigh light
Ġgener ation
Ġjust ice
igr ants
ĠUk rain
ĠS up
ĠJew ish
3 6
ĠA c
he m
ic i
ĠAf ghan
Ġl ength
Ġpres ence
Ġgu ess
Ġt im
Ġw itness
iz es
ad a
Ġhold ing
ĠM er
ĠAfric a
== ==
ĠM iss
Ġplan ning
Ġref uge
i h
ang ing
g u
d o
g a
ĠG ree
it able
ck now
ĠAssoci ation
Ġestab lish
Ġpl aced
Ġsc ale
Ġc atch
ĠAfric an
Ġse qu
Ġspokes man
r ick
ter y
an cy
Ġjo ined
Ġr ough
Ġtell s
ĠM icrosoft
Ġatt end
ĠS il
ĠT re
a it
Ġcell s
Ġinterest s
E M
Ġhas n
Ġab use
pect ive
Ġenforce ment
Ġs an
Ġmention ed
ĠT y
âĢ ĺ
Ġintrodu ced
ĠG OP
Ġr out
Ġdeli ver
Ġinit i
N N
n el
cept ion
ĠJ im
Ġconflic t
Ġk id
Ġprov iding
Ġmiss ing
Ġwa iting
Ġcan cer
Ġupd ate
ĠP C
Ġrecomm end
M ore
ĠAngel es
Ġoff ensive
oll y
l or
i us
7 5
3 8
Ġ200 5
Ġrem oved
Ġe at
Ġocc up
Ġph il
ĠFr ank
Ġestabl ished
Ġinj ury
ĠF ore
ĠInst ead
ĠJ eff
Ġdiscuss ion
Ġsp orts
Ġuse ful
Ġdown load
Ġconvers ation
Ġhom es
ru it
Ġtrans l
Ġc ook
Ġf ant
ocr acy
ĠC EO
Ġs outh
Ġoper ation
Ġass ess
Ġobv ious
r im
Ġnews p
Ġmod els
b our
Ġfil es
ĠY es
Ġsto pped
Ġfour th
ĠG roup
Ġban ks
ĠP re
ron ic
ic ations
Ġmeas ures
form ation
in ter
av a
se ason
b re
ont o
Ġst ick
B l
Ġha ir
ĠCon st
ĠLou is
Ġman aged
ĠV er
ĠP akistan
S P
O ur
ic on
Ġfig ures
wh at
O L
Ġb ul
v ant
3 4
Ġfin ished
ot ed
Ġgirl s
ĠPalest in
Ġident ified
Ġ201 8
Ġgr aph
ĠMex ico
Ġconc lud
Ġset ting
Ġfund s
Ġhous ing
app ed
Ġappro pri
az ine
Ġve ter
is ation
Ġsk ills
Ġthere fore
Ġarri ved
Ġpart ner
Ġfoc used
Ġcommit ted
Ġpre fer
ĠJ ud
Ġa cknow
um n
Ġspir it
Ġkeep ing
ig an
c ks
ĠTH E
ĠT im
Ġex clus
ĠV irgin
ĠLe g
om s
m ail
Ġt ough
ul ate
ul a
ĠJapan ese
ens es
Ġear th
l ig
ĠAnd roid
D A
Ġident ity
Ġfeel s
ĠR ock
Ġ200 0
Ġother wise
Ġrelative ly
ĠSup reme
and a
ĠR yan
g ers
Ġprote ction
Ġex change
up s
pl ace
Ġhus band
Ġown er
Ġstep s
Ġsurve y
out s
Ġtwe et
re al
ĠS al
Ġwe ak
Ġtri p
itution al
w ing
ow l
Ġslight ly
Ġconnect ion
ĠM P
Ġcl ick
ĠAr my
ĠPro f
Ġdef ensive
ic ation
Ġele ments
ĠGovern ment
ere nces
e ah
ro s
ĠIn ter
Ġcirc um
ĠRich ard
is f
Ġstri ke
Ġme re
Ġphot os
5 5
ver se
Ġdep end
Tr ump
Ġf le
ĠM et
dd en
Ġg ain
Ġcor ner
" :
Ġcol lection
Ġkill ing
Ġro ll
ĠCol lege
it z
Ġgu ard
Ġag gress
anc ing
od ies
Ġsuggest s
D es
e y
oc al
ĠK h
ĠAl though
Ġcomm ission
igh ter
ag n
ĠMart in
im b
uck y
u ct
Ġment al
3 7
Ġam azing
hen s
ony m
Ġsupp ly
Ġd at
Ġplan et
Ġstart s
Ph oto
pro f
Ġbig ger
k in
Ġfail ure
m akers
Ġg ender
g ar
r ange
Ġfam iliar
Ġrem ind
ĠTe am
ĠJ ose
4 8
Ġs ides
ic ide
! !
hed ul
Ġsu st
Ġwind ow
ĠS ur
Ġspe aking
Ġspe ct
Ġtal ks
C H
Ġp it
Ġh ate
Ġhappen ing
Ġorganiz ations
ĠJ oe
u ate
ĠI r
Wh y
ren cy
re es
ĠD ec
Ġtax es
ĠG ood
Ġst ruct
Ġplan ned
Ġn one
ĠN or
Ġthan ks
Ġw ish
ĠO ut
Ġdec ide
Ġar my
gy pt
Ġcre w
it er
Ġsu dden
ost on
ag ues
Ġcar ried
Ġa ward
Ġreg ist
# #
Ġhelp ing
r d
an ia
ĠM ary
am m
id ering
Ġstand ards
Ġenvironment al
Ġ3 2
w ith
ĠS ub
Ġqu e
ĠTh omas
Ġmult i
L ast
ĠRes earch
Ġsecond s
Ġsc ript
Ġimm igration
Ġstand ing
G o
Ġrev olution
ĠF ire
ĠM ont
ĠWe b
yn am
Ġscient ific
oc ol
ĠThe ir
is er
Ġdom estic
Ġp air
u ke
it t
Ġac adem
ĠAl so
il s
Ġvar iety
ut ers
ad ium
Ġdro pped
Ġmark ets
ĠB ern
ĠSecret ary
Ġter rit
Ġfil ed
] .
Ġaccount s
Ġco ld
P l
Ġ4 5
im al
Ġbe er
R A
st ream
a wn
ars h
Ġt ack
Ġbal ance
Ġimp ossible
Ġinter act
Ġneighbor hood
Ġr ou
Ġdeg ree
m as
! "
er ous
4 7
Ġvot es
Ġoper ating
Ġturn s
Ġaltern ative
Ġapp re
ĠU s
Ġposs ibly
p m
ĠAt lant
Ġv ul
Ġdevelop ers
it ect
el ess
Ġfell ow
3 9
Ġcut s
Ġpr inc
Ġ= >
Ġapp ly
Ġser ver
r un
Ġprofess or
Ġwor ry
Ġincreasing ly
Ġapparent ly
Ġun its
H L
a ven
Ġun ion
rast ructure
Ġhon est
Ġhum ans
Ġl ived
ĠServ ice
g n
Ġchang ing
ĠPr ime
Ġtest s
c ious
ĠSyri an
Ġun ivers
Ġr ich
Ġs ch
ar ks
ĠT wo
ict ed
Ġtw ice
Ġag encies
ĠIm ages
Ġauthor ity
ĠCarol ina
Ġhealth y
Ġl osing
T C
Ġult imately
Ġanim al
Ġsound s
are n
ol it
Ġset tle
ĠFound ation
Ġsc hedul
Ġat h
Ġsold iers
ack s
Ġcorpor ate
Ġabsolute ly
ad ed
Ġpay ing
as hed
Ġclos er
Ġequ ip
Ġcol le
4 9
Ġphil os
ĠCent ral
i ams
Ġinn ov
Ġdevelop ing
y m
ill a
R ead
ore s
h i
Ġsk in
rel ated
ob by
Ġse a
Ġseek ing
Ġexp ensive
ĠD en
Ġsol ar
Ġposs ibility
Ġexper ts
Ġy ards
Ġwrit er
ĠT ime
Ġfund ament
Ġregard ing
ad er
rou d
Ġfl ight
Ġm ut
Ġbeaut iful
ĠM os
ĠPl an
Ġv ast
ĠDist rict
Ġap art
ol a
Ġintern al
c oh
Ġrelig ion
ste in
Ġde ploy
v is
ans ion
ĠP eter
Ġimag ine
Ġad just
l o
ay er
ĠFrancis co
ĠP et
Ġapplic ations
ab b
F rom
Ġv ision
ĠUS A
ĠL ast
ĠJ on
** **
f e
Ġcap acity
ĠTor onto
ap ers
ĠL at
olog ies
Ġun less
ĠU nder
Ġtr ail
Ġrespons ibility
ĠJ es
Ġer ror
Ġ200 4
l ook
E ven
Ġsit ting
Ġsy mb
Ġhe at
ĠM iddle
Ġg ar
Ġar ms
os en
Ġc overed
Ġfor ms
st ate
ist ed
at ures
Ġf ol
Ġt ight
ĠD an
p ire
Ġapp oint
Ġun iversity
ĠC amp
ort ion
idd en
Ġpresent ed
Ġfam ous
Ġear n
Ġsurpr ise
Ġp il
i ot
ov ing
Ġatt orney
Ġconv ention
en ced
ĠE gypt
Ġte en
Ġelect ions
ĠB ur
Ġf if
Ġestim ated
ĠP ublic
ĠB oston
ĠA ri
Ġint ended
ĠP ut
3 1
Ġveh icles
.âĢĿ <|
an o
Ġhelp s
ĠAm azon
ain e
rib le
Ġinst it
Ġoccur red
Ġsp ort
Ġstre ets
Ġdeter mine
Ġo dd
d en
Ġr id
ress ive
Ġexper t
Ġbro ken
J ust
Ġsh all
Ġdom in
ĠBit coin
Ġhy p
Ġcons ult
t op
Ġgu aran
Ġf ired
Ġfl ow
Ġt on
por ary
Ġtro ops
u zz
ĠTh ose
= "
ur ation
ro ad
L et
ust er
Ġpie ces
o ch
Ġprep ared
ĠS ol
ter day
O f
Ġn ar
Ġrap id
ĠCh ief
4 6
Ġb aby
all s
Ġcon clus
Ġbring ing
Ġloc ated
ĠC ath
p erson
Ġr andom
u nder
le ts
ĠM ur
ĠS T
Ġspecific ally
Ġpot entially
anc he
ĠM ass
ĠJ o
Ġpro ve
ĠO nce
Ġse ctor
Ġp et
ĠAn y
ed er
Ġequ al
i as
ĠSoc ial
Ġj ail
I V
Ġbo ost
Ġhe av
h and
C A
ĠG al
or age
in te
Ġst ress
âĢĶ âĢĶ
Ġst ars
Ġgovern ments
ĠA N
Ġpropos al
Ġse lling
Ġpl enty
Ġequip ment
Ġsc r
w ar
Ġcar bon
Ġinf rastructure
Ġfact ors
Ġcl in
Ġf aster
Ġvot ed
Ġer a
ĠS pr
end ment
Ġvul ner
ĠJ ournal
Ġcl ot
Ġoff ering
Ġcomb at
Ġcoun cil
Ġpro secut
k a
ve y
ĠV e
ĠVirgin ia
Ġrul ing
ĠPar is
ot y
Ġbro ke
ph as
I M
cl ass
Ġsec ure
Ġexpress ed
ĠR ub
Ġb reat
in ent
ĠF ederal
Ġdr am
Ġse asons
Ġchalleng es
Ġelect ed
ure au
Ġpoint ed
Ġconduct ed
ĠR iver
ce an
use um
Ġret ail
ĠGu ard
n oon
Ġref used
Ġmethod s
Ġrem ove
ĠIs land
E very
Ġweap on
Ġm aster
Ġpr ime
( )
Ġpos itions
ĠAustral ian
ri e
Ġb row
Ġ3 6
, '
Ġtr ig
Ġrem ained
ĠMed ic
ĠP lease
Ġinf ect
Ġcult ural
ĠO pen
Ġappear ance
Ġst ret
Ġs ale
Ġorig inally
Ġwere n
ĠD uring
Ġsignificant ly
Ġd in
i pping
our s
ol ved
ĠLe e
Ġfin ish
Ġfac ing
Ġaffect ed
Ġt ourn
is her
ock ing
Ġyou th
Ġpercent age
Ġgreat est
F irst
Ġb ought
Ġdetermin ed
Ã ¡
Ġsign s
Ġc as
Ġinvol ve
D o
I P
ĠC ru
Ġchem ical
Ġthan k
Ġ5 00
ash ion
t ion
U p
ĠS ant
Ġsh ape
ĠWh o
Ġreg ime
Ġrem aining
ĠF e
th at
Ġv ir
ĠM el
Ġg rew
ĠI N
Ġind eed
ĠPh oto
ĠSte ve
ĠS aud
Ġmin imum
stand ing
S ince
et ic
ro g
Ġte le
Ġher self
p ired
Ġd ream
on om
ĠB oth
Ġvot ing
Ġm arg
ĠC ur
Ġobv iously
ly mp
Ġ199 0
ĠS ing
ĠFor ce
Ġmod e
I ON
ri er
Ġwe aring
g l
Ġt act
ce l
Ġrecord ed
re ens
Ġre venue
A b
ĠCol or
Ġlead s
D P
Ġredu ced
al ing
Ġh un
Ġarg ued
ĠWill iams
Ġcont rast
Ġw ood
Ġpolit icians
Ġpro ced
Ġpurch ase
Ġs witch
ord in
Ġappre ci
Ġcon cent
Ġvide os
igh ters
ly n
Ġexperien ced
Ġag ent
h t
Ġth r
Ġpl us
Ġexc ited
ĠR em
Ġh urt
N e
Ġident ify
in i
ĠN ov
Ġsupport ing
Ġhand le
Ġmin ute
Ġsurpr ising
C L
Ġhttp s
g ment
coh ol
Ġre nt
Ġair craft
Ġexpl os
Ġbel ong
ĠP ac
Ġafter noon
Ġcons idering
0 1
Ġbas ically
Ġdiffere nces
Ġpull ed
Ġa id
Ġconsum ers
ow nt
Ġend s
Ġfil ms
Ġt urning
ed s
ĠF ree
Ġb ound
Ġgl ass
Ġsh ift
Ġpros pect
O W
Ġacc ident
ess ions
ĠH aw
Ġdep art
ĠR o
Ġsp ring
Ġse at
Ġcomb ined
ĠCons erv
, [
s en
Ġtre ated
ĠChar l
Ġmot iv
ĠB ook
Ġlist en
og ue
ll er
ru ption
Ġ19 5
Ġopportun ities
S te
Ġser iously
Ġpriv acy
Ġeven ing
Ġlot s
Ġpan el
Ġpass ing
T H
Ġm ort
Ġcomple ted
he red
Ġconst ruct
Ġapp s
Ġstrugg le
pt ed
Ġhop es
ĠD aily
Ġvis ual
Ġtalk ed
Ġenem y
H is
Ġcal cul
Ġwide ly
ĠP ower
od d
ĠSte p
EN T
os ite
Ġemer gency
y r
An other
app ing
c ol
Ġb urn
ens ions
Ġpl ants
l ife
Ġdisc l
ĠB BC
Ġi Ph
Ġsu it
Ġe lement
Ġp owers
ĠR ad
Ġsub s
Ġliber al
Ġ200 3
ĠO lymp
ar p
Ġadv ance
Ġfl at
k et
Ġ id
ed ia
Ġopp osed
Ġpro ceed
or al
Ġcopy right
ĠSh ow
ive red
Ġdis miss
h ab
ĠR el
ra ud
Ġfact or
Ġa st
u ous
W ell
ĠJack son
Ġz one
al ed
ang ed
Ġt un
Ġdist ance
Ġattempt s
Ġdef ault
Ġenc oun
Ġup gr
I G
Ġtrou ble
ab ilities
ĠPro ject
om pl
ribut ed
uc ks
Ġcoll abor
ĠSp ace
Ġrep orters
Ġwrit es
ok ing
ain ts
ra wn
ĠR oad
Ġfr ust
Ġinst ruct
ĠH ol
pl om
Ġp ages
Ġre action
Ġh ol
ĠT oday
resp ond
0 5
ap ter
Ġtyp ically
ĠM em
Ġst orm
Ġb odies
ut s
m osp
as p
Ġmat ters
ob e
Ġref erence
Ġden ied
Ġpack age
er ved
m ond
Ġdisapp oint
Ġexpl o
p et
id el
Ġqu ant
l ines
Ġqu iet
Ġrespond ed
st s
ĠG et
Ġad vert
ĠDirect or
Ġappro ved
Ġent ertain
Ġre new
Ġopt im
ĠN AS
tern al
ne ll
P e
Ġinstit utions
Ġdis s
un ction
Ġel imin
Ġ200 1
ap ed
Ġbroad cast
Ġstand s
Ġsat isf
P D
Ġval id
Ġs ac
Ġset s
ĠOh io
es ters
Ġp itch
ĠTur key
Ġcapt ion
Ġspl it
Ġse vere
Ġcap able
Ġtechn ical
est ival
ĠWill iam
Ġl oved
Ġg iant
ĠP enn
Ġ //
ĠAfghan istan
ĠM att
Ġreported ly
ad ow
Ġconf ident
Ġconf idence
Ġtrad ition
Ġcl oud
raz y
I nd
et te
Ġfac es
Ġtrans ition
is ters
c are
ed d
Ġnum erous
y th
Ġwe ather
Ġpers pective
Ġm al
Ġb ull
4 2
ĠLab our
ell y
Ġf ly
Ġse m
Ġun able
m m
ani el
ĠSy stem
raz il
Ġcan n
er ry
] ,
Ġwas te
> >
." <|
Ġcre ation
ĠY et
ab in
Ġrou te
Ġsubst ant
Ġfor get
Ġpict ures
un te
ĠAnd rew
L E
ĠMed ia
f ree
Ġmess ages
ang ers
Ġviol ent
Ġsuff ered
amp ion
Ġappro x
em ploy
as tern
Ġcr imes
Ġc raft
Ġco ast
Ġexperien ces
Ġadv ice
Ġco oper
Ġp roud
Ġfl ag
ĠH uman
S p
w ater
ĠS qu
Ġdecl ared
h ost
Ġev al
Ġex cell
ĠL in
Ġm and
Ġreport ing
Ġord ered
Ġdecl ined
Ġcircum st
is hes
Ġfind ings
p ass
w rit
Ġexpl ains
T V
ĠF ollow
Ġshould n
ul ations
Ġmov ies
Ġco ff
Ġnewsp aper
Ġon going
Ġpick ed
Ġconnect ed
A m
us iness
du le
Ġdel ay
ab led
res ents
il ty
Ġad mitted
ĠSc ot
ound ed
Ġdel ivered
ev in
Ġmar ried
Ġv an
Ġwalk ing
ac he
Ġgun s
at o
D uring
9 5
Ġarch itect
6 4
r ant
ov es
P R
Ġedit or
Ġag ents
ĠW al
Ġa uth
Ġappropri ate
ok en
ion ally
Ġupd ates
z er
Ġg ra
c alled
ĠM L
Ġthough ts
Ġpr in
ĠL ake
ans as
Ġed ge
il it
Ġquarter back
Ġem ails
u ations
Ġem phas
ĠMuslim s
Ġle aves
Ġs ession
x ual
Ġinj ured
Ġacc ompl
Ġfor g
R ep
-------- --------
Ġg ather
Ġpublic ly
6 5
Ġour selves
ĠS cience
Ġstate ments
ĠS ov
Ġper man
r id
ĠGr and
S S
ĠTe chn
Ġconf irm
it a
U T
Ġreal ize
o oth
Ġleg it
ĠW ood
Ġdri vers
m ates
Ġro t
Ġar med
A pp
ĠT ra
O ver
Ġ \
Ġ198 0
re land
ess or
ĠMich igan
, âĢĻ
Ġarg ue
Ġalleg ations
Ġr ail
Ġlawy er
O ther
ĠM a
Ġcont ains
Ġd ial
our ney
ner gy
Ġread ers
Ġf illed
Ġbuild ings
Ġpo ol
Ġwe ar
Ġterror ist
Ġexerc ise
Ġactiv ists
Ġlab el
Ġd ynam
Ġtrans form
ĠRe ad
Ġtal ent
Ġs ad
Ġpract ices
Ġeffect ively
T ube
Ġcr ack
c os
ĠD ou
ĠB ack
ĠChrist mas
Ġsub sequ
ĠSe attle
Ġobject s
Ġexam ples
ĠJ ul
Ġt ree
M any
ell ow
Ġmiss ed
ĠA T
ĠSe e
ĠRe v
ĠS um
Ġf ish
Ġcritic ism
ĠR on
Ġca uses
Ġpat ient
Ġsh op
ent ure
Ġsecret ary
Ġfl o
ĠA v
Ġinj uries
Ġdeb ut
Ġr ain
Ġess entially
Ġte ch
Ġmot or
ĠI ll
Ġcent re
ord ers
c ons
end a
4 1
ar ters
F ollow
ĠW ork
ĠV ict
ĠR od
4 3
as ure
Ġmor al
Ġth inks
Ġs am
c an
ĠUkrain e
ĠSt an
Ġart ist
Ġcl ient
ic ing
Ġb ond
ĠI D
Ġfact s
Ġmaterial s
ĠSaud i
ĠS her
l ong
Ġp ure
ou ston
Ġdes ire
Ġfr anch
O h
Al though
Ġlink ed
g ia
Ġs ke
Ġperform ed
ag ers
ĠiPh one
C ont
Ġnecess arily
ac ter
Ġsu c
ĠG en
Ġinit ially
Ġvar i
or ry
Ġgovern or
d ate
Ġdec re
Ġphilos oph
ĠG M
Ġschedul ed
Ġwar ned
ul s
ill y
Ġexpl an
Ġevery body
Ġhe ll
Ġincre ases
Ġab andon
Ġadv anced
ĠPh ot
Ġn ations
Ġmy ster
Ġj oint
ĠS ign
Ġexp ansion
Ġinc or
ĠT O
ill ance
Ġaccept ed
Ġfollow s
Ġfac ed
Ġdi plom
es ome
Ġplay off
Ġdat ab
Ġnear by
or se
Ġannounce ment
Ġath let
Ġne ither
d ef
ĠCol umb
ĠM ount
Ġmag azine
w ord
D e
en ger
Ġb are
Ġres olution
Ġdist ribution
Ġyes terday
Y es
Ġappl ied
Ġconsequ ences
Ġsurpr ised
ĠSec ond
ĠF ar
Ġ ing
Ġrad ical
ĠL ife
Ġlist ed
M ost
ĠC NN
Ġoff ense
ĠF er
Ġbeg ins
Ġdo ctor
Ġrep resents
ir ty
Ġsp ons
ĠJew s
Ġthreat s
Ġmov es
Ġat mosp
I I
Ġfor t
Ġm ir
Ġadd s
ad or
ĠH y
ar l
Americ an
Ġen h
ĠB razil
ĠWe ek
am in
Ġfl ood
Ĥ ¬
Ð ¾
Ġrem ark
ĠB at
Ġbehav i
ot ic
b ur
semb ly
it ors
Ġsong s
g ent
ĠDe velop
Ġr ide
Ġent ry
ĠB et
Ġwar m
Ġwith d
Ġbr ings
ath an
Ġimpro ved
Ġsub scrib
az a
Ġout put
Ġal cohol
Ġconf ig
Ġp hen
r um
Ġro w
Ġgu ilty
ed y
ĠA ff
Ġst ood
ĠRom ney
Ġsh ots
Ġpus hed
i at
ĠN BA
R es
w hel
ĠI reland
Ġb ot
Ġboy s
Ġdem ocracy
Ġf ill
ĠBl ue
Ġa f
Ġrece iving
Ġmanufact ure
ĠBo ard
M A
Ġ3 8
Ġs ought
Ġdiscuss ed
Ġp ra
Ġtot ally
Ġlaws uit
Ġsc ored
ĠH en
ĠOn ly
om in
Ġcor respond
ĠBar ack
Ġr ising
i est
Ġent ered
ĠSw ed
ĠK im
t witter
Ġrestaur ant
The n
Ġal t
Ġ3 3
Ġst orage
Ġhistor ical
ĠIS IS
r ich
Ġconsist ent
Ġcomb ination
ac le
T A
Ġinvest ors
Ġsymb ol
Ġ3 00
Ġdeath s
ocrat ic
Ġfun ctions
Ġre in
Ġnet works
S pe
Ġplan e
Ġsuc ceed
Ġbr ight
ĠR E
Ġstr ing
Ġunlike ly
st ood
ĠG ar
Ġcreat ive
Ġn ative
Ġis land
Ġart icles
Ġt rib
Ġhead s
Ġbut ton
Ġsqu are
Ġ200 2
al ty
Ġb oss
ird s
Ġl ie
Ġclass es
ĠV ol
Ġ3 7
Ġheav ily
ĠMay be
ĠAn other
ĠAs ia
Ġcont est
Ġres ident
l aw
ĠDe v
iss ions
Ġrough ly
Ġfair ly
Ġin put
f ortunately
ĠP rem
Ġconsum er
Ġsa v
C an
k ay
Ġexist ence
Ġtarg ets
Ġpl ot
ĠM s
Ġtemper ature
Ġch ain
Ġyoung er
Ġpar liament
ĠC ub
ic ian
ĠIt s
us al
Ġk it
Ġcolle agues
ĠW alk
ard en
ide o
pt y
Ġr ally
ĠKore an
Ġres c
ĠL ib
Ġl ibrary
Ġprot ests
Ġany where
ĠB ob
ĠW he
z ona
Ġdef ined
ic ious
Ġwar ning
Ġbl ow
Ġbre aking
Ġl ock
Ġbu ying
ĠS ports
Ġmarket ing
Ġpro hib
Ġill ust
Ġstore s
Ġgr ab
Ġexpress ion
ri p
Ġb ike
ĠE ach
Ġsy m
ok ed
Ġman age
Ġimport ance
Ġclass ic
Ġc ere
Ġadult s
Ġf raud
Ġregul ations
Ġl inks
ĠCl ub
Ġch art
Ġsh if
Ġfac ility
m es
S ee
Ġto w
ic an
Ġs now
Ġsch ol
Ġhard ware
ĠSt r
g reg
Ġcur rency
Ġalleged ly
Ġ4 8
ER S
Ġrepl aced
p ret
Ġdo ctors
ĠColor ado
Ġsome what
Ġprom ise
ĠH ist
Ġess ential
ĠR ights
Ġl augh
T e
Ġhouse hold
Ġopp onent
olly wood
on na
ĠD iv
Ġhold s
Ġopp osite
Ġmom ents
ĠS ky
Ġvers ions
Ġb on
iqu es
etro it
and al
Ġh at
du c
b orn
Ġfav our
Ġbu g
ĠEx p
' ,
ĠIm age
Ġv ice
Ġcamp us
omet imes
ĠB oy
an ish
Ġrele vant
ĠYou Tube
Ġev olution
Ġindust rial
Ġb ag
Ġact s
0 8
Ġmot ion
Ġmet al
Ġz ero
Ġs ick
O D
Ġclose ly
ter ing
ĠD C
Ġse es
Ġref ere
ĠVal ley
ĠBro ok
Ġfew er
Ġdiv ision
Ġr um
Ġn av
Ġhard er
p ower
Ġhop ing
d is
T S
ĠY ear
Ġd ownt
ĠH ouston
Ġemot ional
Ġad m
A dd
Ġreturn s
P U
Ġparticip ants
het ic
w est
Ġcustom er
ag an
Ġh ur
Ġvol unte
Ġto m
u y
ate ll
Ġacknow led
Don ald
Ġint ention
hip s
Ġf ashion
ĠE ric
Ġsqu ad
Ġexcell ent
l lect
Ġext ent
ĠSov iet
er ves
ol ve
Ġauth ors
Ġis ol
ĠR am
ĠAn n
Ġimmedi ate
ĠE lect
ock et
Ġsuff ering
P ol
Ġcircumst ances
Q u
al ian
al a
Ġl ies
ch o
om ing
ĠG ra
ĠG ames
ul ous
Ġg rown
Ġimm igrants
op y
Ġt iny
g ame
olog ist
Ġbat t
Ġm ine
Ġdetail ed
Ġche ap
Ġkind s
ĠD ie
Ġcarry ing
Ġsy n
Ġcy cle
Ġme at
Ġfeat ured
it tle
Ġcompet itive
ĠW atch
Ġfor med
Ġdescrib e
r ac
Ġsign ing
Ġfundament al
Ġtr ick
Ġgu ide
in em
Ġun us
Ġ4 9
ord an
Ġtourn ament
Ġear ned
Ġw ave
Ġter min
is ms
cer tain
om a
Ġw ins
Ġdec line
Ġrelationship s
ef ully
ĠCath olic
Ġem br
Ġc razy
ĠI P
Ġreg ional
st yle
ĠJes us
Ġinst ru
ay ers
ut ch
ĠC IA
Ġfrequ ently
Ġeff icient
Ġstr ange
Ġob serv
ot al
Ġsk ill
Ġsh aring
Ġpus hing
0 6
Ġan cient
Ġact ing
ĠPut in
Ġman ner
ĠM ot
f riend
ĠPalestin ian
pr int
Ġp ip
ens us
ĠH ome
ĠW ay
Ġown ed
Ġcomfort able
Ġalong side
ĠW ik
n am
en a
Ġw ire
ĠS ar
Ġrefer red
ĠE conom
Ġcommit ment
Ġart ists
oc key
Ġc ert
g as
u ated
Ġcontrovers ial
ĠDav is
ob b
n ame
ĠH el
Ġrepeated ly
M an
rom e
Ġdep th
Ġm outh
ĠA ut
Ġupd ated
ĠC ard
Ġattempt ed
ĠL ord
ĠO F
% )
m l
Ġpre gn
O b
Ġsche dule
Ġsent ence
ig er
ĠL ong
r ison
Ġfem in
Ġup coming
we ight
c hers
ĠE ll
Ġded icated
Ġe gg
Ġ3 4
Ġj ourney
Ġstru ck
c hen
Ġpl ed
Ġr ing
Ġreal ized
ĠT op
Ġcol umn
u able
Ġc art
ĠC y
Ġwalk ed
Ġdes k
n ic
Ġch annel
Ġpost s
ĠO ld
ĠD own
an es
ĠE r
Des pite
ĠE nergy
ĠN Y
F A
Ġtarget ed
ce ived
ĠAri zona
Ġvirt ual
O RE
Ġun iverse
lud ing
Ġmed ic
Ġrep ut
ĠP S
Ġur ban
Ġser ving
Ġt ort
Ġass ets
iam i
ĠChar les
Ġnews let
Ġstud io
ad el
Ġins pired
Ġk ing
Ġwat ched
Ġsurve illance
Ġsu icide
Ġhot el
Ġus ual
ĠA L
Ġag enda
Ġca using
Ġstre am
Ġlat ter
Ġint ent
ĠSu pp
Ġopp onents
ĠJ ava
G et
Ġchair man
Ġrem ote
es c
L ike
h us
Ġs ister
ĠW ars
Ġknow ing
Ġord ers
am ily
Ġfol ks
iven ess
ĠR ight
Ġover whel
Ġmain stream
Ġsurround ing
Ġl iqu
ĠDef ense
F P
f oot
p an
g or
ograph ic
ĠC le
u gh
T wo
ĠAg ain
Ġliter ally
Ġd u
ĠW ild
Ġobser ved
im ents
Ġh all
Ġsubs id
Pe ople
ph y
i pl
Ġnot iced
Ġappro val
0 7
Ġexc iting
Ġbas ket
ar n
ri ve
Ġs and
Ġteac hers
Ġform at
E n
Ġcon gress
0 9
ĠYou ng
ici ency
Ġdeal ing
r ations
Ġs ending
Ġwin ter
ke l
Ġdeep ly
Ġprotect ed
so le
ren ce
Ġrequire ments
um ber
Ġprec ise
Ġg ang
D S
Ġfor th
Ġsim pl
y ou
Ġfix ed
ĠM en
Ġas ide
Ġproper ties
ĠCru z
Ġ7 5
or a
Ġ197 0
ĠJ r
Ġf asc
Ġal ive
Ġcommunic ation
v in
ĠCh ild
Ġe ating
Ġd iet
x y
Ġbat tery
Ġn arr
aw a
Ġnar row
Ġra pe
ĠT al
Ġpass ion
ay lor
ens ity
Ġexpl ore
Ġsk y
all as
r ors
6 6
Ġprom ised
Ġw ake
onym ous
Ġvol ume
Ġw al
Ġext ended
Ġmist ake
Ġse lection
Ġrefuge es
Ġw age
ĠD i
az i
Ġris ks
Ġex hib
ĠV an
Ġinvol ving
ĠD etroit
ĠK evin
v a
Ġdefe at
Ġcoff ee
av or
Ġfl u
P er
7 7
Ġphen omen
ĠEn ter
Ġany way
Ġput s
Ġswe et
ĠF ort
Ġtest ed
Ġun employ
Ġhe ight
Ġterrit ory
Ġn orthern
ĠStep hen
u a
Ġbl ame
I R
ĠBr ad
Ġapprox imately
Ġwel come
Ġloc ations
az e
Ġimp ressive
Ġre ward
Ġun p
w art
Ġne ut
ĠAr ch
w oman
Ġs ample
Ġdestroy ed
ab is
ĠPol it
Ġg od
ap se
ĠM iller
Ġcr ash
Ġselect ed
Ġg ap
b el
ĠP an
Ġprom ote
Ġrequ ests
Ġret ire
Ġfranch ise
as ks
Ġmax imum
al le
ĠW at
8 8
Ġattack ed
Ġmat ches
Ġw est
Ġpro of
ĠCl ass
âĢĻ .
M ay
ger y
Ġtyp ical
Ġmere ly
et her
Ġlic ense
ĠM ax
ult ure
Ġass ume
Ġsudden ly
Ġw id
Ġproper ly
Ġslow ly
Ġprot esters
0 4
ĠC amer
Ġshe l
Ġcon ver
ĠWil son
Ġwor ried
ack ing
Ġab ortion
ĠW omen
Ġterror ism
Ġch ose
ang es
Ġun known
se x
Ġd ry
b ar
Ġdis ag
Ġall ies
Ġteac her
Ġarg uments
Ġsh o
m un
ĠT it
ing u
Ġsust ain
Ġthem e
Ġmod er
O C
Ġdisc over
ĠIn s
i xt
Ġrecogn ize
Ġfac ilities
Ġsupport s
Ġconf ront
ĠF il
b urg
uild ing
Ġad apt
p ost
or ation
Ġob lig
og an
0 2
Ġequ ival
ver ty
um s
ow ered
ĠIt aly
b oy
Ġobtain ed
ob ile
ĠJer sey
Ġtop ic
ac c
Ġe ast
ĠB est
ins on
Ġcrit ics
ĠAg ency
Ġcontro lled
ĠSoc iety
ĠM ic
Ġpo verty
Ġfe es
Ġf uck
Ġnom ine
Ġunder stood
Ġde als
as er
a ire
ar ry
Ġpun ish
Ġso le
ĠH ollywood
Ġdi agn
Ġd ress
F r
l ies
Ġr ub
st one
g ender
ĠAd minist
ĠF ord
l v
Ġlik es
Ġvill age
it arian
ĠComp any
ra id
R el
Ġev il
ax y
Ġjournal ists
Ġsche me
Ġb unch
Ġexp osed
Ġtrans p
ĠN HL
Ġlim its
ig ure
Ġsome how
Ġcommunic ations
Ġresist ance
i ro
Ġstrong ly
ĠF our
ĠGeor gia
c ers
Ġp al
Ġst im
Ġreg ions
ar ity
S e
ĠNAS A
Ġch ampion
Ġdr ag
Ġhon or
Ġperson ally
ĠL u
Ġconst ant
Ġcond em
ĠP R
Ġdec k
st ers
Ġph ase
Ġesc ape
red it
ĠCar l
st r
Ġfall ing
ce ler
Ġprof it
iz z
Ġsome where
ĠSt and
rim ination
ĠNet work
ĠL abor
ig g
Ġtr uck
Ġbe ar
Ġb id
Ġem issions
ll s
ast s
Ġvac c
Ġcompar ison
Ġdefin ition
f ire
ĠD am
ĠSp anish
Ġp ed
Ġemploy ee
c ript
Ã Ń
Ġhar ass
Ġencour age
p ool
Ġdec ent
Ġpoll s
os is
nes ota
Ġh its
ci ples
Ġs outhern
ĠD un
l ist
pect ed
GB T
5 9
Ġdirect ed
Ġin qu
ĠM iami
ĠC D
Ġem pty
d ro
ĠN ight
ort ed
Ġelectric ity
ĠV iew
Ġwin ner
J ohn
oc ation
Ġcomp rom
ick en
Ġdatab ase
Ġf lex
O r
Ġsp in
Ġstret ch
Ġmeet ings
Ġinte llect
Ġoffic ially
ĠD aniel
z ens
ĠL ove
ĠDes pite
ĠT urn
Ġgot ten
Ġp ic
00 00
Ġben ch
Ġstrong er
0 3
ĠD NA
al o
Ġcut ting
ĠC am
Ġpurp oses
Ġch osen
Ġan x
end ers
au g
Ġ3 9
Ġdevelop er
ow a
Ġtre es
Ġext ensive
ĠK n
V ER
Ġgood s
Ġide al
r ary
c ow
ĠE nd
int end
ĠAs ian
Ġamount s
Ġf old
Ġfif th
ĠL and
Ġdes per
ig ation
ĠB ell
ost er
6 8
ĠTur k
ĠServ ices
Ī Ĵ
or ic
Ġclaim ing
Ġpay ments
ĠJ ordan
ret t
Ġcol on
Ġcapt ured
ĠN ations
Ġre tain
Ġdri ven
Ġpar am
ĠTh ank
Ġt ies
Ġsome body
te en
Ġd rawn
Ġreason able
if orm
Ġs oul
p es
ĠTh ough
Ġcho ices
Ġinc l
Ġfind s
ĠO k
Ġde leg
Ġse ats
Ġend ing
Ġrul ed
ĠIr ish
Ġdog s
Ġs ight
Ġthreat ened
Ġprim arily
Ġth read
ĠSe a
Ġperfect ly
ĠAc adem
Ġb le
Ġeng age
ĠScot land
ir ms
Ġf ighters
un ning
Ġpay ment
Ġansw ers
Ġconst antly
Ġr ival
in er
Ġtechn ologies
Ġtrad ing
Ġpark ing
ad s
Ġaspect s
Ġfield s
a o
An y
Ġreject ed
ĠAtt orney
ow ed
Ġf lying
ep ing
as ters
Ġad mit
Ġelse where
i i
Ġcomp onents
Ġdist inct
p o
Ġestim ates
ĠMo ore
ĠG all
m o
Ġsol utions
Ġact or
ĠD ar
Ġ icon
Ġresult ing
Ġany more
Ġp od
Ġconst it
Ġworld wide
Ġprov ince
Ġreg ularly
ĠH un
N C
Ġcour ts
Ġr ig
ĠU t
ĠO S
Ġaw esome
w an
Ġno body
6 7
Ġcontrol s
Ġenem ies
at i
Ġmix ed
Ġnarr ative
se a
Pol ice
Ġhous es
O nce
ĠRe al
Ġb oot
ĠSte ven
ĠDis ney
Ġmay or
ĠD ark
k o
in ations
Ġout come
f ast
ĠB rian
Ġlet ters
reg on
." [
ĠW ater
ĠAd am
a un
Ġcon tem
Ġ4 2
Ġt ur
ĠCh ampionship
ic er
ĠC at
Ġcontribut ed
Ġconclud ed
Ġprof ile
Ġfound er
Ġt ank
Ġex ists
Ġap artment
ag ram
Ġaccur ate
Ġm urd
ĠIn f
ĠC ast
ĠM S
ĠA uthor
Ġlo an
Ġsit uations
Ġcoal ition
Ã ³
ĠW here
ĠB ru
ld er
< /
Ġatmosp here
ĠL ew
ĠVict or
Ġcontin uing
Ġbase ball
s hip
Ġincred ible
Ġinform ed
Ġtick et
ĠConst itution
Ġgener ate
Ġcon ven
adel ph
Ġang ry
Ġt ied
Ġkeep s
r ates
Ġcateg ory
ĠD allas
Ġcl ients
ĠIt alian
ĠT em
il arly
ï ¿
ear ing
ĠL ight
ĠS outhern
Ġrout ine
is an
Ġra ising
Ġregist ered
Ġincred ibly
Ġemploy ment
5 7
ĠB as
ot ten
Ġpro ved
Ġt aste
Ġbre w
Al so
Ġmach ines
ĠOr gan
Ġsign al
ĠR og
Ġcru cial
Ġter rible
Ġwe ird
se ll
ap es
Ġcons cious
Ġdem ands
ĠSp ain
ĠC ivil
Ġconsum ption
the re
Ġest ate
Ġst uck
Ġfeed back
Ġs atell
Ġman ip
Ġnew ly
Ġg aming
Ġbill s
Ġu pper
Ġent hus
Ġdo zen
ĠJose ph
Ġ %
ĠI d
Ġwrit ers
in ity
Ġret urning
adelph ia
Ġaggress ive
Ġorig in
Ġpl astic
5 8
Ġst ead
ol t
Ġpain t
Ġinn oc
ĠT w
Ġk il
ĠS C
ĠTh anks
ot es
Ġconclus ion
Ġcomp ens
Ġpen alty
Ġorgan ized
Ġrep orter
Ġex cess
ĠB owl
ĠC ross
Ġr us
Ġassist ant
Ġro ster
r age
Ġrepresent ed
Ð µ
im p
Ġim per
Ġcons pir
ific ations
Ġexplan ation
Ġprogram ming
Ġcapt ure
M L
Ġinter pret
gor ith
ĠMin nesota
ĠPro gram
Ġdrink ing
C om
ian a
ĠCon f
ĠRom an
T oday
v y
isc al
Ġn ut
Ġch ances
Ġassist ance
Ġcompl aint
ĠA R
ĠPar liament
ons in
ind ing
on ic
Ġg ro
isc onsin
Ġgr anted
ess ed
Ġcount y
ep t
m od
3 00
B ecause
if er
Ġcompl icated
Ġext ract
ĠO per
ĠCont in
Ġt all
ack ed
ĠZ eal
S ec
Ġsh ares
Ġ199 9
Ġmag ic
Ġsuccess fully
r as
Ġrec overy
Ġr u
Ġtechn iques
Ġaud io
Ġ( $
l ock
ĠE duc
Ġveter an
ar on
anche ster
Ġdeg rees
re p
Ġpil ot
em en
Ġscen es
Ġ iron
Ġoper ate
Ġad s
Ġlaw makers
C E
Ġhe l
Ġmy th
Ġpass es
Ġaim ed
Ġpriv ile
ann y
E W
Ġw estern
Ġ5 5
es y
ĠI T
Ġsym pt
ĠC are
re te
ĠG i
Ġr ating
act ions
C S
ĠLin ux
Ġthe rap
m ont
r ating
id ency
ab ama
! <|
Ġdoll ar
Ġph r
ï¿ ½
Ġha bit
Ġteach ing
Ġautom atically
Ġacadem ic
ĠPac ific
of t
ĠFore ign
ur a
Ġext rem
Ġeng aged
the w
Ġsurv ive
Ġbl ocks
Ġperman ent
ĠSen ator
ã Ģ
Ġen able
Ġinst alled
k ed
Ġant icip
Ġmark ed
Ġch ampionship
Ġd uty
Ġatt ended
ib ilities
ĠH ot
ĠO s
Ġind ex
Ġt aught
Ġmon it
ever al
Ġacc omp
ĠW in
ĠF re
Ġval uable
Ġh idden
ĠSpe cial
Ġel ite
Ġequival ent
Ġp ace
Ġdep ending
Ġtit les
Ġperson nel
ĠN BC
Ġlawy ers
it als
Ġb om
ĠS k
ĠT est
Ġdownt own
Ġover se
ĠB ull
r ific
Ġvulner able
ĠB usiness
Ġwar ming
ĠL ook
ĠV iet
Ġro ot
st ar
l ers
Ġch at
Ġ6 5
Ġsol ve
ch ain
Ġun certain
ĠK elly
ri a
atur ally
Ã ¶
Ġcomp re
Ġenjoy ed
Ġgener ated
l s
Ġreput ation
Ġsuff icient
Ġf ake
Ġvis ited
ĠT aylor
Ġrec ording
Ã ¼
Ġph ones
Ġbit coin
ĠN ick
Ġprin ciples
u ine
Ġadv is
Ġc able
Ġregard less
Ġnegoti ations
Ġcollect ed
it ar
G etty
ĠA venue
ĠE p
rap h
Ġdis aster
Ġwork er
s m
Ġp ounds
Ġrac ial
Ġdef ence
Ġ6 4
Ġaf raid
Ġposs ession
Ġpattern s
ĠT ake
Ġe lev
act ive
ĠAn th
re ams
7 8
Ġp in
Ġd ict
Ġexp osure
Ġc up
Ġmain ly
ĠT ony
Ġport ion
ĠCo ast
qu arters
ĠJ osh
Ġins pir
Ġtrack s
mon th
Ġprom inent
Ġbus y
Ġsur gery
Ġint ense
Ġth in
ĠSer ies
k er
Ġfun ny
ĠE astern
Ġap olog
Ġengine ering
ĠSt ill
O ff
% .
a ed
M P
Ġtrou b
Ġ âĢĻ
Ġext ension
Ġ Î
Ġdescrib es
ĠL GBT
Ġcom ic
Ġtax p
ĠMos cow
ĠZeal and
he nt
ĠK urd
ĠC oll
Ġunus ual
Ġresult ed
ĠK ent
Ġent it
Ġprocess es
e z
D r
f rom
Ġemer ged
ĠI owa
ĠN ation
19 9
Ġco ordin
et ary
ĠC ome
ĠG er
as hes
Ġsh it
In st
ĠM ars
Ġadop ted
Ġprop ag
Ġf ought
ĠR ay
ĠA h
Ġbr ut
Ġbl ind
or ne
Ġcompet e
pr ise
ath y
Ġcor ruption
Ġhad n
ĠO regon
Ġst ations
b al
Ġgr ant
Ġevery where
Ġb es
ĠIn vest
il er
Ġadvert ising
m al
Ġf irms
Ġcontract s
Ġfeel ings
ĠA D
ĠS n
ĠPhil adelphia
Ġdisc ipl
Ġg all
5 6
idel ines
ĠB alt
Ġ4 00
Ġimplement ation
Ġm ail
Ġminor ity
M ean
ĠN orthern
ĠC all
Ġd im
Ġrare ly
Ġexpl icit
he rent
ul es
ĠDe ad
Ġc ited
Ġen orm
u an
ĠBe fore
th is
Ġexpect ations
Ġshort ly
ĠPol icy
ĠR ick
Ġstr ict
âĢĻ ,
Ġsan ctions
M S
Ġsp r
E d
Ġfin ance
ĠN avy
up id
v iously
im a
Ð °
Ġth ick
A A
m aking
Ġl oud
Ġscen ario
ĠGree k
c les
ic ate
or ough
Ġcamer as
f all
ĠA li
Ġthous and
ĠI nt
Ġphot ograph
Ġpl ug
Ġrec ip
Ġbr idge
sc ape
Ġbrow ser
ĠW isconsin
Ġve get
if ies
y e
Ġaff ili
Ġin ev
Ġne uro
ind er
Ġal gorith
Ġcreat es
Ġvis ible
Ġcry pt
H S
Ġlight s
8 6
f ront
Ġob st
ĠF ood
ist ent
Ġprior ity
az z
Ġag ric
ĠPro te
ĠF oot
E A
Ġper mission
Ġt ag
il ton
Ġparticip ate
Ġdo zens
Ġcomput ers
ask a
Ġla id
Ġloss es
Ġw ing
Ġmed ium
Ġbasket ball
ĠKing dom
ll a
Ġh o
Ġv en
as ion
Ġsc oring
U R
c us
er a
Ġcoun sel
ĠGl obal
Ġun w
ĠDevelop ment
Ġac celer
Ġstrik es
Ġform al
at hered
ant ic
ink ing
ĠL ive
iz on
Ġprinc iple
og ether
Ġto ler
ĠAm endment
Ġsu p
g un
L A
Ġinter face
Ġhistor ic
Ġbeh alf
re f
prof it
Ġwonder ful
wh o
ĠAs h
t est
ĠG reg
al i
ĠH om
Ġ4 4
5 1
t es
Ġsh ock
Ġun com
Ġfound ed
Ġestablish ment
ĠTh us
Ġfound ation
Ġ15 0
Ġair port
ĠAl abama
Ġmanufact uring
Ġfe e
Ġre ly
Ġ- >
ĠM ajor
ĠHen ry
Ġb orrow
man n
ili pp
ĠH as
Ġt or
ĠS af
Ġm el
ĠE SP
Ġclub s
ur rent
5 2
Ġg ained
ĠH it
ĠO ak
Ġgen uine
rat ors
Ġdraw ing
Ġhead ed
et ime
c r
Ġy ield
Ġcomp onent
Ġrel ief
Ġrid ic
Ġf ault
Ġsa ved
Ġh ole
em s
Ġjournal ist
Ġindic ate
r ative
Ġg ift
Be fore
ĠR oyal
ĠP ay
Ġrecogn ized
Ġwithd raw
) )
Ġ19 60
ar lier
L C
Ġban ned
Ġcann abis
Ġ4 7
Ġr iver
w orld
Ġun iform
b ro
ose xual
Ġstrugg ling
Ġj u
ĠAcadem y
p read
Ġdo ors
AT E
Ġwhe el
le te
Ġsh ips
e lect
Mean while
Ġst able
Ġachie ved
ĠM u
Ġmag n
epend ent
ĠM oh
Ġfoot age
ent h
R ec
am ber
Ġed ition
Ġneigh b
5 4
Ġcont aining
Ġwall s
Ġsp ark
ĠH T
Ġmove ments
Ġro les
Ġdeli ber
ĠF C
Ġrec ru
Ġepis odes
ĠPrem ier
oun ced
Ġexcept ion
port ion
ĠM id
Ġ199 8
Ġsh arp
Ġp ump
an ing
ĠRe view
ĠO l
ĠTh ree
ides pread
Ġpl ate
Ġdest ruction
: <|
ĠR and
ĠKe y
Ġcy ber
Ġh ired
Ġlangu ages
ou red
ĠA S
Ġneut ral
Ġent ering
et ts
ĠS now
P r
Ã ¤
t a
Ġprodu cer
Ġprofess ion
b ell
og en
op her
Ġback ed
Ġfl aw
Ġlik ed
ĠF red
ĠS P
ĠF und
ĠV R
ĠM anchester
m ate
ĠV is
inte rest
y stem
ul ating
Ġg onna
Ġar range
Ġinterview s
Th ose
we et
sy lv
Ġleg end
ĠDie go
Ġphilosoph y
ĠCon ference
ĠAdminist ration
Ġto x
Ġtack le
ĠN ob
Ġb ath
Ġst adium
ĠN ote
Ġbelief s
ĠR et
rou s
u ce
ol is
Ġredu ction
ĠAtlant a
Ġc rop
Ġstruct ures
im ore
Ġf inger
d a
ĠJ ac
Ġdin ner
ĠJ ason
Ġ4 1
Ġh ang
bur gh
Ġa ver
Ġcont ained
ĠMc G
um er
Ġconv in
Ġfarm ers
ig en
Ġbare ly
ĠCent re
Ġprocess ing
ab s
ĠTurk ish
Ġnomine e
Ġintellect ual
ĠRep ort
ach ing
Ġdeli very
Ġinc ent
l og
Ġdisc rimination
c ription
Ġsy nt
M ar
rodu ct
a us
s he
ĠB ry
ĠK ir
M e
ĠF ield
ri ers
z y
ĠO K
ĠPer haps
Ġch a
ĠF air
ĠAr m
U s
ĠO tt
c ar
Ġrestrict ions
Ġup set
sylv ania
AT O
C ol
P ost
u er
Ġchalleng ing
ĠChrist ians
Ġfore ver
Ġhit ting
o en
Ġill ness
abin et
ĠEduc ation
Ġpro ven
Ġo cean
ams ung
ĠD id
Ġelect ronic
ĠRad io
Ġindic ated
Ġret ired
Ġconv icted
Ġsm ooth
==== ====
P resident
Ġtechn ique
t hen
http s
Ġun ex
Ġrecogn ition
Ġprodu cing
S ub
Ġrapid ly
us ive
l an
ĠD ata
um in
Ġ4 3
Ġrob ot
Ġassoci ation
ĠH ay
Ġl oyal
ĠRe uters
ĠAb out
ĠP oint
ĠF ed
Ġreview s
Ġh ide
Ġbeg un
Ġlist ening
6 9
em an
Ġcorpor ations
ol en
Ġut il
p age
Ġro se
Ġnot ion
eng ers
Ġcl imb
sel s
Ġwebs ites
ĠK ansas
4 00
ĠJud ge
5 3
ĠU FC
Ġmil k
Ġper pet
Ġtick ets
g ener
Ġreach ing
y ard
B O
Ġsuggest ing
Ġdesc ription
ow ing
aw ay
less ly
ĠL o
Ġas ks
ĠMay or
ach us
Ġb ail
ĠP ack
Ġexclus ive
Ġb urd
Ġe uro
Ġequ ally
ĠH or
Ġprep are
Ġw idespread
os a
Ġfl ash
b a
ay ing
ĠM ir
Ġprogress ive
ou ver
is p
ĠR ose
E P
U L
Ġcampaign s
ĠA BC
ĠHar ry
Ġhard ly
Ġeth nic
ĠMcC ain
Ġex ceed
Ġcont ribute
ĠR us
% ,
Ġpract ical
Ġnorm ally
Ġbr anch
ĠArab ia
ĠC irc
Ġunc lear
Ġiniti ative
Ġsens itive
Ġcare fully
Ġex ternal
Ġex em
Ġredu cing
Ġb ra
8 9
am i
ĠN ic
Ġgr ass
Ġfriend ly
ĠMark et
ĠF ull
ust ed
Ġfr ag
Ġre n
Ġrepresent ative
Ġinv ent
Ġrac ist
Ġcoll apse
j o
ĠS at
Ġconvin ced
Ġrespect ively
ĠH ard
ud es
ĠF urther
L ook
f ound
Ġinvolve ment
Ġwe lf
Ġrec over
Wh o
D av
b ec
Ġm o
Ġview ers
Ġth rown
Ġt ail
Ġ4 6
C o
c ling
arr ass
r ical
um es
Ġstrateg ic
igr ant
Ġoverwhel ming
ĠP en
Ġindepend ence
Ġsettle ment
Ġh ook
anc ouver
Ġbehavi our
ri ent
rat or
R S
enn y
Ġsm oke
ĠBe ach
Ġterror ists
Ġwelf are
ob s
he ast
ut ies
ĠL uc
Ġl ists
ĠMus ic
i el
ĠLat in
ĠESP N
f are
Ġfant asy
Ġconnect ions
Ġfeat uring
achus etts
ĠL ind
Ġw ine
ĠBern ie
Ġstat istics
Ġv ital
Ġmind s
ri k
St ar
olog ists
Ġv ary
Ġcompl aints
ĠO nt
app y
ĠPenn sylvania
Ġdep uty
Ġinv ited
Ġan ger
ĠB attle
pl oad
Ġf iscal
Ġdeep er
ino is
Ġjo ining
Ġdev ast
ĠT own
Ġw ars
Ġel ig
Ġst eal
ĠC O
Ġsu gar
Ñ Ĥ
ĠSqu are
ro lled
ned y
Ġany body
Ġinvestig ate
Ġdef ine
ik es
Ġscore s
ĠII I
Ġschol ars
ec ut
ĠR ef
Ġar ray
Ġl obby
Ġframe work
Ġconst itutional
Ġi OS
ĠD ig
Ġin ject
omet hing
ĠDiv ision
8 7
ĠNe xt
Ġal ien
ivers ary
Ġunemploy ment
ĠAN D
Ġmen u
st ract
ĠAnt on
.... ....
n i
Ġsc reens
Ġsubject s
Ġpe ak
Ġimprove ments
Ġt asks
im m
ĠP it
Ġl uck
Ġdisc overy
ĠT enn
ĠCamer on
ĠMin istry
ĠS ir
ĠG ov
ĠSt one
Ġfail ing
ick ing
es ter
U N
Ġcitiz en
Ġsc andal
if est
Ġowners hip
level and
Ġcas ual
Ġcompre hens
ĠL y
um a
Ġtr ained
Ġtrans gender
Ġdynam ic
ĠN SA
ĠN ever
Ġtest im
Ġrem em
Ġcontrovers y
ĠX box
ĠBro ther
Ġimplement ed
Ġroad s
Ġsam ples
Ġj ury
ĠIn formation
un ior
Ġg athered
ĠPh ilipp
Ġreg ister
Ġest imate
Ġcap tain
Ġdem ocratic
c a
Ġguaran te
ĠSep t
ĠCommun ity
Ġ199 7
Ġser ves
ĠMed ical
Ġf ab
Ġf iction
Ġneigh bour
ĠL ittle
Ġpro sec
Ġfear s
Ġdisag ree
ĠS S
ĠJ ay
Ġc os
Ġleg s
Ġsp aces
Ġ199 6
Ġs oph
l ad
ĠSant a
Ġrefer ring
Ġtouch down
R ef
Ġt rem
8 5
Ġincor por
ih ad
Ġcollect ive
w orth
Ġcivil ians
Ġhyp ot
Ġre ven
ĠU lt
Ġrem arks
Ġvers us
P M
Ġt one
ion e
ĠI ce
Ġtem porary
Ġrecomm ended
Ġw ages
P G
Ġst upid
h y
Ġacc us
Ġt ip
ĠWalk er
Ġreg ulation
Ġattack ing
: :
c ore
Ġaware ness
Ġhand ful
ĠH D
ĠB rew
Ġvisit ors
ĠAll en
u per
Ġplatform s
c ific
Ġhead ing
ĠMat thew
Ġno ise
od ing
ast y
Ġaff airs
Ġext end
ĠVe gas
Ġlic ens
Ġs in
Ġattempt ing
ĠAnth ony
Ġover t
Ġatt ached
ab il
ĠK at
Ġsal ary
inc luding
U nder
Ġult imate
ĠColumb ia
Ġr aces
ĠA ction
ĠO N
it i
I F
ĠSpr ing
Ġgen etic
ĠPat rick
Ġexpand ed
os it
ick et
Ġr aw
Ġhor se
ĠQue en
Ġi P
Ġign ore
Ġsett ings
ition ally
ĠC ook
Ġdiscuss ions
Ġtweet ed
ou ch
Ġr ural
ph ones
20 14
Ġsympt oms
ĠC ore
Ġrank ed
Ġsuff er
Ġg ear
el and
Ġpurch ased
Ġfact ory
Ġhol iday
Ġinter vention
Ġprom pt
ĠGuard ian
Ġpublic ation
Ġdis pl
ĠAP I
ĠE s
Ġne ck
Ġrec all
ĠR oy
Ġro of
h our
Ġenorm ous
Ġthe at
________ ________
ĠAust in
Ġview ed
ĠM ake
W ill
Ġbr ill
d em
Ġsuspect ed
b n
ĠProf essor
Ġpres um
ĠMass achusetts
ann a
Ġimprove ment
Ġlog ic
ir y
Ġentertain ment
ĠP ent
Ġw ww
p at
Ġeas tern
omm od
Ġact ors
Ġsubstant ial
Ġro ok
Ġlegit imate
Ġlay er
Ġbrother s
ty pe
Ab out
Ġing red
Ġres ource
ict ions
Ġlo ans
intend o
Ġinvol ves
m ary
Ġco aches
Ġs orry
Ġst ake
Ġinvestig ating
ult ural
Ġseem ingly
ĠSe ason
Ġground s
' .
Ġch apter
Ġconspir acy
B ack
ĠB udd
Ġhuman ity
Ġres ign
ac on
Ġâ Ĥ¬
Ġabs ence
Ġ201 9
re pre
c ase
yth on
Ġadvoc ates
Ġmon itor
Ġdram atic
Ġfall en
Ġliqu id
. -
Ġtom orrow
Ġinvestig ators
Ġprov iders
iver pool
Ġout s
Ġmiss ile
Ġr ational
ĠAl bert
ĠGree ce
Ġmedic ine
" )
Ġbo at
Ġco vers
ĠConserv ative
Ġsusp ended
Ġc ro
Ġb ureau
ĠM useum
Ġf ulf
Ġp apers
ĠM ah
Ġactiv ist
Ġfore st
Ġopin ions
ĠChe ck
ĠGold en
oty pe
Ġoffic es
Ġb ars
Ġstay ed
Ġc oc
repre ne
ĠCh air
Ġover s
ar ms
Ġemb arrass
ĠS uch
W here
ĠCont rol
x it
Ġd iversity
Ġprot ocol
ĠRev olution
ov al
Ġpre ced
u ction
ĠS ony
ĠH ospital
Ġj ur
are t
ĠF reedom
ĠB all
Ġcare ful
Ġam id
Ġdis rupt
S en
m ad
am med
Ġj e
Ġcele b
ĠHe ad
v ard
ĠR oss
Ġclot hes
Ġhand ed
Ġc ogn
Rel ated
Ġ5 2
ĠHist ory
ĠIran ian
h o
ple te
Ġtransport ation
cl aim
ĠSh are
ĠV ancouver
ag g
ist ing
Ġconsist ently
i ability
20 16
ĠW W
Ġmin ing
Ġnot ing
Ġread s
ĠIll inois
Ġg am
we red
Ġaddress ed
ĠKen nedy
ge on
ang el
Ġpet ition
R uss
Ġcol ors
Ġmount ain
Ġrefere nd
ĠF amily
Ġdep ends
our se
Ġent r
7 9
co ver
Ġh am
ĠC BS
Ġprinc ip
Ġatt itude
Ġp orn
ĠAnd erson
Ġlow est
Ġwar rant
Sc ript
l ah
re ts
ect ion
ĠA cc
Ġcon ce
Ġf ruit
Ġaut hent
Ġvirt ually
Ġpre f
Ġsh r
Ġste el
ĠSt adium
Ġf oss
ĠA le
Ġthrow ing
un es
ĠMe an
Ġspeak s
d it
ĠBalt imore
ĠSt at
Ġst one
Ġappreci ate
Ġread er
ĠP ot
h ot
Ġ _
Ġbu ff
Ġperson ality
B oth
ĠG aza
Ġguaran tee
A ss
ĠH o
ĠEng ine
Ġsur f
7 6
Ġcl osing
Ġ 00
ĠIraq i
Ġte a
Ġconvers ations
Ġhor ror
Ġdep ression
" .[
ĠC leveland
Ġmar ks
Ġin ner
Ġspirit ual
Ġk m
ĠA p
! )
Ġprof its
Ġcontribut ions
it ting
ien ces
Ġb acter
Ġtri es
Ġhand ling
ĠEn vironment
C he
Ġfant astic
R I
M c
Ġg ains
Ġacc ommod
ĠG etty
Ġjud ges
Ġh int
Ġcover ing
Ġsubsequ ent
Ġg rav
Ġl ands
pt on
pt ions
ĠBro ad
S m
Ġencour aged
7 2
ĠHow ard
rop ri
sen al
ĠHar ris
Ġw rest
ut ed
P C
Ġinc idents
Ġast ron
Ġshould er
Ġd rew
iv als
Ġcon sole
d ri
ĠLew is
Ġsp oken
Ġgu est
Ġl ucky
Ġpo ly
Ġinfl ation
Ġr anks
j a
G O
ord on
Ġm aps
ĠPat ri
sc ale
ĠE xt
ĠInte lligence
Ġdr ama
Ġr het
ĠT ri
in ch
u its
Ġinnov ation
ĠB ang
Ġbro wn
Ġphot ograp
ij ing
ĠMex ican
ed ing
Ġ199 5
ĠInd eed
Ġc ust
ke ep
ab eth
ĠS H
Ġper mit
Ġdiv ided
Ġdist ributed
ĠâĢ ¢
P lease
Ġsw ing
m aker
ĠC A
ĠC re
ann els
Ġeff iciency
ĠUn fortunately
Ġport ray
un icip
z ed
am ac
ĠN ATO
port ed
Ġre vel
Ġprom ises
ĠT ro
Ġpar alle
ĠR a
ĠWh ich
ĠP o
P art
Ġspokes person
Ġ5 1
ĠAd v
Ġinstru ment
Ġl ying
Ġd ance
Ġprem ium
Ġball ot
ic ity
Ġd ump
Ġcl im
ix ed
fl ix
Ġimpro ving
Ġl ocked
Ġj oy
Ġreplace ment
Ġth rew
ĠR en
Ġsh out
ES T
ĠB ad
re c
pl ed
ĠL as
Ġcom edy
Ġprote in
Ġtemper atures
d ated
Ġacknowled ged
Ġcop ies
Ġprotect ing
Ġvot er
ĠK ong
ĠWith out
N ote
Ġmus ical
New s
ĠMar vel
Ġbreak s
av al
Ġhom eless
Ġcommon ly
pp ers
Ġmist akes
Ġbar rel
Ġrespons es
it age
ĠC H
Ġabandon ed
Ġle ts
Ġche cks
Ġpass engers
Ġg al
ĠS amsung
Ġd ad
7 4
Ġn aturally
ĠPl us
Ġleg acy
es h
er ted
Ġjo ke
ĠB uff
ĠCon nect
20 15
Ġnom ination
Ġmeas ured
Ġd iverse
ĠPr ince
ĠFoot ball
iet ies
Ġdemonst rated
ĠS cient
pl ate
G E
Ġy ellow
Ġstud ied
R C
Ġupgr ade
amac are
hel sea
in f
Ġacqu ired
oun ce
Ġmat hem
H er
Ġsil ver
Ġcount s
ĠD et
Ġre ar
Ġsc an
Ġfund ed
Ġst olen
Ġmid field
d es
Ġhead quarters
ĠL yn
Ġpl ain
back s
Ġ( âĢľ
hes is
Ġbl ast
ĠM oon
Ġ ?
ĠSt art
Ġord inary
Ġ199 4
er ies
od ed
Ġl es
Ġr om
ĠM arsh
Ġass ert
ĠU se
Ġf estival
l ow
ĠB a
Ġreferend um
Ġso il
Ġm arch
qu est
Ġt ape
Â Ĵ
Ġliter ature
Ġpartners hip
Ġgr id
Ġign ored
ĠN OT
ap ing
ĠN ev
+ +
Ġsc ope
Ġarri ve
Ġhelp ful
ĠAtlant ic
ĠA C
ĠC ost
Ġex it
Ġm ad
Ġcap abilities
Ġfall s
ĠH ind
Ġvir us
Ġst ages
Ġcom pe
aw are
Ġconserv atives
Ġtw enty
Ġcl ock
ĠA I
Ġus age
est y
Ġwat ers
Ġgu itar
ĠDo es
arg o
ĠD ave
Ġin equ
ĠB ron
ĠAb b
ass ador
ĠM aster
Ġa x
rodu ction
Ġmechan ism
ĠEm pire
Ġhop ed
Ġtrack ing
Ġconvention al
y o
Ġassess ment
ugh t
Ġun ions
ak a
Ġr amp
Ġtrans actions
Ġsy mp
ĠIndian a
in ction
lah oma
Ġrepresent ing
Y our
Ġm oon
h igh
com es
aed a
ĠDen ver
Ġsho pping
8 00
Ġdist ract
ĠT rib
ĠA ud
Ġmonit oring
ĠG un
F acebook
Ġrat io
Ġtr ave
Ġrel iable
ĠS ometimes
Ġpropos als
Ġske pt
Ġunivers ities
Ġrac ism
ĠE ag
Ġst y
en cing
Ġr if
Ġrepl ied
et ers
Ġf ro
h op
nt il
Ġrece iver
Ġcritic ized
ct ic
Ġappear ances
Ġ20 20
ĠPro v
ecut ive
ĠB ureau
C ons
Ġh ung
d ney
Ġintrodu ction
d oor
con f
Ġappoint ed
he im
ĠTechn ology
al ia
b i
S ource
Ġsupp lies
the less
Ġins isted
Ġperform ing
ĠPort land
Ġconc rete
Ġt ie
Ġb ub
Ġex ch
Ġsw im
Ġlet ting
Ġbeaut y
z ing
Ġblock ed
ĠL ine
Ġh ockey
ĠF orm
i ate
Ġsequ ence
Ġvis iting
Ġdef icit
m ade
ĠUt ah
Ġabs or
6 1
Ġprogram me
on ly
ĠS us
Ġpres idency
Ġclass ified
Ġdro ve
ile y
r imin
Ġaccompl ish
ĠC apt
ol ph
ĠGal axy
Ġdom ain
ĠP op
Ar t
ĠSwed en
Ġrock et
ĠDe ath
Ġdismiss ed
ĠAssoci ated
or ge
sh ire
Ġre nder
Ġland scape
Ġab road
Ġsen ator
Ġtrig ger
Ġpredict ed
d og
ĠP ass
ĠF all
Ġwar n
Ġcent ers
Ġpers ons
Ġbon us
Ġcan ce
Ġm useum
ĠA ge
Ġd ates
ĠT our
h an
m at
Ġequ ality
Ġrequest ed
Ġdocument ary
ie ce
ack et
Ġart ific
Ġtestim ony
ĠAlex ander
Ġspokes woman
Ġcongress ional
US T
ĠHe ll
m ony
Ġentit led
Ġaut o
ĠCo oper
ĠCor por
Ġveter ans
ir a
c rib
ĠA st
y er
Â °
Ġur ged
Ġd ust
il a
ĠOnt ario
6 2
Ġass ign
f und
ĠOr ig
oc ument
Ġv es
Ġtrans it
Ġp atch
ag ic
6 3
Ġd ub
ĠOlymp ic
ult ane
Ġresc ue
Ġtact ics
## ##
Ġe c
Ġsatell ite
br idge
Ð ¸
ĠN intendo
pl us
Ġwhen ever
Ġpop ulations
ĠFr ont
arch y
B M
ĠL A
ĠâĢ Ŀ
Ġw ider
ĠJ am
Ġf iring
Ġbreat h
Ġtarget ing
Ġcl ar
P P
ĠB ible
St ill
Ġviol ation
Ġpurs ue
Ġs alt
om es
Ġac id
Ġw edd
ĠA ward
iz abeth
Y et
Ġretire ment
Ġm ole
ir ts
Ġpolit ically
Ġser vers
ĠRober ts
room s
Ġcomp are
Ġb read
ĠS et
Ġemploy ed
Ġprison ers
ĠBe ijing
is ons
in ating
ound ing
ĠB on
ĠL iverpool
ĠJust in
Ġsurv ival
Ġrestaur ants
a ver
or gan
usal em
ac co
ĠC ode
Ġexper iments
Ġsoc cer
ĠR os
th rough
p ress
Ġintrodu ce
Ġcont rad
er g
Ġob s
Ġbrill iant
ĠG irl
Ġphr ase
Ġscient ist
Ġappro ached
Ġrepresent atives
K e
ĠL ow
ect ive
Ġqu ote
or ous
Ġsub mit
ĠMary land
Ġent reprene
Ġch annels
Ġfocus ing
Ġtit led
ing ton
Ġf ighter
ĠM ill
Ġpopular ity
ct r
Ġch icken
ra pped
Ġab ilities
Ġmonth ly
ĠBr idge
ĠW H
c ut
Ġ9 9
the y
ĠL ist
f ol
Ġt ips
Ġchild hood
Ġth orough
ene z
Ġpip eline
enn is
V E
Ġsa ving
Ġbank ing
ĠHar vard
Ġinvestig ations
Ġr ush
Ġdesign s
Ġobject ive
Ġc ig
Th ough
R L
ord inary
Ġpre par
r ite
eder ation
A re
orm al
Ġc ul
ol ves
ĠH ur
ĠGovern or
em ed
Ġhy per
Ġmembers hip
Ġdemand ing
Ġunex pected
Ġb ab
Ġsm ell
Ġlo ose
Ġarg ues
Ġoverse as
Ġh osp
Ġlegisl ative
Ġsh adow
Ġenc ry
Ġphenomen on
i y
ian o
Ġanx iety
Ġact ively
ĠS el
Ġsett led
ĠBe ck
Ġden y
Ġm it
ĠD utch
Ġprep aring
Ġprodu cers
Ġdist urb
ĠM ach
Ġke ys
Ġrec ruit
Ġfore cast
ĠY OU
7 1
ĠB ase
ĠP D
Ġgener ations
oen ix
Ġrat ings
er ts
Ġsh ame
ĠC lick
ĠH ave
Ġcelebr ate
Ġweek ly
Ġinnoc ent
Ġunivers al
Ġsm oking
Ġ9 5
Ġbroad er
Ġprov ision
ĠT ed
Ġencoun ter
Ġbut t
F F
ĠC ro
Ġsmart phone
Ġdis order
min ute
Ġfl ags
ĠAm ong
Ġarg uing
Ġfor cing
Ġmaintain ed
Ġwe igh
omp son
Ġsure ly
Ġdead ly
k ing
" >
Ġsh ield
ĠDes ign
Ġre verse
6 00
Ġmort g
Ġcivil ian
Ġf ool
Ġsecond ary
Ġwealth y
Ġquestion ed
Ġp ig
Ġann iversary
ĠViet nam
Ġt ens
ĠD O
Ġ ~
Ġrele ases
Ġtort ure
Ġsav ings
he ld
old s
Ġton ight
ĠLe ft
ir lf
ĠV ill
Ġun pre
Ġm os
ocol ate
Ġar bit
ĠW as
Ġs orts
ag a
ĠRub y
ĠH op
Ġroom s
irlf riend
Ġreve als
el son
Ġmin i
j ud
ĠPro p
Ġqu oted
Ġthreat ening
Dav id
b ow
Ġex ha
Ġse vent
ou ri
Ġl unch
ĠOb amacare
ĠEd ward
ten ance
Ġst ability
d ed
ĠG ulf
Ġround s
Ġsp ots
Ġdifferent ly
Ġ5 3
Ġsub mitted
Ġf ate
Ġout rage
ĠC ow
Ġst ored
Ġreform s
at ar
Ġo kay
Ġinstruct ions
af e
Ġwind ows
Ġprosecut ors
Ġpropag anda
Ġharass ment
Ġer rors
p ed
ar re
ĠGra ham
Ġrel ax
Ġf ur
ĠSar ah
bre ak
ht ml
Ġodd s
ĠBel g
Ġ199 2
Ġp icks
el a
ĠCar ter
Ġp uzz
Ġsil ence
ĠP A
Ġstre aming
in als
Ġafford able
Ġstrik ing
ĠH a
Ġde lic
vern ment
ĠOk lahoma
ĠBl oom
ĠWar ren
Ġgrad uate
ĠU r
Ġa er
Ġcomprehens ive
tr ans
ore t
Ġcooper ation
m ers
Ġass ass
av ed
ĠJer usalem
Ġstrugg led
ber ry
Ġf ing
Ġcirc le
or ious
Ġcere mony
Ġt ab
re ction
Ġposs ess
Ġimportant ly
Ġpers u
Ġse ar
ors hip
Ġland ing
7 3
Ġexec ution
Ġarchitect ure
d on
ĠB ra
Ġdemonst rate
ĠC ry
ĠLiber al
Ġcal m
ail ed
Ġhealth care
ĠL t
Ġassum ed
Ġm ac
ĠPr ice
m ans
l ined
Ġrook ie
Ġste pped
Ġag es
S E
Ġc ow
Ġdes erve
ĠH on
as ury
Re uters
it ary
ent er
Ġint im
w alk
Ġadv enture
Ġdist ingu
Ġb orders
Ġg ent
ĠLe ader
Ġpoint ing
Ġal ter
ĠMag ic
Ġpr on
Ġconsider ation
Ġtrem end
Ġaward ed
m ind
Ġh al
ĠP erson
Ġdri ves
Ġdial ogue
Ġd ying
ĠSil ver
Ġhy dro
Ġgreat ly
Ġw aves
a is
ĠScott ish
Ġproced ure
cept ions
Ġnewslet ter
se ct
Ġche st
Ġrepe at
ĠMean while
Ġprecise ly
Ġb irds
Ġprom ising
Ġkil omet
e als
Ġb urning
Ġwant ing
AN D
ish op
ĠV ice
Ġanaly st
Ġdifficult y
Ġcons ent
ĠM ORE
Ġdon ations
Ġaut onom
Ġexecut ives
Ġcont ribution
Ġhighlight s
Ġplayoff s
H T
Ġbi as
es see
om ed
C O
Ġinter f
ĠSt ory
it ter
ĠComm on
ier ce
Ġg if
Ġkn ee
Ġsim ultane
act s
ĠEx pl
ĠR un
Ġvo ices
ĠSy dney
w as
Ġinf o
Ġtr illion
Ġfrequ ency
Ġimpl ications
Ġwhere as
row s
ĠB ud
as ant
ĠPalestin ians
ater n
Ġsm ile
ĠK ar
ĠBer lin
ĠInd ust
Ġstay ing
Ġremark able
Ġform ation
ap olis
ah u
ĠJon athan
Ġfollow ers
ic ism
ut en
Ġinc hes
ĠNet flix
ĠW olf
rib utes
a fter
Ġass igned
ĠS ab
all ing
ĠM ain
Ġjud gment
Ġstrateg ies
Ġemer ging
ig ious
scrib e
D em
hold ers
Ġt iss
Ġcontact ed
ĠDe b
Ġcateg ories
Ġsem i
it ual
Ġf et
port ation
Ġsuper ior
Ġaccess ible
part y
W atch
ĠL ink
ĠH ong
ĠT en
d iv
Ġphys ically
ĠBru ce
S L
Ġop ens
it ol
Ġman aging
Ġcent uries
Ġindic ates
vertise ments
Ġcre am
Ġgu idelines
ĠY emen
ĠE ff
Ġcr imin
Ġgr ade
ĠCap ital
Ġclot hing
ra ig
Ġmeaning ful
Ġst em
ĠBre xit
b ered
ĠTe le
ĠAff airs
âĢĶâĢĶ âĢĶâĢĶ
Ġâ ĪĴ
ĠAr k
Ġdefe ated
Ġg ross
Ġmarg in
ĠA k
S im
Ġw ounded
Ġspe ll
iff s
Ġr iding
ik i
h ar
Ġmin istry
e le
ĠTe ch
ĠSt ore
et he
Ġ5 4
h att
Ġtri als
Ġthe ories
ced ented
c est
Ġpass age
ĠP res
Ġco inc
o is
Ġan s
ĠMr s
Ġe ase
Ġpo ison
Ġparticip ation
St ory
Ġ199 3
ĠS ix
Ġph arm
ĠHam ilton
Ġdisp ute
ĠC redit
Ġhost ed
ĠC helsea
â ĸ
Ġbl ank
Go ogle
Ġag ed
Ġdam aged
ĠInst agram
Ġinvest ments
Ġrec ipe
Ġ19 50
st al
Ġcompet ing
Ġb in
Ġfac ilit
Ġcust ody
Ġpromot ing
p a
C omp
ann on
Ġclin ical
Ġl apt
is a
ĠH old
Ġsubst ance
Ġdr one
Ġ1 20
Ġmem ories
a uthor
Ġre vers
Ġaddress es
y es
Ġopen ly
ere my
Ġn ic
st ep
Ġmiss ions
Ġleg ally
ĠG T
ĠS om
ĠT es
ĠTr ade
Ġsuspect s
Ġend orse
v ision
o ice
ig ate
um ble
Ġelig ible
Ġ2 50
Ġeduc ational
Ġdis h
Ġcons ensus
Ġstud ying
Ġmem o
8 4
Ġd ating
ie v
Ġchar ity
Ġt ables
Ġins pect
ĠCr ime
b ury
Ġfoss il
e ven
ĠV ik
r if
Ġspect rum
ĠChild ren
Ġt ired
Ġathlet es
Ġman ifest
Ġbatt les
ar ation
Ġn in
ag h
Ġenthus i
ĠLe on
ri ors
ĠAs sembly
Ġtherap y
Ġcounter part
ĠSt ation
ĠMan agement
Ch rist
b its
op en
ch ild
Ġg ate
ĠA z
j i
ĠSe an
Ġbe ings
Ġdisc ount
Ġpresent ation
V D
Ġhe lic
Ġdomin ant
te l
er ia
O K
Ġdiscuss ing
ĠF al
Ġenh ance
Ġburd en
Ġper ceived
Ġstop s
Ġunder lying
ĠHaw ai
ĠP ict
Ġl ux
8 3
con st
Ġmus cle
Ġdef ending
s es
Ġexpand ing
Ġback ing
Ñ ģ
le ft
ater al
Ġfund ra
yl um
Ġpick ing
se ction
ĠTh rough
Ġbot tle
Ġman agers
Ġrac ing
ge red
ĠEx per
Ġm ood
ere nt
ass y
it udes
ĠF estival
ond er
we ek
Ġproced ures
Ġh ip
Ġv ig
Ġcreat ures
Ġpoll ution
Ġhop efully
Ġtrans action
ĠG ary
Ġt ap
h ard
ĠLib ya
m ath
le e
M s
Ġrequire ment
ĠU ber
Ġp ocket
Ġrec re
Ġcr us
H z
ĠMar x
Ġinst itution
Ġst ere
ĠE qu
Ġorgan ic
Ġimp ression
Ġarri val
E l
Ġscr ut
ĠL am
ĠE th
Ġn a
is k
Ġgather ing
Ġpunish ment
ĠOak land
or able
ĠC S
Ġro y
Ġtim ing
ĠW ales
land o
ĠV ideo
Ġgl ad
ĠEl izabeth
Ġe ager
Ġindust ries
ĠD er
Ġcomp at
ĠRep resent
ĠT ok
Ġsurv iv
ik a
Ġunf air
Ġsh ipping
it ure
Ġdise ases
b ase
om y
Ġins ult
ĠT ai
Ġfood s
- >
ĠM it
Ġshe ll
Ġcapital ism
al ysis
Ġkit chen
ac hel
ĠPent agon
Ġb owl
ĠB oe
Ġmod ule
ĠAnd re
Ġdiv or
Ġn erv
Ġcoach ing
ang le
**** ****
igen ous
ĠAss ad
v an
Ġhelic op
Ġfl ed
mark et
Ġregul atory
Ġh ire
ĠMor gan
od ox
Ġm ice
miss ions
Ġstat ist
Ġ5 6
Ġexpl aining
alt ies
Ġbe ating
8 1
ĠO p
Ġvar iable
Ġbe ach
ĠK ick
ĠY eah
Ġgraph ics
Ġob sc
ĠM etro
Ġ( "
Ġso vere
8 2
ĠC reat
Ġst ance
Ġengine ers
Ġt ons
M us
Ġb ow
Ġhosp itals
ag ger
Ġter r
Ġse ed
ad ers
Ġsign ature
Ġrhet oric
ab et
ĠS on
ĠCome y
Ġacknow ledge
ĠBat man
cos ystem
ĠEm ail
ative ly
am ous
opy right
play er
Ġprincip al
Ġover come
Ġpull ing
ĠKe ep
ĠTh ompson
Ġint r
Ġconv ince
N S
Ġs ed
Ġans wered
Ġt ut
I nt
Ġsearch ing
Ġtrend s
Ġinter action
Ġpsych ological
Ġmer ch
ĠRus sell
Ġsix th
ĠMic hel
G A
T P
ol ving
ĠMur ray
ĠM ess
Ġd ies
Ġadv iser
ĠUs ing
ĠF riend
Ġperiod s
Ġ199 1
ar ia
Ġe cho
Ġprefer red
b ing
u h
ĠEx ecutive
ĠCharl ie
iz er
ĠML S
ak h
Ġ !
ĠS ure
Ġline up
i ac
ĠKent ucky
ol ar
ri x
Ġbill ions
Ġsign als
ĠB al
Ġl oves
ĠR oll
em ic
ĠTenn essee
ac her
Ġrequ iring
ĠJ ean
f r
og y
Ġsent enced
F inally
Ġ5 9
Ġreb els
Ġevery day
Ġweak ness
Ġeconom ics
Ġp ill
Ġbad ly
Ġout lets
Ġinv asion
ol n
ĠH oll
ri or
Ġgen es
net ic
Ġcommand er
C lick
Ġpart ly
Ġm ath
Ġunder t
Ġrem oval
ĠY an
Ġre nd
Ġset up
Ġtop ics
Ġam endment
j s
ĠO x
ĠDel hi
e en
unicip al
oc a
Ġinqu iry
Ġtwe ets
ĠH art
Ġse gment
oc ial
ĠG il
br id
Ġb old
Ġcompens ation
Ġfab ric
Ġegg s
Ġg ene
ĠB i
Ġconcept s
Ġse ctions
ĠR ather
Ġtem por
Ġar ts
Ġu pload
Ġbul let
ts burgh
Ġinst ant
enez uel
Ġesc al
Ġ ).
ro ph
Ġattract ive
Ġm igrants
Ġar r
Ġblock chain
E arlier
Ġut ility
Ġfrequ ent
N BC
Ġspeak er
F O
Ġocc urs
T ER
A ct
Ġc iting
Ġsh oes
** *
in stein
Ġcar ries
Ġpost ing
Ġtal ented
ĠCl ark
ĠF inally
Ġengine er
li est
Ġro lling
Ġridic ulous
ĠB ox
ĠI ron
20 13
ĠS ound
aren cy
Ġelimin ate
O ut
ĠThere fore
ĠInte l
Ġnot able
Ġun ve
iz za
Ġcor rupt
P re
R em
Ġcl er
Ġdead line
Ġg ig
Ġl ad
Ġappro aches
Ġle ct
ne cess
Ġcoll aps
Ġgen re
Ġm ask
ĠF inal
ĠPh ill
Ġinst ances
Ġunpre cedented
Ġpri ze
Ġmain tenance
Ġanaly sts
Ġc ens
Ġs its
M ich
p g
gr ade
Ġins ight
ĠDr agon
ĠE T
ĠSim on
Ġe lder
ak i
Ġdram atically
Ġtox ic
Ġcol our
ĠPh oenix
Ġneighb ors
Ġb ene
Ġpubl ishing
Ġhom osexual
Ġro ots
Ġr h
w atch
Ġcollabor ation
Ġper ception
ĠWhe ther
Ġf o
Ġinterview ed
Ġc ock
ĠHe art
Ġtown s
Ġdi am
Ġassoci ate
Ġencour aging
s l
Ġdeploy ed
g us
Ġse ized
ent al
C al
ĠBel ow
ib an
Ġche aper
ĠHar per
ĠE vent
Ġcamp s
ĠG ordon
Ġconstit u
x x
ĠPri v
row ing
ĠZ e
Ġshe et
Ġviol ations
} }
Ġinequ ality
ĠL i
Ġemploy ers
Ġres erved
ĠCap tain
ke e
sc reen
âĢ Ĳ
Ġextra ordinary
Ġd reams
Ġar c
Ġmyster y
Ġcom ics
is dom
D ef
s a
Ġlo op
d y
Ġex port
Ġdisplay ed
ĠB M
ĠMc K
Ġoccas ionally
v ia
ĠG O
Ġaim s
Ġpar ad
Ġprom pted
Ġfunction al
ĠP sych
Ġbu ck
A F
ĠS a
Ġg est
Ġhero es
ĠRe agan
Ġtr aged
Ġde light
ap ore
ĠEconom ic
Ġcou p
ixt ure
Ġcontem porary
ĠS av
ric ane
Ġfat al
Ġv end
Ġinter pre
che ck
Ġin du
Ġcorrect ly
Ġexc lud
est yle
Ġe cosystem
Ġprospect s
ĠCo le
ĠB ow
T op
Ġmanufacture rs
Ġad equ
est ed
ĠG DP
en ess
Ġbirth day
ĠA ccess
Ġdemand ed
Ġn ose
Ġrecommend ations
Ġmoder ate
ĠL ibrary
Ġple ased
Ġdisappoint ed
Ġcogn itive
ĠRes erve
ĠJ enn
ĠBrook lyn
igh th
Ġconst itution
ĠAnton io
Ġaccomp an
Ġparalle l
Ġdiplom atic
Ġmod ified
Ġlab our
Ġkn ock
ĠSt aff
ĠG ro
w ill
Ġfight s
Ġcommunic ate
E X
Ġwedd ing
m ic
Ġkick ed
A Y
ĠE PA
Ġlif etime
Ġbi ological
Ġrep air
AL L
ĠMont real
ot ing
ĠD ick
Ġ5 7
P aul
s ub
Ġrepresent ation
Ġrel ation
ĠO cean
Ġartific ial
Ġconscious ness
Ġsp an
re ll
Ġland ed
le ans
Ġown s
ĠOr der
Ġs essions
Ġl ift
ĠAuthor ity
V P
ĠE ver
ĠDig ital
Ġ5 8
Ġless ons
ĠG iven
Ġexplos ion
ĠT ax
ĠCh annel
Ġpod cast
Ġconcer ning
Ġsub sc
it o
Ġadop t
ĠCon vention
Ġdef ender
Ġdesign er
Ġst amp
Ġmaintain ing
Ġdr unk
Ġgu ests
ĠD og
Ġche ese
": "
Ġemot ions
Ġh anging
end ar
Ġp unch
Ġ8 5
ĠPhot os
ĠP ers
Ġcreat ure
Ġpregn ant
T y
Ġsh irt
Ġimp osed
ĠAn na
Ġan onymous
Th anks
o z
Ġres olve
Ġless on
Ġsh ocked
Ġinte llig
Ġvolunte ers
Ġs li
Ġopp ose
Ġsum mit
Ġperform ances
arg et
Ġv ocal
ail able
Ġcou ples
ĠProte ction
Ġg irlfriend
Re g
Ġingred ients
ĠL ear
ĠAl an
ĠR ome
p ack
ĠE st
ĠAr gent
ĠF ive
ĠKh an
Ġinter ior
ĠJava Script
Ġrec on
Ġsold ier
) <|
Ġp a
Ġab stract
Ġjump ed
ult y
Ġann oy
C omm
app ropri
ov a
m ir
Ġm ile
Ġem p
is ition
ĠB urn
Ġstim ul
Ġdesk top
ix on
Ġacc um
Ġgu id
Ġn urs
og a
Ġunder ground
Ġref ers
inc oln
2 50
Ã ±
Ġir re
el ing
Ġlog o
ll y
on z
Inst ead
? ?
ĠB ol
ac re
Ġfor um
bour ne
Ġopp osing
Ġj ihad
Ġtravel ing
Ġisol ated
Ġs wit
Ġbut ter
Ġprofession als
ĠC ase
Ġmilit ants
ist ant
Ġadvoc ate
f it
h as
Ġst ack
Ġrec alled
Ġconf used
Ġdescrib ing
ĠOr leans
Ġconfig uration
Ġexist ed
h uman
Ġst ro
Ġmin imal
ac les
Ġp m
ch ing
th rop
ĠInd ones
Ġbox es
20 17
Ġ6 00
ĠMiss ouri
9 6
ĠC B
own ed
ĠD ur
Ġintegr ity
V iew
s ome
tain ment
Ġintegr ation
d s
Ġpeace ful
F i
Ġ198 9
ĠR s
W he
g ets
ĠL im
hatt an
Ġsurround ed
Ġl ibr
ear ly
Ġass et
St ation
ĠB ul
ĠCo al
Ġat he
Ġide ology
Ġb ands
Ġcl ip
w ed
ĠNev ada
new s
ĠC ustom
Ġinspir ation
G e
st arter
ĠS D
Ġsub ur
Is rael
Ġsil ent
Ġcred its
Ġteam mates
ĠF ant
Ġexp ense
Ġbur ied
Ġin herent
Ġh oles
Ġd ual
Ġsusp ic
Ġme al
ial s
ĠCap itol
ĠMar ine
Ġs ne
c re
Ġregist ration
ĠE ve
ol i
Ġfle et
Ġsc ream
ĠK now
Ġdesper ate
ĠDo ctor
Ġcho osing
od ge
ĠTr ust
ast ing
ĠHit ler
T ON
ĠBar b
ad i
aw ks
gr aph
Ġte eth
Ġelect oral
ĠOr lando
ĠM ail
ĠW ord
Ġy ell
Ġkey board
Ġsubscrib e
Up date
Ġaccept able
Ġgu ards
9 8
St ate
ĠAre a
ĠPlay er
Ġan cest
im ize
Ġcon vert
ĠLe ban
c or
ump h
Ġref erences
Ġexp enses
Ġbrut al
ĠP age
Ġmoment um
S C
ĠH an
Ġwond ering
M ark
Ġstrugg les
Ġ vert
Ġbom bs
ĠÂ ±
M od
Ġpro be
Ġpromot ion
Ġrefuge e
ĠSte el
Ġqu it
ĠAr senal
Spe aking
e lection
Ġkn ife
ĠO cc
Ġbank rupt
Ġev ident
Ġorgan isation
Ġmon ster
Ġjournal ism
b in
Ġsubsequ ently
P L
Ġut ter
Ð¾ Ð
Ġor bit
ĠM ove
Ġsc ar
Ġoccas ional
ĠAll iance
Ġclos est
h ist
Ġembr ace
ĠOn line
Ġdistrict s
us er
Ġj er
Ġinterpret ation
ĠFollow ing
Ġb ird
Ġas sembly
ĠB u
m its
ĠH al
Ġrem oving
ĠPit tsburgh
Ġy eah
ro ck
Ġprof ound
ĠV enezuel
Ġcomprom ise
ĠW right
Ġst ating
Ne xt
to o
Ġl obb
Ġsurv ived
Ġexclus ively
ĠPort ug
che ll
Ġdom inated
G ener
ĠH amp
Ste p
he ro
g al
Ġconsider able
Ġth ro
ĠS U
ĠC ould
ĠW rit
Ġpr ide
Ġnerv ous
Ġeng aging
w ind
Ġref use
ib l
Ġsustain able
Ġtremend ous
Ġload ed
Ġjust ify
f ather
Ġcharacter istics
Ġbrief ly
ows ki
Ġmin isters
20 12
ĠInd ependent
ĠH and
Ġexecut ed
Ġmathem at
Ġrout es
Ġas ylum
ĠH u
com mun
âĢ¦ .
ĠMount ain
at us
Ġsex ually
Ġdisapp ear
ĠN azi
i ens
ĠN on
ars on
ol s
ĠS ource
Ġcont rary
at tered
1 50
h ire
ĠEvery one
Ġ7 2
Ġconf usion
Ġh arsh
str ong
ĠA aron
Ġpro portion
C D
orne ys
Ġgame play
Ġg ri
Ġcur ious
ip edia
ag en
( "
ĠTre asury
Ġch ip
Ġphys ics
Ġfle e
Ġsoph istic
ik h
ĠTal iban
Th ank
Ġatt ending
Ġch ronic
is d
gr ad
Ġdon ors
Ġl in
Ġpro st
e xt
ĠiP ad
Ġconcer t
Ġp ir
Ġfl our
book s
Ġnow here
ĠAnd y
Ġspeak ers
T R
Ġrevolution ary
Ġout comes
oc ated
Ġ8 00
Ġprint ed
Ġcharg ing
Ġelect ron
ĠV en
lim ited
Ġeng ines
g ate
st op
ĠRob inson
li hood
ok er
ĠP y
ĠH aving
ĠOff icer
ĠR est
Ġcert ific
Ġstead y
Ġv oid
Ġpass enger
He y
Ġstreng then
ubl ished
Ġfail s
ĠF A
ĠA ren
Ġcrimin als
Sh are
Ġde emed
ĠSh ort
ĠMan hattan
ĠSher iff
inc ome
ĠTes la
ĠD ream
th ood
Ġc abinet
b ound
ĠM un
Ġrob ust
Ġcheck ing
sec urity
Ġbr ands
ĠB an
Ġspec ulation
. ]
ur se
ĠI M
ĠCur rent
Ġmir ror
Ġh iring
Ġdro pping
el ve
ĠSing apore
Ġend ors
ĠGi ants
Ġsp o
Ġchalleng ed
Ġintegr ated
t ra
Ġo rient
im mer
ĠK ings
ĠG ib
Ġpat ent
ast ed
ĠR ou
Ġrad iation
Ġbacter ia
ĠJ un
Ġsusp ension
Ġav o
ĠAd ams
f unction
Ġvari ables
Ġguarante ed
Ġhun ting
Ġeng agement
D is
Ġbomb ing
Ġcha os
mer ce
Ġsl ot
sc ar
ĠD uke
ĠNet her
Ġep ic
Ġpack ages
Ġle aked
ĠCh ange
Ġwitness es
Ġb its
Ġrec overed
ĠC raig
ĠL ater
ut ter
Ġpres ents
Ġf ert
Ġple asure
Ġpack ed
Ġdevelop ments
Ġpat ri
Ġdef ended
ist le
Ġl os
Ġprodu ces
Ġal ert
ĠJ eremy
re ck
ree k
ĠA lp
Ġtaxp ayers
Ġbo om
Ġattract ed
Ġw et
res hold
ĠR aj
ot te
Ġfig ured
Ġhost s
ĠUS B
ĠH ung
Ġexam ine
ĠPer ry
ĠEnter tainment
ĠSp ir
H P
Ġf el
Ġedit orial
Ġresearc her
ĠS E
m ble
Ġall iance
Ġsimultane ously
ĠT el
ĠN orm
ab e
ĠRuss ians
Ġblock ing
Ġcap s
wh ite
ing e
AR T
ĠP ant
ate ful
ĠB and
Ġem bed
ĠN one
ĠStud ies
Ġc inem
am ine
iz arre
Ġburn ed
ĠR angers
ĠC ON
Ġd a
ĠH oly
Q L
Ġcor rel
Ġaccur acy
T ime
9 2
Ġo xy
Ġimpact s
Ġqual ified
ment ed
Ġv it
c al
Ġsol o
Ġt ear
ol id
Ġj unior
Ġfl ights
l u
Ġpubl ish
Ġen act
ĠMP s
Ġdist ribut
Ġ6 2
Ġra ises
Ġsurprising ly
secut ive
ĠF uture
G u
r ition
Ġev olved
ĠL incoln
A B
Ġang le
Ġfing ers
ĠChair man
Ġdecre ase
Ġexpect s
ades h
ĠPol and
i ated
T E
Ġun necess
ĠV lad
Ġmet h
Ġfl av
Ġas semb
Ġident ical
Ġen abled
ĠT ower
ĠSte wart
ĠUkrain ian
Ġcourt esy
Ġagree ments
Ġbl amed
Ġb arg
le ep
ĠGr iff
app er
Ġtransfer red
Ġv ent
ress ing
Ġev ac
Ġexpect ing
ĠEd ition
Ġdepend ent
Ġv oc
r ics
Ġproduct ive
b en
Ġdepart ure
ĠMiss iss
ĠH IV
ĠW ould
lyn n
ethe less
ĠS ci
Ġacc ord
Ġintim id
Ġbre ast
9 3
g ly
Ġrest ore
B N
Ġrepe al
ĠL og
ĠC PU
Ġforg otten
Ġcrit eria
Ġfl avor
Ġoccup ied
Ġv enture
Ġr ic
Ġsh ops
Ġsc ared
ah oo
Ġant ib
Ġl ane
7 00
Ġalgorith m
an im
Ġ6 6
on ed
Ġconflic ts
gg ed
Ġpromot ed
Ġinflu enced
ĠL es
Ġvis its
Ġign or
ar o
v ation
ĠG ill
Ġconcent ration
ard o
Ġback s
Ñ Ģ
Ġfunction ality
ĠM ult
Ġmotiv ated
Ġprivile ge
Ġo ught
Ġin her
ou b
ĠComm and
ĠU b
ter ror
Ġkill er
Ġbab ies
ĠO pp
Ġt anks
Ġcheck ed
im ir
th odox
ĠO R
ĠTh ink
Ġstri p
Ġnation wide
Ġ `
ĠK it
Ġcour age
c ap
Ġtele phone
Ġrele asing
Ġoccas ion
ĠRed dit
Ġre ass
Ġcy cl
le ted
ĠD ak
Ġorgan is
Ġexplicit ly
ĠT otal
Ġanal ys
ĠTh ings
ut er
Ġst ats
g ood
Ġhousehold s
ick ed
is hers
ER E
ĠSh ould
Ġrank ing
Ġimp rison
Ġentr ance
ĠWar ner
oph ob
look ing
Ġanim ation
d ict
olit ical
Ġtrail er
Ġmet ers
Ġst atic
ĠStand ard
am ents
Ġsen ators
Ġres erv
Ġpain ting
ĠPl ace
Ġinvestig ated
w ich
d ep
K E
ern and
Ġform ula
For mer
ĠMore over
Ġb ases
ag ine
Ġsub tle
u ating
ĠMod el
Ġh ub
ond uct
ĠJer ry
ĠSupp ort
ĠChrist opher
Ġw ise
ipp i
R ight
if ier
Ġtow er
ĠQue ens
ĠCanad ians
ĠPro duct
ĠH ug
Ġprov ider
l arge
Ġbel t
Ġimm une
re nd
Ġbat ter
AT CH
Ġuncertain ty
Ġinvest ed
ĠP ope
le ading
Ġoper ator
Ġappl ies
b ian
Ġprov isions
v as
ĠEgypt ian
Ġmod est
Ġinflu ential
ul se
Ġover l
Ġsc rew
ĠW i
ĠAl aska
Ġdes p
Ġinfect ion
ĠN iger
Ġsole ly
Ġdest ination
ĠN i
om ic
Ġins ist
Ġsing er
Ġinev itable
P al
Ġin aug
Th ree
Ġall y
ĠC C
ĠB or
ĠPlay Station
ĠC old
Ġch ips
Ġtransp arency
in st
ĠR h
m ay
Ġpolit ician
s uch
ĠUn ivers
Ġd imin
Ġm art
op t
art ed
Ġbo ards
ĠG h
Ġin box
S U
ĠB C
un ity
Ġdis abled
Y eah
Ġuncom fort
Ġimp ressed
unt u
Ġlif estyle
ĠO il
ĠN O
Ġthe ft
Ġcol leg
J P
Ġhand led
bre aking
Ġhead lines
ĠCor p
Ġcontin u
9 7
ri ke
ĠJ ane
Ġball s
be ing
for ward
amp a
Ġsim ilarly
ach ment
oll ar
Ġregard ed
ĠD u
Ġphotograph s
ĠM ap
9 4
" ,"
Ġm ouse
ĠOlymp ics
ĠNether lands
u ccess
ĠOtt awa
ĠLouis iana
Ġg ym
ab out
Ġvol unt
el le
Ġsa ke
Ġ6 3
Ġl ens
Ġcon secutive
ĠE b
rif ice
Ġrel uct
Ġdet ention
ĠSt ock
Ġlaunch ing
ĠD rug
Ġke en
Tr ans
c itation
Ġprosecut or
iz ations
Ġoper ated
id en
ĠTre k
M AN
N et
ĠStan ley
Ġt ent
z one
ĠM other
w a
m illion
Ġfil ter
d r
Ġ< /
). [
Ġkid n
ĠUn like
Ġcontro ller
Ġprosec ution
ĠStan ford
off s
t own
Ġguid ance
il ation
Ġle an
Ġb ol
Ġk iss
bit ious
Ġmiss iles
Bl ack
A g
ou p
ĠCorpor ation
Ġconv iction
ĠPhilipp ines
Ġsu ck
Ob ama
Ġt ears
ĠN elson
ĠFore st
Ġro lled
Ġch ocolate
Ġtraged y
t arian
ie re
u z
ĠS N
o vers
ist ance
Ġb ags
Ġbul k
ĠH ans
Ġearth qu
Ġneighborhood s
on ing
th ur
S upp
ĠF O
Ġpres erve
Ġaccept ing
Ġbene ath
ar med
Ġabs urd
ĠCapt ion
id al
Ġun re
Ġparticip ating
Ġreflect s
ĠF ather
ĠS everal
? âĢĻ
in ite
Ġin ex
ĠM arg
F l
à ¤
ke ley
F urther
Ġj et
ass ion
Ġcompl ained
Ġ1 000
Ġle ak
Ġcompe lling
ur ches
Ġb other
I E
ll or
R ed
viron ments
Ġpo et
Ġexam ined
Ġdest ro
Ġlux ury
ĠHamp shire
h r
G r
ĠVictor ia
Ġen for
CA A
ĠS EC
Ġpost er
ĠTy pe
Ġrec k
Ġn u
ĠT able
ol as
Ġf its
eral d
l aim
Ġel abor
ĠBe ing
Ġpo lling
tr ack
Ġthe ater
ĠEd it
n an
Ġsy nd
ĠMedic are
ĠCl oud
ĠMedic aid
Ġsignific ance
Ġwire less
g ov
G ood
Ġreal istic
f ish
ĠGr ant
Ġback up
Ġshel ter
Ġoccas ions
Ġsto pping
Ġsee ks
ĠSnow den
l ink
Ġad ap
m ons
Ġass ists
Ġmand ate
Ġaccus ations
Ġm ales
Ġexc use
n ie
Ġa wards
Ġposs ibilities
Ġcons ists
Ġrese mb
ĠFl ash
Ġt ension
ĠB ir
? )
Ġb one
Ġfin ishing
ĠTok yo
D R
Ġjur isd
ĠMar c
Ġaccompan ied
ĠBl ood
Ġin hab
C or
Ġthe oret
Ġbet a
angu age
ust ing
ĠCh ampions
ĠMal ays
Am ong
Ġg arden
c ard
ĠT s
ry ing
G l
spe ed
Ġoper ators
ac o
ï ¼
Ġp ose
amb ling
Per haps
Ġd ressed
ĠT R
ix el
friend ly
C ar
ĠNot hing
E ach
ĠM orm
act or
Ġbeat en
Ġer u
ĠS ection
ĠFin ancial
ite ment
b at
ĠMod i
ĠP a
ĠIm m
Ġcook ing
Ġemphas is
i per
ĠAb u
Ġsust ained
B ook
Ġ3 60
Ġadv ent
ĠContin ue
Ġinnov ative
ĠK night
Ġsupposed ly
Ġne ur
ĠG ard
ous es
Ġproject ed
Ġaffect s
or ate
ĠFil m
Ġdr um
ĠP ear
boy s
ĠW inter
Ġprevent ing
Ġconstruct ed
ĠEvery thing
ĠOrgan ization
ĠQu est
ut her
Ġrec ession
Follow ing
Ġdocument ation
Ġpol ar
ĠHam as
ĠMar io
Ġb ump
ĠJim my
Ġout standing
ĠPatri ots
Ġlong time
Ġpass word
Ġtrad ed
9 1
k es
Ġfuck ing
Ġg ut
Ġent ity
ĠI V
ĠD E
Ġlay ers
âĢĿ )
Ġint rig
Ġdocument ed
Ġrenew able
Ã³ n
Ġman ual
Ġspeed s
ĠSc he
ĠN ich
Ġresident ial
ĠRub io
Ġspot ted
Ġw isdom
uck er
Ġreven ues
ber y
Ġsur ge
ĠN S
Ġf ed
ĠN ature
ĠV in
Ġold est
pp y
Ġmortg age
Ġoccup ation
v ol
Ġwal ks
w all
Ġpra ised
ĠS port
ĠW y
ĠComm ons
i ar
ĠCh ron
Ġdeal t
bl ock
D own
Ġcalcul ated
Ġfavour ite
Ġautom atic
ĠSte am
Ġaw ful
Ġinf ant
ĠL ocal
any ahu
Ġexperiment al
Ġmyster ious
Ġd irty
Ġco in
ĠKurd ish
Ġpan els
il st
Ġinteract ions
Ġg olf
ĠTh ird
Ġf er
f irst
d f
cent ury
ne g
ĠAir port
ra h
Ġtr ains
inc ial
Ġcop s
B el
ĠH ad
Ġcle ared
Ġreview ed
Ġf ut
ug by
ĠT am
Ġ6 1
Ä ĥ
Ġtiss ue
x ide
Ġt ale
b es
ĠC L
ĠOther s
Ġgraph ic
Ġliber ty
ĠD al
ĠP ython
Ġconven ient
Ġrob ots
Ġmother s
Ġgl obe
M B
olit an
ĠC R
ĠC itiz
Ġpain ful
Ġth reshold
Ġtri ps
ĠC as
ĠN ash
U C
ĠAb d
Ġcross ed
Ġ198 8
l ied
T O
Ġ6 7
Ġb icy
Ġdispl ays
L ist
Ġr anging
Ġam bitious
p ing
Ġicon ic
ĠWay ne
ĠM ind
Ġearn ings
ĠK r
Ġadminist rative
ĠL ad
ĠE mer
Ġcirc uit
com p
Ġen vironments
Ġsec ular
Ġhost ing
N ame
Ġ6 8
ĠCl imate
ard ed
Ġdes ert
Ġb izarre
Ġdrop s
Ġhe s
Ġthe r
ĠD a
Ġpred ec
Ġres erve
ect s
c ular
Ġp our
Ġconver ted
Ġcross ing
ĠRed s
Ġs ons
ch arg
Ġexplo it
Ġsent iment
th al
Ġr iders
Ġsafe ly
Ġdo ctr
sel ess
ĠK l
ĠMc Donald
r c
J o
ĠTr ue
Ġit er
ĠF le
? <|
ĠS oft
Ġsp ray
ĠA FP
ĠL arry
Ġl ady
Ġfil ing
Ġcreat or
r ons
Ġunf ortunately
c ott
Ġrestrict ed
ĠMur phy
Ġres ort
cel ona
Ch ina
Ġadop tion
Ġaddress ing
Ġh iding
Ġscrut iny
is ive
Ġp ension
Ġ= =
u ably
IL L
Ġw ore
ll i
Ġcontain er
ĠSum mer
Ġatt orneys
Ġdevast ating
Ġd uties
Ġpregn ancy
Ġarrest s
Ġan ch
n on
ĠF OR
ow der
Ġsleep ing
qu es
re qu
Ġnewslet ters
Ġavail ability
Ġappear ing
Ġbur st
er r
Ġwh is
Ġover night
ĠMad rid
j amin
Ġproduct ivity
Ġto ss
Ġcomb ine
be at
v ar
Ġre ign
w ords
ot ion
Ġlight ing
Ġdepart ments
ĠWh it
k ward
Ġre cept
sh ore
ĠMan ning
Ġmurd ered
Ġdisc rimin
ĠD rive
Ġcompet itors
Ġview ing
Ġreg ret
Ġindic ation
Ġlibr aries
ĠFurther more
â Ĥ¬
Ġal ign
Ġf ishing
Ġrel ie
ĠMag azine
st ra
Ġreflect ed
t wo
Ġnewsp apers
Ġuncomfort able
ĠDe an
Ã §
for mer
Ġt orn
Ġparam eters
Ġear ning
Ġm isc
te ch
Ġequ ipped
ĠP ir
D id
Ġbuild s
Ġhor rible
On ly
Ġchemical s
Ġt um
Ġpubl isher
Ġm unicipal
Ġv iable
Ġwin ners
ĠN ik
ĠM A
Ġsepar ated
Ġr itual
Ġact ed
g ence
n amed
ia h
Ġre wards
Ġcar rier
Ġ198 4
Ġrel atives
Ġpr icing
IC E
EM ENT
Ġfire arms
Ġdes erves
oy d
Ġmechan isms
Ġco ins
May be
Ġprepar ation
go vernment
ail ing
ĠDe ep
b ably
ĠS ac
Ġr ivals
Ġsl ide
ar ians
ph an
ĠRon ald
Ġsophistic ated
Ġ) ;
Ġlimit ations
ĠSing h
B r
ĠPh ys
Ġsuggest ions
Ġme ets
ac cept
Ġc ave
ĠF ig
om er
H A
u els
Ġco ord
Ġcomplex ity
ĠF ederation
ĠMississ ippi
ĠK a
ĠD omin
ari os
put er
ĠWik i
ĠTai wan
Ġm m
Ġdelay ed
Ġan onym
ight ing
Ġtou g
Ġamong st
Ġab und
ĠCh rome
ig e
ĠL uke
Ð ½
ĠColl ins
Ġcomm od
Ġexpl oring
ĠN ative
Ġpe er
k ind
Ġintellig ent
E m
20 11
Un fortunately
Ġquiet ly
Ġinter ven
Ġdet ained
ĠHT ML
Ġens uring
Ġnight s
i ors
ĠS in
Ġtransl ation
Ġdesign ated
ĠBl u
Ġcelebr ated
Ġ198 6
Ġstart up
win ning
Ġb ip
ern el
ĠQue bec
a very
v i
Ġdeliver ing
Ġcollect ing
Ġpled ge
Ġrad ar
Ġcur ve
Ġinstall ation
ĠB ah
Ġce ase
em it
ĠMcC on
prof ile
Ġcat ast
ell o
ĠE D
ĠD VD
ĠLe vel
Ġg host
vers ion
Ġcount less
Ġcomm ands
Ġthem es
Ġreb el
ĠS aint
Ġbe ef
Ġmean while
Ġbug s
Ġgold en
Ġpsych iat
Ġca ution
Ġgrad ually
Ġworld s
Ġor ange
Ã ¢
Ġm igration
Ġnot ably
Ġcour ses
M art
Ġwitness ed
Ġdeb ates
ĠMel bourne
ĠCoal ition
Ġcomment ary
s ize
ĠN az
Ġemploy er
Ġt u
ĠT an
Ġtable t
Ġann ually
ĠP oll
Ġt ends
Ġw rap
ĠIn n
les h
Ad vertisements
ĠEag les
DA Y
Ġp ending
âĢ ³
ĠCub a
Ġobserv ations
Ġdem o
Ġquestion ing
Ġviol ated
Ġoff season
Ġcont ents
ĠE nt
Ġpat rol
ist a
ir s
Ġto b
Ġf ires
Ġrepl acing
Ġdemonst ration
Ġsupp lement
ĠC rit
S D
Ġimp ose
c at
P s
Ġdiscipl ine
Ġfor b
Ġgr ants
n atural
Ġhighlight ed
Ġremem bered
ĠBl ake
or ia
Ġhapp iness
ĠE C
wit zer
ĠD isc
ell er
ĠBl ock
B ar
un a
Ġh unt
are r
ĠK al
arent ly
u ates
ĠSwed ish
Ġfrust ration
Ġse eds
ĠMarsh all
op les
Ġcor n
ĠPe ace
form ance
Ġexpl oration
ĠHe at
ag u
Ġbath room
Ġas pir
Ġgra ve
Ġven ue
ĠR ound
Ġpre view
Ġver ify
ĠS ex
ĠExp ress
Ġcom ed
ĠHun ter
Ġcru el
Ġpoor ly
Ġpr ayer
P I
Ġare na
qu er
Ġtechn ological
AT ED
Ã ¨
Ġact ress
Ġsuggest ion
Ġinst antly
ren cies
Ġalt ogether
c ount
or ical
/ .
ĠN ap
ĠKick starter
v o
B en
Ġper mitted
ĠAr ts
el come
ĠN CAA
ĠL ady
ĠF R
Ġpart ially
d ata
Ġprevent ed
Ġf urn
Ġcult iv
ude au
Ġcon ced
p in
Ġincor rect
Ġs izes
Ġlapt op
Ġvacc ine
roduct ive
om ach
Ġlog ical
Mich ael
Ġamb assador
Ġst arter
. ),
Ġprotect ions
ĠW ard
ĠM and
Ġpra ise
Ġoxy gen
Ġplan es
ĠRog er
Ġgent le
AS H
ĠO w
Ġfasc inating
TH E
Ġagric ulture
Ġdeleg ates
Ġdisapp eared
ĠPro gress
Ġbond s
b urn
en cer
ĠMit chell
ĠAdd itionally
Ġfle w
is ode
ur ities
ut o
ĠFer gus
ĠF I
Ġsupp orter
Ġadv ised
ĠCamp bell
Ġw ound
appropri ate
ĠBer keley
Ġch amber
Sec ond
d ev
ĠH uff
Ġsing ing
em in
ĠL ions
out ing
ath on
Ġdr inks
ĠChristian ity
N D
ĠEnvironment al
es ides
ĠT oy
AT ION
Ġal ike
Ġsum mary
ĠM uch
Ġmet aph
---------------- ----------------
Ġmarg inal
ĠHawai i
Ġtrans mission
Ġenter prise
Ġ7 6
Ġhonest ly
ĠFor ces
ĠQ ual
at ter
ĠCongress ional
Ġpro l
Ġto ll
Ġun l
Ġcomp r
Ġreact ions
ĠSpe aker
Ġsevent h
Ġc ous
Ġheart s
ĠH ann
The ir
Ġeth ics
Ġsty les
ĠB ab
ĠJ ess
ĠG ene
ĠJ en
Ġce iling
ra it
Ġpar ks
Ġst unning
Ġad j
ĠMot or
Rep ublic
anc hes
Ġfac ulty
au cus
Ġst ressed
ĠT odd
ĠMan ager
Ġha z
st ring
Le aks
ĠP el
Che ck
ier re
ĠOr ange
ĠVlad imir
Ġcap ability
Ġder ived
Ġp owered
u i
Ġd il
Ġelect rical
ĠSm art
Ġm akers
ĠWat son
Ġra id
Ġdam n
o op
ĠSt orm
ĠAren a
Ġappoint ment
Wh ite
Ġtravel ed
T witter
Ġmount ains
Ġpros per
ĠL en
ond a
oc ur
Ġend less
Ġess ay
ĠL aur
Ġarg uably
ay a
ĠAm b
Ġdraft ed
ĠEd itor
ĠCor ps
Ġtob acco
Ġwe aken
Ġcompl ain
c ode
g ments
Ġceleb ration
Ġapp lying
ĠP od
ĠR T
Ġsac rifice
Ġin eff
b et
Ġbre ach
pl ing
Ġadvoc acy
ĠU I
Ġmechan ics
Ġc rown
Ġpress ing
Ġep id
Ġsk et
ĠCommission er
arm a
ĠS essions
ĠF lynn
ĠBr us
Ġaw kward
ĠRe id
Ġshoot er
med ia
ĠIm p
m id
Ġfr act
witzer land
Ġbuy ers
Ġaccompl ished
ĠR ow
r in
Ġbub ble
S everal
ĠB enn
Ġs od
ers ion
Ġhost ile
ĠN ame
Ġdev oted
ĠBe at
Ġdep os
Ġt ar
ĠB aker
olog ically
ĠOx ford
Ġexpert ise
ru p
Ġstrong est
Ġr ice
Ġg reet
al id
ĠCh all
fl ow
Ġas h
Ġassum ption
Ġc ats
ĠN a
Ġreveal ing
Ġbu nd
Ġaud iences
Ġcomput ing
hand ed
Ġacqu isition
Ġrespect ive
ĠG ab
Ġpen alties
ĠA y
Ġfocus es
Ġcal endar
ĠMedic ine
ug s
ĠR ap
Ġconfirm ation
Ġl one
ĠPark er
Ġconclus ions
augh ters
ĠK u
ĠMod ern
W ar
T IS
Ġsh ocking
Ġunnecess ary
W orld
Ġdirect ors
ag raph
Ġcitizens hip
Ġcirc les
Ġline back
uer to
writ ten
Ġsp y
Ġsw ord
ĠLaw rence
Ġdr ones
at oes
tt es
Ġscr atch
H ave
Ġl ung
lect ed
ĠMor ris
Ġfr ank
ĠTem ple
ĠBar celona
li ver
T ake
Ġquant um
ĠV ar
Ġcomp osition
ĠRec ords
Ġtr ucks
ue z
ĠG re
Ġent ities
Ġpartic les
Ġl yr
Ġhistor ically
M edia
Ġsa uce
um ing
ĠInd ians
P at
Ġcontribut ing
Ġlong est
ĠDak ota
at al
Ġy ard
Ġqual ify
g ary
ip her
Ġbe ars
ĠM as
G iven
Ġrespond ing
ch ron
w id
D E
Ġmotiv ation
Ġfrust rated
Ġpl acing
ĠD ate
by n
Ġbound aries
h alf
Ġsh ake
PD ATE
Ġunderstand s
ĠFergus on
ĠLeg isl
Ġbit ter
ond s
h ill
Ġfemin ist
Ġgro cer
Ġadd iction
Ġconvers ion
ĠSaf ety
Ġ198 7
Ġd uration
ĠF CC
Ġcoordin ator
Ġoper ates
Ġ197 9
Ġst ir
ĠRes p
ĠNet anyahu
Ġinter rupt
Ġpri est
t it
ĠHot el
Ġovers ight
Ġhack ing
Ġfast est
form ed
Ġad vertisement
ĠJac ob
Ġdec or
Ġorient ation
Ġprob ability
sh ot
d am
it ivity
ĠSw iss
M on
Ġdist ant
Ġst un
Ġd ensity
g roup
m are
ĠD or
ĠR oc
p iece
and ed
Ġdirect ions
ĠB E
Ġcontro lling
Ġu gly
Ġpain ted
ult s
m ap
? '
lim inary
Ġtun nel
ĠI an
p ot
Ġped est
Ġconserv ation
v ious
ĠK y
Ġv ague
Ġexperien cing
f i
Ġprot otype
bor ne
st art
Ġn ode
ĠH end
Ġsaf er
mind ed
Ġrece ives
out heast
b ie
Ġilleg ally
iv an
Ġspace craft
Ġint ensity
Ġm ild
Ġtrans formation
ore r
ab ling
ĠHis pan
ĠU C
Ġd ign
ro t
ĠY ang
ĠAbb ott
Ġg aining
Ġsent ences
ĠF ind
ĠF if
ĠBloom berg
ĠAgain st
ĠP rom
ĠH us
Ġcondem ned
Ġt ill
ĠMc M
Ġpop ul
Ġ198 5
Ġdiv ide
Ġst omach
ĠRem ember
Ġcomp osed
st orm
Ġemer ge
Ġenjoy ing
spe cific
Ġachieve ment
m atic
le ments
20 10
ĠB uilding
ac ular
Ġagric ultural
com ed
Ġmand atory
F igure
ĠS ud
Ġprint ing
Ġbal anced
Ġhe aven
Ġaccept ance
im s
Ġcount ies
Ġdist inction
o ard
Ġw ings
Ġsup rem
Ġp ink
Ġp ione
ĠS ide
oc us
Ġtou ched
ac ies
Ġscen arios
Ġc am
ĠR ice
ĠT ampa
Ġp ays
ĠS ong
Ġto ile
ĠÂ ©
Ġsc ary
it ate
ĠK as
ĠR ain
Ġover d
ĠEv ans
Ġins ane
w estern
Ġt une
Ġimper ial
Ġinvest ing
Ġres idence
Ġinf ring
Ġide ological
on ia
Ġiniti atives
Ġconst rain
abet es
Ġmanufacture r
Ġoper ational
ĠTe a
Ġrot ation
H ist
Ġpe ers
Ġpress ed
Ġser ial
Ġnon profit
Ġexch anges
Ġm ic
oty pes
Ġtreat ing
Ġf illing
Ġanim ated
F S
ĠBl og
Ġrespect ed
Ġacqu ire
Ġc ake
ĠD J
Ġexplos ive
ĠCo hen
ĠA wards
m other
Ġl anes
Ġz omb
Ġcomple tion
ĠC os
Ġsl avery
UT ERS
s upp
Ġprior ities
] <|
idd ing
D C
Ġhigh way
bo ards
Ġ6 9
am an
ĠB eng
at re
umb led
abb ing
â Ħ
n or
Â Ķ
Ġan arch
ĠL ie
ĠLa ure
er ving
Ġal arm
ĠBen jamin
ĠR io
Ġcrop s
or ient
ĠS aints
f ile
Ġdifficult ies
st an
Ġinc omp
Ġres erves
Ġch urches
Ġp or
Ġe ars
ĠSte in
Ġappro ve
ĠE lection
Ġparticip ated
in itely
Ġfree ly
Ġqu otes
ĠCent ury
ortun ate
ĠD raft
ĠCh ance
ĠC a
ĠBr andon
ĠAr ctic
Ġform ally
Ġtut orial
s ur
Ġsh orter
b ecause
E ng
Ġmechan ical
Ġsubsid ies
Ġb ones
Â ·
Ġres igned
z es
at in
( );
b u
Ġdiscl osure
Ġcle ver
Ġ19 30
con nect
Ġm amm
Ġeconom ies
Ġdes ired
Ġflex ible
Ġis lands
ĠR ail
Ġvolunte er
Ġrum ors
Ġjud icial
M in
le ton
ĠK yle
Ġinter rog
E uro
d ing
Ġmon etary
ĠBe h
ĠTe xt
Ġworth y
Ġt el
Ġs her
Ġdeliber ately
Ġfr ight
Ġin hib
Ġro cks
Ġcrowd s
ay ed
Ġhuman itarian
Ġatt ributed
Ġpan ic
ock ets
he alth
Ġcult ures
Ġ7 7
Ġcon j
Ġexp ed
Ġspread ing
B re
Ġrif le
i ary
w hen
Ġcr ude
at ile
ĠB uck
Ġgr ateful
Ġanticip ated
um m
Ġrespond ents
k m
Ġh ier
ĠMcCon nell
Ġinc ons
Ġteen ager
Ġvir al
G M
Ġher itage
Ġsec ured
ĠM obile
Ġto ken
b rew
Ġj okes
ĠG a
ĠTer ry
Ġelder ly
Ġn aked
ec onom
Ġconsequ ence
ĠArt icle
Ġinst inct
gu ard
Ġre aches
Ġaltern atives
Ġflex ibility
Ġinstru ments
im ens
ch arge
ict s
( '
Ġkn ocked
Ġdecl are
Ġdis par
ĠCirc uit
s ized
j an
ic ut
ĠBrus sels
Ġdisp os
Ġadvant ages
cont rolled
st ory
I d
b les
ĠR aid
Ġabs ent
Ġp osed
B ig
ĠS witzerland
Ġtrig gered
Ġtechn ically
Ġprocess or
ĠK erry
Ġdisturb ing
ĠR y
Ġfin an
ĠSm all
Ġt ensions
o ons
Ġattend ance
Ġbu zz
VER TIS
Wh ich
ust ers
ĠT reat
th ink
Ġaff air
ici ary
Ġs ends
F e
ac er
ĠF igure
r ane
Ġdesign ers
Ġn ull
m ain
h ol
Ġrec y
Ġexc itement
Ġdetect ed
Ġch ap
Ġz ones
Ġremind ed
âĢ ĭ
ow ell
ĠPost s
Ġpled ged
Ġequ ity
âĦ ¢
val id
ĠT alk
Ġgreen house
ud ge
Ġprev al
W S
Ġshif ted
Ġflu id
ĠP uerto
Ġw rapped
il ateral
ĠKir k
gl as
Ġsatisf ied
ĠE arly
Ġdo se
ll ers
ĠPart ners
Ġimm igrant
Ġport fol
Ġident ifying
N T
Ġapp eals
m art
Ġref using
c rat
and y
Ġf are
b art
Ġsu itable
ĠD om
ĠF ro
au c
ĠCamp aign
ĠAlbert a
Ġab ol
Ġinn ings
Ġannoun cing
Ġhar vest
ĠBuff alo
Ġwel comed
Ġt urb
Ġ7 00
Ġrep ly
ĠFrank lin
Ġbreak fast
Ġmag ical
Ġflo ating
Ġdecl aration
Ġgr asp
Ġres olved
Ġharm ful
Ġavo ided
Ġfit ness
Ġbrow s
ĠS M
val ue
ock er
d rop
Ġtransp arent
pr ising
Ġmut ual
Ġtr apped
Ġb ass
ĠLyn ch
Ġlegend ary
ĠM D
Ġminor ities
Ġbr ains
r idge
Ġoptim istic
Ġrus hed
Ġem pire
Ġcondem n
found er
Ġha bits
ĠPhil ip
ĠAnt i
Ġ7 3
Ġhat red
inc inn
urn ed
ĠWar riors
ĠCh ap
Ġhope ful
w he
ĠPro t
Ġassum ing
Ġl un
it ably
are ttes
Ġexcess ive
or i
ĠP ok
ĠB art
Ġprov incial
ĠI ss
B est
ĠBar ry
est one
Ġass ured
Ġtempor arily
Ġindic ating
Ġfro zen
Ġh orm
Ġear liest
Ġste ep
Ġbel oved
Ġconduct ing
ver ning
or ig
ro c
o j
Ġcast ing
ĠT un
Ġhy brid
Ġstruct ural
Ġpresum ably
ĠBr ady
d ec
Ġdeploy ment
l as
H ar
M en
Ġ7 4
Ġsupp ose
Ġve gan
Ġsc rap
Ġimag ination
Ġtour ists
Ġimm ense
Ġedit ing
Ġedit ors
ation ally
ĠJ ets
Ġhead line
iz ard
Ġtrust ed
A ust
U D
Ġst ocks
ĠV ery
Ġcomp os
ĠI C
Ġtend ency
ne ver
ĠM aine
ĠG PU
Ġthrow s
Ġsh ar
ra ham
Ġgrab bed
Ġbar riers
Ġr all
H aving
incinn ati
M ed
E E
Ġbutt ons
ĠCommun ist
ut t
greg ation
point s
oc ate
Ġathlet ic
ĠGr ay
Ġplan ets
Ġtr ash
Ġl ake
ĠColumb us
Ġa uction
ĠN atural
Ġwa ited
Ġdam aging
Ġparliament ary
ĠChrist ie
Ġcolleg es
Ġclick ing
ĠG arden
Ġwh istle
ig ers
Th rough
Ġgar b
Ġdefend ers
Ġdec iding
ĠRog ers
ĠDou g
v als
ĠTr udeau
C urrent
Ġwid th
Ġpen et
ĠM ov
Ġdis g
Ġg rip
ĠY ahoo
ed ed
Ġm ixture
-- -
Ġwor ship
Ġcompl iance
Ã ¥
p owered
az y
ors es
Ġd iver
ĠM itt
Ġwh ites
Ġspark ed
Ġcolle ague
Ġre hab
ig hed
Ġpurs uit
g t
Ġf est
Ġex ports
au kee
ĠGu ide
N orth
ar ound
Ġf ru
ĠO scar
Ġtext s
Ġtradition ally
ne red
Ġbar rier
ĠOcc up
per or
Ġsoc ieties
Ġsurviv ors
Ġres on
act ory
Ġatt itudes
qu ality
ank ing
z b
Ġcart oon
Ġdet ain
P ress
Ġarm or
Ġess ence
N ever
Ġapproach ing
Ġsocial ist
Ġpurch ases
Ġn ick
ous ing
ĠPr in
Ġinfect ed
Ġun ity
Ġcrypt ocur
ĠCor byn
ĠF ried
Ġch ampions
Ġhum or
ĠLiber ty
ot ton
ĠTurn er
Ġpure ly
keep er
Ġbl ess
not e
ĠKe ith
Ġlegisl ature
Ġin sect
on er
ĠH P
Ġmeant ime
Ġunder mine
Ġpurs uing
ĠIs lands
Ġlif ted
] :
ĠU ntil
ruct ive
Ġur ge
e or
Ġgrow s
iff erent
Ġdec ides
ĠHar vey
ĠA w
Ġobserv ation
I O
ĠM om
L a
ĠWW E
Ġw ishes
ĠSh an
Ġ0 1
Ġh oney
Ġfail ures
Ġthere by
force ment
Ġt ong
ĠNor way
Ġregul ators
e u
Ġpassion ate
ĠB ears
Ġoff set
IS T
AD VERTIS
ĠB und
Ġeconom ists
ĠWik ipedia
ĠP ed
Ġmet ab
ĠH ide
Ġremind er
ĠB ou
ur red
Ġemot ion
ĠMor ning
Ġrom antic
Ġrec ount
arent s
Ġm asc
ac ent
ĠA th
AC K
w aukee
Ġsac rific
R O
Ġsec rets
ĠCh uck
st ock
Ġf ont
is en
per ial
Ġtreat y
Ġt ang
ĠC rown
Ġl aser
Ġdecre ased
Ġsucceed ed
Ġfin ancing
Cl inton
V ideo
Ġsqu ee
b est
ĠCh o
Ġeth ical
ĠF un
Ġa est
Ġ7 1
Ġliber als
ĠFant asy
ĠJeff erson
Ġ7 8
Ġident ification
r ust
f s
be it
ĠMad ison
Ġfr action
ĠUn iverse
enn a
Ġdon ated
Ġdraw s
Ġp ist
ĠW orks
Ġadm its
og g
r ained
Ġhack ers
Ġ( )
Ġdivor ce
Ġexec ute
Ġstr ain
back ed
Ġf t
Ġout er
p ublic
ĠT a
aren thood
ĠE V
Ġfl ip
s chool
icial s
own ers
af i
ĠArk ansas
Ġbott les
ĠWiki Leaks
Ġfeed ing
Ġgener ous
Ġbreak down
Ġper mits
Ġarri ving
ĠPol ish
al og
s ign
ĠC orn
Ġaccount able
Ġconclud e
A tt
Ġdis orders
Ġunf ortunate
d ale
ĠP ur
ĠMem orial
Ġcomp aring
ĠJ e
z o
ĠK arl
ĠNe il
Ġenh anced
Ġafter math
Ġcomp ound
Ġ8 2
Ġvar iation
ĠCam bridge
Ġtreat ments
ĠN ort
ĠRE UTERS
N EW
Ġche er
ing ing
ĠM oney
ĠAl t
g ree
ĠJ u
Ġsu ed
Ġlicens ed
ĠD NC
Ġcomp ly
ĠU RL
aw s
ĠPakistan i
t ics
ĠTy ler
ĠMil itary
ĠRod rig
ĠE ss
Ġver dict
Ġt rop
sec ond
Ġcontact s
Ġembed ded
ĠGu y
ĠCommun ications
ĠI RS
ĠR aven
Ġret reat
Ġrec onst
ĠDep uty
ab l
ĠE li
ĠE X
Ġlack ing
Ġcorrespond ing
Ġwind s
Ġfem ales
rop olitan
Ġs illy
Ġdestro ying
ĠM ission
Ġencoun tered
Ġsequ el
Ġhelicop ter
ch i
Ġmass es
Ġwond ered
ĠF isher
Ġadv ances
Ġn ons
ad vant
Ġfound ing
f ox
Ġlast ed
Ġwal let
Ġun h
Ġcre ep
g ian
ĠR oom
ĠRob in
Ġstatist ical
ĠLuc as
Ġbatter ies
st ore
un ct
ĠMar ia
Ġsens or
Ġsl ower
Ġwar fare
C NN
ĠVenezuel a
ig ma
B L
m n
Ġ198 3
Ġt at
Ġeconom ist
Ġed ited
ĠD ub
Ġvill ages
Ġsl ave
ĠK rist
Ġre un
ĠConserv atives
Ġag ing
Ġd aughters
ol k
Ġintent ions
Ġtaxp ayer
Ġlobb ying
Ġgif ts
Ġsepar ation
ir able
Ġpre ference
ĠM M
ĠF DA
Ġund ers
ĠConnect icut
Ġretail ers
ĠHoll and
are st
Ġ198 2
Ġaw a
Ġf ierce
Ġtraff icking
accept able
Ġsm ugg
p ace
Ġgrav ity
Ġwarn ings
vis or
Ġdiagn osed
Ġstre ak
Ġins urg
Ġgo verning
Ġcare ers
Ġauthor ized
Ġst abil
Ġsuspic ion
Ġf ence
ĠJ ake
d i
Ġcapital ist
te es
t ail
ĠStud ios
ĠE mb
ĠPri ze
Ġcont am
Ġam pl
Ġking dom
Ġvert ical
Ġorganis ations
f ive
Ġcontin uous
is ers
Ġmill enn
n ormal
Ġl ip
Ġdem ol
Ġinst ruction
ĠAd vent
Ġh ill
Us ing
S et
b ig
Ġdis pro
Ġc ub
ĠG host
g iving
Ġtr agic
Ġc odes
Ġscreen ing
Ġd ys
Ġtransform ed
IV E
ĠDown load
Ġcommission er
se ud
s ource
ĠTh under
ard less
ĠSpe ed
T ION
ĠSus an
ĠSci ences
Ġb oring
Ġfar ms
â ĪĴ
Ġdam ages
m outh
it ative
h aul
Ġcl uster
m aster
ĠP interest
Ġwork place
Ġcons iders
Ġten ure
Ġclean ing
iz able
T om
Ġ' '
ĠMer kel
op es
ĠP ap
ĠPlay ers
Ġf ib
Ġele ph
crib ed
Ġfe ared
Ġhe nce
Ġcount ing
Ġal ph
Ġcred ibility
d irect
S outh
Ġa ired
L ink
it bart
ĠSt ars
Ġincl usion
ĠD anny
Ġisol ation
Ġcivil ization
or ph
ear chers
Ġinv ite
Ġte ens
Ġmag netic
Ġde ce
Ġinter ference
Ġ vel
Ġwrest ling
Ġrus hing
R T
Ġdon ation
Ġhypot hesis
ĠBr and
ĠLt d
Ġdirect ory
ĠH ub
Ġinst itutional
iv a
ut ical
Ġboy friend
ĠUb untu
Ġgam ers
ple x
Ġdec ks
Ġden ial
Ġinv ented
Ġfun eral
X X
Ġur ging
Ġmon sters
h ave
Ġcollaps ed
ĠC z
ĠWith in
Ġbenef icial
In ter
ank ed
ĠSc ar
Ġdoub led
claim ed
ĠIndones ia
ham mad
Ġp izza
N G
Ġout right
F our
Ġsoon er
Ġen ables
F ig
Ġind ict
Ġentreprene urs
r int
Ġnovel s
uss ion
ĠS alt
ĠIslam ist
Ġste am
Ġcomp iled
Ġth irty
ĠSpir it
Ġjust ified
Ġgr ace
Ġorgan izing
Ġelimin ated
Ġev angel
Ġsusp icious
Ġle verage
air y
Ġbelie ving
Ġlab els
id ays
in ance
Ġcry ing
Ġeval uate
Ġreal m
her ic
ue ller
ĠO liver
ad ows
ĠInte rest
Ġexp end
Ġtem plate
Ġspec ified
F ree
elt a
Ġroutine ly
Ġspons ored
ĠBrad ley
ĠC arson
Ġmed ian
Ġincent ive
ĠPr inc
Ġrecru iting
ĠTh or
im age
Ġag rees
. :
ĠHind u
Ġeduc ated
Ġpsych ology
ol ine
ol er
ĠMorm on
ĠB os
pl an
ADVERTIS EMENT
Ġd umb
Ġdisc our
Ġsp awn
. âĢľ
Ġtra its
p ath
writ er
Ġcompar able
ĠP i
Ġ: :
Ref erences
ĠH ills
ĠLe af
ĠD est
Ġult ra
es is
Ġv ibr
Ġsn aps
Ġjump ing
w al
Ġalbum s
ĠCharl otte
Ġbr anches
Ġunve iled
Ġsolid arity
Ġlay out
op ard
ĠPet ers
Ġple aded
Ġbreat hing
ĠC incinnati
Whe ther
Ġm ock
Ġr ib
en c
Ġc ents
Ġadequ ate
ĠThe atre
Ġmidfield er
In te
ĠPro du
Ġshif ts
ur able
wid th
Ġl ib
Ġtermin al
ace utical
Ġ8 8
Ġpath s
st age
ĠF arm
Ġarrange ment
Ġpe oples
ĠFor mer
ĠN av
ast ically
d ig
ĠB h
D ata
Ġl au
ĠP ence
Gener al
oll ah
Ġsmart phones
th an
Ġrh yth
Ġcr icket
ank a
Ġtem ple
Ġpre liminary
co ins
Ġpil ots
ĠSen ior
Ġclimb ing
dri ven
Ġscream ing
ĠSol ar
Ġmagn itude
ĠL ED
ĠC ass
Ġconnect ing
Ġexcept ions
Ġfirm ly
roll er
ĠB ash
ur i
Ġgl ob
ĠMc L
Ġwhe els
Ġcoc aine
Ġmon op
Ġpart ial
Ġch ains
Ġc ort
ĠFriend s
Ġd irt
Is lam
Ġam end
ĠWe iss
Ġgen et
ĠB uy
ĠGl ass
ĠBrazil ian
Ġintrodu cing
ess ional
ĠStud io
ll o
Ġincent ives
ĠTrib une
Ġlyr ics
ĠC ut
Ġcomment ed
Ġd io
ĠVer mont
K ey
ĠSo x
Ġbe ers
Ġdetermin ation
Ġcounterpart s
ĠVer izon
s ky
Ġmatch ing
ĠT D
arth y
Ġle agues
ĠK le
ch ar
Ġvis a
Ġappeal ing
Ġtransl ated
ĠLeban on
Ġac res
Ġwild life
Ġpl aint
J an
Ġcount ed
Ġcreat ors
th a
ere r
g i
Ġbet ray
Ġlicens ing
Ġthreat en
U PDATE
Ġd ivers
Ġreg ards
Ġpar agraph
ĠProf ile
Ġtrad itions
ĠCow boys
Ġme als
re nder
an ium
ĠBook s
Ġinvest or
Ġkill s
ĠCount ry
Ġsc ul
Ġsens ors
Ġlike lihood
ĠG onz
Ġprec ious
Ġshe er
Ġb ust
Ġcomp assion
Ġtw ist
G ame
Ġconv inc
Ġmotor cy
Ġp upp
ord able
Ġtri ple
umb ling
ul ative
ĠN ixon
Ġsl aves
Ġ19 20
ĠF el
Ġavoid ing
Ġvac ation
200 9
Ġto y
Ġprohib ited
Ġun rest
ĠP AC
Ġdisappoint ing
O rig
Ġendors ed
ĠBelg ium
Â £
Ġfold er
Ġaccur ately
Ġlength y
Ġshif ting
Ġtouchdown s
Ġgr ain
ĠG arc
W ork
ĠAr thur
Ġtr ace
Ġaccount ing
ĠAM D
ĠUnivers al
Ġtrans f
Ġfire f
Ġ198 1
ĠB JP
iv ic
h ome
Ġwilling ness
Ã© mon
Ġdis m
i ots
Ġind irect
ias m
ĠArgent ina
Ġsh aped
ĠJ oy
Ġcertific ate
Ġin mates
Ġj ew
s k
ur l
A V
Ġment ally
H ill
Ġsp are
ĠB Y
amp s
res a
Ġun st
Ġover look
ĠPolit ical
ĠR ams
Ġgener ating
Ġshe d
Ġproceed ings
ĠEb ola
Ġint u
A lex
Ġrel ating
Ġimplement ing
Russ ia
U E
ĠR osen
P ar
Ġr iot
Ġdub bed
c end
ĠBro s
Ġwork force
t able
p op
ck er
agh d
Ġassum ptions
Ġsevere ly
Ġinteract ive
ĠN in
A nt
Ġestabl ishing
Ġrenew ed
rodu ced
Ġf ict
Ġcreat ivity
Ġswim ming
if ting
Ġshould ers
Ġmar ine
ĠGl enn
Ġan ime
ĠT ob
Ġd ivid
Ġm erc
ĠB L
ke es
ĠH unt
Ġfundra ising
Ġnegoti ate
S ign
ri ving
Ġcelebr ity
S ometimes
Ġse ctors
ate ur
c s
l ib
ios ity
ugg ed
ĠSer ge
J ames
ĠQ B
Euro pe
Ġconsum ed
Ġaccomp any
Ġn it
ah l
ubl in
Ġp owder
Ġtrad em
Ġb ite
Ġadjust ed
M ake
Ġref lection
B et
Ġor g
ĠO d
r ament
f old
Ġ196 7
ĠF ab
Ġobser ve
Ġn an
b ull
RE AD
ĠFin ance
Ġdi abetes
ant o
St ud
Ġfil ming
Ġaver aged
Ġmount ed
Ġwor n
ĠZ h
ĠG ates
Ġh ij
Ġroy al
on i
ĠBull s
ĠA B
ĠAr men
Ġdetect ion
Ġsa il
Ġhe aling
ĠM O
Ġbra ve
Ġrec alls
ĠMil waukee
ip h
Ġdis k
ĠAn im
Ġadapt ation
St art
ĠQ aeda
ĠA ve
ĠCl ar
Ġlaws uits
Ġcor ners
O ct
cc a
red ict
it ated
Ġaffect ing
Ġspecial ist
Ġclin ic
l ive
Ġsubsc ription
E G
1 10
ĠT ell
olph ins
Ġtrans cript
ĠM ust
Ġm aker
ool s
Ġconsult ant
Ġesc aped
ĠB ond
Ġrep ublic
Ġf uels
Ġcompat ible
Ġproblem atic
lud e
Ġfar ming
ĠBl ues
ĠSp ider
G od
ĠCol omb
ol o
ĠK am
u ced
u j
Ġpredict ions
Ġfol k
Ġearthqu ake
Ġorig ins
Ġind igenous
ĠGold man
Ã Ĺ
Ġeval uation
Ġmusic ians
Ġdel ays
ĠL ane
Ġtri umph
R ober
f ly
Ġaggress ion
Ġwhere ver
ĠE dd
Ġwood en
eng u
is ible
US A
Ġliter ary
ĠRe ading
ĠAn ne
ĠDou glas
Ġp ants
ul ent
ĠP L
Ġh oly
mun ition
p y
ĠPh one
Ġimp ress
ri en
ĠB B
l ash
Ġad mission
ĠT ar
Ġcontin ent
Ġless er
Ġsuper hero
ĠBron cos
Ġ1 30
N ET
ugg ing
Ġv on
Ġsh ore
ĠM ason
ab ul
out ube
ull ivan
Ġvulner ability
Ġdesc ript
Ġmar ry
ĠM ort
Ġ7 9
ĠHigh way
o pp
Ġunder way
dis play
Ġindepend ently
ĠGer mans
ĠN ex
ne ath
cl osure
Ġblack s
Ġbankrupt cy
A h
ĠSuper man
ĠGall ery
re r
ec hes
S y
Ġaud it
ĠMar co
ĠC reek
Ġp ub
Ġsher iff
i ology
Ġle af
Ġsl ip
Ġin ch
Ġab used
D B
Ġle ather
Ġse iz
d ays
ac ious
Ġve to
Ġw reck
Ġsk illed
o a
Ġsw ift
Ġmort ality
oot ing
p se
ĠP arenthood
Ġdark ness
Ġresign ation
ill o
Ġtr ap
Ġin appropriate
Ġorgan ize
ĠSt re
aff e
Ġout fit
Ġshoot ings
G erman
ro se
ĠC elt
Ġle aks
ĠR C
fe ld
es ity
lev ant
Ġt ub
ĠBern ard
ĠD M
Ġtim eline
se lling
oc c
Ġafter wards
Ġ196 8
R ich
ili ation
ĠC her
oc aly
Ġcy cling
) (
Ġ1 10
ol utions
ĠIs a
ale y
Ġ] <|
Ġ18 0
ul um
Ġaltern ate
Russ ian
Ġres et
ĠH um
pr ing
ĠEx change
Ġform ing
Ġinter cept
ĠSp encer
Ġthorough ly
Ġtest ified
ĠBud get
ĠSe ah
Ġlaugh ing
Ġpract ically
Ġattack er
ig nt
Ġk ernel
T unes
B rit
Ġcr ashed
Ġsupport ive
S er
Ġteen age
oca ust
Ġsu its
Ġloc ally
Ġbroad band
OS T
Ġlabor atory
iss ance
Ġ19 40
Ġins ists
Ġs ie
pe red
J ack
ir k
pe ople
Ġres ume
Ġreb ell
Ġexp ose
Ġb ind
W est
ail and
Ġkill ings
ather ine
Mus lim
qu al
Ġap ology
Ġdoctr ine
Ġcost ly
ĠV A
Ġsound ed
ĠS omething
Ġdis advant
Ġexha ust
umb l
Ġun anim
Ġc od
C ap
S ON
Ġreason ing
Ġcolon ial
ĠJ oh
Ġlect ure
Ġdemonst rations
Ġun e
ĠSystem s
Ġveget ables
Americ ans
ss on
Ġloc als
Ġgod s
Ġautonom ous
Ġgarb age
row th
Ġclass ical
Ġphotograp her
Ġemb assy
Ġanalys es
Ġpro x
ĠPalest ine
ph p
orn s
M al
ĠE c
ĠL iving
Ġne at
Ġ197 6
Ġed ges
ĠM ember
ĠAg ree
Ġpurch asing
Ġinf er
Ġbehavi ors
Ġportfol io
H igh
Ġr ated
Ġcons olid
ĠB ased
Ġint end
Ġswit ched
e ast
Ġhe d
lement ary
Ġ10 1
fund ed
erv ation
Ġoff shore
p ur
Ġcorpor ation
O s
Ch ris
at on
Ġmat ched
Ġoblig ation
Ġfor ums
Ġstraight forward
et ing
Ġchart s
ra pe
Ġpre st
Ġdeal ers
al ph
Ġfl owers
Ġes p
Ġgr ay
ocument ed
ĠBet ween
Ġencry ption
Ġmob il
ĠJohn ny
Ġc m
he w
ĠVik ings
oub ted
L Y
ĠMichel le
Ġatt ributes
Ġath lete
cul es
au er
Ġterrit ories
ĠRe ed
ĠHom eland
ble m
Ġout break
Ġpriv ately
ĠT ry
Ġinf amous
Ġelabor ate
Ġl oving
Ġunf old
ĠWal ter
ĠM MA
Ġspot light
ĠT ory
at ers
Ġ197 5
ĠD iam
Ġbus es
ch a
l ie
ack er
ill ery
Ġtra uma
be an
Ġstat ue
Every one
Ġclos ure
ĠK och
Ġair line
ð Ł
Ġd ated
f il
Ġmed ication
ĠS W
Ġl ap
Ġqu ery
n ames
Ġbes ides
Ġfrust rating
Ġh alt
======== ========
ĠS or
ar ming
G reen
ort ions
Ġdem on
act ic
Ġp y
ĠMu hammad
Ġeffect iveness
Ġn uts
Ġmod es
ĠL oad
ĠL ess
epend ence
Ġf ame
mar ks
ĠW R
Ġaccommod ate
ignt y
W rit
Ġb urg
Ġint ake
j ar
Ġpred omin
ah a
As ked
Ġstrik er
Ġsp ill
Ġlim iting
Ġor che
au x
Ġpe pper
ĠUn it
Ġmis leading
Ġst ays
ect or
ĠDen mark
ĠSub scribe
Ġunc ons
.. ."
ID S
ion ed
pe lled
Ġrank ings
ĠEm ploy
f our
Ġsear ches
ĠAl f
D ec
Ġwithdraw al
Ġimag ined
Ġo h
ik ing
ĠG ate
ĠMove ment
U I
Ġple a
Ġnom inated
Ġmem orial
Ġrespons ibilities
Â ®
Ġenthus iasm
Ġe ighth
ĠK ind
Ġexam ination
Ġs isters
ĠV eter
ĠS oul
Ġs ink
Ġm ph
Ġd rought
Ġ9 8
Ġstr ings
ro lling
Ġmeasure ments
ĠRel ations
k g
Ġdio xide
Ġwh ilst
Ġsubstant ially
Ġdiagn osis
S uch
ĠG PS
h is
Ġ8 1
u um
re ach
az ed
ri el
ĠG B
ĠL ock
Ġ197 3
ĠL uck
Ġrev ised
Ġblood y
ĠCal gary
ĠGM T
n esty
ĠCom ics
oc ity
Ġhistor ian
ĠW ATCH
Ġobser vers
Ġst ab
ĠG ear
ĠI l
Ġam munition
ĠF at
Ġal tered
Ġd angers
Ġcon vey
Ġgr at
Ġsymbol s
Ġcar riers
Ġdelic ious
s ki
ett a
Ġlist ing
m i
Ġ ^
Ġign oring
Ġqual ities
Ġloyal ty
Ġw and
Ġent ries
ĠR ico
Art icle
Ġmaintain s
D oes
ĠHar rison
Ġh ood
ian g
Ġmod ules
ĠBr un
ĠConf eder
S emit
Ġex agger
ĠK el
Ġvol umes
Ġlock er
oth y
2 000
Ġhung ry
ĠR ace
Ġpubl ishers
Ġsac red
Ġdiscl ose
Ġbrief ing
Ġd ash
S M
ap y
ĠCarl os
Ġformer ly
Ġh orses
Ġinev itably
pro of
resp ons
Ġrel ies
ĠN C
ĠN umber
ĠS ad
Ġcelebr ating
Ġyour s
Ġalgorith ms
Ġinhab it
ĠB uild
ĠP T
iss a
ĠBrook s
RE L
Ġn odes
D ay
Ġoccur ring
Look ing
ĠB uzz
Ġshut down
Ġmet res
ĠH ockey
Ġsk ull
ĠM erc
Ġhero in
writ ing
min ation
v iol
ro ots
ĠA CL
sh irt
ĠPal in
Ġ197 2
Ġexerc ises
Ġves sel
Ġc her
op ing
Ġdiff er
m ines
Ġp orts
Ġp ile
ĠSoft ware
ĠSeah awks
Ġfriends hip
Ġhe ter
Ġvari ations
Q aeda
ĠH at
Ġfundament ally
Ġmid st
ĠP ere
Ġag greg
Ġdem ographic
Ġfulf ill
Ġdesper ately
ĠA my
ĠVill age
ĠTrans portation
Ġ197 8
P N
g ro
Ġf lesh
Ġdisp ens
Ġb ikes
ins ula
ĠPlan ned
Ġde leted
ĠUp date
ĠIn v
âĢ¦ âĢĿ
Ġgall ery
Ġch ase
ĠTe h
Ind eed
Ġredu ces
U M
add y
id ges
Ġgar age
N Y
we alth
Ġf iber
ĠW oman
Ġ8 4
Ġout door
Ġrein for
art isan
Ġsol ved
Ġaccount ability
Ġw ip
Ġpres cription
ĠLiber als
ĠTer ror
Ġclass room
in os
Ġrap ed
Ġarch ae
Ġtw in
ĠP ick
ĠD ennis
T or
Ġsche mes
Ġt ribute
ĠC u
Ġspect acular
Ġlineback er
Ġconsum e
Ġtrib al
Ġsh y
Ġdecl ining
Ġnew est
Ġplay back
Ġgovern ance
Ġphot ography
Ag ain
W A
ĠL isa
ĠM ueller
ĠS A
Ġexpress ing
Ġbelong s
Ġr age
ĠA qu
oubted ly
Ġfil med
Ġrub ber
ĠSh adow
Ġto ys
rep resent
Ġexhib ition
ĠRaid ers
ĠJenn ifer
Ġun limited
S ep
g el
Ġins ure
Ġp ipe
Ġth umb
ab ad
Ġarr anged
Ġju ice
Ġaccident ally
Ġtoler ance
ur ring
i op
n ational
Ġl oses
ĠSil icon
Ġa ide
ke ys
V al
Ġconf using
ential s
ĠEl sa
iz ont
Ġre ception
Ġ8 3
ĠSun ni
Ġw ounds
Ġsh apes
Ġspir its
ĠD ublin
Ġpresident s
Ġmisc onduct
ĠH ud
ĠD R
oc ide
ING TON
an te
Ġperman ently
Ġb inding
h ner
put ed
Ġun le
ĠMalays ia
ĠH em
ĠL ost
C opyright
Ġexcept ional
Ġsell s
ĠCo ach
C OM
Ġlabel ed
Ġbed room
Ġpuzz le
Ġfresh man
uls ion
Ġstrict ly
ĠB us
1 20
osit ory
Ġchem istry
al so
Ġfin es
ĠF ame
pt s
Ġqu ad
ĠSer ver
Ġsh ipped
ĠPok Ã©mon
ĠR ah
ĠWall ace
Ġbillion aire
ĠBl air
ĠPhot ograph
H D
Ġman ages
Ġskept ical
Ã £
ft en
M ike
Ġg rey
Ġlast ing
rem lin
Ġt ier
Ġdemonst rates
ĠG it
t or
ell ar
ĠEd wards
w ear
ĠFor um
ãĢ Ĥ
Ġconsider ably
de gree
Ġbo ats
!! !
Ġprocess ed
ĠJ a
Ġregul ate
ag ging
ĠM i
Ġsan ct
Ġtack les
200 8
bl ack
Ġmilit ant
Ġfan cy
Ġsub mar
Ġmed al
Ġ8 6
Ġlove ly
Ġpre jud
run ner
Ġlin ear
App le
ĠTr uth
let ter
Ġ9 6
h ole
ĠN PR
Ġreason ably
Ġorganiz ers
ĠCh ile
Ġl uc
ĠD od
ĠHer o
se mble
ane ous
aret te
Ġsp ite
ĠT ill
Ġstre ams
Ġden ying
ur u
ĠP as
ch air
Ġpro c
th irds
Ġvig il
ĠPal ace
Ġsexual ity
olute ly
heim er
ĠA gr
S ch
in ate
ĠZ ion
>> >>
Ġteen agers
ĠUr ban
Ġmid night
Ġi Tunes
Ġgenuine ly
man uel
C ity
ĠA ld
Ġfacilit ate
B ay
Ġfin als
Ġcance lled
Ġrest ored
Ġout lined
p it
ĠJ ar
ĠW onder
Ġext ends
as m
ie val
ĠOper ation
Ġm ature
ĠJ uan
ĠN DP
ĠM C
Ġle ap
ĠY ears
IT Y
ĠGriff in
Ġoblig ations
Ġmon ument
Ġun acceptable
ĠV irt
Ġad vers
ĠV iol
ĠRepresent atives
ĠAut o
A ug
ĠR oth
Ġret rie
Ġautom ated
Ġtun ed
ak u
Ġ Ï
work ing
Ġbattle field
ĠF ly
Ã© s
Ġsp ends
ĠBill y
ĠN A
it is
Ġsuccess or
Ġd ancing
Ġf art
ow een
Ġdr illing
Ġtour ism
ĠRes ources
ĠMcC arthy
O G
ĠSt ring
ĠM ack
9 00
ĠSp urs
ung le
Ġp ound
Ġhear ings
l en
ĠShe l
Ġ{ \
ard ing
ĠG and
b ul
E arly
Ġrel ate
Ġqu o
ĠÂ ĵ
Ġdiv isions
Ġrecommend ation
Ġunder neath
re ated
Ġf oul
in ery
Ġsubject ed
ĠBang l
ret ion
Ġdefin ing
Ġgener ic
Ġp seud
form ing
Ġad verse
Ġab oard
ĠCh arg
Ġin ability
light s
W H
ĠTh ailand
ĠBenn ett
Ġname ly
Pro f
Ġtong ue
Ġp iv
ĠRet urn
Ġrender ing
Ġinc umb
ĠCz ech
ĠRich mond
ĠÃ Ĺ
ĠIn valid
com m
ol an
Ġtransl ate
he lp
on ge
cl osed
ĠRec ord
ĠOb viously
Ġsal aries
Ġconsist ency
ĠC ond
Ġsurve ys
ĠAr n
ĠH ope
ĠR ic
Ġspe eches
Ġembr aced
Ġfrank ly
ĠR ush
Ġ> >
Ġgu ilt
ĠSe ven
clus ion
Ġtrave lling
ĠBry ant
ĠF ile
Ġprem iere
ĠL LC
Ġinc oming
Ġover haul
Ġanonym ity
Ġart if
ĠBe yond
Ġvict ories
Ġcontract ors
Ġm elt
Ġ Ø
ĠSh ield
ig a
Ġris en
Ġpit cher
Ġconfront ed
Ġl ined
Ġste pping
h al
Ġsn ap
Ġstro ke
Ġcor rid
ĠBet ter
Ġb inary
bl og
ĠPack ers
M I
ĠCom merce
Ġr ings
ĠM VP
Ġdef ic
M et
ĠSo on
S uper
rane an
Ġn ort
Ġl iability
âĢĿ âĢĶ
ĠTit le
s is
m ile
Ð »
ai ro
ĠML B
ĠHur ricane
= âĢĿ
ĠChron icle
Ġ8 7
Ġ196 9
ĠSoc cer
ĠSur vey
Ġexhib it
D ep
p rom
Ġarri ves
Ġconfident ial
Ġpublic ations
ĠBre itbart
Ġbe ll
Ġtact ical
Ġpl ates
Ġ0 2
Ġlic enses
ell a
as i
Ġem power
Ġc argo
Ġanaly zed
ĠF itz
Ġun ited
Ġvend ors
Ġpar ade
Ġg ard
ĠH BO
Ġsign atures
Ġdisc on
Ġgrocer y
Ġpart isan
ĠC ape
ĠSh ar
Ġse ct
A uthor
ri pp
el f
ming ham
Ġobject ives
Ġfunction ing
ĠReg ional
ul u
ĠWork ers
Ġd ive
Ġred e
ĠZ ero
Ġnegoti ating
Ġdoub ts
Ġd ot
ier ra
Ġcon cess
Ġback lash
sc he
Ġsteal ing
ic ers
ĠS F
th s
Ph ot
bor ough
Ġac ute
ĠElect ric
Ġ9 11
Ġcloud s
head ed
OR T
Ġm ate
Ġbureau crat
Ġdign ity
Ġdefend ants
Ġaut ism
Ġprem ier
Ġcasual ties
Ġm as
ĠCh amber
ĠIce land
ĠP ad
ĠG ay
Ġdon ate
ab el
Ġment ions
uster ity
Ġsport ing
ĠAcc ount
Ġliber tarian
ĠBrother s
Post ed
ĠCub an
ĠNe ed
Ġpre season
there um
Ġ197 7
le m
Ġgl ory
sp ace
Ġdiscl osed
Ġhe al
ist ically
L ife
pro v
Ġhon our
Ty pe
ĠR at
Ġsovere ignty
ĠStud y
acc ur
ĠDef ence
Ġlack s
hold er
Ġcoast al
un s
Ġves sels
Down load
uk i
Ġcl arity
ĠPhill ips
c ill
ĠG reens
Ġarrange ments
ĠG as
Ġu seless
pp o
ling ton
ĠPr int
Ġj ack
orient ed
Ġc ute
p x
ĠI v
Ġprotect ive
Ġcatch ing
B it
ĠBarb ara
Ġv ib
c ost
Ġfel ony
Ġart ic
Ġfl ows
Ġn od
Ġind ef
Ġ9 3
ah n
w rite
Ġscul pt
ĠQ atar
ĠMet hod
R et
ĠH alf
Ġstimul us
Ġout let
Ġcharacter ized
IT H
ĠB P
Ġutter ly
Ġprop ri
li ent
Ġconvinc ing
ĠT igers
bs ite
Ġnecess ity
Ġlegisl ators
Ġfort un
az ines
ap or
ex p
ĠP un
Ġbl own
Ġspe lls
Ġdetermin ing
Ġmarket place
u ity
ocrat s
Ġevolution ary
Ġprev ention
ĠS i
or ity
Ġtw elve
ĠAL L
Ġelectron ics
ĠR AM
Fr ank
ĠSim ilarly
ĠTit an
Ġim pe
ĠS ay
Ġfore sts
Ġ ),
Ġtheoret ical
Ġdr ill
ĠBe ast
ĠB obby
ĠNob ody
Ġflood ing
w er
ĠT ib
Ġantib iot
ut ing
ĠEvent ually
ag ged
Ġpret end
ai res
ĠBry an
Ġglass es
Ġme g
Ġs lic
Ġint ens
ĠAtt ack
ĠBut ler
ĠPant hers
r ong
Ġspons ors
ĠS earch
S an
Ġd ense
Ġret ro
Ġmus cles
ov ic
Ġlegit im
ed ge
ĠM all
âĸ Ī
ĠC M
RE S
Ġhun ger
ent ions
Ġt ube
Ġmet a
uff icient
Ġadap ted
Ġqu arters
Ġswitch ing
Ġp ale
Ġen abling
aug hed
a a
Ġcomple ting
R ob
ter ior
Ġco at
Ġl ighter
Ġinfl amm
Ġ197 4
Ġw are
ĠM aj
Ġastron aut
Ġcool ing
n ik
Ġc ure
Ġse am
al in
ĠK ill
Ġtable ts
Ġgen ius
w ick
us hing
IN E
Ġca res
Ġsubscrib ers
ou st
Ġlist ened
const itutional
Ġequ ation
â Ķ
Ġread ily
Ġ9 7
Ġspec ify
ĠArab ic
ick ets
Ġfire arm
Ġun ch
W ashington
Ġhas h
Ġdu o
um ns
Ġdeb ris
Ġexplo itation
B R
Ġ9 2
Ġfr ames
ĠBrown s
ĠAl tern
Ġreb uild
lick r
A FP
ĠNever theless
pl ess
ĠSh i
Ġcous in
Ġsens itivity
Ġbarrel s
Ġachie ving
ĠOb ject
out ed
ĠM ode
Ġpredec essor
raw l
ĠAust ria
Ġspons or
k ens
Ġrefere n
Ġglob ally
ron es
Ġmist aken
Ġsubscrib ing
Ġext ending
Ġr am
Ġair pl
Ġhold ers
Ġaffili ate
Ġarbit rary
Ġins ights
Ġmurd ers
M er
uten ant
ĠCol on
te am
T ur
ĠSh ah
Ġassoci ations
Ġl aughed
ĠSud an
ĠI b
Ġred ist
ĠS ent
ĠCl ay
ĠM IT
em ail
Ġroll s
Ġmal ware
d el
Ġswe eping
Ġhe m
Ġbip artisan
{ \
L D
Ġfinan cially
Ġp airs
Ġbe aring
Ġf ond
ĠSand y
Ġjurisd iction
ant ing
Ġup side
ĠJam ie
A ng
ĠJ av
Ġh ind
Ġha ul
Ġcred ible
Ġelect ro
d isc
ĠIn side
H ouse
ul ator
a ired
Ġ197 1
Ġsomet ime
Ġbusiness man
Ġpro port
b uilding
Ġad min
ĠO wn
om atic
Ġexpect ation
ĠTo o
Ġhard est
ser ver
ri ages
ĠTO DAY
min ed
Ġref usal
Ġsur pass
ang o
A v
Ġnot orious
ĠFr an
Ġswe ep
Ã£ o
Ġpers ist
ĠPlan et
Ġdomin ate
ĠI BM
ĠMar cus
Ġsynd rome
Ġor al
Ġnight mare
Ġreview ing
IG HT
Ġtre asure
Ġl ately
Ġc ab
Ġprov in
Ġdis ability
ĠCast le
Ġe leg
un ique
Ġend e
Ġv owed
le tt
Ġportray ed
ĠD awn
atic an
Ġtour ist
ĠF ast
ĠB ishop
Ġdeter ior
ĠInd ex
EC T
ĠEd ge
Ġnew er
Ġviol ating
Ġa ston
Ġmob ility
ĠJul ian
Ġtrib e
ĠC SS
Ġcan cel
Ġnav igate
Ġendorse ment
ĠOr thodox
cast le
Ġtroub led
Ġb atch
re amed
ĠW ii
ĠB aghd
Ġpos es
Ġtourn aments
ĠL E
ĠSel f
ĠC OM
V A
ĠS L
ith ub
Ġ3 50
ĠWell s
m el
Ġapolog ize
ĠIm perial
Ġhydro gen
Ġw it
Ġwas h
Ġattack ers
Ġsettle ments
Ġc ache
Ġsepar ately
ASH INGTON
Ġa ides
Ġm igr
Ġr ats
osp el
umbl r
Ġmem or
Ġcommit ting
Ġtr icks
ĠSw ift
ĠE S
im port
Ġdesc end
rote ct
Ġbi ology
Ġrevel ation
Ġart istic
Ġm ush
Ġp ockets
k ill
Ġnation ally
Ġa ster
ĠNew ton
Ġd rown
iz ards
Ġchar ter
it ial
ak y
ĠContin ued
ĠQu inn
ĠR achel
Ġrel ied
Ġre iter
ĠB order
amp ed
ant i
ade qu
res pect
Ġpr ay
ĠTeh ran
Ġre ct
Ġkick ing
g reen
Ġm all
Ġexclud ed
ĠN ancy
Ġ14 0
Ġinter section
Ġpers istent
Ġover time
Ġpro ving
Ġinv isible
Ġgrad uated
Ġassemb led
os ures
Ġelev ated
S ur
Ġg au
Ġsp at
Ġter rain
Ġdecl aring
C R
Ġst ark
ĠA x
Ġtem pt
ĠV i
ĠB iden
M obile
P oint
Ġc u
Ġpre y
vel t
ĠSt op
M at
Ġrel ent
ĠAss istant
os i
ian ces
Ġphys ician
Ġdistingu ish
agon ist
p df
ĠD ue
#### ####
ĠLaur a
Ġst raw
Ġviol ate
Ġgal axy
es pecially
ĠLad en
Ġvar ied
cont rol
aus ible
Ġinter im
Ġshort age
Ġvill ain
Ġ8 9
Ġinc on
ĠW ade
Ġob esity
ĠMach ine
Ġpron ounced
Ġident ities
Ġfavor able
ĠD aw
Ġdefin itive
ĠGl obe
Ġrun ner
ĠSp ot
Ġbl end
Ġart work
Ġsh ower
ĠB ird
th ree
S and
or us
Ġassass ination
ĠCard inals
f ar
ott om
Ġinflu ences
C le
M em
f eed
art s
ĠCh apter
Ġtoile t
pt ic
Ġwar r
Ġneur ons
d b
Ġfort une
ĠLe v
Ġrevel ations
rament o
Ġles bian
Ġacc using
ĠFl ight
Ġbes ide
Ġover see
Ġren ov
ĠLeg end
ic he
fr ame
B uy
ĠBre ak
ĠDou ble
Ġexpress ions
ĠNe ither
ir i
Ġal iens
alth ough
mont on
ernand ez
Ġsub way
Ġlay ing
Ġbreak through
ĠCl ose
ĠJo ined
at ched
C are
Ġn urse
ĠMem bers
Ġd read
ar cer
AR D
Ġrent al
P ut
ĠClass ic
ĠM itch
Ġban ner
C r
Ġbul lets
ĠWh atever
Ġal umin
Ġse al
F I
sy stem
Ġb io
Ġcl ause
ĠC ab
Ġhel met
Ġuns uccess
Ġcred ited
U ntil
ĠB annon
Ġvary ing
Ġhand y
Ġre lying
ĠSt ra
Ġp uck
ĠH orn
ĠYan kees
Ġanal og
ĠT arget
Ġfact ories
Ġun aware
Ġimpl ies
Ġsubst itute
Ġvolunt ary
ul ates
ĠPr im
Ġrecre ational
Ġins pire
ĠCol lect
Ġa qu
Ġrisk y
ĠM B
V ID
? !
rib ly
c ry
Ġanaly ze
Ġdiss ent
ĠM ul
Ġreluct ant
Ġtrib es
id o
Ġaim ing
Ġmag azines
Ġrecip es
Ġback ers
th ird
Ġprovin ces
Ġfam ously
rit ical
Ġpat ience
Ġmass acre
ĠF ish
E v
ĠUS S
Ġer r
d ie
ĠG R
Ġund oubtedly
as ma
Ġprof itable
ne x
ĠS O
Ġtrick y
Ġp etro
Ġne ural
Ġpr ayers
Ġp sy
ĠB R
Ġpref erences
Ġatt ribute
ĠJ ong
Ġhy d
ĠTra vel
br aska
ĠC BC
Ġp p
Ġp up
Ġsum mar
ĠB ed
Ġk icks
ĠF L
Ġmeas uring
Ġur gent
ĠGarc ia
Ġal beit
Ġkilomet ers
Ġg i
Ġdisc ourse
Ġtax i
ĠNex us
Ġstar ring
Ġblog s
it utes
ĠW ire
Ġp ause
ĠCle an
Ġmos que
Ġca ut
ĠSe lect
Ġcy cles
G reat
Ġpass ive
b ad
Ġve t
Ġdefend ant
Ġsoc ially
ĠE ither
Ġrece ivers
Ġpreced ent
ah o
ĠH R
un ks
ĠN ag
ĠBrew ing
ĠAff ordable
econom ic
omet own
ĠHispan ic
Ġf oster
Ġteam mate
in ho
ĠPet e
Ġcrew s
P ublic
ĠC ou
Ġbroad ly
ĠHall oween
ĠN E
Ġhe ated
Ġparam eter
t alk
Ġintention ally
ĠP ast
ĠJ obs
ĠRo ose
ĠR ud
so ever
Ġsupp lied
Ġbuff er
b one
ĠH ait
Ġwor ries
II I
Ġauthent ic
ĠPolit ics
) |
l arg
ine z
Ġsum mon
Ġcontract or
he astern
ro gen
Ġval ued
H ub
Ġp ars
Ġattract ion
Ġdynam ics
b uild
ĠBir mingham
Ġman eu
ĠSam uel
G S
Ġst icks
s cience
ĠEngine ering
ĠE rd
Ġload ing
ĠAgr icult
Ġmin im
Ġdisappoint ment
m os
ĠAgree ment
p ic
n ut
Ġour s
ĠW inn
er ting
col or
N ational
Ġtext ure
ĠDe al
ĠNob el
ac hers
ĠK remlin
ĠInvest ig
IM E
am as
u cc
Ġmem orable
CL A
Ġstr anger
B ER
Ġb out
ĠFer r
us ions
Ġbroad c
ĠG A
ĠAl ice
l ast
ĠHol ocaust
Ġf isher
Ġinterpre ted
ĠL ang
ĠAl ong
Ġsw ept
Ġstick ing
Ġse min
ĠPh D
ĠDr ag
Ġpo le
Ġprov es
ĠEnter prise
Ġfit ting
ĠFour th
Ġiniti ated
ĠN EW
Ġepid emic
Ġsatisf action
om o
p ound
Ġsub mission
Ġw ard
Ġdim ensions
im ated
e very
Ġtheat ers
Ġinc omes
Ġentreprene ur
ĠD ra
ĠWork ing
ĠG rey
Americ a
Ġsear ched
Ġmart ial
Ġconven ience
ĠL uther
ĠK ash
Ġ9 1
y ang
B ased
Ġtr ump
Ġfac ial
Ġmis under
v ised
ant le
ĠV atican
Ġcontribut or
he tt
ĠGirl s
Ġne o
Ġun lock
ĠAr c
ab a
ĠPro test
Ġflaw s
ul k
J apan
Ġl iv
Ġmulti player
atern al
S l
Ġyoung est
Ġar ise
ĠChief s
REL ATED
Ġgrand father
ĠD ays
ĠNash ville
ĠTra il
h um
am ation
Ġevent ual
With out
Ġworry ing
ĠIsrael is
Ġst er
u v
Ġfict ional
et e
Ġdef ines
z i
T im
ĠA bs
Ġtact ic
Ġdomin ance
ĠJ oint
uc le
off icial
terror ism
ĠCh and
Ġmod ify
Ġ9 4
Ġinf lic
Ġint act
Ġobst acles
ĠRe form
P H
in is
ĠSn ap
Ġphilosoph ical
ĠN at
Ġban ning
Ġpr isons
app ro
Ġmal icious
de velop
Ġbas eline
ur as
Ġn est
RE E
Ġachieve ments
ort ing
C ong
ĠC hen
ĠAl most
Ġ ic
B ill
W ind
Ġmed i
ĠC row
Ġle thal
ĠBase ball
ĠW el
op ular
Ġo d
Ġen roll
ĠK or
Ġsur render
ĠHol mes
ĠN ep
c ulation
Ġdisc ont
ain ted
IC K
Ġdu pl
Ġinvent ory
Ġassault ed
M M
ĠK ate
Ġfin ale
ĠL em
Ġsk ip
Ġnational ist
A K
Un like
Ġreven ge
Ġconcent rated
Can ada
te lling
Ġwhat soever
ange red
cul us
Ġpred iction
Ġthe or
L ater
Ġentertain ing
ĠP il
ĠCom puter
roph ic
int age
ĠK ath
âĢ¦ âĢ¦
Ġshe ets
ĠF inn
Ġconsult ing
ĠT her
am bers
" ;
am y
ul in
ĠC our
em ale
ost al
in formation
s im
Ġtouch ing
Ġcorrel ation
Ġneutral ity
Ġtw itter
ĠS pect
ĠMat ter
ced es
Ġimport s
t ake
Ġnav al
Ġcost ume
ĠDiam ond
S ports
Ġm aj
Ġignor ance
ã ģ
Ġneighbour hood
Ġan k
t ic
ir med
ĠB ear
ĠL ot
l ay
ĠPortug al
ĠMot ors
Ġopp ression
A c
Ġinter medi
Ġdesign ing
umb ai
Ġnetwork ing
Ġcrowd ed
Ġregul ated
Ġeuro s
ell ing
ĠC ant
D irect
Ġn asty
Ġ ðŁ
ast rous
Ġdiv ine
Ġg aps
ĠAn imal
Rem ember
irl ines
Ġconfront ation
h ots
ĠC ox
ĠM ans
Ġdr ain
ĠCar ib
us cript
ĠN HS
ĠS ach
ĠMo z
ĠG ive
Ġorgan ised
L aw
on ies
Ġvar iant
ĠUS D
' :
ĠS old
Ġscript s
V R
Ġse aled
Ġc yn
Ġp add
rav is
Ġdon or
ĠRod gers
Ġover ly
Ġsa ves
Ġmer it
Ġc ra
Ġh ated
Ġover r
ĠFire fox
Ġhor izont
Ġcommit ments
Ġarch ive
Ġadminist rators
Ġbicy cle
Ġto oth
sp oken
ĠAl b
ĠE le
ĠPict ures
ful ness
ĠSur v
gener ation
ment ation
Ġbr ick
Ġinv itation
ĠRodrig uez
am o
Ġc um
Ġcur s
f ull
ĠPD F
ĠPal mer
Ġcomprom ised
Ġc ord
M arch
Ġrob bery
f in
all ow
ĠHe y
li ers
Ġev olve
ne apolis
Ġprec ision
G old
ĠR aw
Ġmac ro
as ures
ĠBe er
Over all
ĠP ath
Ġfix es
Ġtrans mit
In tern
Ġstar ters
Ġquant ity
ĠHug hes
Ġres ur
ĠAngel a
Ġsk i
Cal if
ĠT C
ĠR ing
Ġmathemat ical
l ation
k h
Ġnav igation
Ġ196 5
Ġflaw ed
Ġembarrass ing
he nd
ĠDun can
inf o
Ġris es
Ġw rist
Ġab uses
as ive
ES S
Ġpresent ing
Ġbelong ing
Ġoff enders
ĠL G
ĠN athan
Ġk g
Ġreject ion
Ġcomm em
Ġj am
Ġinfect ions
Ġremem bers
ĠBroad way
L ong
Ġcontain ers
ĠR acing
Ġpack s
ĠK az
ĠRoose velt
Ġn erve
Ġb ats
Ġball ots
ĠIndian apolis
ĠF oster
ĠQueens land
Ġcur rencies
ĠFin land
Ġover th
ob i
Ġquestion able
Ġ196 4
Ġunc overed
ĠD ise
le ased
anc ies
lic ation
Ġremind s
Ġdig it
ment ioned
Ġcl ash
sc ript
igh te
' '
ĠR PG
Ġconstrain ts
Ġfree ze
Ġn er
Ġprote ins
Ġrend ered
Ġstead ily
bel iev
c lick
ch ief
Ġdownload ed
Ġtradem ark
F ox
Ġpitch ing
Ġble w
ĠT ru
Ġupgr ades
ĠSh aw
Ġdispro portion
g rav
im eter
ic ating
ĠL an
ĠM E
Ġcur ric
Ġdist ribute
ĠD A
Ġcont ing
Ġbeh ave
Ġun cle
ĠMoh ammed
Ġmanufact ured
ĠOccup y
Ġinc arcer
ĠMont ana
T ex
ĠA ven
Ġad oles
Ġpro xy
ĠCh ase
Ġgrand mother
Ġmake up
ĠAss ange
col m
Ġextrem ist
Ġqual ifying
Ġshar ply
Ġsatell ites
Ġto kens
ĠS ullivan
Ġen v
AS T
Ġapp et
Ġa pt
Ġins ert
Ġb ay
Ġevangel ical
Ġthro at
r aged
Ġhol idays
ilit ary
m und
ass es
Ġbase ment
Ġsu ited
Ġprison er
gg le
Ġint imate
Ġpharm aceutical
Ġnons ense
us hed
W ASHINGTON
Ġl as
ĠAth let
ĠP ubl
Ġtrack ed
Ġout look
Ġres id
ri ved
Ġcorrespond ent
Ġlink ing
ed uc
min ster
Ġopt ed
Ġst iff
Ġpun ished
Ġa usterity
Ġt ire
ĠC ris
Ġboot s
Ġcomple ment
Ġr ab
Ġoff ence
serv ice
om i
Ġo st
ĠF an
Ġinj ust
Ġinject ion
Ġaggress ively
Ġbud gets
Ġhack ed
Ġcol umns
Ġm im
Ġund ere
A f
head s
Ġmet ric
Ġat e
ĠBaghd ad
ĠC abinet
orig inal
ĠIn iti
Ġcred entials
Ġsurv iving
ic ides
an ne
ĠNiger ia
ibl ical
Ġhot els
ĠE RA
rit ies
Ġland l
do ing
ĠS ierra
Ġinv alid
are z
Ġtu ition
Ġcomp ounds
Ġn arc
ĠPet erson
ah an
Ġpress ures
Ġbo oth
ĠM es
Ġelimin ating
Ġback wards
ar u
ĠZ immer
ere k
Ġr ivers
Ġlif ting
Ġmanip ulation
ĠSac ramento
the m
ĠI L
g s
Ġhor izon
ide os
ĠM icro
Ġwho ever
Ã¼ r
F R
Ġpl ag
Ġoption al
ĠK os
Ġsol ving
Ġo ven
Ġper ce
Ġsecret ly
Ġnice ly
ĠBoe ing
er als
Ġemot ionally
t w
ĠP oly
Ġconclud es
se en
ĠL l
Â ©
ĠJes se
D et
Ġextrem ists
Ġjo ins
ĠJess ica
Ġpublic ity
ĠH erald
Ġde lete
ĠHer itage
Ġham mer
child ren
ĠS ens
Ġhor rific
esc ope
Ġlaun ches
AN T
ĠBr ig
U lt
Ġprev ents
Ch ar
Ġcat tle
ĠBrother hood
Ġsubur ban
ĠCl in
ĠC ell
ĠChance llor
Ġh ilar
F T
ĠFI FA
Ġan throp
Ġrecon c
E vent
ĠCitiz ens
ĠBangl adesh
Ġhaz ard
Ġplug in
ĠA G
ĠW ol
Ġbr ush
l on
un ge
Ġswe at
Ġc ups
ĠCat al
Ġacc idents
our ge
ĠC op
N one
Ġprem ise
com pass
Ġjust ification
J une
Ġcompl aining
Ġpict ured
ĠL ore
ĠM I
Ġadvis ers
ĠStud ents
ĠAle ppo
Ġch ron
Ġr ides
ĠPresident ial
Ġtroub ling
ã ĥ
Ġmess aging
Ġtransf ers
pr ises
Aust ral
ash i
ĠAlp ha
Pl ay
Ġamb ul
et ition
Ġanch or
T er
ĠEd monton
ĠAnt ar
Ġflo at
ĠP ink
Ġfe as
Ġsovere ign
co very
Ġcompan ion
Ġvac uum
Ġcor ps
Ke ep
Ġref und
Ġdest ructive
Ġpur ple
k now
Ġcommit tees
atern ity
Ġunder go
ĠMS NBC
ect ed
ĠCol in
iter ranean
Ġneighb oring
c m
Ġj acket
ĠOver all
Ġbrew ery
ĠLeg al
P erson
Ġannoy ing
00 1
Up dated
ĠEp isode
Ġdis astrous
ertain ly
Ġnon etheless
Ġtroub les
ĠA round
ĠB elt
Ġun constitutional
ĠD ri
Ġent ers
ĠCh ip
s ocial
ind ex
zb ollah
Hill ary
Ġrecord ings
Ġo un
ĠCom b
Ġcommission ed
Sm ith
Ġcens orship
pl ant
J on
M ac
Ġte aches
ĠCr iminal
eal ous
Ġ19 45
Ġvirt ue
Ġsle e
ĠRe ally
U P
Ġfor k
ĠP red
Ġ0 3
Ġden ies
ĠQu ick
Ġsince re
ĠInc re
Ġam ateur
l iter
ĠAh med
Ġrandom ly
ĠZ one
ĠCub s
[ /
iction ary
OM E
Ġby pass
Be ing
Ġexam ining
ĠL ives
ĠH TC
Ġdim ension
at isf
Ġp el
Ñ ĥ
se in
.âĢĻ âĢĿ
less ness
Ġtrad es
Ob viously
ĠM urd
sp ons
i ological
Ġlegal ization
Ġin adequ
Ġle ase
ĠAll ah
In vest
Ġdeli vers
ĠA irlines
y d
ĠAn aly
ĠClar ke
Ġir rit
ĠIm agine
ĠChall enge
Ġcat ches
Ġintegr ate
ĠBre nd
Ġhand gun
Ġunemploy ed
O pen
ĠE arlier
Ġirre levant
ĠC T
ĠS ave
Ġexpl ored
g om
ĠPict ure
Ġcalcul ate
Ġdisp utes
B E
ĠCost a
pri v
Ġg reed
st ick
ĠG ot
ĠOb serv
Ġprom in
Ġimpl icit
um atic
ĠNe braska
ĠG P
vent ions
ov o
ĠAr med
av ailable
ens on
Ġp ad
Ġs ab
Ġl iver
ĠFO X
Ġb ans
ĠR ivers
Ġforeign ers
ĠF ac
clus ive
Ġâ Ĩ
b ot
ĠD rew
leg al
ve t
ĠM ine
ific ant
se arch
if ully
Ġboss es
Ġin accur
oun cing
ĠR O
Ġdef enses
Sc ott
V er
Ġencour ages
E mail
Ġh ike
l ocal
Ġretain ed
Ġmole cules
ĠTele graph
est a
Ġaccord ance
s qu
Ġcl ashes
Ġprop ose
Ġmor ality
ĠPot ter
S O
Ġmed itation
Ġg re
ĠWhe el
Ġop io
Ġload s
ĠM ong
w ould
Ġint ends
augh s
ĠNaz is
ust ain
Ġintrig uing
D I
Ġreal ised
Ġintern ationally
Ġhomosexual ity
Ġd war
ĠL ic
ĠSen ators
ag ain
Ġnin th
Ġcomp act
ĠSh in
uff ed
v ial
Ġpriv at
ĠC av
Ġover head
Ġrecru ited
Ġaff irm
Ġgu ided
Ġo x
P ort
OR K
Ġch unk
Ġcal ories
Ġadj acent
at hetic
l ength
Ġl azy
Ġprof iles
Ġcalcul ations
ĠTib et
Ġenact ed
ĠComm ander
min ent
Ġdep ict
ĠSteven s
ĠCurrent ly
if iable
ver ted
Ġhyp oc
Ġstri pped
Ġsan ction
Ġgrad uates
Ġ16 0
Ġr ugby
Ġterr ifying
ĠTr aining
Ġcampaign ing
ĠBar n
Ġcou pled
undred s
Ġeconom ically
Ġdiscon nect
Con f
worth y
Ġshe ep
ĠR af
ĠBoe hner
ĠG round
Ġfav ored
play ing
ĠG ore
Ġland mark
anche z
ĠEff ect
Ġhed ge
pe ction
Ġb er
M uch
Ġclar ify
Ġcrit ique
Ġsubur bs
Ġcoll ision
Ġsc are
Ġ: )
Ġproceed s
Ġnot ified
Ġkn ees
Ġtoug her
Ġinvestig ative
Ġconf erences
Ġatt ach
Ġspecial ized
ĠO z
Ġlight ning
âĶ Ģ
Ġsub t
oot s
ĠPro cess
ĠP H
ok o
St ring
Ġsymb olic
G N
ĠAct iv
Ġstud ios
Ġsl ice
ĠWeek ly
Ġpres erved
Ġn aming
Ġfurn iture
ĠZ ach
g reat
L ear
F ull
Ġcent res
ov ich
uff y
Ġcig arettes
S um
Ġflow ing
ĠCarib bean
Ġinc om
Ġfar mer
ĠT ogether
Ġbre ed
Ġnorm s
b oth
Ġexpl oded
ĠD ynam
Ġrelig ions
Ġassess ed
Ġinfring e
Ġpro long
ĠÂ °
Ġimag ery
ĠM aur
ur ious
ĠC art
imp se
Ġst ones
ĠEv il
Ġ q
Ġo k
Ġgl impse
Ġencoun ters
Ġsubst ances
ãĢ ģ
Ġcrit ically
Ġfif ty
Ġsequ ences
Ġdrag ged
Ġdeliber ate
ĠPrin cess
sh ow
ĠAny one
F ire
Ġsocial ism
ok ia
Ġplace ment
N AS
ĠW ing
B ron
Ġunw illing
Ġprosper ity
Ġen velop
d esc
o ven
Ġoffer ings
ur ry
Ġco pper
Ġreal ise
ĠMed iterranean
Ġst ole
ĠHung ary
Ġa ug
Ġpack aging
J uly
y our
Ġl ending
ĠAlex and
am pton
Ġsc roll
Ġple asant
Ġindict ment
Ġh ometown
Ġch airs
ĠO P
Ġsimpl er
Cl ass
Ġgl ance
Ġincorpor ated
Ġpot ent
yl an
Ġfl ower
ĠF am
ĠWe ather
Ġmind set
op ic
Ġrep rodu
it ations
if iers
Ġrevers ed
Ġcur b
|> âĢľ
Ġemphas ized
ograph ical
ig ue
Ġcryptocur rency
ĠJo el
ĠI de
ed In
Ġhe y
Ġind ie
qu ire
Ġtri o
Ġstrength s
ĠMil an
Ġref uses
ĠPro s
ĠH E
c all
F eb
ĠP owell
Ġor b
ĠV oice
ie ve
ĠC ulture
Ġm old
i ably
iz ers
z h
Ġa irst
ĠCons ider
~ ~
Ġ12 5
Ġcop e
fl u
Ġporn ography
Ġturn out
Ġdis gr
Ġdes ires
ĠMin neapolis
Ġany time
âĢĿ :
Ġsket ch
ĠE thereum
Ġtravel s
lin ing
ĠImm igration
Ġdisc retion
ĠBe aut
Ġtal ents
Ġcance led
ĠU ser
ĠB ald
Ġrest rain
ul ously
U se
imens ional
ograp her
Ġfather s
ĠP in
Ġthr illed
c d
os ity
] ;
ĠLu is
Ġha un
ident ified
> <
Ġpract icing
Ġg ambling
ĠM umbai
Ġdr agon
Ġmin ers
Ġs add
Ġapplic able
Ġcontrad ict
Ġgest ure
Ġcontin ually
Ġe rect
ip se
Ġflee ing
. ).
v or
p her
Ġins pection
Ġdecent ral
on est
as a
Hist ory
ĠChe m
gh ai
ĠEdd ie
ĠPriv acy
p ay
A pril
Ġres il
Ġconv ictions
om ers
R eal
ĠF ight
ost ic
ĠGO OD
........ ........
av i
ĠY e
Ġfru its
m us
Ġl ing
Ġnot ification
Ġcommun ist
ia z
Ġind ivid
] )
Ġman uscript
ĠH ig
Ġhas ht
Ġshare holders
ond e
Ġvo iced
j e
M C
ĠCh an
Ġaccount ed
Ġra ids
ĠEurope ans
et on
Ġfact ions
ri ans
Ġscholars hip
at able
Ġtow ers
per t
Ġreb ounds
Ġimport ed
ĠGib son
Ġab ortions
Ġte lev
Ġder iv
ĠC and
Ġlack ed
Ġcritic ised
ous ands
Ġhabit at
Ġbe ans
ĠN ar
ĠH S
Ġref res
ed e
Ġsu ite
ophob ia
Ġoverwhelming ly
mer cial
ĠM ull
Ġorder ing
asc us
Ġcon tempt
ĠS em
J im
by e
Ġcollect ions
EL L
Ġl ips
ĠAn a
ĠErd ogan
ĠM aking
K K
Ġthread s
r ams
Ġv ag
Ġmeasure ment
Ġsc al
Un ited
gh azi
Ġwas ted
ĠTex ans
Ġhead er
izz ard
ĠCast ro
ĠD ian
Ġdict ators
rik es
cont ent
ĠLook ing
Ġsu cc
Ġel ites
Ð º
Ġfe ver
em et
ĠHT TP
M icrosoft
oll o
ĠZ en
ĠK an
Ġ9 00
iber al
Ġsur plus
ĠLat ino
ĠJ ared
Ġpurs ued
Ġsw ap
T able
ues e
it ted
Ġlit igation
p os
sh aped
m ill
ĠAdd ed
Ġrall ies
on ut
sec ution
Ġdep icted
Ġd airy
Ġpredict able
Ġpost ers
c urrent
ĠL akers
ĠB esides
Ġcolumn ist
oc y
ĠAdv anced
U K
Ġactiv ated
Ġoff s
ĠPro per
Ġh urd
Ġappreci ated
Ġforth coming
p ol
ab lo
Ġfin ances
Ġiss uing
ĠJeff rey
O kay
Ġt ender
Ġsatisf y
ĠStr ong
Ġefficient ly
Ġkilomet res
ĠT u
ĠCh ad
ĠTra ff
ew s
Ġprogress ion
Ġfemin ism
Ġj ets
ĠMus k
ĠMart inez
Ġsup reme
gr at
omet er
Ġch ick
ĠÃ ł
Ġuncons cious
Ġwe aker
Ġdist ress
Ġorg ans
ab i
Ġconst itute
Ġfinger print
Ġm g
charg ed
f an
u art
Ġun law
ig s
ĠWood s
ens en
Ġcont rac
Ġs id
Ġru in
k n
Ġschol ar
Ġcons cience
Â Ģ
Ġpoet ry
Ġguarante es
ny der
Ġactiv ation
Ġbe ast
Ġliber ties
B rien
Ġcar ing
Ġamb ig
Ġj unk
ĠSum mit
ol ics
ĠP ic
n ia
K ing
and ing
ĠUn ity
re cy
ĠN ine
ĠStud ent
Ġsec uring
ĠHel p
ĠT ask
ĠE P
ĠK er
Ġactiv ism
Ġsc attered
Ġstart ups
ain er
Ġle ver
Ġpat ents
otten ham
ĠMc D
gom ery
G en
Ġdepos its
m em
Ġconfir ms
an ies
G R
Ġinstall ing
Ġcomp iler
ar in
ce ans
ĠB aby
ĠTh ai
Ġobsc ure
ĠMer cedes
F eed
Ġsh oe
Ġtr im
Rober t
Ġthreat ens
ĠNY C
ĠK ay
Ġhel m
S am
Ġd awn
ĠA ub
ĠLight ning
E xt
Ġfre el
ĠPal m
J eff
Ġrock ets
ĠDem ocracy
ĠVis it
m ember
Ġinf inite
ĠC urt
ĠCo ff
E r
Ġneed ing
Ġpass port
Ġaccording ly
Ġconcent rations
ĠNorm an
Ġwhe at
Ġcrack down
Ġport rait
Ġunh appy
Ġwood s
b b
ĠB ak
Ġt ast
ĠR u
ĠPoint s
Ġinstruct ed
Ġtransport ed
p resident
on al
um my
Ġremain der
Ġcustom s
ĠW es
Ġneg lig
Ġint ensive
ĠLabor atory
Ġun int
Ġman ually
Ġund ocumented
ĠFred er
ug ar
ch ant
Ġprofess ors
Ġgot ta
Ġmo ist
Ġreact or
s omething
ĠCreat ive
tr ue
P ac
Ġdes cent
ĠD I
am mar
ĠAh mad
Ġro oted
ask et
ĠJ ed
Ġcry stal
Ġparad ig
Ġb ored
Ġ| |
Ġassert ion
Ġdis hes
ĠD w
he ll
Ġg ly
Ġprec ip
Ġtra ject
ĠT ouch
Ġdress ing
emet ery
Ġassign ment
s ight
Ġinf ilt
ateg ory
ĠCan cer
ĠToy ota
us c
ib les
Ġsp here
ĠMarg aret
ys on
ĠS ri
ĠC it
ĠGand hi
ĠK enn
ĠMag n
ĠBoy s
ĠSpr ings
ĠL ion
Ġj azz
200 7
Ġaer ial
Ġâ ĸ
Ġ196 6
ĠM ade
k ers
ĠYou th
_ {
Ġsh ark
Ġsurvey ed
Ġhe ating
ĠM ath
Ġir ony
ĠCom ic
d eb
Ġeas iest
Ġfix ing
Ġwat ches
r us
Ġnut rition
p aid
Ġcommod ity
Ġdis gu
ĠMos ul
Ġpost season
ĠStat istics
raw ling
v oc
ĠMon ster
ĠL arge
Ġen vision
Ġbackground s
Ġapart ments
Ġge omet
Ġshout ing
Ġfavor ites
Ġadvent ures
Ġc abin
ĠHud son
ĠB omb
Ġforg ot
le ague
Ġproject ions
Ġment ality
ĠW a
ĠAb raham
Ġhy pe
Ġbatt ling
Ġmix ing
G L
Ġd ining
Ġc ables
Ġbull ying
ĠOper ations
ĠW alt
ĠH onda
ĠW ang
Ã¡ n
Ġtou ches
Ġgrass roots
ĠG am
Ġshout ed
Ġmarg ins
Ġceleb rities
ĠHe zbollah
Ġcome back
Ġacadem ics
Ġgr im
iment al
Ġmin es
Ġt ennis
ĠG aming
ere n
V M
T w
ĠInter ior
uck ed
Ġsl ated
Ġsu e
Ġdig est
Ġwh oles
Ġ( -
Ġbl ade
s i
Ġ( Â£
ris k
Ġsystem atic
Ġdis puted
Ġd ug
own er
ĠY ale
ĠId ent
UL L
Ġhand les
Ġindic ator
________________ ________________
ĠCol lection
Ġl ied
ĠL ower
Ġgas oline
j pg
Ġpark ed
ĠPri or
Ġflags hip
Ġcol ony
ĠForm ula
H ello
Ġbe ats
Ġvacc ines
Ġsound track
ac cess
Ġbe es
Ġpromot ional
Ġconce aled
.' "
ĠBM W
ud a
Ġpr one
ĠD im
Ġ0 9
Ġdep uties
ĠCom cast
Ġsl aughter
Ġdispl aced
Ġremote ly
ĠC ool
ĠSqu ad
ĠBen ghazi
Ġappreci ation
Ġsc ales
agg ering
M att
Te am
Ġsm iling
ĠKen ya
r ising
ĠB att
J oe
Ġfl ies
Ġc aucus
Ġcontinu ously
Ġr abb
Ġin k
Ġhe els
ĠMov ie
ĠTe levision
Ġch im
ens ed
Ġacc laim
Ġw ra
ĠBelg ian
Ġpolic ing
Ġgen ocide
Ġch rom
ĠS au
Sh ort
ĠY ellow
Ġmount ing
ĠI R
ke ll
Ġcle aring
AM E
Ġstaff ers
ĠSim p
Ù İ
ĠVin cent
Ġill usion
OS E
Ġg orge
Ġstr angers
Ġble eding
ĠH im
Ġse gments
Ġan om
E U
b ra
ĠSat an
Ġm apping
ĠB anks
Ġcent ered
Ġ Å
Ġ196 3
Ġpull s
ĠP ract
Ġstat ute
ĠMal colm
g ue
Ġw ield
ok u
es ville
ys ical
Ġd ough
Ġic ons
Ġpit ched
Ġur anium
ĠB apt
ph is
y on
Ġprompt ing
tit le
h ad
Ġdis reg
Ġcompet itor
Ġ0 4
Ġdig ging
Ġtrop ical
ĠTom my
Ġmathemat ics
F ive
ad ian
est on
Ġsh ook
Ġcharacter istic
or ically
ĠInd ependence
H el
Ġver bal
Ġmet eor
ĠDam ascus
C ount
Ġl inem
Ġfl ames
at ics
Ġapplic ants
Ġca f
Ġsc i
Ġbr idges
Ġto pped
et a
ĠM ons
Ġcro re
M o
Ġport ions
os ph
Ġbl unt
ĠCry stal
ro d
Ġcertain ty
Ġimpact ed
Ġcontribut ors
Ġunp redict
Ġrhyth m
Ġcompar isons
ĠT ree
ĠC P
ipe g
ĠFin als
im g
Ġdispos al
ĠRaven s
Ind ia
' )
ĠSome one
Ġinherent ly
Ġw ished
w age
H ead
Ġview er
ogen ic
Ġsmall est
ĠWe ap
ĠO pt
Ġm ud
ĠA K
ĠIniti ative
Ġwild ly
ad itional
Ġ0 8
ĠBr ight
ĠMajor ity
ĠK um
l isted
Ġmusic ian
ĠSch olar
ĠCar r
ĠNew castle
Ġbench mark
ĠCoun ter
Ġaffili ated
Ġsh aking
Ġamb itions
ĠD rop
yn asty
cific ally
Ġrep roductive
Ġ0 7
Ġfoot print
Ġconnect ivity
ĠHop efully
ĠP etro
ĠÂ »
he y
ab lish
Ġmed ieval
ĠH ERE
ĠUp on
Ġbehavior al
Ġmulti pl
Ġpit ches
h or
Ù Ħ
ĠNor we
Ġimm unity
th reat
id ity
Christ ian
mid t
Ġsynt ax
ĠF alls
at ility
ĠN ad
Ġwe ighed
Ġstorm s
Ġrep ository
Ġup hold
ĠC ash
ix els
ĠD elta
Ġattend ees
Ġve ctor
ĠS id
Ġr ipped
Å į
Ġst ap
els h
ĠW ings
|> (
ĠApp arently
ĠWh ats
Ġpat ches
Ġfortun ate
S H
Ġl i
Ġst ub
ĠCont ent
Ġamend ments
Ġ0 5
Ġaest hetic
Ġindivid ually
ing le
Ġanx ious
Ġd are
ĠCo in
Ġas leep
on gh
r ise
Ġm ol
ean or
Ġcook ed
Ġst akes
ĠEm peror
Ġst int
ĠR ule
Ġat op
Ġque ue
Ġeat en
Ġdemonst rators
ĠC opyright
ĠB ren
ot ive
Ġr anges
ud ed
en z
est e
lud ed
Ġfound ations
ĠM end
Ġprior it
ĠB ody
run ning
Ġrecover ing
et ooth
Ġem pir
Ġgl ac
Ġcinem a
Ġe go
sh it
W omen
Ġadvis ory
V I
Ġim minent
ĠIm pro
igg s
Ġaver aging
ong yang
Ġcook ies
à ¸
Ġsh adows
Ġdis ruption
âĢĿ ).
sh aring
Ġcar n
ĠVal ent
Ġcon grat
Ġfe ather
Ġfaith ful
Ġst aring
Ġcert ified
ĠIndust ry
m ount
ĠCar roll
Ġinspir ing
ĠG raph
Ġadjust ments
Ġlegitim acy
Ġp und
Ġdistinct ive
âĢĶâĢĶâĢĶâĢĶ âĢĶâĢĶâĢĶâĢĶ
Â »
Ġphys ic
ĠRe yn
ĠLegisl ature
Ġdes erved
r ace
ĠDan ish
oul os
Ġsufficient ly
Ä ģ
ĠColomb ia
ĠK aren
Every thing
atch ing
ĠOther wise
ĠR ank
Ġal erts
ur ally
ĠLim ited
ĠS QL
Ġpl ausible
el ed
Ġcand y
P ower
Ġby tes
p ical
Ġhier archy
Ġtheat re
AC E
il ia
ĠReds kins
,' '
ope z
ĠUlt imate
ig ion
ĠX i
ĠSt rip
Ġclim bed
ĠK urt
Ġjail ed
s un
AS E
Ġab usive
Ġcar b
Ġn ail
en ly
Ġsuprem ac
Ġun believ
d ollar
Ġd ent
ĠW ere
Qu est
Ġcr ap
Ġsc am
ĠSimp son
ĠA CC
Ġpar as
ĠPer formance
Ġm i
Ġundere st
Ġcl ue
ĠWal mart
g on
ĠLe ave
Ġcr ashes
ĠS anchez
ĠCh ampion
Ph il
Ġrail way
ĠF ix
Ġmetab ol
Ġsupp ress
Ġsp ont
Ġcru ise
Ġmy st
ĠB ills
Ġdirect ing
ĠWest minster
Ġshe lf
pect ives
ĠD ame
ĠArch itect
Ġincumb ent
ĠCrime a
Ġa fore
akes pe
Ġrein force
Ġblow ing
Ġt ide
ĠW ITH
ĠCommon wealth
Ġfound ers
Ġju ven
ĠPortug uese
Ste ve
Ġdep osit
Ġbon uses
Ġflav ors
M ax
Ġexplan ations
Ġresc ued
cl ub
Ġposition ed
Ġlight ly
Ed itor
Ġmotorcy cle
Ġelect orate
ĠShan ghai
ĠA er
ĠM ann
Ġhistor ians
% ),
Ġamb ition
Ġâ Ī
om ore
Ġrow s
os aur
Ġgi ants
s ite
ad ata
Ġbox ing
H C
Ġn ucle
Ġconsist ing
ĠBr ain
ĠTH IS
Ġut ilities
Ġhuge ly
Ġconsult ation
Ġque en
Ġadjust ment
Ġincorpor ate
h at
B o
j u
Any one
ĠM is
Ġmin imize
c ourt
Ġneg lect
ĠId aho
Ġcollect ively
E nd
Ġde ar
Ġdeleg ation
Ġboy cott
Ġhalf way
Ġexplo ited
Ġmet er
Ġsie ge
Ġrecogn ised
ĠSteel ers
p ie
Ġphys icians
min ing
ĠK i
ould er
Ġansw ering
Ġzomb ie
P eter
Ġeduc ate
Ġplant ed
h u
Ġimprison ment
Ġh ipp
w ait
ĠU CLA
ĠCons umer
ĠS ale
Ġcont ender
Ġpromot ions
Ġro d
Ġaccess ed
Ġop ener
gg ing
ĠThe ory
Ġc age
Ġgener ates
chn ology
ĠMet al
Ġcere mon
Ġelement ary
ĠP orter
Ġpersu ade
prising ly
L ab
ĠM ob
Ġch asing
ĠGr an
Ġapp ar
Ġab rupt
Ġassoci ates
Ġoff enses
h art
ĠU A
att ack
Ġal igned
we b
Ġshow case
ĠO culus
ĠGener ation
Ġintegr al
ĠM asters
uter te
Ġv icious
ĠSh a
ĠV M
s ay
ĠE ight
le en
ĠK ane
Ġoff line
âĢĿ ?
Ġsim ulation
ĠLeon ard
Ġlad der
Ġvel ocity
Ġopt imal
Ġluc rative
Ġdies el
n els
Ġnegoti ated
als h
Ġadv ancing
p roduct
ĠInte gr
ĠEs pecially
Ġp ork
B ro
Ġsli pped
Ġlog s
N on
Ġcig arette
Ġcurric ulum
orth y
ĠCol ts
Ġrun ners
ason able
1 30
S ure
Ġrecruit ment
Ġancest ors
Ġclass ification
ĠX L
ĠArm strong
Ġinhabit ants
Ġmanip ulate
ing rich
Ġabsor b
ĠâĢľ [
ĠS K
Ġautonom y
Ġjer sey
ĠR A
Ġs oup
ĠG N
Ġimp osing
ĠAn alysis
Ġmatch up
Ġport able
erv ative
Ġillust rate
Ġ __
Ġfif teen
em pt
Ġeff ic
ĠConfeder ate
ĠI Q
il itation
Ġw itch
ĠH ousing
add afi
Ġmilit ia
er ness
g ow
ant ine
ult z
Ġappeal ed
Ġquant ities
Ġunp opular
ĠSt alin
Ġmar riages
ĠStr ateg
f ix
ot er
ĠS witch
ĠW E
Ġslow ed
Ġf reed
Ġd orm
Ġmor ph
Ġy oga
Ġp iano
Ġacc ent
ĠT ravis
Ġlow ered
ad ays
Not es
am iliar
Ġprotect s
Ġt ales
ĠS B
Ġpay roll
Ġauthor itarian
ĠM add
Ġloc ate
ĠEn forcement
Ass ad
ON E
Ġhom icide
Ġpist ol
ĠM oss
Ġemb ark
ĠSocial ist
Ġquarterback s
t ax
Ġche ss
ĠW ant
def ense
Ġcrus hed
ĠH az
akespe are
Ġres ent
Ġmet rics
ĠÐ ²
ew ay
um per
Ġp estic
ow itz
Ġinv ention
Ġacadem y
Ġwe ed
Ġfact ion
Ġdelight ed
ĠTer min
Ġper ipher
Ġalumin um
Ġo we
Ġuns upp
Ġhon ored
Ġar rog
ĠY u
Ġprem ature
I ran
ĠL oc
Ġblog ger
and o
Ġo w
ĠMon th
ĠK end
Ġbl at
ĠN ut
Ġconsist ed
ĠM ills
Ġtrave lled
Ġno ble
Ġadminist rator
Ġconsum ing
ĠNe uro
um ed
OU R
Ġsatisf ying
Ġex cer
Ġinstrument al
ĠB ent
Ġover view
ĠB rett
Ġtreat s
******** ********
Ġhapp ily
ĠJ ama
Ġb ru
Ġcomb o
ĠEm ir
ĠGreat er
im ity
ĠS outheast
Ġsp ike
12 5
ĠÂ Ń
ĠAmb assador
M D
Ġprotest ing
Ġp ond
al one
Ġt ended
Ġfert il
N E
he art
Ġpost p
B as
v ance
ĠS add
ĠPriv ate
Ġart illery
ĠCase y
M ENT
Ġdec isive
ĠDar win
ĠD olphins
ĠN GO
ra vel
Ġp iss
Ġdat as
Ġsimilar ities
Ġseek ers
Ġdetect ive
ĠW or
Ġbl oc
ĠDel aware
Ġprol ifer
C AR
asc ript
Ġliv est
g irl
ĠSal v
Ġdiam eter
Not hing
Ġprob ation
road s
Ġg ates
ĠPr ison
Ġup s
Ġyield s
ir ies
3 50
ĠLeaf s
Ġconstitu ents
ar se
Cont act
Ġv ic
Ġpat ron
ĠMin i
Ġsent encing
Ġsl ammed
re ctions
reg ular
Ġsl ides
Ġinvestig ator
Ġbr on
ĠS nyder
ĠNo ah
Ġal arming
ibl ings
ale z
Ġrecogn ise
ĠLoad ing
Ġlic ence
ĠNich olas
Ġclin ics
it ous
Ġprohib ition
ĠCath olics
Ġupgr aded
Ġcontem pl
ĠPar ks
ĠN okia
Ġinc ap
ĠH ence
Ġrest oration
Ġat omic
Ġun related
Ġpo em
ĠO ften
Ġshow c
Ã º
ĠQ ur
Ġmark ing
Ġ( +
ĠS eth
ĠA F
Ġh ref
Ġd ude
Ġc ad
Ġsp ying
Ġr ider
c amp
Ġven ues
m ax
ĠWe bsite
ret ty
Ġincl ined
Ġincons istent
ell ed
Ġenthusi astic
names e
Tex as
ĠÐ ½
ke eping
Ġn odd
ator ial
Ġ196 2
Ġcatast rophic
P ass
ĠGl as
ĠF ace
Ġweakness es
ĠLouis ville
Ġappl aud
ĠLear n
W ould
Ġdri ed
Ġbi ased
Ġe cl
Ġexp ans
ĠRepresent ative
OR D
Ġlad ies
AC T
O H
And rew
1 000
Ġu b
op oulos
per m
F ore
il ight
ĠL ate
Ġqu ot
a que
ĠGene va
yn c
Ġt a
occ up
S cient
ĠNorth west
Ġcl ips
ourn ament
Ġjud ged
m ph
} ,
Ġtro phy
Ġrif les
el ong
Ġcat alog
Ġspe ar
Ġshel ves
ĠMatthew s
ĠCre ate
Ġrecip ients
ĠDise ase
ment al
Ġmis er
T Y
met ic
Ġthr ust
Ġpr iced
ĠMont gomery
Ġbreat he
Ġtight ly
Ġnurs es
ĠD erek
ĠV ent
ob a
ĠHop kins
Ġapp le
ĠSc reen
lev ard
Ġfrag ile
" ).
F il
R yan
Ġgang s
ant om
Ġcor rection
Ġalleg es
dep th
Ġvari ants
ll ah
Ġadvis or
M E
Ġutil ize
Ġl ion
asc ular
Ġremark ably
ĠEll is
display style
ĠG or
ĠM ol
Ġend angered
ik o
Ġfart her
ess age
el ines
Ġcon form
Ġdep ressed
Ġsynt hetic
S il
ĠC airo
connect ed
st ation
ĠK o
ĠLe x
Ġnic he
S N
ĠE A
ĠSt ories
Ġecho ed
ĠHus sein
Ġr iots
ĠF o
ur bed
ĠMun ich
Ġst aggering
Ġev olving
bro ok
ĠV illa
Ġinterven e
Ġbook ed
Ġn ostal
an as
Ġmon itors
ĠB O
ĠRichard son
Cont in
Ġbail out
Ġp oured
Ġmasc ul
Ġair ports
Re view
Ġang les
ĠP ierre
ĠK il
ĠE t
Ġpract iced
ach t
ĠW rest
Ġgen ome
ĠOrig inal
Ġinsect s
Ġextensive ly
Ġdown s
Ġhum ble
Ġjew el
he ster
am on
ourn als
ĠT on
Ġm igrant
Ġencry pted
C ome
Ġank le
Ġc otton
Ġcooper ate
Ġo ath
ĠHuff ington
Ġwhistle bl
Ġp ul
Ġne arest
s ix
r ational
ĠAn onymous
Ġw ives
N ob
Ġbre eding
Ġbre wing
Ġup ward
e ree
ĠCan n
Ġpract ition
it ially
ĠT rip
ĠW ait
Ġchap ters
Ġfor ty
amp ire
Ġrem inis
Le g
reat ing
Ġrel iability
ĠUS C
ĠC rew
z el
ĠS ie
Ġsec urities
ĠSur face
ĠR ut
Ġsl im
S I
Ġwar ns
Ġint oler
s u
Ġsymp athy
ĠC amb
in ner
Ġpredomin antly
and als
Ġinterf ere
ĠVeter ans
Ġcol ored
Ġt ires
is le
ĠK ids
ĠWord Press
Ġfore most
Ġgenet ically
ĠH appy
or um
Ġad ul
Ġfil ters
Ġincl usive
ans om
ĠArn old
Ġmonit ored
Ġprop osition
Ġenfor ced
C all
b ling
og yn
d est
ĠK ap
p ically
Ġman a
ash a
Ġflo ors
ef e
ĠCD C
ĠSom alia
ĠThanks giving
Ġwell s
C onst
ĠGr ace
ĠSw an
Ġoptim ism
Ġdefic its
ĠP engu
Ġfe ud
Ġhor r
Don nell
Ġpros pective
Ġcoord ination
ns ic
olit ics
Ġwe ars
ĠCl int
ĠPr ide
Ġimm un
Ġcamp uses
Ġtask ed
Ġcomb ining
Ġcoinc idence
ĠV ideos
Ġfor wards
ĠA br
uff le
ĠEag le
d imensional
ĠP HP
Ġhand ing
Ġr ip
he arted
ro v
i ott
ĠIS BN
ĠAg ent
Ġsens ible
Ġassist ed
M ad
ich t
ĠW elsh
f inal
ĠHend erson
Ġinher ited
Ġt ense
ĠFor bes
Ġpositive ly
Ġillust rated
ĠP ew
ĠD j
ĠTri ple
Ġimpro per
Ġbound ary
ĠKurd s
Ġkind a
Ġemer gence
Ġscar ce
ĠHe brew
Ġdescript ions
Ġautom ation
Ġs acks
ĠS pl
ĠB ach
l ance
n ar
ĠMem phis
Ġun con
ĠACL U
ĠSchool s
w ent
Ġpartic le
Ġd oses
Ġobtain ing
ot ics
Ġche f
Ã© e
T otal
Ġther mal
st ated
ĠGet ting
Ġcl iff
ĠAct ually
ann ers
ĠReg ion
ĠG az
Ġsepar at
Ġre nown
Ġpri ests
Ġg ren
Ġg rief
ĠO m
AS S
ĠWinn ipeg
Ġafore mentioned
Re illy
cons cious
Ġsh ine
Ġord inance
D el
l iv
ĠAs k
ĠMe g
ey ed
ĠBudd hist
ĠS ter
ball s
Ġunsupp orted
ĠB eth
ĠA FL
Ġz oom
Ġ196 1
Ġins ufficient
Ġste ering
Ġcaut ious
Ġcycl ists
Ġreward ed
Ġoverlook ed
Ġuncom mon
Ġintu itive
V is
P age
y outube
ator ies
ĠJ ays
Ġbelong ed
Ġrelax ed
Ġdys function
H ome
Ġupload ed
iat ric
Ġbo asts
ĠV I
Ġver b
Ġcul p
Ġexp osing
Ġw oke
Ġ12 8
ĠRe lease
Ġdeb ts
Ġrespect s
ĠD oc
ener ation
Ġbas ics
het ical
Ġpaint ings
ĠFl a
Ġtour s
Ġcirc ulation
ĠP ub
Ġgu ides
Europe an
ĠTun is
g ay
Ġreal izing
Ġc ripp
ĠJ in
Ġenjoy s
ir ation
Ġcandid acy
ĠH ass
Ġorig inated
Ġwh ale
Ġnav ig
Ġoutrage ous
ĠN uclear
ĠE sp
Ġatmosp heric
r ays
Ġawa iting
ĠT X
ĠM ut
Ġcomb inations
Ġlight weight
Ġconv entions
Ġslow ing
Ġp aste
ĠPy ongyang
Ġreal ities
ĠBar nes
ĠF ixed
ent ry
Ġadd ict
Ġadm ire
ĠH off
ek ing
p ose
Ġth rive
Ġadd itions
om on
Ġpersonal ities
Ġpo ised
oy le
ĠN ord
ĠRand y
Ġext inction
il ers
Ġcoord inated
Ġt ags
Ġperform s
Ġrepe ating
Ġquick er
Ġblank et
Aug ust
ĠDod gers
Ġcas ino
In f
ĠVis ual
ĠS r
Ġgr ades
s n
Ġopt ical
ĠK ush
Ġag grav
Ġnurs ing
b ucks
Ġtat too
od a
ĠA pr
Ġe ld
Ġener g
ĠAbd ul
ĠD ust
ĠNorwe gian
ĠH A
Ġred es
ĠCur ry
f illed
Ġwond ers
Ġvibr ant
ĠSte phan
ĠUn less
ĠBash ar
ĠK iev
âĸĪ âĸĪ
in ers
Ġc oding
ĠU P
Ġabund ance
Ġass erted
que z
Ġa in
Ġh obby
Spe cial
Ġs way
Ġnever theless
Ġse ize
ĠCom plete
Ġdeal er
ĠPre vention
a uth
Ġspr int
.' '
Ġeval uated
os l
Ġbuy er
Ġno on
ĠM atch
Ġdev il
C re
ĠSt rike
Ġbo o
Ġimm ers
Ġcommer ce
ĠHold er
Ġdetain ees
o ir
Ġ10 5
Ġim aging
b ane
Ġman ga
ĠR alph
Ġmonop oly
Ġje opard
Ġform ats
M ain
ber ger
Ġbot hered
Ġlit eral
ĠMon te
g rown
s an
Ġsoul s
Ġrecip ient
Ġparticip ant
ĠP aper
Ġpl um
Ġred irect
Ġmerch and
ĠSil va
Ġc ensus
Ġhilar ious
ĠK enny
Ġty r
ĠReg ister
Ġb ent
ĠFal cons
l anguage
De velop
Ġfl own
Ġredu ctions
10 1
ĠT ories
ĠEm ily
\ \
Ġsubject ive
am ount
Ġtri vial
Ġtest ify
Ġorgan isms
ĠNov a
Ġmention ing
ĠJen kins
ĠE aster
Ġrece i
ĠTit ans
ĠIsa ac
ĠB ark
ĠB ec
ĠAd rian
Ġsn ake
il ogy
ĠY am
ik er
Ġfl uct
Ġreflect ing
acer b
Ġc ared
Ġliqu or
Ġwatch dog
ĠJ unior
ĠBudd h
Inte rest
Ġdatab ases
Ġe ternal
Ġwh ales
Ġinput s
200 6
ĠR ules
Ġtrad ers
ĠPear l
ĠAt hens
Ġd ip
iet h
Ġdemonst rating
c ond
Ġcl ues
b as
ĠEmer gency
Ġtast es
ĠRe act
Ġsc iences
Ġsun light
Wh atever
b ast
Ġunder grad
Ġpick up
itz er
Ġexha usted
Ġinher it
ĠM UST
ĠâĢ ĭ
Ġsam pling
M or
b ach
ener gy
it ime
Ġb od
ĠFerr ari
Ġpay load
ĠSh akespeare
ĠW AR
ep rint
Ġfin est
play ed
Ġinadequ ate
Ġemp athy
ĠC ort
Ġgr ams
ĠBer g
ĠGab riel
ĠAgricult ure
I ts
ĠT ottenham
Ġc ivic
Ġsm iled
ĠH ost
ĠC raw
ĠKle in
ĠMet ropolitan
ĠViet namese
ĠProp het
" ),
ĠL O
Ġspin ning
Ġbarg aining
is co
ĠSch ne
Ġhur ting
ĠVal ue
ĠKash mir
c ock
Ġwork out
Ġunderstand able
Ġobs essed
Ġg ases
Ġunder water
l it
sh adow
Ġan ten
ec d
xt on
AR K
B rown
Ġsl ogan
ĠDep ression
Ġprotocol s
Ġaston ishing
un al
Ġp unk
Ġlobby ists
Ġde portation
Rich ard
Ġvast ly
Ġpus hes
Ġdark er
Ġserv ants
osh i
Ġins isting
ĠAl z
Ġconj unction
Ch ild
ĠH ob
ĠA IDS
ĠH ack
ĠJosh ua
pro cess
h aw
Ġl oot
Ġen compass
Ġcon gest
dri ving
ĠT iger
Ġdiplom ats
Ġassault s
Ġver ified
Ġinaug uration
D ate
ĠV a
ĠMc N
Ġen light
Ġvol t
b illion
ĠSt uart
ĠAustral ians
W elcome
He alth
gg y
ĠHer oes
ile m
Ġbl u
ĠLe aders
Ġmicro sc
ĠEr n
Ġs iblings
oun ter
ĠNot es
Ġprox imity
Ġg em
am ples
st airs
Ġcou ch
Ġoverwhel med
S ources
p ers
az or
Ġmole cular
Ġcapt uring
Ġwrit ings
ĠSt range
Ġbank ers
d ist
Sp ace
ĠL um
up iter
Ġcraft ed
Ġimprison ed
Ġu mb
Ġpar a
Ġdist ances
ĠTh rones
Ġst agn
Ġproceed ed
ĠKas ich
iz oph
ĠPro bably
ĠWild life
Ġhorizont al
Ġalph a
id i
Ġpromot es
ĠSy n
ĠS gt
Ġst aged
Ġsurf aces
Ge orge
Ġapolog ized
Ġst airs
ĠG oth
ĠS ite
im ination
cl ock
ĠPere z
ĠEv an
Current ly
Ġaccompany ing
ane y
ID E
er ie
q a
an cer
ĠH ook
ruct ed
ĠE ye
Ġnational ism
Ġsus cept
Ġ19 48
ĠHe avy
Ġactiv ate
Ġathe ist
Ġax is
ig o
Ġinjust ice
an throp
es ar
Ġrebell ion
Ġb ounce
Ġun named
k ar
inent al
N O
ĠC I
Ġstab bed
ĠC ob
ĠR ot
Ġsupp liers
ĠAp ollo
Ġincom plete
Ġtra it
RE D
ut ton
Ġshot gun
ĠG ang
ach i
ĠSach s
Ġsl ots
ĠBa iley
ĠS weet
Ġimpl ied
Ġmed ications
i Ã³n
os ion
alk ing
m ake
Ġpremium s
ag le
Ġshall ow
A G
Ġu m
Ġs i
ĠF aith
Ġadminist ered
ĠAb du
Ġadv ise
Ġbat ting
Ġdr astically
Ġassum es
ĠÎ ¼
ĠT ak
Ġam ended
A ir
Ġwho lly
ĠF ew
f air
Ġro pe
Ġpa ired
rop he
ĠRe x
p ict
ĠF uk
Ġplaint iffs
Ġtr ails
ĠJ ob
Ġrele g
Ġex acerb
Ġin ning
ĠT win
Ġj ar
ĠK id
ÃŃ a
Ġw olf
ro e
ĠR ust
ĠGT X
ine a
Ġind ul
Ġhint s
Ġb rib
Ġcompl iment
ĠCy ber
Ġphenomen a
b ank
ĠT ab
le um
ĠP oke
ĠD ylan
Ġb og
Ġso y
ĠR B
Ġhur ts
ĠHe aven
Ġretail er
Ġsec recy
Ġcomp ile
Ġstate wide
Ġbe am
ĠB in
Ġhighlight ing
ad h
Ġcont ention
Ġnot or
av ia
Ã© t
ĠIM F
eng ine
Ġnew com
Ġpast or
ĠEconom ics
Ġl ingu
ĠIns ider
im edia
ĠMar ie
Ġdisapp ro
ĠG ingrich
ophob ic
ĠA j
ci ation
Ġeleph ant
Ġobject ions
Ġprim aries
p res
Ġaffect ion
ĠAsh ley
Ġlo oph
{ "
ch at
Con clusion
Ġemb ry
ĠD ow
Ġf lick
ise xual
ĠEll iott
Ġpen is
ÂĢ Â
izoph ren
Ġc ites
ere rs
Ġ **
Ġb aking
Ġgener ator
author ized
Ġgorge ous
Ġg ently
Bl ue
Ġadmit ting
in burgh
ĠShe ll
Ġout line
Ġsub urb
Ġpop ulated
ĠU l
Sand ers
Ġgra pp
Ġpass words
Ġl enses
M iss
ĠSh op
Ġcomed ian
Ġvit amin
D ear
osa urs
ov an
Ġext ensions
Pl us
b us
Ġmat rix
the ning
Ġl amb
Ġprob able
Ġfiref ighters
ĠFl int
Ġj aw
Ġp ets
ĠB our
Ġborrow ing
Ġ0 6
Ġstand point
act iv
Ä ĩ
Ġinter ventions
Ġlot tery
Ġcontest ed
Ġar row
ĠU FO
Ġb ang
Ġrev is
Ġen rolled
ighte ous
Ġrespond s
Ġfig uring
Ġconf isc
intend ent
Ġtort ured
id y
f un
ĠS ask
c iously
Ġmot ive
ĠPat rol
Ġhelicop ters
Ġsyn chron
Ġback ward
Ġ* /
L ocal
Ġfit ted
Ġm asters
ĠCole man
inte gr
h ouses
Ġanaly tics
Ġsp am
W as
ĠSc ript
ĠE ug
Ġmet ro
Ġware house
ĠInd y
Ġcat aly
Ġc ater
Th us
Ġterrit orial
ĠTH AT
ir us
Ġd uck
Ġexplos ives
Ġobs ession
Ġto ggle
ĠArab s
ens itive
se xual
ĠGu ild
x on
Ġan them
ĠIndust rial
Q ue
Ġk et
Ġint ro
Ġco h
Ġun ified
rig er
ĠBur ke
Ġpopul ist
Ġse as
ard i
Ġhur ricane
Ġcontro llers
Ġlog ging
D ou
Ġself ish
S ocial
Ñ ı
ie ves
ĠJ os
o at
k it
Ġens ures
us p
ĠN RA
uss ions
ear th
Ġun equ
ĠM our
step s
Ġeru pted
Ġsum s
ĠM ix
Ġp ills
Ġmain land
Ġconcent rate
iet al
Ġcry st
ĠA ur
Ġprivile ged
ĠApp eals
R ad
ĠTreat y
Ġcol ours
Ġsad ly
Ġpsychiat ric
ĠVirt ual
Ġintern ally
ĠApp ro
ĠQu arter
g one
s ic
ĠGl en
Ġth y
ĠW alsh
sh ine
Ġm a
Ġemphas ize
nd ra
ĠLl oyd
Ġsand wich
st rom
Ob ject
Ġsurf aced
it ational
Ġprosecut ed
Ġide als
Ġlog ged
Ġfeed s
ig el
Sh ould
igg ins
Ġdistingu ished
Ġmin ors
f amily
EN D
u ber
ĠD ad
Ġdes irable
ĠO mar
Ġwel coming
Ġreact ed
ĠDra ke
Ġsoph omore
Ġo wed
Ġstret ched
Ġs atur
Ġun b
Ġsymp athetic
ĠGo ing
S QL
Ġan ecd
Ġdef er
Ġprot agonist
r ina
AM Y
Ġselect ing
Ġpartners hips
ĠKn ights
Ġincomp et
Ġtraject ory
ĠF ocus
Ġcast le
p ad
ĠT PP
ĠD iet
ĠL opez
Ġen rich
P ri
other apy
ind ust
Ġval ley
OC K
Ġrev ision
ar ious
Ġconf ined
Ġflood ed
re lla
ĠCro at
Ġo ceans
ĠW ag
Ġdefin itions
Ġconstit utes
ĠL anc
Ġcorrect ed
Ġpl ots
Sub scribe
Ġunder cover
Ġgreet ed
Off icials
Ġmos qu
ch t
Ġat roc
Ġweek ends
ĠN aval
ĠN um
ĠJ agu
Ġpool s
Ġcal culation
Ġhome owners
ĠV ersion
Ġto pp
ĠM t
ĠSim ply
Ġcorrid or
Ġcons oles
ĠPel osi
ĠInd igenous
man y
Ġinform al
sec ret
mit t
ĠWe instein
Ġsens ation
Ġhack er
Ġfin ed
Ġ19 00
ĠHe ights
ĠRoberts on
Ġ ..
ĠD ale
Ġcompl ications
200 5
ĠOff icial
Ġmach inery
oc used
ĠIn g
Ġprop osing
if le
amer a
Ġcur iosity
ĠCirc le
at tering
). <|
Ġprocess ors
You ng
ĠL av
Ġvend or
Ġup rising
â Ļ
ib al
Ġjump s
Ġpropri etary
Ġconced ed
oint ed
ĠH alo
commun ications
Ġsh irts
Ġcool er
ut ral
Ġprov oc
Ġd ice
ĠCon cer
Oct ober
h all
Ġhom eland
ĠGreg ory
Ġbuck et
Ġgau ge
ract ed
F ile
Ġhar ness
ĠAdvent ure
ĠD at
Ġnick name
ĠH od
D isc
Ã ł
ĠN am
Ġm es
Ġass ure
Ġstere otypes
Ġcan on
ĠGu ant
Ġcell ular
Ġqu eries
Ġall ocated
ĠC e
Ġvar ieties
Ġcompe lled
ĠSh o
Ġh ills
Ġc el
pe ace
Ġfair ness
Add ed
ourge ois
year s
F ixed
Ġcont ests
ĠF u
Ġpedest rian
Ġbe e
ĠL anguage
ump s
ĠP ul
us k
Ġdeb ated
ĠW end
Ġla wn
h it
ĠMar ines
Ġprompt ly
Ġpl ural
ĠN early
com mon
conf ig
ind uced
ĠEm ma
Ġreck less
Ġpres cribed
f a
f its
Ġball oon
Ġl od
ĠSt ay
en es
ĠPost ed
Ġten ants
Ġcompr ised
Ġsex y
Ġsuff ers
ĠSC P
ĠR ab
Ġpur ported
Ġdelic ate
Ġunlaw ful
ĠC ensus
Ġwas hed
Ġsl am
Ġmag net
ĠP and
Ġcommand ers
ut ic
ĠR idge
B erry
Ġcho oses
Ġarm ies
L ove
ĠRe b
Ġvar ies
Ġemb od
I ES
aze era
Ġsing ular
Ġrecru its
ĠC inem
Ġcompet itions
Ġobst acle
ĠNS W
Ġliber ation
ĠDub ai
ne ys
ela ide
bu ilt
ĠE L
p olitical
ĠAlz heimer
Ġfemin ists
Ġub iqu
F orm
Ġexem pl
yl on
Ġsuccess es
ĠSt ream
Ġc ried
Ġconnect s
Ġcolor ful
7 50
Ġcolon ies
Ġvis ibility
Ġg ru
ĠSol id
Ġprest igious
ĠOr d
ĠSch umer
ĠThe resa
ĠE sc
ĠCon n
ĠP or
Ġdebut ed
E s
Ġafter ward
Ġcomment ators
stan bul
Th ink
Ġbroadcast ing
ĠBapt ist
âĢĿ ),
ĠR BI
S w
ĠM aterial
if a
Ġtrans mitted
Ġstrateg ist
os oph
Res earchers
ĠMcC l
ĠInn ov
g mail
Ġsen iors
S un
Ġsk ate
T est
set t
is ite
ĠC AN
Ġstun ned
do ors
Ġgl oves
Ġproject ion
Ġairpl ane
Ġpit chers
Ġvoc als
Ġmax im
Ġ} ,
v id
hed ral
Ġmis dem
ot ine
Ġha w
Ġsystem ic
ĠH ood
Ġhold er
ĠW A
Ġcl oth
16 0
ĠChampionship s
os c
Ġparad ox
Ġparadig m
ĠU T
Ġmax imize
R ub
rist ol
Ġout reach
ĠTrans it
Ġeleg ant
Ġambul ance
Ġb acon
b ps
Ġcr ises
W W
Ġmil estone
Ġbless ing
ri um
be cca
od er
ĠFal con
Ġnot ifications
Ġexclus ion
ĠEth iop
ĠD uterte
Ġfin ishes
S aturday
Ġmaneu ver
e i
Ġment or
Ġp ixel
Ġmethod ology
Ġmor ally
. (
af ort
ook ie
Ġcr ush
Ġhum ili
de ep
Ġsm ok
Ġyell ing
r ill
S ix
respons ible
ĠPolit ico
Ġgri ev
ustain able
ĠB ot
Ġhasht ag
ĠN FC
Ġperce ive
Ġbrut ality
Ġtime ly
Ġstory telling
Ġimpro ves
ĠLib yan
Ġo ct
Ġpot atoes
c ision
Ġignor ant
Ġbrows ers
Ġ Ñģ
ĠC li
Ġdest inations
Ġacceler ate
Ġunpredict able
Ġweigh ing
Ġfool ish
ract ion
|> "
Ġrom ance
ĠF ortunately
With in
Ġsyn c
Te xt
Al ong
Ġhost age
Ġbarg ain
ĠF ine
cr acy
osp here
are a
Ġl ining
Ġsw orn
ĠC F
Ġconsider ations
Ġe Bay
Ġprem ises
ĠImp act
hol m
Ġhe ck
ĠBou levard
ant on
me ga
ĠOr acle
se at
Ġstruct ured
o qu
ĠE arl
Ġball istic
ans on
Ġco vert
In s
Ġburg l
AT H
it ches
Ġvulner abilities
ĠBlu etooth
Ġphr ases
Ġpreval ence
Ġneighbour s
ĠB ever
ĠB rent
aun ting
Ġinterrupt ed
ĠCh a
ĠC el
Ġunsuccess ful
L ine
m ajor
Ġrel ates
Ġdown ward
ĠHar bor
ĠWin ston
ĠLear ning
Ġgar lic
ant a
Ġincon ven
Ġinsure rs
M ap
ov ak
Ġinfer ior
Ġlo vers
G C
Ġprivile ges
Ġrenown ed
M ORE
Ġimp ly
ĠAven gers
Ġtoler ate
ĠAlf red
in v
im er
ĠT at
Ġel imination
Ġl ament
ĠE M
c ue
W ant
ri ents
Ġmin us
Ġdiscuss es
in ian
Ġteach ings
Ġchampionship s
re a
al iation
Ġk its
Ġout law
et z
ĠC ele
Ġdiscover ing
U TC
ĠT roy
iv ia
ĠC able
ri ad
ĠCharg ers
cy cl
Ġgrad uation
Ġunw anted
M arc
Ġbund le
uff s
Ġexceed ed
T L
asp berry
Ġembarrass ed
Ġtw isted
ĠGOOD MAN
ĠA verage
vert ising
ine ment
Ġmar ched
Ġexc av
it ives
Ġ" [
ĠK ell
ĠV el
Ġwrong doing
Ġmeth ane
Ġappropri ately
ĠMor rison
Ġnomine es
ĠBe gin
Ġper secution
Ġappet ite
Ġbr acket
ric anes
ĠPri x
ĠAut om
ĠGonz alez
Ġg odd
s uper
Ġa kin
ĠM aps
ĠReyn olds
ĠF ear
Ġav iation
Ġvac ant
ĠGlas gow
ĠX P
AR Y
Ġl end
Ġuniform s
ĠBro ck
ĠSpr int
C BS
op ath
Ġworks hop
ĠF ighter
Ġmer ger
Cl oud
f ood
Ġspecific s
Ġresist ant
Ġbed s
O p
he res
Ġ10 80
n is
Ġrecogn izing
Ġgr an
! ).
Ġl ur
Ġsol ic
M ass
red ited
Ġright ly
Ġaccept s
id av
ĠU pper
n ull
ĠM az
Ġst ew
Ġartif acts
Ġb ore
Ġpl asma
Ġvol can
B ox
a ic
Ġr ust
ĠM oto
m and
Ġcle arer
Sep tember
Ġgun man
Ġenjoy able
Ġcorner back
ĠThe ater
ĠL amb
Ġdesp air
In c
Th ings
Republic an
Ġthr one
or p
ĠI van
ĠSer b
ĠS ak
iff e
Ġfuel ed
Ġshut tle
Ġthought ful
ĠKn icks
ĠTh om
Ġan nex
Ġoff ences
Ġdis respect
Ġded ication
ic ans
ĠW ake
Ġentire ty
Ġextrem ism
" [
s um
re ra
âĢĿ ;
Ġcul min
ĠLGBT Q
Ġs ore
Ġnotice able
ĠTurn bull
g em
Ġrep ay
Ġver se
Ġmis ogyn
Ġid iot
Ġthe sis
ĠSt age
ĠT weet
ld a
ownt own
Ġtyp ing
Ġingred ient
Ġbl aming
Ġperform ers
Ġdetail ing
Ġtun nels
Ġric hest
ĠM ets
com fort
ĠJ upiter
Ġcon ceived
ĠE rik
Ġloc ks
Ġcondition ing
ang led
Ġex otic
ĠD ana
R edd
Ġpip es
ĠIns urance
Col or
IC O
ĠScient ology
Ġre per
ĠEd inburgh
ĠLeg ends
Ġmet adata
ĠAd vis
Ġprohib it
Ġtw ent
Ġadop ting
Ġadvoc ating
ĠH app
ĠT ol
ĠTrans port
Ġinflu x
Ġste alth
w ald
Ġsens es
ins ki
ĠFre eman
ĠN y
ĠL iqu
t ag
Ġexem pt
oci ated
at ivity
ar ak
ĠL ogan
em ption
C ON
Ġdis abilities
Ġfr acking
ĠL ag
Ġcritic ize
Ġdiam ond
Ġc ows
Ġacknowled ges
Ġpr ag
Ġkn ocking
Ġbar red
Ġrecogn izes
Ġband width
load ed
Ġexem ption
Ġref eree
Ġwip ed
Ġg rit
Ġwar rior
ex cept
gu ided
ĠDec l
Ġout field
ĠM ak
Ġun just
Ġhead set
udd enly
Ã¶ r
ĠSH A
ĠT i
Ġfur ious
Ġmer its
Ġprejud ice
Ñ ĭ
Ġstory line
St op
ĠPar ad
ĠÂ «
Ġnum er
ĠBas ically
Ġalt itude
S al
ĠN ode
ĠJ eb
st ud
Ġg ad
Ġinst itute
ĠRep orts
vas ive
U G
f ax
at ism
ĠN L
Ġillust ration
ĠFR OM
Ġexped ition
Ġsur g
nder ing
Ġseason al
Republic ans
Ġdis asters
Ġmer cy
B ob
IT E
Ġround ed
with out
Ġtr aces
q l
Ġl over
ĠL ux
ic ularly
C ourt
Ġmar athon
U ser
Ġdisplay ing
ion age
ev al
re view
ĠFil ip
C ent
aw i
Ġcoc onut
J ul
im en
ĠT E
ĠN as
d id
ĠEmb assy
Ġt il
Ġp ave
Ġun a
b ird
Ġinaug ural
l at
ĠB uc
Ġatt ain
sh irts
red dit
Ġrest art
Ġwarr ants
Ġa u
Ġfor fe
Ġman kind
Ġsm arter
Ġaggreg ate
Ġaccommod ation
ĠSadd am
t i
Ġan at
ish ment
Ġdet r
k ov
an ity
ĠU g
Ġv ivid
Ġw ary
th ouse
ĠI CE
isp here
R P
Ġf ren
Ġp ixels
Ġdiet ary
ĠFif th
Ġer ad
ĠStart ing
V C
Ġposition ing
Ġmot ives
che m
ĠL ith
ocaly pse
ard on
ou x
Ġbl essed
Ġp ap
Ġprolong ed
Ġsett lers
ĠPer l
ram id
ĠElect ronic
Jo in
ick er
Ġsing les
b ard
O k
ĠA RE
Ġgr in
achel or
Ġpreval ent
Ġre dd
S erv
Ġc raz
ic able
g rowing
ĠSpe aking
Ġinaccur ate
Ġcar pet
ĠSat urn
d et
ci pl
ĠMill enn
Ġcomb ines
Ġmir acle
Ġunst able
r ab
ol ith
We b
Al most
Ġreb oot
Get ting
ĠR ange
Ġcap ita
Ġcert ification
ĠP OL
ĠHait i
ĠH ab
Ġprogram mers
Ġpun ct
Ġbom ber
Ġenthusi asts
ĠB uch
Ġt apped
in yl
ĠSN P
Ġab st
ar us
ĠPC s
Ġindu ced
b led
Ġst ems
Ġfact o
ĠSU V
H op
Ġpaper work
Ġfreedom s
Ġinfringe ment
Ġdefe ating
ĠDev il
Ġcr ust
ĠR hod
Ġgl uc
ĠPr adesh
ĠCont act
Ġcritic isms
Ġdil ig
ish a
Ġlisten ers
Ġupd ating
Ġcoordin ate
Ġsne ak
Ġf ist
ĠEver ton
atin um
Ġreb uilding
Ġgr ind
ĠI gn
ĠSch midt
spe aking
is i
ĠL P
Ġsl og
Ġrig orous
Ġoccup y
200 4
Ġunf amiliar
Ġlength s
viol ent
Ġsanct uary
Ġbenef ited
p arent
ĠMoh amed
ag ne
Ġprogram mes
ĠW izards
Ġcort ex
A round
ĠP le
Ġ19 44
ch anging
Ġ> >>
ĠAud io
Ġport al
) -
Ġme ga
ĠSt o
Ġbureau cracy
Ġc ite
Ġstatist ically
Pac ific
Ġhost ility
com plete
Ġh over
ĠS ales
ĠC aval
ĠSe oul
ĠWH O
omed ay
al ion
Ġhous ed
m ut
ĠD ash
Ġ20 30
int o
ĠR ift
ĠPers ian
ĠC ork
Ġl ag
Ġpred ators
Cong ress
Ġru ined
Ġorche st
Ġvir uses
Ġst unt
V ery
ĠR uth
Ġillust rates
Ġsuper visor
ĠAng els
Ġter ribly
Ġsymp ath
Ġantibiot ics
ĠPrinc eton
Ġthere after
Ġrequest ing
rest rial
work ers
ĠBas ic
Ġins ider
ĠRoll ing
Ġheav ier
Ġter rific
Ġintrodu ces
ĠR are
Ġobject ion
sequ ently
N or
port ing
Ð ¼
ĠAub urn
Ġfat igue
Ġden ounced
Ġphilos opher
Ġvol atile
Th omas
ĠStar bucks
ĠTim othy
ĠBurn s
ĠGit Hub
Ġreferen ced
Ġcrack ed
ĠJul ia
Ġprost itution
Ġj ournals
Ġuns afe
op hers
ĠV ince
it an
Pro ject
Ġcoun cill
ĠNot re
ĠF a
ĠD h
Ġforb idden
Ġpers pectives
D aniel
Ġsimpl icity
l ived
Ġst yl
uk a
ĠE isen
ixt y
Ġcon qu
ĠSing le
Fr iday
Ġdet on
Ġconcess ions
ĠH orse
ic ates
! âĢĻ
ren ched
rat ives
ĠRich ards
Nob ody
ĠRom ania
is se
Ġacqu iring
ab we
av in
ĠT ournament
ĠO kay
ched el
ĠProgress ive
p aper
Ġident ifies
ĠFrank en
ĠA A
Ġbro ker
n ings
Ġsh ade
ish ops
Ġoff ended
he ed
ĠScient ists
Ġun m
Ġchar itable
c ur
Ġd ilem
f light
imb abwe
ĠLind a
Ġv est
ess ors
ĠPartners hip
ĠCitiz en
Ġmult ip
Ġend ured
ĠK on
Ġinterrog ation
L ead
ĠB io
Ġaff idav
ĠMor oc
Ġrec laim
ĠLe Bron
Ġborrow ed
ĠM ik
Ġhealth ier
Ġsubmar ine
" ]
Ġreg ain
Ġche ating
R un
F ar
Ġrecept or
ĠV o
Ġj ungle
Ġaccess ories
Ġtr action
ĠM iles
Ġsch izophren
Ġton nes
Ġbig ot
Ġrecomm ends
ĠS tern
Add itionally
Ġs perm
G P
Ġar che
Ġintention al
Ġ11 5
Ġdiplom acy
ĠSpace X
in el
B ern
Ġsuper b
O per
ĠAust rian
ĠSu z
Ġdef ect
ĠPoke mon
c ot
Bel ow
ĠAbdu llah
f act
k ara
Be yond
Ġrestrict ion
ĠI stanbul
Ġanaly zing
Ġvis as
Ġunch anged
Ġsh red
âĢ ²
Phot os
Ġshe lls
Ġterr ified
14 0
Ġskept icism
Ġd y
ĠChe v
ĠMurd och
Ġabsor bed
an ed
Ġl aps
Ġindic ators
place ment
Ġins ulin
Rec ently
D am
az er
ĠO ri
Ġsoc io
D an
c ig
ĠT ap
Ġwh it
ing ham
Ġfright ening
so ver
Ex per
ĠSher man
ĠOw en
Ġfav ors
Ġmir rors
ĠP ist
Ġpsych ologist
Ġcy l
Ġph osph
ĠDay ton
ĠExper ience
U RE
Ġcirc ular
ĠCl are
Q U
ĠS ame
Ġback yard
Ġref riger
b usiness
c ourse
Ġth a
act ed
ograph ics
lic t
Ġnational s
ĠJul ie
Ġmin eral
Ġph ases
ĠVictor ian
Ġas c
Ġde er
Ġunder going
M ex
C rit
v ity
ist ical
Ġb ourgeois
Ġf usion
Ġrec ons
og s
ĠSask at
ry s
Ġhorm one
b ial
Ġso ap
Ġbet ting
fund ing
ĠAl ways
ĠSe bast
ĠLet ter
Ġtack ling
Ġch ill
ĠCourt esy
Ġclean er
Ġref ined
Ġv intage
E p
ĠL iter
Ġfilm maker
ĠN J
Ġimper ative
li ber
ĠE ST
Ġdetect ives
ĠKum ar
ĠE N
Ġback drop
af ia
Ġexclud e
An n
Ġdevast ated
Ġsub po
Ġgoal keeper
Ġg le
__ _
Ġemail ed
keep ers
ĠJ ill
Ġdo i
\ /
Ġcell phone
ĠTill erson
est ine
ĠL ed
ian i
Ġtour ing
gg ie
US E
et c
ount ain
Ġfree zing
ĠBet a
i ov
ĠPerson al
ĠK ob
Ġtro op
Ġbeaut ifully
Ġlower ing
> </
ĠSim mons
Ġbron ze
w ere
Ġv ine
Ġn avy
Ġpe cul
Ġsquee ze
Ġnort heast
Ġund is
Ġsh aping
Ġalleg ation
ĠN ice
Ġcourt room
Pr int
ĠCore y
Ġunus ually
p ark
Ġcommunic ating
im ag
ters on
p atch
ra ve
Ġ19 41
ĠC ities
Ġret aliation
Ġ17 0
Ġend uring
ĠMe yer
F ind
Ġhand c
c in
For ce
Ġinterf aces
Ġcap ac
Ġ( .
Ġstr ains
IN T
% ).
ĠC oc
Ġadvoc ated
Ġcontam ination
or ie
spons ored
Ġinv iting
Ġproud ly
Ġpos ing
Ġ} );
ĠIns pect
Ġce ment
ĠC raft
ight y
Ġannounce ments
ipp le
Ġmark er
itness es
ĠC ad
ĠAnn ual
Ġb ast
Ġint ric
on so
Ġbal ancing
Ġbrand ed
Ġhy ster
re v
Ġundert aken
Im agine
ĠG L
Ġhapp ier
Ġinf ants
Ġmodel ing
Ġclos et
Ġrival ry
Ġa rose
it as
om ical
Ġpal m
ĠBr is
Ġsod a
âĶĢ âĶĢ
ĠR ugby
Ġhard core
ins pired
Ġl aughter
Ġdepend ence
Ġenter prises
ra f
Ġpredict ing
Ġrest ing
T T
ĠPl ant
Ġ24 0
Ġarch ives
Ġsn apped
Ġswit ches
Ġp and
Ġgovern ors
ĠD ani
Ġ- --
Ġstretch ing
Ġsc aling
Ġtake over
s ided
oles ter
ĠIS IL
oss ibly
Ġdeter mines
Ġconfir ming
ink le
ĠE instein
ĠEvery body
Ġcooper ative
Ġun real
Ġdevelop s
ĠDO J
ĠFried man
ĠU nd
Ġmerchand ise
ot ers
pl ates
Ġimp air
ĠHaw ks
ĠEl ite
Ġexp on
Ġwa ist
ĠON E
br and
Ġagree ing
Ġreiter ated
G I
cast ing
Ġaut op
Ġcritic izing
Ġbroadc aster
ĠG y
ign ment
Ġattract ing
Ġappar atus
ĠVal ve
Ġrespons ive
Ġp ulse
ĠMap le
Ġposs essed
Ġanticip ate
Ġf ost
ress es
Brit ish
C amp
Ġ19 47
Ġbe ard
Ġrev ival
Ġtravel ers
Ġmet als
Ġstar red
ĠM ig
Ġst ellar
Ġpot ato
S W
g ie
ĠC lear
Ġdom ains
Ġengine ered
or o
Ġar senal
Ġwas hing
L ive
ĠH ogan
Ġey eb
ĠSp art
ond o
us ers
Ġobser ving
Ġcore s
Ġp ine
ĠJ azz
Ġshort s
ĠD ot
sh ould
Ġspecial ists
Ġcompens ate
ĠGil bert
bal ance
Ġre ef
Ġaut umn
A ut
ng th
ĠCo ver
ĠÐ ¿
ax ies
19 90
Ġpl at
Ġele ven
Ġinnov ations
gu ards
Ġep it
o an
ern ame
Ġur gency
in qu
ĠR abb
Ġdece ased
Ġpe an
P T
Ġseiz ure
Ġcha otic
Ġst ip
Ġwor s
Ġreg imes
Ġburn s
ĠHy per
ĠNY PD
ill es
ĠMan afort
Ġs idelines
Ġgall ons
ĠUlt imately
Ġkidn apped
Ġill icit
Ġje ans
0000 0000
ĠH i
Ġpri zes
OU T
Ġhypot hes
ĠBrend an
Ġd od
ĠC atherine
Ġradio active
] ]
ĠMa o
ĠB urg
ĠUs ers
Ġnodd ed
squ are
Ġdepend ency
p al
ĠSc ore
ĠâĨ Ĵ
Ġconcept ion
Ġnegative ly
ed in
ĠCelt ics
mod ern
Ġdump ed
Ġdistract ion
as se
Ġl av
ĠV ision
oy s
Ġvis ually
ĠHay es
Ġt ant
ĠProdu ction
Ġprogram mer
Ġvisit or
Ġec ological
ster dam
ount y
Ġdeleg ate
Ġd well
ĠA V
Ġwar riors
ick ers
Ġbl ows
Ġend ure
Ġbull shit
Ġb ilateral
Ġfl ame
p rodu
Ġcontract ed
Ġvolunt arily
Ġauthent ication
ĠP os
Ġinst ability
Ġvan illa
pr im
Ġw ipe
ĠH erman
Ġwar mer
Ġsever ity
ump ing
Sh ow
ĠGr ad
Other s
Ġpen al
Ġgood ness
mo il
ĠPan ama
Ġopio id
Mc C
ĠC ards
Ġunbeliev able
Redd it
Ġcontam inated
ĠL ay
ĠWalk ing
ort ium
Ġstret ches
Ġdub ious
D en
Ġcapt ures
Ġselect ive
ices ter
Add itional
Ġrep airs
E lect
if ted
Ð ´
ĠCom ment
ĠSh ane
it us
ire ction
Ġlog in
Ġscreens hot
M ult
N OT
Ġastronaut s
ĠCent ers
amm ad
ĠMerc ury
Ġclear ance
ĠR apt
ĠE gg
av ior
Ġh orn
ĠPen insula
ĠDet ails
B Y
Wind ows
Ġcateg or
ĠN ak
anc ers
ĠVe h
Ġj ealous
Ġrad ically
N ovember
ien cies
Ġpen cil
ie u
Ġpour ing
Ġs ights
i u
Ġlone ly
ĠR iley
F in
duct ed
ĠT B
ad os
ĠSp icer
Ġcontent ious
Ġtheir s
y ers
ĠH arm
Ġacc use
verse ly
Ġth wart
ick y
ĠRou te
p c
Ġst al
Ġcr unch
Ġside walk
Ġ& &
Ġcost ing
ĠB ristol
Ġreact ors
Ġshut ting
Ġsubsid iary
Ġdem ise
Ġcompet ent
Ġhun ter
Ġro de
u ador
Ġexplos ions
et itive
ĠHon or
ĠBah rain
ĠLeg acy
ed u
Ġrob otic
Ġdisadvant age
ind a
Ġru ins
ĠVi enna
P ict
pl aced
T urn
Ġdig its
Ġsell er
ĠH ernandez
Ġm arsh
oster one
Ġf og
Ġd iving
Up on
More over
Ġsurpr ises
rec ord
I X
Ġcook ie
abl ished
ĠCraw ford
Ġprop he
Ġrelent less
Ġempir ical
Ġpath way
p arents
Ġineff ective
Ġfre ak
Ñ Į
ĠCris is
Ġreminis cent
Ġ ï¿½
ĠBren nan
Ġpal ace
ĠEmir ates
Ġins erted
ĠGr ass
Ġtransl ates
Ġb isexual
Ġque er
Ġatt achment
Ġaw aken
c led
ĠReg ardless
b uster
Ġthe rape
am el
Ġassess ments
Ġmetaph or
fol k
ĠW u
ĠBru ins
We ek
Ġinto x
o ids
ĠWeb b
Ġtw ins
Ġr anged
Ġd ull
Ġdirect ive
Ġth under
we ather
Ġv om
Ġviol ates
Ġo live
20 18
ple asant
ĠLe o
Ġshel ters
Ġher b
ĠPl aza
w ave
E ric
Ġto e
ĠAP Is
Ġs ack
Ġobser ver
ĠInvest igation
ff iti
200 1
Ġpres ervation
ans ing
Ġre he
Am azon
Ġchar ities
Ġpr inter
Ġdepend encies
Ġwithd rew
Ġlau nd
ĠRe play
ĠO t
Ġle aking
Ġpo pped
ĠFr ame
Ġh ollow
Ġmod ifications
Ġrig id
ar ium
Ġneed le
ĠBr anch
M el
Ġr im
ĠG ross
Ġdownload s
Ġposs essions
Ġbomb ings
Ġacceler ated
health y
ĠFood s
ĠP TS
ĠSu ccess
ĠF lickr
Ġple as
,âĢĻ âĢĻ
ev ent
ĠSim ple
Ġrem ed
ott esville
Ġm asks
Ġa ven
Ġmerch ants
m g
Ġcost umes
st atic
Ġle mon
ĠAndre a
Ġ195 9
abul ary
Ġrese mble
ĠAd elaide
Ġb end
ĠC rist
Ġlaugh s
cent er
ĠInvest ment
Ġdo omed
Ch ief
Ġex terior
Ġappoint ments
! '
Ġchar m
Ġfeas ible
Ġown ing
Ġredu nd
De cember
Ġf ra
ĠP ain
Ġup held
Ġpres erving
Ġpo inter
bl ue
B esides
Ġnot ices
Ġren amed
ven ant
Ġprim itive
Ġmicro phone
Ġout dated
Ġret ros
elect ed
ĠSch ultz
Ġtrain er
K evin
AN K
Ġreward ing
Ġp ensions
Ġall ocation
Ġtr aced
Ġsp ouse
ins ky
ĠT W
200 3
Ġprosec ute
or ian
Ġbr ig
Ġn urt
Ġâ ī
ia o
John son
s il
er k
Ġembr acing
ĠRock ets
Ch inese
Ø §
Ġ10 2
Ġathe ists
P ublished
let te
Ġshoot s
ĠResp ons
ĠKush ner
Ġs rc
sp an
ĠPir ates
ore st
ident ally
bl ood
ĠProte ct
Ġacceler ation
Ġv andal
ĠT aking
ĠCon way
in ters
ĠJud iciary
Ġcont end
Ġha iled
ĠP E
Ġcont ributes
Ġdiscont in
Ġpig s
Ġall ied
Ġcongress man
Ġdict ator
Ġinspect or
Ġiron ic
Ġjuven ile
Ġenroll ment
Ġte asp
any on
W il
Ġnegoti ation
e ur
Ġpar an
Ġtoss ed
Ġat oms
ĠL ance
Bit coin
Ġ18 00
ĠTro phy
Ġ Ñ
Ġmod ification
,âĢĻ âĢĿ
Ġmechan ic
Ġt ally
Ġcop ied
Ġr apper
ĠExpl orer
Ġrepl icate
ĠDev ils
\ -
land er
Ġin ad
ĠConserv ation
Ġfest ivals
ĠD L
Ġveget able
ĠDam age
ĠProf essional
Ġmamm als
ĠC opy
Ġdwar f
ĠG ir
Ġhun ters
Ġl b
ĠS hip
Ġal lev
Ġcrypt o
ĠJed i
ĠAr row
Ġextract ed
h n
Ġforecast s
Ġfert ility
AN S
ĠBeh ind
le ys
Ġoper a
ĠSpe cifically
Ġp ier
Ġle aning
ĠBl izzard
Ġuns ure
Ġup wards
ĠSter ling
Ġhop eless
H uman
Ġwithd rawn
rah im
ĠF act
Ġres olutions
Ġaccess ing
ĠChe ney
er m
ur st
Ġper tain
H i
Ġout spoken
ĠS kin
Ġmer ge
ĠObserv atory
ĠGe off
ant ry
Ġsal ad
ĠDis covery
ĠT M
Ġgif ted
Ġl ou
Ġt outed
Ġtur moil
IS A
Ġy east
Ġde af
Ġdoub les
Ġcos mic
ĠR S
ĠZ ucker
Ġr uth
Ġdisappear ance
Ġre jo
ĠD ell
ĠF M
Ġch uck
Ġdis se
Pl an
he e
ĠS end
Ġg aze
ĠS oph
Ġsmooth ly
J ones
Ġdiscover ies
Ġspir al
Ġoccur rence
D O
all ah
ĠFl ag
Ad am
av an
w ife
Le ague
ĠCry pt
L og
at ured
K en
K im
s rc
ĠB A
Ġstim ulation
Ġaster oid
Ġv inyl
ĠAct ive
ĠNational s
Ġe man
Ġnar ratives
C T
ĠM ead
Ġalleg ing
Ġshr ink
Ġairst rikes
Ġfore front
OL L
ĠMan uel
ĠTw enty
Ġv ault
oun ge
Ġ10 4
ĠD uty
ĠD LC
Ġiter ation
iv able
ĠNe g
ĠUs ually
Ġoffs pring
Y ear
gg er
Bet ween
Dem ocrats
Ġmyth s
Ġd un
ent e
Ġmilit ias
Ġneuro log
Ġmy riad
Ġsex ist
H as
R ock
c ified
Ġcan cell
in ational
Ġfr amed
Ġimm ort
ett ings
larg est
ĠS aw
ĠK iss
h ops
ile aks
Ġdimin ished
Ġanticip ation
Ġexch anged
ill on
Ġna ive
t ier
Ġrad ius
Ġv apor
ĠKurd istan
ĠE lementary
Ġadequ ately
aw ays
ĠRec ently
ĠAd obe
ĠQual ity
Ġr ansom
ĠMon ica
Ġt am
Ġtrig gers
Ġcompat ibility
ĠH ond
ĠB un
Ġinter val
m ass
l ins
le aning
sec ure
Ġjud ging
ĠZimmer man
ĠR F
Ġstamp s
Ġacknowled ging
ĠCle arly
f alls
Ġw ires
Ġpod ium
m ails
Ġadoles c
Ġcelebr ations
it em
ĠWhats App
Ġpret ending
as is
ac s
Ġnarrow ly
Ġper ceptions
Ġche ek
c ould
own s
Ġext rad
Semit ism
ĠMount ains
ĠMe et
Ġcr ashing
ĠSouth west
D ev
Ġs om
ĠCom edy
Ġplace bo
ay an
be h
Ġground ed
ĠZ imbabwe
Ġch amp
ĠB irth
Ġhe ft
Ġcur se
ĠSim ilar
Ġvalid ity
Ġintr ins
Ġdecentral ized
Ġmark ers
Ġhypot hetical
Ġcollabor ative
P ay
Ġemploy s
Ġsustain ability
ĠD S
Ġdec ay
Ġind oor
ĠBeat les
w ic
Ġrecy cling
Ġelev ator
f ired
ĠT rent
Islam ic
ĠEx cept
Ġun armed
Ġbit coins
Ġvolt age
Ġcreep y
ĠKenn eth
m atch
Ġ19 39
over ty
ĠSky pe
ĠMir ror
) ?
Ġrad i
Ġdepth s
Ġspe cially
R ay
Ġclean ed
S omething
Through out
isc her
ret urn
Ġperfect ion
ĠBeng als
H y
Ġind o
op ed
Ġsuper vision
m ult
Ġcomp ares
Ġbol ster
12 3
Ġsle pt
ĠCamb od
ĠTh an
part isan
Ġleft ist
Ġfore nsic
OR Y
Ġho ax
E ver
ĠA be
ĠAl ger
ĠMons anto
Ġdisg usting
Ġb idding
ĠS ah
Ġvers atile
l ings
ĠEv olution
Ġo lig
is ure
Ġpredict s
ĠLeban ese
H and
Ġap ost
ĠTr ain
Ult imately
Ġsuccess ion
ry pt
Ġstreng thening
Ġash amed
ĠB oss
Ġun ite
f alse
en berg
Ġperpet rators
Ġcan s
F inal
ĠC ord
Ġoverl ap
J ew
Ġnorth west
ĠJo in
ĠAli en
Ġretrie ve
( $
ĠG rowth
Ġm s
Ġgovern ed
ĠVol ume
Ġnight club
ĠJ SON
ĠO val
Ġnut rients
Ġh alls
iss an
Ġrel iance
ustom ed
Ġdefe ats
Ġdom ination
ĠScient ific
. ;
Ġrefres hing
ĠCurt is
I ll
f ight
J S
Ġregul ator
Ġpart ition
Ġtop s
Ġblast ed
Ġdis charge
ors i
ĠCom ing
Ġresearch ing
B P
Ġmeaning less
Ġsign aling
Ġgrant ing
Ġtang ible
a ft
v ideo
ĠR ew
ĠTr ack
ĠZ oo
OW N
Ġsuper st
t imes
Ġhonest y
ĠMem ory
ĠFl oyd
Ġr ack
in vest
ĠBuzz Feed
Ġm ast
Ġlun ar
ĠT L
ĠA part
Ġexp ired
Ġrep s
Ġlo oming
Ġcorrespond ence
H ard
ĠCh oice
our ing
Ġe ject
Ġde ported
ĠTer rit
Ġevac uated
Ġsc andals
Ġconstitu ency
p rotect
Ġextract ion
Ġjust ices
Ġ2 20
Ġcl o
Ġâ Ķ
Ġconcept ual
Ġdecl ines
Ġfut ures
ĠBeng al
ĠP ars
Ġrele vance
ĠJ et
Ġpo orest
ate l
Ġ 000
Ġramp ant
S ar
t z
Ġst ing
.. .<|
ob ject
ĠBudd ha
Ġrelie ved
ors che
Ġlivest ock
Ġ4 50
ĠÃ ®
Supp ort
V ict
ĠBald win
ĠJackson ville
Ġbe aches
ĠEx xon
Ar ch
ĠAn cient
S und
ĠCh arter
ro ot
S ave
Ġcruel ty
Ġaccum ulated
ĠUp dated
18 0
Ġembarrass ment
Ġresemb les
Ġwe ights
ĠC ros
Ġjudge ment
Ġeval uating
AC A
Ġre print
P o
st atus
ĠHel en
ĠN ike
p sy
Ġg it
ĠB T
ĠB orn
List en
Ġdism ant
Ġto dd
Ġmem br
Ġfrequ encies
Ġso ber
Ġe cc
Ġstake holders
he ard
Ġsusp end
Ġreal ization
Ġfalse ly
Ġsect arian
Ġw anna
ĠSalv ador
ĠMid west
Jan uary
M aking
Ġindirect ly
read ing
Ġfirm ware
ĠAny thing
C raft
ĠCoff ee
Ġpr ince
Ġf rog
W ow
Ġdistract ed
Ġhook ed
ĠE lder
C redit
d oes
Ġsp ine
Ġunder went
^ {
ĠB ert
Ġturn over
um i
Ġun cover
Ġreinfor ced
ĠN est
Ġac ids
Sub ject
is ans
Ġsex ism
Yes terday
ĠAbb as
ĠMy ster
Ġsell ers
Ġnom inations
he id
ĠRe ce
be fore
ĠSh ot
C ode
Ġdivor ced
Ġtax ation
ĠRes ults
Ġbi ography
Ġbom bers
Ġid ol
F rench
ĠG ul
Ġout raged
Ġsound ing
os er
10 5
Ġmiss es
ĠÂ ·
an ol
Ġcan vas
h l
Ġstuff ed
Ġparent al
reg or
L ou
ĠEv ents
ĠC ertainly
Ġfilm makers
Ġdest abil
ve red
Ġdr ums
Ġsuper market
ĠF resh
Ġillness es
ĠBris bane
ĠCan ucks
Ġbur ial
ĠIS Ps
Ġsh iny
Res p
ari at
Ġbr ass
ass is
bor o
Ġk in
En large
ĠF ans
Ġstat istic
Ġgoal t
b ands
am ic
Ġg room
ĠD ucks
Ġj oked
ĠPer fect
Ġsur geon
ĠViol ence
w en
Ġs ung
ĠK em
ĠIr ving
ĠB TC
ĠTechn ologies
Ġlapt ops
Ġsuscept ible
Ġair lines
Scient ists
k owski
ĠPlan ning
Ġcomp uls
Ġmel ting
Further more
A BC
Top ics
Ġutil ized
I AL
c ulture
Ġdiplom at
secut ors
ĠCan on
Ġanal ogy
Ġtr ilogy
ĠCr us
Ġst acked
Ġex ile
Ġwholes ale
met ry
Ġindef initely
Ġgl oss
Ġfundra iser
oust ic
ĠCharl ottesville
Ġoverth row
ĠAR M
ĠL ud
ĠLe ad
r h
Ġbelie vers
ĠKind le
Ġpop e
Ġcomment ator
Ġfraud ulent
L ittle
Ġgl ow
open h
els en
Ġgl orious
Ġinter ceptions
Ġs outheast
Ġmiser able
Ġbu ys
,' "
Ġreconst ruction
Ġd os
ĠT ier
Ġt apes
Ġoff ender
K it
rict ed
ĠDar ren
ucc i
P rior
Ġyell ed
ul atory
L ess
ĠF ernand
ush ima
En ter
Ġst oring
ĠAnd ers
J osh
ĠJ azeera
ess a
Ġkidn apping
import ant
Ġf aint
Ġrec urring
ĠV P
ĠIll ust
Ġpro claim
whe el
ĠInd ividual
ĠB ass
Ġir rational
Ġ195 8
Ġobs ess
id able
Ġsh arks
Ġm ant
Ġheight ened
Ġcho pped
Ġthe ology
W estern
Ġunique ly
Ġsurround ings
Ġfrag ments
ĠRh ode
Ġhe ights
Ġj ugg
ĠDes ert
r ance
g age
Ġ19 42
Ġdisp ers
ĠJohn s
qu arter
Ġvalid ation
Ġmit igate
the med
Pr ime
vention al
Ġshr inking
dog s
lud es
Ġcur tain
Ġh ats
are ndra
Se ason
N ick
Ġreg ression
ĠPan el
ĠC anyon
Ġinqu iries
ot on
pl aces
ent ric
Ġdest ined
mark ed
Ġweaken ed
d oc
Un iversity
Ġwith hold
Ġun pleasant
ĠHe ath
Ġelig ibility
Ġur ine
Ġremark ed
ĠRhod es
Ġgal axies
ĠGen esis
g ae
Ġlike wise
Ġmilit ar
ĠBar rett
ob ic
Feb ruary
Ġprop onents
Ġhon ors
Ġcatast rophe
r one
ĠB ened
ĠLa unch
count ry
ĠAd mir
Ġsuper natural
Ġcont enders
Ġded uct
ĠJ ur
ĠBlack Berry
Ġs ang
Ġcr acks
st y
ĠCustom s
Ġoper atives
pro ject
Th ird
s cient
it ating
ĠCh in
Å ¡
Ġovert urned
Ġcom r
ĠG ri
Ġdesign ation
Ġintermedi ate
Ġchar ism
Ġ195 6
AT A
Ġrev olt
ĠN ate
em ade
Ġgr abbing
qual ified
Ġpl ague
Ġsurviv or
c ro
ĠUlt ra
Ġpund its
ring ton
ĠP v
Ġphotograp hed
ĠAm sterdam
f rac
ac ial
Ġdis like
Ġcouncil s
Ġhint ed
Ġcease fire
Ġret ention
ĠF REE
ĠM illion
Ġlif elong
ĠTre vor
Ġende av
ĠB og
ul ed
Ġmad ness
ir teen
Ġworth while
ĠLike wise
Ġspat ial
F ederal
W R
Ġcrus hing
ĠE asy
ĠB row
Ġsc outing
Ġpun ched
ĠWy oming
ĠIn qu
ĠEconom y
Ġsl ap
lant ic
Ġsc oop
ush i
ud s
Ġconver ting
Ã ª
Ġch ambers
per ing
f ill
ig ators
ĠAdd itional
ĠYOU R
Ġb ounds
Ġauthor ization
ĠÐ ¸
a unch
ĠBay ern
Ġto mb
ĠBre aking
ĠSchne ider
ĠK in
ĠC E
ĠPart icip
Ġdiscipl inary
en ment
Ġl bs
âĢ¦ ]
Ġrehab ilitation
200 2
ĠDav ies
ĠB le
Ġab normal
right s
Ġhero ic
st ru
ĠM int
ĠCl iff
ĠEc uador
ĠRe becca
Ġpo orer
ĠÂ §
Ġdraw ings
et ed
ĠBl ade
arr ison
ĠH ugh
um bs
Ġunp aid
Ġdisagree ment
Ġe ch
Ġcompos er
board ing
Cons ider
IS S
Ġfair y
Ġlaw maker
Ġprepar ations
Ġun authorized
olester ol
ĠK oh
ĠGall up
ĠTest ament
T ech
ĠC oy
Ġhel pless
Ġpedest rians
t urn
ĠAr s
ĠF X
Ġheter osexual
ĠProtest ant
Ġconting ent
Ġp ent
Ġrum or
ĠF S
Ġsh am
ĠCon c
ĠThrough out
Ġtub es
ĠG iant
pir acy
ĠRest aur
a verage
W in
Ġon set
Ġz oo
ĠAng ular
Ġad vertisements
Ġfranch ises
V e
Ġreb ound
ĠBer ry
ĠFort une
Ġeffic acy
ĠR ating
Ġver ification
ĠM oy
- $
ĠCh i
ĠSh ia
Ġmar vel
ĠProv ince
ĠD owntown
ĠQuest ion
Ġlung s
Ġ10 3
Ġfore see
Ġmin erals
ĠDian e
ĠO L
ĠJack ie
Ġspec ulate
Ġreconc iliation
c ross
ĠNort heast
ĠW orth
Ġ\ (
Ġre op
Ġreject ing
Ġtelev ised
Ġt enth
Ġw inger
ĠP ierce
ex per
Ġco erc
Ġspl ash
Ġabund ant
ĠMy ers
art en
lin er
Ġs aga
Ġdifferent ial
Ġinstall ment
Ġgluc ose
Ġg y
n umber
ern ick
Ġrecept ors
il ib
Ġby te
Ġchance llor
ump ed
ĠIntern al
Ġfall out
Ġaspir ations
Ġsu ing
ĠAm anda
b ag
t arians
Ġforg ive
Ġinfant ry
ific ent
Ġan th
ĠH ag
Ġ195 4
ris y
or f
it ures
st ill
Ġprint s
ott est
ĠIm port
ĠRep ly
ĠPir ate
Ġzomb ies
Ġg ays
Ġdi agram
Ġcomp ilation
Ġcoll ar
ic idal
ol ia
Ġex h
ĠN an
Ġsm ashed
ĠS V
Ġdraft ing
B uild
L ee
ĠM oses
ĠHass an
S orry
c ule
ac a
sm all
ul ators
ĠP rest
ra red
Ġland sc
Ġedit ions
A ri
Ġsouth west
be e
ol ation
Ġdismiss al
Ġmanip ulated
ĠD iff
ĠL il
Ġcl one
d ue
ĠNep al
te chn
Ġch lor
ĠW id
ex pl
c oll
Ġapp les
Ġexc uses
art z
B rian
Ch icago
Ġsab ot
Ä į
Ġtel escope
ĠN ear
C ould
Ġroll er
R ather
Ġmer ged
Ġalign ment
ok a
Ġst umbled
ĠHug o
ĠStand ing
ĠD ance
Ġsm oked
osp ace
Ġblu eprint
ĠM ate
Ġorganiz er
Ġco herent
Ġb unk
ĠSaf e
Ġsupp ression
Ġanarch ist
Ġres h
Ġtor rent
Ġd ots
ĠWar rior
ĠPrem ium
Ġcock tail
pl er
Ġimag in
B rad
f ocused
p i
L ondon
ĠS ig
Ġt in
ĠT ah
D ue
Ġch orus
umn i
Ġplay ground
Ġsuper star
Ġstri ve
Ġcirc ulated
Ġprotest ed
Ġdisag reed
Ġprem ie
Ġse gregation
ood y
L in
s afe
Ġv oy
Ġcraft ing
ĠV ita
Ġcontin uation
PD F
Ġs omeday
Ġstaff er
Ġsqu at
od s
Ġaccus ation
Ġsuprem acy
Ġplag ued
G H
Ġb iblical
ĠGu inea
Ġinstruct or
h ig
ĠD iaz
Ġmortg ages
Ġunanim ously
ĠD B
ĠOs borne
Ġcountry side
Ġkid ney
ĠLyn n
Ġaffidav it
em y
c irc
ĠAt las
Ġaccomplish ments
ĠColon el
ĠBur ton
t v
ph oto
Donald Trump
Ġdest iny
ĠF ell
Ġro gue
cre ate
v able
ĠF argo
Ġumb rella
l ain
Ġpersu aded
stand ard
Ġunders c
ĠPR O
Ġ Ù
ĠH aven
Ġrep roduction
ave z
Ġdis able
ĠLink edIn
ĠKit chen
c am
Le vel
Israel i
educ ated
Mart in
omet ric
ĠYork er
ĠL akes
D ig
Ġgl uten
Ġdr astic
Ġfant as
Ġtele com
Ġprohib its
Ġw olves
Ġm esh
Ġbad ge
ĠV ers
Ġstap le
w ire
Ġdictators hip
C ustom
Ġpro claimed
ĠMot ion
Ġpecul iar
Ġmess y
Ġcl usters
ĠP ep
Ġunl ocked
ĠP ine
re z
F OR
ĠCom plex
icult ural
w s
Ġf ade
Ġintimid ation
N early
kins on
Ġd ess
Ġind icted
ĠRe venue
ĠK ot
Ġrational e
qu et
Ġbrows ing
ass ed
al ong
ĠW er
Ġ} ;
ĠCoun sel
Prof essor
Ġsc out
eff icient
ĠJud a
Ġubiqu itous
he avy
Ġl akes
Ġpol ite
Ġback pack
Ġswift ly
Ġost ens
ĠIndust ries
B B
ĠS hen
Ġfreel ance
ĠLi u
Ġmult inational
Ġtherape utic
Ġre imb
Ġ10 6
ĠH uck
O ld
ĠRef uge
Ġsh attered
Ġlear ns
ĠT IME
Ġinnoc ence
M ur
Ġmaj ors
ĠPl atform
ĠRock y
ĠG addafi
Ġmon arch
Ġcommod ities
c ity
bel ief
d eter
Ġhead phones
Ġcross es
Ġener get
Î ±
id ate
ĠN PC
em a
Ġcomp ression
Ġm int
Ġ-- >
Ġinteract ing
tr ade
Ġm aid
g io
Ġb ark
Ġprogress ives
c ano
o it
ot he
Ġmarch ing
ĠN OW
rel igious
" );
ĠA WS
ĠEug ene
ĠH amb
ĠAv iv
ĠC er
ĠR SS
d in
Ġscan ning
Ġg ospel
ĠIs is
ĠCl aire
Ġest e
Ġprop oses
wart z
ba um
ĠMour inho
ed ience
ĠMe ga
ĠComp anies
ĠMan ufact
Ġadvert isers
ĠArmen ian
Calif ornia
Ġtr aps
ĠMan it
ĠRel igious
Ġdisreg ard
ĠW ine
Ġp anc
ĠB il
person al
J UST
em er
Ġ195 7
Ġt sun
Ġbr ace
Ġcar ved
Ġresist ed
n c
Ġp uls
ĠLuck ily
Ġcler k
Ð ²
Ġrep ression
ĠW it
Ġaccident al
ĠKore ans
Ġric her
Ġfr inge
Ġkill ers
Ġund en
Ġdownload ing
Ġ ion
Ġl ith
ot le
Ġacc ustomed
NAS A
V ol
ĠH our
Ġadjust ing
Ġneg lected
Ġdial og
ĠInter view
R om
b ons
c od
ol iberal
ĠNew man
Ġsk ies
ĠOff icials
Ġsett ling
ĠT as
ĠN arendra
Ġl iable
ĠR ise
F ort
O pp
Ġl enders
ĠR ol
Ġopp oses
bour g
Ġco hes
ĠEuro pa
Ġdecor ated
pher d
Every body
Ġadvert ised
ĠDem s
Ġmisdem eanor
Ġweigh s
Ġreprodu ce
Ġw aking
ett i
Ġ19 17
Ġthank ful
Ġst alled
ĠB ast
Ġl ob
lling ton
Ġpoison ing
Ġemer ges
Author ities
Ġox id
Ġbe lly
Ġgovernment al
ĠIS O
Austral ia
ang ular
affe ine
Ġdoub ling
ĠSerb ia
ĠE R
C ard
Ġant it
ĠG em
ĠFe el
f iction
Ġrem ake
ĠRap ids
if ax
Ġne oc
Ġearn est
Ġant agon
Ġsub missions
Ġpar ole
Ġshoot ers
Ġb un
ã Ĥ
iv ism
real DonaldTrump
Ġdilem ma
Ġw ax
Ġc ros
reat ment
Ġmight y
ĠC AP
enz ie
ĠS R
Ġstation ed
Ġspons orship
ĠQu ant
de ath
Ġexist ential
P O
ĠT ag
Ġunt o
Ġthank ed
ĠCON T
Ġsol itary
Ġd ock
ĠStr ategy
ĠNob le
ĠHung arian
ablish ment
ĠOut side
Ġschedul es
ĠAmeric as
ĠPun j
ĠPer iod
cho ice
Ġcertific ates
ĠJ ak
Ġang el
ĠE ston
Ġbrew eries
Ġharm ony
od ore
io let
Ġver ge
Ġpir acy
u ilt
ĠW on
ĠG ur
ĠGu jar
Ġst air
ĠLe h
ĠLab s
l ate
Ġrepl ies
Ġst igma
re ne
m ove
Ġveget arian
Ġgard ens
ĠPer u
ĠBor is
Ġpsy chedel
ĠS ugar
ur ations
ĠO g
Ġsp ider
Ġwild erness
Ġgar nered
r anking
Ġanim ations
ĠOrig inally
Ġsurg ical
ĠP am
ĠW ave
On line
ĠWag ner
Ġscreens hots
ĠFreder ick
J es
ĠF ury
Ġarchitect ural
= '
In side
ĠA zer
ger ald
ĠAng lo
Eng lish
Ġcyn ical
Ġ7 50
ve ment
Ġwas ting
Ġ195 3
ĠR ising
Ġcl utch
H R
rat t
te enth
com b
Ġdown side
ĠLe icester
Ġl akh
ĠR unning
she et
ĠO C
Ġy e
ĠH av
D ist
F oot
Ġ19 55
ci um
Ġsent iments
Ġdin osaurs
gener al
ĠSt ark
Ġlog istics
Ġcollect or
yr us
j ah
Ġrem edy
Ġcomment ing
ĠS orry
ast ics
og ene
Ġcrack ing
Ġf ried
coh olic
Ġinject ed
s or
ĠV as
us ra
Ġpolicy makers
ĠF ri
ĠL az
Ġa ka
Ġl id
Ġ< <
Ġm ansion
ĠM ist
Ġenfor cing
ĠP RE
Ġrest ruct
ET A
ĠA FC
Ġge ographic
Ġmyth ology
ĠMarx ist
ĠB oot
Ġign ores
ĠWat ers
G ov
p ensive
Ġsystem atically
or ously
ĠFle et
P E
ĠSh awn
Ġexagger ated
Ġacclaim ed
ĠV ern
Ġproc ure
ĠKat ie
Ġconcer ts
ĠConst itutional
Ġhe x
Ġimp art
Ġblog gers
Ġform idable
ĠK ub
Ġsc ans
10 2
ĠSt yle
old own
D eb
st ad
Ġchar ming
Ġgoal ie
f ashion
Ġcongest ion
ĠN W
ĠRe y
ĠI F
en za
Ġp ads
ĠSyri ans
Ġpath ways
Ġunanim ous
Ġv ow
ĠLeg ion
à ¥
ĠP ra
Ġdepict ing
Ġt iles
ĠCons ult
Ġd amp
Ġshort ages
Pr ice
ĠHe ather
the ir
Ġcl oses
Ġtrans plant
h ash
Ġy a
Ġdiv isive
ĠIn come
Ġloud ly
f aced
Ġm um
ĠRes earchers
ĠLen in
ĠHam mond
Ġseiz ures
ace y
Ġret iring
ĠCom bat
ĠÂ Ĺ
ĠCong o
Ġaggrav ated
J ournal
Ġindu ce
Ġeven ly
ĠAp ache
ĠHans en
Ġth riving
Any way
ĠHig her
Ġam ple
Ġspecific ations
Ġir regular
Ġarchitect s
Ġenvelop e
r ine
im ation
art icle
Ġdem ocrat
ĠLaure n
Ġo mn
ag netic
Ġtweet ing
Ġse ated
ĠCongress man
ĠL SU
Ġbrand ing
Ġs ized
Ġmass ively
Ġconce al
ĠC ert
Ġske let
ĠW ald
Ġref resh
in as
ĠAn kara
Ġcann on
ĠG E
ĠRay mond
Start ing
f acebook
ĠWrit ing
Con nor
spe cial
d ies
m or
are l
Ġdr ills
ĠC W
Ġg el
Ġ11 1
anger ous
Ġsupp lier
Ġmedic ines
Ġover c
th y
ĠNe igh
Ġar ises
ĠM aid
Ġimp ending
Ġfire works
Ġserv ant
he rence
11 5
Val ue
Mem bers
ĠZ omb
ĠOff icers
J ose
Ġsoc ietal
ĠD ocker
Ġa rom
iv o
Ġref rain
Ġpat rons
Ġbur ger
ĠSav age
Ġincap able
Ġann ot
cript ions
hen ko
Ġ( #
G ET
Ġbu cks
ĠFor ward
Ġmerch ant
Ġwhere by
Ġplum met
Ġdeep est
Ġcounsel ing
Ġjurisd ictions
ĠAndrew s
Ġsw all
Ġcompan ions
ĠL anka
Ġinc arn
ĠD NS
Sund ay
r ice
Ġexplo its
Ġper imeter
ĠRC MP
Ġreg istry
sole te
Ġevac uation
ĠâĢ ķ
e g
W ater
ĠL TE
o il
Ġ19 43
Ġdesc ended
ĠInspect or
Ġun identified
me aning
gr and
Ġn as
ĠV ic
oh yd
ruct ions
oc hem
Ġcommun al
Ġiniti ate
Ġ Ã©
Ġspect acle
Ġproport ions
Ġcl an
ĠGard ner
Ġtum or
ĠRE AD
ĠHe in
Ġbr akes
ĠZe lda
ĠBuddh ism
Ġp act
Ġaver ages
ĠProduct ions
ĠP owers
ĠBra ves
Ġch unks
Go vern
Ġfor ged
ĠB rief
pr us
uff er
Ġrent ed
Ġreserv ations
Ġrenew al
ĠB ag
ĠO UT
Ġrun time
ĠAn s
wh y
ĠMin ority
ĠP orsche
ĠRoy als
be y
Ġwho pping
ari us
Ġp ac
um en
Ġbod ily
B at
Ne ill
Ġun in
ĠV ote
ĠSy nd
ÑĤ Ð¾
ĠF ighting
ep ernick
Ġrul ers
ĠCor nell
ĠF eed
Ġgrad ual
Ġfasc ist
Ġpredec essors
Ġatroc ities
Ġflood s
udd y
Ġd itch
ĠSh ut
12 8
ĠVict ory
ĠWheel er
Ġund o
Ġspeed ing
G roup
ĠC ous
ab ee
ĠJoy ce
ĠRel ated
ĠVen us
ist ence
Ġt apping
Ġtruth s
4 50
Ġde gr
Ġal ley
Ġrem n
Ġhe mp
Ġaw ake
Ġhal ted
Ġstr ongh
ik ed
ĠEll en
Ġnit rogen
H am
ĠL enn
Ġ19 49
ĠMed al
ĠCard inal
a qu
d ependent
b ishop
ub s
Ġcirc ulating
in th
ĠRes istance
gl ass
Ġtransform ing
Ġchick ens
Ġpo pping
Â Ĺ
at ri
ad ic
ĠRe ality
Ġgrab s
Ġsw ear
ĠP resent
Ġcon du
Ġca fe
Ġanten na
Ġmed d
openh agen
Ġv ou
Ġculp rit
ĠV ir
Ġb ree
Ne ither
enc ia
ĠT umblr
Ġrespect ful
Ġaffili ation
Ġgest ures
Sec ret
Ġstub born
Ġprolifer ation
Ġsuccess ive
Ġc it
Ġlim bs
Ġall erg
Ġs ir
Ġir responsible
Ġopp ressed
10 4
Ġstri ps
al ine
ĠE manuel
ed a
ĠL ar
Ġm ans
Ġf al
id ad
un ion
Ġplay able
Ġlim itation
Ġlast s
ĠMah m
Semit ic
ĠS onic
ill as
ih il
ĠWe ight
ON D
Ġpup ils
Ġinad vert
Ġst all
ĠM ale
priv ate
ĠC ultural
ĠEn joy
Ġphotograp hers
ĠG ent
ĠT ool
Ġdi ets
A ud
Ġc ough
ĠM TV
Ġs or
Ġne p
Ġtri angle
Ġhigh s
C y
Ġgrat itude
Ġon ion
Ġexpend iture
ody nam
Ġplanet ary
C BC
ĠSant os
ĠSuper ior
Ġeleph ants
R on
Ġn g
Ġmem e
f ires
Ġinter ception
ĠCelt ic
Ġrest oring
is man
orm an
Ġel bow
com pet
Cre ate
Ġdem ons
Ġsens ory
t ar
ĠI o
Ġsad ness
Ġincorrect ly
Ġbre asts
Ġ10 8
Ġlau ndering
ĠS ans
Ġsafe guard
ĠBel fast
ĠM T
Ġmicro bi
ef ined
st ro
ĠRock et
w ild
ĠS it
ĠRel igion
De ath
Ġpiv otal
Ġhit ter
Ġcomfort ably
Ġundergrad uate
Ġsur real
Ġf ier
Ġphil anthrop
Ġr ude
ĠRe ich
ub a
ĠA ce
Ġsl ope
Ġalleg iance
ĠSex ual
y et
ĠAl ban
Ġprofound ly
ord e
ĠJo an
c f
Ġpseud o
h ou
Ġdisrupt ive
ĠKu wait
ĠPh ase
Ġsl ate
ĠD ifferent
.âĢĿ )
F und
Ġ11 2
Ġen cl
ex isting
Ġrev ive
IL E
J ason
Ch arl
Ġdepart ed
Ġcommer cially
Ġ10 7
Ġmut ations
ĠElect oral
Ġun official
ĠE cho
ak is
ĠCharl eston
Ġgener als
Ġsimpl est
Ġsp ur
Ġper former
Ġfor c
Ġimpe achment
Ġs ins
Ġmon key
ĠL I
edd y
ĠMar athon
Ġrob bed
ig ger
Ġgood bye
ĠSm ash
just ed
Ġwork load
Ġdecre ases
Reg ardless
Ġmed als
Ġmut ation
sc ill
ĠS leep
Ġauthent icity
Ġvill ains
Ġdisc ern
Ġdr ift
Ġbud dy
Ġharass ed
Ġver te
ĠS ikh
se ys
ĠGar rett
Ġexcept ionally
Ġp oker
Ġsu cks
t ical
Ġess ays
Ġinc ub
ĠN iet
Ġmemo ir
I ron
ov y
com merce
ĠRep orter
ass ing
Ġsl iding
p resent
ep tion
M a
D i
Ġassess ing
ĠIndones ian
C ore
11 1
Ġinflamm ation
Ġrem oves
ĠW enger
Ġspec ulated
ub arak
ĠTechn ical
ic us
ĠR aspberry
Ġnep hew
s ince
Ġh ug
ĠP ip
ott i
ĠB om
10 3
Ġinter vals
Intern ational
Ġcontinu ity
ĠJuda ism
com mittee
ill ions
ru gged
Ġdisc rep
Ġhypoc risy
I r
Ġcor related
Ġexecut ing
ĠFly ers
Ġske leton
Ġc ove
ĠJ ail
Ġresp ir
ĠMoh ammad
Ġprovoc ative
A cc
B ur
ĠPed ro
as io
ĠT SA
Ġdis comfort
Ġsit uated
pict ured
Ġequ als
ĠD EA
Ġem pt
ĠCom put
ĠN olan
Ġge ek
W all
Ġpharm ac
Ġtiss ues
Ġbl oom
any e
osh op
VID IA
Ġcampaign ed
ĠPod esta
. /
S ad
f ig
Ġprep ares
ĠGree ks
Ġtest osterone
Ġ19 46
ĠPop ular
Ġpuzz les
l ia
ĠT ay
Ġinj unction
t arget
Ġl ure
ĠM AR
inc re
m ia
ass er
ĠList en
M ond
Ġd op
re lease
im an
ĠTH C
Ġconf essed
Qu ery
ĠCamer a
ĠD uck
Ġsh ining
g ithub
Ġdec omp
Ġsynt hes
ĠSt ur
Ġgra ffiti
Ġrain fall
y ll
Ġcoll usion
Ġworld view
Ġgr ains
Ġboard ing
ĠMarket ing
ĠSp ark
ab ase
r ue
at ical
ĠFl ore
Ġinv asive
Ġsy rup
Ġinv aded
ĠNot ice
Can adian
ĠFro st
B T
ĠD HS
Ġinc idence
Ġspec s
ĠMed ium
Ġbigot ry
Ġrail road
ĠNic ole
ĠDur ant
Ġdev ote
threat ening
ĠC aucus
ĠExt ra
ĠP u
Ġcamp ing
ew orthy
ĠNe o
ĠRevolution ary
Ġper t
Ġse af
ĠR i
Ġun aff
AC H
Ġe lic
Ġnot ions
Ġtoug hest
Ġtheoret ically
ĠT ucker
ĠBrad ford
d ain
ĠMe chan
N umber
Ġb aff
Ġprol ific
IS IS
ĠArch ives
Ġt abs
iss ue
ĠG olf
M ary
ut ory
act ly
ĠD re
p rop
ĠHar old
Ġtot als
r itional
Ġfil ib
ik ers
Ġdict ate
l n
z ip
Ġmis ery
ld on
ĠLe eds
) [
Ġqu ir
ĠChrist ine
ĠEth ics
ĠStrateg ic
Ġ/ *
Ġre play
ĠPatri ot
ĠP O
ĠAm nesty
ĠBl ocked
Ġvill agers
Ġschizophren ia
Ġam en
Ġrul er
ĠApp lication
Ġge op
Ã ¸
ĠCal vin
ĠPre p
Ġpair ing
z an
ĠR ole
Ġn ud
Ġincarcer ation
B usiness
Ġper il
m oon
Ġtempor al
ĠFe atures
ong o
Ġtend encies
Ġst ain
Ġsm iles
asket ball
Ġins iders
Ġconflic ting
Ġpref ers
utter stock
Ġnew born
ver ts
Ġpreced ing
Ġpro w
Ġz ip
ĠRec ent
Ġbra ke
Ġwh ip
ĠG ET
W ed
it ant
Step hen
ĠS aid
Ġspecial ty
s kin
ĠTh ing
ĠCar p
Ġinex pensive
ĠSe vent
gress ive
ĠLie utenant
C ast
Ġk ings
ĠM Y
ĠP retty
ĠG ut
W al
r aining
Never theless
b order
Ġem ission
ĠPeters burg
ic ular
Ġst d
ĠCol bert
ĠChurch ill
Le ft
ĠJ S
Ġhall uc
Ġo z
ĠA id
ĠFull er
Ġmail ing
Ġx en
ĠSebast ian
Ġgr ammar
ĠSh ore
Ġinstall ations
Ġur ges
ĠAv ailable
Ġb aked
ĠL iz
idel ity
Ġpl ight
t aking
u ously
cent ric
c reat
Ġsal mon
Ġneighbour ing
Ġscore r
ĠU E
char acter
auc as
ĠTe en
Ġ) :
ĠP oor
Ġgig antic
Ġaccum ulation
Ġvoc abulary
N P
Ġsim ulations
Ġdevelopment al
Tr ue
ĠF actory
ĠS ize
Ġex pelled
ĠZh ang
Ġand roid
Ġbo il
ott a
Ġrestrict ive
Ġcoun ters
Ġguess ing
Ġunivers ally
h awks
Ġpack ing
Ġout we
hib ition
Ġcl ay
l ass
Ġde port
Ġsur rog
IN D
Ġrot ating
b ai
Go ing
Ġyear ly
Ġexpl ores
Ġspecific ation
H en
ĠGu ate
ĠBill board
Ġlect ures
ri o
Ġadmin ister
y en
Gl obal
ĠHe b
Ġapp end
Ġsm ash
Ġche at
ĠDrag ons
Ġlaw ful
Ġc emetery
Ġl ocking
ĠF en
ĠBut ter
Ġremember ing
Ġc ues
ĠBul gar
Ġcelebr ates
Ġjihad ists
ĠE z
Ġritual s
ĠGro ve
Ã Ĥ
at ra
E st
S u
h un
Will iams
Ġpass er
Ġexpl ode
op ia
Ġdefense man
Ġlif es
ĠMel issa
ĠD uc
ĠFuk ushima
Ġappl ause
og ram
Ġperson a
Ġd ictionary
Ġcommun ism
Ġpl ac
Ġh ates
ous se
Ġexp ire
ĠJoh ann
F un
d uty
Ġcondemn ation
en ame
Ġimper fect
ĠV oy
Ġam azed
Ġcris p
Ġpil gr
ĠC OU
ĠPhilipp ine
Ġcommercial s
Ġpractition ers
ĠBay lor
Ġr app
Ġbr ink
ct ica
ĠDis play
Ġal erted
Ġpolit ic
ĠLes lie
Ġdisproportion ately
ĠUA E
th ose
Ġgl am
ir ling
Ġrat ios
st ant
ĠG amer
ĠWh ole
Sen ator
Ġsmugg ling
Ġgl owing
ĠSh arks
ĠPat terson
German y
ĠP itt
but ton
g ering
ĠFitz gerald
ĠN R
ĠGod s
Ġ2 30
Ġvacc ination
ĠAud i
Ġpost ure
ĠMar ijuana
Ġste er
Ġsubsid y
ĠZion ist
l ove
Ġa we
its u
Ġat om
Ġnow adays
ĠMy an
Ġinfect ious
Ġh ottest
Ġinsult ing
p roduction
ĠM R
ron ics
Ġfo am
Ġf ills
ĠK re
Ġunder mining
che wan
Ġconfig ured
c ritical
Ġstr at
IC S
ĠCu omo
Ġdescend ants
li able
Ġoil s
ĠL B
ĠC ain
ran ch
Ġsle w
ĠWi Fi
Ġco ached
Ġf ox
Ġdist urbed
v on
ĠP ale
ĠLiber tarian
C ru
ĠLind sey
Ġconfig ure
AN G
Ġhands ome
ĠLic ense
ĠStephan ie
W ait
ĠIss ue
Ġch illing
hard t
het ics
Ġ10 9
!! !!
Ġconstruct ive
Ġext inct
Sen ate
ĠLam ar
ĠS ara
Ġimp aired
sw er
ĠD ocument
ĠCh avez
k top
Sim ilarly
Ġnic otine
Ġinsurg ents
ĠG erald
ĠSor os
ext reme
L ocation
ĠSt am
ĠSol utions
L ight
ĠM ental
Ġch olesterol
D F
nt on
Ġdecre asing
Ġpatri ot
ĠNic olas
Ġmush rooms
Ġdefin ite
Ex pl
et r
Ã± o
Ġrestrain t
Ġo v
Fr ance
ĠShe ikh
ĠC openhagen
Ġmot ors
Ġrum ored
ĠSol omon
f ounded
Ġfam ed
Ġt ipped
ĠOper a
ĠEp ic
r ath
Ġair ing
ĠMyan mar
ĠT yson
rent ice
ĠZ ika
Ġbub bles
c amera
.âĢĻ âĢĻ
cr ime
Ġm ocked
Ġfort unes
Ġdiscrimin atory
E V
Ġd ynasty
Ġtrans cend
D ark
oot er
ĠKey stone
Ġexpend itures
Ġs ou
sp ot
ur istic
Ġsal v
ra its
ĠCh ang
oh an
Ġhorm ones
Ġpro se
Ġexhib ited
Ġtra umatic
ĠOs ama
Ġprin cess
ĠS ettings
ĠUnder ground
Ġ ï
Ġp etty
ĠCy prus
B er
Ġout doors
st re
ĠInf o
man ned
ĠTw ilight
Ġrest s
S ky
c ats
ym es
Will iam
Ġrecons ider
Ġconsult ed
rend ered
ĠSS D
ĠL ac
ĠCom ments
ĠP izza
ĠW AS
ĠJ as
Ġexperiment ing
Ġcler gy
Ġimp uls
im o
OS S
M ic
au f
OU ND
Ġther m
ĠValent ine
Ä ±
Ġunre asonable
! ),
ĠUn known
ĠW ash
Go vernment
ĠStand ards
Ġmillenn ials
oc ating
Ġinterpret ations
c ounter
IN K
Ġsand wic
Ġcyber security
Ġqu ar
ĠNAS CAR
cap ital
Ġmunicipal ities
Ġfr iction
Ġschedul ing
Ġrent s
ĠResp onse
E nt
T aking
ri ented
ĠChap man
ĠD y
Ġcontrad iction
Ġinstinct s
ĠGujar at
Ġf aded
ĠW yn
Ġpass ages
ĠBrig ade
Ġgeomet ry
Ġpol ished
ĠH os
Ġplug ins
ĠW S
Orig inally
M ajor
j ournal
w on
och ond
ĠArt ist
tt a
ĠFranc o
Ġle v
Ġboost ing
ĠW ong
Ġ13 5
Ġrevers al
ĠJ ab
Ġhist ories
ĠR ash
ign ant
Ġhome work
Ġdiscour age
Ġins ign
Ġ195 2
rain e
ĠOb server
Ġgrand parents
ĠMult i
ĠC ed
ĠW itch
T em
Ġconf ess
ĠShort ly
iov ascular
Pal est
Ġecosystem s
P an
ĠL ords
not es
Ġmon uments
Ġemploy ing
Ġrun way
Ġjud iciary
Ġconc ussion
iv or
Ġsl ash
ĠOpp osition
Ġdistribut ing
Ġcommem or
Ġt earing
Ex p
uper t
od us
ĠF ail
Ġkind ness
Ġouts iders
Ġr av
Ġcher ry
ĠConst ruction
M ont
Ġpart nered
ĠH oney
ĠTe ams
ĠÃ ¢
LA Y
ar is
ric ks
Ġtr act
ĠTr inity
K now
t xt
alk er
Ġclar ified
Ġdisp atched
Ġdrag ging
ĠOrig in
a ude
Ġp ains
f inals
et ics
Ġphenomen al
Ġesp ionage
Ġheavy weight
Ã¡ s
ĠInnov ation
vid ia
ĠJohn ston
Ġp ins
ĠA CA
Ġuns pe
ĠNon etheless
ĠBened ict
Ġpe as
Ġra ided
Ġfront s
Ġgen res
l ang
Ġs acked
ĠRoc hester
com pl
Ġcollect ors
ĠFred die
ĠPsych ology
Ġstart ling
ms on
Ġrac ially
an amo
ĠDog s
ĠAss ass
en ary
ĠC oul
Ġmar itime
Ġfemin ine
Ġread ings
Pl ayer
Ġjewel ry
Ġfin anced
Ġgun fire
ĠCy cling
Ġlong standing
Ġfulf illing
Ġinflamm atory
ĠM AN
ĠN issan
ĠFr aser
Â ½
ĠAr ist
r anked
Ġpres crib
ĠHell o
Ġsub set
Ġobst ruction
ĠMig uel
Ġtsun ami
Ġsupp lements
ĠV PN
ĠAs ked
Ġstrengthen ed
Ġblat ant
Ġregul ating
Ġindic ations
3 60
Ġch ased
ĠSt rat
ĠCon nor
ket ch
ĠArch ive
ĠFront ier
am oto
av ier
our cing
ne eded
medi ately
Ġfulf illed
ĠPh arm
Ġoptim ized
Ġexcell ence
Ġhe ars
Ġcompet ed
ĠB ug
ĠN om
ĠL L
at hing
ar ations
ĠS ke
Ġtr unk
ĠInterest ingly
Ġs ulf
ĠL un
Ġrock y
ĠP av
ĠUn block
Ġyouth s
Ġpestic ides
ĠE VER
gl obal
ĠJac obs
ĠV ander
Ġin mate
17 0
Ġcart oons
az ingly
ĠG C
Ġge ography
Ġethnic ity
Ġrab bit
ĠDecl aration
ess im
ett es
ĠAst ros
iv ities
ĠBe e
Des ign
Ġs inking
am my
ĠSol o
m oney
Ġun available
Ġmand ated
Ġsort ed
Ġpenet ration
ĠEx pect
Ġpump ing
Ġkn ives
ich i
Ġsh ale
ag ent
Ġgu iding
Ġparent ing
ĠMon roe
ĠM alt
Ġreal izes
ĠGold berg
Ġ19 33
Ġtrail ing
n om
Ġl amp
ĠFr ances
Sec urity
bro ken
Ġmanifest o
orn ings
ĠY ug
T en
Ġ15 00
ĠArt icles
C arl
Ġmis represent
ĠOtt oman
Ġr ighteous
ĠV it
uc ing
reg ulated
Pro v
m aid
Ġoun ce
ĠCh icken
ĠAst ron
C ost
P ER
tle ment
k ish
Ġh amm
if ts
Ġoptim ization
ĠX ia
ĠW ILL
Ġdef ects
ĠJav ascript
Mat thew
ĠMotor ola
Ġfat ally
ĠC V
all ic
ĠHas kell
ĠA W
19 99
ber ries
ĠIs n
St r
ĠStock holm
h ma
Ġbacter ial
l aughs
ĠSh arp
Ġf ixture
Ġinv oked
ĠAv iation
Ġb ully
es que
ĠPay Pal
Ġleg ends
est ablished
Ġgrand children
Ġd wind
Ġsp un
Ġexplo iting
Mus ic
D D
Ġs arc
ĠH ers
Ġeth ic
ĠPre vious
Ġs unk
Ġworks hops
Com ment
Ġconc urrent
pat rick
Ġhand ler
Ġopen ness
Ġslog ans
Ġout going
ĠAr ms
umb les
Ġframe works
Ġlabel ing
Ġgate way
Ġad missions
bo at
Ġcontrac eption
ch in
Orig inal
Ġceremon ies
E conom
Ġproceed ing
Ġorganiz ational
Ġunexpected ly
Ġ25 6
Ã± a
Ġstat ues
q qa
ĠK abul
Ġpar cel
Ġfront ier
Ġarc ade
ĠSh ir
Con nect
ov able
man agement
Ġhes itate
Ġw ishing
Ġch assis
ĠTor res
ĠTre nd
Ġunle ashed
ĠAny way
Ġsplit ting
Ġm aternal
UC K
Ä Ł
Ġplant ing
g ard
Ġchall enger
Ġimpl ication
ĠJan et
Ġbur nt
Ġastron omers
Ġdeploy ing
ĠIb rahim
ĠI PA
ĠB end
ĠAfric ans
ĠPubl ishing
Ġm und
ĠSh annon
p ng
ap i
25 6
en h
Pre vious
R ev
Ġb apt
ĠAll ied
Ġch ord
ĠR id
Ġob ese
10 9
J udge
l ich
Ġt ac
p ires
ut sche
ĠM K
ĠG IF
Ġcoh ort
i very
Ġvib e
Ġoversee ing
us ually
n as
Ġexc luding
Ġvisual s
Ġabrupt ly
ĠP P
Ġens l
ĠAthlet ic
Ġpen insula
Ġpr aying
Ġyield ed
ĠCustom er
Ġsummon ed
Ġbl ues
def ault
osoph y
Ġoblig ed
Ġh iking
Ġf erry
Ġwor m
Ġfil ings
Ġtermin ation
Bre aking
i ating
ĠO T
j ava
f ell
Ġmotiv ations
Jew ish
f ed
Ġdecl ares
ĠKir by
ĠSpot ify
ĠMac ron
ĠDe V
ĠKa epernick
Ġmetab olic
cl ose
Ġwith stand
Ġmod ular
ĠR um
mans hip
U r
Ġto re
Ġnotor iously
Ġunder mined
sh ort
c uts
Ġfl ipped
Ġpe aks
OL D
ĠNew ark
Ġad am
Ġe ve
Ġsn ipp
Ġdemol ition
Cle arly
IG N
ĠCom mercial
ĠWATCH ED
IC A
Ġwand ering
Ġsid eline
Ġmoist ure
Ġbe verage
ĠO dd
Ġbl ink
cept ive
act ivity
att led
Ġoverr ide
uck land
ĠPengu ins
w agen
ld om
Ġcentral ized
Ġhe ap
Ġc ant
c orn
ing es
Ġcon ve
Ġhold ings
Ġsil icon
Ġnot ify
Ġk idding
r t
ĠBar on
Ġret ali
ĠReg ist
Ġdatas et
Ġob solete
Ġp enny
Ġill umin
ĠTown s
Ġgener ators
Ġas semble
Ġbl onde
Ġprogress ed
ĠBur ger
ĠInt o
ĠDet ective
Ġper vasive
ang a
ys ics
Ġkey word
am bo
get own
ij i
ĠMoz illa
Ġenerget ic
ĠT ank
vis ors
Ġspont aneous
ĠSec urities
Ġw izard
Ġbl ur
ĠChar acter
ĠField s
Ġf eder
Ġdiss atisf
Ġmis guided
ĠSch war
ĠA AA
... ]
ĠW rite
Ġproced ural
Event ually
her ty
Ġphilos ophers
Ġtrig gering
ment ia
Ġstr anded
Ġbeh old
Ġdisc arded
Ġgl ue
Ġb ids
ĠPer th
Ġcancell ation
el o
w omen
k ick
ig ated
ĠHann ity
Ġretain ing
Ġsynt hesis
Ġs lick
Ġsod ium
ĠDo om
l ists
Ġbroadcast s
Ġlos ers
ĠC ec
Ġun ins
ĠL ok
ĠK ris
Ġhom emade
ĠA U
udd le
Ġrese ar
x imately
ĠS ally
Ġarbit ration
od o
ĠG ren
Ġcar te
Ġsoc ks
Ġmic row
Ġnarc iss
oss ip
N ov
ĠO ption
Ġtom atoes
Ġcub ic
ĠPTS D
Ġrespect able
Ġvan ished
Ġsp rawling
Ġmat urity
ĠX in
ĠMad uro
ro b
M R
Ġor thodox
Ġutil izing
Ġ17 5
l ide
ĠM ubarak
ĠE ld
Ġstress ful
ip al
ĠM W
ĠAl bum
lu ent
Ġsuper f
rac use
Ġev id
Ġdom est
Pri v
m is
E AR
Ġtest ament
ON G
Ġpione er
ĠN igel
Ġprev ailing
ĠAC T
Ġa isle
ĠHar b
EM A
Ġescal ation
M rs
ĠPod cast
Ġrespir atory
ĠF ry
ĠAdvis ory
reg ulation
ent on
ĠAna heim
Ġs igh
not hing
Ġbureaucrat ic
ĠAur ora
Ġsmok ers
ĠAl v
ĠGuant anamo
Ġresist ing
Ġle isure
Ġ19 14
Ġhigh ways
Ġcor ro
Ġreject s
ĠLu cy
h on
Ġmet ropolitan
F lor
Ġd urable
Ġvers a
go ogle
Ġre write
ĠA ber
ĠB ath
z ero
ĠSte ele
ev il
Ġl ord
Ġimag inary
Oh io
bet ween
oy a
Ġstandard ized
Ġ195 1
ĠGreen e
v s
W orks
Ġexp ands
ĠHor izon
ĠHoff man
Ġtro lls
ĠBoy d
v ine
Ġsin ister
ĠCre ated
iol a
F ast
ĠH B
ĠAntar ctica
ĠAN Y
E ast
Ġstat utory
Ġf uzz
Ġab using
Ġcos m
re b
Ġsat ir
Ġassist ing
ĠM Hz
Ġpack et
Ġse ating
ĠD raw
Ġblock ade
Ġcon quer
Ġd ental
em on
Ġvis ions
E arth
To o
Ġrestrict ing
c hens
Ġlik ing
ĠK ur
ĠLaw s
Ġpir ates
Ġdem ographics
Ġlive lihood
ic ially
if ty
ows hip
B ad
h h
Ġ19 38
ĠWe ber
Ġrel iably
Ġaw ait
ĠJoe y
ĠSw ord
dig it
Ġst ared
ĠV on
Ġass im
Ġsqu ares
Ġbi om
ob il
at ible
Ġad here
H appy
Ġjud gments
" ?
Ġpir ate
Ġinsist ence
Ġpromin ence
I tem
g all
ĠStat us
Ġchrom os
Ġth ieves
aid a
Ġlaund ry
Ġar rows
l ated
sh are
ĠPhys ics
Ġsc aled
Ġend urance
ĠSant orum
ĠRut gers
Ġce ased
Ġaut obi
R B
ĠS ina
ĠH iro
Ġobject ed
Ġimp over
ĠRes cue
ĠS ark
Ġne oliberal
ĠV C
Ġsacrific es
Writ ten
onge vity
Ġincons ist
Ġac oustic
ĠKaz akh
V ia
Ġmod s
ĠTon ight
reat h
ĠSc out
Ġfear ful
Ġtheat rical
Ġpresum ed
ĠManit oba
ĠQuest ions
Ġa ided
Ġconf ession
Ġche ering
Ġsubst it
ĠSub ject
Ġmagn ificent
Ġdisrupt ed
ĠCom pl
Ġ iv
Ġbal ances
Ġpun ches
ĠOpp ortun
ocaly ptic
z illa
Ġde ception
ron ting
Ġelect rons
CL OSE
Ġpump ed
Ġimpress ions
Ġ[ âĢ¦]
/ -
al most
Ġund ec
rec ogn
Ġteasp oon
ĠElect ions
Ġdiff ers
ve illance
Ġcondem ning
are th
Ġprov oked
ĠWol ver
ess ment
ĠFinn ish
h m
Ġbus h
ĠSch wartz
an an
ar ray
ĠUg anda
Ġarm ored
Ġrum ours
ilib rium
j ury
it ious
og rams
Th ursday
Ġalph abet
ĠMar riage
Ġtem pted
Ġswing ing
ĠZucker berg
i ago
oc re
Ġelev ation
Ġlab s
ĠAl leg
ĠDani els
Ġth igh
Ġpossess es
is y
raft ed
Ġrehe ars
Ġconserv atism
ĠMon itor
Ġtermin ated
Ġl ent
Ġun for
Short ly
ir rel
ĠSad ly
Ù Ĩ
let ion
Ġtele communications
Ġhur ry
ĠAr ray
Ġjihad ist
ĠG ru
ĠWill ie
Ġconsult ants
S n
ĠN I
Ġres umed
ĠCrit ics
Ġun sett
T B
is ine
Ġ19 18
T it
Ġre written
Ġbet s
ĠWik ileaks
ĠÂ ĸ
l aughter
Ġguess ed
ĠF usion
Mond ay
Ġburd ens
C ase
m ort
Ġstim ulate
ĠR NA
ĠHist orical
ĠKn ox
U MP
and ro
Ġout ward
11 2
Ġcan cers
acc ount
ĠV II
fashion ed
ov sky
Ġdownt urn
Ġoverse es
ĠR iot
Ġbull pen
Ġunfair ly
ĠL uk
Ġnostal gia
ĠT witch
Ġsky rock
ĠSy racuse
Ġrot ate
ĠSc and
Ġ11 4
Ġcirc uits
ĠD as
iv ist
oper ation
Ġgrad uating
ĠHann ah
ack ers
Ġo riented
Ġrou ter
L uc
re ally
Ġwheel chair
Ġc av
Ġc apped
Ġing en
Ġpol es
sm ith
ĠP ool
ĠH ang
Ġmim ic
ĠAg es
Ġdisgr ace
ĠOri oles
C oll
M il
Ġmetabol ism
Ġtrans itions
Ġsc outs
Ġmon st
Ġecl ipse
Ġw aving
st own
P akistan
Ġheft y
j son
il ot
ĠL is
ud get
uck ing
Ġun used
Ġfold ed
Com ments
R a
ord ered
Ġext r
ĠD ew
ĠR andom
go ers
Ġl ays
ĠW ool
Ġgun shot
Ġinsult s
Ġmel ted
Ġt ones
Ġtext ures
Ġtransfer ring
ALL Y
Ġcollabor ate
ĠHard y
St and
Ġpip elines
ĠI X
Ġostens ibly
he ne
ĠRe ason
Ġ12 3
ĠRom ans
10 6
Ġgrav itational
ĠF it
avor ite
Ġcomp ute
ĠP ure
ĠSaskat chewan
S ean
n ick
Ġviol ently
inn amon
ĠF ah
ĠCB D
ĠY ORK
Japan ese
att a
Ġb ishops
Ġex ert
ĠDevelop er
N F
Ġer osion
ĠC AR
ĠDri ver
ĠSouth ampton
ĠCont ract
Ġpro let
Ġlegal ized
Ġresent ment
: \
Ġn ause
Ġban ana
he a
ĠH ours
Ġsp ies
Ġharm less
ble ms
Ġundert ake
ĠWhe never
ĠP ull
Ġclass ics
ixt ures
uss y
ĠÐ ¾
ĠH il
Ġguitar ist
ĠProper ty
ĠC ory
Ġ1 19
Ġbo ast
Ġn ap
ow ler
out heastern
ĠPer kins
ĠA gg
ĠR anch
Ġrec ap
ĠK O
Ġb olt
Ġconf inement
ĠDI Y
ang ling
Ġfun nel
Ġesc aping
Act ually
Ġcum ulative
f at
Ġjoint ly
g it
Ġthink ers
13 5
Pro t
ĠS inger
ĠA HL
indust rial
ĠID F
ff ield
Ġentit lement
Ġ( (
Ġfil tering
Ġc affeine
ĠWorld s
Ġbe gging
Ġdr ank
Ġcommand ing
ĠIran ians
Ġmis con
Ġsal vation
ĠS uff
Ġmut ually
t ree
Ġexerc ising
Ġmelt down
Ġmon keys
Ġcor al
Ġdeb unk
ĠL inks
ĠBar cl
at ts
St ay
Ġwid ow
z man
Ġmarket ed
ĠRiver a
S ystem
o os
Ġout lines
Ġam p
U t
ĠB oulder
com ment
ĠF i
ĠJ P
Ġp as
ĠF ul
d rive
e on
Ġsepar ating
ĠM H
Ġter med
Ġant iqu
Sc roll
Ġpe aked
cl air
Ġdeb ating
Ġspe lling
Ġe in
ĠMic key
Ġteam ed
10 7
p osition
Ġspec ulative
ĠJagu ars
t im
ĠHer bert
ay ette
Ġhazard ous
E ff
in ness
ĠF AA
Ġmarginal ized
ĠP ixel
ĠN eal
ĠBook er
aw k
Ġrev ol
ĺ ħ
ĠW elcome
Ġboost ed
ah on
l oss
it imate
Ġg ast
ĠC lement
ru ce
s aving
ĠR OM
Res earch
Ġg n
P op
per fect
ĠBlack s
Ġthere of
f urt
Ġwarm th
mod el
on ial
ĠLiber ation
ĠP BS
ĠPOL IT
bet ter
Ġnote book
ĠR osa
ks wagen
be ck
Ġundert aking
ym ph
Ġvari ability
. *
W E
c ause
âĢ¦ "
Ġpled ges
Ġa rous
Ġt an
ĠF emin
ĠL imb
Ã ¯
Ġcoordin ates
Ġenvision ed
Ġover weight
pe x
ĠPro blem
Ġbar bar
Ġdep icts
Ġm og
ĠRe qu
Ġpossess ing
Ġcock pit
Ġpack aged
miss ible
ĠRaf ael
Ġsh aft
[...]
