{
  "!": 33,
  "!!": 4992,
  "!!!": 14437,
  "!!!!": 23131,
  "!\"": 5098,
  "!'": 20606,
  "!)": 8680,
  "!),": 23247,
  "!).": 19408,
  "!,": 26532,
  "!<|": 7441,
  "!âĢĻ": 19867,
  "!âĢĿ": 4629,
  "\"": 34,
  "\")": 8527,
  "\"),": 18436,
  "\").": 17885,
  "\");": 21903,
  "\",": 2866,
  "\",\"": 11135,
  "\".": 2826,
  "\".[": 8673,
  "\":": 4944,
  "\":\"": 10310,
  "\":{\"": 29931,
  "\";": 15662,
  "\">": 9319,
  "\"?": 23965,
  "\"[": 19459,
  "\"]": 19917,
  "\"âĢĶ": 30757,
  "#": 35,
  "##": 5032,
  "####": 9123,
  "########": 15201,
  "################": 25291,
  "$": 36,
  "$$": 28591,
  "%": 37,
  "%)": 6587,
  "%),": 17437,
  "%).": 20124,
  "%,": 8122,
  "%.": 7583,
  "&": 38,
  "'": 39,
  "''": 15857,
  "')": 17169,
  "');": 26520,
  "',": 6396,
  "'.": 8497,
  "':": 15731,
  "';": 25748,
  "'d": 3012,
  "'ll": 2293,
  "'m": 1983,
  "'re": 1387,
  "'s": 425,
  "'t": 696,
  "'ve": 1852,
  "(": 40,
  "(\"": 10652,
  "($": 21017,
  "('": 12564,
  "()": 5439,
  "().": 25598,
  "();": 12481,
  "({": 28764,
  ")": 41,
  ")\"": 25511,
  ")(": 13863,
  "))": 7839,
  "));": 27849,
  "),": 908,
  "),[": 30625,
  "),âĢĿ": 29926,
  ")-": 19771,
  ").": 833,
  ").<|": 18980,
  ").[": 11176,
  ").âĢĿ": 27588,
  ")/": 30852,
  "):": 3717,
  ");": 3013,
  ")<|": 10356,
  ")?": 20953,
  ")[": 22843,
  ")]": 30518,
  "){": 31496,
  ")|": 15440,
  ")}": 31735,
  ")âĢĶ": 24882,
  "*": 42,
  "**": 2222,
  "***": 10070,
  "****": 5232,
  "********": 9882,
  "****************": 17694,
  "*,": 31651,
  "*.": 31552,
  "+": 43,
  "++": 8912,
  "++++": 31945,
  "+,": 29803,
  "+.": 30807,
  ",": 44,
  ",\"": 774,
  ",'": 5445,
  ",'\"": 21305,
  ",''": 17357,
  ",,": 30989,
  ",[": 5608,
  ",âĢĻ": 5968,
  ",âĢĻâĢĻ": 20580,
  ",âĢĻâĢĿ": 20699,
  ",âĢĿ": 685,
  "-": 45,
  "-$": 21573,
  "-)": 30247,
  "-,": 29714,
  "--": 945,
  "---": 12822,
  "----": 1759,
  "--------": 3189,
  "------------": 26012,
  "----------------": 5936,
  "--------------------------------": 11990,
  "----------------------------------------------------------------": 28310,
  "->": 9866,
  ".": 46,
  ".\"": 723,
  ".\")": 30774,
  ".\"<|": 5823,
  ".\"[": 7213,
  ".'": 4090,
  ".'\"": 17032,
  ".''": 18296,
  ".'âĢĿ": 30140,
  ".(": 19208,
  ".)": 2089,
  ".),": 11936,
  ".).": 16571,
  ".)<|": 25860,
  ".*": 24382,
  ".,": 1861,
  ".-": 8516,
  "..": 769,
  "...": 1477,
  "...\"": 14094,
  "...)": 31170,
  "....": 3689,
  ".....": 29691,
  "........": 8267,
  "..........": 27217,
  "................": 16592,
  "...<|": 21103,
  "...]": 23772,
  "./": 22736,
  ".:": 13343,
  ".;": 21033,
  ".<|": 959,
  ".[": 1074,
  ".]": 10726,
  "._": 27480,
  ".ÂĶ": 27017,
  ".âĢĶ": 24948,
  ".âĢĻ": 4047,
  ".âĢĻâĢĻ": 23185,
  ".âĢĻâĢĿ": 16193,
  ".âĢľ": 13356,
  ".âĢĿ": 645,
  ".âĢĿ)": 22606,
  ".âĢĿ<|": 5292,
  ".âĢĿ[": 25697,
  "/": 47,
  "/-": 24032,
  "/.": 11907,
  "//": 1678,
  "////": 24630,
  "0": 48,
  "00": 454,
  "000": 951,
  "0000": 7058,
  "000000": 28920,
  "00000000": 20305,
  "001": 16133,
  "003": 26963,
  "01": 5582,
  "02": 6900,
  "03": 7061,
  "04": 6857,
  "05": 5722,
  "06": 6542,
  "07": 6703,
  "08": 6409,
  "09": 6713,
  "1": 49,
  "10": 1355,
  "100": 3998,
  "1000": 17837,
  "101": 18345,
  "102": 22198,
  "103": 22693,
  "104": 22498,
  "105": 21209,
  "106": 24205,
  "107": 24333,
  "108": 24797,
  "109": 23637,
  "11": 1727,
  "110": 13711,
  "111": 22678,
  "112": 24119,
  "113": 25635,
  "114": 24782,
  "115": 22307,
  "116": 27002,
  "117": 26113,
  "118": 27315,
  "119": 26561,
  "12": 1850,
  "120": 14400,
  "121": 27551,
  "122": 27419,
  "123": 20972,
  "124": 28269,
  "125": 17704,
  "126": 29128,
  "127": 25938,
  "128": 22425,
  "129": 27112,
  "13": 2307,
  "130": 17564,
  "131": 28994,
  "132": 30102,
  "133": 27568,
  "134": 29268,
  "135": 24274,
  "136": 31248,
  "137": 29987,
  "138": 31567,
  "139": 30931,
  "14": 2208,
  "140": 19965,
  "141": 31202,
  "144": 29404,
  "145": 28034,
  "149": 29642,
  "15": 1995,
  "150": 10636,
  "155": 27622,
  "16": 2187,
  "160": 19173,
  "165": 30092,
  "168": 25529,
  "17": 2409,
  "170": 23460,
  "175": 25235,
  "18": 2464,
  "180": 21126,
  "19": 1629,
  "190": 28397,
  "192": 29632,
  "1970": 29092,
  "1980": 25121,
  "1989": 29822,
  "199": 7610,
  "1990": 20275,
  "1991": 29843,
  "1992": 28628,
  "1993": 28834,
  "1994": 27385,
  "1995": 26764,
  "1996": 26265,
  "1997": 26557,
  "1998": 25926,
  "1999": 23537,
  "2": 50,
  "20": 1190,
  "200": 3050,
  "2000": 14196,
  "2001": 20546,
  "2002": 21504,
  "2003": 20638,
  "2004": 19752,
  "2005": 18969,
  "2006": 18381,
  "2007": 16918,
  "2008": 14445,
  "2009": 13533,
  "201": 31173,
  "2010": 12339,
  "2011": 11746,
  "2012": 10614,
  "2013": 10083,
  "2014": 8428,
  "2015": 8846,
  "2016": 8597,
  "2017": 10422,
  "2018": 20532,
  "2019": 27125,
  "202": 29286,
  "21": 3920,
  "210": 28933,
  "22": 3299,
  "220": 25946,
  "225": 29969,
  "23": 3580,
  "230": 27359,
  "24": 3383,
  "240": 25373,
  "25": 2619,
  "250": 10380,
  "255": 25333,
  "256": 23628,
  "26": 3891,
  "260": 31102,
  "27": 3761,
  "270": 31092,
  "28": 4033,
  "280": 30019,
  "29": 4029,
  "3": 51,
  "30": 1906,
  "300": 7381,
  "31": 5290,
  "32": 4452,
  "320": 27604,
  "33": 4260,
  "34": 4840,
  "35": 3865,
  "350": 17751,
  "36": 4694,
  "360": 23422,
  "37": 4968,
  "370": 27633,
  "38": 4776,
  "39": 5115,
  "4": 52,
  "40": 2980,
  "400": 8073,
  "41": 6035,
  "42": 5808,
  "43": 6041,
  "44": 4671,
  "446": 30541,
  "45": 3880,
  "450": 22439,
  "46": 5338,
  "47": 5100,
  "48": 4989,
  "49": 5174,
  "5": 53,
  "50": 1697,
  "500": 4137,
  "51": 7785,
  "52": 7812,
  "53": 8075,
  "54": 7874,
  "55": 4935,
  "550": 28986,
  "56": 7650,
  "57": 7278,
  "58": 7321,
  "59": 7027,
  "6": 54,
  "60": 2754,
  "600": 9323,
  "61": 9038,
  "62": 9108,
  "63": 9117,
  "64": 5902,
  "65": 5939,
  "650": 25284,
  "66": 6763,
  "67": 7190,
  "68": 7093,
  "69": 8060,
  "7": 55,
  "70": 4219,
  "700": 10934,
  "71": 9283,
  "72": 8707,
  "73": 9446,
  "74": 8837,
  "75": 4775,
  "750": 19115,
  "76": 8665,
  "77": 6788,
  "78": 7556,
  "79": 8618,
  "8": 56,
  "80": 3495,
  "800": 8970,
  "81": 9900,
  "82": 9911,
  "83": 9777,
  "84": 9721,
  "85": 8346,
  "850": 30762,
  "86": 7721,
  "87": 8258,
  "88": 6836,
  "89": 8136,
  "9": 57,
  "90": 4448,
  "900": 14553,
  "91": 11402,
  "92": 10842,
  "93": 10916,
  "94": 11134,
  "95": 5900,
  "96": 10425,
  "97": 11120,
  "98": 10509,
  "99": 3217,
  "999": 26425,
  ":": 58,
  ":\"": 27235,
  "://": 2078,
  "::": 8372,
  ":<|": 7900,
  ":[": 24996,
  ":\\": 24233,
  ";": 59,
  ";[": 27589,
  "<": 60,
  "</": 7244,
  "<<": 30733,
  "<|": 703,
  "<|endoftext|>": 31998,
  "<|pad|>": 31999,
  "=": 61,
  "=\"": 5324,
  "='": 22110,
  "==": 2711,
  "====": 4709,
  "========": 8033,
  "================": 14054,
  "================================": 26933,
  "=>": 30935,
  "=âĢĿ": 14671,
  ">": 62,
  "><": 16557,
  "></": 20086,
  ">>": 5822,
  ">>>>": 14489,
  ">>>>>>>>": 29253,
  "?": 63,
  "?!": 15327,
  "?\"": 3575,
  "?'": 12279,
  "?)": 11312,
  "?),": 30861,
  "?).": 26927,
  "?<|": 11567,
  "??": 10388,
  "???": 31440,
  "?]": 27996,
  "?âĢĻ": 11232,
  "?âĢĿ": 2958,
  "@": 64,
  "A": 65,
  "AA": 7688,
  "AB": 10868,
  "ABC": 21266,
  "ABLE": 29581,
  "AC": 3196,
  "ACA": 21133,
  "ACE": 17354,
  "ACH": 22810,
  "ACK": 12944,
  "ACP": 27394,
  "ACT": 17834,
  "AD": 3762,
  "ADA": 27541,
  "ADE": 31312,
  "ADVERTIS": 12926,
  "ADVERTISEMENT": 13352,
  "AF": 10198,
  "AFP": 14955,
  "AFTA": 24857,
  "AG": 18611,
  "AGE": 27742,
  "AI": 25479,
  "AK": 15638,
  "AL": 3092,
  "ALE": 27788,
  "ALL": 10266,
  "ALLY": 24194,
  "AM": 3461,
  "AMA": 24917,
  "AME": 17079,
  "AMP": 27599,
  "AMY": 18902,
  "AN": 2338,
  "ANC": 24646,
  "ANCE": 30387,
  "AND": 9514,
  "ANG": 23121,
  "ANK": 20630,
  "ANN": 24853,
  "ANS": 20731,
  "ANT": 16043,
  "AP": 3792,
  "APD": 30832,
  "APP": 27228,
  "AR": 2492,
  "ARA": 29669,
  "ARC": 26817,
  "ARD": 15283,
  "ARK": 18456,
  "ARP": 29357,
  "ARR": 31924,
  "ARS": 30711,
  "ART": 10823,
  "ARY": 19387,
  "AS": 2486,
  "ASE": 17367,
  "ASH": 11945,
  "ASHINGTON": 15118,
  "ASS": 18136,
  "AST": 15909,
  "AT": 1976,
  "ATA": 21431,
  "ATCH": 11050,
  "ATE": 7856,
  "ATED": 11898,
  "ATH": 19279,
  "ATION": 11985,
  "ATO": 8011,
  "ATT": 25811,
  "AV": 13576,
  "AX": 31928,
  "AY": 10261,
  "Aaron": 28197,
  "Ab": 5534,
  "About": 8481,
  "Above": 29527,
  "Abs": 25343,
  "Ac": 15696,
  "Acc": 22713,
  "Access": 25778,
  "According": 3769,
  "Across": 31633,
  "Act": 10067,
  "Action": 25453,
  "Activity": 26225,
  "Actually": 24268,
  "Ad": 2588,
  "Adam": 20794,
  "Add": 6436,
  "Added": 19032,
  "Adding": 29528,
  "Additional": 20389,
  "Additionally": 19933,
  "Adv": 29184,
  "Advertisement": 3732,
  "Advertisements": 11822,
  "Advertising": 25215,
  "Af": 15963,
  "Afric": 27384,
  "After": 2982,
  "Ag": 11192,
  "Again": 14325,
  "Age": 26807,
  "Ah": 13802,
  "Air": 18624,
  "Al": 2658,
  "Alan": 31893,
  "Alex": 13592,
  "Ali": 26049,
  "All": 3531,
  "Almost": 19696,
  "Along": 19250,
  "Also": 7284,
  "Altern": 28323,
  "Although": 6064,
  "Am": 5881,
  "Amazon": 20550,
  "Americ": 4621,
  "America": 15526,
  "American": 6156,
  "Americans": 13940,
  "Among": 11329,
  "An": 2069,
  "Analy": 30275,
  "Analysis": 27792,
  "And": 1734,
  "Andre": 26479,
  "Andrew": 17836,
  "Android": 27352,
  "Andy": 28928,
  "Ang": 15016,
  "Ann": 20057,
  "Anna": 26930,
  "Another": 5650,
  "Ant": 13612,
  "Anth": 25596,
  "Anthony": 26826,
  "Anti": 26555,
  "Any": 7153,
  "Anyone": 17461,
  "Anyway": 22252,
  "Ap": 30116,
  "Apart": 31286,
  "App": 5960,
  "Apparently": 25101,
  "Apple": 14456,
  "April": 16584,
  "Ar": 4094,
  "Arab": 26172,
  "Arch": 21117,
  "Are": 9244,
  "Ari": 21665,
  "Around": 19764,
  "Ars": 28554,
  "Art": 9053,
  "Arthur": 26641,
  "Article": 14181,
  "As": 1563,
  "Ash": 27283,
  "Aside": 26175,
  "Ask": 28653,
  "Asked": 14080,
  "Ass": 8661,
  "Assad": 17633,
  "Associated": 26878,
  "Ast": 30724,
  "At": 2701,
  "Att": 13020,
  "Aud": 22529,
  "Aug": 14527,
  "August": 18247,
  "Aust": 12762,
  "Austral": 16095,
  "Australia": 22010,
  "Australian": 30273,
  "Aut": 20270,
  "Author": 14707,
  "Authorities": 22005,
  "Av": 15045,
  "Available": 28016,
  "Average": 31450,
  "Aw": 27778,
  "Az": 30709,
  "B": 66,
  "BA": 4333,
  "BB": 21856,
  "BBC": 27456,
  "BC": 2342,
  "BE": 16228,
  "BER": 15486,
  "BI": 3483,
  "BL": 13113,
  "BLE": 24615,
  "BM": 9134,
  "BN": 10919,
  "BO": 8083,
  "BP": 21047,
  "BR": 14948,
  "BS": 4461,
  "BSD": 25247,
  "BT": 22788,
  "BU": 25113,
  "BY": 20413,
  "Back": 8500,
  "Background": 25874,
  "Bad": 23946,
  "Bal": 31965,
  "Ball": 31707,
  "Ban": 30728,
  "Bank": 26283,
  "Bar": 11862,
  "Bas": 17716,
  "Base": 25620,
  "Based": 15534,
  "Basically": 27177,
  "Bat": 22406,
  "Battle": 27680,
  "Bay": 14499,
  "Be": 3780,
  "Because": 7382,
  "Before": 7834,
  "Begin": 30351,
  "Beh": 26979,
  "Being": 16184,
  "Bel": 11475,
  "Below": 19950,
  "Ben": 11911,
  "Ber": 23215,
  "Bern": 19942,
  "Bernie": 26251,
  "Berry": 19082,
  "Besides": 20618,
  "Best": 12721,
  "Bet": 13657,
  "Better": 29058,
  "Between": 20833,
  "Beyond": 19954,
  "Bi": 28461,
  "Big": 12582,
  "Bill": 15611,
  "Bit": 14803,
  "Bitcoin": 20694,
  "Bl": 4825,
  "Black": 11191,
  "Block": 25630,
  "Blood": 31203,
  "Bloom": 29718,
  "Blue": 18717,
  "Bo": 17459,
  "Bob": 19590,
  "Bon": 24980,
  "Book": 11365,
  "Born": 24907,
  "Boston": 27936,
  "Both": 8658,
  "Box": 19424,
  "Boy": 29849,
  "Br": 11707,
  "Brad": 21718,
  "Brazil": 30836,
  "Bre": 12524,
  "Breaking": 23671,
  "Brexit": 31316,
  "Brian": 21684,
  "Brien": 16771,
  "Bring": 30792,
  "Brit": 13890,
  "Britain": 27896,
  "British": 20232,
  "Bro": 17554,
  "Broad": 29649,
  "Bron": 16449,
  "Brown": 18457,
  "Bs": 30322,
  "Build": 21652,
  "Building": 27305,
  "Bur": 22714,
  "Bush": 28339,
  "Business": 22868,
  "But": 1309,
  "Buy": 15262,
  "By": 3786,
  "C": 67,
  "CA": 5370,
  "CAA": 11261,
  "CAR": 17737,
  "CB": 26427,
  "CBC": 22542,
  "CBS": 19392,
  "CC": 4510,
  "CD": 10645,
  "CE": 7416,
  "CH": 5000,
  "CI": 31404,
  "CL": 5571,
  "CLA": 15484,
  "CLOSE": 24028,
  "CNN": 13110,
  "CO": 9531,
  "COM": 14392,
  "COMMENT": 29990,
  "CON": 19528,
  "CP": 28358,
  "CR": 15179,
  "CS": 7434,
  "CT": 20812,
  "Cal": 10151,
  "Calif": 15798,
  "California": 21926,
  "Call": 18032,
  "Cam": 26255,
  "Camp": 20233,
  "Can": 6291,
  "Canada": 15642,
  "Canadian": 22786,
  "Cap": 13930,
  "Captain": 28086,
  "Car": 11346,
  "Card": 22016,
  "Care": 15278,
  "Carl": 23507,
  "Case": 24110,
  "Cast": 22903,
  "Cat": 27949,
  "Cent": 19607,
  "Center": 27408,
  "Central": 29212,
  "Certainly": 29288,
  "Ch": 2337,
  "Change": 26967,
  "Chapter": 27229,
  "Char": 16047,
  "Charl": 22614,
  "Charles": 24923,
  "Charlie": 31229,
  "Chat": 30742,
  "Che": 8689,
  "Check": 12035,
  "Chicago": 21685,
  "Chief": 20603,
  "Child": 18475,
  "Children": 26760,
  "China": 11582,
  "Chinese": 20650,
  "Cho": 29231,
  "Chris": 13983,
  "Christ": 9750,
  "Christian": 17223,
  "City": 14496,
  "Civil": 29884,
  "Cl": 4384,
  "Class": 16476,
  "Cle": 15239,
  "Clearly": 23705,
  "Click": 10013,
  "Client": 30998,
  "Climate": 26189,
  "Clinton": 12961,
  "Close": 29717,
  "Cloud": 19397,
  "Co": 8170,
  "Code": 21197,
  "Coin": 28693,
  "Col": 8012,
  "Cola": 26121,
  "Coll": 24161,
  "Color": 19498,
  "Com": 7358,
  "Comb": 25218,
  "Come": 17966,
  "Coming": 25196,
  "Comm": 10362,
  "Comment": 23566,
  "Comments": 24179,
  "Common": 25269,
  "Commun": 27872,
  "Community": 29482,
  "Comp": 9684,
  "Con": 4506,
  "Conclusion": 18700,
  "Conf": 16350,
  "Cong": 15607,
  "Congress": 19797,
  "Connect": 23597,
  "Connell": 29510,
  "Connor": 22286,
  "Cons": 9002,
  "Conservative": 31667,
  "Consider": 21528,
  "Const": 18046,
  "Cont": 6071,
  "Contact": 17755,
  "Content": 25261,
  "Contin": 17940,
  "Continue": 26568,
  "Control": 30215,
  "Controller": 29046,
  "Cook": 31051,
  "Copyright": 14388,
  "Cor": 11322,
  "Core": 22677,
  "Cost": 23519,
  "Could": 21690,
  "Coun": 25031,
  "Count": 17137,
  "Court": 19599,
  "Courtesy": 27178,
  "Cover": 28083,
  "Cr": 15289,
  "Craft": 21165,
  "Cre": 18303,
  "Creat": 29110,
  "Create": 22557,
  "Credit": 21173,
  "Crit": 20021,
  "Critics": 25968,
  "Cross": 25784,
  "Cru": 23118,
  "Cruz": 30532,
  "Cs": 30136,
  "Cur": 30882,
  "Current": 12813,
  "Currently": 18558,
  "Custom": 21814,
  "Cut": 30519,
  "Cy": 22536,
  "D": 68,
  "DA": 4887,
  "DAY": 11824,
  "DB": 13818,
  "DC": 12424,
  "DD": 23559,
  "DE": 12215,
  "DER": 26071,
  "DF": 23154,
  "DI": 16297,
  "DL": 24564,
  "DM": 24675,
  "DNA": 29658,
  "DO": 20791,
  "DP": 5537,
  "DR": 11316,
  "DS": 6729,
  "DT": 26111,
  "Da": 31940,
  "Daily": 28160,
  "Dam": 19977,
  "Dan": 19981,
  "Daniel": 19853,
  "Dar": 28203,
  "Dark": 23193,
  "Data": 13411,
  "Date": 18491,
  "Dav": 8163,
  "Dave": 26330,
  "David": 9363,
  "Davis": 28811,
  "Day": 14226,
  "De": 6120,
  "Dead": 25352,
  "Dear": 18733,
  "Death": 22578,
  "Deb": 22201,
  "Dec": 14103,
  "December": 20611,
  "Deep": 29279,
  "Def": 10181,
  "Defense": 27111,
  "Del": 18143,
  "Dem": 9583,
  "Democratic": 25192,
  "Democrats": 20834,
  "Den": 20385,
  "Dep": 14678,
  "Der": 29867,
  "Des": 4955,
  "Description": 25315,
  "Design": 23473,
  "Despite": 6624,
  "Det": 16029,
  "Details": 28938,
  "Detroit": 31884,
  "Dev": 20910,
  "Develop": 18342,
  "Di": 22674,
  "Did": 11661,
  "Die": 31388,
  "Dig": 21801,
  "Digital": 29883,
  "Direct": 15706,
  "Director": 25727,
  "Dis": 10759,
  "Disc": 19013,
  "Disney": 31478,
  "Dist": 22135,
  "Do": 5481,
  "Doc": 31671,
  "Does": 14183,
  "Don": 3776,
  "Donald": 6450,
  "DonaldTrump": 21773,
  "Donnell": 18054,
  "Dou": 18821,
  "Down": 11446,
  "Download": 14784,
  "Dr": 7605,
  "Drive": 28563,
  "Due": 21725,
  "During": 5899,
  "E": 69,
  "EA": 7731,
  "EAR": 23848,
  "EC": 3897,
  "ECD": 25285,
  "ECT": 15079,
  "ED": 3138,
  "EE": 12781,
  "EG": 13710,
  "EL": 4314,
  "ELD": 31119,
  "ELECT": 28139,
  "ELL": 16650,
  "EM": 4742,
  "EMA": 23857,
  "EMENT": 11685,
  "EN": 2875,
  "ENCE": 25334,
  "END": 18882,
  "ENS": 25011,
  "ENT": 5646,
  "EO": 3974,
  "EP": 8111,
  "EPA": 31879,
  "ER": 1745,
  "ERC": 31015,
  "ERE": 10997,
  "ERN": 25884,
  "ERS": 6364,
  "ERT": 27168,
  "ERY": 25250,
  "ES": 2710,
  "ESPN": 27389,
  "ESS": 15815,
  "EST": 8801,
  "ET": 3985,
  "ETA": 22170,
  "ETH": 29596,
  "EU": 17092,
  "EV": 23190,
  "EW": 7423,
  "EX": 10257,
  "EXT": 25588,
  "EY": 29313,
  "Each": 11348,
  "Earlier": 10059,
  "Early": 14564,
  "Earth": 23933,
  "East": 23916,
  "Econom": 23584,
  "Ed": 7680,
  "Edit": 29086,
  "Editor": 17430,
  "Educ": 29342,
  "Eff": 24341,
  "Egypt": 28979,
  "Eight": 25972,
  "Either": 27890,
  "El": 9831,
  "Ele": 30455,
  "Elect": 20391,
  "Element": 25451,
  "Ell": 29981,
  "Em": 11745,
  "Email": 16271,
  "Employ": 30601,
  "En": 6711,
  "End": 17468,
  "Energy": 31914,
  "Eng": 12473,
  "Engine": 29473,
  "English": 22115,
  "Enjoy": 30637,
  "Enlarge": 21239,
  "Ent": 23267,
  "Enter": 21321,
  "Environment": 29956,
  "Ep": 20044,
  "Episode": 30531,
  "Equ": 29052,
  "Er": 16836,
  "Eric": 20539,
  "Error": 26816,
  "Es": 19128,
  "Ess": 29132,
  "Est": 23010,
  "Euro": 12500,
  "Europe": 13645,
  "European": 18195,
  "Ev": 15347,
  "Even": 5247,
  "Event": 16059,
  "Eventually": 23775,
  "Ever": 20981,
  "Every": 5435,
  "Everybody": 21989,
  "Everyone": 14039,
  "Everything": 17338,
  "Ex": 4357,
  "Example": 25941,
  "Except": 29942,
  "Exit": 30679,
  "Exp": 23331,
  "Exper": 19988,
  "Experts": 29271,
  "Expl": 23161,
  "Ext": 16825,
  "F": 70,
  "FA": 6627,
  "FB": 28862,
  "FBI": 31851,
  "FC": 4368,
  "FE": 26355,
  "FF": 9304,
  "FI": 15294,
  "FK": 26233,
  "FL": 3423,
  "FM": 25264,
  "FO": 10064,
  "FOR": 21824,
  "FP": 6682,
  "FR": 16010,
  "FS": 12404,
  "FT": 16055,
  "FW": 30580,
  "FX": 25227,
  "Facebook": 8976,
  "Fact": 27919,
  "Fair": 29715,
  "Fall": 31922,
  "Family": 25676,
  "Fans": 29301,
  "Far": 19921,
  "Fast": 23912,
  "Fe": 12604,
  "Feb": 16509,
  "February": 21399,
  "Federal": 21465,
  "Feed": 16813,
  "Few": 25281,
  "Fi": 10436,
  "Field": 29146,
  "Fig": 13295,
  "Figure": 12345,
  "Fil": 17886,
  "File": 19007,
  "Film": 30404,
  "Fin": 20430,
  "Final": 21009,
  "Finally": 9997,
  "Find": 20115,
  "Finding": 31687,
  "Fire": 16443,
  "First": 5474,
  "Fit": 31672,
  "Five": 17126,
  "Fix": 28723,
  "Fixed": 19035,
  "Fl": 11236,
  "Flor": 23883,
  "Florida": 25954,
  "Follow": 6037,
  "Following": 11390,
  "Food": 26585,
  "Foot": 22136,
  "For": 1888,
  "Force": 20118,
  "Ford": 31162,
  "Fore": 17841,
  "Foreign": 29002,
  "Form": 19107,
  "Former": 11023,
  "Fort": 21979,
  "Fortunately": 25766,
  "Four": 13292,
  "Fox": 15870,
  "Fr": 6934,
  "Frame": 29597,
  "Franc": 31953,
  "France": 23166,
  "Frank": 14852,
  "Fre": 25613,
  "Fred": 28037,
  "Free": 13330,
  "French": 21204,
  "Friday": 19862,
  "Friend": 24847,
  "From": 5227,
  "Full": 16401,
  "Fun": 23032,
  "Fund": 22607,
  "Further": 11239,
  "Furthermore": 21265,
  "Future": 30343,
  "G": 71,
  "GA": 9956,
  "GB": 4473,
  "GBT": 7026,
  "GC": 19308,
  "GE": 8856,
  "GEL": 25723,
  "GET": 22326,
  "GG": 31405,
  "GH": 21751,
  "GHz": 25157,
  "GI": 20215,
  "GL": 16967,
  "GM": 12541,
  "GN": 16390,
  "GO": 8730,
  "GP": 19935,
  "GR": 16804,
  "GS": 15456,
  "GT": 24793,
  "Gal": 29753,
  "Gall": 28468,
  "Game": 13519,
  "Games": 31297,
  "Gar": 25848,
  "Gary": 29091,
  "Gate": 24997,
  "Ge": 10459,
  "Gen": 16799,
  "Gener": 10589,
  "General": 13414,
  "Georg": 29961,
  "George": 18549,
  "Ger": 25861,
  "German": 13842,
  "Germany": 23067,
  "Get": 6663,
  "Getting": 19698,
  "Getty": 7537,
  "Girl": 29954,
  "Give": 25219,
  "Given": 12211,
  "Gl": 11334,
  "Global": 22989,
  "Go": 5053,
  "God": 13729,
  "Going": 22978,
  "Gold": 15782,
  "Good": 11286,
  "Google": 9670,
  "Got": 31966,
  "Gov": 22178,
  "Govern": 22384,
  "Government": 23250,
  "Gr": 11258,
  "Grand": 26613,
  "Graph": 28365,
  "Great": 15395,
  "Green": 14057,
  "Greg": 26695,
  "Group": 22430,
  "Gs": 30467,
  "Gu": 10864,
  "Guard": 26178,
  "Gun": 28911,
  "H": 72,
  "HA": 11715,
  "HC": 17447,
  "HD": 14416,
  "HE": 25149,
  "HF": 31302,
  "HI": 25654,
  "HL": 5127,
  "HO": 29191,
  "HP": 10807,
  "HR": 22123,
  "HS": 7719,
  "HT": 9527,
  "Ha": 27547,
  "Hack": 31805,
  "Had": 25231,
  "Half": 31509,
  "Hall": 28187,
  "Ham": 22450,
  "Hand": 20995,
  "Happy": 23963,
  "Har": 12746,
  "Hard": 21074,
  "Harry": 26648,
  "Has": 20842,
  "Have": 12176,
  "Having": 12778,
  "Haw": 29594,
  "Hay": 28821,
  "He": 1386,
  "Head": 17174,
  "Health": 18500,
  "Hel": 17133,
  "Hell": 30581,
  "Hello": 17024,
  "Help": 28442,
  "Hen": 22982,
  "Henry": 27812,
  "Her": 8867,
  "Here": 4096,
  "Hey": 10701,
  "Hi": 20753,
  "High": 13967,
  "Hill": 13578,
  "Hillary": 16149,
  "His": 5640,
  "Hist": 12393,
  "History": 16578,
  "Hit": 25713,
  "Ho": 30174,
  "Hol": 27003,
  "Hold": 25975,
  "Hom": 31756,
  "Home": 18172,
  "Hon": 27150,
  "Hop": 19721,
  "Hopefully": 25337,
  "Host": 30385,
  "Hot": 26508,
  "House": 15024,
  "Houston": 30956,
  "How": 2390,
  "However": 4187,
  "Hub": 15448,
  "Human": 20743,
  "Hun": 28118,
  "Hundreds": 28017,
  "Hy": 20965,
  "Hz": 9823,
  "I": 73,
  "IA": 3955,
  "IAL": 21269,
  "IAN": 27714,
  "IC": 3324,
  "ICA": 23709,
  "ICE": 11684,
  "ICH": 27277,
  "ICK": 15628,
  "ICO": 19499,
  "ICS": 23102,
  "ID": 3901,
  "IDE": 18561,
  "IDS": 14095,
  "IE": 11248,
  "IES": 19089,
  "IF": 8408,
  "IFF": 31265,
  "IG": 5698,
  "IGH": 25683,
  "IGHT": 15059,
  "IGN": 23706,
  "II": 6149,
  "III": 15437,
  "IL": 4427,
  "ILE": 22612,
  "ILL": 11591,
  "IM": 5410,
  "IME": 15480,
  "IN": 2107,
  "INAL": 29025,
  "IND": 22975,
  "INE": 14927,
  "ING": 4162,
  "INGS": 29382,
  "INGTON": 14378,
  "INK": 23256,
  "INN": 30001,
  "INS": 25909,
  "INT": 20123,
  "IO": 12907,
  "ION": 5525,
  "IP": 5482,
  "IR": 6803,
  "IS": 2260,
  "ISA": 20767,
  "ISE": 29833,
  "ISH": 25349,
  "ISIS": 22822,
  "ISS": 21529,
  "IST": 12925,
  "IT": 3236,
  "ITE": 19591,
  "ITH": 14823,
  "ITION": 30111,
  "ITY": 14517,
  "IV": 5366,
  "IVE": 13196,
  "IX": 20484,
  "IZ": 24516,
  "Ice": 30489,
  "Id": 12577,
  "If": 1570,
  "Il": 29255,
  "Ill": 21036,
  "Im": 3465,
  "Image": 4575,
  "Images": 26754,
  "Imagine": 20152,
  "Imp": 29507,
  "Import": 27008,
  "Impro": 26847,
  "In": 794,
  "Inc": 19437,
  "Incre": 24963,
  "Ind": 5795,
  "Indeed": 14284,
  "Index": 31034,
  "India": 17168,
  "Indian": 26016,
  "Inf": 18250,
  "Info": 31734,
  "Information": 28265,
  "Initially": 31028,
  "Ins": 19277,
  "Inside": 22111,
  "Inst": 7617,
  "Install": 31518,
  "Instead": 10387,
  "Int": 9947,
  "Inte": 13392,
  "Inter": 13282,
  "Interest": 18376,
  "Interestingly": 26182,
  "Intern": 15791,
  "International": 22695,
  "Internet": 28726,
  "Introduction": 25407,
  "Invest": 16204,
  "Investigators": 25402,
  "Ir": 22703,
  "Iran": 17669,
  "Iraq": 25114,
  "Iron": 22665,
  "Is": 3779,
  "Islam": 13449,
  "Islamic": 20941,
  "Israel": 10463,
  "Israeli": 21795,
  "Iss": 30632,
  "It": 937,
  "Item": 23969,
  "Its": 18426,
  "J": 74,
  "JP": 11114,
  "JS": 21038,
  "JUST": 21935,
  "Jac": 25991,
  "Jack": 13906,
  "Jackson": 25899,
  "Jam": 28094,
  "James": 13643,
  "Jan": 13487,
  "January": 21159,
  "Japan": 15551,
  "Japanese": 24219,
  "Jason": 22613,
  "Jay": 28030,
  "Jeff": 16828,
  "Jeremy": 31043,
  "Jes": 22107,
  "Jess": 31210,
  "Jesus": 28654,
  "Jew": 21012,
  "Jewish": 23677,
  "Jim": 16647,
  "Jo": 11563,
  "Joe": 17055,
  "John": 7039,
  "Johnson": 20645,
  "Join": 19669,
  "Jon": 16157,
  "Jonathan": 25224,
  "Jones": 20787,
  "Jordan": 28897,
  "Jose": 22312,
  "Joseph": 29008,
  "Josh": 21324,
  "Journal": 22246,
  "Jud": 26403,
  "Judge": 23638,
  "Jul": 19610,
  "July": 16464,
  "June": 16079,
  "Just": 5309,
  "Justice": 24510,
  "Justin": 27764,
  "K": 75,
  "KA": 28092,
  "KE": 11020,
  "KK": 16655,
  "KO": 29720,
  "KS": 30968,
  "Kat": 25120,
  "Ke": 9196,
  "Keep": 16113,
  "Kelly": 28611,
  "Ken": 20801,
  "Kevin": 20629,
  "Key": 13467,
  "Kim": 20802,
  "King": 16779,
  "Kit": 21311,
  "Know": 23350,
  "Ky": 28728,
  "L": 76,
  "LA": 7771,
  "LAND": 30236,
  "LAY": 23345,
  "LC": 7842,
  "LD": 15006,
  "LE": 5833,
  "LGBT": 27920,
  "LI": 31497,
  "LINE": 30545,
  "LL": 26697,
  "LO": 25883,
  "LY": 14007,
  "La": 12909,
  "Lab": 17511,
  "Labour": 24939,
  "Land": 26468,
  "Large": 29793,
  "Last": 5047,
  "Lat": 28632,
  "Late": 24546,
  "Later": 15649,
  "Laughs": 27487,
  "Law": 15727,
  "Lay": 30905,
  "Le": 4345,
  "Lead": 19907,
  "League": 20797,
  "Leaks": 12033,
  "Lear": 16400,
  "Learn": 25467,
  "Lee": 21653,
  "Left": 22918,
  "Leg": 17993,
  "Les": 31859,
  "Less": 21318,
  "Let": 5327,
  "Lev": 30186,
  "Level": 21794,
  "Lew": 28297,
  "Lib": 31432,
  "Liber": 27597,
  "Life": 14770,
  "Light": 23151,
  "Like": 6667,
  "Lim": 24555,
  "Lin": 21737,
  "Line": 19293,
  "Link": 13239,
  "LinkedIn": 29773,
  "Linux": 28703,
  "List": 11516,
  "Listen": 21143,
  "Little": 21296,
  "Live": 20251,
  "Lo": 30289,
  "Load": 24427,
  "Local": 18777,
  "Location": 23148,
  "Log": 20799,
  "London": 21721,
  "Long": 15828,
  "Look": 8157,
  "Looking": 14228,
  "Lord": 26226,
  "Los": 26126,
  "Lou": 21218,
  "Louis": 27358,
  "Love": 19085,
  "Low": 24959,
  "Lu": 25562,
  "Luc": 24147,
  "Luck": 29460,
  "M": 77,
  "MA": 6211,
  "MAN": 11165,
  "MB": 11498,
  "MC": 16610,
  "MD": 17707,
  "ME": 17896,
  "MENT": 17722,
  "MG": 31680,
  "MI": 14652,
  "ML": 7352,
  "MM": 15632,
  "MO": 24477,
  "MORE": 19311,
  "MP": 7585,
  "MR": 23830,
  "MS": 7678,
  "MT": 27364,
  "Ma": 22673,
  "Mac": 16158,
  "Mad": 18083,
  "Made": 30436,
  "Mag": 26911,
  "Mail": 31410,
  "Main": 18319,
  "Major": 23285,
  "Make": 13655,
  "Making": 21160,
  "Mal": 13955,
  "Malley": 26744,
  "Man": 6577,
  "Manager": 27630,
  "Manchester": 31451,
  "Many": 6007,
  "Map": 19304,
  "Mar": 7990,
  "Marc": 19346,
  "March": 15773,
  "Marcus": 29534,
  "Mark": 10527,
  "Market": 31904,
  "Mart": 11804,
  "Martin": 21797,
  "Mary": 22827,
  "Mass": 19411,
  "Master": 26116,
  "Mat": 15191,
  "Matt": 17049,
  "Matthew": 23530,
  "Max": 17424,
  "May": 6843,
  "Maybe": 11691,
  "Mayor": 28223,
  "Mc": 8692,
  "McC": 20375,
  "Me": 7996,
  "Mean": 7657,
  "Meanwhile": 7861,
  "Med": 12780,
  "Media": 12196,
  "Meet": 26733,
  "Mel": 20567,
  "Mem": 15240,
  "Members": 22309,
  "Men": 12747,
  "Mer": 14984,
  "Merit": 29680,
  "Message": 26264,
  "Met": 14657,
  "Method": 26908,
  "Mex": 20020,
  "Mexico": 26010,
  "Mic": 23240,
  "Mich": 10115,
  "Michael": 11933,
  "Michel": 30264,
  "Microsoft": 16679,
  "Mid": 25500,
  "Mike": 14421,
  "Mil": 24162,
  "Mill": 31163,
  "Miller": 30297,
  "Min": 12496,
  "Mind": 29522,
  "Mir": 30488,
  "Miss": 18729,
  "Mo": 17149,
  "Mobile": 15185,
  "Mod": 10532,
  "Model": 26815,
  "Modern": 26537,
  "Moh": 30413,
  "Mom": 28998,
  "Mon": 12262,
  "Mond": 22755,
  "Monday": 24108,
  "Money": 24808,
  "Mont": 23340,
  "Moore": 29395,
  "Mor": 18407,
  "More": 4769,
  "Moreover": 20481,
  "Mos": 28922,
  "Most": 6136,
  "Mot": 30167,
  "Mother": 30476,
  "Move": 31171,
  "Moving": 28802,
  "Mr": 4426,
  "Mrs": 23859,
  "Ms": 9817,
  "Much": 16365,
  "Mult": 20400,
  "Multiple": 31868,
  "Mur": 21871,
  "Mus": 9916,
  "Music": 23558,
  "Muslim": 13917,
  "Muslims": 29816,
  "My": 3738,
  "N": 78,
  "NA": 4640,
  "NAS": 16447,
  "NASA": 21960,
  "NBA": 27471,
  "NBC": 10062,
  "NC": 7182,
  "ND": 11981,
  "NE": 17713,
  "NET": 13778,
  "NEW": 13040,
  "NF": 24224,
  "NFL": 28561,
  "NG": 13290,
  "NI": 25423,
  "NN": 4756,
  "NO": 18584,
  "NOT": 20401,
  "NOTE": 30288,
  "NP": 22952,
  "NPR": 28866,
  "NR": 25199,
  "NS": 9943,
  "NT": 12645,
  "NY": 14290,
  "Na": 30133,
  "Name": 11533,
  "National": 15473,
  "Naz": 30514,
  "Nazi": 25338,
  "Ne": 5563,
  "Nearly": 21830,
  "Need": 25716,
  "Neil": 24590,
  "Neill": 22407,
  "Neither": 22482,
  "Net": 11166,
  "Never": 12865,
  "Nevertheless": 22910,
  "New": 3813,
  "News": 8818,
  "Newsletter": 25747,
  "Next": 10581,
  "Nic": 28127,
  "Nick": 21372,
  "Night": 28420,
  "No": 3375,
  "Nob": 17979,
  "Nobody": 19871,
  "Non": 17557,
  "None": 16075,
  "Nor": 19824,
  "North": 12842,
  "Not": 4057,
  "Note": 8816,
  "Notes": 17623,
  "Nothing": 17743,
  "Notice": 30160,
  "Nov": 23818,
  "November": 20421,
  "Now": 3523,
  "Num": 30497,
  "Number": 22819,
  "Nusra": 30221,
  "O": 79,
  "OB": 27554,
  "OC": 6884,
  "OCK": 18919,
  "OD": 6414,
  "ODE": 31769,
  "OG": 14550,
  "OH": 17835,
  "OK": 9766,
  "OL": 4837,
  "OLD": 23699,
  "OLL": 20818,
  "OM": 3931,
  "OME": 16182,
  "ON": 2189,
  "OND": 22517,
  "ONE": 17634,
  "ONG": 23850,
  "OO": 25238,
  "OP": 3284,
  "OPA": 31992,
  "OR": 2901,
  "ORD": 17832,
  "ORE": 6632,
  "ORK": 16318,
  "ORN": 25986,
  "ORT": 14737,
  "ORTS": 30982,
  "ORY": 20979,
  "OS": 3142,
  "OSE": 17085,
  "OSS": 23239,
  "OST": 13899,
  "OT": 3674,
  "OTH": 25531,
  "OTUS": 31490,
  "OU": 4224,
  "OUND": 23242,
  "OUR": 17686,
  "OUT": 20308,
  "OW": 5598,
  "OWN": 21057,
  "Ob": 6590,
  "Obama": 11198,
  "Object": 18869,
  "Obviously": 16196,
  "Occ": 28683,
  "Oct": 13701,
  "October": 19000,
  "Of": 5334,
  "Off": 7582,
  "Office": 28062,
  "Officers": 25857,
  "Official": 31443,
  "Officials": 18936,
  "Oh": 6063,
  "Ohio": 23895,
  "Ok": 19673,
  "Okay": 16723,
  "Old": 21865,
  "On": 2072,
  "Once": 7199,
  "One": 2843,
  "Online": 22103,
  "Only": 11664,
  "Op": 19402,
  "Open": 16218,
  "Oper": 19944,
  "Operation": 29245,
  "Opp": 21980,
  "Or": 7045,
  "Organ": 24570,
  "Orig": 13539,
  "Original": 23582,
  "Originally": 23284,
  "Os": 13982,
  "Other": 5973,
  "Others": 20369,
  "Our": 4833,
  "Out": 10087,
  "Outside": 26343,
  "Over": 5962,
  "Overall": 15787,
  "Own": 30334,
  "P": 80,
  "PA": 4497,
  "PC": 8714,
  "PD": 5767,
  "PDATE": 12224,
  "PDF": 21743,
  "PE": 22183,
  "PER": 23520,
  "PG": 8364,
  "PH": 15591,
  "PHOT": 30035,
  "PI": 11894,
  "PL": 10550,
  "PM": 8357,
  "PN": 14270,
  "PO": 22047,
  "PORT": 26646,
  "PP": 9143,
  "PR": 5905,
  "PRE": 30991,
  "PRO": 31387,
  "PS": 4535,
  "PT": 20288,
  "PU": 6438,
  "Pa": 30134,
  "Pac": 16876,
  "Pacific": 19777,
  "Pack": 26243,
  "Pad": 27434,
  "Page": 18165,
  "Pakistan": 24170,
  "Pal": 11078,
  "Palest": 23315,
  "Palestinian": 25589,
  "Pan": 23317,
  "Par": 13598,
  "Park": 25641,
  "Part": 8780,
  "Pass": 17819,
  "Pat": 12200,
  "Path": 24891,
  "Patrick": 27160,
  "Paul": 10271,
  "Pay": 20929,
  "Pe": 5757,
  "Pen": 29940,
  "People": 6698,
  "Per": 6787,
  "Perhaps": 11341,
  "Permalink": 31135,
  "Person": 16131,
  "Personal": 27808,
  "Pet": 31078,
  "Peter": 17485,
  "Ph": 2630,
  "Phil": 17393,
  "Phone": 25913,
  "Phot": 14730,
  "Photo": 4976,
  "Photos": 19962,
  "Pict": 20470,
  "Picture": 25656,
  "Pierre": 27913,
  "Pinterest": 27621,
  "Pl": 5082,
  "Plan": 20781,
  "Play": 16098,
  "Player": 23395,
  "Players": 26546,
  "Playing": 31864,
  "Please": 8759,
  "Plus": 18737,
  "Po": 21135,
  "Point": 15186,
  "Pol": 6470,
  "Police": 7197,
  "Polit": 30314,
  "Political": 26465,
  "Pop": 24363,
  "Port": 16317,
  "Post": 8013,
  "Posted": 14758,
  "Pot": 27745,
  "Power": 17349,
  "Pr": 7912,
  "Pre": 10094,
  "Prem": 27555,
  "Pres": 26509,
  "President": 8034,
  "Press": 12862,
  "Previous": 23630,
  "Previously": 29710,
  "Pri": 18915,
  "Price": 22224,
  "Prime": 21363,
  "Prince": 30913,
  "Print": 20100,
  "Prior": 21315,
  "Priv": 23846,
  "Pro": 4191,
  "Probably": 31396,
  "Product": 30081,
  "Prof": 14590,
  "Professor": 21844,
  "Project": 19846,
  "Prom": 27717,
  "Prop": 25068,
  "Proper": 29851,
  "Pros": 31870,
  "Prosecutors": 29340,
  "Prot": 24275,
  "Prov": 23514,
  "Ps": 11847,
  "Public": 15418,
  "Published": 20654,
  "Put": 15285,
  "Putin": 28618,
  "Q": 81,
  "QL": 10838,
  "QU": 20002,
  "Qaeda": 14257,
  "Qaida": 29229,
  "Qu": 6472,
  "Que": 18808,
  "Queen": 29697,
  "Query": 22761,
  "Quest": 17377,
  "Question": 25936,
  "Quick": 24825,
  "R": 82,
  "RA": 5086,
  "RB": 23986,
  "RC": 8859,
  "RE": 2196,
  "READ": 13667,
  "REAK": 31609,
  "RED": 18593,
  "REE": 15604,
  "REL": 14224,
  "RELATED": 15559,
  "RES": 14894,
  "RI": 8691,
  "RL": 9239,
  "RNA": 28507,
  "RO": 12947,
  "RP": 19647,
  "RS": 8186,
  "RT": 13256,
  "RY": 26853,
  "Ra": 24180,
  "Rad": 18848,
  "Radio": 28474,
  "Ram": 30969,
  "Rather": 21692,
  "Ray": 20957,
  "Re": 3133,
  "Read": 5182,
  "Real": 16588,
  "Really": 25674,
  "Reb": 31592,
  "Rec": 7870,
  "Recent": 24829,
  "Recently": 19976,
  "Record": 27539,
  "Red": 11250,
  "Redd": 19495,
  "Reddit": 20378,
  "Ref": 8344,
  "References": 13363,
  "Reg": 10342,
  "Regardless": 22642,
  "Reilly": 18139,
  "Rel": 6947,
  "Related": 8583,
  "Release": 29108,
  "Rem": 10095,
  "Remember": 15713,
  "Ren": 30325,
  "Rep": 5935,
  "Report": 26492,
  "Reports": 30797,
  "Republic": 12024,
  "Republican": 19439,
  "Republicans": 19587,
  "Res": 6199,
  "Research": 24361,
  "Researchers": 19143,
  "Residents": 31420,
  "Resp": 21233,
  "Rest": 24787,
  "Results": 28417,
  "Ret": 14818,
  "Return": 27678,
  "Reuters": 9471,
  "Rev": 23631,
  "Review": 17945,
  "Reviewer": 29043,
  "Rich": 13858,
  "Richard": 18466,
  "Rick": 28558,
  "Right": 11037,
  "Ro": 25009,
  "Rob": 14908,
  "Rober": 13747,
  "Robert": 16816,
  "Rock": 20843,
  "Rod": 24943,
  "Rog": 27071,
  "Rom": 21967,
  "Roman": 29238,
  "Romney": 30396,
  "Ron": 22546,
  "Rose": 30440,
  "Rou": 29584,
  "Round": 26322,
  "Roy": 26992,
  "Rs": 29695,
  "Rub": 19180,
  "Ruby": 27440,
  "Run": 19920,
  "Running": 28952,
  "Rus": 29638,
  "Russ": 8610,
  "Russia": 13595,
  "Russian": 13872,
  "Ryan": 17887,
  "S": 83,
  "SA": 4202,
  "SAN": 25239,
  "SC": 10524,
  "SD": 11844,
  "SE": 9466,
  "SEC": 31089,
  "SH": 17249,
  "SI": 18004,
  "SL": 9603,
  "SM": 14204,
  "SN": 17920,
  "SO": 16284,
  "SON": 13931,
  "SP": 4832,
  "SQL": 18897,
  "SS": 5947,
  "ST": 4599,
  "SU": 11101,
  "SW": 20243,
  "Sad": 22737,
  "Sadly": 28894,
  "Sah": 30837,
  "Sal": 19569,
  "Sam": 16821,
  "Samsung": 28263,
  "San": 14884,
  "Sand": 15232,
  "Sanders": 18725,
  "Sar": 21100,
  "Sarah": 25030,
  "Sat": 25212,
  "Saturday": 19201,
  "Saud": 27213,
  "Saudi": 28827,
  "Save": 21122,
  "Say": 29154,
  "Sc": 4184,
  "Sch": 14486,
  "School": 26453,
  "Science": 25325,
  "Scient": 17850,
  "Scientists": 21260,
  "Score": 28948,
  "Scott": 16268,
  "Script": 8628,
  "Scroll": 24325,
  "Se": 6970,
  "Sean": 24212,
  "Search": 26361,
  "Season": 21371,
  "Seattle": 29452,
  "Sec": 7391,
  "Second": 11971,
  "Secret": 22488,
  "Secretary": 31141,
  "Section": 29125,
  "Security": 23499,
  "See": 6353,
  "Select": 27076,
  "Self": 28981,
  "Semit": 14190,
  "Semitic": 22512,
  "Semitism": 20905,
  "Sen": 8572,
  "Senate": 23134,
  "Senator": 23062,
  "Send": 31031,
  "Senior": 28217,
  "Sep": 14344,
  "September": 19430,
  "Ser": 13893,
  "Series": 31071,
  "Serv": 19679,
  "Server": 29264,
  "Service": 24582,
  "Set": 13185,
  "Seven": 27146,
  "Several": 12110,
  "Sex": 24896,
  "Sh": 3076,
  "Sham": 29440,
  "Share": 10708,
  "She": 3222,
  "Shell": 29967,
  "Sher": 25977,
  "Short": 17073,
  "Shortly": 24080,
  "Should": 18877,
  "Show": 20367,
  "Side": 28761,
  "Sign": 13632,
  "Sil": 17913,
  "Sim": 9632,
  "Similar": 26595,
  "Similarly": 23142,
  "Simon": 31304,
  "Since": 5507,
  "Sing": 27661,
  "Sir": 25303,
  "Six": 19217,
  "Size": 25839,
  "Sk": 25123,
  "Sky": 23222,
  "Sl": 15555,
  "Sm": 8705,
  "Small": 24560,
  "Smart": 27184,
  "Smith": 16154,
  "Sn": 24092,
  "Snow": 28093,
  "So": 2164,
  "Social": 18823,
  "Soft": 28250,
  "Some": 3855,
  "Someone": 24921,
  "Something": 20959,
  "Sometimes": 13635,
  "Sony": 28001,
  "Soon": 24885,
  "Sorry": 21656,
  "Sound": 27047,
  "Source": 9013,
  "Sources": 18517,
  "South": 13237,
  "Sov": 31498,
  "Soviet": 31850,
  "Sp": 5853,
  "Space": 18526,
  "Spe": 6250,
  "Speaking": 10539,
  "Special": 18287,
  "Sports": 15682,
  "Spot": 30780,
  "Squ": 29053,
  "St": 1666,
  "Stack": 29085,
  "Staff": 28031,
  "Stan": 28337,
  "Stand": 24197,
  "Star": 8213,
  "Stars": 30486,
  "Start": 13695,
  "Starting": 22283,
  "Stat": 28532,
  "State": 10510,
  "Station": 10447,
  "Stay": 24303,
  "Ste": 5620,
  "Step": 10591,
  "Stephen": 22893,
  "Steve": 17420,
  "Steven": 25086,
  "Still": 9145,
  "Stock": 28722,
  "Stop": 19563,
  "Story": 9659,
  "Str": 23540,
  "Stream": 25061,
  "String": 16388,
  "Stud": 13671,
  "Students": 26360,
  "Sty": 30152,
  "Su": 23011,
  "Sub": 8041,
  "Subject": 21185,
  "Subscribe": 18933,
  "Such": 14136,
  "Sum": 16406,
  "Summary": 26277,
  "Sun": 19148,
  "Sund": 21119,
  "Sunday": 22341,
  "Super": 14659,
  "Supp": 11218,
  "Support": 21111,
  "Sur": 15174,
  "Sure": 17565,
  "Sus": 27569,
  "Sw": 19137,
  "Swed": 31266,
  "Sy": 13807,
  "System": 24308,
  "T": 84,
  "TA": 6241,
  "TB": 24097,
  "TC": 5154,
  "TE": 10877,
  "TER": 10066,
  "TH": 5627,
  "THE": 11948,
  "TI": 29240,
  "TION": 13204,
  "TIS": 12158,
  "TL": 19350,
  "TM": 29169,
  "TO": 11512,
  "TON": 10493,
  "TOR": 26559,
  "TP": 9957,
  "TR": 10677,
  "TS": 6430,
  "TT": 20175,
  "TV": 5871,
  "TY": 17869,
  "Table": 16690,
  "Take": 12184,
  "Taking": 23268,
  "Tal": 29896,
  "Talk": 26687,
  "Tax": 27401,
  "Taylor": 29143,
  "Te": 6375,
  "Team": 17050,
  "Tech": 21538,
  "Techn": 25974,
  "Ted": 31553,
  "Tele": 28214,
  "Tell": 24534,
  "Tem": 23311,
  "Ten": 23504,
  "Ter": 16102,
  "Tes": 31880,
  "Test": 19150,
  "Tex": 15893,
  "Texas": 17812,
  "Text": 19249,
  "Th": 801,
  "Thank": 10660,
  "Thanks": 10325,
  "That": 2129,
  "The": 445,
  "Their": 12011,
  "Then": 6231,
  "There": 1639,
  "Therefore": 26644,
  "These": 4289,
  "They": 2517,
  "Things": 19438,
  "Think": 19132,
  "Third": 21419,
  "Thirty": 30685,
  "This": 1206,
  "Thomas": 19832,
  "Those": 7936,
  "Though": 9238,
  "Thousands": 28040,
  "Thread": 30169,
  "Three": 11080,
  "Through": 12805,
  "Throughout": 20960,
  "Thursday": 24058,
  "Thus": 18793,
  "Tim": 15576,
  "Time": 10841,
  "Times": 25614,
  "Tit": 24100,
  "Title": 29196,
  "To": 2731,
  "Today": 7362,
  "Tom": 13222,
  "Tony": 25257,
  "Too": 23934,
  "Top": 10224,
  "Topics": 21267,
  "Tor": 14311,
  "Toronto": 25742,
  "Torrent": 27806,
  "Total": 18121,
  "Tr": 3173,
  "Tra": 26795,
  "Track": 30341,
  "Trans": 11158,
  "Travel": 31681,
  "Tre": 27209,
  "Tri": 26819,
  "True": 22955,
  "Trump": 4938,
  "Try": 27564,
  "Ts": 27491,
  "Tube": 5995,
  "Tuesday": 24776,
  "Tumblr": 31819,
  "Tunes": 13889,
  "Tur": 14988,
  "Turkey": 24441,
  "Turn": 20472,
  "Tw": 16992,
  "Twenty": 28400,
  "Twitter": 12056,
  "Two": 6689,
  "Ty": 10320,
  "Type": 14773,
  "U": 85,
  "UB": 27950,
  "UC": 11507,
  "UCK": 23609,
  "UD": 12763,
  "UE": 13596,
  "UG": 19577,
  "UI": 14110,
  "UK": 16711,
  "UL": 8112,
  "ULL": 17010,
  "ULT": 30287,
  "UM": 14286,
  "UMP": 24116,
  "UN": 8287,
  "UP": 16166,
  "UPDATE": 13496,
  "UR": 7750,
  "URE": 19999,
  "US": 3171,
  "USA": 13755,
  "USD": 31907,
  "USE": 20075,
  "USH": 29819,
  "UST": 9091,
  "UT": 5951,
  "UTC": 19337,
  "UTERS": 12419,
  "Uk": 25228,
  "Ult": 16045,
  "Ultimately": 20998,
  "Un": 3973,
  "Under": 8401,
  "Unfortunately": 11747,
  "United": 16661,
  "University": 21384,
  "Unless": 26089,
  "Unlike": 15639,
  "Until": 15302,
  "Up": 5489,
  "Update": 10506,
  "Updated": 16134,
  "Upon": 20480,
  "Ur": 23691,
  "Us": 8005,
  "Use": 16545,
  "User": 19601,
  "Users": 28819,
  "Using": 13184,
  "Ut": 24312,
  "V": 86,
  "VA": 15103,
  "VC": 19654,
  "VD": 9761,
  "VE": 9229,
  "VEL": 30843,
  "VER": 7077,
  "VERTIS": 12596,
  "VI": 17297,
  "VID": 15326,
  "VIDIA": 22733,
  "VM": 16991,
  "VO": 30688,
  "VP": 10287,
  "VR": 15734,
  "Val": 14361,
  "Value": 22308,
  "Van": 25142,
  "Var": 30809,
  "Ve": 21565,
  "Ver": 16269,
  "Version": 29790,
  "Very": 19802,
  "Via": 24001,
  "Vict": 21112,
  "Video": 12962,
  "View": 10430,
  "Virgin": 30575,
  "Vis": 18164,
  "Vol": 21961,
  "Vs": 29949,
  "W": 87,
  "WA": 14326,
  "WAR": 27201,
  "WASHINGTON": 15929,
  "WATCH": 28275,
  "WC": 27607,
  "WE": 24383,
  "WH": 14586,
  "WR": 21466,
  "WS": 12629,
  "WW": 19189,
  "Wait": 23125,
  "Wal": 22908,
  "Wall": 22727,
  "Want": 19323,
  "War": 12157,
  "Was": 18785,
  "Washington": 14942,
  "Watch": 9596,
  "Water": 22351,
  "Way": 26152,
  "We": 1030,
  "Web": 19695,
  "Wed": 22891,
  "Wednesday": 25465,
  "Week": 20519,
  "Welcome": 18499,
  "Well": 5687,
  "West": 13913,
  "Western": 21346,
  "Wh": 1158,
  "What": 1998,
  "Whatever": 18397,
  "Whe": 10439,
  "When": 2076,
  "Whenever": 28886,
  "Where": 8554,
  "Whether": 13384,
  "Which": 12597,
  "While": 3042,
  "White": 12054,
  "Who": 8162,
  "Why": 5008,
  "Wil": 20687,
  "Wild": 27413,
  "Will": 8456,
  "William": 23225,
  "Williams": 23013,
  "Wilson": 30417,
  "Win": 21559,
  "Wind": 15612,
  "Windows": 20414,
  "Wire": 30418,
  "With": 2989,
  "Within": 19247,
  "Without": 15567,
  "Women": 17295,
  "Wood": 26782,
  "Word": 31843,
  "Work": 13550,
  "Working": 26021,
  "Works": 23902,
  "World": 12161,
  "Would": 17826,
  "Wow": 21169,
  "Writ": 14074,
  "Write": 25955,
  "Writing": 27843,
  "Written": 23996,
  "X": 88,
  "XX": 13274,
  "Y": 89,
  "YS": 27627,
  "Yeah": 11105,
  "Year": 20831,
  "Yes": 6126,
  "Yesterday": 21188,
  "Yet": 9154,
  "You": 1815,
  "YouTube": 29836,
  "Young": 18982,
  "Your": 8963,
  "Z": 90,
  "[": 91,
  "['": 30162,
  "[/": 16180,
  "\\": 92,
  "\\\"": 26328,
  "\\)": 30419,
  "\\-": 20707,
  "\\/": 20067,
  "\\\\": 18348,
  "]": 93,
  "])": 16602,
  "],": 5820,
  "],\"": 28282,
  "],âĢĿ": 31474,
  "].": 5079,
  "]:": 12896,
  "];": 16553,
  "]<|": 12422,
  "][": 2983,
  "]]": 20314,
  "^": 94,
  "^{": 21177,
  "_": 95,
  "__": 1429,
  "___": 20062,
  "____": 2650,
  "________": 4639,
  "________________": 8452,
  "________________________________": 17013,
  "_{": 16925,
  "`": 96,
  "a": 97,
  "aa": 14906,
  "ab": 409,
  "aba": 15547,
  "abad": 14349,
  "abama": 7440,
  "abase": 22778,
  "abb": 5226,
  "abbing": 12432,
  "abe": 10817,
  "abee": 22432,
  "abel": 14751,
  "abet": 9925,
  "abetes": 12388,
  "abeth": 8753,
  "abi": 16747,
  "abil": 8397,
  "abilities": 5700,
  "ability": 1901,
  "abin": 5826,
  "abinet": 8021,
  "abis": 6818,
  "abit": 29937,
  "abl": 13071,
  "able": 574,
  "abled": 5885,
  "ables": 3382,
  "abling": 12308,
  "ablish": 17210,
  "ablished": 20486,
  "ablishment": 22057,
  "ablo": 16719,
  "ably": 1291,
  "abor": 3208,
  "abortion": 25069,
  "about": 11143,
  "abouts": 25438,
  "above": 28458,
  "abs": 7978,
  "abul": 13783,
  "abulary": 20594,
  "abwe": 19875,
  "aby": 4110,
  "abytes": 31525,
  "ac": 312,
  "aca": 21658,
  "acas": 31962,
  "acc": 6911,
  "accept": 11711,
  "acceptable": 13146,
  "access": 17028,
  "accessible": 30610,
  "acco": 9179,
  "account": 24121,
  "accur": 14777,
  "ace": 559,
  "acebook": 2297,
  "aced": 2286,
  "acent": 12942,
  "acer": 12605,
  "acerb": 18370,
  "aces": 2123,
  "aceutical": 13399,
  "acey": 22240,
  "ach": 633,
  "ache": 5896,
  "ached": 2444,
  "achel": 9872,
  "achelor": 19676,
  "acher": 9991,
  "achers": 15477,
  "aches": 3494,
  "achi": 18597,
  "achine": 24766,
  "aching": 7983,
  "achment": 11128,
  "acht": 17951,
  "achus": 8092,
  "achusetts": 8205,
  "acial": 21447,
  "acies": 12362,
  "acing": 4069,
  "acious": 13822,
  "acity": 4491,
  "aciÃ³n": 25508,
  "ack": 448,
  "acked": 7389,
  "acker": 14034,
  "ackers": 24144,
  "acket": 9085,
  "ackets": 27776,
  "acking": 6863,
  "acks": 5165,
  "acle": 6240,
  "acles": 10416,
  "aco": 11337,
  "acon": 8504,
  "aconian": 30868,
  "acre": 10390,
  "acs": 20898,
  "act": 507,
  "acted": 20009,
  "acter": 6073,
  "acters": 27800,
  "actic": 14060,
  "acting": 25274,
  "action": 2612,
  "actions": 7433,
  "activ": 18751,
  "active": 7553,
  "actively": 28070,
  "activity": 23717,
  "actly": 22829,
  "actor": 11350,
  "actory": 12855,
  "acts": 9540,
  "acular": 12341,
  "acy": 1490,
  "ad": 325,
  "ada": 4705,
  "adal": 29050,
  "adan": 24528,
  "adata": 17445,
  "adays": 17622,
  "add": 3363,
  "addafi": 17597,
  "adder": 31284,
  "addy": 14287,
  "ade": 675,
  "aded": 5168,
  "adel": 6646,
  "adelph": 7257,
  "adelphia": 7317,
  "adem": 3516,
  "adena": 31438,
  "adequ": 15154,
  "ader": 5200,
  "aders": 9922,
  "ades": 2257,
  "adesh": 10874,
  "adh": 18672,
  "adi": 10495,
  "adia": 27355,
  "adian": 17127,
  "adic": 22468,
  "adin": 28964,
  "ading": 4328,
  "aditional": 17184,
  "adium": 5072,
  "adjusted": 29539,
  "ado": 4060,
  "ador": 6153,
  "ados": 20433,
  "adow": 5789,
  "adows": 13325,
  "ads": 7149,
  "advant": 13091,
  "ady": 4593,
  "ae": 4414,
  "aed": 7584,
  "aeda": 8967,
  "ael": 2744,
  "af": 2009,
  "afa": 26535,
  "afe": 9388,
  "afer": 30517,
  "afety": 26009,
  "aff": 1448,
  "affe": 13839,
  "affeine": 22012,
  "affer": 26763,
  "affle": 30923,
  "afi": 13005,
  "afia": 20055,
  "afort": 19209,
  "aft": 21052,
  "after": 9573,
  "ag": 370,
  "aga": 9351,
  "again": 16304,
  "against": 27824,
  "agan": 6443,
  "agar": 30225,
  "age": 504,
  "aged": 1816,
  "agement": 2973,
  "agen": 10651,
  "agent": 23487,
  "ager": 2427,
  "agers": 6069,
  "ages": 1131,
  "agg": 8593,
  "agged": 14870,
  "agger": 9919,
  "aggering": 17048,
  "agging": 14441,
  "agh": 9741,
  "aghd": 13607,
  "agher": 24618,
  "agi": 25299,
  "agic": 9116,
  "agically": 31937,
  "agine": 11026,
  "aging": 2571,
  "agle": 18609,
  "agn": 4962,
  "agne": 19760,
  "agnetic": 22265,
  "ago": 3393,
  "agog": 28443,
  "agogue": 25572,
  "agon": 3530,
  "agonal": 27465,
  "agonist": 15198,
  "agram": 7230,
  "agrams": 31374,
  "agraph": 12163,
  "ags": 4261,
  "agu": 11879,
  "ague": 1742,
  "agues": 5028,
  "ah": 1034,
  "aha": 14079,
  "ahan": 15989,
  "ahar": 30258,
  "ahi": 31832,
  "ahl": 13649,
  "ahn": 14813,
  "aho": 15404,
  "ahon": 24353,
  "ahoo": 10931,
  "ahu": 9564,
  "ai": 2039,
  "aic": 19425,
  "aid": 1984,
  "aida": 23974,
  "aign": 1435,
  "ail": 612,
  "ailable": 10338,
  "ailand": 13914,
  "ailed": 9455,
  "ailing": 11694,
  "ails": 1915,
  "aily": 2890,
  "aim": 1287,
  "ain": 389,
  "aine": 5296,
  "ained": 1503,
  "ainer": 16793,
  "aining": 1571,
  "ains": 1379,
  "aint": 3647,
  "ainted": 15627,
  "aints": 5710,
  "air": 1007,
  "aird": 27946,
  "aire": 6927,
  "aired": 15026,
  "aires": 14872,
  "airo": 14668,
  "airs": 3512,
  "airy": 13314,
  "ais": 9498,
  "ait": 4739,
  "aith": 3958,
  "aj": 1147,
  "aja": 25587,
  "aji": 27173,
  "ajo": 26092,
  "ajor": 1346,
  "ak": 470,
  "aka": 8955,
  "akable": 28676,
  "ake": 537,
  "aked": 4211,
  "akedown": 26779,
  "aken": 1657,
  "akens": 28149,
  "aker": 3048,
  "akers": 3342,
  "akes": 1117,
  "akespe": 17411,
  "akespeare": 17647,
  "akh": 9976,
  "aki": 10123,
  "akin": 28112,
  "aking": 829,
  "akis": 22622,
  "akistan": 4578,
  "ako": 24971,
  "aks": 4338,
  "aku": 14532,
  "aky": 15145,
  "al": 283,
  "ala": 6474,
  "alach": 28166,
  "ald": 1803,
  "aldi": 31683,
  "ale": 1068,
  "aleb": 26681,
  "aled": 5690,
  "aleigh": 27015,
  "ales": 2043,
  "aley": 13867,
  "alez": 17770,
  "alf": 1560,
  "ali": 7782,
  "alia": 9011,
  "alian": 6473,
  "aliation": 19331,
  "alid": 12128,
  "alin": 14921,
  "aline": 22500,
  "aling": 5539,
  "alion": 19786,
  "alis": 29129,
  "alities": 25359,
  "ality": 1544,
  "alk": 967,
  "alker": 23352,
  "alking": 18606,
  "all": 447,
  "alla": 27975,
  "allah": 20792,
  "allas": 6761,
  "alle": 6834,
  "alled": 3026,
  "alleng": 29073,
  "allic": 23534,
  "alling": 9576,
  "allow": 15776,
  "alls": 5340,
  "ally": 453,
  "almost": 24033,
  "alo": 7063,
  "alog": 13015,
  "alogue": 27989,
  "alone": 17710,
  "along": 21840,
  "alph": 13994,
  "als": 878,
  "alse": 4088,
  "alsh": 17548,
  "also": 14403,
  "alt": 2632,
  "alth": 1080,
  "although": 15269,
  "alties": 9898,
  "alty": 6268,
  "aly": 3441,
  "alys": 29026,
  "alysis": 9870,
  "am": 323,
  "ama": 1289,
  "amac": 8770,
  "amacare": 8861,
  "aman": 12428,
  "amas": 15481,
  "amation": 15565,
  "amb": 3634,
  "amba": 28434,
  "amber": 7871,
  "ambers": 15661,
  "ambig": 25794,
  "ambled": 26486,
  "ambling": 11340,
  "ambo": 23754,
  "amboo": 29407,
  "ame": 491,
  "amed": 2033,
  "amel": 20513,
  "ament": 1863,
  "amental": 25277,
  "aments": 11012,
  "amer": 2204,
  "amera": 18976,
  "ames": 1017,
  "ami": 8137,
  "amic": 21244,
  "amiliar": 17624,
  "amily": 6673,
  "amin": 6160,
  "amina": 29447,
  "amination": 29205,
  "amine": 10831,
  "aminer": 25882,
  "aming": 3235,
  "amins": 27507,
  "amm": 5037,
  "ammad": 20404,
  "ammar": 16879,
  "ammed": 8574,
  "ammy": 23475,
  "amo": 15765,
  "amon": 17961,
  "among": 30663,
  "amoto": 23429,
  "amount": 18350,
  "amous": 9933,
  "amp": 674,
  "ampa": 11126,
  "amped": 15152,
  "amph": 26203,
  "amphetamine": 31292,
  "ampion": 5840,
  "ampions": 3513,
  "ampionship": 4542,
  "ampire": 17991,
  "ample": 1474,
  "amples": 18513,
  "amps": 13581,
  "ampton": 16468,
  "ams": 1868,
  "amsung": 8025,
  "amus": 27057,
  "amy": 15663,
  "an": 272,
  "ana": 2181,
  "analysis": 24818,
  "anamo": 23387,
  "anan": 24049,
  "anas": 17936,
  "anc": 1165,
  "ance": 604,
  "anced": 3209,
  "ancer": 18564,
  "ancers": 20417,
  "ances": 1831,
  "anch": 3478,
  "anche": 5353,
  "anches": 12025,
  "anchester": 7406,
  "anchez": 16360,
  "ancial": 2478,
  "ancies": 15849,
  "ancing": 4952,
  "anco": 25781,
  "ancock": 31920,
  "ancouver": 8182,
  "ancy": 4731,
  "and": 388,
  "anda": 4895,
  "andal": 6389,
  "andals": 18012,
  "ande": 31831,
  "anded": 12271,
  "andem": 25849,
  "ander": 4352,
  "andi": 30437,
  "anding": 16780,
  "ando": 17672,
  "andom": 4568,
  "andon": 4637,
  "andra": 25145,
  "andro": 24117,
  "android": 30707,
  "ands": 1704,
  "andum": 24689,
  "andy": 12650,
  "ane": 1604,
  "aned": 19971,
  "aneous": 14469,
  "aneously": 26545,
  "anes": 6622,
  "aney": 18560,
  "ang": 671,
  "anga": 23751,
  "ange": 883,
  "anged": 5691,
  "angel": 8608,
  "anger": 2565,
  "angered": 15645,
  "angerous": 22295,
  "angers": 5837,
  "anges": 6868,
  "anging": 4714,
  "angle": 9881,
  "angled": 19492,
  "angles": 28172,
  "angling": 24265,
  "ango": 15044,
  "angu": 2335,
  "anguage": 11325,
  "anguard": 26107,
  "angular": 22011,
  "ani": 3281,
  "ania": 5035,
  "anic": 25914,
  "anie": 31148,
  "aniel": 5815,
  "anies": 16803,
  "anim": 10936,
  "aning": 7893,
  "anish": 6402,
  "anity": 19640,
  "anium": 13505,
  "ank": 968,
  "anka": 13420,
  "anke": 27721,
  "anked": 13283,
  "ankind": 29096,
  "anking": 12858,
  "anks": 2970,
  "ann": 1620,
  "anna": 8464,
  "annah": 25306,
  "anne": 15974,
  "annel": 4623,
  "annels": 8764,
  "anners": 18127,
  "anni": 27801,
  "annie": 30216,
  "annon": 9685,
  "anny": 7422,
  "ano": 5293,
  "anoia": 26682,
  "anol": 21212,
  "another": 27422,
  "anqu": 28307,
  "ans": 494,
  "ansas": 5921,
  "ansen": 29443,
  "ansing": 20548,
  "ansion": 5217,
  "ansom": 18027,
  "anson": 19275,
  "ant": 424,
  "anta": 19301,
  "ante": 14379,
  "anted": 4582,
  "antha": 28439,
  "anthrop": 18577,
  "anti": 15153,
  "antic": 7761,
  "antically": 29562,
  "antics": 28123,
  "antine": 17601,
  "anting": 15013,
  "antle": 15539,
  "antly": 3877,
  "anto": 13670,
  "antom": 17889,
  "anton": 19267,
  "antry": 20759,
  "ants": 1214,
  "any": 1021,
  "anyahu": 11454,
  "anye": 22731,
  "anyon": 20686,
  "anz": 30682,
  "anza": 31487,
  "ao": 7152,
  "ap": 465,
  "apan": 2575,
  "ape": 2183,
  "aped": 5763,
  "apego": 31268,
  "aper": 2037,
  "apers": 5236,
  "apes": 7293,
  "apest": 30277,
  "aph": 3139,
  "api": 23627,
  "aping": 8910,
  "apiro": 25006,
  "apolis": 9563,
  "apon": 29666,
  "apor": 14835,
  "apore": 10205,
  "app": 1336,
  "appa": 25577,
  "apped": 4853,
  "apper": 10894,
  "apping": 5651,
  "appings": 29891,
  "apple": 24721,
  "appointed": 26845,
  "appro": 15598,
  "appropri": 10363,
  "appropriate": 11968,
  "approved": 26091,
  "appy": 8218,
  "aps": 1585,
  "apse": 6821,
  "apsed": 31778,
  "apt": 2900,
  "apter": 5723,
  "aptic": 30932,
  "apture": 26100,
  "apy": 14205,
  "aq": 31750,
  "aqu": 22455,
  "aque": 17845,
  "ar": 284,
  "ara": 3569,
  "arag": 27853,
  "arak": 19525,
  "aran": 4531,
  "aration": 9739,
  "arations": 23444,
  "arc": 2466,
  "arcer": 15282,
  "arch": 992,
  "arching": 30877,
  "archs": 29724,
  "archy": 9133,
  "arcity": 27239,
  "arcraft": 28795,
  "ard": 458,
  "arded": 11536,
  "arden": 6308,
  "ardi": 18817,
  "arding": 14561,
  "ardless": 13202,
  "ardo": 10950,
  "ardon": 19660,
  "ards": 1447,
  "ardy": 31064,
  "are": 527,
  "area": 19256,
  "ared": 1126,
  "arel": 22290,
  "aren": 5158,
  "arency": 10085,
  "arendra": 21370,
  "arent": 1553,
  "arenthood": 12999,
  "arently": 11867,
  "arents": 12940,
  "arer": 11865,
  "ares": 3719,
  "arest": 13141,
  "aret": 8566,
  "areth": 24041,
  "arette": 14470,
  "arettes": 12714,
  "arez": 15984,
  "arg": 865,
  "arge": 1205,
  "arget": 10336,
  "argo": 8937,
  "ari": 3400,
  "aria": 9967,
  "arian": 3443,
  "arians": 11700,
  "ariat": 21234,
  "aries": 3095,
  "arily": 3009,
  "arin": 16807,
  "aring": 1602,
  "ario": 4525,
  "arios": 11723,
  "arious": 18921,
  "aris": 23346,
  "arity": 6969,
  "arium": 20564,
  "arius": 22402,
  "ark": 678,
  "arks": 5144,
  "arl": 6155,
  "arlier": 7841,
  "arly": 874,
  "arm": 2058,
  "arma": 12093,
  "armac": 31862,
  "armed": 11223,
  "arming": 14056,
  "arms": 8551,
  "arn": 6706,
  "aro": 10946,
  "aron": 7405,
  "around": 12843,
  "arp": 5668,
  "arr": 3376,
  "arrass": 8172,
  "array": 24050,
  "arre": 9395,
  "arrison": 21520,
  "arro": 29319,
  "arrow": 27755,
  "arry": 6928,
  "ars": 949,
  "arse": 17754,
  "arsh": 5089,
  "arson": 10631,
  "art": 428,
  "arta": 28747,
  "arted": 11097,
  "arten": 21604,
  "arter": 2290,
  "arters": 6036,
  "arth": 3083,
  "arthed": 30328,
  "arthy": 13476,
  "article": 22261,
  "articles": 27572,
  "artisan": 14297,
  "artment": 1684,
  "arts": 15242,
  "artz": 21683,
  "aru": 15995,
  "arus": 19714,
  "ary": 557,
  "as": 291,
  "asa": 16577,
  "asant": 9553,
  "asc": 3181,
  "ascal": 25201,
  "ascist": 26868,
  "ascript": 17738,
  "ascular": 17899,
  "ascus": 16644,
  "ase": 623,
  "ased": 825,
  "aser": 6926,
  "asers": 28794,
  "ases": 1438,
  "ash": 1148,
  "asha": 18039,
  "ashed": 5170,
  "ashes": 7615,
  "ashi": 16096,
  "ashing": 1855,
  "ashington": 2096,
  "ashion": 5487,
  "ashtra": 29248,
  "asi": 14690,
  "asing": 2142,
  "asio": 22716,
  "asion": 7748,
  "asis": 20897,
  "asive": 15814,
  "ask": 2313,
  "aska": 7738,
  "asket": 16882,
  "asketball": 22877,
  "asking": 26211,
  "asks": 6832,
  "asley": 31828,
  "asm": 14508,
  "asma": 15353,
  "ason": 820,
  "asonable": 17563,
  "asonic": 29951,
  "asons": 2545,
  "asp": 5730,
  "aspberry": 19351,
  "asper": 31109,
  "ass": 578,
  "assad": 27820,
  "assador": 8942,
  "assadors": 31369,
  "asse": 20331,
  "assed": 21839,
  "asser": 22753,
  "asses": 15920,
  "assic": 26511,
  "assing": 22669,
  "assion": 11241,
  "assis": 21236,
  "assium": 30386,
  "assuming": 30583,
  "assy": 9799,
  "ast": 472,
  "aste": 4332,
  "asted": 10746,
  "aster": 1878,
  "astered": 29223,
  "astern": 5843,
  "asters": 7159,
  "astery": 28220,
  "astic": 3506,
  "astical": 31194,
  "astically": 13408,
  "astics": 22150,
  "asting": 10491,
  "aston": 31199,
  "astrous": 15709,
  "asts": 7002,
  "asty": 8387,
  "asure": 6042,
  "asures": 15785,
  "asury": 9470,
  "asy": 4522,
  "at": 266,
  "ata": 1163,
  "atable": 16619,
  "atal": 12204,
  "atalie": 27476,
  "atar": 9385,
  "atch": 1016,
  "atched": 15277,
  "atcher": 31536,
  "atches": 26844,
  "atching": 17339,
  "ate": 368,
  "ated": 515,
  "ateful": 10825,
  "ateg": 2553,
  "ategory": 16901,
  "ategy": 3886,
  "atel": 21097,
  "atell": 6448,
  "atellite": 26974,
  "ately": 1269,
  "ater": 739,
  "ateral": 9786,
  "atered": 28386,
  "aterial": 2617,
  "atern": 9555,
  "aternal": 15554,
  "aternity": 16119,
  "aters": 14028,
  "ates": 677,
  "ateur": 13637,
  "atever": 3542,
  "atform": 3158,
  "ath": 844,
  "athan": 6180,
  "athe": 26072,
  "athed": 28329,
  "ather": 1038,
  "athered": 7760,
  "atherine": 13916,
  "athering": 25067,
  "athetic": 16322,
  "athing": 23443,
  "athom": 29095,
  "athon": 11978,
  "athy": 7629,
  "ati": 7193,
  "atible": 23961,
  "atic": 2047,
  "atical": 22780,
  "atically": 4477,
  "atican": 15073,
  "atics": 17140,
  "atile": 12529,
  "atility": 17227,
  "atin": 12480,
  "ating": 805,
  "atinum": 19741,
  "ation": 342,
  "ational": 795,
  "ationally": 12757,
  "ations": 589,
  "atisf": 16189,
  "atism": 19579,
  "ative": 859,
  "atively": 9932,
  "atives": 2631,
  "ativity": 19524,
  "atlantic": 31183,
  "ato": 5898,
  "atoes": 12173,
  "aton": 13984,
  "ator": 1567,
  "atorial": 17816,
  "atories": 18167,
  "atorium": 24681,
  "ators": 1985,
  "atory": 2950,
  "atra": 23009,
  "atre": 12430,
  "atri": 22467,
  "ats": 1677,
  "atsu": 26188,
  "att": 2314,
  "atta": 24220,
  "attack": 17521,
  "attacks": 29733,
  "atter": 11999,
  "attered": 10635,
  "attering": 18979,
  "atti": 27728,
  "attle": 3875,
  "attled": 23718,
  "atts": 24302,
  "atum": 30405,
  "atur": 2393,
  "atural": 2713,
  "aturally": 7513,
  "aturday": 3111,
  "ature": 1361,
  "atured": 20800,
  "atures": 5259,
  "aturing": 29974,
  "atus": 10625,
  "atz": 26960,
  "au": 556,
  "auc": 12656,
  "aucas": 22945,
  "aucus": 12027,
  "aucuses": 27288,
  "aud": 3706,
  "aude": 23357,
  "auer": 14012,
  "auf": 23241,
  "aug": 7070,
  "augh": 1561,
  "aughed": 14905,
  "aughs": 16293,
  "aught": 3336,
  "aughter": 3561,
  "aughtered": 29438,
  "aughters": 12154,
  "aukee": 12840,
  "aul": 2225,
  "ault": 2133,
  "aun": 7216,
  "aunch": 21491,
  "aunted": 24756,
  "aunting": 19288,
  "aur": 2911,
  "aura": 31342,
  "aus": 7992,
  "ause": 669,
  "ausible": 15210,
  "aut": 2572,
  "auth": 18294,
  "author": 9694,
  "authored": 31249,
  "authorized": 18714,
  "aution": 27370,
  "autions": 30311,
  "aux": 14085,
  "av": 626,
  "ava": 4820,
  "available": 16243,
  "aval": 8821,
  "avan": 20795,
  "ave": 1040,
  "aved": 9430,
  "aven": 5128,
  "aver": 9176,
  "average": 21558,
  "avers": 28963,
  "avery": 11766,
  "aves": 3309,
  "avez": 21789,
  "avi": 16593,
  "avia": 18675,
  "avian": 27977,
  "avier": 23430,
  "avin": 19876,
  "aving": 2637,
  "avior": 20409,
  "avoid": 25348,
  "avor": 6785,
  "avorite": 24208,
  "avour": 31662,
  "avy": 2909,
  "aw": 704,
  "awa": 6752,
  "aware": 8927,
  "awatts": 31650,
  "away": 8087,
  "aways": 20866,
  "awei": 27331,
  "awi": 19608,
  "awk": 24348,
  "awks": 10496,
  "awn": 5088,
  "aws": 13052,
  "ax": 969,
  "axies": 20274,
  "axis": 26617,
  "axy": 6949,
  "ay": 318,
  "aya": 12066,
  "ayan": 20914,
  "aye": 31027,
  "ayed": 12513,
  "ayer": 5222,
  "ayers": 6531,
  "ayette": 24339,
  "aying": 8105,
  "aylor": 6757,
  "ays": 566,
  "ayson": 28510,
  "az": 1066,
  "aza": 6183,
  "azar": 27226,
  "aze": 6808,
  "azed": 14142,
  "azeera": 19090,
  "azer": 19978,
  "azers": 25268,
  "azi": 6775,
  "azine": 4855,
  "azines": 14834,
  "azing": 4310,
  "azingly": 23462,
  "azon": 4642,
  "azor": 18519,
  "azy": 12827,
  "azz": 7727,
  "b": 98,
  "ba": 8104,
  "bable": 27720,
  "bably": 11696,
  "bach": 18408,
  "back": 1814,
  "backed": 12994,
  "backs": 8880,
  "bad": 15397,
  "bag": 21623,
  "bai": 22977,
  "bal": 7634,
  "balance": 20267,
  "balanced": 27392,
  "ball": 1729,
  "balls": 18150,
  "ban": 3440,
  "band": 3722,
  "bands": 21243,
  "bane": 18313,
  "bank": 18655,
  "bar": 6872,
  "bard": 19672,
  "bart": 12652,
  "bas": 18391,
  "base": 9861,
  "based": 2792,
  "bast": 18398,
  "bat": 11356,
  "baum": 21918,
  "bay": 31791,
  "bb": 16847,
  "bc": 25689,
  "be": 1365,
  "bean": 14037,
  "bearing": 28623,
  "beat": 11620,
  "bec": 8164,
  "because": 12472,
  "becca": 19193,
  "beck": 24378,
  "becue": 27107,
  "bed": 3112,
  "bedroom": 28709,
  "bee": 21667,
  "before": 21195,
  "begin": 31355,
  "beh": 20915,
  "being": 11124,
  "beit": 12977,
  "bel": 6826,
  "belie": 24548,
  "belief": 21879,
  "believ": 15865,
  "bell": 7917,
  "ben": 10905,
  "bench": 26887,
  "ber": 518,
  "bered": 9622,
  "berg": 3625,
  "berger": 18320,
  "berman": 26205,
  "bern": 27596,
  "bernatorial": 30631,
  "berra": 25808,
  "berries": 23538,
  "berry": 9433,
  "bers": 1157,
  "bert": 4404,
  "berto": 26634,
  "bery": 11425,
  "bes": 11487,
  "best": 12964,
  "bet": 12082,
  "better": 24374,
  "between": 23896,
  "bey": 22400,
  "bf": 29582,
  "bi": 9012,
  "bial": 20031,
  "bian": 11057,
  "bians": 26143,
  "bid": 25535,
  "bie": 12300,
  "big": 13186,
  "bike": 28729,
  "bil": 28293,
  "billion": 18496,
  "bilt": 29656,
  "bin": 10548,
  "binding": 31897,
  "bing": 9970,
  "bird": 19619,
  "birth": 26003,
  "bish": 27374,
  "bishop": 22457,
  "bit": 2639,
  "bitious": 11189,
  "bits": 9751,
  "bl": 2996,
  "black": 14446,
  "blank": 28905,
  "ble": 906,
  "bled": 19717,
  "blem": 14016,
  "blems": 24240,
  "bles": 12578,
  "bley": 31655,
  "blind": 29979,
  "bling": 18033,
  "block": 11445,
  "blog": 14650,
  "blood": 20664,
  "blown": 25605,
  "blue": 20617,
  "bn": 8460,
  "bnb": 26114,
  "bo": 2437,
  "board": 3728,
  "boarding": 21527,
  "boards": 12426,
  "boat": 23579,
  "body": 2365,
  "bomb": 29175,
  "bon": 3953,
  "bone": 15434,
  "bons": 21968,
  "book": 1813,
  "books": 10673,
  "boot": 27248,
  "bor": 2732,
  "border": 22911,
  "borg": 26154,
  "borhood": 29027,
  "born": 6392,
  "borne": 12292,
  "boro": 21237,
  "borough": 14731,
  "bot": 16255,
  "both": 16414,
  "bottom": 27132,
  "bound": 10718,
  "bour": 4807,
  "bourg": 21984,
  "bourne": 10392,
  "bow": 9364,
  "bows": 28457,
  "box": 3847,
  "boy": 6906,
  "boys": 11381,
  "bps": 19187,
  "br": 1724,
  "bra": 17093,
  "brain": 28660,
  "bral": 25629,
  "brance": 30881,
  "brand": 20212,
  "branded": 28902,
  "braska": 15368,
  "bre": 4822,
  "bread": 30546,
  "break": 9400,
  "breaker": 27724,
  "breaking": 11116,
  "breaks": 26079,
  "brew": 12546,
  "brid": 10035,
  "bridge": 9126,
  "bright": 29167,
  "bringing": 29403,
  "bro": 7849,
  "broken": 23500,
  "brook": 17931,
  "brow": 31384,
  "bs": 1579,
  "bsite": 14830,
  "bsp": 27319,
  "bt": 27533,
  "bu": 12482,
  "bucks": 18259,
  "budget": 28483,
  "build": 15452,
  "building": 15031,
  "built": 19101,
  "bul": 14563,
  "bull": 13666,
  "bum": 3736,
  "buquerque": 29729,
  "bur": 6168,
  "burg": 6893,
  "burgh": 7967,
  "burn": 11954,
  "bury": 9728,
  "bus": 18738,
  "business": 20006,
  "buster": 20511,
  "busters": 24794,
  "but": 4612,
  "button": 23069,
  "buy": 27333,
  "by": 1564,
  "bye": 16648,
  "byn": 12220,
  "c": 99,
  "ca": 8319,
  "cair": 29572,
  "cal": 10848,
  "call": 16508,
  "called": 5916,
  "cam": 21793,
  "camera": 23184,
  "camp": 17802,
  "can": 6046,
  "cann": 29441,
  "cano": 21897,
  "cap": 10977,
  "capital": 23261,
  "caps": 25428,
  "car": 8007,
  "carbon": 24893,
  "card": 11331,
  "cards": 31516,
  "care": 5800,
  "carry": 30669,
  "cars": 31073,
  "cas": 27647,
  "case": 8509,
  "cast": 2720,
  "caster": 30715,
  "casting": 20216,
  "castle": 15092,
  "cat": 11846,
  "cation": 25322,
  "cats": 23223,
  "cause": 24384,
  "cc": 529,
  "cca": 13702,
  "ccess": 1524,
  "ccording": 2413,
  "cd": 16551,
  "ce": 346,
  "cean": 5426,
  "ceans": 16808,
  "ced": 773,
  "cedented": 9648,
  "cedes": 15676,
  "ceed": 2986,
  "ceived": 6629,
  "cel": 5530,
  "celer": 6988,
  "cell": 4241,
  "celona": 11581,
  "cember": 2933,
  "cence": 31834,
  "cend": 13601,
  "cent": 1023,
  "center": 20600,
  "centric": 22938,
  "century": 11468,
  "cept": 1048,
  "ception": 4758,
  "ceptions": 9501,
  "ceptive": 23716,
  "cer": 1056,
  "cers": 6965,
  "cert": 31726,
  "certain": 6517,
  "cery": 31362,
  "ces": 728,
  "cess": 978,
  "cest": 9649,
  "cester": 28487,
  "cf": 22598,
  "ch": 354,
  "cha": 14032,
  "chain": 7509,
  "chair": 14477,
  "chan": 3606,
  "change": 3844,
  "changing": 19767,
  "channel": 29474,
  "chant": 16868,
  "char": 13479,
  "character": 22944,
  "chard": 28385,
  "charg": 11552,
  "charge": 12562,
  "charged": 16751,
  "charging": 30941,
  "chat": 18699,
  "che": 2643,
  "check": 10215,
  "checked": 25489,
  "ched": 1651,
  "chedel": 19879,
  "chel": 27681,
  "chell": 10587,
  "chem": 19657,
  "chemical": 31691,
  "chen": 6606,
  "chens": 23936,
  "cher": 4206,
  "chers": 6599,
  "ches": 2102,
  "chet": 24519,
  "chewan": 23098,
  "chi": 13085,
  "chie": 2894,
  "chief": 15867,
  "child": 9753,
  "children": 16038,
  "chin": 23581,
  "ching": 10418,
  "chn": 1276,
  "chnology": 17504,
  "cho": 6476,
  "choice": 22063,
  "chool": 1171,
  "chron": 12213,
  "cht": 18938,
  "church": 30158,
  "chy": 28900,
  "ci": 1057,
  "cia": 31389,
  "cial": 2494,
  "cially": 1968,
  "ciation": 18690,
  "cience": 4293,
  "cient": 3661,
  "cier": 27651,
  "cies": 3039,
  "cific": 8382,
  "cifically": 17201,
  "cified": 20844,
  "cig": 19982,
  "cigarettes": 26946,
  "cil": 2532,
  "cill": 14788,
  "cin": 20117,
  "cing": 2119,
  "cious": 5139,
  "ciously": 18770,
  "cip": 25213,
  "cipl": 19688,
  "cipled": 31561,
  "ciples": 7021,
  "ciplinary": 29621,
  "circ": 21766,
  "cision": 19233,
  "citation": 11159,
  "city": 21878,
  "cium": 22138,
  "civil": 31956,
  "ck": 732,
  "cker": 13606,
  "cknow": 4720,
  "cks": 4871,
  "cl": 1327,
  "clad": 31688,
  "claim": 8590,
  "claimed": 13286,
  "clair": 24327,
  "clamation": 24432,
  "class": 5411,
  "cle": 3030,
  "clean": 28249,
  "clear": 25959,
  "cled": 20509,
  "cles": 7693,
  "click": 15866,
  "client": 26469,
  "cliffe": 30984,
  "cling": 8171,
  "clipse": 31327,
  "clock": 18555,
  "close": 23686,
  "closed": 14605,
  "closure": 13799,
  "cloud": 25098,
  "club": 17427,
  "clus": 2790,
  "clusion": 14622,
  "clusive": 16253,
  "cm": 16126,
  "cn": 30248,
  "co": 1319,
  "coal": 28598,
  "cock": 18445,
  "cod": 21969,
  "code": 12074,
  "coh": 5212,
  "cohol": 5574,
  "coholic": 22154,
  "coin": 3391,
  "coins": 13423,
  "col": 5652,
  "coll": 21680,
  "collar": 28105,
  "colm": 15901,
  "color": 15472,
  "colored": 26149,
  "com": 913,
  "comb": 22126,
  "come": 3067,
  "comed": 12343,
  "comes": 8966,
  "comfort": 19486,
  "coming": 4340,
  "comings": 25136,
  "comm": 14600,
  "comment": 24314,
  "comments": 31022,
  "commerce": 22667,
  "committee": 22698,
  "common": 19052,
  "commun": 10622,
  "communication": 31501,
  "communications": 18993,
  "community": 30472,
  "comp": 11529,
  "compass": 16077,
  "compet": 22556,
  "compl": 23380,
  "complete": 19779,
  "computer": 29130,
  "con": 1058,
  "cond": 18389,
  "condition": 31916,
  "conf": 9007,
  "conference": 31693,
  "config": 19053,
  "coni": 30119,
  "connect": 12486,
  "connected": 17915,
  "conom": 1280,
  "cons": 6033,
  "conscious": 18140,
  "const": 9778,
  "constitutional": 14932,
  "consuming": 29910,
  "cont": 4214,
  "content": 16671,
  "contin": 25639,
  "continental": 29971,
  "contract": 27514,
  "control": 15209,
  "controlled": 12575,
  "cook": 31806,
  "cool": 24495,
  "coon": 29466,
  "cop": 28416,
  "cor": 10517,
  "core": 8373,
  "corn": 23727,
  "correct": 30107,
  "cos": 5997,
  "cost": 14806,
  "cosystem": 9930,
  "cot": 19949,
  "cott": 11577,
  "could": 20902,
  "count": 11905,
  "counter": 23255,
  "country": 21406,
  "course": 20007,
  "court": 17464,
  "cover": 8619,
  "covered": 29499,
  "covery": 16109,
  "cow": 7081,
  "cp": 24565,
  "cr": 7821,
  "cracy": 19254,
  "craft": 3725,
  "crat": 12649,
  "cre": 10479,
  "creat": 22939,
  "create": 21777,
  "created": 25148,
  "crib": 9100,
  "cribed": 13230,
  "crime": 23186,
  "cript": 7011,
  "cription": 7988,
  "criptions": 22323,
  "critical": 23100,
  "cro": 21439,
  "croft": 31611,
  "cross": 21589,
  "cry": 15329,
  "cs": 13638,
  "ct": 332,
  "ctic": 8996,
  "ctica": 23048,
  "ction": 631,
  "ctions": 2828,
  "ctor": 2602,
  "ctors": 4558,
  "ctr": 9211,
  "ctuary": 29504,
  "cue": 19322,
  "cul": 3735,
  "cular": 11546,
  "culation": 15625,
  "cule": 21657,
  "cules": 14011,
  "cultural": 26414,
  "culture": 21270,
  "culus": 15646,
  "cup": 28880,
  "cur": 19894,
  "current": 16705,
  "cus": 7751,
  "custom": 30477,
  "cut": 9218,
  "cuts": 23696,
  "cutting": 25119,
  "cy": 973,
  "cycl": 19343,
  "cycle": 29786,
  "cyclop": 25631,
  "cyclopedia": 29120,
  "cz": 29221,
  "cÃ©": 26888,
  "d": 100,
  "da": 7961,
  "daily": 27481,
  "dain": 22817,
  "dale": 13023,
  "dam": 12259,
  "dan": 24670,
  "dar": 26299,
  "dark": 25812,
  "dat": 28987,
  "data": 11919,
  "date": 6080,
  "dated": 8809,
  "dates": 24649,
  "daughter": 27545,
  "day": 742,
  "days": 13821,
  "db": 15248,
  "dc": 31267,
  "dd": 2121,
  "dden": 4941,
  "dding": 30129,
  "de": 3174,
  "dead": 24848,
  "deal": 27064,
  "death": 22045,
  "deb": 16932,
  "dec": 12743,
  "ded": 9373,
  "deen": 31765,
  "deep": 19213,
  "def": 6115,
  "default": 23663,
  "defense": 17644,
  "define": 29963,
  "defined": 25225,
  "degree": 14435,
  "del": 15001,
  "dem": 8458,
  "demand": 24862,
  "den": 5304,
  "dep": 11019,
  "dependent": 22456,
  "depth": 17892,
  "der": 1155,
  "des": 8876,
  "desc": 16453,
  "describ": 26144,
  "described": 28739,
  "description": 29756,
  "design": 26250,
  "designed": 26689,
  "dest": 18035,
  "det": 19687,
  "deter": 21880,
  "dev": 11972,
  "develop": 15600,
  "developed": 27963,
  "df": 11467,
  "di": 13162,
  "dict": 11006,
  "did": 19614,
  "die": 15350,
  "dies": 22288,
  "dig": 13409,
  "digit": 23954,
  "dimensional": 18072,
  "din": 21910,
  "dinand": 31985,
  "ding": 12501,
  "dir": 27966,
  "direct": 13236,
  "directed": 28823,
  "director": 27455,
  "dis": 6429,
  "disc": 15022,
  "display": 13794,
  "displaystyle": 17902,
  "dist": 18525,
  "distance": 29497,
  "dit": 8647,
  "div": 9600,
  "division": 30030,
  "dney": 9004,
  "do": 4716,
  "doc": 21383,
  "document": 27832,
  "does": 21174,
  "dog": 9067,
  "dogs": 21366,
  "doing": 15981,
  "dollar": 17374,
  "dom": 3902,
  "dominated": 26088,
  "don": 9449,
  "done": 29484,
  "door": 9006,
  "doors": 19155,
  "dot": 28975,
  "dou": 24714,
  "double": 27157,
  "down": 2934,
  "download": 27744,
  "dr": 11174,
  "dragon": 27988,
  "draw": 26270,
  "dream": 29257,
  "dri": 8721,
  "drive": 24319,
  "driven": 13427,
  "driving": 18485,
  "dro": 7033,
  "drop": 12682,
  "dropping": 30371,
  "drug": 28106,
  "ds": 10434,
  "du": 655,
  "duc": 6391,
  "duct": 2689,
  "ducted": 20431,
  "duction": 27725,
  "due": 21674,
  "duino": 26438,
  "dule": 5883,
  "duty": 23033,
  "dy": 10184,
  "e": 101,
  "ea": 25820,
  "each": 30364,
  "ead": 1326,
  "eah": 4926,
  "eal": 2203,
  "ealous": 16161,
  "eals": 9511,
  "ean": 3906,
  "eanor": 17265,
  "ear": 464,
  "earance": 31124,
  "earch": 4112,
  "earchers": 13247,
  "eared": 3144,
  "earing": 7269,
  "early": 10445,
  "ears": 4466,
  "earth": 18833,
  "eas": 26663,
  "east": 13973,
  "eat": 28627,
  "eating": 26457,
  "eb": 1940,
  "ebus": 25840,
  "ec": 767,
  "eca": 29619,
  "ecause": 3044,
  "ecd": 18454,
  "ech": 2748,
  "eches": 13806,
  "econom": 12552,
  "economic": 15410,
  "ect": 523,
  "ected": 16122,
  "ection": 8631,
  "ective": 9198,
  "ector": 14090,
  "ects": 11545,
  "ecut": 8247,
  "ecutive": 9000,
  "ed": 275,
  "edIn": 16498,
  "eda": 22502,
  "edd": 5801,
  "eddy": 22633,
  "ede": 16637,
  "eded": 12820,
  "eder": 5361,
  "ederal": 1810,
  "ederation": 9243,
  "edge": 14890,
  "edia": 5673,
  "edience": 21920,
  "edin": 20326,
  "eding": 8748,
  "edition": 28848,
  "edo": 26196,
  "eds": 5592,
  "edu": 20464,
  "educ": 15939,
  "educated": 21796,
  "edy": 6191,
  "ee": 1775,
  "eed": 2947,
  "eeks": 26757,
  "een": 10026,
  "eer": 28096,
  "ees": 2882,
  "ef": 981,
  "efe": 18041,
  "efeated": 28861,
  "eff": 3224,
  "effect": 27971,
  "effective": 26268,
  "efficient": 21846,
  "efined": 22572,
  "efully": 6522,
  "eg": 22350,
  "ei": 19203,
  "eight": 24435,
  "either": 31618,
  "ek": 926,
  "eking": 18229,
  "eks": 2322,
  "el": 432,
  "ela": 9406,
  "elaide": 19100,
  "eland": 8434,
  "elcome": 11914,
  "ele": 9640,
  "elect": 7860,
  "elected": 20626,
  "election": 10540,
  "electric": 25356,
  "eled": 17347,
  "eless": 5113,
  "elf": 14709,
  "elia": 30213,
  "eligible": 28965,
  "elin": 24972,
  "eline": 4346,
  "elines": 17909,
  "eling": 10383,
  "ell": 971,
  "ella": 14689,
  "ellar": 14429,
  "ellation": 26160,
  "elle": 11145,
  "elled": 17809,
  "eller": 11860,
  "elli": 26929,
  "elling": 15704,
  "ello": 11780,
  "ellow": 6008,
  "elly": 5810,
  "elman": 27329,
  "elo": 23787,
  "elong": 17859,
  "els": 1537,
  "elsen": 21299,
  "elsh": 17242,
  "elsius": 27925,
  "elson": 9357,
  "elt": 2106,
  "elta": 13331,
  "elve": 10733,
  "em": 433,
  "ema": 21887,
  "emade": 21434,
  "email": 14998,
  "emaker": 31054,
  "emale": 15666,
  "eman": 8061,
  "emb": 26005,
  "embed": 31891,
  "ember": 2584,
  "emed": 9250,
  "emen": 7410,
  "emer": 21936,
  "emet": 16677,
  "emetery": 16897,
  "emic": 9989,
  "emies": 30651,
  "emin": 11975,
  "eming": 28377,
  "emit": 11776,
  "emon": 23931,
  "employ": 5842,
  "employment": 28436,
  "empt": 17590,
  "emption": 19527,
  "ems": 7829,
  "emy": 21765,
  "en": 268,
  "ena": 6560,
  "enable": 30087,
  "enabled": 27018,
  "ename": 23035,
  "enary": 23390,
  "enas": 28984,
  "enberg": 21006,
  "enburg": 31612,
  "enc": 13387,
  "ence": 584,
  "enced": 5278,
  "encer": 11955,
  "ences": 2960,
  "ench": 25891,
  "encia": 22483,
  "encies": 3740,
  "encing": 8987,
  "ency": 1337,
  "end": 397,
  "enda": 6034,
  "endant": 27934,
  "endar": 10313,
  "endas": 28147,
  "ended": 1714,
  "ender": 2267,
  "endered": 26497,
  "enders": 7069,
  "endez": 29913,
  "ending": 1494,
  "endment": 5393,
  "endo": 29622,
  "endof": 701,
  "endoftext": 702,
  "endon": 31471,
  "endor": 30355,
  "ends": 2587,
  "ene": 1700,
  "ened": 2915,
  "ener": 911,
  "eneration": 18186,
  "energy": 18409,
  "enery": 26206,
  "enes": 19063,
  "eness": 10229,
  "enez": 9226,
  "enezuel": 10051,
  "enf": 24694,
  "enfranch": 30018,
  "eng": 1612,
  "enge": 3348,
  "engeance": 26399,
  "enger": 6121,
  "engers": 8068,
  "engine": 18678,
  "ength": 3947,
  "engu": 13753,
  "enh": 23629,
  "ening": 3001,
  "enko": 26376,
  "enly": 17371,
  "enment": 21500,
  "enn": 1728,
  "enna": 12981,
  "ennial": 24619,
  "ennis": 9228,
  "enny": 8187,
  "eno": 26258,
  "enos": 25786,
  "ens": 643,
  "ense": 1076,
  "ensed": 17065,
  "ensen": 16757,
  "enses": 4883,
  "ensible": 27457,
  "ensing": 26368,
  "ension": 3233,
  "ensions": 5654,
  "ensitive": 18802,
  "ensity": 6758,
  "ensive": 1808,
  "enson": 16244,
  "ensor": 29140,
  "ensual": 28219,
  "ensus": 6552,
  "ent": 299,
  "ental": 10150,
  "ente": 20837,
  "ented": 4208,
  "enter": 9473,
  "enth": 7869,
  "enthal": 29567,
  "ential": 1721,
  "entially": 3220,
  "entials": 14363,
  "entin": 31172,
  "enting": 29916,
  "ention": 1160,
  "entions": 14896,
  "ently": 2175,
  "enton": 23865,
  "entric": 21379,
  "entry": 18225,
  "ents": 756,
  "enture": 6020,
  "enty": 3658,
  "env": 31263,
  "enz": 17280,
  "enza": 22210,
  "enzie": 22040,
  "eon": 24320,
  "eor": 12900,
  "ep": 513,
  "epend": 2417,
  "ependence": 14068,
  "ependent": 7866,
  "epernick": 22413,
  "eping": 7158,
  "eprint": 18416,
  "eps": 26951,
  "ept": 7379,
  "eption": 22672,
  "equ": 4633,
  "er": 263,
  "era": 7752,
  "eral": 1538,
  "erala": 27156,
  "erald": 11270,
  "erals": 16020,
  "erate": 27144,
  "erc": 3295,
  "ercise": 27348,
  "ere": 657,
  "ered": 1143,
  "eree": 17983,
  "erek": 15997,
  "erem": 29736,
  "eremy": 9699,
  "eren": 16990,
  "erence": 1930,
  "erences": 4925,
  "erent": 9798,
  "erential": 29261,
  "erer": 13491,
  "erers": 18710,
  "erg": 9188,
  "ergy": 29716,
  "eria": 9765,
  "erie": 18562,
  "eries": 8889,
  "ering": 1343,
  "erion": 29398,
  "erk": 20647,
  "erm": 20750,
  "erman": 1957,
  "ern": 1540,
  "ername": 20282,
  "ernand": 11021,
  "ernandez": 15271,
  "ernaut": 31782,
  "ernel": 11764,
  "erness": 17599,
  "ernick": 21612,
  "erno": 31713,
  "ero": 3747,
  "eroids": 29932,
  "eros": 26788,
  "erous": 5099,
  "err": 11612,
  "error": 26820,
  "erry": 5819,
  "ers": 359,
  "ersion": 12113,
  "erson": 914,
  "ert": 2012,
  "ertain": 1457,
  "ertainly": 16137,
  "erted": 8842,
  "erting": 15471,
  "erts": 9289,
  "erv": 1264,
  "ervation": 13978,
  "ervative": 17586,
  "ervatives": 28569,
  "erve": 3622,
  "erved": 5736,
  "erves": 6460,
  "erving": 12439,
  "ery": 2275,
  "es": 276,
  "esame": 31020,
  "esar": 18578,
  "esc": 6666,
  "escope": 16041,
  "ese": 2838,
  "esh": 8841,
  "esides": 11983,
  "esis": 13368,
  "esity": 13848,
  "esome": 6107,
  "eson": 31710,
  "especially": 15206,
  "esque": 23550,
  "ess": 413,
  "essa": 21326,
  "essage": 17908,
  "esse": 29617,
  "essed": 7377,
  "essee": 9529,
  "essential": 27291,
  "essim": 23468,
  "ession": 2971,
  "essional": 13457,
  "essions": 5600,
  "essler": 27722,
  "essment": 24044,
  "essor": 5966,
  "essors": 19900,
  "est": 384,
  "esta": 16277,
  "established": 23553,
  "estation": 31247,
  "este": 17281,
  "ested": 10227,
  "esteem": 28383,
  "ester": 8286,
  "estern": 2963,
  "esters": 5772,
  "estial": 28305,
  "estic": 4209,
  "estinal": 24927,
  "estine": 20070,
  "estival": 5780,
  "eston": 17128,
  "estone": 12723,
  "estones": 28658,
  "ests": 2725,
  "esty": 8933,
  "estyle": 10219,
  "esville": 17107,
  "esy": 7426,
  "et": 322,
  "eta": 17146,
  "etary": 7612,
  "etc": 20076,
  "ete": 15573,
  "eted": 21518,
  "eteen": 30660,
  "eteenth": 24914,
  "eter": 2627,
  "etermined": 28311,
  "eters": 8990,
  "eth": 3179,
  "ethe": 9643,
  "etheless": 10911,
  "ether": 6847,
  "ethical": 26504,
  "ethyl": 30962,
  "etic": 5508,
  "etics": 23360,
  "eties": 25693,
  "etime": 7820,
  "eting": 13989,
  "etition": 16100,
  "etitive": 20460,
  "eto": 31824,
  "eton": 16615,
  "etooth": 17289,
  "etr": 23162,
  "etro": 3744,
  "etroit": 6388,
  "ets": 1061,
  "etsk": 25096,
  "ett": 3447,
  "etta": 14171,
  "ette": 5796,
  "ettes": 23469,
  "etti": 21996,
  "ettings": 20849,
  "etts": 7910,
  "etty": 4275,
  "etus": 25703,
  "ety": 2873,
  "etz": 19334,
  "eu": 12921,
  "eur": 20689,
  "ev": 2070,
  "eval": 19604,
  "even": 9730,
  "event": 20581,
  "ever": 990,
  "everal": 7475,
  "every": 15519,
  "evil": 23892,
  "evin": 5892,
  "ew": 562,
  "eway": 17651,
  "eworthy": 22803,
  "ews": 16732,
  "ex": 1134,
  "example": 28531,
  "exc": 27318,
  "except": 19547,
  "exe": 24718,
  "existent": 28763,
  "existing": 22610,
  "exp": 14836,
  "exper": 21599,
  "expl": 21679,
  "ext": 10668,
  "extreme": 23147,
  "extremely": 30760,
  "ey": 4956,
  "eye": 27785,
  "eyed": 18147,
  "ez": 7604,
  "f": 102,
  "fa": 19058,
  "face": 2948,
  "facebook": 22284,
  "faced": 22234,
  "facing": 25020,
  "fact": 19952,
  "fair": 18627,
  "fake": 26267,
  "fall": 7697,
  "falls": 20888,
  "false": 21005,
  "family": 18881,
  "fan": 16752,
  "far": 15236,
  "fare": 8201,
  "fashion": 22205,
  "fashioned": 24123,
  "fast": 7209,
  "fat": 24270,
  "father": 10609,
  "fax": 19578,
  "fd": 30725,
  "fe": 5233,
  "fect": 2536,
  "fed": 23678,
  "feed": 15241,
  "feeding": 25491,
  "feld": 13847,
  "fell": 23675,
  "felt": 28161,
  "female": 28540,
  "femin": 29911,
  "fer": 2582,
  "ference": 4605,
  "fest": 25449,
  "fet": 27565,
  "few": 27420,
  "ff": 497,
  "ffield": 24280,
  "ffiti": 20545,
  "fi": 12290,
  "fiction": 22020,
  "field": 3064,
  "fields": 28711,
  "fif": 29207,
  "fig": 22738,
  "fight": 21037,
  "fighting": 25579,
  "figure": 24883,
  "fil": 14045,
  "file": 12446,
  "files": 26985,
  "fill": 21484,
  "filled": 18271,
  "film": 25832,
  "fin": 15775,
  "final": 18086,
  "finals": 23359,
  "find": 25545,
  "finder": 29500,
  "fire": 7006,
  "fired": 20939,
  "fires": 22549,
  "first": 11466,
  "fish": 11288,
  "fit": 10404,
  "fits": 19059,
  "fitting": 29950,
  "five": 13174,
  "fix": 17609,
  "fl": 3152,
  "flation": 28647,
  "flies": 28583,
  "flight": 19896,
  "flix": 8793,
  "float": 26313,
  "floor": 26790,
  "flow": 12130,
  "flower": 29055,
  "flu": 16524,
  "fly": 13748,
  "focused": 21719,
  "fol": 9222,
  "fold": 13661,
  "folk": 20516,
  "follow": 27816,
  "font": 27690,
  "foo": 28847,
  "food": 19398,
  "foot": 6683,
  "for": 1648,
  "force": 2984,
  "forcement": 12917,
  "ford": 3468,
  "fore": 779,
  "forest": 30337,
  "forestation": 31134,
  "form": 717,
  "formance": 11876,
  "format": 29662,
  "formation": 4818,
  "formed": 12252,
  "former": 11653,
  "formerly": 31905,
  "formers": 25752,
  "forming": 14580,
  "forms": 27930,
  "fort": 3395,
  "forth": 24709,
  "fortunately": 6287,
  "forward": 11125,
  "found": 8158,
  "founded": 23172,
  "founder": 12698,
  "four": 14100,
  "fox": 13093,
  "fr": 9994,
  "frac": 21446,
  "frame": 15261,
  "fre": 29079,
  "free": 5835,
  "frequ": 30021,
  "frey": 30824,
  "fried": 29711,
  "friend": 6548,
  "friendly": 11345,
  "from": 7606,
  "front": 7722,
  "fs": 12976,
  "ft": 729,
  "ften": 14420,
  "fter": 617,
  "ftime": 26381,
  "fu": 28224,
  "fuel": 25795,
  "ful": 921,
  "full": 15768,
  "fully": 2831,
  "fulness": 15758,
  "fun": 18768,
  "function": 10754,
  "fund": 9110,
  "funded": 13977,
  "funding": 20034,
  "furt": 24367,
  "fy": 26977,
  "g": 103,
  "ga": 4717,
  "gaard": 29082,
  "gae": 21394,
  "gage": 21355,
  "gal": 10593,
  "galitarian": 31668,
  "gall": 23970,
  "gam": 26023,
  "game": 6485,
  "games": 28567,
  "gan": 947,
  "gang": 27108,
  "gar": 4983,
  "gard": 23612,
  "gars": 26053,
  "gary": 12207,
  "gas": 6569,
  "gat": 29258,
  "gate": 10688,
  "gay": 18197,
  "ge": 481,
  "geant": 25749,
  "gebra": 29281,
  "ged": 1938,
  "gel": 14345,
  "gem": 19468,
  "gen": 4226,
  "gence": 11676,
  "gencies": 30825,
  "gency": 4587,
  "gender": 6938,
  "gener": 8080,
  "general": 22141,
  "generated": 28227,
  "generation": 15760,
  "gent": 6172,
  "gently": 28914,
  "geon": 8607,
  "geoning": 26224,
  "geons": 31318,
  "ger": 1401,
  "gerald": 22113,
  "gered": 9795,
  "geries": 24970,
  "gering": 23070,
  "gers": 4897,
  "gery": 6844,
  "ges": 3094,
  "gest": 2977,
  "get": 1140,
  "gether": 1897,
  "getown": 23755,
  "gets": 10440,
  "gg": 1014,
  "gged": 10940,
  "gger": 20832,
  "ggest": 1770,
  "ggie": 20074,
  "gging": 17500,
  "ggle": 15924,
  "ggles": 31538,
  "ggy": 18501,
  "gh": 462,
  "ghai": 16580,
  "ghan": 4438,
  "ghazi": 16662,
  "gi": 13492,
  "gia": 6066,
  "gian": 13098,
  "gic": 24627,
  "gie": 20244,
  "giene": 27451,
  "gin": 1624,
  "ging": 2714,
  "gio": 21894,
  "girl": 17740,
  "git": 24272,
  "github": 22765,
  "give": 30088,
  "given": 31727,
  "giving": 13190,
  "gl": 5528,
  "glas": 12636,
  "glass": 22462,
  "global": 23456,
  "glomer": 28102,
  "gly": 10917,
  "gmail": 19146,
  "gment": 5573,
  "gments": 12075,
  "gn": 5135,
  "go": 2134,
  "goal": 27777,
  "goers": 24185,
  "going": 4563,
  "gold": 25412,
  "gom": 16224,
  "gomery": 16798,
  "gon": 17388,
  "gone": 18857,
  "good": 10993,
  "google": 23886,
  "gor": 6685,
  "gorith": 7354,
  "got": 24584,
  "gotten": 28445,
  "gov": 11285,
  "government": 11693,
  "governmental": 26969,
  "gow": 17600,
  "gr": 894,
  "grad": 10664,
  "gradation": 24752,
  "grade": 10117,
  "gram": 1249,
  "grand": 22359,
  "graph": 10497,
  "grass": 28937,
  "grat": 16739,
  "grav": 15877,
  "gre": 31816,
  "great": 16399,
  "gree": 13045,
  "green": 15160,
  "greg": 6360,
  "gregated": 25308,
  "gregation": 12785,
  "gren": 28231,
  "gress": 1787,
  "gression": 29707,
  "gressive": 22901,
  "grid": 28085,
  "gro": 14271,
  "ground": 2981,
  "group": 12266,
  "groups": 29774,
  "growing": 19682,
  "grown": 18324,
  "growth": 25816,
  "gs": 16004,
  "gt": 12837,
  "gu": 4715,
  "guard": 12556,
  "guards": 20279,
  "gue": 17104,
  "guided": 19548,
  "gun": 7770,
  "gus": 10148,
  "guyen": 30573,
  "gy": 1290,
  "gypt": 5023,
  "h": 104,
  "ha": 3310,
  "hab": 5681,
  "habi": 27625,
  "had": 17118,
  "haired": 28809,
  "hal": 14644,
  "half": 12222,
  "hall": 19001,
  "ham": 2608,
  "hammad": 13288,
  "hammer": 27994,
  "han": 9079,
  "hand": 5369,
  "handed": 12139,
  "hander": 31823,
  "hang": 31277,
  "hani": 29676,
  "happy": 31979,
  "haps": 2552,
  "har": 9638,
  "hard": 9813,
  "hardt": 23128,
  "harm": 28138,
  "hart": 17519,
  "has": 10405,
  "hash": 22229,
  "hat": 17458,
  "hate": 30838,
  "hatt": 9645,
  "hattan": 10442,
  "haul": 13213,
  "haus": 26616,
  "have": 13277,
  "haw": 18481,
  "hawks": 22967,
  "he": 258,
  "hea": 24236,
  "head": 2240,
  "headed": 14736,
  "heading": 30278,
  "heads": 15964,
  "health": 12518,
  "healthy": 20574,
  "heard": 21151,
  "heart": 17714,
  "hearted": 18076,
  "heast": 8193,
  "heastern": 15445,
  "heat": 30362,
  "heavy": 21849,
  "hed": 708,
  "hedral": 19164,
  "hedul": 4993,
  "hee": 20782,
  "heed": 19890,
  "heid": 21193,
  "height": 26076,
  "heim": 9009,
  "heimer": 14484,
  "heit": 26987,
  "hel": 2780,
  "held": 9339,
  "hell": 16891,
  "hello": 31308,
  "help": 14603,
  "helps": 30505,
  "helsea": 8862,
  "hem": 4696,
  "hement": 28730,
  "hemy": 31619,
  "hen": 862,
  "hend": 15808,
  "hene": 24201,
  "henko": 22324,
  "hens": 4970,
  "hensive": 28776,
  "hent": 7596,
  "her": 366,
  "here": 1469,
  "hered": 5630,
  "herence": 22306,
  "herent": 7663,
  "heres": 19403,
  "heric": 13322,
  "hern": 2629,
  "hero": 10592,
  "hers": 1912,
  "herty": 23776,
  "hes": 1020,
  "hesda": 30323,
  "hesis": 8882,
  "hest": 3469,
  "hester": 17960,
  "het": 3176,
  "hetamine": 25872,
  "hetic": 6440,
  "hetical": 18188,
  "hetically": 28440,
  "hetics": 23129,
  "hett": 15542,
  "hetti": 31399,
  "hetto": 31626,
  "hew": 14004,
  "hey": 17209,
  "hh": 23947,
  "hi": 5184,
  "hib": 3318,
  "hibition": 22970,
  "hift": 24502,
  "hig": 21755,
  "high": 8965,
  "highest": 28068,
  "hill": 12230,
  "hin": 25988,
  "hing": 676,
  "hip": 1012,
  "hips": 6452,
  "hire": 10637,
  "his": 14138,
  "hist": 10559,
  "historic": 27587,
  "hit": 19047,
  "hl": 21214,
  "hm": 24046,
  "hma": 23542,
  "hn": 20728,
  "hner": 14382,
  "ho": 8587,
  "hod": 2457,
  "hof": 29739,
  "hol": 12611,
  "hold": 3049,
  "holder": 14780,
  "holders": 9584,
  "hole": 14460,
  "holes": 25049,
  "holm": 19264,
  "hom": 30078,
  "home": 13561,
  "hon": 23881,
  "hood": 2641,
  "hop": 8992,
  "hops": 20853,
  "hor": 17217,
  "horn": 29795,
  "horse": 28306,
  "host": 5857,
  "hot": 8654,
  "hots": 15716,
  "hou": 22600,
  "hour": 8449,
  "hours": 30644,
  "house": 4515,
  "houses": 18782,
  "how": 4669,
  "hower": 26481,
  "hp": 29150,
  "hr": 11257,
  "ht": 5557,
  "htaking": 29012,
  "htm": 27772,
  "html": 9401,
  "http": 4103,
  "https": 8037,
  "hu": 17488,
  "hua": 27518,
  "hum": 15564,
  "human": 10413,
  "hun": 23012,
  "hurst": 29155,
  "hus": 6668,
  "hy": 8366,
  "hyd": 24542,
  "hydro": 31959,
  "i": 105,
  "ia": 530,
  "iability": 8596,
  "iable": 3787,
  "iably": 16516,
  "iac": 9980,
  "iago": 24064,
  "iah": 11678,
  "iak": 27090,
  "ial": 495,
  "ially": 1725,
  "ials": 10475,
  "iam": 3063,
  "iami": 6642,
  "iams": 5177,
  "ian": 652,
  "iana": 7359,
  "iance": 3858,
  "iances": 15195,
  "iang": 14186,
  "iani": 20072,
  "iann": 27905,
  "iano": 9266,
  "ians": 1410,
  "iant": 3100,
  "iao": 20644,
  "iar": 11442,
  "iary": 12526,
  "ias": 5363,
  "iasm": 13567,
  "iat": 6197,
  "iate": 9031,
  "iated": 10876,
  "iates": 30004,
  "iating": 23672,
  "iation": 4287,
  "iatric": 18174,
  "iatus": 28750,
  "iaz": 16600,
  "ib": 588,
  "iba": 25249,
  "ibal": 18987,
  "iban": 10153,
  "iband": 25951,
  "ibe": 25655,
  "iber": 1830,
  "iberal": 16684,
  "ibi": 27143,
  "ibilities": 7469,
  "ibility": 2220,
  "ibl": 10604,
  "ible": 897,
  "ibles": 16905,
  "ibli": 26560,
  "iblical": 15976,
  "ibling": 28919,
  "iblings": 17769,
  "ibly": 3005,
  "ibo": 24594,
  "ibr": 3262,
  "ibrary": 4655,
  "ibus": 31213,
  "ic": 293,
  "ica": 4116,
  "icable": 19681,
  "icago": 3933,
  "ical": 593,
  "ically": 1128,
  "icals": 27526,
  "ican": 6355,
  "icans": 19455,
  "icate": 7694,
  "icated": 3435,
  "icates": 19866,
  "icating": 15879,
  "ication": 4922,
  "ications": 4816,
  "ice": 499,
  "iced": 3860,
  "icer": 7221,
  "icers": 14727,
  "ices": 1101,
  "icester": 20388,
  "ich": 484,
  "iche": 15260,
  "ichever": 24826,
  "ichi": 23485,
  "ichick": 30964,
  "icht": 18084,
  "ici": 4697,
  "icia": 30109,
  "icial": 4233,
  "icially": 23943,
  "icials": 13003,
  "ician": 6302,
  "icians": 4285,
  "iciaries": 25851,
  "iciary": 12602,
  "icidal": 21645,
  "icide": 4991,
  "icides": 15973,
  "iciency": 6715,
  "icient": 3508,
  "icing": 6051,
  "icio": 31995,
  "icious": 6322,
  "icip": 4344,
  "icism": 9567,
  "icit": 3926,
  "icity": 8789,
  "ick": 662,
  "icked": 10995,
  "icken": 7042,
  "icker": 19670,
  "ickers": 20348,
  "icket": 8414,
  "ickets": 14939,
  "icking": 8285,
  "icks": 3325,
  "icky": 20442,
  "icle": 1622,
  "icles": 3089,
  "ico": 3229,
  "icon": 4834,
  "icro": 2543,
  "icrosoft": 4247,
  "ics": 882,
  "ict": 707,
  "icted": 5146,
  "icter": 28538,
  "iction": 2957,
  "ictionary": 16181,
  "ictions": 8484,
  "icts": 12563,
  "icular": 22914,
  "icularly": 19598,
  "icult": 2093,
  "icultural": 21826,
  "icus": 22685,
  "icut": 12571,
  "icy": 4677,
  "icz": 25292,
  "id": 310,
  "ida": 3404,
  "idable": 21340,
  "idad": 22506,
  "idal": 11226,
  "idan": 28241,
  "idant": 30640,
  "idas": 24498,
  "idate": 21885,
  "idation": 29651,
  "idav": 19415,
  "iday": 2223,
  "idays": 13317,
  "idd": 1653,
  "idden": 5268,
  "idding": 12423,
  "iddle": 2328,
  "iddled": 30085,
  "iddles": 28382,
  "iddy": 31494,
  "ide": 490,
  "ided": 1385,
  "idel": 5741,
  "idelines": 7651,
  "idelity": 22934,
  "iden": 11163,
  "idence": 1674,
  "idency": 7439,
  "ident": 660,
  "idental": 31258,
  "identally": 20663,
  "identified": 16556,
  "idents": 3031,
  "ideo": 6309,
  "ideos": 16006,
  "idepress": 25498,
  "ider": 1518,
  "idered": 3020,
  "idering": 5038,
  "iders": 3911,
  "ides": 1514,
  "idespread": 7897,
  "idge": 3170,
  "idges": 14288,
  "idi": 18543,
  "idian": 25662,
  "iding": 2488,
  "idious": 29808,
  "idis": 25735,
  "idity": 17222,
  "ido": 15335,
  "ids": 2065,
  "idy": 18767,
  "ie": 449,
  "iece": 9084,
  "ied": 828,
  "ief": 1910,
  "iegel": 29797,
  "iel": 8198,
  "ield": 1228,
  "ielding": 31616,
  "iem": 30349,
  "ien": 2017,
  "ience": 1191,
  "ienced": 24462,
  "iences": 8684,
  "iencies": 20422,
  "iens": 10629,
  "ient": 1235,
  "ients": 2547,
  "ier": 1224,
  "ierce": 9536,
  "iere": 11206,
  "ieri": 24410,
  "ierra": 14722,
  "ierre": 12036,
  "iers": 3265,
  "iership": 29227,
  "ies": 440,
  "iesel": 27567,
  "iest": 6225,
  "iet": 1159,
  "ietal": 18843,
  "ieth": 18387,
  "ieties": 8852,
  "iets": 25564,
  "iety": 1845,
  "ieu": 20424,
  "iev": 9723,
  "ieval": 14509,
  "ieve": 16513,
  "ieves": 18825,
  "iew": 817,
  "if": 367,
  "ifa": 19139,
  "ifax": 22023,
  "ife": 907,
  "ifer": 7383,
  "ifest": 8290,
  "iff": 737,
  "iffany": 31597,
  "iffe": 19445,
  "ifference": 25836,
  "ifferent": 12902,
  "iffs": 9635,
  "ifi": 25937,
  "ifiable": 16334,
  "ific": 856,
  "ificant": 16260,
  "ification": 3053,
  "ifications": 7348,
  "ificent": 21627,
  "ificial": 29235,
  "ified": 1548,
  "ifier": 11038,
  "ifiers": 16488,
  "ifies": 7709,
  "ifle": 18975,
  "iform": 7114,
  "ift": 2363,
  "ifted": 20392,
  "ifting": 13619,
  "ifts": 23524,
  "ifty": 23944,
  "iful": 4432,
  "ifully": 16262,
  "ify": 2087,
  "ifying": 3988,
  "ig": 328,
  "iga": 14638,
  "igan": 4870,
  "igans": 31415,
  "igate": 9712,
  "igated": 23790,
  "igating": 25797,
  "igation": 7090,
  "igator": 26104,
  "igators": 21485,
  "ige": 11735,
  "igel": 18876,
  "igen": 7974,
  "igenous": 9883,
  "iger": 6593,
  "igers": 12804,
  "igg": 6996,
  "igger": 22636,
  "iggins": 18878,
  "iggle": 26173,
  "iggs": 17300,
  "igh": 394,
  "ighed": 12835,
  "ight": 436,
  "ighte": 15856,
  "ighteen": 25520,
  "ighteous": 18761,
  "ighter": 4961,
  "ighters": 5553,
  "ighth": 10243,
  "ighting": 11730,
  "ights": 2959,
  "ighty": 20137,
  "igi": 30335,
  "igible": 26138,
  "igion": 17360,
  "igious": 9581,
  "igma": 13112,
  "ign": 554,
  "ignant": 23300,
  "igned": 4128,
  "ignment": 20221,
  "ignt": 13887,
  "ignty": 14073,
  "igo": 18575,
  "igr": 3155,
  "igrant": 8176,
  "igrants": 4690,
  "igrated": 30457,
  "igration": 3670,
  "igs": 16755,
  "igue": 16494,
  "igure": 6957,
  "ih": 4713,
  "ihad": 8348,
  "ihar": 28625,
  "ihil": 22515,
  "ii": 7162,
  "iii": 29329,
  "ij": 2578,
  "ija": 31933,
  "iji": 23756,
  "ijing": 8746,
  "ijuana": 4049,
  "ik": 1262,
  "ika": 9856,
  "ike": 509,
  "iked": 22447,
  "iker": 18367,
  "ikers": 22836,
  "ikes": 8243,
  "ikh": 10658,
  "ikhail": 31812,
  "iki": 9637,
  "iking": 14107,
  "ikipedia": 25825,
  "iko": 17906,
  "il": 350,
  "ila": 9106,
  "ilant": 31759,
  "ilar": 1909,
  "ilarly": 7267,
  "ilated": 30028,
  "ilater": 30096,
  "ilateral": 12634,
  "ilaterally": 30649,
  "ilation": 11185,
  "ild": 697,
  "ilda": 28522,
  "ile": 583,
  "ileaks": 20854,
  "iled": 3966,
  "ilem": 18503,
  "iler": 7639,
  "ilers": 18240,
  "iles": 3448,
  "iley": 9045,
  "ili": 2333,
  "ilia": 17355,
  "ilian": 31692,
  "iliar": 4499,
  "iliary": 31321,
  "iliated": 26057,
  "iliation": 13859,
  "ilib": 21614,
  "ilibrium": 24054,
  "ilies": 3520,
  "ilight": 17842,
  "iling": 4600,
  "ilingual": 31232,
  "ilion": 26891,
  "ilipp": 7804,
  "ilit": 5923,
  "ilitary": 15918,
  "ilitating": 29892,
  "ilitation": 17594,
  "ilities": 2540,
  "ility": 919,
  "ill": 355,
  "illa": 5181,
  "illance": 6102,
  "illard": 27687,
  "illas": 22514,
  "ille": 3186,
  "illed": 3251,
  "iller": 4564,
  "illery": 14035,
  "illes": 20297,
  "illian": 31901,
  "illing": 4277,
  "illion": 954,
  "illions": 22699,
  "illo": 13834,
  "illon": 20858,
  "ills": 2644,
  "illusion": 29006,
  "illy": 6087,
  "ilo": 29353,
  "ilogy": 18365,
  "ilot": 24173,
  "ils": 5069,
  "ilst": 11461,
  "ilt": 2228,
  "ilton": 7734,
  "ilty": 5887,
  "ily": 810,
  "im": 321,
  "ima": 7685,
  "imag": 20105,
  "image": 13341,
  "images": 25468,
  "imagin": 30242,
  "imal": 5084,
  "iman": 22758,
  "imate": 1738,
  "imated": 15518,
  "imately": 3107,
  "imates": 27210,
  "imation": 22260,
  "imb": 4964,
  "imbabwe": 19897,
  "ime": 524,
  "imedia": 18684,
  "imen": 19611,
  "imens": 12561,
  "imensional": 16546,
  "iment": 2946,
  "imental": 16986,
  "iments": 6695,
  "imer": 19317,
  "imes": 963,
  "imet": 27469,
  "imeter": 15878,
  "imeters": 30050,
  "img": 17165,
  "imi": 26130,
  "imin": 3136,
  "iminal": 3397,
  "imination": 18554,
  "imir": 10968,
  "imity": 17701,
  "imize": 10514,
  "imm": 8274,
  "immer": 10742,
  "immers": 31212,
  "imming": 26553,
  "imo": 23238,
  "imon": 25785,
  "imore": 7959,
  "imp": 7345,
  "import": 15129,
  "important": 21328,
  "imposed": 29746,
  "impro": 30369,
  "imps": 25539,
  "impse": 16426,
  "ims": 12351,
  "imson": 25173,
  "imum": 3521,
  "in": 259,
  "ina": 1349,
  "inal": 1353,
  "inally": 3258,
  "inals": 9412,
  "inance": 13318,
  "inary": 3367,
  "inas": 22278,
  "inate": 14487,
  "inated": 3868,
  "inating": 9169,
  "ination": 1903,
  "inational": 20846,
  "inations": 7207,
  "inburgh": 18719,
  "inc": 1805,
  "ince": 886,
  "inch": 8740,
  "incial": 11473,
  "incinn": 12704,
  "incinnati": 12779,
  "include": 27342,
  "including": 8400,
  "incoln": 10379,
  "income": 10713,
  "incre": 22751,
  "inct": 4555,
  "inction": 8960,
  "inctions": 28675,
  "ind": 539,
  "inda": 20467,
  "indal": 31507,
  "independent": 31472,
  "inder": 7714,
  "inders": 28918,
  "index": 16147,
  "inding": 7372,
  "induced": 19054,
  "indust": 18917,
  "industrial": 24278,
  "ine": 512,
  "inea": 18648,
  "ined": 1381,
  "inel": 19941,
  "inem": 6508,
  "inement": 19357,
  "inence": 29625,
  "inent": 5416,
  "inental": 18583,
  "iner": 7145,
  "iners": 18279,
  "inery": 14573,
  "ines": 1100,
  "inese": 3243,
  "iness": 1216,
  "inez": 15442,
  "inf": 8863,
  "infect": 30282,
  "inflamm": 31300,
  "info": 15810,
  "information": 15668,
  "informed": 28691,
  "ing": 278,
  "inge": 10822,
  "inged": 29687,
  "ingen": 29776,
  "inger": 4041,
  "inges": 23728,
  "ingham": 19985,
  "inging": 13042,
  "ingle": 17257,
  "ingly": 4117,
  "ingo": 28719,
  "ingrich": 17573,
  "ings": 656,
  "ington": 9207,
  "ingu": 6880,
  "inho": 15415,
  "ini": 5565,
  "inian": 19327,
  "ining": 3178,
  "inion": 24451,
  "inis": 15592,
  "inished": 29813,
  "init": 26658,
  "inite": 11233,
  "initely": 12458,
  "inition": 25791,
  "inity": 7315,
  "ink": 670,
  "inke": 30594,
  "inker": 26895,
  "inking": 7762,
  "inkle": 20194,
  "inks": 3073,
  "inn": 3845,
  "innamon": 24215,
  "inner": 18010,
  "inness": 24342,
  "inning": 30473,
  "ino": 2842,
  "inoids": 30374,
  "inois": 8227,
  "inos": 14305,
  "inous": 26914,
  "input": 25158,
  "inqu": 20284,
  "ins": 1071,
  "inski": 19517,
  "insky": 20636,
  "inson": 6914,
  "inspired": 20168,
  "inst": 11088,
  "install": 27026,
  "instein": 10071,
  "insula": 14275,
  "int": 616,
  "intage": 15654,
  "inte": 5373,
  "integr": 18781,
  "intelligence": 26580,
  "intend": 7083,
  "intendent": 18765,
  "intendo": 8486,
  "intensive": 30406,
  "inter": 4819,
  "interest": 7930,
  "interested": 29839,
  "intern": 26692,
  "inters": 20670,
  "inth": 22460,
  "into": 19791,
  "inton": 1950,
  "inv": 19316,
  "invest": 21064,
  "iny": 3826,
  "inyl": 19711,
  "io": 1003,
  "iod": 2287,
  "iol": 1582,
  "iola": 23911,
  "iolet": 22071,
  "iological": 16199,
  "iologist": 25223,
  "iology": 13813,
  "ion": 297,
  "ionage": 19603,
  "ional": 1556,
  "ionally": 5912,
  "ione": 8359,
  "ioned": 14096,
  "ions": 505,
  "iop": 14355,
  "ior": 1475,
  "iors": 11754,
  "ios": 4571,
  "iosity": 13640,
  "iot": 5274,
  "iotic": 27864,
  "iots": 13565,
  "iott": 18078,
  "ious": 693,
  "iously": 1688,
  "iov": 20080,
  "iovascular": 23314,
  "iox": 29772,
  "ip": 560,
  "ipal": 23838,
  "ipe": 4330,
  "ipedia": 10650,
  "ipeg": 17163,
  "iper": 11362,
  "ipers": 28594,
  "ipes": 24765,
  "iph": 13691,
  "iphate": 27879,
  "ipher": 12208,
  "ipl": 6700,
  "iple": 2594,
  "iples": 31004,
  "ipment": 30097,
  "ipp": 4631,
  "ipped": 4447,
  "ipper": 30122,
  "ippers": 26636,
  "ippi": 11036,
  "ipping": 5461,
  "ipple": 20139,
  "ips": 2721,
  "ipse": 16569,
  "iqu": 1640,
  "ique": 2426,
  "iques": 6387,
  "ir": 341,
  "ira": 9099,
  "irable": 13133,
  "iral": 28087,
  "iration": 18202,
  "irc": 2021,
  "ircraft": 31621,
  "ird": 1397,
  "irds": 6270,
  "ire": 580,
  "irect": 1077,
  "irection": 20397,
  "ired": 1255,
  "ires": 2662,
  "irez": 25203,
  "irgin": 4451,
  "iri": 15267,
  "irie": 27056,
  "iries": 17750,
  "iring": 3731,
  "irk": 13907,
  "irl": 2149,
  "irlf": 9343,
  "irlfriend": 9355,
  "irlines": 15714,
  "irling": 23057,
  "irm": 2452,
  "irmed": 15689,
  "irming": 26424,
  "irms": 7138,
  "iro": 6961,
  "iron": 1842,
  "irrel": 24081,
  "irs": 11837,
  "irst": 649,
  "irsty": 25403,
  "irt": 2451,
  "irteen": 21461,
  "irth": 3519,
  "irts": 9157,
  "irtual": 27838,
  "irty": 6143,
  "irus": 18796,
  "iry": 8467,
  "is": 271,
  "isa": 9688,
  "isal": 30260,
  "isan": 7273,
  "isance": 30073,
  "isans": 21186,
  "isation": 4857,
  "isc": 2430,
  "iscal": 7364,
  "isch": 24423,
  "ischer": 20961,
  "isco": 18440,
  "isconsin": 7375,
  "isd": 10663,
  "isdom": 10180,
  "ise": 747,
  "ised": 1324,
  "isen": 12952,
  "iser": 5062,
  "isers": 13176,
  "ises": 2772,
  "isexual": 18704,
  "isf": 4931,
  "ish": 715,
  "isha": 19734,
  "ishable": 29368,
  "ished": 1295,
  "isher": 5469,
  "ishers": 10996,
  "ishes": 5866,
  "ishi": 25135,
  "ishing": 2975,
  "ishly": 27436,
  "ishment": 19637,
  "ishop": 9515,
  "ishops": 19888,
  "isi": 19747,
  "isible": 13754,
  "isine": 24098,
  "ising": 1545,
  "ision": 1113,
  "isions": 3228,
  "isite": 19152,
  "isition": 10368,
  "isitions": 26484,
  "isive": 11587,
  "isk": 9836,
  "isl": 2613,
  "isle": 18017,
  "isly": 30819,
  "ism": 965,
  "isman": 22553,
  "isms": 6516,
  "iso": 30563,
  "isode": 11959,
  "isoft": 28108,
  "isol": 30101,
  "ison": 1609,
  "isons": 9168,
  "isp": 8109,
  "ispens": 30039,
  "ispensable": 31394,
  "isphere": 19646,
  "iss": 766,
  "issa": 14222,
  "issan": 21027,
  "issance": 13901,
  "isse": 19873,
  "ission": 1496,
  "issions": 6283,
  "isson": 28881,
  "issue": 22825,
  "ist": 387,
  "ista": 11836,
  "istan": 2871,
  "istance": 11210,
  "istant": 10402,
  "istas": 31943,
  "isted": 5258,
  "istence": 22436,
  "istent": 7725,
  "ister": 1576,
  "isters": 5799,
  "istic": 2425,
  "istical": 20023,
  "istically": 14769,
  "istics": 4464,
  "istine": 28521,
  "isting": 8594,
  "istle": 10784,
  "istries": 27344,
  "istry": 4131,
  "ists": 930,
  "isure": 20992,
  "isy": 24072,
  "it": 270,
  "ita": 5950,
  "itable": 4719,
  "itably": 12713,
  "itage": 8828,
  "ital": 1237,
  "itals": 7490,
  "itan": 19845,
  "itant": 22892,
  "itar": 7536,
  "itarian": 6944,
  "itars": 28603,
  "itary": 9472,
  "itas": 20160,
  "itate": 12372,
  "itated": 13704,
  "itating": 21421,
  "itation": 3579,
  "itational": 18871,
  "itations": 16487,
  "itative": 13212,
  "itbart": 13240,
  "itch": 3212,
  "itched": 26564,
  "itches": 19280,
  "ite": 575,
  "itect": 5112,
  "ited": 837,
  "itely": 3814,
  "item": 20894,
  "itement": 11355,
  "iter": 5025,
  "iterranean": 16124,
  "ites": 2767,
  "ith": 343,
  "ithe": 28765,
  "ither": 1625,
  "ithmetic": 30613,
  "ithub": 15105,
  "iti": 8407,
  "itial": 15144,
  "itially": 17986,
  "ities": 854,
  "itimate": 24355,
  "itime": 18410,
  "iting": 1757,
  "ition": 661,
  "itional": 1916,
  "itionally": 8421,
  "itions": 1839,
  "itious": 24056,
  "itis": 14541,
  "itive": 1773,
  "itiveness": 25362,
  "itives": 19360,
  "itivity": 12260,
  "itiz": 2656,
  "itizens": 29708,
  "itness": 3995,
  "itnesses": 20141,
  "ito": 10299,
  "itol": 9605,
  "itor": 3504,
  "itoring": 30456,
  "itors": 6170,
  "itous": 17776,
  "its": 941,
  "itsu": 23084,
  "itt": 5066,
  "itted": 16692,
  "itter": 9534,
  "itting": 8683,
  "ittle": 6498,
  "itual": 9590,
  "itud": 31520,
  "itude": 4100,
  "itudes": 9800,
  "iture": 9859,
  "itures": 21633,
  "itus": 20396,
  "itute": 3429,
  "itutes": 15387,
  "itution": 2548,
  "itutional": 4912,
  "ity": 414,
  "itz": 4949,
  "itzer": 18401,
  "iu": 20427,
  "ium": 1723,
  "ius": 4774,
  "iv": 461,
  "iva": 13264,
  "ivable": 20827,
  "ival": 2387,
  "ivalent": 29901,
  "ivals": 8719,
  "ivan": 12302,
  "ivas": 27863,
  "ivated": 26777,
  "ive": 422,
  "ived": 1547,
  "ively": 2160,
  "iven": 1459,
  "iveness": 6675,
  "iver": 1730,
  "ivered": 5679,
  "iverpool": 8520,
  "ivers": 1130,
  "iversal": 26686,
  "iversary": 8261,
  "iverse": 4007,
  "iversity": 1430,
  "ivery": 23646,
  "ives": 1036,
  "ivia": 19339,
  "ivic": 13560,
  "ivid": 1783,
  "ividual": 1945,
  "ivier": 30037,
  "ivil": 2216,
  "iving": 1377,
  "ivism": 22032,
  "ivist": 24140,
  "ivities": 23471,
  "ivity": 3633,
  "ivo": 22316,
  "ivor": 23325,
  "ix": 925,
  "ixed": 8792,
  "ixel": 11344,
  "ixels": 17234,
  "ixon": 10372,
  "ixt": 6887,
  "ixture": 10208,
  "ixtures": 24245,
  "ixty": 19859,
  "iy": 9265,
  "iya": 25408,
  "iz": 544,
  "iza": 25036,
  "izabeth": 9153,
  "izable": 13221,
  "izard": 12760,
  "izards": 15142,
  "izarre": 10832,
  "ization": 1619,
  "izations": 11161,
  "ize": 1217,
  "ized": 1169,
  "izer": 9974,
  "izers": 16517,
  "izes": 4704,
  "izing": 2773,
  "izon": 7764,
  "izons": 28799,
  "izont": 14365,
  "izoph": 18538,
  "izophren": 18708,
  "izz": 6990,
  "izza": 10092,
  "izzard": 16666,
  "iÃ³n": 18604,
  "j": 106,
  "ja": 8729,
  "jack": 26609,
  "jad": 24647,
  "jah": 22146,
  "jamin": 11616,
  "jan": 12570,
  "jar": 14077,
  "jas": 29577,
  "java": 23674,
  "je": 16609,
  "ject": 793,
  "jee": 29322,
  "jet": 26475,
  "ji": 9756,
  "jiang": 31475,
  "jin": 29384,
  "jo": 8150,
  "job": 29402,
  "join": 28859,
  "journal": 23286,
  "joy": 2727,
  "jpg": 17018,
  "jri": 29442,
  "jriwal": 30067,
  "js": 10023,
  "json": 24172,
  "ju": 17460,
  "jud": 9359,
  "jug": 30703,
  "jury": 24055,
  "just": 3578,
  "justed": 22639,
  "justice": 28617,
  "k": 107,
  "ka": 5401,
  "kan": 28212,
  "kar": 18582,
  "kara": 19953,
  "kay": 6292,
  "ke": 361,
  "ked": 7463,
  "kee": 10172,
  "keep": 8752,
  "keeper": 12883,
  "keepers": 20064,
  "keeping": 17814,
  "kees": 13628,
  "kef": 25304,
  "kefeller": 25705,
  "kel": 6720,
  "keley": 11238,
  "kell": 17077,
  "ken": 3766,
  "kens": 14970,
  "ker": 7576,
  "kered": 27091,
  "kers": 16923,
  "kes": 11403,
  "ket": 5671,
  "ketch": 23426,
  "key": 2518,
  "keys": 14360,
  "kg": 14131,
  "kh": 15803,
  "ki": 4186,
  "kick": 23789,
  "kil": 26676,
  "kill": 15137,
  "kin": 4979,
  "kind": 11743,
  "king": 9318,
  "kins": 4679,
  "kinson": 21831,
  "kish": 23522,
  "kit": 18828,
  "km": 12535,
  "kn": 16761,
  "know": 16117,
  "known": 4374,
  "ko": 7206,
  "kok": 27237,
  "kov": 19639,
  "kowski": 21261,
  "ks": 592,
  "kswagen": 24377,
  "kt": 31221,
  "ktop": 23141,
  "ku": 30717,
  "kward": 11628,
  "ky": 2829,
  "l": 108,
  "la": 4659,
  "lab": 27466,
  "label": 25725,
  "lace": 31873,
  "lad": 8340,
  "lah": 8629,
  "lahoma": 8961,
  "laim": 11271,
  "lain": 21781,
  "lake": 26898,
  "lam": 2340,
  "lamm": 27710,
  "lan": 8044,
  "lance": 18108,
  "land": 997,
  "lander": 20708,
  "landers": 28983,
  "lando": 9845,
  "lands": 4471,
  "lane": 25581,
  "lang": 23377,
  "language": 18341,
  "lant": 4442,
  "lantic": 21476,
  "lar": 27296,
  "larg": 15441,
  "large": 11045,
  "largest": 20850,
  "las": 12745,
  "lash": 13770,
  "lass": 22972,
  "lasses": 30358,
  "last": 15493,
  "lasting": 26981,
  "lat": 19621,
  "late": 22081,
  "lated": 23977,
  "later": 28851,
  "lation": 15802,
  "laughs": 23544,
  "laughter": 24105,
  "law": 6281,
  "laws": 26365,
  "lay": 15692,
  "lb": 25916,
  "ld": 333,
  "lda": 19476,
  "lder": 7243,
  "ldom": 23723,
  "ldon": 22841,
  "le": 295,
  "lead": 25310,
  "leader": 25221,
  "leaders": 29431,
  "leading": 11054,
  "league": 16959,
  "leaning": 20880,
  "leans": 10281,
  "lear": 2512,
  "lease": 3638,
  "leased": 15848,
  "leck": 28990,
  "lect": 816,
  "lected": 12178,
  "lection": 1462,
  "lections": 31055,
  "led": 1011,
  "ledge": 3036,
  "ledged": 29376,
  "lee": 9816,
  "leen": 17535,
  "leep": 10892,
  "left": 9785,
  "leg": 1357,
  "legal": 16257,
  "legates": 28477,
  "lege": 2459,
  "lein": 30758,
  "lem": 14764,
  "lement": 2030,
  "lementary": 13975,
  "lements": 12338,
  "len": 14558,
  "lene": 26193,
  "length": 16323,
  "ler": 1818,
  "lers": 7505,
  "les": 832,
  "lesh": 11821,
  "less": 1261,
  "lessly": 8088,
  "lessness": 16194,
  "let": 1736,
  "letcher": 25028,
  "lete": 7858,
  "leted": 10984,
  "letes": 30527,
  "letion": 24084,
  "leton": 12497,
  "lets": 5348,
  "lett": 15070,
  "lette": 20655,
  "letter": 14458,
  "leum": 18657,
  "lev": 2405,
  "levant": 13849,
  "levard": 17883,
  "level": 4416,
  "leveland": 8292,
  "levision": 3889,
  "lex": 2661,
  "ley": 1546,
  "leys": 20733,
  "lf": 1739,
  "li": 956,
  "lia": 22745,
  "liable": 23105,
  "liament": 4145,
  "lib": 13639,
  "liber": 20049,
  "liberal": 27199,
  "lic": 639,
  "lication": 15850,
  "lications": 24420,
  "lich": 23639,
  "lick": 3945,
  "lickr": 14954,
  "lict": 20011,
  "licted": 26761,
  "lide": 23834,
  "lie": 14033,
  "lied": 11511,
  "lient": 14827,
  "lier": 2114,
  "liers": 15778,
  "lies": 6935,
  "liest": 10078,
  "lif": 30857,
  "life": 5656,
  "lift": 27938,
  "lifting": 30409,
  "lig": 4885,
  "liga": 28116,
  "light": 2359,
  "lights": 14585,
  "lihood": 10691,
  "like": 2264,
  "lim": 2262,
  "liminary": 12280,
  "limited": 10686,
  "lin": 2930,
  "line": 1323,
  "linear": 29863,
  "lined": 9462,
  "liner": 21605,
  "liners": 26125,
  "lines": 5743,
  "liness": 26423,
  "ling": 1259,
  "lings": 20989,
  "lington": 14794,
  "lining": 16535,
  "link": 11296,
  "linked": 24447,
  "lins": 20879,
  "lio": 31039,
  "lis": 26202,
  "lish": 2295,
  "list": 7024,
  "listed": 17189,
  "lists": 23797,
  "lit": 18451,
  "liter": 16175,
  "little": 30252,
  "lium": 27960,
  "liv": 18144,
  "live": 13708,
  "lived": 19855,
  "liver": 12183,
  "living": 28213,
  "ll": 298,
  "lla": 7745,
  "llah": 17894,
  "llect": 6457,
  "llectual": 26015,
  "lled": 2680,
  "ller": 5616,
  "llers": 12640,
  "lli": 11593,
  "llig": 2681,
  "lligence": 3102,
  "lling": 2048,
  "llington": 22002,
  "llo": 13459,
  "llor": 11249,
  "lls": 7001,
  "lly": 10385,
  "ln": 22838,
  "lo": 5221,
  "load": 2874,
  "loaded": 19541,
  "loading": 28405,
  "loc": 28678,
  "local": 16273,
  "lock": 7402,
  "locked": 28313,
  "loe": 29360,
  "log": 7986,
  "loid": 31182,
  "lon": 16067,
  "long": 6058,
  "loo": 26937,
  "look": 5246,
  "looking": 11004,
  "loop": 27702,
  "lopp": 26917,
  "lor": 4773,
  "lord": 25189,
  "loss": 24354,
  "lost": 30633,
  "lot": 28042,
  "love": 23082,
  "loving": 28253,
  "low": 8897,
  "lower": 24707,
  "lp": 918,
  "ls": 7518,
  "lt": 2461,
  "ltry": 28974,
  "lu": 10854,
  "lud": 754,
  "lude": 13725,
  "luded": 17282,
  "ludes": 21367,
  "luding": 6634,
  "luent": 23841,
  "lus": 27211,
  "lv": 6941,
  "lves": 27685,
  "ly": 306,
  "lying": 3249,
  "lymp": 5520,
  "lyn": 5554,
  "lynn": 10910,
  "m": 109,
  "ma": 3084,
  "mac": 28595,
  "mad": 8573,
  "made": 9035,
  "mag": 26432,
  "mage": 24924,
  "magic": 28119,
  "maid": 23515,
  "mail": 4878,
  "mails": 20891,
  "main": 12610,
  "major": 19294,
  "majority": 28140,
  "make": 18607,
  "maker": 8761,
  "makers": 4981,
  "making": 7689,
  "mal": 7641,
  "mala": 25220,
  "male": 26808,
  "malink": 24751,
  "man": 762,
  "management": 23599,
  "mand": 19428,
  "mania": 26512,
  "mann": 7803,
  "manned": 23219,
  "mans": 9461,
  "manship": 23690,
  "manuel": 14495,
  "many": 18955,
  "map": 12278,
  "mar": 3841,
  "mare": 12267,
  "mares": 27371,
  "mark": 4025,
  "marked": 21381,
  "market": 9888,
  "markets": 28356,
  "marks": 14070,
  "married": 28360,
  "mart": 12647,
  "mary": 8488,
  "mas": 5097,
  "mass": 20878,
  "master": 13215,
  "mat": 9080,
  "match": 20948,
  "matched": 30407,
  "mate": 7928,
  "mates": 5957,
  "math": 9815,
  "matic": 12337,
  "max": 17804,
  "may": 11090,
  "maybe": 25167,
  "mb": 2168,
  "mber": 1656,
  "mble": 10812,
  "md": 28136,
  "me": 2528,
  "meal": 27830,
  "meaning": 22358,
  "med": 1129,
  "medi": 2436,
  "media": 12100,
  "mediate": 27870,
  "mediately": 23433,
  "meg": 26531,
  "mega": 19268,
  "mel": 15108,
  "mem": 16801,
  "member": 16832,
  "members": 30926,
  "men": 3586,
  "ment": 379,
  "mental": 17867,
  "mentation": 15761,
  "mented": 10846,
  "mentia": 23779,
  "mentioned": 15853,
  "ments": 771,
  "mer": 581,
  "merce": 10762,
  "mercial": 16641,
  "meric": 834,
  "mers": 9428,
  "mes": 6352,
  "message": 28288,
  "met": 4543,
  "meter": 26870,
  "metic": 17870,
  "metric": 28211,
  "metry": 21280,
  "mg": 20588,
  "mi": 14173,
  "mia": 22752,
  "mic": 10259,
  "mid": 12102,
  "middle": 26300,
  "midt": 17224,
  "mile": 14666,
  "military": 27648,
  "mill": 16696,
  "million": 11172,
  "min": 1116,
  "mination": 14237,
  "mind": 9488,
  "minded": 12297,
  "mine": 4200,
  "mined": 15041,
  "minent": 16330,
  "mines": 14249,
  "ming": 1879,
  "mingham": 14710,
  "mington": 29495,
  "mining": 17480,
  "minist": 1953,
  "minster": 15940,
  "minute": 9308,
  "mir": 10365,
  "mis": 23847,
  "miss": 3962,
  "missible": 24404,
  "mission": 3971,
  "missions": 9894,
  "mit": 1392,
  "mite": 29013,
  "mith": 25684,
  "mits": 10570,
  "mitt": 18958,
  "mitted": 3386,
  "mittee": 3987,
  "ml": 6588,
  "mm": 5814,
  "mn": 13114,
  "mo": 7169,
  "mobile": 27844,
  "mod": 7380,
  "mode": 26478,
  "model": 24369,
  "modern": 20328,
  "moil": 20372,
  "mon": 2785,
  "mond": 5737,
  "money": 23477,
  "mong": 25675,
  "mons": 11298,
  "mont": 7437,
  "month": 7569,
  "monton": 15270,
  "mony": 9093,
  "moon": 22870,
  "mor": 22289,
  "more": 3612,
  "mort": 24111,
  "mos": 15465,
  "mosp": 5729,
  "most": 1600,
  "mostly": 25548,
  "mot": 24710,
  "mother": 12413,
  "mount": 17317,
  "mouth": 13211,
  "move": 22085,
  "moving": 27700,
  "mp": 3282,
  "mph": 17855,
  "ms": 928,
  "mson": 23385,
  "mt": 24572,
  "much": 26027,
  "mult": 20969,
  "mun": 6878,
  "mund": 15919,
  "munition": 13764,
  "mur": 30147,
  "mus": 16596,
  "must": 28394,
  "mut": 19788,
  "my": 1802,
  "n": 110,
  "na": 2690,
  "naev": 31481,
  "naire": 26785,
  "nam": 6559,
  "name": 6574,
  "named": 11677,
  "names": 14050,
  "namese": 17811,
  "nan": 11278,
  "nar": 18109,
  "nas": 23650,
  "nation": 25208,
  "national": 14356,
  "natural": 11851,
  "nav": 30492,
  "nc": 21942,
  "nce": 1242,
  "nces": 3279,
  "nd": 356,
  "nder": 694,
  "ndering": 19585,
  "nders": 26061,
  "ndra": 18865,
  "ne": 692,
  "neapolis": 15780,
  "neath": 13798,
  "necess": 10102,
  "neck": 27880,
  "nect": 1763,
  "ned": 1197,
  "nedy": 8239,
  "nee": 29024,
  "needed": 23432,
  "neg": 11469,
  "negie": 25875,
  "nel": 4757,
  "nell": 5756,
  "nels": 17546,
  "nen": 26576,
  "ner": 1013,
  "nered": 12848,
  "nerg": 30266,
  "nergy": 5978,
  "ners": 2477,
  "nery": 30619,
  "nes": 1965,
  "nesday": 2810,
  "nesota": 7019,
  "ness": 1172,
  "nesty": 14152,
  "net": 3927,
  "netic": 10011,
  "neutral": 27818,
  "never": 12769,
  "new": 3616,
  "news": 10456,
  "nex": 15355,
  "next": 25267,
  "ney": 1515,
  "neys": 19099,
  "ng": 819,
  "ngth": 20271,
  "ni": 8268,
  "nia": 16778,
  "nic": 6617,
  "nick": 24213,
  "nie": 11304,
  "night": 4656,
  "nik": 14918,
  "nine": 27902,
  "ning": 725,
  "nings": 19886,
  "nis": 19405,
  "nm": 27566,
  "no": 4326,
  "node": 27311,
  "nom": 23496,
  "non": 11602,
  "none": 31652,
  "noon": 5430,
  "nor": 12434,
  "normal": 13178,
  "not": 1809,
  "note": 12885,
  "notes": 23319,
  "nothing": 23868,
  "noticed": 26459,
  "now": 2176,
  "nown": 3823,
  "nox": 30608,
  "ns": 2530,
  "nsic": 18057,
  "nt": 435,
  "ntil": 8993,
  "nton": 23155,
  "null": 19417,
  "num": 26315,
  "number": 21611,
  "numbered": 31298,
  "nut": 15468,
  "nuts": 29760,
  "ny": 3390,
  "nyder": 16767,
  "o": 111,
  "oa": 13826,
  "oad": 1533,
  "oan": 20281,
  "oard": 12354,
  "oat": 18827,
  "ob": 668,
  "oba": 17879,
  "obal": 2242,
  "obar": 31383,
  "obb": 6573,
  "obby": 5187,
  "obe": 5732,
  "ober": 1834,
  "obi": 15843,
  "obia": 30609,
  "obic": 21398,
  "obil": 23960,
  "obile": 6908,
  "obiles": 30629,
  "object": 21104,
  "obo": 28378,
  "obs": 8192,
  "oby": 25724,
  "oc": 427,
  "oca": 10028,
  "ocal": 4957,
  "ocaly": 13861,
  "ocalypse": 19659,
  "ocalyptic": 24023,
  "ocamp": 25708,
  "ocate": 12787,
  "ocated": 10680,
  "ocating": 23253,
  "ocation": 7040,
  "ocations": 25850,
  "ocaust": 13895,
  "occ": 13855,
  "occup": 17849,
  "occupied": 25164,
  "ocene": 28700,
  "ocese": 24505,
  "och": 5330,
  "oche": 28769,
  "ochem": 22364,
  "ochond": 23288,
  "oci": 1777,
  "ocial": 10033,
  "ociated": 19523,
  "ocide": 14377,
  "ocious": 30184,
  "ocity": 14154,
  "ock": 792,
  "ocked": 3615,
  "ocker": 12681,
  "ocket": 6468,
  "ockets": 12517,
  "ockey": 6567,
  "ocking": 5470,
  "ocks": 3963,
  "oco": 26725,
  "ocol": 5060,
  "ocolate": 9347,
  "ocr": 4254,
  "ocracies": 26204,
  "ocracy": 4798,
  "ocrat": 1581,
  "ocratic": 6246,
  "ocrats": 14843,
  "ocre": 24065,
  "ocument": 9112,
  "ocumented": 13998,
  "ocur": 12061,
  "ocus": 12360,
  "ocused": 18972,
  "ocy": 16709,
  "od": 400,
  "oda": 18261,
  "oday": 3914,
  "odd": 5644,
  "odder": 31935,
  "ode": 1344,
  "oded": 8890,
  "oder": 19194,
  "odes": 4364,
  "odge": 10489,
  "odic": 26185,
  "odied": 28331,
  "odies": 4953,
  "oding": 8386,
  "odka": 27075,
  "odo": 23811,
  "odor": 26377,
  "odore": 22070,
  "odox": 9892,
  "ods": 21747,
  "odus": 23333,
  "ody": 1192,
  "odynam": 22540,
  "odynamic": 31838,
  "oe": 2491,
  "oen": 8019,
  "oenix": 9287,
  "oes": 3576,
  "of": 635,
  "off": 2067,
  "office": 29361,
  "official": 15582,
  "offs": 11182,
  "oft": 7450,
  "often": 24733,
  "og": 525,
  "oga": 10376,
  "ogan": 6899,
  "ogen": 7918,
  "ogene": 22151,
  "ogenic": 17176,
  "ogenous": 30093,
  "ogens": 25419,
  "ogether": 7766,
  "ogg": 12987,
  "oggle": 31549,
  "ogle": 2316,
  "ogn": 2312,
  "ognitive": 28945,
  "ogo": 24431,
  "ogram": 23023,
  "ograms": 24057,
  "ograp": 1960,
  "ograph": 2303,
  "ographer": 16547,
  "ographers": 29007,
  "ographic": 6686,
  "ographical": 16493,
  "ographically": 28506,
  "ographics": 20010,
  "ographs": 31347,
  "ography": 4566,
  "ogs": 20027,
  "ogue": 5615,
  "ogy": 9995,
  "ogyn": 18034,
  "oh": 1107,
  "oha": 28332,
  "ohan": 23203,
  "ohn": 1413,
  "ohyd": 22362,
  "oi": 25617,
  "oice": 9711,
  "oid": 2317,
  "oids": 20521,
  "oil": 22353,
  "oin": 24526,
  "oint": 1627,
  "ointed": 18991,
  "oir": 18310,
  "oirs": 31217,
  "ois": 9653,
  "oise": 30318,
  "oit": 21898,
  "oj": 12736,
  "oji": 26809,
  "ojure": 27592,
  "ok": 487,
  "oka": 21695,
  "oke": 2454,
  "oked": 6339,
  "oken": 5911,
  "oker": 10692,
  "okes": 2666,
  "oki": 31910,
  "okia": 16445,
  "oking": 5709,
  "oko": 16387,
  "oks": 25773,
  "oku": 17106,
  "ol": 349,
  "ola": 5210,
  "olan": 14601,
  "olar": 9982,
  "olas": 11268,
  "olate": 31829,
  "olation": 21668,
  "old": 776,
  "oldown": 22200,
  "olds": 9340,
  "ole": 2519,
  "olean": 26019,
  "olen": 8063,
  "oler": 13348,
  "oles": 4011,
  "olester": 20189,
  "olesterol": 21534,
  "olf": 4490,
  "oli": 10482,
  "olia": 21646,
  "oliberal": 21970,
  "olic": 3909,
  "olics": 16776,
  "olicy": 25072,
  "olid": 10851,
  "oline": 13347,
  "olis": 7954,
  "olit": 5159,
  "olitan": 11499,
  "olith": 19694,
  "olithic": 25651,
  "olitical": 11007,
  "olitics": 18058,
  "olk": 13127,
  "olkien": 27286,
  "oll": 791,
  "olla": 28164,
  "ollah": 13415,
  "ollar": 11129,
  "ollen": 30600,
  "ollo": 16680,
  "ollow": 989,
  "olls": 24880,
  "olly": 4772,
  "ollywood": 6378,
  "oln": 10007,
  "olo": 13731,
  "olog": 910,
  "ologic": 27833,
  "ological": 2749,
  "ologically": 12121,
  "ologies": 5238,
  "ologist": 6486,
  "ologists": 8214,
  "ologne": 25908,
  "ologue": 31861,
  "ology": 1384,
  "olph": 9049,
  "olphin": 25895,
  "olphins": 13713,
  "ols": 10632,
  "olson": 25732,
  "olt": 7323,
  "olute": 3538,
  "olutely": 14483,
  "olution": 2085,
  "olutions": 13865,
  "olve": 6461,
  "olved": 5463,
  "olves": 9247,
  "olving": 9958,
  "oly": 4421,
  "olyn": 30503,
  "om": 296,
  "oma": 6518,
  "omach": 11931,
  "oman": 4626,
  "omas": 4512,
  "omatic": 15034,
  "omb": 2670,
  "ome": 460,
  "omed": 9530,
  "omeday": 19785,
  "omen": 3525,
  "omer": 11714,
  "omers": 16587,
  "omes": 9149,
  "omet": 890,
  "ometer": 16740,
  "omething": 8256,
  "ometimes": 6400,
  "ometown": 15411,
  "ometric": 21798,
  "omez": 24717,
  "omi": 15952,
  "omic": 11074,
  "omical": 20161,
  "omin": 6221,
  "omination": 26033,
  "oming": 6477,
  "omm": 2418,
  "ommend": 27381,
  "ommod": 8473,
  "omo": 15513,
  "omon": 18233,
  "omore": 17440,
  "omorph": 25919,
  "omp": 3147,
  "ompl": 5702,
  "ompson": 9315,
  "oms": 4877,
  "omsky": 30442,
  "omy": 9862,
  "on": 262,
  "ona": 4084,
  "onal": 16855,
  "once": 26577,
  "ond": 621,
  "onda": 12060,
  "onde": 16607,
  "onder": 9802,
  "onding": 31103,
  "ondo": 20255,
  "ondon": 3069,
  "onds": 12229,
  "ondu": 30148,
  "onduct": 11031,
  "one": 503,
  "oned": 10938,
  "onel": 24445,
  "oneliness": 31083,
  "onen": 30737,
  "onent": 3949,
  "onents": 3803,
  "oner": 12889,
  "ones": 1772,
  "onest": 16576,
  "oney": 1288,
  "ong": 498,
  "onge": 14604,
  "ongevity": 23997,
  "ongh": 17262,
  "ongo": 22873,
  "ongs": 31269,
  "ongyang": 17302,
  "oni": 13680,
  "onia": 12385,
  "onial": 24370,
  "onian": 28639,
  "onic": 7373,
  "onies": 15728,
  "oning": 11216,
  "online": 30970,
  "only": 9040,
  "onna": 6379,
  "onnaissance": 25534,
  "ono": 30177,
  "onom": 5514,
  "onomous": 30884,
  "onomy": 29978,
  "ons": 699,
  "onse": 2480,
  "onsin": 7371,
  "onso": 20146,
  "onst": 2657,
  "onsters": 27761,
  "onstruction": 29939,
  "ont": 843,
  "onte": 27494,
  "onto": 4823,
  "onut": 16699,
  "ony": 1590,
  "onym": 4971,
  "onymous": 6766,
  "onz": 10386,
  "oo": 3345,
  "ood": 730,
  "oody": 21736,
  "ook": 565,
  "ookie": 19210,
  "ool": 1002,
  "ools": 13717,
  "oom": 4385,
  "oon": 2231,
  "oons": 12593,
  "oop": 12050,
  "oor": 2904,
  "oos": 24309,
  "oot": 1051,
  "ooter": 23194,
  "ooth": 5953,
  "ooting": 13829,
  "oots": 16384,
  "op": 392,
  "opa": 29749,
  "opal": 29160,
  "opard": 13379,
  "opath": 19393,
  "opathy": 28818,
  "ope": 3148,
  "oped": 20967,
  "open": 9752,
  "openh": 21298,
  "openhagen": 22477,
  "opening": 31414,
  "oper": 3410,
  "operation": 24141,
  "operative": 27538,
  "opers": 27449,
  "opes": 13225,
  "opez": 17358,
  "oph": 2533,
  "opher": 7919,
  "ophers": 19843,
  "ophile": 26861,
  "ophob": 11003,
  "ophobia": 16639,
  "ophobic": 18688,
  "opia": 23016,
  "opian": 31417,
  "opic": 16485,
  "oping": 14247,
  "ople": 585,
  "oples": 11873,
  "opoulos": 17839,
  "opp": 13792,
  "oppable": 31289,
  "oppy": 29348,
  "ops": 2753,
  "opsis": 31863,
  "opt": 11096,
  "option": 26578,
  "opular": 15618,
  "opus": 28529,
  "opy": 6483,
  "opyright": 9934,
  "oqu": 19272,
  "or": 273,
  "ora": 6739,
  "orable": 9840,
  "orage": 5372,
  "oral": 5676,
  "orate": 11377,
  "oration": 6897,
  "ord": 577,
  "ordable": 13523,
  "ordan": 6511,
  "orde": 22596,
  "order": 2848,
  "ordered": 24181,
  "ordering": 30515,
  "orders": 6032,
  "ordin": 5549,
  "ordinarily": 25366,
  "ordinary": 9240,
  "ordinate": 24926,
  "ordinates": 30925,
  "ordination": 29831,
  "ordinator": 29936,
  "ording": 1135,
  "ordon": 8731,
  "ords": 4274,
  "ore": 374,
  "orean": 26690,
  "ored": 1836,
  "orem": 26117,
  "oren": 26822,
  "orer": 12307,
  "orers": 28381,
  "ores": 5183,
  "orest": 20662,
  "oret": 9426,
  "orf": 21632,
  "org": 4023,
  "organ": 9177,
  "organized": 25987,
  "orge": 9059,
  "ori": 12716,
  "oria": 11855,
  "orial": 4189,
  "orian": 20640,
  "oric": 7097,
  "orical": 11906,
  "orically": 17131,
  "orie": 20128,
  "orient": 12444,
  "oriented": 14797,
  "ories": 1685,
  "orig": 12734,
  "original": 15969,
  "oring": 2410,
  "orious": 9436,
  "ority": 14847,
  "ork": 943,
  "orks": 3692,
  "orkshire": 25236,
  "orld": 1825,
  "orm": 619,
  "ormal": 9245,
  "ormally": 27636,
  "orman": 22554,
  "orn": 1271,
  "orne": 7626,
  "orney": 3695,
  "orneys": 10646,
  "ornia": 2895,
  "ornings": 23502,
  "orns": 13954,
  "oro": 20248,
  "orough": 7695,
  "orous": 9200,
  "orously": 22181,
  "orp": 19441,
  "orph": 13246,
  "orrh": 31058,
  "orrow": 4422,
  "orry": 6078,
  "ors": 663,
  "orsche": 21107,
  "orse": 6111,
  "orses": 12828,
  "orship": 9444,
  "orsi": 21044,
  "orst": 24711,
  "ort": 398,
  "orted": 7035,
  "orter": 3879,
  "orters": 2943,
  "ortex": 30010,
  "orth": 1138,
  "orthern": 4342,
  "orthy": 17560,
  "orting": 15606,
  "ortion": 5267,
  "ortions": 14058,
  "ortium": 20382,
  "orts": 1889,
  "ortun": 1760,
  "ortunate": 12462,
  "ortunately": 4425,
  "orum": 18023,
  "orus": 15233,
  "ory": 658,
  "os": 419,
  "osa": 8102,
  "osate": 30876,
  "osaur": 17442,
  "osaurs": 18734,
  "osc": 19175,
  "ose": 570,
  "osed": 1260,
  "osen": 5254,
  "oser": 21208,
  "oses": 3273,
  "osexual": 7850,
  "osh": 4024,
  "oshi": 18471,
  "oshop": 22732,
  "osi": 15194,
  "osing": 2403,
  "osion": 18605,
  "osis": 7018,
  "osit": 8413,
  "osite": 5647,
  "osition": 2770,
  "ositories": 31755,
  "ository": 14401,
  "osity": 16552,
  "osl": 18298,
  "oso": 31476,
  "osoph": 19142,
  "osophy": 23664,
  "osp": 2007,
  "ospace": 21701,
  "ospel": 15122,
  "osph": 17151,
  "osphere": 19255,
  "ospital": 3293,
  "oss": 802,
  "ossible": 4668,
  "ossibly": 20191,
  "ossier": 24737,
  "ossip": 23817,
  "ost": 463,
  "ostal": 15667,
  "oster": 7092,
  "osterone": 20477,
  "ostic": 16590,
  "oston": 5027,
  "osure": 4686,
  "osures": 15172,
  "ot": 313,
  "ota": 3941,
  "otal": 6538,
  "otally": 25646,
  "ote": 1974,
  "otech": 28962,
  "otechnology": 27032,
  "oted": 4842,
  "oter": 17610,
  "oters": 20204,
  "otes": 7330,
  "oth": 867,
  "othe": 21899,
  "other": 851,
  "otherapy": 18916,
  "othing": 29435,
  "oths": 26586,
  "othy": 14195,
  "oti": 3842,
  "otic": 6167,
  "otics": 18118,
  "otine": 19166,
  "oting": 10268,
  "otion": 11624,
  "otional": 26038,
  "otive": 17277,
  "otle": 21958,
  "oto": 2708,
  "oton": 21377,
  "ots": 1711,
  "ott": 1608,
  "otta": 22962,
  "ottage": 29706,
  "otte": 10798,
  "otted": 26986,
  "otten": 7280,
  "ottenham": 16796,
  "ottest": 21636,
  "ottesville": 20584,
  "otti": 22691,
  "otto": 27303,
  "ottom": 15237,
  "otton": 12880,
  "oty": 5407,
  "otype": 8543,
  "otypes": 12400,
  "ou": 280,
  "oub": 10959,
  "oubted": 14006,
  "oubtedly": 14334,
  "ouch": 8425,
  "ouched": 27453,
  "oud": 2876,
  "ouf": 31560,
  "oufl": 27376,
  "ough": 605,
  "ought": 2806,
  "oul": 3505,
  "ould": 415,
  "oulder": 17482,
  "oulos": 17333,
  "oun": 903,
  "ounce": 8865,
  "ounced": 7886,
  "ounces": 28367,
  "ouncing": 16265,
  "ound": 650,
  "ounded": 5890,
  "ounder": 26050,
  "ounding": 9170,
  "ounds": 3853,
  "ounge": 20822,
  "ouns": 26054,
  "ount": 609,
  "ountain": 20077,
  "ounter": 18509,
  "ounty": 20343,
  "oup": 11193,
  "our": 468,
  "ourage": 26923,
  "ource": 3679,
  "ourced": 24811,
  "ources": 3183,
  "ourcing": 23431,
  "oured": 7906,
  "ourge": 16073,
  "ourgeois": 19033,
  "ouri": 9367,
  "ouring": 21076,
  "ourn": 1785,
  "ournal": 2355,
  "ournals": 17962,
  "ournament": 17853,
  "ourney": 5977,
  "ours": 5462,
  "ourse": 8616,
  "ourt": 2668,
  "ous": 510,
  "ousand": 31825,
  "ousands": 16631,
  "ouse": 1045,
  "oused": 27734,
  "ouses": 11374,
  "ousing": 12870,
  "ously": 3308,
  "ousse": 23029,
  "oust": 14930,
  "oustic": 21284,
  "ouston": 6060,
  "out": 446,
  "outed": 14964,
  "outh": 1466,
  "outheast": 12299,
  "outheastern": 24256,
  "outhern": 4327,
  "outine": 30893,
  "outing": 11977,
  "outs": 4906,
  "outube": 13784,
  "ouver": 8108,
  "oux": 19661,
  "ov": 716,
  "ova": 10364,
  "ovable": 23598,
  "ovak": 19305,
  "ovakia": 24571,
  "oval": 8560,
  "ovan": 18735,
  "ove": 666,
  "oved": 2798,
  "ovember": 2768,
  "oven": 16454,
  "over": 2103,
  "overed": 2502,
  "overs": 11209,
  "overty": 20950,
  "overy": 4666,
  "oves": 5904,
  "ovic": 14888,
  "ovich": 16403,
  "ovie": 27544,
  "oving": 5275,
  "ovo": 16241,
  "ovsky": 24124,
  "ovy": 22666,
  "ovych": 29976,
  "ow": 324,
  "owa": 7073,
  "owd": 26666,
  "owder": 11604,
  "owed": 7156,
  "oween": 14545,
  "owell": 12619,
  "ower": 850,
  "owered": 6904,
  "owers": 3878,
  "owing": 8086,
  "owitz": 17654,
  "owl": 4914,
  "owler": 24255,
  "owment": 31620,
  "own": 600,
  "owned": 10427,
  "owner": 17007,
  "owners": 13004,
  "owns": 20903,
  "ownt": 5588,
  "owntown": 19477,
  "ows": 1991,
  "owship": 23945,
  "owski": 10612,
  "ox": 1529,
  "oxic": 28864,
  "oxide": 31151,
  "oxy": 30972,
  "oy": 736,
  "oya": 23897,
  "oyal": 4620,
  "oyd": 11688,
  "oyle": 18236,
  "oys": 20334,
  "oz": 10326,
  "ozy": 24473,
  "p": 112,
  "pa": 9683,
  "pace": 13148,
  "pack": 10347,
  "packed": 31923,
  "pad": 18910,
  "page": 8065,
  "paid": 16938,
  "pal": 20321,
  "pan": 6684,
  "panz": 29195,
  "paper": 19881,
  "par": 2056,
  "parable": 26833,
  "paralle": 29081,
  "param": 28121,
  "pard": 27418,
  "pared": 26444,
  "parent": 19758,
  "parents": 20492,
  "park": 20103,
  "part": 3834,
  "particularly": 26633,
  "partisan": 20976,
  "party": 9595,
  "pass": 5868,
  "pat": 8471,
  "patch": 20107,
  "path": 13358,
  "patient": 28291,
  "patrick": 23568,
  "pay": 16583,
  "payer": 26137,
  "paying": 25682,
  "pc": 20444,
  "pdf": 15199,
  "pe": 437,
  "peace": 19030,
  "pecially": 2178,
  "pect": 786,
  "pected": 7025,
  "pecting": 30392,
  "pection": 16363,
  "pective": 4745,
  "pectives": 17405,
  "ped": 9394,
  "peer": 29549,
  "pelled": 14097,
  "pen": 4122,
  "pensive": 22179,
  "pent": 25421,
  "people": 13908,
  "per": 552,
  "perature": 30420,
  "percent": 24440,
  "pered": 13905,
  "perfect": 24364,
  "performance": 25947,
  "performing": 26183,
  "perhaps": 25385,
  "peria": 29888,
  "perial": 12953,
  "pering": 21483,
  "perm": 17840,
  "peror": 12851,
  "pers": 18518,
  "person": 5345,
  "personal": 21934,
  "pert": 16621,
  "perture": 31638,
  "pes": 7116,
  "pet": 5740,
  "pex": 24395,
  "pg": 10116,
  "ph": 1083,
  "phal": 29636,
  "phan": 11701,
  "phas": 5409,
  "phasis": 27964,
  "pher": 16573,
  "pherd": 21988,
  "phies": 26882,
  "phil": 30506,
  "phis": 17114,
  "phone": 4651,
  "phones": 8427,
  "photo": 21772,
  "php": 13953,
  "phy": 6699,
  "pi": 21720,
  "pic": 15467,
  "pical": 17351,
  "pically": 18037,
  "pick": 31234,
  "pict": 18632,
  "pictured": 22720,
  "pie": 17478,
  "piece": 12270,
  "pill": 29854,
  "pin": 11925,
  "ping": 11519,
  "pir": 3143,
  "piracy": 21556,
  "pire": 5263,
  "pired": 5512,
  "pires": 23641,
  "piring": 31025,
  "pit": 14504,
  "pite": 2199,
  "pl": 500,
  "place": 4901,
  "placed": 20471,
  "placement": 19974,
  "places": 21378,
  "plan": 13351,
  "plane": 29432,
  "planned": 30806,
  "plant": 16156,
  "plate": 8855,
  "plates": 20205,
  "platform": 25813,
  "play": 2002,
  "played": 18418,
  "player": 9935,
  "playing": 16357,
  "plays": 31175,
  "ple": 1244,
  "pleasant": 20533,
  "pled": 8804,
  "plement": 26404,
  "pler": 21716,
  "ples": 2621,
  "pless": 14957,
  "plete": 8588,
  "plex": 13269,
  "pling": 12084,
  "pload": 8224,
  "plom": 5716,
  "plot": 31379,
  "ploy": 1389,
  "plus": 9129,
  "ply": 2062,
  "pm": 5108,
  "png": 23626,
  "po": 7165,
  "point": 4185,
  "points": 12786,
  "pol": 16718,
  "policy": 30883,
  "polit": 26918,
  "political": 19103,
  "politics": 28891,
  "poll": 28754,
  "pool": 7015,
  "poon": 28005,
  "poons": 29571,
  "poor": 31331,
  "pop": 13605,
  "por": 1812,
  "pora": 29781,
  "porary": 5320,
  "porate": 31091,
  "port": 608,
  "portation": 9592,
  "ported": 8772,
  "porting": 19825,
  "portion": 7888,
  "ports": 3532,
  "pos": 16694,
  "pose": 18230,
  "position": 24334,
  "positive": 24775,
  "post": 6896,
  "pot": 12283,
  "pound": 15514,
  "power": 6427,
  "powered": 12826,
  "pp": 378,
  "ppe": 24951,
  "pped": 1542,
  "pper": 3353,
  "ppers": 8824,
  "ppery": 26269,
  "pping": 2174,
  "ppo": 14793,
  "ppy": 11432,
  "pr": 1073,
  "pract": 25103,
  "pre": 3432,
  "pread": 7854,
  "pres": 18694,
  "present": 22671,
  "president": 16854,
  "press": 9185,
  "pret": 6366,
  "pri": 4126,
  "price": 25319,
  "priced": 26396,
  "pril": 2559,
  "prim": 20361,
  "prime": 26756,
  "pring": 13875,
  "print": 6550,
  "prise": 7628,
  "prises": 16094,
  "prising": 12684,
  "prisingly": 17510,
  "priv": 16230,
  "private": 22522,
  "pro": 2292,
  "probably": 24657,
  "process": 18480,
  "proclaimed": 31189,
  "produ": 20354,
  "produced": 26409,
  "producing": 31250,
  "product": 17550,
  "production": 23091,
  "productive": 26500,
  "prof": 4977,
  "professional": 29412,
  "profile": 11778,
  "profit": 7776,
  "profits": 25109,
  "program": 27887,
  "project": 21418,
  "prom": 14679,
  "pron": 31426,
  "proof": 14210,
  "prop": 22831,
  "proper": 25496,
  "prot": 28245,
  "prote": 29681,
  "protect": 21083,
  "prov": 14771,
  "prus": 22387,
  "ps": 3080,
  "pse": 13830,
  "psons": 27428,
  "psy": 21139,
  "psych": 24585,
  "pt": 520,
  "pta": 26435,
  "pted": 5634,
  "ptic": 15245,
  "ption": 1491,
  "ptions": 8703,
  "ptive": 25424,
  "pton": 8702,
  "pts": 14406,
  "pty": 6310,
  "pub": 25483,
  "public": 12997,
  "published": 26874,
  "punk": 30301,
  "pur": 13980,
  "purpose": 28742,
  "pus": 26596,
  "push": 30562,
  "put": 2561,
  "puted": 14383,
  "puter": 11724,
  "px": 14799,
  "py": 13765,
  "q": 113,
  "qa": 18563,
  "ql": 19595,
  "qqa": 23591,
  "qu": 434,
  "qual": 13918,
  "qualified": 21436,
  "quality": 12857,
  "quar": 26490,
  "quarter": 21359,
  "quarters": 7565,
  "que": 3972,
  "quel": 30676,
  "quer": 11896,
  "querque": 29370,
  "query": 28209,
  "ques": 11606,
  "quest": 8902,
  "question": 25102,
  "quet": 21837,
  "quez": 18284,
  "quire": 16501,
  "quirer": 30657,
  "quist": 25835,
  "quite": 30730,
  "quote": 27147,
  "r": 114,
  "ra": 519,
  "rab": 19693,
  "rac": 6503,
  "race": 17331,
  "racial": 29149,
  "ract": 1321,
  "racted": 19006,
  "raction": 19243,
  "ractions": 31407,
  "racuse": 23843,
  "rad": 4437,
  "rade": 27104,
  "rae": 24901,
  "rael": 1959,
  "raeus": 30408,
  "raf": 20172,
  "raft": 1641,
  "rafted": 24073,
  "rag": 26858,
  "rage": 7342,
  "raged": 15916,
  "rah": 11471,
  "raham": 12774,
  "rahim": 20745,
  "raid": 6946,
  "raig": 9618,
  "rail": 31211,
  "rain": 2782,
  "raine": 23305,
  "rained": 12988,
  "raining": 22909,
  "raising": 26919,
  "rait": 12019,
  "raits": 23201,
  "ral": 1296,
  "ram": 4111,
  "ramble": 27149,
  "rament": 13660,
  "ramento": 15252,
  "ramid": 19667,
  "rams": 16657,
  "ran": 2253,
  "rance": 21354,
  "ranch": 23109,
  "rand": 26385,
  "random": 31615,
  "rane": 12607,
  "ranean": 14660,
  "range": 4984,
  "ranged": 30787,
  "ranging": 25669,
  "ranked": 23408,
  "ranking": 22097,
  "rans": 28165,
  "rant": 5903,
  "rap": 1396,
  "rape": 13991,
  "raper": 25105,
  "raph": 7540,
  "rapped": 9213,
  "rapping": 31372,
  "raq": 3088,
  "rar": 25283,
  "rared": 21662,
  "rary": 7080,
  "ras": 7396,
  "rase": 25026,
  "rast": 3185,
  "rastructure": 5130,
  "rat": 1245,
  "rate": 4334,
  "rated": 3710,
  "rates": 7261,
  "rath": 23177,
  "rather": 30082,
  "ratic": 27852,
  "rating": 7438,
  "ration": 1311,
  "rational": 17976,
  "rations": 6717,
  "rative": 7832,
  "ratives": 19869,
  "rator": 8185,
  "rators": 7817,
  "ratory": 29532,
  "ratt": 22124,
  "ratulations": 29071,
  "raud": 5683,
  "rav": 4269,
  "rave": 20108,
  "raved": 30726,
  "ravel": 17727,
  "raven": 24780,
  "ravis": 15738,
  "ravity": 25690,
  "ravo": 28199,
  "raw": 1977,
  "rawl": 14967,
  "rawling": 16944,
  "rawn": 5711,
  "rax": 28646,
  "ray": 2638,
  "rays": 18212,
  "raz": 2990,
  "razil": 5817,
  "razy": 5794,
  "rb": 30681,
  "rc": 11562,
  "rd": 5034,
  "re": 260,
  "rea": 19330,
  "reach": 14141,
  "reaching": 24861,
  "read": 1008,
  "reading": 21162,
  "ready": 1380,
  "real": 4908,
  "realDonaldTrump": 22033,
  "really": 24148,
  "ream": 2348,
  "reamed": 15095,
  "reams": 7555,
  "reat": 641,
  "reated": 14571,
  "reath": 24004,
  "reating": 17994,
  "reatment": 22037,
  "reb": 23921,
  "rec": 8803,
  "reci": 26727,
  "reck": 10789,
  "recogn": 24035,
  "record": 20483,
  "rect": 2967,
  "rection": 9439,
  "rections": 17761,
  "recy": 16782,
  "red": 450,
  "reddit": 19625,
  "redible": 28135,
  "redict": 13703,
  "redients": 26524,
  "redit": 6984,
  "redited": 19412,
  "redits": 26047,
  "ree": 614,
  "reed": 1914,
  "reedom": 3199,
  "reek": 10790,
  "reen": 1407,
  "reens": 5532,
  "rees": 5010,
  "reet": 2609,
  "ref": 7775,
  "reg": 2309,
  "regist": 29060,
  "regn": 27417,
  "regon": 7212,
  "regor": 21217,
  "regular": 17762,
  "regulated": 23513,
  "regulation": 23864,
  "rehens": 24991,
  "rehensible": 29799,
  "rel": 2724,
  "reland": 5965,
  "related": 5186,
  "release": 22757,
  "released": 26995,
  "reli": 27121,
  "religious": 21902,
  "rell": 10279,
  "rella": 18924,
  "rem": 1363,
  "reme": 2118,
  "remlin": 14424,
  "ren": 912,
  "rence": 6724,
  "rench": 3240,
  "renched": 19868,
  "renches": 29668,
  "rencies": 11903,
  "rency": 5009,
  "rend": 11048,
  "render": 13504,
  "rendered": 23228,
  "rene": 22084,
  "renn": 25392,
  "rent": 1154,
  "rentice": 23181,
  "reon": 27141,
  "rep": 7408,
  "repe": 30206,
  "report": 27098,
  "reported": 26317,
  "repre": 8508,
  "reprene": 8548,
  "represent": 14339,
  "represented": 29646,
  "requ": 11607,
  "rer": 13805,
  "rera": 19461,
  "rero": 27933,
  "rers": 28006,
  "res": 406,
  "resa": 13582,
  "rescent": 26721,
  "resent": 1873,
  "resents": 5886,
  "resh": 3798,
  "reshold": 10796,
  "resident": 1521,
  "resistant": 25442,
  "resolution": 27000,
  "resp": 4517,
  "respect": 15155,
  "respond": 5721,
  "respons": 14211,
  "response": 30460,
  "responsible": 19218,
  "ress": 594,
  "ressed": 3712,
  "resses": 20231,
  "ressing": 10897,
  "ression": 3503,
  "ressive": 5306,
  "rest": 916,
  "rested": 27845,
  "restrial": 19813,
  "result": 31016,
  "ret": 1238,
  "retch": 30155,
  "retched": 29121,
  "rete": 7430,
  "retion": 14576,
  "rets": 8630,
  "rett": 7101,
  "retty": 17806,
  "return": 20962,
  "rev": 20150,
  "review": 19605,
  "reviewed": 28163,
  "revolution": 27909,
  "rew": 1764,
  "rey": 4396,
  "rez": 21823,
  "rh": 21290,
  "ri": 381,
  "ria": 7512,
  "riad": 19341,
  "riage": 3835,
  "riages": 15039,
  "rial": 4235,
  "rian": 4065,
  "rians": 16617,
  "rib": 838,
  "riber": 25350,
  "rible": 5297,
  "ribly": 15328,
  "ribut": 2357,
  "ribute": 4583,
  "ributed": 5703,
  "ributes": 9572,
  "ribution": 4009,
  "ric": 1149,
  "rical": 8173,
  "ricane": 10211,
  "ricanes": 19373,
  "rice": 22342,
  "rich": 6237,
  "riched": 28173,
  "ricia": 25088,
  "rick": 4729,
  "ricks": 23347,
  "rics": 10903,
  "rict": 1936,
  "ricted": 21312,
  "rid": 5945,
  "ride": 26122,
  "ridge": 12693,
  "rie": 5442,
  "ried": 2173,
  "rief": 3593,
  "riel": 14143,
  "rien": 13768,
  "riend": 1299,
  "rient": 8184,
  "riented": 23269,
  "rients": 19324,
  "rier": 5526,
  "riers": 7998,
  "ries": 1557,
  "rif": 9732,
  "rific": 7497,
  "rifice": 11151,
  "rig": 4380,
  "riger": 18813,
  "right": 2356,
  "rights": 21508,
  "rik": 8212,
  "rike": 11121,
  "rikes": 16670,
  "ril": 25241,
  "rill": 19216,
  "rily": 29159,
  "rim": 4804,
  "rimin": 9046,
  "riminal": 25522,
  "rimination": 6993,
  "rimp": 25672,
  "rin": 12108,
  "rina": 18901,
  "rine": 22259,
  "ring": 1943,
  "rington": 21442,
  "rint": 13298,
  "rio": 22986,
  "rior": 10009,
  "riors": 9744,
  "rip": 6335,
  "ripp": 14708,
  "ript": 2465,
  "ription": 4192,
  "rique": 25721,
  "rir": 30650,
  "ris": 2061,
  "rise": 17263,
  "rises": 25770,
  "rising": 17053,
  "risk": 17003,
  "rison": 6595,
  "rist": 1488,
  "ristol": 19181,
  "rists": 30554,
  "risy": 21631,
  "rit": 711,
  "rite": 9242,
  "rites": 27629,
  "ritical": 15343,
  "rities": 15979,
  "rition": 10865,
  "ritional": 22834,
  "ritis": 29486,
  "ritz": 26454,
  "rium": 19192,
  "rive": 6707,
  "rived": 15936,
  "river": 30173,
  "riving": 13633,
  "rix": 9983,
  "rm": 31307,
  "rne": 27337,
  "ro": 308,
  "road": 5326,
  "roads": 17745,
  "rob": 23829,
  "robe": 27140,
  "roc": 12735,
  "rock": 10575,
  "rod": 17154,
  "rodu": 1931,
  "roduced": 13615,
  "roducing": 31566,
  "roduct": 7991,
  "roduction": 8945,
  "roductive": 11930,
  "roe": 18645,
  "rog": 5509,
  "rogen": 15446,
  "roid": 4013,
  "rol": 4050,
  "rolet": 26719,
  "roll": 3982,
  "rolled": 8238,
  "roller": 13436,
  "rolling": 14128,
  "rolls": 24785,
  "rolog": 30540,
  "rom": 395,
  "rome": 6578,
  "ron": 1454,
  "rone": 21403,
  "rones": 14973,
  "rong": 14881,
  "ronic": 4815,
  "ronics": 23093,
  "rons": 11575,
  "ront": 4237,
  "ronting": 24026,
  "room": 3197,
  "rooms": 9161,
  "root": 21121,
  "roots": 14239,
  "rop": 1675,
  "roph": 10054,
  "rophe": 18630,
  "rophic": 15653,
  "ropical": 27001,
  "ropolis": 26810,
  "ropolitan": 13078,
  "ropri": 8709,
  "ropy": 29246,
  "ror": 1555,
  "rors": 6762,
  "ros": 4927,
  "rose": 13843,
  "ross": 1203,
  "rost": 27644,
  "rot": 12312,
  "rote": 1973,
  "rotect": 15131,
  "rots": 25243,
  "rou": 478,
  "roud": 5201,
  "rough": 735,
  "rought": 2738,
  "round": 738,
  "roup": 950,
  "rous": 7952,
  "rov": 18077,
  "rovers": 25454,
  "row": 815,
  "rowd": 3446,
  "rowing": 10162,
  "rown": 2821,
  "rows": 9551,
  "rowth": 13946,
  "roy": 3555,
  "rs": 3870,
  "rt": 23734,
  "ru": 606,
  "ruary": 3157,
  "rub": 30567,
  "ruce": 24358,
  "ruct": 1412,
  "ructed": 18566,
  "ruction": 2823,
  "ructions": 22363,
  "ructive": 12898,
  "ructure": 2914,
  "rue": 22779,
  "rued": 26215,
  "rug": 1969,
  "rugged": 22700,
  "rugu": 24769,
  "ruit": 4794,
  "ruitt": 26514,
  "rule": 27327,
  "ruly": 31319,
  "rum": 6188,
  "run": 5121,
  "runner": 14454,
  "running": 17287,
  "rup": 12124,
  "rupal": 31429,
  "rupt": 3511,
  "ruption": 5617,
  "rus": 16936,
  "rust": 12975,
  "ry": 571,
  "ryan": 27163,
  "rying": 11333,
  "ryn": 28715,
  "rypt": 21000,
  "rys": 20029,
  "rÃ©": 24744,
  "s": 115,
  "sa": 10182,
  "sac": 30672,
  "safe": 21738,
  "sal": 26037,
  "san": 18325,
  "save": 27473,
  "saving": 24359,
  "say": 17533,
  "sburg": 28768,
  "sc": 1505,
  "scale": 8734,
  "scape": 7705,
  "scar": 10764,
  "scars": 31259,
  "scenes": 24781,
  "sch": 25278,
  "sche": 14725,
  "school": 13002,
  "science": 15458,
  "scient": 21420,
  "scill": 22645,
  "scope": 31989,
  "screen": 10173,
  "scrib": 4495,
  "scribe": 9582,
  "script": 15855,
  "se": 327,
  "sea": 7196,
  "search": 16261,
  "season": 4821,
  "seat": 19270,
  "sec": 2259,
  "second": 13061,
  "secret": 18957,
  "sect": 9503,
  "section": 9790,
  "sections": 28863,
  "sector": 27304,
  "secure": 20881,
  "security": 10722,
  "secut": 3890,
  "secution": 16700,
  "secutive": 10862,
  "secutor": 27346,
  "secutors": 21272,
  "see": 4061,
  "seek": 28175,
  "seen": 16025,
  "sein": 16192,
  "sel": 749,
  "select": 25618,
  "seless": 11559,
  "self": 979,
  "sell": 7292,
  "seller": 28079,
  "selling": 13854,
  "sels": 8070,
  "selves": 1885,
  "semb": 4622,
  "semble": 14468,
  "sembly": 6169,
  "sen": 5609,
  "senal": 8710,
  "sensitive": 28555,
  "sequ": 3025,
  "sequently": 19823,
  "ser": 2398,
  "series": 24518,
  "serious": 26846,
  "serv": 4636,
  "server": 15038,
  "service": 15951,
  "serving": 25090,
  "ses": 9781,
  "set": 3090,
  "sett": 19151,
  "setting": 30445,
  "seud": 13199,
  "seven": 24900,
  "sever": 25989,
  "sewhere": 26854,
  "sex": 6870,
  "sexual": 18803,
  "sey": 3908,
  "seys": 22655,
  "sh": 1748,
  "shadow": 18452,
  "shaped": 16695,
  "share": 23978,
  "sharing": 17308,
  "shaw": 27618,
  "she": 7993,
  "shed": 30156,
  "sheet": 22131,
  "shield": 30359,
  "shine": 18862,
  "ship": 7250,
  "ships": 24735,
  "shire": 9060,
  "shirt": 14241,
  "shirts": 19624,
  "shit": 17294,
  "shoot": 27039,
  "shop": 31635,
  "shore": 11630,
  "short": 23695,
  "shot": 12258,
  "shots": 25540,
  "should": 20263,
  "show": 16441,
  "si": 17001,
  "sic": 18858,
  "side": 1512,
  "sided": 20188,
  "sight": 16899,
  "sign": 13016,
  "signed": 30329,
  "significant": 28785,
  "sil": 20646,
  "sim": 15669,
  "sin": 31186,
  "since": 22688,
  "sis": 14665,
  "site": 17444,
  "six": 17975,
  "size": 11810,
  "sized": 12569,
  "sk": 13574,
  "ski": 14170,
  "skin": 22896,
  "sky": 13473,
  "sl": 10146,
  "slaught": 28186,
  "slist": 31290,
  "sm": 7543,
  "small": 21659,
  "smart": 26338,
  "smith": 24154,
  "sn": 18254,
  "so": 551,
  "soc": 29825,
  "social": 16146,
  "soever": 15431,
  "soft": 4066,
  "sold": 24680,
  "sole": 6723,
  "solete": 22347,
  "some": 10431,
  "something": 16873,
  "sometimes": 27590,
  "son": 1263,
  "song": 29118,
  "sonian": 29595,
  "soon": 28276,
  "sor": 22156,
  "sound": 31108,
  "source": 13200,
  "sover": 19987,
  "sp": 3597,
  "space": 14766,
  "span": 20660,
  "spe": 4643,
  "speaking": 19746,
  "special": 22287,
  "specific": 12335,
  "speed": 11335,
  "spir": 25827,
  "spl": 27448,
  "spoken": 15754,
  "spons": 16198,
  "sponsored": 20129,
  "spot": 23198,
  "squ": 16279,
  "square": 20319,
  "src": 20803,
  "ss": 864,
  "sson": 13941,
  "st": 303,
  "stack": 31235,
  "stad": 22202,
  "staff": 27435,
  "stage": 13402,
  "stairs": 18514,
  "stakes": 31325,
  "stal": 9677,
  "stan": 12448,
  "stanbul": 19131,
  "stand": 1432,
  "standard": 21783,
  "standing": 5506,
  "stant": 23059,
  "star": 7504,
  "stars": 30049,
  "start": 12293,
  "starter": 10460,
  "stasy": 30992,
  "stat": 29133,
  "state": 5257,
  "stated": 18123,
  "statement": 24422,
  "states": 27009,
  "static": 20590,
  "station": 17916,
  "status": 21136,
  "stay": 28414,
  "ste": 4272,
  "stead": 25642,
  "sted": 26199,
  "steen": 31357,
  "stein": 5214,
  "stellar": 28812,
  "stem": 946,
  "sten": 25360,
  "step": 9701,
  "steps": 18836,
  "ster": 1761,
  "sterdam": 20342,
  "sters": 6981,
  "stick": 16232,
  "still": 21634,
  "stock": 12950,
  "ston": 3527,
  "stone": 6937,
  "stones": 28656,
  "stood": 6257,
  "stop": 10689,
  "store": 13104,
  "storm": 12332,
  "story": 12576,
  "stown": 24169,
  "str": 6986,
  "stra": 11646,
  "stract": 8265,
  "strap": 27360,
  "stre": 23217,
  "stream": 5087,
  "street": 28330,
  "strike": 26631,
  "string": 12032,
  "stro": 22573,
  "strom": 18868,
  "strong": 10642,
  "stru": 21510,
  "struct": 27951,
  "sts": 5746,
  "stud": 19572,
  "sty": 21415,
  "style": 6528,
  "su": 18007,
  "sub": 10272,
  "success": 26947,
  "such": 11092,
  "sum": 19460,
  "sun": 17366,
  "super": 19378,
  "supp": 12420,
  "support": 26195,
  "supported": 30743,
  "sur": 12470,
  "sw": 2156,
  "swer": 23138,
  "swick": 26370,
  "sworth": 27667,
  "sy": 2035,
  "sych": 3087,
  "sylv": 7938,
  "sylvania": 8010,
  "syn": 30756,
  "system": 15295,
  "t": 116,
  "ta": 7914,
  "tab": 25726,
  "table": 13604,
  "tag": 19521,
  "tail": 13165,
  "tailed": 29672,
  "tails": 24968,
  "tain": 929,
  "tainment": 10432,
  "take": 15678,
  "taker": 28343,
  "taking": 22936,
  "tale": 25040,
  "talk": 15425,
  "tank": 25801,
  "tar": 22560,
  "target": 22748,
  "tarian": 11205,
  "tarians": 21624,
  "tax": 17641,
  "td": 29065,
  "te": 399,
  "team": 14987,
  "tec": 29341,
  "tech": 11658,
  "techn": 21676,
  "ted": 1024,
  "tee": 2285,
  "teen": 7111,
  "teenth": 22125,
  "tees": 13164,
  "tel": 9764,
  "tell": 27204,
  "telling": 15643,
  "tem": 1250,
  "tember": 2716,
  "temporary": 26341,
  "tempt": 1956,
  "tems": 24583,
  "ten": 1025,
  "tenance": 9371,
  "ter": 347,
  "terday": 5333,
  "tered": 3436,
  "tering": 6416,
  "terior": 14909,
  "term": 3932,
  "tern": 758,
  "ternal": 5755,
  "terness": 31898,
  "terns": 30022,
  "terror": 10962,
  "terrorism": 15583,
  "terrorist": 31035,
  "ters": 888,
  "terson": 20106,
  "tery": 4730,
  "tes": 7786,
  "tesque": 31375,
  "test": 7780,
  "testing": 31140,
  "text": 673,
  "th": 418,
  "tha": 13490,
  "thal": 11555,
  "than": 13417,
  "thanks": 30577,
  "that": 5496,
  "the": 1125,
  "their": 22226,
  "theless": 9015,
  "them": 16002,
  "themed": 21362,
  "then": 8036,
  "thening": 18740,
  "ther": 492,
  "there": 7299,
  "thereum": 14762,
  "these": 25569,
  "thew": 7455,
  "they": 9220,
  "thia": 30888,
  "thing": 1198,
  "think": 12600,
  "thinkable": 29515,
  "thinking": 24586,
  "third": 15340,
  "thirds": 14479,
  "this": 7670,
  "thodox": 10969,
  "thood": 10716,
  "thora": 28901,
  "those": 23055,
  "though": 1923,
  "thought": 24932,
  "thouse": 19644,
  "thread": 26030,
  "threat": 17221,
  "threatening": 22798,
  "three": 15231,
  "throp": 10419,
  "through": 9184,
  "ths": 14729,
  "thur": 11217,
  "thy": 22299,
  "ti": 19635,
  "tic": 15688,
  "tical": 22660,
  "tick": 26014,
  "tics": 13054,
  "tier": 20860,
  "ties": 4160,
  "tight": 30271,
  "tim": 24337,
  "time": 2407,
  "times": 21059,
  "ting": 777,
  "tingham": 29603,
  "tingly": 28425,
  "tion": 5488,
  "tit": 12247,
  "title": 17117,
  "tle": 860,
  "tlement": 23521,
  "tles": 28633,
  "tlet": 24812,
  "tml": 25441,
  "to": 1358,
  "ton": 1084,
  "too": 10582,
  "toos": 25643,
  "top": 5315,
  "tor": 14428,
  "total": 25789,
  "touch": 29105,
  "town": 11183,
  "tox": 29678,
  "tr": 3306,
  "tra": 10740,
  "track": 11275,
  "trade": 21892,
  "traditional": 30065,
  "train": 25998,
  "trained": 30375,
  "trans": 9425,
  "tre": 25501,
  "tree": 24294,
  "tri": 25087,
  "trl": 29109,
  "tro": 25833,
  "true": 16875,
  "ts": 889,
  "tsburgh": 10049,
  "tsky": 31296,
  "tt": 1317,
  "tta": 23290,
  "ttes": 12174,
  "ttle": 31354,
  "ttp": 2025,
  "tun": 26375,
  "turn": 21542,
  "turned": 25515,
  "tv": 21771,
  "tw": 16022,
  "twitter": 6229,
  "two": 11648,
  "txt": 23351,
  "ty": 852,
  "tyard": 31704,
  "type": 8480,
  "types": 26485,
  "tz": 21101,
  "u": 117,
  "ua": 6801,
  "uable": 6612,
  "uably": 11590,
  "uador": 20458,
  "ual": 743,
  "ually": 922,
  "uan": 7668,
  "uana": 3994,
  "uania": 27903,
  "uant": 29423,
  "uart": 16753,
  "uary": 2544,
  "uate": 5006,
  "uated": 6570,
  "uates": 11868,
  "uating": 11028,
  "uation": 2202,
  "uations": 5926,
  "ub": 531,
  "uba": 22588,
  "ubarak": 22683,
  "ube": 3750,
  "uber": 18883,
  "ubl": 1749,
  "uble": 28451,
  "ublic": 757,
  "ublin": 13650,
  "ublished": 10703,
  "ubs": 22458,
  "uc": 1200,
  "ucc": 15482,
  "uccess": 11139,
  "ucci": 21314,
  "uce": 7953,
  "uced": 13733,
  "uch": 781,
  "uchi": 28287,
  "uchs": 29198,
  "ucing": 23512,
  "uck": 1388,
  "ucked": 16994,
  "ucker": 11423,
  "ucking": 24176,
  "uckland": 23720,
  "uckle": 29721,
  "ucks": 5704,
  "ucky": 4965,
  "ucle": 15581,
  "uclear": 3250,
  "uct": 4966,
  "uction": 8562,
  "uctions": 26657,
  "ud": 471,
  "uda": 17034,
  "udd": 4266,
  "uddenly": 19554,
  "uddle": 23806,
  "uddled": 28279,
  "uddy": 22422,
  "ude": 2607,
  "udeau": 11923,
  "uded": 17279,
  "uder": 27482,
  "udes": 8155,
  "udge": 12627,
  "udget": 24175,
  "udic": 25788,
  "uding": 24760,
  "udo": 24819,
  "uds": 21479,
  "ue": 540,
  "ued": 1565,
  "uel": 2610,
  "ueless": 31636,
  "ueller": 13323,
  "uels": 11716,
  "uer": 8014,
  "uers": 29016,
  "uerto": 12167,
  "ues": 899,
  "uesday": 2647,
  "uese": 16691,
  "uez": 12190,
  "uf": 3206,
  "ufact": 3659,
  "uff": 1768,
  "uffed": 16308,
  "uffer": 22388,
  "ufficient": 14899,
  "uffle": 18070,
  "uffled": 29283,
  "uffs": 19348,
  "uffy": 16404,
  "ug": 1258,
  "ugar": 16867,
  "ugby": 11480,
  "uge": 1972,
  "ugg": 4218,
  "uggage": 28604,
  "ugged": 13641,
  "ugger": 24569,
  "uggets": 25099,
  "ugging": 13779,
  "uggish": 30268,
  "ugh": 6688,
  "ught": 8953,
  "ugin": 26742,
  "ugs": 12148,
  "uh": 9971,
  "ui": 12042,
  "uild": 4169,
  "uilding": 6894,
  "uilt": 22074,
  "uine": 7530,
  "uing": 3321,
  "uit": 3163,
  "uitive": 28702,
  "uits": 8741,
  "uity": 14842,
  "uj": 13734,
  "uk": 3221,
  "uka": 19857,
  "uke": 5065,
  "ukes": 28107,
  "uki": 14785,
  "ul": 377,
  "ula": 4881,
  "ular": 1098,
  "ularly": 2495,
  "ulars": 28843,
  "ulas": 29374,
  "ulate": 4880,
  "ulated": 4625,
  "ulates": 15318,
  "ulating": 7932,
  "ulation": 1754,
  "ulations": 5874,
  "ulative": 13526,
  "ulator": 15025,
  "ulators": 21660,
  "ulatory": 21317,
  "ule": 2576,
  "uled": 21459,
  "ulence": 29917,
  "ulent": 13761,
  "ules": 7664,
  "ulf": 4644,
  "ulic": 27502,
  "ulin": 15664,
  "ulk": 15550,
  "ull": 751,
  "ullah": 27563,
  "ulled": 30822,
  "ulling": 30123,
  "ullivan": 13785,
  "ully": 2128,
  "ulous": 6480,
  "ulously": 16544,
  "uls": 6086,
  "ulse": 11063,
  "ulsion": 14397,
  "ult": 597,
  "ultan": 24736,
  "ultane": 9120,
  "ults": 12277,
  "ultural": 8493,
  "ulture": 6850,
  "ulty": 10360,
  "ultz": 17602,
  "ulu": 14714,
  "ulum": 13870,
  "ulus": 26735,
  "uly": 1895,
  "ulz": 26926,
  "um": 404,
  "uma": 8296,
  "umably": 27232,
  "uman": 4034,
  "umat": 25476,
  "umatic": 16237,
  "umb": 2301,
  "umbai": 15699,
  "umber": 6726,
  "umbered": 25125,
  "umbing": 30064,
  "umbl": 13927,
  "umble": 9713,
  "umbled": 12431,
  "umbles": 23574,
  "umbling": 13525,
  "umblr": 15123,
  "umbo": 24949,
  "umbs": 21522,
  "ume": 2920,
  "umed": 17685,
  "umen": 22404,
  "ument": 1900,
  "uments": 3065,
  "umer": 7971,
  "umers": 25459,
  "umes": 8174,
  "umi": 21180,
  "umin": 8046,
  "uming": 12198,
  "umm": 12533,
  "ummy": 16856,
  "umn": 4867,
  "umni": 21727,
  "umns": 14945,
  "ump": 806,
  "umped": 21617,
  "umper": 17652,
  "umph": 10518,
  "umping": 20366,
  "umps": 19041,
  "umption": 27328,
  "umpy": 31748,
  "ums": 6903,
  "un": 405,
  "una": 11863,
  "unal": 18462,
  "unch": 1951,
  "unciation": 25081,
  "unct": 13105,
  "unction": 5760,
  "uncture": 28202,
  "und": 881,
  "under": 5347,
  "undred": 3022,
  "undreds": 16347,
  "une": 1701,
  "unes": 8644,
  "ung": 2241,
  "unge": 16068,
  "unged": 24490,
  "ungle": 14555,
  "unicip": 8768,
  "unicipal": 10027,
  "unicipality": 25905,
  "union": 22507,
  "unior": 8312,
  "unique": 15067,
  "unit": 27515,
  "unity": 11103,
  "unk": 3169,
  "unks": 15406,
  "unky": 25886,
  "unless": 27124,
  "unning": 7140,
  "uns": 14782,
  "unt": 2850,
  "untary": 27045,
  "unte": 5831,
  "until": 27334,
  "untu": 11108,
  "uous": 5686,
  "uously": 22937,
  "up": 902,
  "update": 31272,
  "uper": 8380,
  "upert": 23332,
  "upid": 7683,
  "upiter": 18528,
  "upload": 29624,
  "upon": 29768,
  "upp": 4424,
  "ups": 4900,
  "ur": 334,
  "ura": 7452,
  "urable": 13395,
  "urai": 24852,
  "ural": 1479,
  "urally": 17343,
  "urance": 3783,
  "urances": 25344,
  "uras": 15602,
  "uration": 5325,
  "urations": 22092,
  "urb": 4585,
  "urban": 30927,
  "urbed": 17927,
  "urch": 1744,
  "urchase": 26293,
  "urches": 11246,
  "urd": 2546,
  "urdue": 25750,
  "urdy": 26554,
  "ure": 501,
  "ureau": 5422,
  "ured": 1487,
  "uren": 30937,
  "urer": 30302,
  "urers": 31335,
  "ures": 984,
  "urg": 3545,
  "urger": 27768,
  "uri": 13438,
  "uries": 4268,
  "uring": 845,
  "urious": 16424,
  "uristic": 23199,
  "urities": 11960,
  "urity": 1482,
  "url": 13575,
  "urn": 782,
  "urned": 12705,
  "urning": 3006,
  "uro": 1304,
  "urous": 27662,
  "urp": 30879,
  "urrection": 27952,
  "urred": 12935,
  "urrent": 7811,
  "urring": 14354,
  "urry": 16456,
  "urs": 1467,
  "ursday": 2817,
  "urse": 10727,
  "ursed": 30800,
  "ursor": 25342,
  "urst": 20751,
  "urt": 3487,
  "urther": 1847,
  "uru": 14475,
  "ury": 1497,
  "us": 386,
  "usa": 25197,
  "usable": 28917,
  "usal": 6304,
  "usalem": 9178,
  "usat": 26398,
  "usc": 16904,
  "usch": 24644,
  "uscript": 15721,
  "use": 1893,
  "used": 1406,
  "usement": 25978,
  "user": 10563,
  "users": 20256,
  "uses": 2953,
  "useum": 5427,
  "ush": 1543,
  "ushed": 15928,
  "ushes": 25405,
  "ushi": 21478,
  "ushima": 21320,
  "ushing": 14926,
  "usiness": 5882,
  "using": 3427,
  "usion": 3964,
  "usions": 15489,
  "usive": 8043,
  "usk": 19043,
  "usp": 18830,
  "usr": 24577,
  "usra": 22158,
  "uss": 998,
  "ussed": 26805,
  "ussen": 27503,
  "ussia": 26031,
  "ussian": 31857,
  "ussion": 13300,
  "ussions": 18832,
  "ussy": 24246,
  "ust": 438,
  "ustain": 16295,
  "ustainable": 19221,
  "usted": 8143,
  "uster": 5328,
  "usterity": 14753,
  "usters": 12598,
  "usting": 11326,
  "ustom": 1934,
  "ustomed": 21029,
  "usually": 23649,
  "ut": 311,
  "uta": 31820,
  "utable": 24465,
  "utation": 30170,
  "utch": 6532,
  "ute": 1177,
  "uted": 8713,
  "uten": 9568,
  "utenant": 14985,
  "uter": 10991,
  "uters": 5071,
  "uterte": 17529,
  "utes": 1899,
  "uth": 1105,
  "uther": 11388,
  "uthor": 1478,
  "utic": 19080,
  "utical": 13265,
  "uties": 8194,
  "util": 30500,
  "uting": 14868,
  "ution": 996,
  "utions": 3263,
  "uto": 11961,
  "uton": 26466,
  "utory": 22828,
  "utral": 18996,
  "uts": 5728,
  "utsche": 23642,
  "utt": 12784,
  "utter": 10776,
  "utterstock": 22881,
  "utton": 18594,
  "uture": 1628,
  "uty": 3767,
  "utz": 26752,
  "uum": 14140,
  "uv": 15571,
  "ux": 3319,
  "uxe": 28398,
  "uy": 6447,
  "uz": 11207,
  "uzz": 5322,
  "uzzle": 26872,
  "v": 118,
  "va": 6782,
  "vable": 21778,
  "vae": 31967,
  "vag": 28797,
  "val": 2600,
  "valid": 12624,
  "vals": 12811,
  "value": 12680,
  "van": 9885,
  "vana": 31852,
  "vance": 17717,
  "vant": 4839,
  "var": 11621,
  "vard": 8578,
  "vari": 28606,
  "vas": 11059,
  "vasive": 19576,
  "vation": 10947,
  "vd": 25796,
  "ve": 304,
  "ved": 866,
  "veillance": 24039,
  "vel": 653,
  "velength": 25037,
  "vell": 28977,
  "velop": 1022,
  "velt": 15189,
  "vement": 22118,
  "ven": 563,
  "venant": 20621,
  "venge": 30441,
  "vent": 3145,
  "vention": 4532,
  "ventional": 21364,
  "ventions": 16240,
  "ventus": 27740,
  "venue": 3668,
  "ver": 331,
  "verage": 1800,
  "verages": 25326,
  "vere": 4036,
  "vered": 21223,
  "vern": 796,
  "verning": 12733,
  "vernment": 9417,
  "vers": 682,
  "verse": 4936,
  "versely": 20440,
  "version": 11785,
  "vert": 1702,
  "verted": 16335,
  "vertise": 2794,
  "vertisement": 3225,
  "vertisements": 9609,
  "vertising": 19356,
  "verts": 22883,
  "verty": 6902,
  "very": 541,
  "ves": 1052,
  "vest": 4366,
  "vet": 16258,
  "vette": 29623,
  "vey": 5402,
  "veyard": 24514,
  "vez": 25561,
  "vi": 11767,
  "via": 10190,
  "vial": 16309,
  "vic": 28751,
  "vict": 30627,
  "vid": 19163,
  "video": 21053,
  "vidia": 23366,
  "vie": 25206,
  "view": 1212,
  "vig": 31656,
  "vik": 31066,
  "ville": 4000,
  "vin": 6745,
  "vine": 23908,
  "ving": 961,
  "viol": 14238,
  "violence": 31317,
  "violent": 19755,
  "vious": 12286,
  "viously": 7684,
  "viron": 2080,
  "vironment": 2247,
  "vironments": 11251,
  "vis": 5216,
  "vised": 15538,
  "visible": 28158,
  "vision": 9710,
  "visor": 13151,
  "visors": 23760,
  "vity": 20022,
  "vm": 31583,
  "vo": 11910,
  "voc": 16945,
  "vol": 11435,
  "volent": 27442,
  "volume": 30811,
  "von": 23115,
  "vor": 16572,
  "vote": 28046,
  "vous": 28950,
  "vs": 23901,
  "vy": 7363,
  "w": 119,
  "wa": 11171,
  "wage": 17173,
  "wagen": 23722,
  "wait": 17491,
  "wal": 13372,
  "wald": 19515,
  "walk": 9475,
  "walker": 25602,
  "walks": 24643,
  "wall": 11437,
  "wan": 7188,
  "war": 5384,
  "ward": 892,
  "wards": 1994,
  "ware": 1588,
  "wart": 6812,
  "wartz": 21917,
  "was": 9545,
  "watch": 10134,
  "water": 5854,
  "waukee": 12945,
  "wave": 20538,
  "waves": 25800,
  "way": 1009,
  "ways": 1303,
  "wd": 28047,
  "we": 724,
  "wealth": 14291,
  "wear": 14431,
  "weather": 20528,
  "web": 17523,
  "wed": 10454,
  "week": 9803,
  "ween": 958,
  "weet": 7937,
  "weight": 6598,
  "well": 4391,
  "welling": 25245,
  "wen": 21251,
  "went": 18114,
  "wer": 14865,
  "were": 20089,
  "wered": 8604,
  "west": 6441,
  "western": 12378,
  "wh": 1614,
  "what": 4836,
  "whe": 12709,
  "wheel": 21334,
  "whel": 6200,
  "whelming": 30848,
  "when": 12527,
  "where": 2391,
  "whether": 24658,
  "which": 4513,
  "while": 3869,
  "white": 10821,
  "who": 7778,
  "whose": 31926,
  "why": 22396,
  "wi": 28024,
  "wic": 20936,
  "wich": 11018,
  "wick": 14925,
  "wid": 12214,
  "wide": 3905,
  "width": 13396,
  "wife": 20796,
  "wig": 24937,
  "wiki": 25931,
  "wild": 22575,
  "will": 10254,
  "win": 4365,
  "wind": 10602,
  "wing": 4913,
  "winning": 11762,
  "wire": 21812,
  "wise": 3493,
  "wit": 1416,
  "witch": 4403,
  "with": 5042,
  "without": 19593,
  "withstanding": 25758,
  "witter": 1933,
  "witz": 25475,
  "witzer": 11858,
  "witzerland": 12104,
  "wives": 31303,
  "wn": 672,
  "wo": 3130,
  "wolf": 28568,
  "wolves": 31519,
  "woman": 6815,
  "women": 23788,
  "won": 23287,
  "wood": 3636,
  "word": 6119,
  "words": 11623,
  "work": 1587,
  "worked": 28319,
  "worker": 26665,
  "workers": 19814,
  "working": 14534,
  "works": 4520,
  "world": 7847,
  "worm": 25576,
  "worth": 8350,
  "worthy": 16351,
  "would": 16291,
  "wp": 26700,
  "wright": 25254,
  "writ": 5869,
  "write": 14814,
  "writer": 13359,
  "writers": 25815,
  "writing": 14236,
  "written": 12168,
  "wrote": 31877,
  "ws": 21827,
  "ww": 2158,
  "www": 3976,
  "wy": 26879,
  "wyn": 25670,
  "x": 120,
  "xc": 31174,
  "xd": 28877,
  "xi": 31846,
  "xide": 11485,
  "ximately": 23808,
  "xit": 8556,
  "xml": 27477,
  "xon": 18805,
  "xt": 538,
  "xton": 18455,
  "xual": 5931,
  "xx": 10160,
  "xxxx": 27560,
  "xy": 6749,
  "y": 121,
  "ya": 4172,
  "yan": 3642,
  "yang": 15533,
  "yard": 8082,
  "yards": 30639,
  "yd": 16207,
  "ye": 7710,
  "year": 1599,
  "years": 19034,
  "yen": 22988,
  "yer": 9102,
  "yers": 20437,
  "yes": 9697,
  "yet": 22593,
  "yg": 25409,
  "ying": 1069,
  "yl": 3471,
  "ylan": 16480,
  "yle": 2399,
  "yll": 22771,
  "ylon": 19109,
  "ylum": 9788,
  "ym": 5180,
  "ymes": 23224,
  "ymph": 24380,
  "yn": 2184,
  "ynam": 5058,
  "ynasty": 17200,
  "ync": 17847,
  "ynchron": 25205,
  "ynchronous": 29418,
  "yo": 8951,
  "yon": 17115,
  "yond": 3024,
  "you": 6732,
  "your": 16465,
  "youtube": 18166,
  "yr": 5649,
  "yre": 28351,
  "yrr": 24456,
  "yrrha": 24990,
  "yrus": 22145,
  "ys": 952,
  "ysc": 26498,
  "ysical": 17108,
  "ysics": 23752,
  "ysis": 3126,
  "yson": 16908,
  "yssey": 26421,
  "ystem": 7931,
  "yth": 5803,
  "ython": 8510,
  "yton": 25960,
  "z": 122,
  "za": 4580,
  "zai": 26379,
  "zan": 22864,
  "zb": 12859,
  "zbollah": 16148,
  "ze": 3103,
  "zed": 8769,
  "zel": 17998,
  "zen": 4596,
  "zens": 7052,
  "zer": 5914,
  "zero": 23890,
  "zes": 12479,
  "zh": 16518,
  "zhou": 28913,
  "zi": 15575,
  "zilla": 24024,
  "zing": 9026,
  "zip": 22839,
  "zman": 24305,
  "zo": 13028,
  "zon": 27985,
  "zona": 6320,
  "zone": 11169,
  "zos": 30922,
  "zsche": 31466,
  "zy": 7999,
  "zyme": 27081,
  "zz": 3518,
  "zza": 30139,
  "{": 123,
  "{\"": 18698,
  "{\\": 15005,
  "{{": 27739,
  "|": 124,
  "|>": 700,
  "|>\"": 19244,
  "|>(": 17244,
  "|>[": 31093,
  "|>âĢľ": 16491,
  "}": 125,
  "},": 17856,
  "}\\": 26400,
  "}{": 25358,
  "}}": 10166,
  "~": 126,
  "~~": 16521,
  "~~~~": 28698,
  "¡": 161,
  "¢": 162,
  "£": 163,
  "¤": 164,
  "¥": 165,
  "¦": 166,
  "§": 167,
  "¨": 168,
  "©": 169,
  "ª": 170,
  "«": 171,
  "¬": 172,
  "®": 174,
  "¯": 175,
  "°": 176,
  "±": 177,
  "²": 178,
  "³": 179,
  "´": 180,
  "µ": 181,
  "¶": 182,
  "·": 183,
  "¸": 184,
  "¹": 185,
  "º": 186,
  "»": 187,
  "»¿": 28744,
  "¼": 188,
  "½": 189,
  "¾": 190,
  "¿": 191,
  "À": 192,
  "Á": 193,
  "Â": 194,
  "Â¢": 25652,
  "Â£": 13542,
  "Â¨": 30915,
  "Â©": 16027,
  "Â®": 14115,
  "Â°": 9103,
  "Â±": 27753,
  "Â´": 26718,
  "Â·": 12477,
  "Â»": 17326,
  "Â½": 23406,
  "ÂĢ": 16764,
  "ÂĢÂ": 18707,
  "ÂĢÂĻ": 28159,
  "ÂĴ": 8904,
  "ÂĶ": 12435,
  "ÂĹ": 22466,
  "ÂĿ": 26904,
  "ÂŃ": 2910,
  "Ã": 195,
  "Ã¡": 5477,
  "Ã¡n": 16975,
  "Ã¡s": 23364,
  "Ã¢": 11800,
  "Ã£": 14419,
  "Ã£o": 15049,
  "Ã¤": 7913,
  "Ã¥": 12825,
  "Ã§": 11652,
  "Ã§Ã£o": 31978,
  "Ã¨": 11899,
  "Ã¨re": 28626,
  "Ã©": 2446,
  "Ã©e": 18120,
  "Ã©mon": 13563,
  "Ã©n": 27361,
  "Ã©s": 14537,
  "Ã©t": 18676,
  "Ãª": 21481,
  "Ã«": 29465,
  "Ã¯": 24391,
  "Ã±": 10381,
  "Ã±a": 23589,
  "Ã±o": 23163,
  "Ã³": 7240,
  "Ã³n": 11414,
  "Ã´": 27261,
  "Ã¶": 7514,
  "Ã¶r": 19555,
  "Ã¸": 22860,
  "Ãº": 17791,
  "Ã¼": 7525,
  "Ã¼r": 16009,
  "ÃĤ": 23008,
  "ÃĹ": 13741,
  "ÃŁ": 27118,
  "Ãł": 19014,
  "ÃŃ": 7012,
  "ÃŃa": 18643,
  "ÃŃn": 31780,
  "Ä": 196,
  "Ä±": 23245,
  "Äģ": 17335,
  "Äĥ": 11483,
  "Äĩ": 18752,
  "Äį": 21687,
  "ÄŁ": 23610,
  "ÄŁan": 31057,
  "Å": 197,
  "Å¡": 21423,
  "Å«": 30980,
  "Å¾": 27488,
  "ÅĤ": 31510,
  "Åį": 17240,
  "ÅŁ": 29194,
  "Æ": 198,
  "Ç": 199,
  "È": 200,
  "ÈĻ": 27421,
  "É": 201,
  "Ê": 202,
  "Ë": 203,
  "Ì": 204,
  "Í": 205,
  "Î": 206,
  "Î±": 21884,
  "Î²": 30533,
  "Ï": 207,
  "Ð": 208,
  "Ð°": 7686,
  "Ð²": 21946,
  "Ð´": 20393,
  "Ðµ": 7344,
  "ÐµÐ½": 29492,
  "Ð·": 28549,
  "Ð¸": 9127,
  "Ð¹": 31997,
  "Ðº": 16675,
  "Ð»": 14667,
  "Ð¼": 19826,
  "Ð½": 11737,
  "Ð¾": 6163,
  "Ð¾Ð": 10552,
  "Ð¾Ð²": 31506,
  "Ñ": 209,
  "ÑĢ": 10952,
  "ÑĢÐ°": 28497,
  "Ñģ": 9784,
  "ÑģÑĤ": 28281,
  "ÑĤ": 8236,
  "ÑĤÐ¾": 22411,
  "Ñĥ": 16191,
  "Ñĩ": 31595,
  "Ñĭ": 19561,
  "ÑĮ": 20495,
  "Ñı": 18824,
  "Ò": 210,
  "Ó": 211,
  "Ô": 212,
  "Õ": 213,
  "Ö": 214,
  "×": 215,
  "Ø": 216,
  "Ø§": 20651,
  "Ø±": 30691,
  "Ù": 217,
  "ÙĦ": 17218,
  "Ùħ": 29912,
  "ÙĨ": 24083,
  "ÙĬ": 26674,
  "Ùİ": 17082,
  "ÙĲ": 27770,
  "Ú": 218,
  "Û": 219,
  "Ü": 220,
  "Ý": 221,
  "Þ": 222,
  "ß": 223,
  "à": 224,
  "à¤": 11237,
  "à¥": 22217,
  "à²": 25172,
  "à´": 29885,
  "à¸": 17304,
  "á": 225,
  "â": 226,
  "âĢ": 290,
  "âĢ¢": 4434,
  "âĢ¦": 1550,
  "âĢ¦\"": 24385,
  "âĢ¦.": 10623,
  "âĢ¦<|": 31400,
  "âĢ¦]": 21502,
  "âĢ¦âĢ¦": 15656,
  "âĢ¦âĢ¦âĢ¦âĢ¦": 31430,
  "âĢ¦âĢĿ": 14280,
  "âĢ²": 19961,
  "âĢ³": 11826,
  "âĢĭ": 12618,
  "âĢĲ": 10174,
  "âĢĵ": 1776,
  "âĢĶ": 931,
  "âĢĶâĢĵ": 31219,
  "âĢĶâĢĶ": 5375,
  "âĢĶâĢĶâĢĶâĢĶ": 9625,
  "âĢĶâĢĶâĢĶâĢĶâĢĶâĢĶâĢĶâĢĶ": 17325,
  "âĢĶâĢľ": 29639,
  "âĢĺ": 4750,
  "âĢĻ": 329,
  "âĢĻ)": 30641,
  "âĢĻ,": 7676,
  "âĢĻ.": 6842,
  "âĢľ": 714,
  "âĢľ[": 24816,
  "âĢĿ": 407,
  "âĢĿ)": 11410,
  "âĢĿ),": 19135,
  "âĢĿ).": 17307,
  "âĢĿ,": 3968,
  "âĢĿ.": 2978,
  "âĢĿ:": 16531,
  "âĢĿ;": 19462,
  "âĢĿ?": 17538,
  "âĢĿâĢĶ": 14663,
  "âĤ¬": 11641,
  "âĤ¬âĦ¢": 25301,
  "âĦ": 12433,
  "âĦ¢": 12623,
  "âĪ": 31392,
  "âĪĴ": 13209,
  "âĶ": 14934,
  "âĶĢ": 16382,
  "âĶĢâĶĢ": 20165,
  "âĸ": 9668,
  "âĸĪ": 14892,
  "âĸĪâĸĪ": 18278,
  "âĸł": 30149,
  "âĹ": 24535,
  "âĺħ": 30818,
  "âĻ": 18986,
  "ã": 227,
  "ãĢ": 7460,
  "ãĢģ": 16434,
  "ãĢĤ": 14433,
  "ãĢĮ": 30645,
  "ãĢį": 30890,
  "ãģ": 15685,
  "ãĤ": 22031,
  "ãĥ": 16091,
  "ãħ": 28717,
  "ä": 228,
  "å": 229,
  "æ": 230,
  "ç": 231,
  "è": 232,
  "é": 233,
  "ê": 234,
  "ë": 235,
  "ì": 236,
  "í": 237,
  "î": 238,
  "ï": 239,
  "ï¼": 11338,
  "ï¼Į": 25425,
  "ï¿": 7268,
  "ï¿½": 7444,
  "ï¿½ï¿½": 24833,
  "ð": 240,
  "ðŁ": 14043,
  "ñ": 241,
  "ò": 242,
  "ó": 243,
  "ô": 244,
  "õ": 245,
  "ö": 246,
  "÷": 247,
  "ø": 248,
  "ù": 249,
  "ú": 250,
  "û": 251,
  "ü": 252,
  "ý": 253,
  "þ": 254,
  "ÿ": 255,
  "Ā": 0,
  "ā": 1,
  "Ă": 2,
  "ă": 3,
  "Ą": 4,
  "ą": 5,
  "Ć": 6,
  "ć": 7,
  "Ĉ": 8,
  "ĉ": 9,
  "Ċ": 10,
  "ċ": 11,
  "Č": 12,
  "č": 13,
  "Ď": 14,
  "ď": 15,
  "Đ": 16,
  "đ": 17,
  "Ē": 18,
  "ē": 19,
  "Ĕ": 20,
  "ĕ": 21,
  "Ė": 22,
  "ė": 23,
  "Ę": 24,
  "ę": 25,
  "Ě": 26,
  "ě": 27,
  "Ĝ": 28,
  "ĝ": 29,
  "Ğ": 30,
  "ğ": 31,
  "Ġ": 32,
  "Ġ!": 9977,
  "Ġ!=": 24703,
  "Ġ\"": 488,
  "Ġ\"\"": 27976,
  "Ġ\"...": 30642,
  "Ġ\"/": 29202,
  "Ġ\"[": 19361,
  "Ġ#": 1886,
  "Ġ##": 27829,
  "Ġ$": 760,
  "Ġ%": 7312,
  "Ġ&": 1798,
  "Ġ&&": 20448,
  "Ġ'": 1182,
  "Ġ''": 13223,
  "Ġ(": 396,
  "Ġ(\"": 9909,
  "Ġ(#": 22325,
  "Ġ($": 7401,
  "Ġ('": 31981,
  "Ġ((": 24282,
  "Ġ()": 12990,
  "Ġ();": 31469,
  "Ġ(+": 17794,
  "Ġ(-": 16999,
  "Ġ(.": 20121,
  "Ġ(@": 3421,
  "Ġ(Â£": 17002,
  "Ġ(âĢľ": 8881,
  "Ġ)": 2157,
  "Ġ))": 25230,
  "Ġ),": 14858,
  "Ġ).": 10053,
  "Ġ):": 22947,
  "Ġ);": 11704,
  "Ġ*": 3340,
  "Ġ**": 18711,
  "Ġ***": 29764,
  "Ġ*/": 18776,
  "Ġ+": 2623,
  "Ġ+=": 29181,
  "Ġ,": 1662,
  "Ġ-": 664,
  "Ġ--": 1452,
  "Ġ---": 20184,
  "Ġ-->": 21890,
  "Ġ->": 7799,
  "Ġ.": 1210,
  "Ġ..": 18966,
  "Ġ...": 3184,
  "Ġ....": 27729,
  "Ġ..........": 30722,
  "Ġ./": 30960,
  "Ġ/": 2046,
  "Ġ/*": 22848,
  "Ġ//": 5785,
  "Ġ/>": 25420,
  "Ġ0": 1109,
  "Ġ00": 8667,
  "Ġ000": 21098,
  "Ġ01": 12913,
  "Ġ02": 14687,
  "Ġ03": 16169,
  "Ġ04": 17121,
  "Ġ05": 17254,
  "Ġ06": 18749,
  "Ġ07": 17203,
  "Ġ08": 17185,
  "Ġ09": 17037,
  "Ġ1": 383,
  "Ġ10": 1043,
  "Ġ100": 2251,
  "Ġ1000": 11243,
  "Ġ101": 13976,
  "Ġ102": 20652,
  "Ġ103": 21581,
  "Ġ104": 20823,
  "Ġ105": 18311,
  "Ġ106": 21863,
  "Ġ107": 22617,
  "Ġ108": 22565,
  "Ġ1080": 19404,
  "Ġ109": 23130,
  "Ġ11": 1693,
  "Ġ110": 13864,
  "Ġ111": 22294,
  "Ġ112": 22608,
  "Ġ113": 25204,
  "Ġ114": 24137,
  "Ġ115": 19938,
  "Ġ116": 25568,
  "Ġ117": 25843,
  "Ġ118": 26517,
  "Ġ119": 24252,
  "Ġ12": 1516,
  "Ġ120": 9692,
  "Ġ1200": 28706,
  "Ġ121": 27437,
  "Ġ122": 27265,
  "Ġ123": 24203,
  "Ġ124": 28471,
  "Ġ125": 16522,
  "Ġ126": 28849,
  "Ġ127": 25901,
  "Ġ128": 18181,
  "Ġ129": 29088,
  "Ġ13": 2064,
  "Ġ130": 13777,
  "Ġ131": 31285,
  "Ġ132": 29287,
  "Ġ133": 30332,
  "Ġ134": 31208,
  "Ġ135": 23295,
  "Ġ137": 31152,
  "Ġ138": 31185,
  "Ġ14": 2005,
  "Ġ140": 15164,
  "Ġ144": 28101,
  "Ġ145": 27044,
  "Ġ15": 1541,
  "Ġ150": 7793,
  "Ġ1500": 23505,
  "Ġ155": 27578,
  "Ġ16": 1925,
  "Ġ160": 16340,
  "Ġ1600": 28059,
  "Ġ165": 28759,
  "Ġ17": 2068,
  "Ġ170": 20112,
  "Ġ175": 23833,
  "Ġ18": 1481,
  "Ġ180": 13869,
  "Ġ1800": 20695,
  "Ġ185": 27341,
  "Ġ1880": 30090,
  "Ġ1890": 28465,
  "Ġ19": 689,
  "Ġ190": 24481,
  "Ġ1900": 18963,
  "Ġ1910": 26281,
  "Ġ1911": 29763,
  "Ġ1912": 29276,
  "Ġ1913": 30453,
  "Ġ1914": 23876,
  "Ġ1915": 26958,
  "Ġ1916": 26011,
  "Ġ1917": 21997,
  "Ġ1918": 24099,
  "Ġ1919": 26652,
  "Ġ192": 26799,
  "Ġ1920": 13529,
  "Ġ1921": 29750,
  "Ġ1922": 29869,
  "Ġ1923": 31550,
  "Ġ1924": 30695,
  "Ġ1925": 31361,
  "Ġ1927": 31808,
  "Ġ1928": 29902,
  "Ġ1929": 26218,
  "Ġ1930": 12485,
  "Ġ1931": 30377,
  "Ġ1932": 27715,
  "Ġ1933": 23494,
  "Ġ1934": 26659,
  "Ġ1935": 27338,
  "Ġ1936": 24525,
  "Ġ1937": 25345,
  "Ġ1938": 23948,
  "Ġ1939": 20949,
  "Ġ1940": 13902,
  "Ġ1941": 20109,
  "Ġ1942": 21356,
  "Ġ1943": 22354,
  "Ġ1944": 19766,
  "Ġ1945": 16162,
  "Ġ1946": 22742,
  "Ġ1947": 20234,
  "Ġ1948": 18570,
  "Ġ1949": 22452,
  "Ġ195": 5618,
  "Ġ1950": 9676,
  "Ġ1951": 23899,
  "Ġ1952": 23304,
  "Ġ1953": 22120,
  "Ġ1954": 21630,
  "Ġ1955": 22137,
  "Ġ1956": 21430,
  "Ġ1957": 21937,
  "Ġ1958": 21338,
  "Ġ1959": 20593,
  "Ġ196": 3701,
  "Ġ1960": 7840,
  "Ġ1961": 18155,
  "Ġ1962": 17817,
  "Ġ1963": 17099,
  "Ġ1964": 15845,
  "Ġ1965": 15805,
  "Ġ1966": 16921,
  "Ġ1967": 13662,
  "Ġ1968": 13857,
  "Ġ1969": 14674,
  "Ġ197": 2659,
  "Ġ1970": 6740,
  "Ġ1971": 15027,
  "Ġ1972": 14243,
  "Ġ1973": 14146,
  "Ġ1974": 14913,
  "Ġ1975": 14029,
  "Ġ1976": 13959,
  "Ġ1977": 14763,
  "Ġ1978": 14269,
  "Ġ1979": 12241,
  "Ġ198": 2266,
  "Ġ1980": 5964,
  "Ġ1981": 13558,
  "Ġ1982": 13142,
  "Ġ1983": 13115,
  "Ġ1984": 11681,
  "Ġ1985": 12327,
  "Ġ1986": 11760,
  "Ġ1987": 12236,
  "Ġ1988": 11510,
  "Ġ1989": 10437,
  "Ġ199": 1630,
  "Ġ1990": 5521,
  "Ġ1991": 9966,
  "Ġ1992": 9404,
  "Ġ1993": 9660,
  "Ġ1994": 8888,
  "Ġ1995": 8749,
  "Ġ1996": 8338,
  "Ġ1997": 8323,
  "Ġ1998": 7890,
  "Ġ1999": 7393,
  "Ġ2": 393,
  "Ġ20": 534,
  "Ġ200": 870,
  "Ġ2000": 4891,
  "Ġ2001": 5762,
  "Ġ2002": 6267,
  "Ġ2003": 5666,
  "Ġ2004": 5245,
  "Ġ2005": 4777,
  "Ġ2006": 4381,
  "Ġ2007": 3937,
  "Ġ2008": 3120,
  "Ġ2009": 3182,
  "Ġ201": 586,
  "Ġ2010": 2693,
  "Ġ2011": 2569,
  "Ġ2012": 2207,
  "Ġ2013": 2135,
  "Ġ2014": 1935,
  "Ġ2015": 1877,
  "Ġ2016": 1806,
  "Ġ2017": 2255,
  "Ġ2018": 4846,
  "Ġ2019": 8507,
  "Ġ202": 30114,
  "Ġ2020": 8998,
  "Ġ2021": 28039,
  "Ġ2022": 26191,
  "Ġ2025": 26002,
  "Ġ2030": 19790,
  "Ġ205": 29400,
  "Ġ2050": 25055,
  "Ġ21": 2863,
  "Ġ210": 26394,
  "Ġ215": 26105,
  "Ġ22": 2902,
  "Ġ220": 21086,
  "Ġ225": 26685,
  "Ġ23": 3011,
  "Ġ230": 23074,
  "Ġ24": 2482,
  "Ġ240": 20177,
  "Ġ25": 2278,
  "Ġ250": 9715,
  "Ġ255": 29941,
  "Ġ256": 23588,
  "Ġ26": 3351,
  "Ġ260": 26993,
  "Ġ27": 3272,
  "Ġ270": 26426,
  "Ġ28": 3268,
  "Ġ280": 28353,
  "Ġ29": 3700,
  "Ġ3": 637,
  "Ġ30": 1835,
  "Ġ300": 6244,
  "Ġ3000": 24428,
  "Ġ31": 4378,
  "Ġ32": 5041,
  "Ġ320": 26608,
  "Ġ33": 6233,
  "Ġ330": 29712,
  "Ġ34": 6603,
  "Ġ35": 4417,
  "Ġ350": 15106,
  "Ġ36": 5444,
  "Ġ360": 11366,
  "Ġ365": 26422,
  "Ġ37": 6274,
  "Ġ38": 6212,
  "Ġ39": 7071,
  "Ġ4": 741,
  "Ġ40": 2777,
  "Ġ400": 7653,
  "Ġ401": 29100,
  "Ġ41": 7965,
  "Ġ42": 7218,
  "Ġ43": 8047,
  "Ġ44": 7784,
  "Ġ45": 5083,
  "Ġ450": 21109,
  "Ġ46": 8169,
  "Ġ47": 7845,
  "Ġ48": 6363,
  "Ġ480": 31386,
  "Ġ49": 6510,
  "Ġ5": 783,
  "Ġ50": 2373,
  "Ġ500": 5486,
  "Ġ5000": 29388,
  "Ġ501": 30693,
  "Ġ51": 8782,
  "Ġ512": 27187,
  "Ġ52": 8584,
  "Ġ53": 9378,
  "Ġ54": 9644,
  "Ġ55": 7425,
  "Ġ550": 29433,
  "Ġ56": 9896,
  "Ġ57": 10270,
  "Ġ58": 10290,
  "Ġ59": 9998,
  "Ġ6": 944,
  "Ġ60": 3541,
  "Ġ600": 10423,
  "Ġ61": 11482,
  "Ġ62": 10859,
  "Ġ63": 11147,
  "Ġ64": 7547,
  "Ġ65": 7507,
  "Ġ650": 25837,
  "Ġ66": 10937,
  "Ġ67": 11513,
  "Ġ68": 11534,
  "Ġ69": 12427,
  "Ġ7": 1060,
  "Ġ70": 4641,
  "Ġ700": 12666,
  "Ġ71": 12969,
  "Ġ72": 10639,
  "Ġ720": 30778,
  "Ġ73": 12702,
  "Ġ74": 12748,
  "Ġ75": 6738,
  "Ġ750": 22117,
  "Ġ76": 11995,
  "Ġ77": 12520,
  "Ġ78": 12973,
  "Ġ79": 13790,
  "Ġ8": 1118,
  "Ġ80": 4296,
  "Ġ800": 10681,
  "Ġ81": 14139,
  "Ġ82": 13034,
  "Ġ83": 14367,
  "Ġ84": 14294,
  "Ġ85": 10315,
  "Ġ86": 14451,
  "Ġ87": 14673,
  "Ġ88": 13400,
  "Ġ89": 15214,
  "Ġ9": 1152,
  "Ġ90": 4445,
  "Ġ900": 16683,
  "Ġ91": 15532,
  "Ġ911": 14734,
  "Ġ92": 14949,
  "Ġ93": 14812,
  "Ġ94": 15586,
  "Ġ95": 9298,
  "Ġ96": 14459,
  "Ġ97": 14936,
  "Ġ978": 28600,
  "Ġ98": 14126,
  "Ġ99": 9219,
  "Ġ:": 2073,
  "Ġ:)": 16371,
  "Ġ::": 13362,
  "Ġ:=": 25554,
  "Ġ;": 4135,
  "Ġ<": 2678,
  "Ġ<-": 27110,
  "Ġ</": 11175,
  "Ġ<<": 22164,
  "Ġ=": 1393,
  "Ġ==": 11589,
  "Ġ=>": 5118,
  "Ġ>": 3528,
  "Ġ>>": 14619,
  "Ġ>>>": 19768,
  "Ġ?": 8885,
  "Ġ@": 2797,
  "ĠA": 330,
  "ĠAA": 19884,
  "ĠAAA": 23771,
  "ĠAAP": 24429,
  "ĠAB": 13682,
  "ĠABC": 8114,
  "ĠAC": 8917,
  "ĠACA": 23369,
  "ĠACC": 17381,
  "ĠACL": 14240,
  "ĠACLU": 18112,
  "ĠACT": 23854,
  "ĠAD": 7645,
  "ĠADHD": 27851,
  "ĠAF": 17796,
  "ĠAFC": 22171,
  "ĠAFL": 18153,
  "ĠAFP": 11570,
  "ĠAG": 16064,
  "ĠAH": 31890,
  "ĠAHL": 24277,
  "ĠAI": 8931,
  "ĠAIDS": 18477,
  "ĠAJ": 26329,
  "ĠAK": 17181,
  "ĠAL": 6654,
  "ĠALL": 14849,
  "ĠAM": 4402,
  "ĠAMA": 31720,
  "ĠAMC": 27552,
  "ĠAMD": 13554,
  "ĠAN": 5378,
  "ĠAND": 8263,
  "ĠANY": 23915,
  "ĠAP": 4018,
  "ĠAPI": 8443,
  "ĠAPIs": 20541,
  "ĠAR": 7369,
  "ĠARE": 19674,
  "ĠARM": 21287,
  "ĠAS": 7907,
  "ĠAT": 6010,
  "ĠATM": 28379,
  "ĠAU": 23805,
  "ĠAV": 20346,
  "ĠAW": 23536,
  "ĠAWS": 21904,
  "ĠAZ": 28257,
  "ĠAad": 28432,
  "ĠAaron": 10643,
  "ĠAb": 2368,
  "ĠAbb": 8941,
  "ĠAbbas": 21189,
  "ĠAbbey": 28630,
  "ĠAbbott": 12314,
  "ĠAbd": 11508,
  "ĠAbdel": 27529,
  "ĠAbdu": 18616,
  "ĠAbdul": 18265,
  "ĠAbdullah": 19951,
  "ĠAbe": 20982,
  "ĠAber": 23888,
  "ĠAboriginal": 24898,
  "ĠAbout": 8053,
  "ĠAbove": 24492,
  "ĠAbr": 18069,
  "ĠAbraham": 16963,
  "ĠAbrams": 25994,
  "ĠAbs": 15577,
  "ĠAbsolutely": 24976,
  "ĠAbstract": 25822,
  "ĠAbu": 11363,
  "ĠAbuse": 26640,
  "ĠAby": 31854,
  "ĠAc": 4695,
  "ĠAcadem": 7134,
  "ĠAcademy": 7853,
  "ĠAcc": 8632,
  "ĠAccept": 29806,
  "ĠAccess": 10231,
  "ĠAccording": 4093,
  "ĠAccount": 14755,
  "ĠAccountability": 30701,
  "ĠAce": 22589,
  "ĠAch": 24749,
  "ĠAchie": 28171,
  "ĠAcross": 27097,
  "ĠAct": 2733,
  "ĠAction": 8405,
  "ĠActiv": 16391,
  "ĠActive": 20808,
  "ĠActivity": 31975,
  "ĠActor": 24830,
  "ĠActually": 18126,
  "ĠAd": 1470,
  "ĠAdam": 7215,
  "ĠAdams": 10753,
  "ĠAdd": 4316,
  "ĠAdded": 16697,
  "ĠAdding": 27290,
  "ĠAdditional": 21486,
  "ĠAdditionally": 11957,
  "ĠAddress": 24918,
  "ĠAdelaide": 20596,
  "ĠAdminist": 6939,
  "ĠAdministration": 7943,
  "ĠAdministrator": 30384,
  "ĠAdmir": 21407,
  "ĠAdmiral": 24494,
  "ĠAdobe": 20868,
  "ĠAdolf": 29142,
  "ĠAdrian": 18363,
  "ĠAdult": 26678,
  "ĠAdv": 8783,
  "ĠAdvance": 27583,
  "ĠAdvanced": 16710,
  "ĠAdvent": 13182,
  "ĠAdventure": 19009,
  "ĠAdventures": 26734,
  "ĠAdvertisement": 26335,
  "ĠAdvis": 19505,
  "ĠAdvisory": 23863,
  "ĠAdvoc": 31565,
  "ĠAer": 17434,
  "ĠAf": 2018,
  "ĠAff": 6192,
  "ĠAffairs": 9624,
  "ĠAffordable": 15409,
  "ĠAfgh": 30710,
  "ĠAfghan": 4698,
  "ĠAfghanistan": 5786,
  "ĠAfric": 2855,
  "ĠAfrica": 4708,
  "ĠAfrican": 4726,
  "ĠAfricans": 23622,
  "ĠAfter": 2388,
  "ĠAg": 2852,
  "ĠAgain": 6690,
  "ĠAgainst": 12320,
  "ĠAge": 9076,
  "ĠAgency": 6916,
  "ĠAgent": 18080,
  "ĠAgents": 30253,
  "ĠAges": 24158,
  "ĠAgg": 24258,
  "ĠAgr": 14485,
  "ĠAgree": 13962,
  "ĠAgreement": 15466,
  "ĠAgricult": 15462,
  "ĠAgriculture": 18425,
  "ĠAgu": 25993,
  "ĠAh": 7623,
  "ĠAhmad": 16880,
  "ĠAhmed": 16176,
  "ĠAid": 22922,
  "ĠAir": 3697,
  "ĠAirbnb": 28426,
  "ĠAirlines": 16206,
  "ĠAirport": 11470,
  "ĠAj": 18689,
  "ĠAk": 9631,
  "ĠAl": 1104,
  "ĠAlabama": 7795,
  "ĠAlan": 10345,
  "ĠAlaska": 11067,
  "ĠAlb": 15755,
  "ĠAlban": 22594,
  "ĠAlbany": 25171,
  "ĠAlbert": 8524,
  "ĠAlberta": 12658,
  "ĠAlbum": 23840,
  "ĠAlbuquerque": 31012,
  "ĠAlcohol": 25829,
  "ĠAld": 14497,
  "ĠAle": 8642,
  "ĠAleppo": 16086,
  "ĠAlert": 29683,
  "ĠAlex": 4092,
  "ĠAlexa": 28708,
  "ĠAlexand": 16467,
  "ĠAlexander": 9088,
  "ĠAlexandria": 26139,
  "ĠAlexis": 25711,
  "ĠAlf": 14102,
  "ĠAlfred": 19315,
  "ĠAlger": 20983,
  "ĠAlgeria": 29548,
  "ĠAli": 7698,
  "ĠAlice": 15492,
  "ĠAlien": 21015,
  "ĠAlison": 29737,
  "ĠAlive": 31048,
  "ĠAll": 1621,
  "ĠAllah": 16203,
  "ĠAllan": 26729,
  "ĠAlleg": 24068,
  "ĠAllen": 8379,
  "ĠAlliance": 10557,
  "ĠAllied": 23633,
  "ĠAllies": 31129,
  "ĠAllison": 28251,
  "ĠAllow": 29993,
  "ĠAlmost": 15609,
  "ĠAlong": 15498,
  "ĠAlonso": 26358,
  "ĠAlp": 10791,
  "ĠAlpha": 16097,
  "ĠAlready": 25603,
  "ĠAlso": 5068,
  "ĠAlt": 13044,
  "ĠAltern": 14952,
  "ĠAlternative": 25551,
  "ĠAlternatively": 30675,
  "ĠAlthough": 4959,
  "ĠAlto": 31079,
  "ĠAlv": 23872,
  "ĠAlvarez": 28808,
  "ĠAlways": 20035,
  "ĠAlz": 18473,
  "ĠAlzheimer": 19104,
  "ĠAm": 1907,
  "ĠAmanda": 21622,
  "ĠAmazing": 26460,
  "ĠAmazon": 5295,
  "ĠAmb": 12067,
  "ĠAmbassador": 17706,
  "ĠAmber": 25649,
  "ĠAmendment": 7768,
  "ĠAmer": 29988,
  "ĠAmeric": 884,
  "ĠAmerica": 1902,
  "ĠAmerican": 1373,
  "ĠAmericans": 2726,
  "ĠAmericas": 22060,
  "ĠAmnesty": 22852,
  "ĠAmong": 9310,
  "ĠAmsterdam": 21445,
  "ĠAmy": 14266,
  "ĠAn": 1230,
  "ĠAna": 16652,
  "ĠAnaheim": 23866,
  "ĠAnaly": 16208,
  "ĠAnalysis": 17583,
  "ĠAnalytics": 28066,
  "ĠAnat": 27077,
  "ĠAnch": 28266,
  "ĠAncient": 21118,
  "ĠAnd": 799,
  "ĠAnders": 21323,
  "ĠAnderson": 8625,
  "ĠAndre": 9877,
  "ĠAndrea": 20592,
  "ĠAndreas": 29887,
  "ĠAndrew": 5832,
  "ĠAndrews": 22335,
  "ĠAndroid": 4886,
  "ĠAndy": 10675,
  "ĠAnfield": 31336,
  "ĠAng": 2906,
  "ĠAngel": 3811,
  "ĠAngela": 15796,
  "ĠAngeles": 4770,
  "ĠAngels": 19806,
  "ĠAnglo": 22114,
  "ĠAngular": 21562,
  "ĠAnim": 13693,
  "ĠAnimal": 15712,
  "ĠAnimals": 26297,
  "ĠAnimation": 27212,
  "ĠAnkara": 22279,
  "ĠAnn": 6465,
  "ĠAnna": 10323,
  "ĠAnne": 13758,
  "ĠAnnie": 26713,
  "ĠAnniversary": 26797,
  "ĠAnnual": 20143,
  "ĠAnonymous": 17977,
  "ĠAnother": 6277,
  "ĠAns": 22395,
  "ĠAnt": 3954,
  "ĠAntar": 16104,
  "ĠAntarctic": 25368,
  "ĠAntarctica": 23914,
  "ĠAnth": 7554,
  "ĠAnthony": 8394,
  "ĠAnti": 12701,
  "ĠAnton": 8266,
  "ĠAntonio": 10245,
  "ĠAny": 5360,
  "ĠAnyone": 16442,
  "ĠAnything": 21164,
  "ĠAnyway": 23606,
  "ĠAp": 8679,
  "ĠApache": 22249,
  "ĠApart": 21069,
  "ĠApollo": 18590,
  "ĠApost": 27637,
  "ĠApp": 2234,
  "ĠAppalach": 29862,
  "ĠApparently": 17245,
  "ĠAppeal": 29684,
  "ĠAppeals": 18847,
  "ĠApple": 3552,
  "ĠApplication": 22858,
  "ĠApplications": 31640,
  "ĠAppro": 18855,
  "ĠApps": 25547,
  "ĠApr": 18262,
  "ĠApril": 2677,
  "ĠAqu": 14333,
  "ĠAr": 1050,
  "ĠArab": 3797,
  "ĠArabia": 8126,
  "ĠArabian": 26943,
  "ĠArabic": 14938,
  "ĠArabs": 18801,
  "ĠArbor": 30901,
  "ĠArc": 15546,
  "ĠArcade": 30855,
  "ĠArch": 6814,
  "ĠArchae": 30190,
  "ĠArchbishop": 28824,
  "ĠArcher": 27152,
  "ĠArchitect": 17407,
  "ĠArchitecture": 28384,
  "ĠArchive": 23427,
  "ĠArchives": 22823,
  "ĠArctic": 12467,
  "ĠArduino": 28856,
  "ĠAre": 4661,
  "ĠArea": 10511,
  "ĠAren": 10706,
  "ĠArena": 12052,
  "ĠArg": 24476,
  "ĠArgent": 10349,
  "ĠArgentina": 13568,
  "ĠArgentine": 26714,
  "ĠAri": 5287,
  "ĠArist": 23407,
  "ĠArizona": 6630,
  "ĠArk": 9627,
  "ĠArkansas": 13006,
  "ĠArlington": 24838,
  "ĠArm": 8004,
  "ĠArmed": 16242,
  "ĠArmen": 13683,
  "ĠArmenia": 26039,
  "ĠArmenian": 21925,
  "ĠArmor": 27642,
  "ĠArms": 23573,
  "ĠArmstrong": 17570,
  "ĠArmy": 4919,
  "ĠArn": 14612,
  "ĠArnold": 18028,
  "ĠAround": 16140,
  "ĠArray": 24087,
  "ĠArri": 29845,
  "ĠArrow": 20726,
  "ĠArs": 21543,
  "ĠArsenal": 10538,
  "ĠArt": 4518,
  "ĠArthur": 13551,
  "ĠArticle": 12554,
  "ĠArticles": 23506,
  "ĠArtist": 23289,
  "ĠArts": 11913,
  "ĠAs": 1108,
  "ĠAsh": 7779,
  "ĠAshe": 30350,
  "ĠAshley": 18696,
  "ĠAshton": 31256,
  "ĠAsia": 6278,
  "ĠAsian": 7084,
  "ĠAsians": 27834,
  "ĠAside": 25339,
  "ĠAsk": 18145,
  "ĠAsked": 23417,
  "ĠAss": 2296,
  "ĠAssad": 9884,
  "ĠAssange": 15900,
  "ĠAssass": 23389,
  "ĠAssassin": 29984,
  "ĠAssault": 26006,
  "ĠAssembly": 9745,
  "ĠAssessment": 28735,
  "ĠAssistance": 28176,
  "ĠAssistant": 15193,
  "ĠAssoci": 3558,
  "ĠAssociate": 26528,
  "ĠAssociated": 9058,
  "ĠAssociates": 27682,
  "ĠAssociation": 4721,
  "ĠAssuming": 31958,
  "ĠAst": 9101,
  "ĠAston": 25445,
  "ĠAstron": 23518,
  "ĠAstros": 23470,
  "ĠAt": 1636,
  "ĠAth": 12943,
  "ĠAthe": 25253,
  "ĠAthens": 18385,
  "ĠAthlet": 15931,
  "ĠAthletic": 23656,
  "ĠAthletics": 28835,
  "ĠAtlant": 5109,
  "ĠAtlanta": 7956,
  "ĠAtlantic": 8916,
  "ĠAtlas": 21767,
  "ĠAtmosp": 30062,
  "ĠAtomic": 29989,
  "ĠAtt": 4501,
  "ĠAttack": 14878,
  "ĠAttorney": 7155,
  "ĠAub": 16823,
  "ĠAuburn": 19827,
  "ĠAuckland": 24850,
  "ĠAud": 8973,
  "ĠAudi": 23076,
  "ĠAudio": 19769,
  "ĠAug": 2505,
  "ĠAugust": 2917,
  "ĠAur": 18845,
  "ĠAurora": 23870,
  "ĠAust": 2117,
  "ĠAustin": 8453,
  "ĠAustral": 2640,
  "ĠAustralia": 3784,
  "ĠAustralian": 5441,
  "ĠAustralians": 18498,
  "ĠAustria": 14968,
  "ĠAustrian": 19945,
  "ĠAut": 6581,
  "ĠAuthor": 7236,
  "ĠAuthorities": 26606,
  "ĠAuthority": 10286,
  "ĠAuto": 14526,
  "ĠAutom": 19375,
  "ĠAv": 6023,
  "ĠAvailable": 22931,
  "ĠAval": 25332,
  "ĠAvatar": 29713,
  "ĠAve": 13697,
  "ĠAven": 15894,
  "ĠAvengers": 19313,
  "ĠAvenue": 7538,
  "ĠAverage": 19355,
  "ĠAvery": 26871,
  "ĠAviation": 23548,
  "ĠAviv": 21907,
  "ĠAvoid": 28810,
  "ĠAw": 12905,
  "ĠAward": 9152,
  "ĠAwards": 12412,
  "ĠAway": 25506,
  "ĠAwesome": 30791,
  "ĠAx": 15181,
  "ĠAy": 12144,
  "ĠAz": 9755,
  "ĠAzer": 22112,
  "ĠAzerbai": 24556,
  "ĠAzerbaijan": 27775,
  "ĠAzure": 24479,
  "ĠB": 353,
  "ĠBA": 20804,
  "ĠBB": 13769,
  "ĠBBC": 5658,
  "ĠBC": 11102,
  "ĠBCE": 30233,
  "ĠBDS": 30153,
  "ĠBE": 12273,
  "ĠBEL": 30199,
  "ĠBI": 27275,
  "ĠBIG": 30338,
  "ĠBJP": 13559,
  "ĠBL": 13627,
  "ĠBM": 10187,
  "ĠBMI": 30769,
  "ĠBMW": 17033,
  "ĠBO": 17938,
  "ĠBP": 14824,
  "ĠBR": 15362,
  "ĠBS": 26765,
  "ĠBT": 21141,
  "ĠBTC": 21255,
  "ĠBU": 26942,
  "ĠBUT": 28943,
  "ĠBY": 13580,
  "ĠBYU": 31214,
  "ĠBa": 8898,
  "ĠBab": 12014,
  "ĠBaby": 16809,
  "ĠBabylon": 31421,
  "ĠBach": 18107,
  "ĠBachmann": 27664,
  "ĠBack": 5999,
  "ĠBacon": 28479,
  "ĠBad": 8802,
  "ĠBag": 22392,
  "ĠBaghd": 15097,
  "ĠBaghdad": 15967,
  "ĠBah": 11774,
  "ĠBahrain": 20462,
  "ĠBailey": 18600,
  "ĠBain": 26069,
  "ĠBak": 16848,
  "ĠBaker": 12120,
  "ĠBal": 9986,
  "ĠBald": 16542,
  "ĠBaldwin": 21113,
  "ĠBalk": 24466,
  "ĠBall": 8568,
  "ĠBalt": 7652,
  "ĠBaltic": 26776,
  "ĠBaltimore": 8648,
  "ĠBan": 10724,
  "ĠBand": 10826,
  "ĠBang": 8743,
  "ĠBangkok": 28610,
  "ĠBangl": 14575,
  "ĠBangladesh": 16061,
  "ĠBank": 4480,
  "ĠBanks": 17096,
  "ĠBanner": 31934,
  "ĠBannon": 15303,
  "ĠBapt": 17113,
  "ĠBaptist": 19134,
  "ĠBar": 2077,
  "ĠBarack": 6223,
  "ĠBarb": 10494,
  "ĠBarbara": 14804,
  "ĠBarber": 29429,
  "ĠBarcelona": 12182,
  "ĠBarcl": 24301,
  "ĠBarclays": 29278,
  "ĠBard": 29234,
  "ĠBark": 18361,
  "ĠBarn": 16345,
  "ĠBarnes": 18223,
  "ĠBarnett": 30191,
  "ĠBaron": 23735,
  "ĠBarr": 25014,
  "ĠBarrett": 21397,
  "ĠBarry": 12722,
  "ĠBart": 12718,
  "ĠBarton": 27490,
  "ĠBas": 7279,
  "ĠBase": 9284,
  "ĠBaseball": 15616,
  "ĠBased": 13970,
  "ĠBash": 13437,
  "ĠBashar": 18276,
  "ĠBasic": 19815,
  "ĠBasically": 19567,
  "ĠBasin": 28453,
  "ĠBasketball": 25080,
  "ĠBass": 21336,
  "ĠBast": 22000,
  "ĠBat": 6165,
  "ĠBates": 29119,
  "ĠBath": 23889,
  "ĠBatman": 9929,
  "ĠBatt": 17054,
  "ĠBattalion": 29738,
  "ĠBattery": 28363,
  "ĠBattle": 8223,
  "ĠBattlefield": 29972,
  "ĠBav": 30168,
  "ĠBay": 4022,
  "ĠBayern": 21492,
  "ĠBaylor": 23045,
  "ĠBe": 1460,
  "ĠBeach": 8189,
  "ĠBeacon": 27238,
  "ĠBean": 26181,
  "ĠBear": 15690,
  "ĠBears": 12923,
  "ĠBeast": 14861,
  "ĠBeat": 12117,
  "ĠBeatles": 20935,
  "ĠBeau": 28183,
  "ĠBeaut": 16538,
  "ĠBeautiful": 26950,
  "ĠBeauty": 24659,
  "ĠBec": 18362,
  "ĠBecause": 4257,
  "ĠBeck": 9271,
  "ĠBeckham": 28622,
  "ĠBecome": 29858,
  "ĠBed": 15373,
  "ĠBee": 23472,
  "ĠBeer": 15786,
  "ĠBefore": 7669,
  "ĠBeg": 29654,
  "ĠBegin": 19369,
  "ĠBeginning": 29469,
  "ĠBeh": 12503,
  "ĠBehavior": 27082,
  "ĠBehind": 20732,
  "ĠBeijing": 9167,
  "ĠBeing": 11273,
  "ĠBeir": 29029,
  "ĠBeirut": 30220,
  "ĠBel": 3754,
  "ĠBelarus": 26602,
  "ĠBelfast": 22569,
  "ĠBelg": 9403,
  "ĠBelgian": 17068,
  "ĠBelgium": 13541,
  "ĠBelieve": 30438,
  "ĠBell": 7091,
  "ĠBelle": 30680,
  "ĠBelow": 10152,
  "ĠBelt": 16141,
  "ĠBen": 3698,
  "ĠBend": 23621,
  "ĠBened": 21404,
  "ĠBenedict": 23372,
  "ĠBenef": 25133,
  "ĠBeng": 12429,
  "ĠBengal": 21092,
  "ĠBengals": 20964,
  "ĠBenghazi": 17045,
  "ĠBenjamin": 12441,
  "ĠBenn": 12111,
  "ĠBennett": 14588,
  "ĠBenson": 28450,
  "ĠBent": 17690,
  "ĠBentley": 31018,
  "ĠBer": 3910,
  "ĠBerg": 18423,
  "ĠBerger": 26643,
  "ĠBerkeley": 11969,
  "ĠBerlin": 9558,
  "ĠBern": 5075,
  "ĠBernanke": 31158,
  "ĠBernard": 13851,
  "ĠBernardino": 28831,
  "ĠBernie": 8208,
  "ĠBernstein": 31070,
  "ĠBerry": 21567,
  "ĠBert": 21178,
  "ĠBes": 26813,
  "ĠBesides": 16707,
  "ĠBest": 6913,
  "ĠBet": 6176,
  "ĠBeta": 20079,
  "ĠBeth": 18152,
  "ĠBetter": 14648,
  "ĠBetty": 27155,
  "ĠBetween": 13999,
  "ĠBever": 19286,
  "ĠBeverly": 24985,
  "ĠBeyon": 30317,
  "ĠBeyond": 14632,
  "ĠBh": 13410,
  "ĠBhar": 26968,
  "ĠBi": 10041,
  "ĠBible": 9144,
  "ĠBiblical": 31053,
  "ĠBiden": 15184,
  "ĠBie": 24745,
  "ĠBig": 4369,
  "ĠBike": 25375,
  "ĠBil": 21933,
  "ĠBill": 3408,
  "ĠBillboard": 22984,
  "ĠBillion": 31596,
  "ĠBills": 17401,
  "ĠBilly": 14539,
  "ĠBin": 18670,
  "ĠBing": 25388,
  "ĠBio": 19908,
  "ĠBiology": 27336,
  "ĠBir": 11311,
  "ĠBird": 15230,
  "ĠBirds": 29068,
  "ĠBirmingham": 15453,
  "ĠBirth": 20919,
  "ĠBishop": 15076,
  "ĠBit": 4243,
  "ĠBitcoin": 5312,
  "ĠBitcoins": 28174,
  "ĠBj": 28874,
  "ĠBl": 1293,
  "ĠBlack": 3037,
  "ĠBlackBerry": 21412,
  "ĠBlackhawks": 27701,
  "ĠBlacks": 24365,
  "ĠBlade": 21519,
  "ĠBlair": 14414,
  "ĠBlake": 11854,
  "ĠBlank": 29784,
  "ĠBlasio": 26187,
  "ĠBlazers": 30434,
  "ĠBle": 21506,
  "ĠBless": 29266,
  "ĠBlind": 27743,
  "ĠBlizzard": 20738,
  "ĠBlock": 11861,
  "ĠBlockchain": 24562,
  "ĠBlocked": 22853,
  "ĠBlog": 12405,
  "ĠBlood": 11320,
  "ĠBloom": 9419,
  "ĠBloomberg": 12319,
  "ĠBlu": 11758,
  "ĠBlue": 6206,
  "ĠBlues": 13727,
  "ĠBluetooth": 19282,
  "ĠBlvd": 31264,
  "ĠBo": 3536,
  "ĠBoard": 6210,
  "ĠBoat": 31393,
  "ĠBob": 6318,
  "ĠBobby": 14862,
  "ĠBod": 26829,
  "ĠBody": 17286,
  "ĠBoe": 9875,
  "ĠBoehner": 16354,
  "ĠBoeing": 16019,
  "ĠBog": 21458,
  "ĠBoise": 31118,
  "ĠBoko": 30262,
  "ĠBol": 10389,
  "ĠBold": 26830,
  "ĠBolivia": 31532,
  "ĠBolshe": 28738,
  "ĠBolt": 24617,
  "ĠBolton": 28427,
  "ĠBom": 22692,
  "ĠBomb": 16957,
  "ĠBon": 9171,
  "ĠBond": 13720,
  "ĠBonus": 30099,
  "ĠBoo": 31760,
  "ĠBook": 5613,
  "ĠBooker": 24347,
  "ĠBooks": 13506,
  "ĠBoom": 31883,
  "ĠBoost": 28259,
  "ĠBoot": 22175,
  "ĠBooth": 30447,
  "ĠBor": 11083,
  "ĠBorder": 15151,
  "ĠBorders": 31278,
  "ĠBorg": 30928,
  "ĠBoris": 22089,
  "ĠBorn": 21142,
  "ĠBos": 13350,
  "ĠBosnia": 28424,
  "ĠBoss": 21003,
  "ĠBoston": 5286,
  "ĠBot": 19222,
  "ĠBoth": 5515,
  "ĠBottom": 28260,
  "ĠBou": 12934,
  "ĠBoulder": 24313,
  "ĠBoulevard": 19266,
  "ĠBour": 18747,
  "ĠBow": 10223,
  "ĠBowie": 26563,
  "ĠBowl": 7337,
  "ĠBowman": 31454,
  "ĠBox": 10081,
  "ĠBoy": 6401,
  "ĠBoyd": 23907,
  "ĠBoyle": 29587,
  "ĠBoys": 16914,
  "ĠBr": 1782,
  "ĠBra": 9450,
  "ĠBrad": 6804,
  "ĠBradford": 22816,
  "ĠBradley": 13334,
  "ĠBrady": 12742,
  "ĠBrain": 17450,
  "ĠBranch": 20566,
  "ĠBrand": 13259,
  "ĠBrandon": 12466,
  "ĠBrat": 30856,
  "ĠBraves": 22382,
  "ĠBrazil": 6158,
  "ĠBrazilian": 13455,
  "ĠBre": 4019,
  "ĠBreak": 15263,
  "ĠBreaking": 21494,
  "ĠBreitbart": 14683,
  "ĠBren": 17276,
  "ĠBrend": 16215,
  "ĠBrendan": 20310,
  "ĠBrennan": 20499,
  "ĠBrent": 19287,
  "ĠBrett": 17692,
  "ĠBrew": 8377,
  "ĠBrewer": 30588,
  "ĠBrewers": 27403,
  "ĠBrewery": 25666,
  "ĠBrewing": 15408,
  "ĠBrexit": 9621,
  "ĠBri": 25595,
  "ĠBrian": 7210,
  "ĠBrid": 28500,
  "ĠBridge": 9216,
  "ĠBrief": 22386,
  "ĠBrig": 16044,
  "ĠBrigade": 23278,
  "ĠBright": 17186,
  "ĠBrighton": 28041,
  "ĠBring": 26572,
  "ĠBris": 20163,
  "ĠBrisbane": 21228,
  "ĠBristol": 20450,
  "ĠBrit": 2020,
  "ĠBritain": 4586,
  "ĠBritish": 2956,
  "ĠBritt": 27281,
  "ĠBro": 1939,
  "ĠBroad": 8704,
  "ĠBroadcasting": 26437,
  "ĠBroadway": 15827,
  "ĠBrock": 19390,
  "ĠBrom": 25890,
  "ĠBron": 8940,
  "ĠBroncos": 13776,
  "ĠBronx": 24438,
  "ĠBronze": 30482,
  "ĠBrook": 6421,
  "ĠBrooklyn": 10242,
  "ĠBrooks": 14223,
  "ĠBros": 13602,
  "ĠBrother": 8306,
  "ĠBrotherhood": 16049,
  "ĠBrothers": 14757,
  "ĠBrow": 21469,
  "ĠBrown": 3893,
  "ĠBrowns": 14951,
  "ĠBru": 7242,
  "ĠBruce": 9602,
  "ĠBruins": 20518,
  "ĠBrun": 14188,
  "ĠBruno": 27901,
  "ĠBrunswick": 26999,
  "ĠBrus": 12096,
  "ĠBrussels": 12572,
  "ĠBry": 7994,
  "ĠBryan": 14873,
  "ĠBryant": 14624,
  "ĠBu": 10569,
  "ĠBub": 25526,
  "ĠBuc": 19622,
  "ĠBucc": 28193,
  "ĠBuccane": 30300,
  "ĠBuccaneers": 31789,
  "ĠBuch": 19709,
  "ĠBuchanan": 29422,
  "ĠBuck": 12530,
  "ĠBuckley": 31969,
  "ĠBucks": 26462,
  "ĠBud": 9552,
  "ĠBudd": 8501,
  "ĠBuddh": 18375,
  "ĠBuddha": 21105,
  "ĠBuddhism": 22377,
  "ĠBuddhist": 18148,
  "ĠBudget": 13882,
  "ĠBuff": 8844,
  "ĠBuffalo": 12663,
  "ĠBuffett": 28155,
  "ĠBug": 23440,
  "ĠBuild": 14220,
  "ĠBuilding": 12340,
  "ĠBul": 10448,
  "ĠBulgar": 23002,
  "ĠBulgaria": 24622,
  "ĠBull": 7496,
  "ĠBulldogs": 28635,
  "ĠBullet": 25186,
  "ĠBulls": 13681,
  "ĠBun": 20876,
  "ĠBund": 12927,
  "ĠBundes": 24543,
  "ĠBundesliga": 30919,
  "ĠBundy": 29211,
  "ĠBur": 5282,
  "ĠBureau": 9001,
  "ĠBurg": 20316,
  "ĠBurger": 23747,
  "ĠBurke": 18814,
  "ĠBurlington": 31147,
  "ĠBurn": 10369,
  "ĠBurning": 27862,
  "ĠBurns": 19835,
  "ĠBurr": 30933,
  "ĠBurton": 21770,
  "ĠBus": 14399,
  "ĠBush": 4170,
  "ĠBusiness": 7499,
  "ĠBut": 824,
  "ĠButler": 14879,
  "ĠButter": 22999,
  "ĠButton": 29295,
  "ĠBuy": 13453,
  "ĠBuzz": 14229,
  "ĠBuzzFeed": 21065,
  "ĠBy": 2807,
  "ĠByrne": 29922,
  "ĠByron": 29362,
  "ĠByz": 31123,
  "ĠC": 335,
  "ĠCA": 8762,
  "ĠCAN": 19153,
  "ĠCAP": 22039,
  "ĠCAR": 24226,
  "ĠCB": 10426,
  "ĠCBC": 15369,
  "ĠCBD": 24217,
  "ĠCBO": 28509,
  "ĠCBS": 8621,
  "ĠCC": 11082,
  "ĠCCTV": 27707,
  "ĠCD": 7031,
  "ĠCDC": 18042,
  "ĠCDs": 31751,
  "ĠCE": 21497,
  "ĠCEO": 4799,
  "ĠCEOs": 24759,
  "ĠCF": 19259,
  "ĠCFL": 30607,
  "ĠCG": 31795,
  "ĠCH": 8829,
  "ĠCI": 18585,
  "ĠCIA": 6533,
  "ĠCITY": 28480,
  "ĠCJ": 28551,
  "ĠCL": 11488,
  "ĠCM": 14893,
  "ĠCNBC": 25486,
  "ĠCNN": 6137,
  "ĠCO": 8234,
  "ĠCOL": 29373,
  "ĠCOM": 15102,
  "ĠCON": 10835,
  "ĠCONT": 22051,
  "ĠCOP": 30647,
  "ĠCOU": 23041,
  "ĠCP": 17162,
  "ĠCPS": 30207,
  "ĠCPU": 10922,
  "ĠCR": 11500,
  "ĠCRE": 31696,
  "ĠCS": 9841,
  "ĠCSS": 15087,
  "ĠCT": 16221,
  "ĠCU": 29689,
  "ĠCV": 23533,
  "ĠCW": 22292,
  "ĠCa": 12465,
  "ĠCab": 15298,
  "ĠCabinet": 15968,
  "ĠCable": 19340,
  "ĠCad": 20142,
  "ĠCaesar": 24497,
  "ĠCaf": 31796,
  "ĠCafe": 25933,
  "ĠCage": 24716,
  "ĠCain": 23108,
  "ĠCairo": 17914,
  "ĠCal": 2086,
  "ĠCald": 25720,
  "ĠCalder": 27134,
  "ĠCaldwell": 30185,
  "ĠCalgary": 14150,
  "ĠCalif": 2776,
  "ĠCaliforn": 28327,
  "ĠCalifornia": 2993,
  "ĠCall": 7659,
  "ĠCaller": 26507,
  "ĠCalvin": 22861,
  "ĠCam": 7065,
  "ĠCamb": 18009,
  "ĠCambod": 20974,
  "ĠCambodia": 25533,
  "ĠCambridge": 13036,
  "ĠCamer": 6858,
  "ĠCamera": 22762,
  "ĠCameron": 8279,
  "ĠCamp": 5266,
  "ĠCampaign": 12657,
  "ĠCampbell": 11966,
  "ĠCampus": 25051,
  "ĠCan": 1472,
  "ĠCanad": 1966,
  "ĠCanada": 2961,
  "ĠCanadian": 4468,
  "ĠCanadians": 11041,
  "ĠCanadiens": 24974,
  "ĠCanal": 26342,
  "ĠCanberra": 27638,
  "ĠCance": 27254,
  "ĠCancer": 16902,
  "ĠCand": 16628,
  "ĠCandy": 30234,
  "ĠCann": 17984,
  "ĠCannabis": 25427,
  "ĠCannon": 25996,
  "ĠCanon": 21273,
  "ĠCant": 15705,
  "ĠCanter": 31122,
  "ĠCantor": 31841,
  "ĠCanucks": 21229,
  "ĠCanyon": 21375,
  "ĠCap": 3796,
  "ĠCapcom": 31674,
  "ĠCape": 14704,
  "ĠCapital": 9616,
  "ĠCapitals": 30603,
  "ĠCapitol": 10476,
  "ĠCaps": 31715,
  "ĠCapt": 9048,
  "ĠCaptain": 10171,
  "ĠCaption": 11225,
  "ĠCar": 1771,
  "ĠCarbon": 25150,
  "ĠCard": 6583,
  "ĠCardiff": 25381,
  "ĠCardinal": 22454,
  "ĠCardinals": 15235,
  "ĠCards": 20376,
  "ĠCare": 7429,
  "ĠCarey": 25528,
  "ĠCarib": 15720,
  "ĠCaribbean": 16408,
  "ĠCarl": 6985,
  "ĠCarlos": 14206,
  "ĠCarlson": 26775,
  "ĠCarly": 29560,
  "ĠCarn": 26106,
  "ĠCarnegie": 26920,
  "ĠCarney": 30571,
  "ĠCarol": 4539,
  "ĠCarolina": 5151,
  "ĠCaroline": 27353,
  "ĠCarp": 22898,
  "ĠCarpenter": 27287,
  "ĠCarr": 17192,
  "ĠCarrie": 28120,
  "ĠCarrier": 31391,
  "ĠCarroll": 17318,
  "ĠCars": 25599,
  "ĠCarson": 13335,
  "ĠCart": 16425,
  "ĠCarter": 9407,
  "ĠCas": 11505,
  "ĠCasc": 31639,
  "ĠCase": 10400,
  "ĠCasey": 17721,
  "ĠCash": 17233,
  "ĠCasino": 31730,
  "ĠCass": 13432,
  "ĠCast": 7234,
  "ĠCastle": 15065,
  "ĠCastro": 16667,
  "ĠCat": 7222,
  "ĠCatal": 16071,
  "ĠCatalan": 28720,
  "ĠCatalonia": 31508,
  "ĠCatch": 30526,
  "ĠCategory": 28273,
  "ĠCath": 5344,
  "ĠCathedral": 27411,
  "ĠCatherine": 20312,
  "ĠCatholic": 6523,
  "ĠCatholics": 17778,
  "ĠCats": 29035,
  "ĠCaucas": 24722,
  "ĠCaucus": 22799,
  "ĠCause": 27019,
  "ĠCav": 16311,
  "ĠCaval": 19782,
  "ĠCavaliers": 24530,
  "ĠCave": 24616,
  "ĠCavs": 30313,
  "ĠCay": 27528,
  "ĠCe": 19024,
  "ĠCec": 23800,
  "ĠCed": 23309,
  "ĠCedar": 31441,
  "ĠCel": 19291,
  "ĠCele": 19335,
  "ĠCelebr": 27640,
  "ĠCell": 16052,
  "ĠCelsius": 29010,
  "ĠCelt": 13844,
  "ĠCeltic": 22551,
  "ĠCeltics": 20327,
  "ĠCemetery": 29419,
  "ĠCensus": 19074,
  "ĠCent": 1876,
  "ĠCenter": 3114,
  "ĠCenters": 20403,
  "ĠCentral": 5176,
  "ĠCentre": 7976,
  "ĠCentury": 12461,
  "ĠCer": 21908,
  "ĠCert": 22274,
  "ĠCertain": 31439,
  "ĠCertainly": 21220,
  "ĠCh": 624,
  "ĠCha": 19290,
  "ĠChad": 16730,
  "ĠChain": 28188,
  "ĠChair": 8549,
  "ĠChairman": 10871,
  "ĠChal": 30415,
  "ĠChall": 12129,
  "ĠChallenge": 16212,
  "ĠChamber": 14746,
  "ĠChambers": 28689,
  "ĠChamp": 29087,
  "ĠChampion": 17392,
  "ĠChampions": 11327,
  "ĠChampionship": 7220,
  "ĠChampionships": 19174,
  "ĠChan": 16611,
  "ĠChance": 12464,
  "ĠChancellor": 16053,
  "ĠChand": 15584,
  "ĠChandler": 24469,
  "ĠChang": 23202,
  "ĠChange": 10770,
  "ĠChanges": 24578,
  "ĠChannel": 10295,
  "ĠChaos": 25341,
  "ĠChap": 12707,
  "ĠChapel": 29493,
  "ĠChapman": 23270,
  "ĠChapter": 15243,
  "ĠChar": 3203,
  "ĠCharacter": 23765,
  "ĠCharg": 14583,
  "ĠCharge": 26611,
  "ĠChargers": 19342,
  "ĠCharl": 5611,
  "ĠCharles": 6643,
  "ĠCharleston": 22623,
  "ĠCharlie": 9973,
  "ĠCharlotte": 13374,
  "ĠCharlottesville": 21285,
  "ĠChart": 26273,
  "ĠCharter": 21120,
  "ĠChase": 15897,
  "ĠChat": 27817,
  "ĠChavez": 23140,
  "ĠChe": 3381,
  "ĠCheck": 8541,
  "ĠCheese": 28858,
  "ĠChef": 28341,
  "ĠChelsea": 9667,
  "ĠChem": 16579,
  "ĠChemical": 24734,
  "ĠChen": 15608,
  "ĠCheney": 20749,
  "ĠCher": 13860,
  "ĠChern": 30557,
  "ĠCherry": 25012,
  "ĠChes": 25767,
  "ĠChess": 31455,
  "ĠChester": 25868,
  "ĠChev": 19968,
  "ĠChevrolet": 28090,
  "ĠChi": 21574,
  "ĠChicago": 4136,
  "ĠChick": 31237,
  "ĠChicken": 23517,
  "ĠChief": 5337,
  "ĠChiefs": 15558,
  "ĠChild": 6746,
  "ĠChildren": 9734,
  "ĠChile": 14464,
  "ĠChin": 21422,
  "ĠChina": 2326,
  "ĠChinese": 3417,
  "ĠChip": 16145,
  "ĠCho": 12965,
  "ĠChocolate": 25566,
  "ĠChoice": 21075,
  "ĠChoose": 26416,
  "ĠChris": 4615,
  "ĠChrist": 1844,
  "ĠChristian": 3824,
  "ĠChristianity": 11980,
  "ĠChristians": 8016,
  "ĠChristie": 12799,
  "ĠChristina": 29320,
  "ĠChristine": 22845,
  "ĠChristmas": 6000,
  "ĠChristopher": 11034,
  "ĠChrom": 27161,
  "ĠChrome": 11734,
  "ĠChron": 11443,
  "ĠChronicle": 14672,
  "ĠChronicles": 30934,
  "ĠChrys": 24746,
  "ĠChrysler": 27876,
  "ĠChuck": 12949,
  "ĠChurch": 4536,
  "ĠChurchill": 22917,
  "ĠCi": 31537,
  "ĠCincinnati": 13383,
  "ĠCind": 25075,
  "ĠCinem": 19093,
  "ĠCinema": 27274,
  "ĠCirc": 8127,
  "ĠCircle": 18978,
  "ĠCircuit": 12568,
  "ĠCisco": 29084,
  "ĠCit": 16910,
  "ĠCities": 20110,
  "ĠCitiz": 11501,
  "ĠCitizen": 19902,
  "ĠCitizens": 16060,
  "ĠCity": 2099,
  "ĠCivic": 26429,
  "ĠCivil": 7297,
  "ĠCl": 1123,
  "ĠClaim": 25762,
  "ĠClaire": 21914,
  "ĠClar": 13698,
  "ĠClara": 25740,
  "ĠClare": 20001,
  "ĠClark": 10075,
  "ĠClarke": 16209,
  "ĠClarks": 29037,
  "ĠClarkson": 31627,
  "ĠClass": 6841,
  "ĠClassic": 15286,
  "ĠClaud": 27010,
  "ĠClaus": 30128,
  "ĠClause": 30802,
  "ĠClay": 14996,
  "ĠClayton": 26913,
  "ĠCle": 6687,
  "ĠClean": 15390,
  "ĠClear": 20245,
  "ĠClearly": 20887,
  "ĠClement": 24357,
  "ĠClemson": 25488,
  "ĠCleveland": 8674,
  "ĠCli": 19237,
  "ĠClick": 9291,
  "ĠClient": 29767,
  "ĠCliff": 21512,
  "ĠClimate": 11535,
  "ĠClin": 16051,
  "ĠClinic": 27059,
  "ĠClinical": 28649,
  "ĠClint": 18060,
  "ĠClinton": 2105,
  "ĠClintons": 24414,
  "ĠClippers": 25896,
  "ĠClo": 31435,
  "ĠClock": 26391,
  "ĠClose": 15275,
  "ĠCloud": 11281,
  "ĠClub": 6348,
  "ĠCly": 28524,
  "ĠCo": 1846,
  "ĠCoach": 14391,
  "ĠCoal": 10449,
  "ĠCoalition": 11808,
  "ĠCoast": 7564,
  "ĠCob": 18587,
  "ĠCobb": 27377,
  "ĠCoc": 20125,
  "ĠCoca": 25904,
  "ĠCoch": 29558,
  "ĠCock": 31063,
  "ĠCod": 26637,
  "ĠCode": 9180,
  "ĠCody": 24626,
  "ĠCoff": 16835,
  "ĠCoffee": 21166,
  "ĠCohen": 12411,
  "ĠCoin": 17260,
  "ĠCoke": 31473,
  "ĠCol": 1709,
  "ĠColbert": 22916,
  "ĠCold": 11085,
  "ĠCole": 10222,
  "ĠColeman": 18780,
  "ĠColin": 16123,
  "ĠColl": 7598,
  "ĠCollect": 15322,
  "ĠCollection": 17014,
  "ĠCollective": 31276,
  "ĠColleg": 31798,
  "ĠCollege": 4948,
  "ĠCollins": 11738,
  "ĠCologne": 29032,
  "ĠColomb": 13730,
  "ĠColombia": 17336,
  "ĠColombian": 30656,
  "ĠColon": 14986,
  "ĠColonel": 21769,
  "ĠColor": 5535,
  "ĠColorado": 6368,
  "ĠColts": 17561,
  "ĠColumb": 6116,
  "ĠColumbia": 8403,
  "ĠColumbus": 12793,
  "ĠCom": 1081,
  "ĠComb": 16152,
  "ĠCombat": 22242,
  "ĠCombine": 30321,
  "ĠCombined": 31562,
  "ĠComcast": 17039,
  "ĠCome": 7613,
  "ĠComedy": 20912,
  "ĠComet": 31187,
  "ĠComey": 9927,
  "ĠComic": 16931,
  "ĠComics": 14153,
  "ĠComing": 21045,
  "ĠComm": 1958,
  "ĠCommand": 10960,
  "ĠCommander": 16329,
  "ĠComment": 20394,
  "ĠComments": 23231,
  "ĠCommerce": 14653,
  "ĠCommercial": 23707,
  "ĠCommission": 4197,
  "ĠCommissioner": 12092,
  "ĠCommit": 30880,
  "ĠCommittee": 4190,
  "ĠCommon": 9535,
  "ĠCommons": 11441,
  "ĠCommonwealth": 17416,
  "ĠCommun": 4453,
  "ĠCommunication": 27759,
  "ĠCommunications": 13065,
  "ĠCommunist": 12783,
  "ĠCommunity": 8322,
  "ĠComp": 3876,
  "ĠCompanies": 21922,
  "ĠCompany": 6945,
  "ĠCompar": 31340,
  "ĠCompared": 28369,
  "ĠCompetition": 26046,
  "ĠCompl": 24018,
  "ĠComplete": 18291,
  "ĠComplex": 21825,
  "ĠComput": 22724,
  "ĠComputer": 15652,
  "ĠCon": 1626,
  "ĠConc": 21552,
  "ĠConcept": 26875,
  "ĠConcer": 18999,
  "ĠCond": 14610,
  "ĠConf": 7360,
  "ĠConfeder": 14189,
  "ĠConfederate": 17592,
  "ĠConference": 7942,
  "ĠCong": 2447,
  "ĠCongo": 22244,
  "ĠCongress": 2615,
  "ĠCongressional": 12000,
  "ĠCongressman": 22268,
  "ĠConn": 19125,
  "ĠConnect": 8845,
  "ĠConnecticut": 13138,
  "ĠConnor": 23425,
  "ĠConrad": 31332,
  "ĠCons": 3466,
  "ĠConsequently": 25273,
  "ĠConserv": 5607,
  "ĠConservation": 20710,
  "ĠConservative": 8530,
  "ĠConservatives": 13124,
  "ĠConsider": 16520,
  "ĠConsidering": 24895,
  "ĠConsole": 30620,
  "ĠConst": 4827,
  "ĠConstant": 28150,
  "ĠConstitution": 7254,
  "ĠConstitutional": 22191,
  "ĠConstruction": 23339,
  "ĠConsult": 22221,
  "ĠConsumer": 17493,
  "ĠCont": 3081,
  "ĠContact": 19731,
  "ĠContent": 17252,
  "ĠContest": 29580,
  "ĠContin": 7387,
  "ĠContinental": 28648,
  "ĠContinue": 11368,
  "ĠContinued": 15146,
  "ĠContract": 24229,
  "ĠContribut": 31146,
  "ĠControl": 8555,
  "ĠController": 29290,
  "ĠConvention": 10301,
  "ĠConvers": 31927,
  "ĠConway": 20669,
  "ĠCook": 8422,
  "ĠCool": 17043,
  "ĠCooper": 9096,
  "ĠCooperation": 29417,
  "ĠCop": 16074,
  "ĠCopenhagen": 23168,
  "ĠCopy": 20717,
  "ĠCopyright": 17275,
  "ĠCor": 2854,
  "ĠCorbyn": 12875,
  "ĠCord": 21010,
  "ĠCore": 8430,
  "ĠCorey": 20101,
  "ĠCork": 19794,
  "ĠCorn": 13017,
  "ĠCornell": 22415,
  "ĠCorner": 27148,
  "ĠCorp": 11118,
  "ĠCorpor": 9097,
  "ĠCorporate": 26645,
  "ĠCorporation": 11194,
  "ĠCorps": 12070,
  "ĠCort": 18421,
  "ĠCory": 24251,
  "ĠCos": 12417,
  "ĠCost": 8918,
  "ĠCosta": 16229,
  "ĠCotton": 25826,
  "ĠCou": 15419,
[...]
