{
  "!": 33,
  "!!": 5023,
  "!!!": 14573,
  "!!!!": 23147,
  "!\"": 5097,
  "!'": 20685,
  "!)": 8679,
  "!),": 23289,
  "!).": 19431,
  "!,": 26546,
  "!<|": 7447,
  "!]": 31997,
  "!âĢĻ": 19849,
  "!âĢĿ": 4610,
  "\"": 34,
  "\")": 8587,
  "\"),": 18578,
  "\").": 18055,
  "\");": 22029,
  "\",": 2868,
  "\",\"": 11127,
  "\".": 2829,
  "\".[": 8696,
  "\":": 4935,
  "\":\"": 10353,
  "\":{\"": 30052,
  "\";": 15537,
  "\">": 9263,
  "\"?": 23970,
  "\"[": 19443,
  "\"]": 20662,
  "\"âĢĶ": 30649,
  "#": 35,
  "##": 5104,
  "####": 9279,
  "########": 15480,
  "################": 25773,
  "$": 36,
  "$$": 28484,
  "%": 37,
  "%)": 6621,
  "%),": 17428,
  "%).": 20015,
  "%,": 7986,
  "%.": 7538,
  "&": 38,
  "'": 39,
  "''": 15917,
  "')": 17156,
  "');": 26713,
  "',": 6349,
  "'.": 8508,
  "':": 16005,
  "';": 25795,
  "'d": 3016,
  "'ll": 2295,
  "'m": 1984,
  "'re": 1387,
  "'s": 425,
  "'t": 697,
  "'ve": 1852,
  "(": 40,
  "(\"": 10651,
  "($": 21139,
  "('": 12579,
  "()": 5458,
  "().": 26092,
  "();": 12550,
  "({": 28046,
  ")": 41,
  ")\"": 25732,
  ")(": 14241,
  "))": 7862,
  "));": 27924,
  "),": 908,
  "),[": 30555,
  "),âĢĿ": 29956,
  ")-": 19996,
  ").": 833,
  ").<|": 18984,
  ").[": 11181,
  ").âĢĿ": 27534,
  ")/": 30857,
  "):": 3728,
  ");": 3024,
  ")<|": 10360,
  ")?": 20969,
  ")[": 22743,
  ")]": 30481,
  "){": 31149,
  ")|": 15069,
  ")}": 31613,
  ")âĢĶ": 24835,
  "*": 42,
  "**": 2237,
  "***": 10002,
  "****": 5272,
  "********": 9987,
  "****************": 17893,
  "*,": 31546,
  "*.": 31607,
  "+": 43,
  "++": 9162,
  "+,": 29829,
  "+.": 31012,
  ",": 44,
  ",\"": 774,
  ",'": 5449,
  ",'\"": 21273,
  ",''": 17403,
  ",,": 31645,
  ",[": 5623,
  ",âĢĻ": 5960,
  ",âĢĻâĢĻ": 20772,
  ",âĢĻâĢĿ": 20652,
  ",âĢĿ": 685,
  "-": 45,
  "-$": 21771,
  "-)": 30460,
  "-,": 29887,
  "--": 963,
  "---": 13097,
  "----": 1806,
  "--------": 3265,
  "------------": 26876,
  "----------------": 6042,
  "--------------------------------": 12176,
  "----------------------------------------------------------------": 29029,
  "->": 9712,
  ".": 46,
  ".\"": 724,
  ".\")": 30890,
  ".\"<|": 5821,
  ".\"[": 7256,
  ".'": 4093,
  ".'\"": 17052,
  ".''": 18387,
  ".'âĢĿ": 30018,
  ".(": 19216,
  ".)": 2093,
  ".),": 11923,
  ".).": 16627,
  ".)<|": 25889,
  ".*": 24462,
  ".,": 1858,
  ".-": 8564,
  "..": 770,
  "...": 1483,
  "...\"": 14095,
  "...)": 31588,
  "....": 3710,
  ".....": 29709,
  "........": 8299,
  "..........": 27616,
  "................": 16611,
  "...<|": 21128,
  "...]": 23849,
  "./": 22749,
  ".:": 13408,
  ".;": 21161,
  ".<|": 958,
  ".[": 1076,
  ".]": 10774,
  "._": 27239,
  ".ÂĶ": 27141,
  ".âĢĶ": 23530,
  ".âĢĻ": 4037,
  ".âĢĻâĢĻ": 23383,
  ".âĢĻâĢĿ": 16155,
  ".âĢľ": 13323,
  ".âĢĿ": 645,
  ".âĢĿ)": 22663,
  ".âĢĿ<|": 5293,
  ".âĢĿ[": 25807,
  "/": 47,
  "/-": 24113,
  "/.": 11962,
  "//": 1686,
  "////": 25748,
  "0": 48,
  "00": 454,
  "000": 948,
  "0000": 7258,
  "000000": 29675,
  "00000000": 20965,
  "001": 16208,
  "003": 22730,
  "01": 5626,
  "02": 6930,
  "03": 6945,
  "04": 6897,
  "05": 5714,
  "06": 6610,
  "07": 6716,
  "08": 6458,
  "09": 6737,
  "1": 49,
  "10": 1357,
  "100": 4018,
  "1000": 17940,
  "101": 18495,
  "102": 22288,
  "103": 22756,
  "104": 22618,
  "105": 20633,
  "106": 24062,
  "107": 24406,
  "108": 24918,
  "109": 23593,
  "11": 1733,
  "110": 13989,
  "111": 22830,
  "112": 24135,
  "113": 25568,
  "114": 25013,
  "115": 22295,
  "116": 27133,
  "117": 26147,
  "118": 27200,
  "119": 26646,
  "12": 1851,
  "120": 14333,
  "121": 27493,
  "122": 27454,
  "123": 20994,
  "124": 28520,
  "125": 17707,
  "126": 29088,
  "127": 25983,
  "128": 22385,
  "129": 27230,
  "13": 2312,
  "130": 17545,
  "131": 29094,
  "132": 30118,
  "133": 27884,
  "134": 29249,
  "135": 24247,
  "136": 31348,
  "137": 29983,
  "138": 31718,
  "139": 31124,
  "14": 2226,
  "140": 19871,
  "141": 31220,
  "144": 29377,
  "145": 28187,
  "149": 29813,
  "15": 1999,
  "150": 10656,
  "155": 27972,
  "16": 2194,
  "160": 19219,
  "165": 30422,
  "168": 25496,
  "17": 2416,
  "170": 23638,
  "175": 25294,
  "18": 2470,
  "180": 21245,
  "19": 1629,
  "190": 28525,
  "192": 29722,
  "1970": 29118,
  "1980": 25168,
  "1989": 29539,
  "199": 7543,
  "1990": 20259,
  "1991": 29534,
  "1992": 28523,
  "1993": 28418,
  "1994": 27023,
  "1995": 26373,
  "1996": 26252,
  "1997": 26397,
  "1998": 25600,
  "1999": 23302,
  "2": 50,
  "20": 1196,
  "200": 3049,
  "2000": 14169,
  "2001": 20584,
  "2002": 21452,
  "2003": 20599,
  "2004": 19740,
  "2005": 18932,
  "2006": 18287,
  "2007": 16881,
  "2008": 14437,
  "2009": 13491,
  "201": 31443,
  "2010": 12293,
  "2011": 11841,
  "2012": 10662,
  "2013": 10058,
  "2014": 8545,
  "2015": 8896,
  "2016": 8660,
  "2017": 10391,
  "2018": 20592,
  "2019": 27529,
  "202": 29702,
  "21": 3907,
  "210": 28981,
  "22": 3300,
  "220": 26087,
  "225": 29926,
  "23": 3595,
  "230": 27354,
  "24": 3396,
  "240": 25357,
  "25": 2628,
  "250": 10427,
  "255": 25563,
  "256": 23714,
  "26": 3898,
  "260": 31387,
  "27": 3773,
  "270": 31111,
  "28": 4032,
  "280": 29961,
  "29": 4039,
  "3": 51,
  "30": 1906,
  "300": 7386,
  "31": 5302,
  "32": 4479,
  "320": 27825,
  "33": 4262,
  "34": 4841,
  "35": 3867,
  "350": 17832,
  "36": 4711,
  "360": 23627,
  "37": 4980,
  "370": 27397,
  "38": 4801,
  "39": 5114,
  "4": 52,
  "40": 2984,
  "400": 8097,
  "41": 6049,
  "42": 5824,
  "43": 6061,
  "44": 4683,
  "446": 30062,
  "45": 3891,
  "450": 22572,
  "46": 5355,
  "47": 5116,
  "48": 4987,
  "49": 5187,
  "5": 53,
  "50": 1704,
  "500": 4141,
  "51": 7936,
  "52": 7944,
  "53": 8171,
  "54": 7989,
  "55": 4950,
  "550": 29110,
  "56": 7773,
  "57": 7567,
  "58": 7854,
  "59": 7059,
  "6": 54,
  "60": 2763,
  "600": 9345,
  "61": 9065,
  "62": 9122,
  "63": 9139,
  "64": 5911,
  "65": 5951,
  "650": 25370,
  "66": 6804,
  "67": 7203,
  "68": 7126,
  "69": 8184,
  "7": 55,
  "70": 4228,
  "700": 10913,
  "71": 9297,
  "72": 8712,
  "73": 9428,
  "74": 8806,
  "75": 4815,
  "750": 19280,
  "76": 8667,
  "77": 6803,
  "78": 7891,
  "79": 8649,
  "8": 56,
  "80": 3502,
  "800": 8982,
  "81": 9875,
  "82": 9923,
  "83": 9787,
  "84": 9694,
  "85": 7337,
  "850": 30873,
  "86": 7511,
  "87": 8258,
  "88": 6859,
  "89": 8154,
  "9": 57,
  "90": 4463,
  "900": 14506,
  "91": 11411,
  "92": 10837,
  "93": 10940,
  "94": 11164,
  "95": 5892,
  "96": 10445,
  "97": 11089,
  "98": 10545,
  "99": 3239,
  "999": 26582,
  ":": 58,
  ":\"": 26443,
  "://": 2080,
  "::": 8297,
  ":<|": 7909,
  ":[": 23889,
  ":\\": 24781,
  ";": 59,
  ";[": 27576,
  "<": 60,
  "</": 7231,
  "<<": 31435,
  "<|": 703,
  "<|endoftext|>": 31998,
  "<|pad|>": 31999,
  "=": 61,
  "=\"": 5318,
  "='": 22625,
  "==": 2742,
  "====": 4751,
  "========": 8077,
  "================": 14143,
  "================================": 27088,
  "=>": 27976,
  "=âĢĿ": 14807,
  ">": 62,
  "><": 16642,
  "></": 19823,
  ">>": 5648,
  ">>>>": 13814,
  ">>>>>>>>": 28367,
  "?": 63,
  "?!": 15366,
  "?\"": 3587,
  "?'": 12329,
  "?)": 11314,
  "?),": 30876,
  "?).": 27003,
  "?<|": 11567,
  "??": 10420,
  "???": 31567,
  "?]": 27847,
  "?âĢĻ": 11191,
  "?âĢĿ": 2975,
  "@": 64,
  "A": 65,
  "AA": 7726,
  "AB": 10893,
  "ABC": 21314,
  "ABLE": 29769,
  "AC": 3197,
  "ACA": 21144,
  "ACE": 17552,
  "ACH": 22877,
  "ACK": 12937,
  "ACP": 27442,
  "ACT": 17696,
  "AD": 3759,
  "ADA": 27213,
  "ADE": 31327,
  "ADVERTIS": 12919,
  "ADVERTISEMENT": 13341,
  "AF": 10187,
  "AFP": 15005,
  "AFTA": 24634,
  "AG": 16953,
  "AGE": 27639,
  "AI": 25541,
  "AK": 15969,
  "AL": 3108,
  "ALE": 28075,
  "ALL": 10232,
  "ALLY": 24315,
  "AM": 3463,
  "AMA": 25028,
  "AME": 16970,
  "AMP": 28002,
  "AMY": 18910,
  "AN": 2350,
  "ANC": 24647,
  "ANCE": 30693,
  "AND": 9580,
  "ANG": 23230,
  "ANK": 20791,
  "ANN": 25037,
  "ANS": 20257,
  "ANT": 16046,
  "AP": 3807,
  "APD": 30631,
  "APP": 27440,
  "AR": 2501,
  "ARA": 29793,
  "ARC": 26961,
  "ARD": 15239,
  "ARK": 18379,
  "ARP": 29280,
  "ARR": 31917,
  "ARS": 30733,
  "ART": 10915,
  "ARY": 19312,
  "AS": 2492,
  "ASE": 17491,
  "ASH": 11968,
  "ASHINGTON": 15091,
  "ASS": 18268,
  "AST": 15971,
  "AT": 1975,
  "ATA": 21590,
  "ATCH": 10924,
  "ATE": 7882,
  "ATED": 11938,
  "ATH": 19273,
  "ATION": 12023,
  "ATO": 7997,
  "ATT": 25752,
  "AU": 31871,
  "AV": 13549,
  "AY": 10310,
  "Aaron": 28423,
  "Ab": 5530,
  "About": 8480,
  "Above": 29526,
  "Abs": 25382,
  "Ac": 15617,
  "Acc": 22675,
  "Access": 25742,
  "According": 3764,
  "Across": 31507,
  "Act": 10078,
  "Action": 25725,
  "Activity": 26107,
  "Actually": 24222,
  "Ad": 2589,
  "Adam": 20898,
  "Add": 6442,
  "Added": 19264,
  "Adding": 29508,
  "Additional": 20371,
  "Additionally": 19922,
  "Adv": 29229,
  "Advertisement": 3742,
  "Advertisements": 11802,
  "Advertising": 25129,
  "Af": 15902,
  "Afric": 27409,
  "After": 2983,
  "Ag": 11219,
  "Again": 14358,
  "Age": 26894,
  "Ah": 13747,
  "Air": 18600,
  "Al": 2654,
  "Alan": 31990,
  "Alex": 13637,
  "Ali": 26002,
  "All": 3532,
  "Almost": 19690,
  "Along": 19257,
  "Also": 7281,
  "Altern": 28240,
  "Although": 6062,
  "Am": 5871,
  "Amazon": 20701,
  "Americ": 4623,
  "America": 15494,
  "American": 6159,
  "Americans": 13936,
  "Among": 11308,
  "An": 2066,
  "Analy": 29993,
  "Analysis": 27845,
  "And": 1737,
  "Andre": 26539,
  "Andrew": 17884,
  "Android": 26684,
  "Andy": 28723,
  "Ang": 15007,
  "Ann": 20135,
  "Anna": 26930,
  "Another": 5656,
  "Ant": 13670,
  "Anth": 25569,
  "Anthony": 26789,
  "Anti": 26540,
  "Any": 7143,
  "Anyone": 17462,
  "Anyway": 22256,
  "Ap": 29746,
  "Apart": 31283,
  "App": 5953,
  "Apparently": 24983,
  "Apple": 14474,
  "April": 16581,
  "Ar": 4099,
  "Arab": 26177,
  "Arch": 21325,
  "Are": 9276,
  "Ari": 21772,
  "Around": 19710,
  "Ars": 28363,
  "Art": 9089,
  "Arthur": 26531,
  "Article": 14249,
  "As": 1564,
  "Ash": 27277,
  "Aside": 26150,
  "Ask": 28603,
  "Asked": 14074,
  "Ass": 8657,
  "Assad": 17597,
  "Associated": 26936,
  "Ast": 30546,
  "At": 2704,
  "Att": 13137,
  "Aud": 22712,
  "Aug": 14598,
  "August": 18250,
  "Aust": 12752,
  "Austral": 16075,
  "Australia": 21952,
  "Australian": 30214,
  "Aut": 20398,
  "Author": 14664,
  "Authorities": 21950,
  "Av": 14858,
  "Available": 27101,
  "Average": 31650,
  "Aw": 27671,
  "Az": 30738,
  "B": 66,
  "BA": 4338,
  "BB": 21716,
  "BBC": 27567,
  "BC": 2343,
  "BE": 16195,
  "BER": 15362,
  "BI": 3492,
  "BL": 13156,
  "BLE": 24894,
  "BM": 9155,
  "BN": 10949,
  "BO": 8087,
  "BP": 21271,
  "BR": 15332,
  "BS": 4452,
  "BSD": 25278,
  "BT": 22857,
  "BU": 25564,
  "BY": 20353,
  "Back": 8511,
  "Background": 26050,
  "Bad": 23927,
  "Bal": 31882,
  "Ball": 31704,
  "Ban": 30880,
  "Bank": 26348,
  "Bar": 11798,
  "Bas": 17790,
  "Base": 25826,
  "Based": 15462,
  "Basically": 27226,
  "Bat": 22335,
  "Battle": 27819,
  "Bay": 14533,
  "Be": 3777,
  "Because": 7379,
  "Before": 7837,
  "Begin": 30393,
  "Beh": 26988,
  "Being": 16191,
  "Bel": 11454,
  "Below": 19948,
  "Ben": 11890,
  "Ber": 23091,
  "Bern": 19829,
  "Bernie": 26072,
  "Berry": 18914,
  "Besides": 20634,
  "Best": 12735,
  "Bet": 13684,
  "Better": 29138,
  "Between": 20837,
  "Beyond": 19936,
  "Bi": 28370,
  "Big": 12569,
  "Bill": 15631,
  "Bit": 14817,
  "Bitcoin": 20720,
  "Bl": 4816,
  "Black": 11189,
  "Block": 25793,
  "Blood": 30812,
  "Bloom": 29541,
  "Blue": 18593,
  "Bo": 17551,
  "Bob": 19609,
  "Bon": 24986,
  "Book": 11279,
  "Born": 24857,
  "Boston": 27868,
  "Both": 8654,
  "Box": 19588,
  "Boy": 29941,
  "Br": 11644,
  "Brad": 21843,
  "Brazil": 31016,
  "Bre": 12518,
  "Breaking": 23658,
  "Brexit": 31308,
  "Brian": 21780,
  "Brien": 16614,
  "Bring": 30828,
  "Brit": 13893,
  "Britain": 27908,
  "British": 20222,
  "Bro": 17580,
  "Broad": 29533,
  "Bron": 16505,
  "Brown": 18488,
  "Bs": 30411,
  "Build": 21562,
  "Building": 27187,
  "Bur": 22631,
  "Bush": 28398,
  "Business": 22825,
  "But": 1308,
  "Buy": 15304,
  "By": 3784,
  "C": 67,
  "CA": 5374,
  "CAA": 11301,
  "CAR": 17754,
  "CB": 26337,
  "CBC": 22562,
  "CBS": 19222,
  "CC": 4513,
  "CD": 10666,
  "CE": 7452,
  "CH": 4945,
  "CI": 31615,
  "CL": 5549,
  "CLA": 15479,
  "CLOSE": 24038,
  "CNN": 13108,
  "CO": 9550,
  "COM": 14536,
  "COMMENT": 30165,
  "CON": 19818,
  "CP": 27978,
  "CR": 15221,
  "CS": 7429,
  "CT": 20930,
  "Cal": 10128,
  "Calif": 15765,
  "California": 21847,
  "Call": 18013,
  "Cam": 26662,
  "Camp": 20295,
  "Can": 6301,
  "Canada": 15642,
  "Canadian": 22862,
  "Cap": 13911,
  "Captain": 28039,
  "Car": 11335,
  "Card": 22117,
  "Care": 15320,
  "Carl": 23328,
  "Case": 24052,
  "Cast": 22903,
  "Cat": 28241,
  "Cent": 19594,
  "Center": 27511,
  "Central": 29200,
  "Certainly": 29268,
  "Ch": 2328,
  "Change": 26967,
  "Chapter": 26415,
  "Char": 16030,
  "Charl": 22500,
  "Charles": 24795,
  "Charlie": 31197,
  "Chat": 30918,
  "Che": 8674,
  "Check": 12047,
  "Chicago": 21638,
  "Chief": 20500,
  "Child": 18481,
  "Children": 26690,
  "China": 11578,
  "Chinese": 20711,
  "Cho": 29188,
  "Chris": 13973,
  "Christ": 9735,
  "Christian": 17260,
  "City": 14472,
  "Civil": 29877,
  "Cl": 4385,
  "Class": 15941,
  "Cle": 15176,
  "Clearly": 23656,
  "Click": 10051,
  "Client": 31945,
  "Climate": 26134,
  "Clinton": 12900,
  "Close": 29976,
  "Cloud": 19381,
  "Co": 8199,
  "Code": 21072,
  "Coin": 28971,
  "Col": 8010,
  "Cola": 26069,
  "Coll": 24148,
  "Color": 19434,
  "Com": 7362,
  "Comb": 25268,
  "Come": 17926,
  "Coming": 25120,
  "Comm": 10405,
  "Comment": 23542,
  "Comments": 24244,
  "Common": 25435,
  "Commun": 27971,
  "Community": 29640,
  "Comp": 9642,
  "Companies": 31768,
  "Con": 4520,
  "Conclusion": 18691,
  "Conf": 16374,
  "Cong": 15461,
  "Congress": 19579,
  "Connect": 23614,
  "Connell": 29307,
  "Connor": 22277,
  "Cons": 9005,
  "Conservative": 31725,
  "Consider": 21552,
  "Const": 17918,
  "Cont": 6094,
  "Contact": 17828,
  "Content": 25336,
  "Contin": 17844,
  "Continue": 26532,
  "Control": 29816,
  "Controller": 29424,
  "Cook": 31137,
  "Copyright": 14386,
  "Cor": 11346,
  "Core": 22684,
  "Cost": 23743,
  "Could": 21688,
  "Coun": 24984,
  "Count": 17159,
  "Court": 19615,
  "Courtesy": 27119,
  "Cover": 28321,
  "Cr": 15288,
  "Craft": 21226,
  "Cre": 18318,
  "Creat": 29658,
  "Create": 22585,
  "Credit": 21329,
  "Crit": 20004,
  "Critics": 25958,
  "Cross": 25681,
  "Cru": 23013,
  "Cruz": 30191,
  "Cs": 30188,
  "Cur": 30750,
  "Current": 12813,
  "Currently": 18572,
  "Custom": 21838,
  "Cut": 30627,
  "Cy": 22588,
  "D": 68,
  "DA": 4871,
  "DAY": 11859,
  "DB": 13868,
  "DC": 12430,
  "DD": 23323,
  "DE": 12210,
  "DER": 26192,
  "DF": 22594,
  "DI": 16292,
  "DL": 24560,
  "DM": 24934,
  "DNA": 29327,
  "DO": 20855,
  "DP": 5567,
  "DR": 11324,
  "DS": 6743,
  "DT": 27596,
  "Da": 31727,
  "Daily": 28112,
  "Dam": 19909,
  "Dan": 19959,
  "Daniel": 19949,
  "Dar": 28141,
  "Dark": 23079,
  "Data": 13424,
  "Date": 18835,
  "Dav": 8149,
  "Dave": 26454,
  "David": 9356,
  "Davis": 28737,
  "Day": 14259,
  "De": 6113,
  "Dead": 25332,
  "Dear": 18678,
  "Death": 22484,
  "Deb": 22323,
  "Dec": 14205,
  "December": 20666,
  "Deep": 29161,
  "Def": 10171,
  "Defense": 27069,
  "Del": 18064,
  "Dem": 9566,
  "Democratic": 25141,
  "Democrats": 20912,
  "Den": 20420,
  "Dep": 14615,
  "Der": 29821,
  "Des": 4944,
  "Description": 24875,
  "Design": 23253,
  "Despite": 6613,
  "Det": 16006,
  "Details": 28740,
  "Detroit": 31955,
  "Dev": 21091,
  "Develop": 18209,
  "Di": 22660,
  "Did": 11649,
  "Die": 31425,
  "Dig": 22548,
  "Digital": 29803,
  "Direct": 15649,
  "Director": 25481,
  "Dis": 10783,
  "Disc": 18891,
  "Disney": 31623,
  "Dist": 22154,
  "Do": 5474,
  "Doc": 31599,
  "Does": 14251,
  "Don": 3778,
  "Donald": 6437,
  "DonaldTrump": 21628,
  "Donnell": 18186,
  "Dou": 18787,
  "Down": 11487,
  "Download": 14844,
  "Dr": 7601,
  "Drive": 28787,
  "Due": 21693,
  "During": 5893,
  "E": 69,
  "EA": 7779,
  "EAR": 23981,
  "EC": 3916,
  "ECD": 25362,
  "ECT": 15249,
  "ED": 3147,
  "EE": 12933,
  "EG": 13778,
  "EL": 4335,
  "ELD": 31301,
  "ELECT": 28690,
  "ELL": 16755,
  "EM": 4733,
  "EMA": 23757,
  "EMENT": 11660,
  "EN": 2887,
  "ENCE": 25453,
  "END": 18948,
  "ENS": 25246,
  "ENT": 5599,
  "EO": 3978,
  "EP": 8136,
  "EPA": 31803,
  "ER": 1755,
  "ERC": 31749,
  "ERE": 11065,
  "ERN": 25477,
  "ERS": 6381,
  "ERT": 27501,
  "ERY": 25244,
  "ES": 2713,
  "ESPN": 27311,
  "ESS": 15645,
  "EST": 8853,
  "ET": 3980,
  "ETA": 22473,
  "ETH": 29521,
  "ETT": 31136,
  "EU": 17014,
  "EV": 23312,
  "EW": 7423,
  "EX": 10265,
  "EXT": 25851,
  "EY": 29236,
  "Each": 11343,
  "Earlier": 10047,
  "Early": 14564,
  "Earth": 24122,
  "East": 23985,
  "Econom": 23557,
  "Ed": 7683,
  "Edit": 28847,
  "Editor": 17425,
  "Educ": 29144,
  "Eff": 24313,
  "Egypt": 28965,
  "Eight": 26114,
  "Either": 27880,
  "El": 9834,
  "Ele": 30337,
  "Elect": 20329,
  "Element": 26061,
  "Ell": 29962,
  "Em": 11656,
  "Email": 16286,
  "Employ": 30585,
  "En": 6724,
  "End": 17483,
  "Energy": 31553,
  "Eng": 12501,
  "Engine": 29543,
  "English": 22202,
  "Enjoy": 30724,
  "Enlarge": 21276,
  "Ent": 23358,
  "Enter": 21332,
  "Environment": 29990,
  "Ep": 19741,
  "Episode": 29366,
  "Equ": 28938,
  "Er": 16964,
  "Eric": 20557,
  "Error": 27089,
  "Es": 19129,
  "Ess": 29090,
  "Est": 23071,
  "Euro": 12512,
  "Europe": 13680,
  "European": 18265,
  "Ev": 15367,
  "Even": 5247,
  "Event": 16014,
  "Eventually": 23739,
  "Ever": 21035,
  "Every": 5437,
  "Everybody": 21991,
  "Everyone": 14067,
  "Everything": 17377,
  "Ex": 4371,
  "Example": 26160,
  "Except": 29838,
  "Exit": 30570,
  "Exp": 23211,
  "Exper": 19954,
  "Experts": 29284,
  "Expl": 23073,
  "Ext": 16780,
  "F": 70,
  "FA": 6626,
  "FB": 29172,
  "FBI": 31797,
  "FC": 4366,
  "FE": 26655,
  "FF": 9340,
  "FI": 15212,
  "FK": 26318,
  "FL": 3425,
  "FM": 26354,
  "FO": 9886,
  "FOR": 21925,
  "FP": 6689,
  "FR": 15981,
  "FS": 12445,
  "FT": 16082,
  "FW": 30729,
  "FX": 26537,
  "Facebook": 8985,
  "Fact": 27839,
  "Fair": 29872,
  "Fall": 31801,
  "Family": 25624,
  "Fans": 29391,
  "Far": 19974,
  "Fast": 23778,
  "Fe": 12623,
  "Feb": 16556,
  "February": 21419,
  "Federal": 21426,
  "Feed": 16843,
  "Few": 25325,
  "Fi": 10439,
  "Field": 28581,
  "Fig": 13250,
  "Figure": 12310,
  "Fil": 17863,
  "File": 19106,
  "Film": 30442,
  "Fin": 20478,
  "Final": 21076,
  "Finally": 9993,
  "Find": 20068,
  "Finding": 31559,
  "Fire": 16349,
  "First": 5482,
  "Fit": 31748,
  "Five": 17133,
  "Fix": 28738,
  "Fixed": 18988,
  "Fl": 11316,
  "Flor": 23867,
  "Florida": 25994,
  "Follow": 6044,
  "Following": 11382,
  "Food": 26596,
  "Foot": 22193,
  "For": 1889,
  "Force": 20213,
  "Ford": 31276,
  "Fore": 17866,
  "Foreign": 28928,
  "Form": 19413,
  "Former": 11015,
  "Fort": 22103,
  "Fortunately": 25728,
  "Four": 13248,
  "Fox": 15881,
  "Fr": 6971,
  "Frame": 30178,
  "Franc": 31836,
  "France": 23078,
  "Frank": 14953,
  "Fre": 25726,
  "Fred": 27991,
  "Free": 13370,
  "French": 21260,
  "Friday": 19969,
  "Friend": 24733,
  "From": 5228,
  "Full": 16431,
  "Fun": 23168,
  "Fund": 22647,
  "Further": 11233,
  "Furthermore": 21307,
  "Future": 30303,
  "G": 71,
  "GA": 9943,
  "GB": 4464,
  "GBT": 7012,
  "GC": 19267,
  "GE": 8885,
  "GEL": 25675,
  "GET": 22267,
  "GG": 30568,
  "GH": 22118,
  "GHz": 24846,
  "GI": 31494,
  "GL": 17673,
  "GM": 12603,
  "GN": 28265,
  "GO": 8722,
  "GP": 20495,
  "GR": 17350,
  "GS": 15445,
  "GT": 27309,
  "Gal": 29650,
  "Gall": 28393,
  "Game": 13601,
  "Games": 30920,
  "Gar": 25970,
  "Gary": 29133,
  "Gate": 24966,
  "Ge": 10448,
  "Gen": 16872,
  "Gener": 10590,
  "General": 13444,
  "Georg": 29886,
  "George": 18516,
  "Ger": 25917,
  "German": 13804,
  "Germany": 23020,
  "Get": 6657,
  "Getting": 19678,
  "Getty": 7535,
  "Girl": 30068,
  "Give": 25143,
  "Given": 12254,
  "Gl": 11329,
  "Global": 23027,
  "Go": 5065,
  "God": 13711,
  "Going": 23001,
  "Gold": 15815,
  "Good": 11277,
  "Google": 9733,
  "Got": 31984,
  "Gov": 22090,
  "Govern": 22417,
  "Government": 23192,
  "Gr": 11242,
  "Grand": 26523,
  "Graph": 28394,
  "Great": 15376,
  "Green": 14046,
  "Greg": 26791,
  "Group": 22406,
  "Gs": 30867,
  "Gu": 10861,
  "Guard": 26235,
  "Gun": 29095,
  "H": 72,
  "HA": 11768,
  "HC": 17486,
  "HD": 14288,
  "HE": 25010,
  "HF": 31419,
  "HI": 25757,
  "HL": 5148,
  "HO": 29241,
  "HP": 10853,
  "HR": 21805,
  "HS": 7716,
  "HT": 9617,
  "Ha": 27543,
  "Had": 25305,
  "Half": 31438,
  "Hall": 28345,
  "Ham": 22410,
  "Hand": 21119,
  "Happy": 24036,
  "Har": 12768,
  "Hard": 21073,
  "Harry": 26334,
  "Has": 21023,
  "Have": 12175,
  "Having": 12790,
  "Haw": 29707,
  "Hay": 28867,
  "He": 1384,
  "Head": 17197,
  "Health": 18369,
  "Hel": 17151,
  "Hell": 30721,
  "Hello": 16932,
  "Help": 28403,
  "Hen": 22948,
  "Henry": 27898,
  "Her": 8862,
  "Here": 4087,
  "Hey": 10696,
  "Hi": 20725,
  "High": 13980,
  "Hill": 13545,
  "Hillary": 16087,
  "His": 5642,
  "Hist": 12389,
  "History": 16549,
  "Hit": 26156,
  "Ho": 30332,
  "Hol": 26852,
  "Hold": 25995,
  "Hom": 31693,
  "Home": 18188,
  "Hon": 27544,
  "Honest": 31959,
  "Hop": 19757,
  "Hopefully": 25309,
  "Host": 30092,
  "Hot": 26556,
  "House": 15055,
  "Houston": 30858,
  "How": 2390,
  "However": 4186,
  "Hub": 15528,
  "Human": 20749,
  "Hun": 28126,
  "Hundreds": 28053,
  "Hy": 21000,
  "Hz": 9805,
  "I": 73,
  "IA": 3950,
  "IAL": 21186,
  "IAN": 27286,
  "IC": 3324,
  "ICA": 23818,
  "ICE": 11744,
  "ICH": 26984,
  "ICK": 15799,
  "ICO": 19517,
  "ICS": 23180,
  "ICT": 31757,
  "ID": 3922,
  "IDE": 18699,
  "IDS": 14135,
  "IE": 11313,
  "IES": 19109,
  "IF": 8446,
  "IFF": 31367,
  "IG": 5740,
  "IGH": 25967,
  "IGHT": 15243,
  "IGN": 23753,
  "II": 6155,
  "III": 15415,
  "IL": 4431,
  "ILE": 22671,
  "ILL": 11580,
  "IM": 5417,
  "IME": 15522,
  "IN": 2113,
  "INAL": 29198,
  "IND": 23101,
  "INE": 15016,
  "ING": 4174,
  "INGS": 28850,
  "INGTON": 14343,
  "INK": 23301,
  "INN": 30427,
  "INS": 25963,
  "INT": 20299,
  "IO": 12955,
  "ION": 5556,
  "IP": 5485,
  "IR": 6846,
  "IS": 2256,
  "ISA": 20806,
  "ISE": 29609,
  "ISH": 25215,
  "ISIS": 22840,
  "ISS": 21626,
  "IST": 12995,
  "IT": 3248,
  "ITE": 19657,
  "ITH": 14618,
  "ITION": 30266,
  "ITY": 14540,
  "IV": 5386,
  "IVE": 13270,
  "IX": 20556,
  "IZ": 24891,
  "Ice": 30437,
  "Id": 12712,
  "If": 1570,
  "Il": 29260,
  "Ill": 21086,
  "Im": 3465,
  "Image": 4572,
  "Images": 26742,
  "Imagine": 20177,
  "Imp": 29497,
  "Import": 26838,
  "Impro": 26749,
  "In": 794,
  "Inc": 19446,
  "Incre": 24902,
  "Ind": 5794,
  "Indeed": 14335,
  "Index": 30996,
  "India": 17169,
  "Indian": 25973,
  "Inf": 18182,
  "Info": 31526,
  "Information": 28384,
  "Initially": 30923,
  "Ins": 19370,
  "Inside": 22131,
  "Inst": 7613,
  "Install": 31381,
  "Instead": 10382,
  "Int": 9968,
  "Inte": 13369,
  "Inter": 13198,
  "Interest": 18316,
  "Interestingly": 26024,
  "Intern": 15821,
  "International": 22718,
  "Internet": 28722,
  "Introduction": 25251,
  "Invest": 16241,
  "Investigators": 25488,
  "Ir": 22669,
  "Iran": 17649,
  "Iraq": 25148,
  "Iron": 22722,
  "Is": 3780,
  "Islam": 13476,
  "Islamic": 20968,
  "Israel": 10429,
  "Israeli": 21706,
  "Iss": 30830,
  "It": 937,
  "Item": 24317,
  "Its": 18436,
  "J": 74,
  "JP": 11060,
  "JS": 20958,
  "JUST": 21905,
  "Jac": 26119,
  "Jack": 13937,
  "Jackson": 25947,
  "Jam": 28020,
  "James": 13591,
  "Jan": 13563,
  "January": 21209,
  "Japan": 15543,
  "Japanese": 24194,
  "Jason": 22673,
  "Jay": 28233,
  "Jeff": 16861,
  "Jeremy": 31226,
  "Jes": 22120,
  "Jess": 31487,
  "Jesus": 28663,
  "Jew": 21092,
  "Jewish": 23763,
  "Jim": 16591,
  "Jo": 11550,
  "Joe": 17104,
  "John": 7041,
  "Johnson": 20615,
  "Join": 19596,
  "Jon": 16106,
  "Jonathan": 25210,
  "Jones": 20913,
  "Jordan": 28903,
  "Jose": 22126,
  "Joseph": 28841,
  "Josh": 21439,
  "Journal": 22276,
  "Jud": 26265,
  "Judge": 23635,
  "Jul": 19697,
  "July": 16514,
  "June": 16097,
  "Just": 5309,
  "Justice": 24415,
  "Justin": 27711,
  "K": 75,
  "KA": 28040,
  "KE": 11050,
  "KK": 16605,
  "KO": 29891,
  "KS": 30852,
  "Kat": 25249,
  "Ke": 9167,
  "Keep": 16077,
  "Kelly": 28660,
  "Ken": 20793,
  "Kevin": 20607,
  "Key": 13605,
  "Kim": 20627,
  "King": 16752,
  "Kit": 21455,
  "Know": 23344,
  "Ky": 28720,
  "L": 76,
  "LA": 7795,
  "LAND": 30224,
  "LAY": 23460,
  "LC": 7875,
  "LD": 15156,
  "LE": 5881,
  "LGBT": 28094,
  "LI": 31586,
  "LINE": 30179,
  "LL": 26826,
  "LO": 26199,
  "LY": 14186,
  "La": 12947,
  "Lab": 17569,
  "Labour": 25093,
  "Land": 26320,
  "Large": 29708,
  "Last": 5056,
  "Lat": 28590,
  "Late": 24366,
  "Later": 15673,
  "Laughs": 27516,
  "Law": 15695,
  "Lay": 30860,
  "Le": 4352,
  "Lead": 19755,
  "League": 20648,
  "Leaks": 12041,
  "Lear": 16488,
  "Learn": 25527,
  "Lee": 21670,
  "Left": 23040,
  "Leg": 18022,
  "Less": 21310,
  "Let": 5328,
  "Lev": 30223,
  "Level": 21762,
  "Lew": 28364,
  "Lib": 31646,
  "Liber": 27736,
  "Life": 14749,
  "Light": 22983,
  "Like": 6673,
  "Lim": 24674,
  "Lin": 21819,
  "Line": 19263,
  "Link": 13309,
  "LinkedIn": 29867,
  "Linux": 28741,
  "List": 11499,
  "Listen": 21103,
  "Little": 21296,
  "Live": 20272,
  "Lo": 30020,
  "Load": 24505,
  "Local": 18861,
  "Location": 23084,
  "Log": 20916,
  "London": 21782,
  "Long": 15816,
  "Look": 8167,
  "Looking": 14231,
  "Lord": 26237,
  "Los": 25857,
  "Lou": 21124,
  "Louis": 27253,
  "Love": 19001,
  "Low": 24869,
  "Lu": 25722,
  "Luc": 24003,
  "Luck": 29468,
  "M": 77,
  "MA": 6207,
  "MAN": 11259,
  "MB": 11548,
  "MC": 16561,
  "MD": 17750,
  "ME": 17791,
  "MENT": 17890,
  "MG": 31794,
  "MI": 14697,
  "ML": 7367,
  "MM": 15786,
  "MO": 24391,
  "MORE": 19356,
  "MP": 7588,
  "MR": 24057,
  "MS": 7657,
  "MT": 28389,
  "Ma": 22442,
  "Mac": 16190,
  "Mad": 18006,
  "Made": 30553,
  "Mag": 27060,
  "Mail": 31527,
  "Main": 18346,
  "Major": 23299,
  "Make": 13653,
  "Making": 21135,
  "Mal": 13928,
  "Malley": 26762,
  "Man": 6594,
  "Manager": 28034,
  "Manchester": 31445,
  "Many": 5996,
  "Map": 19380,
  "Mar": 7993,
  "Marc": 19287,
  "March": 15761,
  "Marcus": 29551,
  "Mark": 10480,
  "Mart": 11787,
  "Martin": 21796,
  "Mary": 22573,
  "Mass": 19329,
  "Master": 26321,
  "Mat": 15388,
  "Matt": 16993,
  "Matthew": 23598,
  "Max": 17361,
  "May": 6867,
  "Maybe": 11691,
  "Mayor": 28245,
  "Mc": 8665,
  "McC": 20424,
  "Me": 7998,
  "Mean": 7648,
  "Meanwhile": 7847,
  "Med": 12718,
  "Media": 12214,
  "Meet": 26648,
  "Mel": 20574,
  "Mem": 15238,
  "Members": 22236,
  "Men": 12705,
  "Mer": 14946,
  "Merit": 29777,
  "Message": 26377,
  "Met": 14690,
  "Method": 26902,
  "Mex": 20103,
  "Mexico": 26236,
  "Mic": 23286,
  "Mich": 10108,
  "Michael": 11904,
  "Michel": 30316,
  "Microsoft": 16706,
  "Mid": 25437,
  "Mike": 14387,
  "Mil": 24266,
  "Mill": 31079,
  "Miller": 30171,
  "Min": 12510,
  "Mind": 28895,
  "Mir": 30521,
  "Miss": 18696,
  "Mo": 17198,
  "Mobile": 15190,
  "Mod": 10566,
  "Model": 26937,
  "Modern": 26494,
  "Moh": 30429,
  "Mom": 28926,
  "Mon": 12238,
  "Mond": 22767,
  "Monday": 24138,
  "Money": 24879,
  "Mont": 23277,
  "Moore": 29613,
  "Mor": 18426,
  "More": 4765,
  "Moreover": 20477,
  "Mos": 28672,
  "Most": 6140,
  "Mother": 30563,
  "Move": 31192,
  "Moving": 28757,
  "Mr": 4425,
  "Mrs": 23862,
  "Ms": 9863,
  "Much": 16355,
  "Mult": 20320,
  "Multiple": 31773,
  "Mur": 21579,
  "Mus": 9908,
  "Music": 23529,
  "Muslim": 13898,
  "Muslims": 29655,
  "My": 3739,
  "N": 78,
  "NA": 4637,
  "NAS": 16442,
  "NASA": 22021,
  "NBA": 27430,
  "NBC": 10083,
  "NC": 7156,
  "ND": 11876,
  "NE": 17524,
  "NET": 13850,
  "NEW": 13015,
  "NF": 24166,
  "NFL": 28533,
  "NG": 13283,
  "NI": 24643,
  "NN": 4760,
  "NO": 18409,
  "NOT": 20362,
  "NOTE": 30170,
  "NP": 22779,
  "NPR": 28862,
  "NR": 24987,
  "NS": 10015,
  "NT": 12625,
  "NY": 14070,
  "Na": 30280,
  "Name": 11564,
  "National": 15437,
  "Naz": 30600,
  "Nazi": 25299,
  "Ne": 5554,
  "Nearly": 21870,
  "Need": 25632,
  "Neil": 24384,
  "Neill": 22330,
  "Neither": 22414,
  "Net": 11224,
  "Never": 12859,
  "Nevertheless": 22927,
  "New": 3818,
  "News": 8832,
  "Newsletter": 25690,
  "Next": 10571,
  "Nic": 28179,
  "Nick": 21435,
  "Night": 28485,
  "No": 3379,
  "Nob": 17971,
  "Nobody": 19842,
  "Non": 17562,
  "None": 16108,
  "Nonetheless": 31986,
  "Nor": 19817,
  "North": 12779,
  "Not": 4059,
  "Note": 8821,
  "Notes": 17553,
  "Nothing": 17738,
  "Notice": 30255,
  "Nov": 23908,
  "November": 20540,
  "Now": 3527,
  "Num": 30522,
  "Number": 22928,
  "Nusra": 30045,
  "O": 79,
  "OB": 27664,
  "OC": 6865,
  "OCK": 18881,
  "OD": 6420,
  "ODE": 31971,
  "OG": 14605,
  "OH": 17852,
  "OK": 9768,
  "OL": 4821,
  "OLD": 23772,
  "OLL": 20937,
  "OM": 3938,
  "OME": 16171,
  "ON": 2202,
  "OND": 22380,
  "ONE": 17729,
  "ONG": 23879,
  "OO": 25255,
  "OP": 3286,
  "OPA": 31877,
  "OR": 2912,
  "ORD": 17938,
  "ORE": 6670,
  "ORK": 16340,
  "ORN": 25324,
  "ORT": 14752,
  "ORTS": 30817,
  "ORY": 21078,
  "OS": 3151,
  "OSE": 16817,
  "OSS": 23351,
  "OST": 13957,
  "OT": 3682,
  "OTH": 25679,
  "OTUS": 31411,
  "OU": 4221,
  "OUND": 23296,
  "OUR": 17776,
  "OUT": 20330,
  "OW": 5627,
  "OWN": 20910,
  "Ob": 6589,
  "Obama": 11196,
  "Object": 19019,
  "Obviously": 16193,
  "Occ": 28734,
  "Oct": 13750,
  "October": 19036,
  "Of": 5335,
  "Off": 7578,
  "Office": 28140,
  "Officers": 25875,
  "Official": 31205,
  "Officials": 18898,
  "Oh": 6065,
  "Ohio": 23834,
  "Ok": 19763,
  "Okay": 16698,
  "Old": 21912,
  "On": 2071,
  "Once": 7191,
  "One": 2845,
  "Online": 22167,
  "Only": 11667,
  "Op": 19438,
  "Open": 16256,
  "Oper": 20029,
  "Operation": 29372,
  "Opp": 21973,
  "Or": 7044,
  "Organ": 24475,
  "Orig": 13461,
  "Original": 23559,
  "Originally": 23161,
  "Os": 14003,
  "Other": 5966,
  "Others": 20334,
  "Our": 4832,
  "Out": 10120,
  "Outside": 26367,
  "Over": 5957,
  "Overall": 15782,
  "Own": 29812,
  "P": 80,
  "PA": 4498,
  "PC": 8676,
  "PD": 5768,
  "PDATE": 12288,
  "PDF": 21677,
  "PE": 22369,
  "PER": 23660,
  "PG": 8359,
  "PH": 15660,
  "PHOT": 30016,
  "PI": 11816,
  "PL": 10544,
  "PM": 8338,
  "PN": 14339,
  "PO": 22213,
  "PORT": 26565,
  "PP": 9120,
  "PR": 5938,
  "PRE": 31185,
  "PRO": 31605,
  "PS": 4539,
  "PT": 20108,
  "PU": 6427,
  "Pa": 30031,
  "Pac": 16886,
  "Pacific": 19728,
  "Pack": 26115,
  "Pad": 27378,
  "Page": 18224,
  "Pakistan": 24297,
  "Pal": 11073,
  "Palest": 23356,
  "Palestinian": 25647,
  "Pan": 23243,
  "Par": 13675,
  "Park": 25555,
  "Part": 8732,
  "Pass": 17808,
  "Pat": 12190,
  "Path": 25121,
  "Patrick": 27001,
  "Paul": 10279,
  "Pay": 21057,
  "Pe": 5744,
  "Pen": 29786,
  "People": 6686,
  "Per": 6775,
  "Perhaps": 11345,
  "Permalink": 31376,
  "Person": 16065,
  "Personal": 27821,
  "Pet": 30722,
  "Peter": 17521,
  "Ph": 2625,
  "Phil": 17397,
  "Phone": 25956,
  "Phot": 14734,
  "Photo": 4973,
  "Photos": 19987,
  "Pict": 20536,
  "Picture": 25767,
  "Pierre": 27910,
  "Pinterest": 27729,
  "Pl": 5089,
  "Plan": 20748,
  "Play": 16056,
  "Player": 23492,
  "Players": 26491,
  "Playing": 31856,
  "Please": 8744,
  "Plus": 18809,
  "Po": 21114,
  "Point": 14978,
  "Pol": 6459,
  "Police": 7185,
  "Polit": 30168,
  "Political": 26435,
  "Pop": 24651,
  "Port": 16277,
  "Post": 8033,
  "Posted": 14877,
  "Pot": 27814,
  "Power": 17311,
  "Pr": 7941,
  "Pre": 10048,
  "Prem": 27373,
  "Pres": 26411,
  "President": 8028,
  "Press": 12935,
  "Previous": 23621,
  "Previously": 29682,
  "Pri": 18911,
  "Price": 22289,
  "Prime": 21383,
  "Prince": 30778,
  "Print": 20216,
  "Prior": 21389,
  "Priv": 23851,
  "Pro": 4211,
  "Probably": 31412,
  "Product": 30382,
  "Prof": 14680,
  "Professor": 21993,
  "Project": 19854,
  "Prom": 27734,
  "Prop": 24606,
  "Proper": 30399,
  "Pros": 31699,
  "Prosecutors": 29296,
  "Prot": 24211,
  "Prov": 23738,
  "Ps": 11854,
  "Public": 15386,
  "Published": 20624,
  "Put": 15253,
  "Putin": 28589,
  "Q": 81,
  "QL": 10922,
  "QU": 20301,
  "Qaeda": 14319,
  "Qaida": 29052,
  "Qu": 6501,
  "Que": 18922,
  "Queen": 30056,
  "Query": 22952,
  "Quest": 17501,
  "Question": 26181,
  "Quick": 24985,
  "R": 82,
  "RA": 5113,
  "RAM": 31456,
  "RB": 24092,
  "RC": 8823,
  "RE": 2213,
  "READ": 13758,
  "REAK": 31934,
  "RED": 18570,
  "REE": 15659,
  "REL": 13944,
  "RELATED": 15532,
  "RES": 14895,
  "RI": 8699,
  "RL": 9251,
  "RNA": 28424,
  "RO": 12903,
  "RP": 19288,
  "RS": 8232,
  "RT": 13181,
  "RY": 26593,
  "Ra": 24200,
  "Rad": 18889,
  "Radio": 28448,
  "Ram": 30765,
  "Rather": 21692,
  "Ray": 21066,
  "Re": 3139,
  "Read": 5173,
  "Real": 16613,
  "Really": 25687,
  "Reb": 31388,
  "Rec": 7861,
  "Recent": 24793,
  "Recently": 19760,
  "Record": 27957,
  "Red": 11218,
  "Redd": 19644,
  "Reddit": 20573,
  "Ref": 8350,
  "References": 13360,
  "Reg": 10352,
  "Regardless": 22693,
  "Reilly": 18292,
  "Rel": 6938,
  "Related": 8589,
  "Release": 29015,
  "Rem": 10118,
  "Remember": 15712,
  "Ren": 30288,
  "Rep": 5921,
  "Report": 26554,
  "Reports": 30708,
  "Republic": 11965,
  "Republican": 19364,
  "Republicans": 19529,
  "Res": 6197,
  "Research": 24306,
  "Researchers": 19136,
  "Residents": 31297,
  "Resp": 21252,
  "Rest": 24785,
  "Results": 28328,
  "Ret": 14853,
  "Return": 27559,
  "Reuters": 9458,
  "Rev": 23616,
  "Review": 18004,
  "Reviewer": 29235,
  "Rich": 13876,
  "Richard": 18473,
  "Rick": 28522,
  "Right": 11059,
  "Ro": 24935,
  "Rob": 14920,
  "Rober": 13813,
  "Robert": 16885,
  "Rock": 20812,
  "Rod": 24877,
  "Rog": 27047,
  "Roll": 30943,
  "Rom": 22023,
  "Roman": 29412,
  "Romney": 30459,
  "Ron": 22394,
  "Rose": 30594,
  "Rou": 30083,
  "Round": 26481,
  "Roy": 27250,
  "Rs": 29749,
  "Rub": 19145,
  "Ruby": 27642,
  "Run": 19985,
  "Running": 28818,
  "Rus": 29411,
  "Russ": 8596,
  "Russia": 13562,
  "Russian": 13845,
  "Ryan": 17878,
  "S": 83,
  "SA": 4193,
  "SAN": 25518,
  "SC": 10488,
  "SD": 11831,
  "SE": 9545,
  "SEC": 30377,
  "SF": 31769,
  "SH": 17332,
  "SI": 17912,
  "SL": 9603,
  "SM": 14313,
  "SN": 17927,
  "SO": 16231,
  "SON": 14053,
  "SP": 4826,
  "SQL": 19002,
  "SS": 5967,
  "ST": 4599,
  "SU": 11134,
  "SW": 21062,
  "Sad": 22713,
  "Sadly": 28921,
  "Sah": 30885,
  "Sal": 19565,
  "Sam": 16745,
  "Samsung": 28420,
  "San": 14882,
  "Sand": 15226,
  "Sanders": 18701,
  "Sar": 21187,
  "Sarah": 25220,
  "Sat": 25270,
  "Saturday": 19252,
  "Saud": 27102,
  "Saudi": 28751,
  "Save": 21026,
  "Say": 29139,
  "Sc": 4200,
  "Sch": 14516,
  "School": 26026,
  "Science": 25226,
  "Scient": 17909,
  "Scientists": 21336,
  "Score": 29055,
  "Scott": 16201,
  "Script": 8662,
  "Scroll": 24433,
  "Se": 6962,
  "Sean": 24196,
  "Search": 26487,
  "Season": 21277,
  "Seattle": 29362,
  "Sec": 7399,
  "Second": 11977,
  "Secret": 22441,
  "Secretary": 31030,
  "Section": 29600,
  "Security": 23625,
  "See": 6355,
  "Select": 27451,
  "Self": 28759,
  "Semit": 14203,
  "Semitic": 22494,
  "Semitism": 20929,
  "Sen": 8557,
  "Senate": 23154,
  "Senator": 23141,
  "Send": 31257,
  "Senior": 28045,
  "Sep": 14395,
  "September": 19449,
  "Ser": 14007,
  "Series": 31330,
  "Serv": 19915,
  "Server": 29761,
  "Service": 24951,
  "Set": 13114,
  "Seven": 27064,
  "Several": 12124,
  "Sex": 24661,
  "Sh": 3075,
  "Sham": 29458,
  "Share": 10726,
  "She": 3215,
  "Shell": 29704,
  "Sher": 25806,
  "Short": 17021,
  "Shortly": 24091,
  "Should": 18863,
  "Show": 20400,
  "Side": 28872,
  "Sign": 13570,
  "Sil": 17767,
  "Sim": 9654,
  "Similar": 26668,
  "Similarly": 23172,
  "Simon": 31480,
  "Since": 5517,
  "Sing": 27657,
  "Sir": 25338,
  "Six": 19173,
  "Size": 26085,
  "Sk": 25125,
  "Sky": 23305,
  "Sl": 15681,
  "Sm": 8715,
  "Small": 24656,
  "Smart": 27372,
  "Smith": 16104,
  "Sn": 24219,
  "Snow": 27960,
  "So": 2165,
  "Social": 18783,
  "Soft": 28368,
  "Some": 3857,
  "Someone": 24950,
  "Something": 20889,
  "Sometimes": 13649,
  "Sony": 28017,
  "Soon": 24797,
  "Sorry": 21553,
  "Sound": 27171,
  "Source": 9022,
  "Sources": 18523,
  "South": 13229,
  "Sov": 31647,
  "Soviet": 31942,
  "Sp": 5854,
  "Space": 18413,
  "Spe": 6259,
  "Speaking": 10547,
  "Special": 18345,
  "Sports": 15442,
  "Spot": 30813,
  "Squ": 29196,
  "St": 1667,
  "Stack": 28894,
  "Staff": 28019,
  "Stan": 28468,
  "Stand": 24184,
  "Star": 8204,
  "Stars": 30635,
  "Start": 13736,
  "Starting": 22313,
  "Stat": 28490,
  "State": 10556,
  "Station": 10451,
  "Stay": 24360,
  "Ste": 5614,
  "Step": 10558,
  "Stephen": 22736,
  "Steve": 17456,
  "Steven": 25095,
  "Still": 9144,
  "Stock": 28658,
  "Stop": 19640,
  "Story": 9635,
  "Str": 23693,
  "Stream": 25176,
  "String": 16406,
  "Stud": 13651,
  "Students": 26398,
  "Sty": 30383,
  "Su": 23116,
  "Sub": 8091,
  "Subject": 21333,
  "Subscribe": 18913,
  "Such": 14102,
  "Sum": 16417,
  "Summary": 26303,
  "Sun": 19304,
  "Sund": 21094,
  "Sunday": 22352,
  "Super": 14595,
  "Supp": 11260,
  "Support": 21164,
  "Sur": 15159,
  "Sure": 17537,
  "Sus": 27588,
  "Sw": 19189,
  "Swed": 31117,
  "Sy": 13755,
  "System": 24574,
  "T": 84,
  "TA": 6257,
  "TB": 23977,
  "TC": 5170,
  "TE": 10884,
  "TER": 10198,
  "TF": 26143,
  "TH": 5659,
  "THE": 11944,
  "TI": 26158,
  "TION": 13241,
  "TIS": 12165,
  "TL": 19492,
  "TM": 25345,
  "TO": 11529,
  "TON": 10417,
  "TOR": 26509,
  "TP": 9936,
  "TR": 10621,
  "TS": 6439,
  "TT": 20210,
  "TV": 5867,
  "TY": 17657,
  "Table": 16735,
  "Take": 12185,
  "Taking": 23216,
  "Tal": 29773,
  "Talk": 26778,
  "Tax": 27360,
  "Taylor": 29116,
  "Te": 6385,
  "Team": 17041,
  "Tech": 21655,
  "Techn": 26010,
  "Ted": 30638,
  "Tele": 28296,
  "Tell": 24537,
  "Tem": 23392,
  "Ten": 23562,
  "Ter": 16156,
  "Tes": 31804,
  "Test": 19166,
  "Tex": 15867,
  "Texas": 17770,
  "Text": 19296,
  "Th": 801,
  "Thank": 10673,
  "Thanks": 10341,
  "That": 2128,
  "The": 445,
  "Their": 12004,
  "Then": 6235,
  "There": 1639,
  "Therefore": 26446,
  "These": 4290,
  "They": 2520,
  "Things": 19455,
  "Think": 19131,
  "Third": 21457,
  "Thirty": 30831,
  "This": 1207,
  "Thomas": 19891,
  "Those": 7933,
  "Though": 9231,
  "Thousands": 28037,
  "Thread": 30284,
  "Three": 11072,
  "Through": 12811,
  "Throughout": 20988,
  "Thursday": 24045,
  "Thus": 18729,
  "Tim": 15541,
  "Time": 10827,
  "Times": 25611,
  "Tit": 24161,
  "Title": 29413,
  "To": 2728,
  "Today": 7347,
  "Tom": 13237,
  "Tony": 25075,
  "Too": 23969,
  "Top": 10289,
  "Topics": 21319,
  "Tor": 14327,
  "Toronto": 25688,
  "Torrent": 27878,
  "Total": 18258,
  "Tr": 3170,
  "Tra": 26912,
  "Track": 30472,
  "Trans": 11156,
  "Travel": 31648,
  "Tre": 27346,
  "Tri": 26845,
  "True": 23059,
  "Trump": 4925,
  "Try": 27470,
  "Ts": 26073,
  "Tube": 5998,
  "Tuesday": 24734,
  "Tumblr": 31985,
  "Tunes": 13940,
  "Tur": 14968,
  "Turkey": 24312,
  "Turn": 20378,
  "Tw": 16934,
  "Twenty": 28314,
  "Twitter": 12061,
  "Two": 6690,
  "Ty": 10320,
  "Type": 14778,
  "U": 85,
  "UB": 28250,
  "UC": 11469,
  "UCK": 23241,
  "UD": 12787,
  "UE": 13689,
  "UG": 19670,
  "UI": 14025,
  "UK": 16798,
  "UL": 8152,
  "ULL": 17228,
  "ULT": 30252,
  "UM": 14224,
  "UMP": 24260,
  "UN": 8332,
  "UP": 16255,
  "UPDATE": 13575,
  "UR": 7794,
  "URE": 20090,
  "US": 3181,
  "USA": 13694,
  "USD": 31291,
  "USE": 20217,
  "USH": 30116,
  "UST": 9127,
  "UT": 5959,
  "UTC": 19591,
  "UTERS": 12427,
  "Uk": 25036,
  "Ult": 16043,
  "Ultimately": 20944,
  "Un": 3965,
  "Under": 8397,
  "Unfortunately": 11740,
  "United": 16659,
  "University": 21275,
  "Unless": 25933,
  "Unlike": 15629,
  "Until": 15299,
  "Up": 5488,
  "Update": 10503,
  "Updated": 16169,
  "Upon": 20459,
  "Ur": 23166,
  "Us": 8000,
  "Use": 16541,
  "User": 19923,
  "Users": 28725,
  "Using": 13210,
  "Ut": 24374,
  "V": 86,
  "VA": 15074,
  "VC": 19566,
  "VD": 9754,
  "VE": 9267,
  "VEL": 30853,
  "VER": 7085,
  "VERTIS": 12600,
  "VI": 17262,
  "VID": 15272,
  "VIDIA": 22597,
  "VM": 17213,
  "VO": 30660,
  "VP": 10325,
  "VR": 15664,
  "Val": 14216,
  "Value": 22169,
  "Van": 25101,
  "Var": 31053,
  "Ve": 21342,
  "Ver": 16351,
  "Version": 29774,
  "Very": 19831,
  "Via": 24059,
  "Vict": 21095,
  "Video": 12998,
  "View": 10438,
  "Virgin": 30701,
  "Vis": 18199,
  "Vol": 22062,
  "Vs": 29504,
  "W": 87,
  "WA": 14352,
  "WAR": 26286,
  "WASHINGTON": 15896,
  "WATCH": 27350,
  "WC": 27697,
  "WE": 24517,
  "WH": 14601,
  "WR": 21605,
  "WS": 12616,
  "WW": 19487,
  "Wait": 23280,
  "Wal": 22929,
  "Wall": 22661,
  "Want": 19367,
  "War": 12170,
  "Was": 18761,
  "Washington": 14939,
  "Watch": 9615,
  "Water": 22287,
  "Way": 26200,
  "We": 1030,
  "Web": 19699,
  "Wed": 22822,
  "Wednesday": 25461,
  "Week": 20706,
  "Welcome": 18508,
  "Well": 5704,
  "West": 13886,
  "Western": 21232,
  "Wh": 1156,
  "What": 1996,
  "Whatever": 18360,
  "Whe": 10433,
  "When": 2074,
  "Whenever": 28899,
  "Where": 8546,
  "Whether": 13359,
  "Which": 12581,
  "While": 3038,
  "White": 11964,
  "Who": 8134,
  "Why": 4996,
  "Wil": 20548,
  "Wild": 27473,
  "Will": 8461,
  "William": 23213,
  "Williams": 23033,
  "Wilson": 30105,
  "Win": 21717,
  "Wind": 15776,
  "Windows": 20647,
  "Wire": 30435,
  "With": 2988,
  "Within": 19229,
  "Without": 15547,
  "Women": 17338,
  "Wood": 26764,
  "Work": 13532,
  "Working": 25952,
  "Works": 24127,
  "World": 12189,
  "Would": 17859,
  "Wow": 21133,
  "Writ": 14154,
  "Write": 26030,
  "Writing": 27835,
  "Written": 24256,
  "X": 88,
  "XX": 13446,
  "Y": 89,
  "YS": 27920,
  "Yeah": 11100,
  "Year": 20825,
  "Yes": 6123,
  "Yesterday": 21166,
  "Yet": 9150,
  "You": 1816,
  "YouTube": 29694,
  "Young": 19077,
  "Your": 8963,
  "Z": 90,
  "[": 91,
  "['": 30374,
  "[/": 16426,
  "\\": 92,
  "\\\"": 26840,
  "\\)": 30564,
  "\\-": 20262,
  "\\/": 19613,
  "\\\\": 18450,
  "]": 93,
  "])": 16550,
  "],": 5837,
  "],\"": 27905,
  "],âĢĿ": 31543,
  "].": 5086,
  "]:": 13059,
  "];": 16554,
  "]<|": 12435,
  "][": 2989,
  "]]": 20338,
  "^": 94,
  "^{": 21024,
  "_": 95,
  "__": 1444,
  "___": 20044,
  "____": 2678,
  "________": 4698,
  "________________": 8571,
  "________________________________": 17252,
  "_{": 17124,
  "`": 96,
  "a": 97,
  "aa": 14905,
  "ab": 409,
  "aba": 15483,
  "abad": 14337,
  "abama": 7459,
  "abase": 22855,
  "abb": 5227,
  "abbing": 12438,
  "abe": 10790,
  "abee": 22551,
  "abel": 14846,
  "abet": 9946,
  "abetes": 12429,
  "abeth": 8769,
  "abi": 16806,
  "abil": 8404,
  "abilities": 5708,
  "ability": 1901,
  "abin": 5814,
  "abinet": 7999,
  "abis": 6763,
  "abit": 29788,
  "abl": 13065,
  "able": 574,
  "abled": 5883,
  "ables": 3397,
  "abling": 12304,
  "ablish": 17154,
  "ablished": 20441,
  "ablishment": 21983,
  "ablo": 16789,
  "ably": 1292,
  "abor": 3205,
  "abortion": 25133,
  "about": 11140,
  "abouts": 25380,
  "above": 28311,
  "abs": 7996,
  "abul": 13907,
  "abulary": 20616,
  "abwe": 19775,
  "aby": 4113,
  "abytes": 31394,
  "ac": 312,
  "aca": 21634,
  "acas": 31879,
  "acc": 6911,
  "accept": 11708,
  "acceptable": 13134,
  "access": 16911,
  "accessible": 30637,
  "acco": 9129,
  "account": 24147,
  "accur": 14724,
  "ace": 559,
  "acebook": 2299,
  "aced": 2284,
  "acent": 12936,
  "acer": 12507,
  "acerb": 18164,
  "aces": 2124,
  "aceutical": 13356,
  "acey": 22349,
  "ach": 633,
  "acha": 31869,
  "ache": 5942,
  "ached": 2445,
  "achel": 9828,
  "achelor": 19560,
  "acher": 9981,
  "achers": 15452,
  "aches": 3494,
  "achi": 18613,
  "achine": 24504,
  "aching": 7990,
  "achment": 11160,
  "acht": 17934,
  "achus": 8102,
  "achusetts": 8209,
  "acial": 21427,
  "acies": 12364,
  "acing": 4075,
  "acious": 13799,
  "acity": 4502,
  "aciÃ³n": 25592,
  "ack": 449,
  "acked": 7322,
  "acker": 14141,
  "ackers": 24123,
  "acket": 9035,
  "ackets": 27721,
  "acking": 6841,
  "acks": 5164,
  "acle": 6245,
  "acles": 10404,
  "aco": 11350,
  "acon": 8487,
  "aconian": 30743,
  "acre": 10357,
  "acs": 20857,
  "act": 507,
  "acted": 20190,
  "acter": 6108,
  "acters": 27465,
  "actic": 13978,
  "acting": 25257,
  "action": 2612,
  "actions": 7435,
  "activ": 18773,
  "active": 7593,
  "actively": 28158,
  "activity": 23748,
  "actly": 22832,
  "actor": 11231,
  "actory": 12810,
  "acts": 9538,
  "acular": 12324,
  "acy": 1490,
  "ad": 325,
  "ada": 4724,
  "adal": 29145,
  "adan": 24646,
  "adata": 17527,
  "adays": 17596,
  "add": 3362,
  "addafi": 17686,
  "adder": 30960,
  "addock": 31306,
  "addy": 14198,
  "ade": 676,
  "aded": 5156,
  "adel": 6655,
  "adelph": 7285,
  "adelphia": 7345,
  "adem": 3516,
  "adena": 31175,
  "adequ": 15178,
  "ader": 5190,
  "aders": 9920,
  "ades": 2259,
  "adesh": 10869,
  "adh": 18630,
  "adi": 10609,
  "adia": 27476,
  "adian": 17129,
  "adic": 22541,
  "adin": 29164,
  "ading": 4332,
  "aditional": 17168,
  "adium": 5067,
  "adjusted": 29688,
  "ado": 4043,
  "ador": 6143,
  "ados": 20512,
  "adow": 5785,
  "adows": 13335,
  "ads": 7138,
  "advant": 13070,
  "ady": 4605,
  "ae": 4422,
  "aed": 7573,
  "aeda": 8952,
  "ael": 2744,
  "af": 2010,
  "afa": 26623,
  "afe": 9412,
  "afer": 30247,
  "afety": 26041,
  "aff": 1452,
  "affe": 13768,
  "affeine": 21668,
  "affer": 26639,
  "affle": 31000,
  "afi": 13075,
  "afia": 20139,
  "afort": 19237,
  "aft": 21021,
  "after": 9595,
  "ag": 370,
  "aga": 9406,
  "again": 16342,
  "against": 27941,
  "agan": 6445,
  "agar": 30111,
  "age": 504,
  "aged": 1815,
  "agement": 2972,
  "agen": 10676,
  "agent": 23364,
  "ager": 2429,
  "agers": 6080,
  "ages": 1130,
  "agg": 8606,
  "agged": 14857,
  "agger": 9961,
  "aggering": 17058,
  "agging": 14454,
  "agh": 9756,
  "aghd": 13635,
  "agher": 24554,
  "agi": 25625,
  "agic": 9136,
  "agically": 31893,
  "agine": 11053,
  "aging": 2571,
  "agle": 18856,
  "agn": 4968,
  "agne": 19549,
  "agnetic": 22269,
  "ago": 3394,
  "agog": 28371,
  "agogue": 25572,
  "agon": 3515,
  "agonal": 27571,
  "agonist": 15129,
  "agram": 7242,
  "agrams": 31260,
  "agraph": 12186,
  "ags": 4260,
  "agu": 11885,
  "ague": 1744,
  "agues": 5030,
  "ah": 1037,
  "aha": 14002,
  "ahan": 16084,
  "ahar": 30100,
  "ahl": 13754,
  "ahn": 15038,
  "aho": 15408,
  "ahon": 24598,
  "ahoo": 11002,
  "ahu": 9579,
  "ai": 2040,
  "aic": 16535,
  "aid": 1980,
  "aida": 23870,
  "aign": 1434,
  "ail": 612,
  "ailable": 10306,
  "ailand": 13869,
  "ailed": 9471,
  "ailing": 11664,
  "ails": 1916,
  "ailure": 23488,
  "aily": 2886,
  "aim": 1288,
  "ain": 389,
  "aine": 5292,
  "ained": 1501,
  "ainer": 16792,
  "aining": 1572,
  "ains": 1379,
  "aint": 3652,
  "ainted": 15602,
  "aints": 5727,
  "air": 1007,
  "aird": 27834,
  "aire": 6916,
  "aired": 14995,
  "aires": 14841,
  "airo": 14657,
  "airs": 3503,
  "airy": 13300,
  "ais": 9501,
  "ait": 4737,
  "aith": 3946,
  "aj": 1147,
  "aja": 25615,
  "aji": 27584,
  "ajo": 26432,
  "ajor": 1347,
  "ak": 470,
  "aka": 8962,
  "akable": 28714,
  "ake": 537,
  "aked": 4201,
  "akedown": 26676,
  "aken": 1656,
  "akens": 28377,
  "aker": 3052,
  "akers": 3340,
  "akes": 1116,
  "akespe": 17358,
  "akespeare": 17574,
  "akh": 10003,
  "aki": 10116,
  "akin": 28219,
  "aking": 830,
  "akis": 22757,
  "akistan": 4592,
  "ako": 24992,
  "aks": 4336,
  "aku": 14485,
  "aky": 15182,
  "al": 283,
  "ala": 6448,
  "alach": 28125,
  "ald": 1804,
  "aldi": 31770,
  "ale": 1068,
  "aleb": 26637,
  "aled": 5689,
  "aleigh": 26580,
  "ales": 2041,
  "aley": 13721,
  "alez": 17736,
  "alf": 1561,
  "ali": 7780,
  "alia": 8968,
  "alian": 6480,
  "aliation": 19399,
  "alid": 12117,
  "alin": 14721,
  "aline": 22530,
  "aling": 5545,
  "alion": 19687,
  "alis": 28708,
  "alities": 25550,
  "ality": 1543,
  "alk": 967,
  "alker": 23175,
  "alking": 18662,
  "all": 447,
  "alla": 28043,
  "allah": 20782,
  "allas": 6774,
  "alle": 6839,
  "alled": 3027,
  "alleng": 29096,
  "allic": 23479,
  "alling": 9590,
  "allow": 15774,
  "alls": 5345,
  "ally": 453,
  "almost": 24049,
  "alo": 7073,
  "alog": 13274,
  "alone": 17692,
  "along": 21908,
  "alph": 13969,
  "als": 876,
  "alse": 4076,
  "alsh": 17636,
  "also": 14414,
  "alt": 2630,
  "alth": 1080,
  "although": 15306,
  "alties": 9921,
  "alty": 6273,
  "aly": 3440,
  "alys": 30107,
  "alysis": 9878,
  "am": 323,
  "ama": 1289,
  "amac": 8740,
  "amacare": 8839,
  "aman": 12341,
  "amas": 15430,
  "amation": 15598,
  "amb": 3650,
  "amba": 28327,
  "amber": 7822,
  "ambers": 15669,
  "ambig": 25890,
  "ambled": 26583,
  "ambling": 11360,
  "ambo": 23948,
  "amboo": 29642,
  "ame": 491,
  "amed": 2032,
  "amel": 20486,
  "ament": 1866,
  "amental": 25273,
  "aments": 11008,
  "amer": 2199,
  "amera": 18917,
  "ames": 1017,
  "ami": 8132,
  "amic": 21207,
  "amiliar": 17642,
  "amily": 6656,
  "amin": 6147,
  "amina": 30021,
  "amination": 29193,
  "amine": 10819,
  "aminer": 25986,
  "aming": 3231,
  "amins": 27771,
  "amm": 5049,
  "ammad": 20488,
  "ammar": 16945,
  "ammed": 8579,
  "ammy": 23581,
  "amo": 15775,
  "amon": 18090,
  "among": 30667,
  "amoto": 23402,
  "amount": 18282,
  "amous": 9937,
  "amp": 674,
  "ampa": 11158,
  "amped": 15123,
  "amph": 26015,
  "amphetamine": 31058,
  "ampion": 5842,
  "ampions": 3521,
  "ampionship": 4561,
  "ampire": 18009,
  "ampires": 31780,
  "ample": 1475,
  "amples": 18541,
  "amps": 13571,
  "ampton": 16560,
  "ams": 1867,
  "amsung": 8002,
  "amus": 26011,
  "amy": 15651,
  "an": 272,
  "ana": 2186,
  "analysis": 24771,
  "anamo": 23385,
  "anan": 24287,
  "anas": 17711,
  "anc": 1166,
  "ance": 604,
  "anced": 3209,
  "ancer": 18555,
  "ancers": 20363,
  "ances": 1831,
  "anch": 3481,
  "anche": 5385,
  "anches": 11961,
  "anchester": 7433,
  "anchez": 16453,
  "ancial": 2480,
  "ancies": 15890,
  "ancing": 4965,
  "anco": 25946,
  "ancock": 31876,
  "ancouver": 8174,
  "ancy": 4734,
  "and": 388,
  "anda": 4895,
  "andal": 6371,
  "andals": 17984,
  "ande": 31867,
  "anded": 12262,
  "andem": 25919,
  "ander": 4355,
  "andi": 30208,
  "anding": 16754,
  "ando": 17732,
  "andom": 4577,
  "andon": 4657,
  "andra": 25463,
  "andro": 23968,
  "android": 30900,
  "ands": 1703,
  "andum": 24755,
  "andy": 12595,
  "ane": 1604,
  "aned": 19997,
  "aneous": 14442,
  "aneously": 26477,
  "anes": 6675,
  "aney": 18631,
  "ang": 671,
  "anga": 23942,
  "ange": 883,
  "anged": 5692,
  "angel": 8581,
  "anger": 2562,
  "angered": 15637,
  "angerous": 22311,
  "angers": 5844,
  "anges": 6868,
  "anging": 4702,
  "angle": 9912,
  "angled": 19462,
  "angles": 28234,
  "angling": 24250,
  "ango": 15125,
  "angu": 2336,
  "anguage": 11286,
  "anguard": 26276,
  "angular": 21623,
  "ani": 3294,
  "ania": 5041,
  "anic": 27528,
  "anie": 31304,
  "aniel": 5819,
  "anies": 16674,
  "anim": 10865,
  "aning": 7881,
  "anish": 6413,
  "anity": 19585,
  "anium": 13514,
  "ank": 969,
  "anka": 13402,
  "anke": 27517,
  "anked": 13294,
  "ankind": 29186,
  "anking": 12817,
  "anks": 2970,
  "ann": 1624,
  "anna": 8491,
  "annah": 25361,
  "anne": 15903,
  "annel": 4639,
  "annels": 8739,
  "anners": 18208,
  "anni": 27911,
  "annie": 30150,
  "annon": 9679,
  "anny": 7409,
  "ano": 5283,
  "anoia": 26625,
  "anol": 21221,
  "another": 27388,
  "anqu": 28347,
  "ans": 495,
  "ansas": 5933,
  "ansen": 29691,
  "ansing": 20474,
  "ansion": 5207,
  "ansk": 31922,
  "ansom": 18045,
  "anson": 19308,
  "ant": 424,
  "anta": 19353,
  "ante": 14393,
  "anted": 4581,
  "antha": 28453,
  "anthrop": 18484,
  "anti": 15209,
  "antic": 7729,
  "antically": 29428,
  "antics": 28366,
  "antine": 17530,
  "anting": 15001,
  "antle": 15551,
  "antly": 3874,
  "anto": 13789,
  "antom": 17875,
  "anton": 19208,
  "antry": 20688,
  "ants": 1212,
  "any": 1019,
  "anyahu": 11472,
  "anye": 22888,
  "anyon": 20764,
  "anz": 30804,
  "anza": 31251,
  "ao": 7158,
  "ap": 465,
  "apan": 2574,
  "ape": 2184,
  "aped": 5766,
  "apego": 31364,
  "aper": 2039,
  "apers": 5226,
  "apes": 7274,
  "apest": 30532,
  "aph": 3138,
  "api": 23791,
  "aping": 8881,
  "apiro": 25057,
  "apolis": 9564,
  "apon": 29744,
  "apor": 14793,
  "apore": 10210,
  "app": 1335,
  "appa": 25815,
  "apped": 4844,
  "apper": 10879,
  "apping": 5651,
  "appings": 29807,
  "apple": 24789,
  "appointed": 26693,
  "appro": 15540,
  "appropri": 10367,
  "appropriate": 11978,
  "approved": 26017,
  "appy": 8233,
  "aps": 1585,
  "apse": 6837,
  "apt": 2891,
  "apter": 5624,
  "aptic": 31037,
  "apture": 26159,
  "apy": 14220,
  "aqu": 22620,
  "aque": 17783,
  "ar": 284,
  "ara": 3577,
  "arag": 28113,
  "arak": 19671,
  "aran": 4537,
  "aration": 9752,
  "arations": 23435,
  "arc": 2466,
  "arcer": 15186,
  "arch": 990,
  "arching": 30807,
  "archive": 30519,
  "archs": 29843,
  "archy": 9105,
  "arcity": 27395,
  "arcraft": 29074,
  "ard": 458,
  "arded": 11565,
  "arden": 6339,
  "ardi": 18680,
  "arding": 14547,
  "ardless": 13228,
  "ardo": 10992,
  "ardon": 19626,
  "ards": 1451,
  "ardy": 30938,
  "are": 527,
  "area": 19270,
  "ared": 1126,
  "arel": 22258,
  "aren": 5158,
  "arency": 10082,
  "arendra": 21249,
  "arent": 1553,
  "arenthood": 12974,
  "arently": 11846,
  "arents": 12950,
  "arer": 11855,
  "ares": 3720,
  "arest": 13204,
  "aret": 8523,
  "areth": 24024,
  "arette": 14380,
  "arettes": 12634,
  "arez": 15898,
  "arg": 864,
  "arge": 1203,
  "arget": 10364,
  "argo": 8904,
  "ari": 3410,
  "aria": 9970,
  "arian": 3436,
  "arians": 11767,
  "ariat": 21029,
  "aries": 3093,
  "arily": 3009,
  "arin": 16935,
  "aring": 1602,
  "ario": 4526,
  "arios": 11749,
  "arious": 18927,
  "aris": 23485,
  "arity": 6972,
  "arium": 20696,
  "arius": 22542,
  "ark": 678,
  "arks": 5155,
  "arl": 6131,
  "arlier": 7844,
  "arly": 875,
  "arm": 2058,
  "arma": 12070,
  "armac": 31923,
  "armed": 11208,
  "arming": 14045,
  "arms": 8549,
  "arn": 6719,
  "aro": 11020,
  "aron": 7418,
  "around": 12850,
  "arp": 5681,
  "arr": 3370,
  "arrass": 8175,
  "array": 23891,
  "arre": 9380,
  "arrison": 21518,
  "arro": 29309,
  "arrow": 27650,
  "arry": 6908,
  "ars": 950,
  "arse": 17709,
  "arsh": 5084,
  "arson": 10675,
  "art": 428,
  "arta": 28901,
  "arted": 11119,
  "arten": 21554,
  "arter": 2292,
  "arters": 6036,
  "arth": 3087,
  "arthed": 30389,
  "arthy": 13469,
  "article": 22243,
  "articles": 27415,
  "artisan": 14283,
  "artment": 1681,
  "arts": 15261,
  "artz": 21830,
  "aru": 16066,
  "arus": 22890,
  "ary": 557,
  "as": 291,
  "asa": 16632,
  "asant": 9528,
  "asc": 3180,
  "ascal": 25254,
  "ascist": 26880,
  "ascript": 17666,
  "ascular": 17982,
  "ascus": 16596,
  "ase": 623,
  "ased": 825,
  "aser": 6924,
  "asers": 28930,
  "ases": 1440,
  "ash": 1151,
  "asha": 18027,
  "ashed": 5169,
  "ashes": 7606,
  "ashi": 16189,
  "ashing": 1854,
  "ashington": 2095,
  "ashion": 5501,
  "ashtra": 29210,
  "asi": 14667,
  "asing": 2139,
  "asio": 22568,
  "asion": 7761,
  "asis": 20893,
  "asive": 15905,
  "ask": 2311,
  "aska": 7764,
  "asket": 16864,
  "asketball": 22821,
  "asking": 26267,
  "asks": 6828,
  "asm": 14505,
  "asma": 15467,
  "ason": 821,
  "asonable": 17541,
  "asonic": 30025,
  "asons": 2545,
  "asp": 5721,
  "aspberry": 19253,
  "asper": 30985,
  "ass": 577,
  "assad": 27930,
  "assador": 8933,
  "assadors": 31465,
  "asse": 20435,
  "assed": 21851,
  "asser": 22902,
  "asses": 16502,
  "assic": 26716,
  "assing": 22646,
  "assion": 11255,
  "assis": 21278,
  "assium": 30463,
  "assuming": 30470,
  "assy": 9815,
  "ast": 472,
  "aste": 4312,
  "asted": 10700,
  "aster": 1880,
  "astered": 29190,
  "astern": 5830,
  "asters": 7157,
  "astery": 28032,
  "astic": 3504,
  "astical": 31035,
  "astically": 13407,
  "astics": 22271,
  "asting": 10446,
  "aston": 30953,
  "astrous": 15710,
  "asts": 6993,
  "asty": 8405,
  "asure": 6035,
  "asures": 15813,
  "asury": 9476,
  "asy": 4536,
  "at": 266,
  "ata": 1164,
  "atable": 16675,
  "atal": 11934,
  "atalie": 27460,
  "atar": 9338,
  "atch": 1016,
  "atched": 15103,
  "atcher": 31608,
  "atches": 26832,
  "atching": 17227,
  "ate": 368,
  "ated": 515,
  "ateful": 10836,
  "ateg": 2555,
  "ategory": 17051,
  "ategy": 3883,
  "atel": 21239,
  "atell": 6469,
  "atellite": 26980,
  "ately": 1270,
  "ater": 739,
  "ateral": 9799,
  "atered": 28419,
  "aterial": 2619,
  "atern": 9556,
  "aternal": 15495,
  "aternity": 16168,
  "aters": 14032,
  "ates": 677,
  "ateur": 13631,
  "atever": 3539,
  "atform": 3159,
  "ath": 844,
  "athan": 6174,
  "athe": 26244,
  "athed": 28407,
  "ather": 1038,
  "athered": 7760,
  "atherine": 13875,
  "athering": 25094,
  "athetic": 16272,
  "athing": 23438,
  "athom": 29100,
  "athon": 12014,
  "athy": 7639,
  "ati": 7148,
  "atible": 23989,
  "atic": 2045,
  "atical": 22689,
  "atically": 4477,
  "atican": 14930,
  "atics": 17150,
  "atile": 12559,
  "atility": 17075,
  "atin": 12442,
  "ating": 805,
  "atinum": 19753,
  "ation": 342,
  "ational": 796,
  "ationally": 12707,
  "ations": 589,
  "atisf": 16205,
  "atism": 19685,
  "ative": 859,
  "atively": 9927,
  "atives": 2631,
  "ativity": 19374,
  "atlantic": 31166,
  "ato": 5922,
  "atoes": 12141,
  "aton": 13963,
  "ator": 1567,
  "atorial": 17797,
  "atories": 18201,
  "atorium": 24787,
  "ators": 1988,
  "atory": 2949,
  "atra": 23018,
  "atre": 12347,
  "atri": 22282,
  "ats": 1679,
  "atsu": 26234,
  "att": 2347,
  "atta": 24230,
  "attack": 17802,
  "attacks": 29712,
  "atter": 11973,
  "attered": 10653,
  "attering": 18978,
  "atti": 27801,
  "attle": 3882,
  "attled": 23722,
  "atts": 24369,
  "atum": 30490,
  "atur": 2395,
  "atural": 2716,
  "aturally": 7515,
  "aturday": 3112,
  "ature": 1360,
  "atured": 20719,
  "atures": 5257,
  "aturing": 29969,
  "atus": 10596,
  "atz": 27172,
  "au": 556,
  "auc": 12598,
  "aucas": 22919,
  "aucus": 11998,
  "aucuses": 27002,
  "aud": 3706,
  "aude": 23443,
  "auer": 14147,
  "auf": 23321,
  "aug": 7065,
  "augh": 1562,
  "aughed": 14880,
  "aughs": 16283,
  "aught": 3336,
  "aughter": 3570,
  "aughtered": 29399,
  "aughters": 12114,
  "aukee": 12836,
  "aul": 2218,
  "ault": 2133,
  "aun": 7216,
  "aunch": 21479,
  "aunted": 24777,
  "aunting": 19227,
  "aur": 2909,
  "aura": 31654,
  "aus": 8009,
  "ause": 669,
  "ausible": 15222,
  "aut": 2569,
  "auth": 18274,
  "author": 9701,
  "authored": 31343,
  "authorized": 18741,
  "aution": 27324,
  "autions": 30177,
  "aux": 14069,
  "av": 626,
  "ava": 4822,
  "available": 16328,
  "aval": 8796,
  "avan": 20864,
  "avascript": 31889,
  "ave": 1040,
  "aved": 9418,
  "aven": 5110,
  "aver": 9211,
  "average": 21422,
  "avers": 28952,
  "avery": 11790,
  "aves": 3305,
  "avez": 21691,
  "avi": 16576,
  "avia": 18749,
  "avian": 27873,
  "avier": 23325,
  "avin": 19907,
  "aving": 2637,
  "avior": 20333,
  "avoid": 25374,
  "avor": 6747,
  "avorite": 24048,
  "avour": 31213,
  "avy": 2911,
  "aw": 704,
  "awa": 6753,
  "aware": 8934,
  "awatts": 31724,
  "away": 8089,
  "aways": 20821,
  "awei": 27407,
  "awi": 19586,
  "awk": 24205,
  "awks": 10570,
  "awn": 5090,
  "aws": 13107,
  "ax": 970,
  "axies": 20292,
  "axis": 26815,
  "axy": 6947,
  "ay": 318,
  "aya": 12108,
  "ayan": 21036,
  "aye": 31145,
  "ayed": 12473,
  "ayer": 5223,
  "ayers": 6531,
  "ayette": 24474,
  "aying": 8096,
  "aylor": 6748,
  "ays": 566,
  "ayson": 28069,
  "az": 1066,
  "aza": 6141,
  "azar": 19412,
  "azard": 31280,
  "aze": 6819,
  "azed": 14113,
  "azeera": 19108,
  "azer": 19629,
  "azers": 25375,
  "azi": 6768,
  "azine": 4859,
  "azines": 14851,
  "azing": 4311,
  "azingly": 23421,
  "azon": 4645,
  "azor": 18643,
  "azy": 12786,
  "azz": 7757,
  "b": 98,
  "ba": 8123,
  "bable": 27792,
  "bably": 11681,
  "bach": 18440,
  "back": 1813,
  "backed": 13001,
  "backs": 8889,
  "bad": 15336,
  "bag": 21689,
  "bai": 22829,
  "bal": 7629,
  "balance": 20255,
  "balanced": 27295,
  "ball": 1729,
  "balls": 18116,
  "ban": 3442,
  "band": 3722,
  "bands": 21190,
  "bane": 18175,
  "bank": 18634,
  "bar": 6874,
  "bard": 19611,
  "bart": 12636,
  "bas": 18451,
  "base": 9869,
  "based": 2791,
  "bast": 18309,
  "bat": 11372,
  "baum": 22074,
  "bay": 31814,
  "bb": 16980,
  "bc": 25619,
  "be": 1366,
  "bean": 14061,
  "bearing": 28664,
  "beat": 11666,
  "bec": 8220,
  "because": 12470,
  "becca": 19277,
  "beck": 24320,
  "becue": 27220,
  "bed": 3111,
  "bedroom": 28713,
  "bee": 21622,
  "before": 21244,
  "begin": 31289,
  "beh": 20870,
  "being": 11112,
  "beit": 12973,
  "bel": 6827,
  "belie": 24521,
  "belief": 21899,
  "believ": 15872,
  "bell": 7910,
  "ben": 11170,
  "bench": 27284,
  "ber": 518,
  "bered": 9601,
  "berg": 3624,
  "berger": 18497,
  "berman": 26081,
  "bern": 27698,
  "bernatorial": 30599,
  "berra": 25936,
  "berries": 23481,
  "berry": 9425,
  "bers": 1157,
  "bert": 4390,
  "berto": 26703,
  "bery": 11437,
  "bes": 11528,
  "best": 12902,
  "bet": 12089,
  "better": 24341,
  "between": 23820,
  "bey": 22340,
  "bf": 30046,
  "bi": 9038,
  "bial": 20058,
  "bian": 11035,
  "bians": 26135,
  "bid": 25312,
  "bie": 12319,
  "big": 13233,
  "bike": 28679,
  "bil": 28395,
  "billion": 18446,
  "bilt": 29314,
  "bin": 10645,
  "bing": 9967,
  "bird": 19692,
  "birth": 25896,
  "bish": 27540,
  "bishop": 22353,
  "bit": 2639,
  "bitious": 11194,
  "bits": 9759,
  "bl": 2997,
  "black": 14423,
  "blank": 29065,
  "ble": 906,
  "bled": 19754,
  "blem": 13958,
  "blems": 24319,
  "bles": 12611,
  "bley": 31589,
  "blind": 30135,
  "bling": 18078,
  "block": 11481,
  "blog": 14677,
  "blood": 20523,
  "blown": 25486,
  "blue": 20639,
  "bn": 8445,
  "bnb": 26406,
  "bo": 2438,
  "board": 3730,
  "boarding": 21400,
  "boards": 12416,
  "boat": 23533,
  "body": 2365,
  "bomb": 29021,
  "bon": 3957,
  "bone": 15502,
  "bons": 21943,
  "book": 1814,
  "books": 10705,
  "boot": 27273,
  "bor": 2730,
  "border": 22878,
  "borg": 26371,
  "borhood": 29060,
  "born": 6389,
  "borne": 12295,
  "boro": 21115,
  "borough": 14722,
  "bot": 16271,
  "both": 16379,
  "bottom": 26913,
  "bound": 10713,
  "bour": 4805,
  "bourg": 21988,
  "bourne": 10365,
  "bow": 9383,
  "bows": 28513,
  "box": 3850,
  "boy": 6902,
  "boys": 11381,
  "bps": 19410,
  "br": 1724,
  "bra": 17173,
  "brain": 28618,
  "bral": 25493,
  "brance": 30855,
  "brand": 20277,
  "branded": 28864,
  "braska": 15393,
  "bre": 4814,
  "bread": 30313,
  "break": 9348,
  "breaker": 27726,
  "breaking": 11091,
  "breaks": 25998,
  "brew": 12489,
  "brid": 10017,
  "bridge": 9081,
  "bright": 29040,
  "bringing": 29532,
  "bro": 7839,
  "broken": 23440,
  "brook": 18016,
  "brow": 31319,
  "bs": 1579,
  "bsite": 14777,
  "bsp": 27156,
  "bt": 27741,
  "bu": 12509,
  "bucks": 18206,
  "budget": 28501,
  "build": 15565,
  "building": 15072,
  "built": 19056,
  "bul": 14484,
  "bull": 13668,
  "bum": 3732,
  "buquerque": 29902,
  "bur": 6189,
  "burg": 6883,
  "burgh": 7987,
  "burn": 12048,
  "bury": 9620,
  "bus": 18479,
  "business": 20025,
  "buster": 20528,
  "busters": 24594,
  "but": 4622,
  "button": 23232,
  "buy": 27218,
  "by": 1559,
  "bye": 16543,
  "byn": 12235,
  "c": 99,
  "ca": 8303,
  "cair": 29790,
  "cal": 10840,
  "call": 16528,
  "called": 5907,
  "cam": 22064,
  "camera": 23117,
  "camp": 17795,
  "can": 6056,
  "cann": 29677,
  "cano": 21897,
  "cap": 11030,
  "capital": 23239,
  "caps": 25466,
  "car": 8007,
  "carbon": 24896,
  "card": 11322,
  "cards": 31697,
  "care": 5783,
  "carry": 30772,
  "cars": 31190,
  "cas": 27916,
  "case": 8489,
  "cast": 2718,
  "caster": 30725,
  "casting": 20179,
  "castle": 15054,
  "cat": 12237,
  "cation": 25379,
  "cats": 23457,
  "cause": 24465,
  "cc": 529,
  "cca": 13702,
  "ccess": 1525,
  "ccording": 2412,
  "cd": 16609,
  "ce": 346,
  "cean": 5444,
  "ceans": 16826,
  "ced": 773,
  "cedented": 9639,
  "cedes": 15627,
  "ceed": 2982,
  "ceived": 6623,
  "cel": 5544,
  "celer": 6973,
  "cell": 4238,
  "celona": 11635,
  "cember": 2940,
  "cend": 13634,
  "cent": 1023,
  "center": 20497,
  "centric": 22880,
  "century": 11444,
  "cept": 1048,
  "ception": 4763,
  "ceptions": 9541,
  "ceptive": 23706,
  "cer": 1056,
  "cers": 6965,
  "cert": 31777,
  "certain": 6509,
  "cery": 31416,
  "ces": 728,
  "cess": 978,
  "cest": 9658,
  "cester": 28499,
  "cf": 22720,
  "ch": 354,
  "cha": 14075,
  "chain": 7529,
  "chair": 14467,
  "chan": 3613,
  "change": 3846,
  "changing": 19706,
  "channel": 29598,
  "chant": 16877,
  "char": 13479,
  "character": 22970,
  "chard": 28582,
  "charg": 11510,
  "charge": 12563,
  "charged": 16692,
  "charging": 30990,
  "chat": 18797,
  "che": 2646,
  "check": 10218,
  "checked": 25532,
  "ched": 1650,
  "chedel": 19901,
  "chel": 27781,
  "chell": 10610,
  "chem": 19700,
  "chemical": 31661,
  "chen": 6580,
  "chens": 24120,
  "cher": 4183,
  "chers": 6587,
  "ches": 2104,
  "chet": 24539,
  "chewan": 23158,
  "chi": 13120,
  "chie": 2892,
  "chief": 15856,
  "child": 9764,
  "children": 16096,
  "chin": 23811,
  "ching": 10406,
  "chn": 1277,
  "chnology": 17550,
  "cho": 6490,
  "choice": 22182,
  "chool": 1169,
  "chron": 12251,
  "cht": 19020,
  "church": 29890,
  "chy": 29073,
  "ci": 1057,
  "cia": 31570,
  "cial": 2495,
  "cially": 1969,
  "ciation": 18862,
  "cience": 4293,
  "cient": 3661,
  "cier": 27487,
  "cies": 3036,
  "cific": 8384,
  "cifically": 17196,
  "cified": 20917,
  "cig": 19885,
  "cigarettes": 26861,
  "cil": 2528,
  "cill": 14763,
  "cin": 20080,
  "cing": 2118,
  "cious": 5147,
  "ciously": 18812,
  "cip": 25166,
  "cipl": 19705,
  "cipled": 31545,
  "ciples": 7011,
  "ciplinary": 29698,
  "circ": 21854,
  "cision": 19228,
  "citation": 11147,
  "city": 21886,
  "cium": 22162,
  "civil": 31872,
  "ck": 732,
  "cker": 13642,
  "cknow": 4717,
  "cks": 4863,
  "cl": 1327,
  "clad": 31666,
  "claim": 8591,
  "claimed": 13275,
  "clair": 24193,
  "clamation": 24550,
  "class": 5416,
  "cle": 3031,
  "clean": 28246,
  "clear": 25883,
  "cled": 20593,
  "cles": 7685,
  "click": 15850,
  "client": 26895,
  "cliffe": 30887,
  "cling": 8211,
  "clipse": 31151,
  "clock": 18546,
  "close": 23713,
  "closed": 14649,
  "closure": 13827,
  "cloud": 25016,
  "club": 17471,
  "clus": 2790,
  "clusion": 14642,
  "clusive": 16238,
  "cm": 16089,
  "cn": 30840,
  "co": 1320,
  "coal": 28816,
  "cock": 18513,
  "cod": 21891,
  "code": 12147,
  "coh": 5202,
  "cohol": 5568,
  "coholic": 22112,
  "coin": 3399,
  "coins": 13474,
  "col": 5640,
  "coll": 21848,
  "collar": 28195,
  "colm": 15814,
  "color": 15276,
  "colored": 26033,
  "com": 914,
  "comb": 22240,
  "come": 3065,
  "comed": 12326,
  "comes": 8980,
  "comfort": 19464,
  "coming": 4340,
  "comings": 25035,
  "comm": 14551,
  "comment": 25161,
  "comments": 31370,
  "commerce": 22642,
  "committee": 22629,
  "common": 19165,
  "commun": 10586,
  "communication": 31430,
  "communications": 18968,
  "community": 30262,
  "comp": 11509,
  "compass": 16090,
  "compet": 22576,
  "compl": 23401,
  "complete": 19833,
  "computer": 29042,
  "con": 1058,
  "cond": 18414,
  "condition": 31965,
  "conf": 9025,
  "conference": 31656,
  "config": 19214,
  "coni": 30074,
  "connect": 12477,
  "connected": 17882,
  "conom": 1279,
  "cons": 6051,
  "conscious": 18227,
  "const": 9802,
  "constitutional": 14915,
  "consuming": 29834,
  "cont": 4209,
  "content": 16737,
  "contin": 25627,
  "continental": 29989,
  "contract": 27808,
  "control": 15131,
  "controlled": 12551,
  "cook": 31892,
  "cool": 24509,
  "coon": 29488,
  "cop": 28134,
  "cor": 10499,
  "core": 8379,
  "corn": 23868,
  "correct": 29977,
  "cos": 6000,
  "cost": 14836,
  "cosystem": 9942,
  "cot": 19835,
  "cott": 11574,
  "could": 20863,
  "count": 11946,
  "counter": 23201,
  "country": 21365,
  "course": 19824,
  "court": 17592,
  "cover": 8633,
  "covered": 29415,
  "covery": 16101,
  "cow": 7050,
  "cp": 24669,
  "cr": 7806,
  "cracy": 19181,
  "craft": 3727,
  "crat": 12627,
  "cre": 10497,
  "creat": 22985,
  "create": 21889,
  "created": 25235,
  "crib": 9087,
  "cribed": 13214,
  "crime": 23179,
  "cript": 7007,
  "cription": 7958,
  "criptions": 22227,
  "critical": 23505,
  "cro": 21366,
  "croft": 31624,
  "cross": 21701,
  "cry": 15378,
  "cs": 13785,
  "css": 31673,
  "ct": 332,
  "ctic": 8993,
  "ctica": 23136,
  "ction": 631,
  "ctions": 2831,
  "ctor": 2602,
  "ctors": 4555,
  "ctr": 9216,
  "ctuary": 29493,
  "cue": 19281,
  "cul": 3741,
  "cular": 11546,
  "culation": 15587,
  "cule": 21684,
  "cules": 14037,
  "cultural": 26412,
  "culture": 21312,
  "culus": 15674,
  "cup": 29030,
  "cur": 19516,
  "current": 16783,
  "cus": 7770,
  "custom": 30375,
  "cut": 9189,
  "cuts": 23577,
  "cutting": 25074,
  "cy": 972,
  "cycl": 19313,
  "cycle": 29396,
  "cyclop": 25589,
  "cyclopedia": 29089,
  "cz": 29348,
  "cÃ©": 27139,
  "d": 100,
  "da": 7899,
  "daily": 27531,
  "dain": 22868,
  "dale": 13009,
  "dam": 12325,
  "dan": 25054,
  "dar": 26322,
  "dark": 25636,
  "dat": 29274,
  "data": 11881,
  "date": 6100,
  "dated": 8829,
  "dates": 24544,
  "daughter": 27586,
  "day": 742,
  "days": 13812,
  "db": 15347,
  "dc": 30560,
  "dd": 2121,
  "dden": 4936,
  "dding": 30155,
  "de": 3175,
  "dead": 24948,
  "deal": 26938,
  "death": 21972,
  "deb": 17063,
  "dec": 12746,
  "ded": 9384,
  "deen": 31745,
  "deep": 19194,
  "def": 6134,
  "default": 23859,
  "defense": 17684,
  "define": 30384,
  "defined": 25156,
  "degree": 14444,
  "del": 15075,
  "dem": 8450,
  "demand": 24743,
  "democratic": 31906,
  "den": 5314,
  "dep": 11062,
  "dependent": 22384,
  "depth": 17900,
  "der": 1154,
  "des": 8858,
  "desc": 16404,
  "describ": 26140,
  "described": 28678,
  "description": 29544,
  "design": 26212,
  "designed": 26505,
  "dest": 18121,
  "det": 19727,
  "deter": 21927,
  "dev": 12068,
  "develop": 15603,
  "developed": 28050,
  "df": 11475,
  "di": 13216,
  "dict": 10971,
  "did": 19655,
  "die": 15338,
  "dies": 22315,
  "dig": 13385,
  "digit": 23954,
  "dimensional": 18094,
  "din": 21940,
  "dinand": 31644,
  "ding": 12488,
  "dir": 28449,
  "direct": 13252,
  "directed": 29079,
  "director": 27201,
  "dis": 6457,
  "disc": 14955,
  "display": 14020,
  "displaystyle": 18196,
  "dist": 18537,
  "distance": 29194,
  "dit": 8656,
  "div": 9670,
  "division": 30055,
  "dney": 9023,
  "do": 4725,
  "doc": 21672,
  "document": 28008,
  "does": 21176,
  "dog": 9091,
  "dogs": 21348,
  "doing": 16000,
  "dollar": 17352,
  "dom": 3902,
  "dominated": 26191,
  "don": 9446,
  "done": 29500,
  "door": 9011,
  "doors": 19141,
  "dot": 29304,
  "dou": 24844,
  "double": 27293,
  "down": 2933,
  "download": 27651,
  "dr": 11149,
  "dragon": 27780,
  "draw": 26420,
  "dream": 29629,
  "dri": 8720,
  "drive": 24408,
  "driven": 13417,
  "driving": 18525,
  "dro": 7045,
  "drop": 12739,
  "dropping": 30387,
  "drug": 28287,
  "ds": 10414,
  "du": 655,
  "duc": 6383,
  "duct": 2687,
  "ducted": 20335,
  "duction": 27897,
  "due": 21614,
  "duino": 25839,
  "dule": 5888,
  "duty": 23108,
  "dy": 10203,
  "e": 101,
  "ea": 25659,
  "each": 30488,
  "ead": 1326,
  "eah": 4929,
  "eal": 2206,
  "ealous": 16215,
  "eals": 9502,
  "ean": 3904,
  "eanor": 17266,
  "ear": 464,
  "earance": 31055,
  "earch": 4107,
  "earchers": 13224,
  "eared": 3144,
  "earing": 7265,
  "early": 10435,
  "ears": 4449,
  "earth": 18858,
  "eas": 26667,
  "east": 23246,
  "eat": 28591,
  "eating": 26459,
  "eb": 1938,
  "ebus": 25677,
  "ec": 767,
  "eca": 29568,
  "ecause": 3046,
  "ecd": 18437,
  "ech": 2750,
  "eches": 13783,
  "econom": 12544,
  "economic": 15406,
  "ect": 524,
  "ected": 16022,
  "ection": 8659,
  "ective": 9183,
  "ector": 14146,
  "ects": 11562,
  "ecut": 8253,
  "ecutive": 9003,
  "ed": 275,
  "edIn": 16558,
  "eda": 22544,
  "edd": 5818,
  "eddy": 22640,
  "ede": 16621,
  "eded": 12805,
  "eder": 5353,
  "ederal": 1807,
  "ederation": 9241,
  "edge": 14829,
  "edia": 5658,
  "edience": 21969,
  "edin": 20296,
  "eding": 8760,
  "edition": 28735,
  "edo": 25949,
  "eds": 5602,
  "edu": 20611,
  "educ": 15925,
  "educated": 21832,
  "edy": 6186,
  "ee": 1774,
  "eed": 2952,
  "eeks": 26883,
  "een": 10045,
  "eer": 28333,
  "ees": 2881,
  "ef": 981,
  "efe": 17952,
  "efeated": 28963,
  "eff": 3221,
  "effect": 27854,
  "effective": 26201,
  "efficient": 21820,
  "efined": 22404,
  "efully": 6520,
  "eg": 22372,
  "ei": 19245,
  "eight": 24404,
  "either": 31587,
  "ek": 927,
  "eking": 18294,
  "eks": 2324,
  "el": 432,
  "ela": 9374,
  "elaide": 19052,
  "eland": 8426,
  "elcome": 11930,
  "ele": 9644,
  "elect": 7853,
  "elected": 20619,
  "election": 10522,
  "electric": 25234,
  "eled": 17405,
  "eless": 5119,
  "elf": 14663,
  "elia": 30260,
  "eligible": 29049,
  "elin": 25283,
  "eline": 4345,
  "elines": 17796,
  "eling": 10369,
  "ell": 968,
  "ella": 14604,
  "ellar": 14421,
  "ellation": 25955,
  "elle": 11138,
  "elled": 17798,
  "eller": 11875,
  "elli": 26325,
  "elling": 15663,
  "ello": 11730,
  "ellow": 5973,
  "elly": 5838,
  "elman": 27150,
  "elo": 23633,
  "elong": 17807,
  "els": 1537,
  "elsen": 21298,
  "elsh": 17039,
  "elsius": 28022,
  "elson": 9401,
  "elt": 2102,
  "elta": 13353,
  "elve": 10698,
  "em": 433,
  "ema": 21810,
  "emade": 21392,
  "email": 15053,
  "emaker": 31095,
  "emale": 15635,
  "eman": 8065,
  "emb": 26083,
  "embed": 31927,
  "ember": 2580,
  "emed": 9282,
  "emen": 7420,
  "emer": 21910,
  "emet": 16812,
  "emetery": 17008,
  "emic": 10024,
  "emies": 30712,
  "emin": 12057,
  "eming": 28464,
  "emit": 11783,
  "emon": 23885,
  "employ": 5833,
  "employment": 28353,
  "empt": 17599,
  "emption": 19403,
  "ems": 7828,
  "emy": 21871,
  "en": 268,
  "ena": 6572,
  "enable": 30169,
  "enabled": 26547,
  "ename": 23173,
  "enary": 23283,
  "enas": 29155,
  "enberg": 20814,
  "enburg": 31428,
  "enc": 13439,
  "ence": 584,
  "enced": 5274,
  "encer": 12026,
  "ences": 2962,
  "ench": 25638,
  "encia": 22510,
  "encies": 3737,
  "encing": 8976,
  "ency": 1337,
  "end": 396,
  "enda": 6031,
  "endant": 28276,
  "endar": 10314,
  "endas": 28194,
  "ended": 1716,
  "ender": 2261,
  "endered": 26426,
  "enders": 7048,
  "endez": 30263,
  "ending": 1494,
  "endment": 5393,
  "endo": 29356,
  "endof": 701,
  "endoftext": 702,
  "endon": 31534,
  "endor": 30180,
  "ends": 2583,
  "ene": 1696,
  "ened": 2915,
  "enegger": 31996,
  "ener": 911,
  "eneration": 18467,
  "energy": 18591,
  "enery": 26190,
  "enes": 18926,
  "eness": 10228,
  "enez": 9223,
  "enezuel": 10043,
  "enf": 24448,
  "enfranch": 29912,
  "eng": 1614,
  "enge": 3347,
  "engeance": 26296,
  "enger": 6119,
  "engers": 8070,
  "engine": 18627,
  "ength": 3953,
  "engu": 13818,
  "enh": 23393,
  "ening": 3002,
  "enko": 26288,
  "enly": 17351,
  "enment": 21531,
  "enn": 1727,
  "enna": 13014,
  "ennial": 24701,
  "ennis": 9201,
  "enny": 8177,
  "eno": 26239,
  "enos": 25853,
  "ens": 643,
  "ense": 1075,
  "ensed": 17095,
  "ensen": 16774,
  "enses": 4884,
  "ensible": 27496,
  "ensing": 26567,
  "ension": 3240,
  "ensions": 5661,
  "ensitive": 18756,
  "ensity": 6762,
  "ensive": 1812,
  "enson": 16247,
  "ensor": 29450,
  "ensual": 28108,
  "ensus": 6535,
  "ent": 299,
  "ental": 10170,
  "ente": 20909,
  "ented": 4213,
  "enter": 9474,
  "enth": 7849,
  "enthal": 29467,
  "ential": 1722,
  "entially": 3218,
  "entials": 14348,
  "entin": 30850,
  "enting": 29953,
  "ention": 1159,
  "entions": 14839,
  "ently": 2173,
  "enton": 23667,
  "entric": 21146,
  "entry": 18245,
  "ents": 756,
  "enture": 6016,
  "enty": 3659,
  "env": 31389,
  "enz": 17312,
  "enza": 22719,
  "enzie": 22088,
  "eon": 24288,
  "eor": 12880,
  "ep": 513,
  "epend": 2415,
  "ependence": 13998,
  "ependent": 7848,
  "epernick": 22455,
  "eping": 7153,
  "eprint": 18518,
  "eps": 26588,
  "ept": 7393,
  "eption": 22759,
  "equ": 4633,
  "er": 263,
  "era": 7742,
  "eral": 1538,
  "erala": 27162,
  "erald": 11238,
  "erals": 16072,
  "erate": 27154,
  "erc": 3301,
  "ercise": 27532,
  "ere": 657,
  "ered": 1143,
  "eree": 18069,
  "erek": 15880,
  "erem": 29756,
  "eremy": 9731,
  "eren": 17007,
  "erence": 1930,
  "erences": 4920,
  "erent": 9803,
  "erential": 29303,
  "erer": 13468,
  "erers": 18764,
  "erg": 9208,
  "ergy": 29739,
  "eria": 9795,
  "erie": 18585,
  "eries": 8880,
  "ering": 1343,
  "erion": 29300,
  "erk": 20717,
  "erm": 20678,
  "erman": 1961,
  "ern": 1539,
  "ername": 20276,
  "ernand": 10990,
  "ernandez": 15294,
  "ernaut": 31912,
  "ernel": 11800,
  "erness": 17589,
  "ernick": 21664,
  "erno": 31397,
  "ero": 3754,
  "eroids": 30034,
  "eros": 27057,
  "erous": 5088,
  "err": 11655,
  "error": 27011,
  "erry": 3799,
  "ers": 359,
  "ersion": 12134,
  "erson": 913,
  "ert": 2017,
  "ertain": 1457,
  "ertainly": 16139,
  "erted": 8841,
  "erting": 15472,
  "erts": 9309,
  "erv": 1265,
  "ervation": 13987,
  "ervative": 17583,
  "ervatives": 28815,
  "erve": 3623,
  "erved": 5739,
  "erves": 6460,
  "erving": 12437,
  "ery": 2276,
  "es": 276,
  "esame": 30734,
  "esar": 18645,
  "esc": 6624,
  "escope": 16035,
  "ese": 2840,
  "esh": 8873,
  "esides": 12002,
  "esis": 13325,
  "esity": 13884,
  "esome": 6097,
  "eson": 31702,
  "especially": 15170,
  "esque": 23458,
  "ess": 413,
  "essa": 21731,
  "essage": 17993,
  "esse": 29591,
  "essed": 7368,
  "essee": 9497,
  "essential": 27329,
  "essim": 23477,
  "ession": 2976,
  "essional": 13494,
  "essions": 5603,
  "essler": 27851,
  "essment": 24066,
  "essor": 5974,
  "essors": 19862,
  "est": 384,
  "esta": 16186,
  "established": 23552,
  "estation": 31025,
  "este": 17147,
  "ested": 10206,
  "esteem": 28184,
  "ester": 8288,
  "estern": 2959,
  "esters": 5767,
  "estial": 28504,
  "estic": 4205,
  "estinal": 25004,
  "estine": 20079,
  "estival": 5792,
  "eston": 17117,
  "estone": 12757,
  "estones": 28673,
  "ests": 2726,
  "esty": 8923,
  "estyle": 10212,
  "esville": 17100,
  "esy": 7419,
  "et": 322,
  "eta": 17134,
  "etary": 7609,
  "etc": 20245,
  "ete": 15491,
  "eted": 20173,
  "eteen": 30657,
  "eteenth": 24790,
  "eter": 2632,
  "etermined": 28259,
  "eters": 8996,
  "eth": 3187,
  "ethe": 9618,
  "etheless": 10897,
  "ether": 6854,
  "ethical": 26574,
  "ethyl": 31255,
  "etic": 5511,
  "etics": 23058,
  "eties": 25714,
  "etime": 7805,
  "eting": 13985,
  "etition": 16067,
  "etitive": 20415,
  "eto": 31578,
  "eton": 16671,
  "etooth": 17383,
  "etr": 23151,
  "etro": 3745,
  "etroit": 6408,
  "ets": 1062,
  "etsk": 24856,
  "ett": 3445,
  "etta": 14253,
  "ette": 5806,
  "ettes": 23462,
  "etti": 22078,
  "etts": 7920,
  "etty": 4282,
  "etus": 26009,
  "ety": 2869,
  "etz": 19382,
  "eu": 12916,
  "eur": 20658,
  "ev": 2073,
  "eval": 19647,
  "even": 9730,
  "event": 20509,
  "ever": 992,
  "everal": 7478,
  "every": 15539,
  "evil": 24005,
  "evin": 5899,
  "ew": 562,
  "eway": 17715,
  "eworthy": 22753,
  "ews": 16713,
  "ex": 1134,
  "example": 28693,
  "exc": 27382,
  "except": 19558,
  "exe": 24617,
  "existent": 28747,
  "existing": 22698,
  "exp": 14848,
  "exper": 21695,
  "expl": 21778,
  "ext": 10707,
  "extreme": 23198,
  "extremely": 30839,
  "ey": 4975,
  "eye": 27557,
  "eyed": 18193,
  "ez": 7610,
  "f": 102,
  "fa": 19193,
  "face": 2947,
  "facebook": 22094,
  "faced": 22231,
  "facing": 25083,
  "fact": 20197,
  "fair": 18579,
  "fake": 26165,
  "fall": 7684,
  "falls": 20872,
  "false": 20879,
  "family": 18632,
  "fan": 16874,
  "far": 15281,
  "fare": 8208,
  "fashion": 22224,
  "fashioned": 24154,
  "fast": 7198,
  "fat": 24139,
  "father": 10581,
  "fax": 19488,
  "fd": 30924,
  "fe": 5241,
  "fect": 2538,
  "fed": 23684,
  "feed": 15180,
  "feeding": 25415,
  "feld": 13859,
  "fell": 23601,
  "felt": 28120,
  "female": 28642,
  "femin": 30066,
  "fer": 2585,
  "ference": 4608,
  "fest": 25536,
  "fet": 27705,
  "few": 27288,
  "ff": 497,
  "ffield": 24240,
  "ffiti": 20489,
  "fi": 12284,
  "fiction": 21965,
  "field": 3064,
  "fields": 28444,
  "fif": 29057,
  "fig": 22894,
  "fight": 21126,
  "fighting": 25562,
  "figure": 24829,
  "fil": 14068,
  "file": 12450,
  "files": 27053,
  "fill": 21750,
  "filled": 18277,
  "film": 25779,
  "fin": 15780,
  "final": 18137,
  "finals": 23345,
  "find": 25701,
  "finder": 29441,
  "fing": 31866,
  "fire": 6987,
  "fired": 20941,
  "fires": 22514,
  "first": 11374,
  "fish": 11425,
  "fit": 10431,
  "fits": 19135,
  "fitting": 29873,
  "five": 13146,
  "fix": 17593,
  "fl": 3145,
  "flation": 28574,
  "flies": 28576,
  "flight": 19964,
  "flix": 8725,
  "float": 26395,
  "floor": 26766,
  "flow": 12129,
  "flower": 28961,
  "flu": 16604,
  "fly": 13723,
  "focused": 21735,
  "fol": 9271,
  "fold": 13660,
  "folk": 20618,
  "follow": 27803,
  "font": 26856,
  "foo": 29422,
  "food": 19425,
  "foot": 6679,
  "for": 1649,
  "force": 2985,
  "forcement": 12923,
  "ford": 3468,
  "fore": 779,
  "forest": 30365,
  "forestation": 31029,
  "fork": 31966,
  "form": 716,
  "formance": 11896,
  "format": 29381,
  "formation": 4829,
  "formed": 12216,
  "former": 11600,
  "formerly": 31809,
  "formers": 25912,
  "forming": 14588,
  "forms": 27970,
  "fort": 3389,
  "forth": 24750,
  "fortunately": 6274,
  "forward": 11116,
  "found": 8178,
  "founded": 23118,
  "founder": 12709,
  "four": 14085,
  "fox": 12940,
  "fr": 9983,
  "frac": 21586,
  "frame": 15266,
  "fre": 29173,
  "free": 5791,
  "frequ": 29922,
  "frey": 30992,
  "fried": 29687,
  "friend": 6552,
  "friendly": 11326,
  "from": 7627,
  "front": 7701,
  "fs": 12932,
  "ft": 729,
  "ften": 14451,
  "fter": 618,
  "ftime": 26475,
  "fu": 28374,
  "fuel": 25879,
  "ful": 921,
  "full": 15823,
  "fully": 2834,
  "fulness": 15661,
  "fun": 18800,
  "function": 10735,
  "fund": 9109,
  "funded": 13988,
  "funding": 20009,
  "furt": 24627,
  "fy": 26862,
  "g": 103,
  "ga": 4742,
  "gaard": 29217,
  "gae": 21464,
  "gage": 21340,
  "gal": 10579,
  "galitarian": 31448,
  "gall": 23831,
  "gam": 25953,
  "game": 6487,
  "games": 28463,
  "gan": 945,
  "gang": 26597,
  "gar": 4992,
  "gard": 23801,
  "gars": 25999,
  "gary": 12174,
  "gas": 6559,
  "gat": 29393,
  "gate": 10731,
  "gay": 18165,
  "ge": 481,
  "geant": 25812,
  "gebra": 29435,
  "ged": 1937,
  "gel": 14289,
  "gem": 19581,
  "gen": 4224,
  "gence": 11687,
  "gencies": 30768,
  "gency": 4584,
  "gender": 6905,
  "gener": 8088,
  "general": 22188,
  "generated": 28332,
  "generation": 15764,
  "gent": 6168,
  "gently": 28929,
  "geon": 8631,
  "geoning": 26183,
  "geons": 31187,
  "ger": 1404,
  "gerald": 22071,
  "gered": 9772,
  "geries": 25044,
  "gering": 23068,
  "gers": 4899,
  "gery": 6843,
  "ges": 3096,
  "gest": 2977,
  "get": 1140,
  "gether": 1896,
  "getown": 23853,
  "gets": 10456,
  "gg": 1014,
  "gged": 10902,
  "gger": 20419,
  "ggest": 1768,
  "ggie": 20115,
  "gging": 17511,
  "ggle": 15868,
  "ggles": 31601,
  "ggy": 18592,
  "gh": 462,
  "ghai": 16570,
  "ghan": 4468,
  "ghazi": 16729,
  "gi": 13526,
  "gia": 6045,
  "gian": 13062,
  "gic": 24689,
  "gie": 20258,
  "giene": 27426,
  "gin": 1621,
  "ging": 2712,
  "gio": 21994,
  "girl": 17753,
  "git": 24631,
  "github": 22904,
  "give": 30102,
  "given": 31638,
  "giving": 13144,
  "gl": 5508,
  "glas": 12641,
  "glass": 21926,
  "global": 23539,
  "glomer": 28093,
  "gly": 10962,
  "gmail": 19050,
  "gment": 5570,
  "gments": 12066,
  "gn": 5142,
  "go": 2135,
  "goal": 27789,
  "goers": 24149,
  "going": 4569,
  "gold": 25570,
  "gom": 16221,
  "gomery": 16800,
  "gon": 17346,
  "gone": 18820,
  "good": 10978,
  "google": 24153,
  "gor": 6706,
  "gorith": 7376,
  "got": 24604,
  "gotten": 28196,
  "gov": 11290,
  "government": 11680,
  "governmental": 26981,
  "gow": 17572,
  "gr": 894,
  "grad": 10669,
  "gradation": 24686,
  "grade": 10110,
  "gram": 1248,
  "grand": 22324,
  "graph": 10502,
  "grass": 29183,
  "grat": 16728,
  "grav": 15900,
  "great": 16371,
  "gree": 13033,
  "green": 15179,
  "greg": 6363,
  "gregated": 25022,
  "gregation": 12837,
  "gren": 28150,
  "gress": 1788,
  "gression": 29810,
  "gressive": 22943,
  "grid": 28054,
  "gro": 14178,
  "ground": 2980,
  "group": 12206,
  "groups": 30008,
  "growing": 19749,
  "grown": 18325,
  "growth": 26035,
  "gs": 15952,
  "gt": 12846,
  "gu": 4728,
  "guard": 12587,
  "guards": 20169,
  "gue": 17067,
  "guided": 19563,
  "gun": 7771,
  "gus": 10149,
  "guyen": 31165,
  "gy": 1290,
  "gypt": 5017,
  "h": 104,
  "ha": 3311,
  "hab": 5696,
  "habi": 27580,
  "had": 17099,
  "haired": 28836,
  "hal": 14685,
  "half": 12248,
  "hall": 18945,
  "ham": 2614,
  "hammad": 13286,
  "hammer": 27717,
  "han": 9061,
  "hand": 5376,
  "handed": 12157,
  "hang": 31470,
  "hani": 29824,
  "happy": 31914,
  "haps": 2554,
  "har": 9657,
  "hard": 9871,
  "hardt": 23287,
  "harm": 28267,
  "hart": 17475,
  "has": 10421,
  "hash": 22299,
  "hat": 17705,
  "hate": 31047,
  "hatt": 9664,
  "hattan": 10450,
  "haul": 13211,
  "haus": 26626,
  "have": 13288,
  "haw": 18514,
  "hawks": 23188,
  "he": 258,
  "hea": 24286,
  "head": 2239,
  "headed": 14728,
  "heading": 30079,
  "heads": 16370,
  "health": 12626,
  "healthy": 20546,
  "heard": 21177,
  "heart": 17787,
  "hearted": 18080,
  "heast": 8185,
  "heastern": 15466,
  "heat": 30309,
  "heavy": 21872,
  "hed": 708,
  "hedral": 19142,
  "hedul": 4995,
  "hee": 20925,
  "heed": 19837,
  "heid": 21096,
  "height": 26188,
  "heim": 9042,
  "heimer": 14503,
  "heit": 27111,
  "hel": 2780,
  "held": 9330,
  "hell": 16873,
  "hello": 31277,
  "help": 14445,
  "helps": 29527,
  "helsea": 8867,
  "hem": 4693,
  "hement": 28833,
  "hemy": 31565,
  "hen": 862,
  "hend": 15808,
  "hene": 23993,
  "henko": 22337,
  "hens": 4969,
  "hensive": 28865,
  "hent": 7565,
  "her": 366,
  "here": 1468,
  "hered": 5636,
  "herence": 22244,
  "herent": 7642,
  "heres": 19324,
  "heric": 13272,
  "hern": 2624,
  "hero": 10613,
  "hers": 1911,
  "herty": 23702,
  "hes": 1021,
  "hesda": 30060,
  "hesis": 8910,
  "hest": 3472,
  "hester": 17986,
  "het": 3177,
  "hetamine": 25776,
  "hetic": 6433,
  "hetical": 18234,
  "hetically": 28502,
  "hetics": 22995,
  "hett": 15585,
  "hetti": 31471,
  "hetto": 31628,
  "hew": 13953,
  "hey": 17241,
  "hh": 24128,
  "hi": 5194,
  "hib": 3322,
  "hibition": 23089,
  "hift": 24605,
  "hig": 21751,
  "high": 8975,
  "highest": 28200,
  "hill": 12230,
  "hin": 26064,
  "hing": 675,
  "hip": 1012,
  "hips": 6444,
  "hire": 10633,
  "his": 14105,
  "hist": 10511,
  "historic": 27391,
  "hit": 19073,
  "hl": 21330,
  "hm": 24233,
  "hma": 23543,
  "hn": 20962,
  "hner": 14408,
  "ho": 8620,
  "hod": 2459,
  "hof": 30001,
  "hol": 12637,
  "hold": 3045,
  "holder": 14783,
  "holders": 9577,
  "hole": 14462,
  "holes": 25102,
  "holm": 19340,
  "hom": 30114,
  "home": 13560,
  "hon": 23856,
  "hood": 2642,
  "hop": 8988,
  "hops": 20843,
  "hor": 17237,
  "horn": 29767,
  "horse": 27979,
  "host": 5852,
  "hot": 8668,
  "hots": 15803,
  "hou": 22610,
  "hour": 8443,
  "hours": 30769,
  "house": 4516,
  "houses": 18840,
  "hov": 31886,
  "how": 4666,
  "hower": 26349,
  "hp": 29051,
  "hr": 11253,
  "ht": 5579,
  "htaking": 28962,
  "htm": 27788,
  "html": 9440,
  "http": 4132,
  "https": 8094,
  "hu": 17460,
  "hua": 27447,
  "hum": 15510,
  "human": 10432,
  "hun": 23036,
  "hurst": 29032,
  "hus": 6674,
  "hy": 8380,
  "hyd": 24414,
  "i": 105,
  "ia": 531,
  "iability": 8608,
  "iable": 3790,
  "iably": 16500,
  "iac": 9996,
  "iago": 23960,
  "iah": 11705,
  "iak": 26992,
  "ial": 494,
  "ially": 1725,
  "ials": 10471,
  "iam": 3060,
  "iami": 6633,
  "iams": 5196,
  "ian": 652,
  "iana": 7340,
  "iance": 3854,
  "iances": 15196,
  "iang": 14082,
  "iani": 20021,
  "iann": 27931,
  "iano": 9272,
  "ians": 1409,
  "iant": 3099,
  "iao": 20735,
  "iar": 11439,
  "iary": 12531,
  "ias": 5379,
  "iasm": 13566,
  "iat": 6191,
  "iate": 9029,
  "iated": 10847,
  "iates": 30057,
  "iating": 23655,
  "iation": 4285,
  "iatric": 18092,
  "iatus": 28721,
  "iaz": 16653,
  "ib": 588,
  "iba": 25290,
  "ibal": 19076,
  "iban": 10226,
  "iband": 25868,
  "ibe": 25755,
  "iber": 1830,
  "iberal": 16650,
  "ibi": 26685,
  "ibilities": 7486,
  "ibility": 2224,
  "ibl": 10623,
  "ible": 897,
  "ibles": 17006,
  "ibli": 26737,
  "iblical": 16041,
  "ibling": 28969,
  "iblings": 17756,
  "ibly": 3006,
  "ibo": 24637,
  "ibr": 3261,
  "ibrary": 4660,
  "ibus": 30692,
  "ic": 293,
  "ica": 4125,
  "icable": 19645,
  "icago": 3924,
  "ical": 593,
  "ically": 1128,
  "icals": 27291,
  "ican": 6353,
  "icans": 19283,
  "icate": 7687,
  "icated": 3435,
  "icates": 19947,
  "icating": 15894,
  "ication": 4926,
  "ications": 4818,
  "ice": 499,
  "iced": 3863,
  "icer": 7229,
  "icers": 14730,
  "ices": 1100,
  "icester": 20105,
  "ich": 484,
  "iche": 15197,
  "ichever": 24745,
  "ichi": 23500,
  "ichick": 31164,
  "icht": 18228,
  "ici": 4689,
  "icia": 30141,
  "icial": 4226,
  "icially": 23940,
  "icials": 12992,
  "ician": 6299,
  "icians": 4275,
  "iciaries": 25845,
  "iciary": 12565,
  "icidal": 21647,
  "icide": 4982,
  "icides": 15975,
  "iciency": 6705,
  "icient": 3508,
  "icing": 6050,
  "icious": 6308,
  "icip": 4343,
  "icism": 9584,
  "icit": 3927,
  "icity": 8763,
  "ick": 663,
  "icked": 11026,
  "icken": 7086,
  "icker": 19650,
  "ickers": 20391,
  "icket": 8440,
  "ickets": 14901,
  "icking": 8322,
  "icks": 3326,
  "icky": 20352,
  "icle": 1623,
  "icles": 3088,
  "ico": 3235,
  "icon": 4839,
  "icro": 2547,
  "icrosoft": 4268,
  "ics": 882,
  "ict": 707,
  "icted": 5143,
  "icter": 28404,
  "iction": 2954,
  "ictionary": 16166,
  "ictions": 8477,
  "icts": 12536,
  "icular": 22908,
  "icularly": 19607,
  "icult": 2091,
  "icultural": 21971,
  "icus": 22727,
  "icut": 12508,
  "icy": 4674,
  "icz": 25737,
  "id": 310,
  "ida": 3405,
  "idable": 21326,
  "idad": 22650,
  "idal": 11236,
  "idan": 28446,
  "idant": 30531,
  "idas": 24309,
  "idate": 21563,
  "idation": 29645,
  "idav": 19430,
  "iday": 2219,
  "idays": 13259,
  "idd": 1652,
  "idden": 5268,
  "idding": 12410,
  "iddle": 2327,
  "iddled": 30007,
  "iddles": 28317,
  "iddy": 31631,
  "ide": 490,
  "ided": 1386,
  "idel": 5734,
  "idelines": 7649,
  "idelity": 22741,
  "iden": 11266,
  "idence": 1674,
  "idency": 7431,
  "ident": 660,
  "idental": 31201,
  "identally": 20661,
  "identified": 16477,
  "idents": 3030,
  "ideo": 6319,
  "ideos": 15953,
  "idepress": 25692,
  "ider": 1518,
  "idered": 3014,
  "idering": 5032,
  "iders": 3901,
  "ides": 1516,
  "idespread": 7908,
  "idge": 3169,
  "idges": 14326,
  "idi": 18472,
  "idian": 25778,
  "iding": 2486,
  "idious": 29775,
  "idis": 25500,
  "idity": 17149,
  "ido": 15384,
  "ids": 2065,
  "idy": 18735,
  "ie": 448,
  "iece": 9078,
  "ied": 829,
  "ief": 1909,
  "iegel": 29869,
  "iel": 8238,
  "ield": 1229,
  "ielding": 31520,
  "iem": 30498,
  "ien": 2016,
  "ience": 1190,
  "ienced": 24452,
  "iences": 8673,
  "iencies": 20433,
  "iens": 10551,
  "ient": 1235,
  "ients": 2544,
  "ier": 1224,
  "ierce": 9518,
  "iere": 11202,
  "ieri": 24348,
  "ierra": 14758,
  "ierre": 11999,
  "iers": 3260,
  "iership": 29069,
  "ies": 440,
  "iesel": 28030,
  "iest": 6215,
  "iet": 1160,
  "ietal": 18831,
  "ieth": 18328,
  "ieties": 8872,
  "iets": 25499,
  "iety": 1845,
  "ieu": 20443,
  "iev": 9711,
  "ieval": 14481,
  "ieve": 16411,
  "ieves": 18798,
  "iew": 818,
  "if": 367,
  "ifa": 19041,
  "ifax": 21947,
  "ife": 907,
  "ifer": 7382,
  "ifest": 8290,
  "iff": 737,
  "iffany": 31652,
  "iffe": 19452,
  "ifference": 25847,
  "ifferent": 12883,
  "iffs": 9636,
  "ifi": 26006,
  "ifiable": 16285,
  "ific": 857,
  "ificant": 16293,
  "ification": 3062,
  "ifications": 7346,
  "ificent": 21587,
  "ificial": 29359,
  "ified": 1549,
  "ifier": 11051,
  "ifiers": 16359,
  "ifies": 7703,
  "ifle": 19006,
  "iform": 7091,
  "ift": 2363,
  "ifted": 20458,
  "ifting": 13655,
  "ifts": 23589,
  "ifty": 23897,
  "iful": 4430,
  "ifully": 16258,
  "ify": 2086,
  "ifying": 3988,
  "ig": 328,
  "iga": 14754,
  "igan": 4890,
  "igans": 31305,
  "igate": 9738,
  "igated": 23761,
  "igating": 25777,
  "igation": 7095,
  "igator": 26220,
  "igators": 21511,
  "ige": 11757,
  "igel": 18811,
  "igen": 7952,
  "igenous": 9822,
  "iger": 6603,
  "igers": 12879,
  "igg": 7023,
  "igger": 21635,
  "iggins": 18916,
  "iggle": 26274,
  "iggs": 17336,
  "igh": 394,
  "ighed": 12855,
  "ight": 436,
  "ighte": 15798,
  "ighteen": 25511,
  "ighteous": 18709,
  "ighter": 4960,
  "ighters": 5547,
  "ighth": 10256,
  "ighting": 11727,
  "ights": 2963,
  "ighty": 20102,
  "igi": 30002,
  "igible": 26180,
  "igion": 17238,
  "igious": 9602,
  "igma": 13154,
  "ign": 553,
  "ignant": 23275,
  "igned": 4118,
  "ignment": 20294,
  "ignt": 13864,
  "ignty": 14051,
  "igo": 18611,
  "igr": 3157,
  "igrant": 8213,
  "igrants": 4692,
  "igrated": 30420,
  "igration": 3669,
  "igs": 16759,
  "igue": 16455,
  "igure": 6917,
  "ih": 4705,
  "ihad": 8305,
  "ihar": 28655,
  "ihil": 22606,
  "ii": 7205,
  "iii": 29335,
  "ij": 2578,
  "ija": 31932,
  "iji": 23742,
  "ijing": 8751,
  "ijuana": 4048,
  "ik": 1262,
  "ika": 9853,
  "ike": 508,
  "iked": 22490,
  "iker": 18363,
  "ikers": 22905,
  "ikes": 8216,
  "ikh": 10611,
  "ikhail": 31620,
  "iki": 9674,
  "iking": 14211,
  "iko": 17974,
  "il": 350,
  "ila": 9073,
  "ilant": 31861,
  "ilar": 1910,
  "ilarly": 7272,
  "ilated": 30110,
  "ilater": 30054,
  "ilateral": 12650,
  "ilaterally": 30608,
  "ilation": 11161,
  "ild": 695,
  "ilda": 28675,
  "ile": 583,
  "ileaks": 20850,
  "iled": 3966,
  "ilem": 18398,
  "iler": 7652,
  "ilers": 18184,
  "iles": 3447,
  "iley": 9018,
  "ili": 2334,
  "ilia": 17180,
  "ilian": 31838,
  "iliar": 4501,
  "iliary": 31581,
  "iliated": 26248,
  "iliation": 13855,
  "ilib": 21718,
  "ilibrium": 24111,
  "ilies": 3519,
  "ilight": 17789,
  "iling": 4604,
  "ilingual": 31424,
  "ilion": 26868,
  "ilipp": 7813,
  "ilit": 5928,
  "ilitary": 15928,
  "ilitating": 29839,
  "ilitation": 17641,
  "ilities": 2541,
  "ility": 920,
  "ill": 355,
  "illa": 5209,
  "illance": 6110,
  "illard": 27896,
  "illas": 22696,
  "ille": 3184,
  "illed": 3236,
  "iller": 4567,
  "illery": 13982,
  "illes": 20357,
  "illian": 31987,
  "illing": 4278,
  "illion": 953,
  "illions": 22666,
  "illo": 13903,
  "illon": 20736,
  "ills": 2641,
  "illusion": 28960,
  "illy": 6104,
  "ilo": 29518,
  "ilogy": 18365,
  "ilot": 24055,
  "ils": 5070,
  "ilst": 11432,
  "ilt": 2223,
  "ilton": 7730,
  "ilty": 5887,
  "ily": 810,
  "im": 321,
  "ima": 7707,
  "imag": 20085,
  "image": 13398,
  "images": 25770,
  "imagin": 30204,
  "imal": 5102,
  "iman": 22799,
  "imate": 1739,
  "imated": 15556,
  "imately": 3105,
  "imates": 27252,
  "imation": 22097,
  "imb": 4958,
  "imbabwe": 19808,
  "ime": 523,
  "imedia": 18602,
  "imen": 19649,
  "imens": 12578,
  "imensional": 16540,
  "iment": 2945,
  "imental": 16914,
  "iments": 6702,
  "imer": 19204,
  "imes": 962,
  "imet": 27524,
  "imeter": 15837,
  "imeters": 29925,
  "img": 17353,
  "imi": 26450,
  "imin": 3133,
  "iminal": 3392,
  "imination": 18569,
  "imir": 10964,
  "imity": 17682,
  "imize": 10504,
  "imm": 8324,
  "immer": 10766,
  "immers": 31227,
  "imming": 26629,
  "imo": 23376,
  "imon": 25751,
  "imore": 7969,
  "imp": 7349,
  "import": 15187,
  "important": 21485,
  "imposed": 29915,
  "impro": 30328,
  "imps": 25534,
  "impse": 16401,
  "ims": 12312,
  "imson": 25181,
  "imum": 3514,
  "in": 259,
  "ina": 1348,
  "inal": 1353,
  "inally": 3257,
  "inals": 9399,
  "inance": 13361,
  "inary": 3369,
  "inas": 22107,
  "inate": 14475,
  "inated": 3873,
  "inating": 9176,
  "ination": 1903,
  "inational": 20766,
  "inations": 7208,
  "inburgh": 18819,
  "inc": 1803,
  "ince": 886,
  "inch": 8756,
  "incial": 11442,
  "incinn": 12664,
  "incinnati": 12750,
  "include": 27131,
  "including": 8409,
  "incoln": 10329,
  "income": 10672,
  "incre": 22854,
  "inct": 4563,
  "inction": 8932,
  "inctions": 28514,
  "ind": 538,
  "inda": 20369,
  "indal": 31253,
  "independent": 31401,
  "inder": 7717,
  "inders": 29148,
  "index": 16177,
  "inding": 7366,
  "induced": 19029,
  "indust": 18992,
  "industrial": 24352,
  "ine": 512,
  "inea": 18519,
  "ined": 1381,
  "inel": 20005,
  "inem": 6506,
  "inement": 19322,
  "inence": 29683,
  "inent": 5424,
  "inental": 18621,
  "iner": 7154,
  "iners": 18253,
  "inery": 14602,
  "ines": 1101,
  "inese": 3245,
  "iness": 1216,
  "inez": 15369,
  "inf": 8877,
  "infect": 30333,
  "inflamm": 31592,
  "info": 15817,
  "information": 15685,
  "informed": 28688,
  "ing": 278,
  "inge": 10767,
  "inged": 29630,
  "ingen": 29606,
  "inger": 4052,
  "inges": 23767,
  "ingham": 19918,
  "inging": 13082,
  "ingle": 17248,
  "ingly": 4111,
  "ingo": 28769,
  "ingrich": 17507,
  "ings": 656,
  "ington": 9191,
  "ingu": 6787,
  "inho": 15450,
  "ini": 5572,
  "inian": 19247,
  "ining": 3174,
  "inion": 24466,
  "inis": 15609,
  "inished": 29758,
  "init": 26644,
  "inite": 11246,
  "initely": 12431,
  "inition": 25954,
  "inity": 7299,
  "ink": 670,
  "inke": 30581,
  "inker": 26849,
  "inking": 7751,
  "inkle": 20271,
  "inks": 3072,
  "inn": 3847,
  "innamon": 24326,
  "inner": 17902,
  "inness": 24215,
  "inning": 30444,
  "ino": 2843,
  "inoids": 30653,
  "inois": 8207,
  "inos": 14281,
  "inous": 26916,
  "input": 25416,
  "inqu": 20219,
  "ins": 1072,
  "inski": 19589,
  "insky": 20559,
  "inson": 6922,
  "inspired": 20146,
  "inst": 11109,
  "install": 27071,
  "instein": 10096,
  "insula": 14232,
  "int": 616,
  "intage": 15691,
  "inte": 5383,
  "integr": 18772,
  "intelligence": 26558,
  "intend": 7060,
  "intendent": 18738,
  "intendo": 8476,
  "intensive": 30533,
  "inter": 4831,
  "interest": 7947,
  "interested": 29894,
  "intern": 26598,
  "inters": 20510,
  "inth": 22421,
  "into": 19943,
  "inton": 1942,
  "inv": 19365,
  "invest": 21179,
  "iny": 3827,
  "inyl": 19675,
  "io": 1002,
  "iod": 2279,
  "iol": 1582,
  "iola": 23951,
  "iolet": 22166,
  "iological": 16194,
  "iologist": 25279,
  "iology": 13848,
  "ion": 297,
  "ionage": 19601,
  "ional": 1555,
  "ionally": 5900,
  "ione": 8358,
  "ioned": 14106,
  "ions": 505,
  "iop": 14302,
  "ior": 1473,
  "iors": 11759,
  "ios": 4571,
  "iosity": 13665,
  "iot": 5287,
  "iotic": 27893,
  "iots": 13572,
  "iott": 18146,
  "ious": 692,
  "iously": 1687,
  "iov": 20077,
  "iovascular": 23318,
  "iox": 11486,
  "ioxide": 13657,
  "ip": 560,
  "ipal": 23955,
  "ipe": 4322,
  "ipedia": 10615,
  "ipeg": 17170,
  "iper": 11373,
  "ipers": 28625,
  "ipes": 24612,
  "iph": 13706,
  "iphate": 27674,
  "ipher": 12245,
  "ipl": 6725,
  "iple": 2596,
  "iples": 31174,
  "ipment": 30145,
  "ipp": 4625,
  "ipped": 4465,
  "ipper": 30081,
  "ippers": 26704,
  "ippi": 11039,
  "ipping": 5454,
  "ipple": 19990,
  "ips": 2721,
  "ipse": 16235,
  "iqu": 1640,
  "ique": 2430,
  "iques": 6387,
  "ir": 341,
  "ira": 9131,
  "irable": 13125,
  "iral": 28211,
  "irates": 10681,
  "iration": 18122,
  "irc": 2022,
  "ircraft": 31671,
  "ird": 1396,
  "irds": 6284,
  "ire": 580,
  "irect": 1077,
  "irection": 20267,
  "ired": 1254,
  "ires": 2661,
  "irez": 25091,
  "irgin": 4447,
  "iri": 15120,
  "irie": 26963,
  "iries": 17714,
  "iring": 3734,
  "irk": 13815,
  "irl": 2148,
  "irlf": 9352,
  "irlfriend": 9363,
  "irlines": 15748,
  "irling": 22991,
  "irm": 2457,
  "irmed": 15644,
  "irming": 26575,
  "irms": 7145,
  "iro": 6979,
  "iron": 1843,
  "irrel": 24236,
  "irs": 11818,
  "irst": 649,
  "irsty": 25409,
  "irt": 2451,
  "irteen": 21493,
  "irth": 3520,
  "irts": 9151,
  "irtual": 27867,
  "irty": 6158,
  "irus": 18646,
  "iry": 8469,
  "is": 271,
  "isa": 9661,
  "isal": 30218,
  "isan": 7282,
  "isance": 30027,
  "isans": 21214,
  "isation": 4853,
  "isc": 2428,
  "iscal": 7360,
  "isch": 24500,
  "ischer": 21193,
  "isco": 18462,
  "isconsin": 7369,
  "isd": 10652,
  "isdom": 10177,
  "ise": 747,
  "ised": 1324,
  "isen": 12961,
  "iser": 5057,
  "isers": 13173,
  "ises": 2773,
  "isexual": 18690,
  "isf": 4924,
  "ish": 715,
  "isha": 19518,
  "ishable": 29429,
  "ished": 1295,
  "isher": 5452,
  "ishers": 10959,
  "ishes": 5878,
  "ishi": 25123,
  "ishing": 2973,
  "ishly": 27335,
  "ishment": 19674,
  "ishop": 9475,
  "ishops": 19929,
  "isi": 18614,
  "isible": 13790,
  "isine": 24069,
  "ising": 1544,
  "ision": 1112,
  "isions": 3227,
  "isite": 19103,
  "isition": 10351,
  "isitions": 26493,
  "isive": 11555,
  "isk": 9819,
  "isl": 2616,
  "isle": 18041,
  "isly": 30707,
  "ism": 964,
  "isman": 22623,
  "isms": 6526,
  "iso": 30669,
  "isode": 11665,
  "isoft": 28092,
  "isol": 30317,
  "ison": 1609,
  "isons": 9184,
  "isp": 8109,
  "ispens": 29996,
  "ispensable": 31329,
  "isphere": 19630,
  "iss": 766,
  "issa": 14239,
  "issan": 20967,
  "issance": 13925,
  "isse": 19812,
  "ission": 1497,
  "issions": 6297,
  "isson": 28827,
  "issue": 22909,
  "ist": 387,
  "ista": 11899,
  "istan": 2884,
  "istance": 11254,
  "istant": 10393,
  "istas": 31953,
  "isted": 5250,
  "istence": 22365,
  "istent": 7715,
  "ister": 1574,
  "isters": 5782,
  "istic": 2421,
  "istical": 19960,
  "istically": 14738,
  "istics": 4457,
  "istine": 28511,
  "isting": 8611,
  "istle": 10820,
  "istries": 27299,
  "istry": 4126,
  "ists": 931,
  "isure": 21039,
  "isy": 24025,
  "it": 270,
  "ita": 5958,
  "itable": 4712,
  "itably": 12699,
  "itage": 8850,
  "ital": 1236,
  "itals": 7475,
  "itan": 19832,
  "itant": 22842,
  "itar": 7542,
  "itarian": 6933,
  "itars": 28561,
  "itary": 9439,
  "itas": 20264,
  "itate": 12365,
  "itated": 13707,
  "itating": 21385,
  "itation": 3571,
  "itational": 18872,
  "itations": 16491,
  "itative": 13221,
  "itbart": 13186,
  "itch": 3211,
  "itched": 26695,
  "itches": 19335,
  "ite": 575,
  "itect": 5115,
  "ited": 837,
  "itely": 3810,
  "item": 21121,
  "itement": 11359,
  "iter": 5022,
  "iterranean": 16134,
  "ites": 2758,
  "ith": 343,
  "ithe": 28798,
  "ither": 1625,
  "ithmetic": 30612,
  "ithub": 15203,
  "iti": 8412,
  "itial": 14741,
  "itially": 17960,
  "ities": 855,
  "itimate": 24355,
  "itime": 18498,
  "iting": 1757,
  "ition": 661,
  "itional": 1915,
  "itionally": 8419,
  "itions": 1839,
  "itious": 23971,
  "itis": 14556,
  "itive": 1771,
  "itiveness": 25451,
  "itives": 19432,
  "itivity": 12220,
  "itiz": 2656,
  "itizens": 29771,
  "itness": 3995,
  "itnesses": 20010,
  "ito": 10238,
  "itol": 9570,
  "itor": 3505,
  "itoring": 30395,
  "itors": 6161,
  "itous": 17818,
  "its": 941,
  "itsu": 23157,
  "itt": 5069,
  "itted": 16686,
  "itter": 9560,
  "itting": 8689,
  "ittle": 6486,
  "itual": 9607,
  "itud": 31405,
  "itude": 4095,
  "itudes": 9812,
  "iture": 9877,
  "itures": 21567,
  "itus": 20444,
  "itute": 3428,
  "itutes": 15316,
  "itution": 2546,
  "itutional": 4906,
  "ity": 414,
  "itz": 4948,
  "itzer": 18372,
  "iu": 21606,
  "ium": 1721,
  "ius": 4775,
  "iv": 461,
  "iva": 13273,
  "ivable": 20836,
  "ival": 2388,
  "ivalent": 30075,
  "ivals": 8704,
  "ivan": 12252,
  "ivas": 28024,
  "ivated": 26794,
  "ive": 421,
  "ived": 1547,
  "ively": 2158,
  "iven": 1462,
  "iveness": 6682,
  "iver": 1730,
  "ivered": 5685,
  "iverpool": 8544,
  "ivers": 1131,
  "iversal": 26828,
  "iversary": 8277,
  "iverse": 4008,
  "iversity": 1429,
  "ivery": 23518,
  "ives": 1036,
  "ivia": 19395,
  "ivic": 13558,
  "ivid": 1781,
  "ividual": 1946,
  "ivier": 29914,
  "ivil": 2214,
  "iving": 1377,
  "ivision": 31888,
  "ivism": 21932,
  "ivist": 23984,
  "ivities": 23528,
  "ivity": 3629,
  "ivo": 22407,
  "ivor": 23306,
  "ix": 924,
  "ixed": 8798,
  "ixel": 11371,
  "ixels": 17193,
  "ixon": 10308,
  "ixt": 6886,
  "ixture": 10205,
  "ixtures": 24342,
  "ixty": 19887,
  "iy": 9244,
  "iya": 24720,
  "iz": 544,
  "iza": 25164,
  "izabeth": 9160,
  "izable": 13185,
  "izard": 12740,
  "izards": 15160,
  "izarre": 10818,
  "ization": 1619,
  "izations": 11187,
  "ize": 1217,
  "ized": 1168,
  "izer": 9888,
  "izers": 16531,
  "izes": 4701,
  "izing": 2772,
  "izon": 7749,
  "izons": 28806,
  "izont": 14329,
  "izoph": 18444,
  "izophren": 18626,
  "izz": 6964,
  "izza": 10133,
  "izzard": 16515,
  "iÃ³n": 19708,
  "j": 106,
  "ja": 8750,
  "jack": 26793,
  "jad": 24587,
  "jah": 22095,
  "jamin": 11589,
  "jan": 12556,
  "jar": 13663,
  "jas": 29469,
  "java": 23293,
  "je": 16748,
  "ject": 793,
  "jee": 29219,
  "jet": 26634,
  "ji": 9755,
  "jiang": 31499,
  "jin": 29888,
  "jo": 8160,
  "job": 29517,
  "join": 28837,
  "journal": 23375,
  "joy": 2725,
  "jpg": 17057,
  "jri": 29402,
  "jriwal": 30019,
  "js": 10000,
  "json": 24125,
  "ju": 17318,
  "jud": 9331,
  "jug": 30913,
  "jury": 23958,
  "just": 3572,
  "justed": 22841,
  "justice": 28662,
  "k": 107,
  "ka": 5406,
  "kan": 28159,
  "kar": 18650,
  "kara": 19933,
  "kay": 6292,
  "ke": 361,
  "ked": 7476,
  "kee": 10105,
  "keep": 8765,
  "keeper": 12888,
  "keepers": 20101,
  "keeping": 17809,
  "kees": 13639,
  "kef": 25626,
  "kefeller": 26004,
  "kel": 6699,
  "keley": 11193,
  "kell": 17030,
  "ken": 3770,
  "kens": 15045,
  "ker": 7576,
  "kered": 26917,
  "kers": 16921,
  "kes": 11333,
  "ket": 5676,
  "ketch": 23404,
  "key": 2515,
  "keys": 14173,
  "kg": 14129,
  "kh": 15740,
  "ki": 4190,
  "kick": 23574,
  "kil": 26770,
  "kill": 15121,
  "kin": 4993,
  "kind": 11736,
  "king": 9343,
  "kins": 4686,
  "kinson": 21915,
  "kish": 23578,
  "kit": 18847,
  "km": 12521,
  "kn": 16860,
  "know": 16185,
  "known": 4358,
  "ko": 7222,
  "kok": 27161,
  "kov": 19748,
  "kowski": 21355,
  "ks": 592,
  "kswagen": 24189,
  "kt": 31446,
  "ktop": 23214,
  "ku": 30798,
  "kward": 11628,
  "ky": 2832,
  "l": 108,
  "la": 4656,
  "lab": 27294,
  "label": 26088,
  "lad": 8340,
  "lah": 8626,
  "lahoma": 8945,
  "laim": 11299,
  "lain": 21505,
  "lake": 27056,
  "lam": 2346,
  "lamm": 27944,
  "lan": 8040,
  "lance": 18115,
  "land": 998,
  "lander": 20810,
  "landers": 28776,
  "lando": 9841,
  "lands": 4456,
  "lane": 25682,
  "lang": 23447,
  "language": 18298,
  "lant": 4441,
  "lantic": 21502,
  "lar": 27434,
  "larg": 15431,
  "large": 11029,
  "largest": 20838,
  "las": 12684,
  "lash": 13767,
  "lass": 22986,
  "lasses": 30417,
  "last": 15550,
  "lasting": 27033,
  "lat": 19465,
  "late": 22152,
  "lated": 23961,
  "later": 28873,
  "lation": 15835,
  "laughs": 23464,
  "laughter": 24201,
  "law": 6282,
  "laws": 26414,
  "lay": 15534,
  "lb": 26162,
  "ld": 333,
  "lda": 19483,
  "lder": 7223,
  "ldom": 23608,
  "ldon": 22702,
  "le": 295,
  "lead": 25287,
  "leader": 25198,
  "leaders": 29696,
  "leading": 11075,
  "league": 17004,
  "leaning": 20840,
  "leans": 10293,
  "lear": 2513,
  "lease": 3638,
  "leased": 15822,
  "leck": 29271,
  "lect": 814,
  "lected": 12188,
  "lection": 1460,
  "lections": 30983,
  "led": 1011,
  "ledge": 3035,
  "ledged": 29256,
  "lee": 9814,
  "leen": 17478,
  "leep": 10904,
  "left": 9809,
  "leg": 1355,
  "legal": 16303,
  "legates": 28443,
  "lege": 2460,
  "lein": 31032,
  "lem": 14660,
  "lement": 2035,
  "lementary": 13996,
  "lements": 12344,
  "len": 14545,
  "lene": 26082,
  "length": 16352,
  "ler": 1820,
  "lers": 7421,
  "les": 832,
  "lesh": 11833,
  "less": 1261,
  "lessly": 8092,
  "lessness": 16163,
  "let": 1736,
  "letcher": 25052,
  "lete": 7886,
  "leted": 10995,
  "letes": 30451,
  "letion": 24198,
  "leton": 12498,
  "lets": 5340,
  "lett": 15079,
  "lette": 20659,
  "letter": 14443,
  "leum": 18671,
  "lev": 2405,
  "levant": 13889,
  "levard": 17917,
  "level": 4416,
  "leveland": 8329,
  "levision": 3889,
  "lex": 2659,
  "ley": 1546,
  "leys": 20646,
  "lf": 1734,
  "li": 956,
  "lia": 22836,
  "liable": 23210,
  "liament": 4155,
  "lib": 13650,
  "liber": 20028,
  "liberal": 27165,
  "lic": 639,
  "lication": 15904,
  "lications": 24584,
  "lich": 23659,
  "lick": 3947,
  "lickr": 14943,
  "lict": 20023,
  "licted": 26717,
  "lide": 23770,
  "lie": 14026,
  "lied": 11527,
  "lient": 15144,
  "lier": 2114,
  "liers": 15800,
  "lies": 6936,
  "liest": 10064,
  "lif": 31118,
  "life": 5663,
  "lift": 27994,
  "lifting": 30785,
  "lig": 4878,
  "liga": 28101,
  "light": 2361,
  "lights": 14585,
  "lihood": 10678,
  "like": 2265,
  "lim": 2263,
  "liminary": 12268,
  "limited": 10694,
  "lin": 2934,
  "line": 1323,
  "linear": 29711,
  "lined": 9460,
  "liner": 21727,
  "liners": 26099,
  "lines": 5746,
  "liness": 26382,
  "ling": 1260,
  "lings": 21019,
  "lington": 14806,
  "lining": 16529,
  "link": 11228,
  "linked": 24419,
  "lins": 20970,
  "lio": 31230,
  "lis": 26445,
  "lish": 2293,
  "list": 6997,
  "listed": 17157,
  "lists": 23953,
  "lit": 18448,
  "liter": 16184,
  "little": 30147,
  "lium": 28044,
  "liv": 18114,
  "live": 13625,
  "lived": 19953,
  "liver": 12234,
  "living": 28228,
  "ll": 298,
  "lla": 7775,
  "llah": 17928,
  "llect": 6464,
  "llectual": 26219,
  "lled": 2679,
  "ller": 5638,
  "llers": 12630,
  "lli": 11624,
  "llig": 2681,
  "lligence": 3101,
  "lling": 2046,
  "llington": 21955,
  "llo": 13413,
  "llor": 11223,
  "lls": 7020,
  "lly": 10276,
  "ln": 22870,
  "lo": 5239,
  "load": 2871,
  "loaded": 19234,
  "loading": 28351,
  "loc": 28455,
  "local": 16284,
  "lock": 7397,
  "locked": 28339,
  "loe": 29760,
  "log": 7985,
  "loid": 31101,
  "lon": 15960,
  "long": 6041,
  "loo": 26905,
  "look": 5244,
  "looking": 10986,
  "loop": 28258,
  "lopp": 27016,
  "lor": 4767,
  "lord": 25211,
  "loss": 24482,
  "lost": 30716,
  "lot": 28074,
  "love": 23170,
  "loving": 28222,
  "low": 8918,
  "lower": 24576,
  "lp": 918,
  "ls": 7530,
  "lt": 2465,
  "ltry": 29098,
  "lu": 10890,
  "lud": 754,
  "lude": 13683,
  "luded": 17282,
  "ludes": 21448,
  "luding": 6645,
  "luent": 23826,
  "lus": 27210,
  "lv": 6944,
  "lves": 27701,
  "ly": 306,
  "lying": 3243,
  "lymp": 5516,
  "lyn": 5561,
  "lynn": 10887,
  "m": 109,
  "ma": 3080,
  "mac": 28764,
  "machine": 31875,
  "mad": 8568,
  "made": 9057,
  "mag": 26351,
  "mage": 24977,
  "magic": 28644,
  "maid": 23628,
  "mail": 4876,
  "mails": 20787,
  "main": 12558,
  "major": 19358,
  "majority": 28248,
  "make": 18615,
  "maker": 8768,
  "makers": 4972,
  "making": 7692,
  "mal": 7661,
  "mala": 25401,
  "male": 26747,
  "malink": 25047,
  "man": 762,
  "management": 23609,
  "mand": 19562,
  "mania": 26557,
  "mann": 7850,
  "manned": 23185,
  "mans": 9466,
  "manship": 23773,
  "manuel": 14535,
  "many": 19071,
  "map": 12266,
  "mar": 3849,
  "mare": 12212,
  "mares": 27306,
  "mark": 4024,
  "marked": 21461,
  "market": 9882,
  "markets": 28400,
  "marks": 14013,
  "married": 28505,
  "mart": 12546,
  "mary": 8488,
  "mas": 5083,
  "mass": 20924,
  "master": 13208,
  "mat": 9014,
  "match": 21032,
  "matched": 30432,
  "mate": 7930,
  "mates": 5968,
  "math": 9838,
  "matic": 12318,
  "max": 17694,
  "may": 11128,
  "maybe": 25236,
  "mb": 2172,
  "mber": 1657,
  "mble": 10784,
  "md": 28237,
  "me": 2535,
  "meal": 27809,
  "meaning": 22475,
  "med": 1129,
  "medi": 2434,
  "media": 12121,
  "mediate": 27981,
  "mediately": 23454,
  "meg": 27251,
  "mega": 19133,
  "mel": 15150,
  "mem": 16760,
  "member": 16781,
  "members": 31011,
  "men": 3582,
  "ment": 379,
  "mental": 17929,
  "mentation": 15754,
  "mented": 10830,
  "mentia": 23677,
  "mentioned": 15853,
  "ments": 771,
  "mer": 581,
  "merce": 10750,
  "mercial": 16641,
  "meric": 834,
  "mers": 9403,
  "mes": 6360,
  "message": 28416,
  "met": 4550,
  "meter": 26608,
  "metic": 17838,
  "metric": 28454,
  "metry": 21376,
  "mg": 20403,
  "mi": 14099,
  "mia": 22897,
  "mic": 10264,
  "mid": 12143,
  "middle": 26080,
  "midt": 17236,
  "mile": 14720,
  "military": 27508,
  "mill": 16680,
  "million": 11169,
  "min": 1117,
  "mination": 14263,
  "mind": 9505,
  "minded": 12287,
  "mine": 4202,
  "mined": 15041,
  "minent": 16306,
  "mines": 14266,
  "ming": 1874,
  "mingham": 14753,
  "mington": 29322,
  "mining": 17522,
  "minist": 1953,
  "minster": 15994,
  "minute": 9300,
  "mir": 10400,
  "mis": 23872,
  "miss": 3963,
  "missible": 24477,
  "mission": 3973,
  "missions": 9914,
  "mit": 1391,
  "mite": 28939,
  "mith": 25802,
  "mits": 10557,
  "mitt": 18964,
  "mitted": 3385,
  "mittee": 3983,
  "ml": 6607,
  "mm": 5801,
  "mn": 13140,
  "mo": 7211,
  "mobile": 27815,
  "mod": 7392,
  "mode": 26428,
  "model": 24377,
  "modern": 20366,
  "moil": 20401,
  "mon": 2787,
  "mond": 5749,
  "money": 23515,
  "mong": 25709,
  "mons": 11341,
  "mont": 7432,
  "month": 7572,
  "monton": 15293,
  "mony": 9110,
  "moon": 22818,
  "mor": 22366,
  "more": 3610,
  "mort": 24142,
  "mos": 15434,
  "mosp": 5720,
  "most": 1600,
  "mostly": 25607,
  "mot": 24757,
  "mother": 12412,
  "mount": 17381,
  "mouth": 13227,
  "move": 22308,
  "moving": 27694,
  "mp": 3288,
  "mph": 17905,
  "ms": 928,
  "mson": 23361,
  "mt": 24922,
  "much": 25837,
  "mult": 21093,
  "mun": 6877,
  "mund": 15795,
  "munition": 13811,
  "mur": 30283,
  "mus": 16572,
  "must": 28385,
  "mut": 20017,
  "my": 1802,
  "n": 110,
  "na": 2696,
  "naev": 31929,
  "nails": 31564,
  "naire": 26785,
  "nam": 6599,
  "name": 6575,
  "named": 11676,
  "names": 14179,
  "namese": 17959,
  "nan": 11278,
  "nar": 18029,
  "nas": 23591,
  "nation": 25248,
  "national": 14354,
  "natural": 11845,
  "nav": 30455,
  "nc": 22168,
  "nce": 1242,
  "nces": 3276,
  "nd": 356,
  "nder": 694,
  "ndering": 19576,
  "nders": 26078,
  "ndra": 18845,
  "ne": 691,
  "neapolis": 15756,
  "neath": 13803,
  "necess": 10109,
  "neck": 27747,
  "nect": 1760,
  "ned": 1197,
  "nedy": 8236,
  "nee": 28993,
  "needed": 23430,
  "neg": 11466,
  "negie": 25876,
  "nel": 4764,
  "nell": 5772,
  "nels": 17576,
  "nen": 26754,
  "ner": 1013,
  "nered": 12833,
  "nerg": 30433,
  "nergy": 5964,
  "ners": 2479,
  "nery": 30486,
  "nes": 1965,
  "nesday": 2809,
  "nesota": 6999,
  "ness": 1172,
  "nesty": 14119,
  "net": 3934,
  "netic": 10022,
  "neutral": 27800,
  "never": 12708,
  "new": 3626,
  "news": 10494,
  "nex": 15269,
  "next": 25318,
  "ney": 1511,
  "neys": 19164,
  "ng": 819,
  "ngth": 20159,
  "ni": 8192,
  "nia": 16714,
  "nic": 6604,
  "nick": 24028,
  "nie": 11280,
  "night": 4654,
  "nik": 14887,
  "nine": 27841,
  "ning": 725,
  "nings": 19861,
  "nis": 19469,
  "nm": 27332,
  "no": 4323,
  "node": 27643,
  "nom": 23523,
  "non": 11558,
  "none": 31475,
  "noon": 5436,
  "nor": 12436,
  "normal": 13172,
  "not": 1810,
  "note": 12920,
  "notes": 23181,
  "nothing": 23997,
  "noticed": 26490,
  "now": 2177,
  "nown": 3814,
  "nox": 30543,
  "ns": 2531,
  "nsic": 17891,
  "nt": 435,
  "ntil": 8994,
  "nton": 23205,
  "null": 19475,
  "num": 26488,
  "number": 21658,
  "numbered": 31154,
  "nut": 15505,
  "nuts": 29748,
  "ny": 3393,
  "nyder": 16704,
  "o": 111,
  "oa": 13779,
  "oad": 1535,
  "oan": 20541,
  "oard": 12356,
  "oat": 18865,
  "ob": 668,
  "oba": 17968,
  "obal": 2240,
  "obar": 31476,
  "obb": 6591,
  "obby": 5182,
  "obe": 5733,
  "ober": 1835,
  "obi": 15883,
  "obia": 30610,
  "obic": 21458,
  "obil": 24076,
  "obile": 6901,
  "obiles": 30526,
  "object": 21237,
  "obo": 28271,
  "obs": 8198,
  "oby": 25835,
  "oc": 427,
  "oca": 10012,
  "ocal": 4955,
  "ocaly": 13808,
  "ocalypse": 19606,
  "ocalyptic": 23882,
  "ocamp": 25487,
  "ocate": 12801,
  "ocated": 10659,
  "ocating": 23190,
  "ocation": 7035,
  "ocations": 25717,
  "ocaust": 13857,
  "occ": 13865,
  "occup": 17821,
  "occupied": 25053,
  "ocene": 28612,
  "ocese": 24761,
  "och": 5327,
  "oche": 28771,
  "ochem": 22445,
  "ochond": 23193,
  "oci": 1778,
  "ocial": 10023,
  "ociated": 19504,
  "ocide": 14399,
  "ocious": 30279,
  "ocity": 14118,
  "ock": 792,
  "ocked": 3615,
  "ocker": 12590,
  "ocket": 6474,
  "ockets": 12496,
  "ockey": 6596,
  "ocking": 5464,
  "ocks": 3961,
  "oco": 27190,
  "ocol": 5076,
  "ocolate": 9346,
  "ocr": 4251,
  "ocracies": 26360,
  "ocracy": 4786,
  "ocrat": 1580,
  "ocratic": 6206,
  "ocrats": 14876,
  "ocre": 24115,
  "ocument": 9141,
  "ocumented": 14023,
  "ocur": 12011,
  "ocus": 12393,
  "ocused": 18972,
  "ocy": 16923,
  "od": 400,
  "oda": 18077,
  "oday": 3905,
  "odd": 5643,
  "odder": 31839,
  "ode": 1344,
  "oded": 8886,
  "oder": 19306,
  "odes": 4392,
  "odge": 10493,
  "odic": 25989,
  "odied": 28251,
  "odies": 4964,
  "oding": 8377,
  "odka": 26989,
  "odo": 23864,
  "odor": 26675,
  "odore": 21962,
  "odox": 9889,
  "ods": 21948,
  "odus": 23386,
  "ody": 1193,
  "odynam": 22699,
  "odynamic": 31993,
  "oe": 2497,
  "oen": 8014,
  "oenix": 9269,
  "oes": 3548,
  "of": 635,
  "off": 2067,
  "office": 29528,
  "official": 15583,
  "offs": 11177,
  "oft": 7438,
  "often": 24823,
  "og": 525,
  "oga": 10383,
  "ogan": 6891,
  "ogen": 7938,
  "ogene": 21846,
  "ogenic": 17220,
  "ogenous": 30089,
  "ogens": 25439,
  "ogether": 7768,
  "ogg": 13005,
  "oggle": 31485,
  "ogle": 2317,
  "ogn": 2309,
  "ognitive": 28912,
  "ogo": 24506,
  "ogram": 22950,
  "ograms": 23964,
  "ograp": 1956,
  "ograph": 2298,
  "ographer": 16516,
  "ographers": 28855,
  "ographic": 6650,
  "ographical": 16479,
  "ographically": 28496,
  "ographics": 19970,
  "ographs": 31597,
  "ography": 4558,
  "ogs": 20007,
  "ogue": 5616,
  "ogy": 9989,
  "ogyn": 17945,
  "oh": 1107,
  "oha": 28465,
  "ohan": 23298,
  "ohn": 1413,
  "ohyd": 22491,
  "oi": 25738,
  "oice": 9729,
  "oid": 2319,
  "oids": 20515,
  "oil": 22070,
  "oin": 24375,
  "oint": 1626,
  "ointed": 18935,
  "oir": 18350,
  "oirs": 31392,
  "ois": 9559,
  "oise": 30237,
  "oit": 21823,
  "oj": 12776,
  "oji": 26921,
  "ojure": 27732,
  "ok": 487,
  "oka": 21584,
  "oke": 2452,
  "oked": 6333,
  "okemon": 18672,
  "oken": 5914,
  "oker": 10689,
  "okes": 2664,
  "okia": 16467,
  "oking": 5691,
  "oko": 16410,
  "oks": 25878,
  "oku": 17271,
  "ol": 349,
  "ola": 5195,
  "olan": 14465,
  "olar": 10026,
  "olas": 11264,
  "olate": 31713,
  "olation": 21676,
  "old": 777,
  "oldown": 22362,
  "olds": 9342,
  "ole": 2522,
  "olean": 26332,
  "olen": 8063,
  "oler": 13382,
  "oles": 3996,
  "olester": 20033,
  "olesterol": 21384,
  "olf": 4487,
  "oli": 10487,
  "olia": 21657,
  "oliberal": 22016,
  "olic": 3912,
  "olics": 16733,
  "olicy": 25163,
  "olid": 10835,
  "oline": 13394,
  "olis": 7945,
  "olit": 5145,
  "olitan": 11478,
  "olith": 19680,
  "olithic": 25713,
  "olitical": 10958,
  "olitics": 18023,
  "olk": 13084,
  "olkien": 27181,
  "oll": 791,
  "olla": 28208,
  "ollah": 13376,
  "ollar": 11125,
  "ollen": 30412,
  "ollo": 16690,
  "ollow": 989,
  "olls": 24837,
  "olly": 4768,
  "ollywood": 6372,
  "oln": 9955,
  "olo": 13851,
  "olog": 910,
  "ologic": 27918,
  "ological": 2753,
  "ologically": 12087,
  "ologies": 5236,
  "ologist": 6494,
  "ologists": 8212,
  "ologne": 26251,
  "ologue": 31913,
  "ology": 1385,
  "olph": 9048,
  "olphin": 25772,
  "olphins": 13717,
  "ols": 10612,
  "olson": 25864,
  "olt": 7335,
  "olute": 3540,
  "olutely": 14523,
  "olution": 2081,
  "olutions": 13824,
  "olve": 6452,
  "olved": 5462,
  "olves": 9240,
  "olving": 9962,
  "oly": 4407,
  "olyn": 30538,
  "om": 296,
  "oma": 6532,
  "omach": 11951,
  "oman": 4620,
  "omas": 4512,
  "omatic": 15066,
  "omb": 2667,
  "ome": 460,
  "omed": 9536,
  "omeday": 19797,
  "omen": 3523,
  "omer": 11743,
  "omers": 16602,
  "omes": 9152,
  "omet": 890,
  "ometer": 16718,
  "omething": 8241,
  "ometimes": 6401,
  "ometown": 15385,
  "ometric": 21788,
  "omez": 24618,
  "omi": 15967,
  "omic": 11018,
  "omical": 20094,
  "omin": 6242,
  "omination": 26151,
  "oming": 6475,
  "omm": 2420,
  "ommend": 27748,
  "ommod": 8482,
  "omo": 15503,
  "omon": 18399,
  "omore": 17476,
  "omorph": 25508,
  "omp": 3148,
  "ompl": 5695,
  "ompson": 9335,
  "oms": 4877,
  "omsky": 30988,
  "omy": 9876,
  "on": 262,
  "ona": 4092,
  "onal": 16919,
  "once": 26656,
  "ond": 621,
  "onda": 12054,
  "onde": 16618,
  "onder": 9786,
  "onding": 31019,
  "ondo": 20351,
  "ondon": 3073,
  "onds": 12249,
  "ondu": 30085,
  "onduct": 11024,
  "one": 503,
  "oned": 10938,
  "onel": 24292,
  "oneliness": 30819,
  "onen": 30682,
  "onent": 3945,
  "onents": 3800,
  "oner": 12904,
  "ones": 1772,
  "onest": 16606,
  "oney": 1287,
  "ong": 498,
  "onge": 14635,
  "ongevity": 23957,
  "ongh": 17288,
  "ongo": 23063,
  "ongs": 31321,
  "ongyang": 17290,
  "oni": 13766,
  "onia": 12373,
  "onial": 24331,
  "onian": 28934,
  "onic": 7371,
  "onies": 15773,
  "oning": 11257,
  "online": 30972,
  "only": 9030,
  "onna": 6390,
  "onnaissance": 25579,
  "ono": 30174,
  "onom": 5514,
  "onomous": 30749,
  "onomy": 30113,
  "ons": 699,
  "onse": 2481,
  "onsin": 7365,
  "onso": 20157,
  "onst": 2655,
  "onstruction": 30061,
  "ont": 843,
  "onte": 27512,
  "onto": 4828,
  "onut": 16722,
  "ony": 1589,
  "onym": 4967,
  "onymous": 6766,
  "onz": 10371,
  "oo": 3354,
  "ood": 730,
  "oody": 21593,
  "ook": 565,
  "ookie": 19244,
  "ool": 1000,
  "ools": 13770,
  "oom": 4393,
  "oon": 2238,
  "oons": 12619,
  "oop": 12010,
  "oor": 2899,
  "oos": 24318,
  "oot": 1051,
  "ooter": 23145,
  "ooth": 5963,
  "ooting": 13843,
  "oots": 16460,
  "op": 391,
  "opa": 29992,
  "opal": 29336,
  "opard": 13366,
  "opath": 19336,
  "opathy": 28598,
  "ope": 3141,
  "oped": 20933,
  "open": 9767,
  "openh": 21345,
  "openhagen": 22553,
  "opening": 31447,
  "oper": 3409,
  "operation": 24203,
  "operative": 27658,
  "opers": 27383,
  "opes": 13199,
  "opez": 17420,
  "oph": 2526,
  "opher": 7900,
  "ophers": 19795,
  "ophob": 11033,
  "ophobia": 16685,
  "ophobic": 18685,
  "opia": 23171,
  "opian": 31415,
  "opic": 16517,
  "oping": 14148,
  "ople": 585,
  "oples": 11883,
  "opoulos": 17874,
  "opp": 13787,
  "oppable": 31178,
  "oppy": 29388,
  "ops": 2751,
  "opsis": 31349,
  "opt": 11094,
  "option": 26812,
  "opular": 15650,
  "opus": 28310,
  "opy": 6476,
  "opyright": 9918,
  "oqu": 19314,
  "or": 273,
  "ora": 6729,
  "orable": 15109,
  "orage": 5371,
  "oral": 5674,
  "orate": 11366,
  "oration": 6884,
  "ord": 578,
  "ordable": 13429,
  "ordan": 6515,
  "orde": 22570,
  "order": 2850,
  "ordered": 24097,
  "ordering": 30525,
  "orders": 6033,
  "ordin": 5548,
  "ordinarily": 25314,
  "ordinary": 9215,
  "ordinate": 24895,
  "ordinates": 30842,
  "ordination": 29737,
  "ordinator": 30053,
  "ording": 1135,
  "ordon": 8714,
  "ords": 4283,
  "ore": 374,
  "orean": 26390,
  "ored": 1834,
  "orem": 26389,
  "oren": 26802,
  "orer": 12222,
  "orers": 28334,
  "ores": 5210,
  "orest": 20626,
  "oret": 9423,
  "orf": 21674,
  "org": 4025,
  "organ": 9145,
  "organized": 26076,
  "orge": 9079,
  "ori": 12736,
  "oria": 11958,
  "orial": 4195,
  "orian": 20794,
  "oric": 7069,
  "orical": 11919,
  "orically": 17110,
  "orie": 20212,
  "orient": 12451,
  "oriented": 14825,
  "ories": 1684,
  "orig": 12742,
  "original": 15985,
  "oring": 2407,
  "orious": 9395,
  "ority": 14823,
  "ork": 944,
  "orks": 3698,
  "orkshire": 24971,
  "orld": 1825,
  "orm": 619,
  "ormal": 9070,
  "ormally": 27699,
  "orman": 22463,
  "orn": 1269,
  "orne": 7625,
  "orney": 3690,
  "orneys": 10637,
  "ornia": 2902,
  "ornings": 23495,
  "orns": 13950,
  "oro": 20274,
  "orough": 7702,
  "orous": 9204,
  "orously": 22194,
  "orp": 19555,
  "orph": 13162,
  "orrh": 31246,
  "orrow": 4421,
  "orry": 6074,
  "ors": 662,
  "orsche": 21063,
  "orse": 6103,
  "orses": 12860,
  "orship": 9455,
  "orsi": 21118,
  "orst": 24397,
  "ort": 398,
  "orted": 7039,
  "orter": 3880,
  "orters": 2944,
  "ortex": 29787,
  "orth": 1137,
  "orthern": 4339,
  "orthy": 17526,
  "orting": 15612,
  "ortion": 5275,
  "ortions": 14094,
  "ortium": 20416,
  "ortmund": 24524,
  "orton": 26674,
  "orts": 1888,
  "ortun": 1758,
  "ortunate": 12441,
  "ortunately": 4424,
  "orum": 17957,
  "orus": 15132,
  "ory": 658,
  "os": 419,
  "osa": 10007,
  "osal": 31840,
  "osate": 30967,
  "osaur": 17490,
  "osaurs": 18694,
  "osc": 19198,
  "ose": 570,
  "osed": 1259,
  "osen": 5251,
  "oser": 21140,
  "oses": 3274,
  "osevelt": 15315,
  "osexual": 7846,
  "osh": 4020,
  "oshi": 18288,
  "oshop": 22728,
  "osi": 15147,
  "osing": 2403,
  "osion": 18577,
  "osis": 7013,
  "osit": 8439,
  "osite": 5645,
  "osition": 2767,
  "ository": 14470,
  "osity": 16492,
  "osl": 18210,
  "oso": 31640,
  "osoph": 19150,
  "osophy": 23720,
  "osp": 2002,
  "ospace": 21835,
  "ospel": 15136,
  "osph": 17055,
  "osphere": 19083,
  "ospital": 3289,
  "oss": 802,
  "ossible": 4665,
  "ossibly": 20178,
  "ossier": 24685,
  "ossip": 23750,
  "ost": 463,
  "ostal": 15656,
  "oster": 7088,
  "osterone": 20456,
  "ostic": 16617,
  "oston": 5036,
  "osure": 4682,
  "osures": 15149,
  "ot": 313,
  "ota": 3933,
  "otal": 6548,
  "otally": 25628,
  "ote": 1976,
  "otech": 28951,
  "otechnology": 27067,
  "oted": 4843,
  "oter": 17598,
  "oters": 20231,
  "otes": 7330,
  "oth": 868,
  "othe": 21896,
  "other": 851,
  "otherapy": 18890,
  "othing": 29238,
  "oths": 26394,
  "othy": 14237,
  "oti": 3839,
  "otic": 6180,
  "otics": 18128,
  "otine": 18841,
  "oting": 10273,
  "otion": 11506,
  "otional": 25932,
  "otive": 17342,
  "otle": 21532,
  "oto": 2705,
  "oton": 21362,
  "otor": 30253,
  "ots": 1711,
  "ott": 1607,
  "otta": 22937,
  "ottage": 29392,
  "otte": 10777,
  "otted": 27036,
  "otten": 7268,
  "ottenham": 16775,
  "ottest": 21534,
  "ottesville": 20539,
  "otti": 22801,
  "otto": 27380,
  "ottom": 15185,
  "otton": 12869,
  "oty": 5429,
  "otype": 8570,
  "otypes": 12401,
  "ou": 280,
  "oub": 10947,
  "oubted": 14036,
  "oubtedly": 14370,
  "ouch": 8392,
  "ouched": 27503,
  "oud": 2877,
  "ouf": 31859,
  "oufl": 27410,
  "ough": 605,
  "ought": 2810,
  "oul": 3512,
  "ould": 415,
  "oulder": 17473,
  "oulos": 17378,
  "oun": 903,
  "ounce": 8857,
  "ounced": 7877,
  "ounces": 28306,
  "ouncing": 16287,
  "ound": 650,
  "ounded": 5879,
  "ounder": 25908,
  "ounding": 9147,
  "ounds": 3855,
  "ounge": 20754,
  "ouns": 26163,
  "ount": 609,
  "ountain": 20026,
  "ounter": 18429,
  "ounty": 20448,
  "oup": 11211,
  "our": 468,
  "ourage": 26914,
  "ource": 3680,
  "ourced": 24815,
  "ources": 3183,
  "ourcing": 23348,
  "oured": 7922,
  "ourge": 15871,
  "ourgeois": 18790,
  "ouri": 9328,
  "ouring": 21051,
  "ourn": 1782,
  "ournal": 2353,
  "ournals": 17995,
  "ournament": 17846,
  "ourney": 5979,
  "ours": 5459,
  "ourse": 8601,
  "ourt": 2665,
  "ous": 510,
  "ousand": 31580,
  "ousands": 16575,
  "ouse": 1045,
  "oused": 27702,
  "ouses": 11402,
  "ousing": 12885,
  "ously": 3306,
  "ousse": 23123,
  "oust": 14970,
  "oustic": 21248,
  "ouston": 6068,
  "out": 446,
  "outed": 15017,
  "outh": 1466,
  "outheast": 12280,
  "outheastern": 24267,
  "outhern": 4319,
  "outine": 30670,
  "outing": 11955,
  "outs": 4908,
  "outube": 13697,
  "ouver": 8095,
  "oux": 19390,
  "ov": 718,
  "ova": 10413,
  "ovable": 23670,
  "ovak": 19330,
  "ovakia": 24648,
  "oval": 8574,
  "ovan": 18766,
  "ove": 666,
  "oved": 2801,
  "ovember": 2766,
  "oven": 16432,
  "over": 2103,
  "overed": 2502,
  "overs": 11192,
  "overty": 20981,
  "overy": 4669,
  "oves": 5918,
  "ovic": 14892,
  "ovich": 16473,
  "ovie": 27554,
  "oving": 5280,
  "ovo": 16252,
  "ovsky": 24571,
  "ovy": 22724,
  "ovych": 30099,
  "ow": 324,
  "owa": 7078,
  "owd": 26572,
  "owder": 11593,
  "owed": 7160,
  "oween": 14603,
  "owell": 12515,
  "ower": 850,
  "owered": 6895,
  "owers": 3868,
  "owing": 8082,
  "owitz": 17697,
  "owl": 4911,
  "owler": 24359,
  "owment": 31617,
  "own": 600,
  "owned": 10443,
  "owner": 16978,
  "owners": 13021,
  "owns": 20975,
  "ownt": 5591,
  "owntown": 19388,
  "ows": 1998,
  "owship": 24016,
  "owski": 10604,
  "ox": 1529,
  "oxic": 28519,
  "oxide": 30764,
  "oxy": 31372,
  "oy": 736,
  "oya": 23708,
  "oyal": 4621,
  "oyd": 11719,
  "oyle": 18202,
  "oys": 20339,
  "oz": 10277,
  "ozy": 24578,
  "p": 112,
  "pa": 9685,
  "pace": 13213,
  "pack": 10340,
  "packed": 31928,
  "pad": 18942,
  "page": 8116,
  "paid": 16912,
  "pal": 20302,
  "pan": 6653,
  "panz": 28923,
  "paper": 19934,
  "par": 2054,
  "parable": 26911,
  "paralle": 29071,
  "param": 27894,
  "pard": 26642,
  "pared": 26341,
  "parent": 19890,
  "parents": 20503,
  "park": 20136,
  "part": 3831,
  "particularly": 26617,
  "partisan": 20948,
  "party": 9571,
  "pass": 5870,
  "pat": 8456,
  "patch": 20195,
  "path": 13364,
  "patient": 28048,
  "patrick": 23758,
  "pay": 16582,
  "payer": 26019,
  "paying": 25769,
  "pc": 20524,
  "pdf": 15223,
  "pe": 437,
  "peace": 19067,
  "pecially": 2176,
  "pect": 786,
  "pected": 7029,
  "pecting": 30350,
  "pection": 16439,
  "pective": 4745,
  "pectives": 17416,
  "ped": 9388,
  "peer": 29433,
  "pelled": 14108,
  "pen": 4135,
  "pensive": 22208,
  "pent": 25376,
  "people": 13881,
  "per": 552,
  "perature": 30405,
  "percent": 24285,
  "pered": 13921,
  "perfect": 24353,
  "performance": 25873,
  "performing": 26171,
  "perhaps": 25411,
  "peria": 30390,
  "perial": 12894,
  "pering": 21602,
  "perm": 17868,
  "peror": 12838,
  "pers": 18594,
  "person": 5315,
  "personal": 21884,
  "pert": 16638,
  "perture": 31322,
  "pes": 7134,
  "pet": 5743,
  "pex": 24469,
  "pg": 10175,
  "ph": 1084,
  "phal": 29836,
  "phan": 11718,
  "phas": 5396,
  "phasis": 27975,
  "pher": 16585,
  "pherd": 22022,
  "phew": 22549,
  "phies": 26841,
  "phil": 30269,
  "phis": 17162,
  "phone": 4642,
  "phones": 8420,
  "photo": 21424,
  "php": 14122,
  "phy": 6701,
  "pi": 21815,
  "pic": 15487,
  "pical": 17373,
  "pically": 18057,
  "pick": 31261,
  "pict": 18549,
  "pictured": 22586,
  "pie": 17512,
  "piece": 12241,
  "pill": 29720,
  "pin": 11983,
  "ping": 11517,
  "pir": 3149,
  "piracy": 21631,
  "pire": 5266,
  "pired": 5505,
  "pires": 23752,
  "piring": 30995,
  "pit": 14538,
  "pite": 2198,
  "pl": 500,
  "place": 4903,
  "placed": 20469,
  "placement": 19945,
  "places": 21447,
  "plan": 13301,
  "plane": 29678,
  "planned": 30803,
  "plant": 16180,
  "plate": 8869,
  "plates": 20359,
  "platform": 25789,
  "play": 2004,
  "played": 18371,
  "player": 9902,
  "playing": 16339,
  "plays": 31252,
  "ple": 1244,
  "pleasant": 20532,
  "pled": 8803,
  "plement": 26621,
  "pler": 21792,
  "ples": 2622,
  "pless": 14899,
  "plete": 8599,
  "plex": 13235,
  "pling": 12082,
  "pload": 8245,
  "plom": 5703,
  "plot": 31271,
  "ploy": 1389,
  "plus": 9134,
  "ply": 2063,
  "pm": 5094,
  "png": 23906,
  "po": 7170,
  "point": 4194,
  "points": 12896,
  "pol": 16660,
  "policy": 30914,
  "polit": 26846,
  "political": 18991,
  "politics": 28940,
  "poll": 28893,
  "pool": 7027,
  "poon": 28127,
  "poons": 29553,
  "poor": 31396,
  "pop": 13539,
  "por": 1809,
  "pora": 29905,
  "porary": 5322,
  "porate": 30956,
  "port": 608,
  "portation": 9587,
  "ported": 8781,
  "porting": 19916,
  "portion": 7879,
  "ports": 3531,
  "pos": 16894,
  "pose": 18181,
  "position": 24538,
  "positive": 24933,
  "post": 6903,
  "pot": 12265,
  "pound": 15511,
  "power": 6428,
  "powered": 12803,
  "pp": 378,
  "ppe": 25276,
  "pped": 1542,
  "pper": 3346,
  "ppers": 8772,
  "ppery": 26328,
  "pping": 2170,
  "ppo": 14446,
  "ppy": 11423,
  "pr": 1073,
  "pract": 25043,
  "pre": 3439,
  "pread": 7868,
  "pres": 18731,
  "present": 22796,
  "president": 16834,
  "press": 9221,
  "pret": 6379,
  "pri": 4133,
  "price": 24975,
  "priced": 26385,
  "pril": 2564,
  "prim": 20326,
  "prime": 26842,
  "pring": 13863,
  "print": 6561,
  "prise": 7636,
  "prises": 16073,
  "prising": 12678,
  "prisingly": 17508,
  "priv": 16216,
  "private": 22513,
  "pro": 2291,
  "probably": 24492,
  "process": 18494,
  "proclaimed": 31133,
  "produ": 20354,
  "produced": 26356,
  "producing": 31130,
  "product": 17622,
  "production": 22959,
  "productive": 26520,
  "prof": 4981,
  "professional": 29529,
  "profile": 11793,
  "profit": 7772,
  "profits": 25113,
  "program": 27837,
  "project": 21533,
  "prom": 14392,
  "pron": 31488,
  "proof": 14225,
  "prop": 22745,
  "proper": 25447,
  "prot": 28476,
  "prote": 29752,
  "protect": 20999,
  "prov": 14705,
  "prus": 22465,
  "ps": 3084,
  "pse": 13820,
  "psons": 27432,
  "psy": 21230,
  "psych": 24481,
  "pt": 519,
  "pta": 26357,
  "pted": 5644,
  "ptic": 15205,
  "ption": 1489,
  "ptions": 8737,
  "ptive": 25465,
  "pton": 8727,
  "pts": 14428,
  "pty": 6305,
  "pub": 25583,
  "public": 13050,
  "published": 27065,
  "punk": 30449,
  "pur": 13983,
  "purpose": 28597,
  "pus": 26429,
  "push": 29882,
  "put": 2559,
  "puted": 14378,
  "puter": 11702,
  "px": 14771,
  "py": 13831,
  "q": 113,
  "qa": 18589,
  "ql": 19796,
  "qqa": 23676,
  "qu": 434,
  "qual": 13929,
  "qualified": 21519,
  "quality": 12835,
  "quar": 26528,
  "quarter": 21482,
  "quarters": 7557,
  "que": 3976,
  "quel": 27836,
  "quer": 11898,
  "querque": 29559,
  "query": 28429,
  "ques": 11641,
  "quest": 8906,
  "question": 25232,
  "quet": 22002,
  "quez": 18238,
  "quire": 16524,
  "quirer": 30622,
  "quist": 26174,
  "quite": 30745,
  "quote": 26962,
  "r": 114,
  "ra": 520,
  "rab": 19567,
  "rac": 6505,
  "race": 17349,
  "racial": 28892,
  "ract": 1322,
  "racted": 18996,
  "raction": 19337,
  "ractions": 31521,
  "racuse": 23998,
  "rad": 4427,
  "rade": 27458,
  "rae": 24665,
  "rael": 1955,
  "raeus": 30038,
  "raf": 20002,
  "raft": 1643,
  "rafted": 24118,
  "rag": 26750,
  "rage": 7344,
  "raged": 15973,
  "rah": 11464,
  "raham": 12834,
  "rahim": 20698,
  "raid": 6957,
  "raig": 9660,
  "rail": 30875,
  "rain": 2777,
  "raine": 23035,
  "rained": 13024,
  "raining": 22951,
  "raising": 26899,
  "rait": 12001,
  "raits": 23227,
  "ral": 1297,
  "ram": 4115,
  "ramble": 27135,
  "rament": 13695,
  "ramento": 15330,
  "ramid": 19737,
  "rams": 16579,
  "ran": 2249,
  "rance": 21431,
  "ranch": 23142,
  "rand": 26057,
  "random": 31690,
  "rane": 12607,
  "ranean": 14643,
  "range": 4984,
  "ranged": 30820,
  "ranging": 25702,
  "ranked": 23489,
  "ranking": 22109,
  "rans": 28189,
  "rant": 5894,
  "rap": 1395,
  "rape": 14001,
  "raper": 25124,
  "raph": 7550,
  "rapped": 9207,
  "rapping": 31171,
  "raq": 3086,
  "rar": 25256,
  "rared": 21643,
  "rary": 7084,
  "ras": 7395,
  "rase": 24865,
  "rast": 3185,
  "rastructure": 5135,
  "rat": 1245,
  "rate": 4337,
  "rated": 3712,
  "rates": 7263,
  "rath": 23189,
  "rather": 30047,
  "ratic": 27903,
  "rating": 7436,
  "ration": 1310,
  "rational": 17913,
  "rations": 6711,
  "rative": 7824,
  "ratives": 19931,
  "rator": 8202,
  "rators": 7826,
  "ratory": 29549,
  "ratt": 22184,
  "ratulations": 29059,
  "raud": 5698,
  "rav": 4276,
  "rave": 20194,
  "raved": 30702,
  "ravel": 17726,
  "raven": 24723,
  "ravis": 15767,
  "ravity": 25723,
  "ravo": 28146,
  "raw": 1979,
  "rawl": 15000,
  "rawling": 16915,
  "rawn": 5719,
  "rax": 28566,
  "ray": 2638,
  "rays": 18240,
  "raz": 2995,
  "razil": 5860,
  "razy": 5796,
  "rb": 30663,
  "rc": 11591,
  "rd": 5029,
  "re": 260,
  "rea": 19357,
  "reach": 14128,
  "reaching": 24870,
  "read": 1008,
  "reading": 21083,
  "ready": 1380,
  "real": 4902,
  "realDonaldTrump": 21881,
  "really": 24191,
  "ream": 2344,
  "reamed": 15089,
  "reams": 7555,
  "reat": 640,
  "reated": 14542,
  "reath": 23902,
  "reating": 18053,
  "reatment": 21967,
  "reb": 23696,
  "rec": 8815,
  "reci": 26759,
  "reck": 10810,
  "recogn": 23976,
  "record": 20504,
  "rect": 2967,
  "rection": 9410,
  "rections": 17701,
  "recy": 16697,
  "red": 450,
  "reddit": 19713,
  "redible": 28356,
  "redict": 13671,
  "redients": 26571,
  "redit": 7004,
  "redited": 19423,
  "redits": 25941,
  "ree": 614,
  "reed": 1914,
  "reedom": 3199,
  "reek": 10778,
  "reen": 1407,
  "reens": 5533,
  "rees": 5005,
  "reet": 2608,
  "ref": 7818,
  "reg": 2310,
  "regist": 29037,
  "regn": 27405,
  "regon": 7192,
  "regor": 21286,
  "regular": 17718,
  "regulated": 23331,
  "regulation": 23817,
  "rehens": 24920,
  "rehensible": 29676,
  "rel": 2720,
  "reland": 5971,
  "related": 5184,
  "release": 22797,
  "released": 27085,
  "reli": 27303,
  "religious": 21997,
  "rell": 10368,
  "rella": 18923,
  "rem": 1363,
  "reme": 2116,
  "remlin": 14376,
  "ren": 912,
  "rence": 6722,
  "rench": 3233,
  "renched": 19803,
  "renches": 29617,
  "rencies": 11860,
  "rency": 4986,
  "rend": 10991,
  "render": 13484,
  "rendered": 23134,
  "rene": 22015,
  "renn": 25365,
  "rent": 1153,
  "rentice": 23112,
  "reon": 26818,
  "rep": 7424,
  "repe": 30217,
  "report": 27159,
  "reported": 26304,
  "repre": 8539,
  "reprene": 8576,
  "represent": 14374,
  "represented": 29668,
  "requ": 11616,
  "rer": 13828,
  "rera": 19494,
  "rero": 28027,
  "rers": 27842,
  "res": 406,
  "resa": 13569,
  "rescent": 26767,
  "resent": 1876,
  "resents": 5890,
  "resh": 3794,
  "reshold": 10781,
  "resident": 1520,
  "resistant": 25343,
  "resolution": 26971,
  "resp": 4521,
  "respect": 15134,
  "respond": 5732,
  "respons": 14191,
  "response": 30414,
  "responsible": 19149,
  "ress": 594,
  "ressed": 3715,
  "resses": 20279,
  "ressing": 10911,
  "ression": 3507,
  "ressive": 5307,
  "rest": 916,
  "rested": 28220,
  "restrial": 19930,
  "result": 31369,
  "ret": 1238,
  "retch": 30367,
  "retched": 29106,
  "rete": 7428,
  "retion": 14574,
  "rets": 8603,
  "rett": 7115,
  "retty": 17871,
  "return": 20995,
  "rev": 20218,
  "review": 19648,
  "reviewed": 28249,
  "revolution": 27977,
  "rew": 1769,
  "rey": 4415,
  "rez": 21861,
  "rh": 21417,
  "ri": 381,
  "ria": 7503,
  "riad": 19326,
  "riage": 3838,
  "riages": 15013,
  "rial": 4239,
  "rian": 4066,
  "rians": 16567,
  "rib": 838,
  "riber": 25250,
  "rible": 5291,
  "ribly": 15337,
  "ribut": 2357,
  "ribute": 4586,
  "ributed": 5705,
  "ributes": 9605,
  "ribution": 4005,
  "ric": 1148,
  "rical": 8182,
  "ricane": 10204,
  "ricanes": 19496,
  "rice": 22373,
  "rich": 6244,
  "riched": 28124,
  "ricia": 24841,
  "rick": 4727,
  "ricks": 23204,
  "rics": 10939,
  "rict": 1936,
  "ricted": 21398,
  "rid": 5944,
  "ride": 26111,
  "ridge": 12638,
  "ridges": 31627,
  "rie": 5446,
  "ried": 2174,
  "rief": 3599,
  "riel": 14100,
  "rien": 13659,
  "riend": 1298,
  "rient": 8181,
  "riented": 23258,
  "rients": 19300,
  "rier": 5539,
  "riers": 7991,
  "ries": 1558,
  "rif": 9722,
  "rific": 7516,
  "rifice": 11123,
  "rig": 4378,
  "riger": 18837,
  "right": 2356,
  "rights": 21512,
  "rik": 8215,
  "rike": 11146,
  "rikes": 16648,
  "ril": 24931,
  "rill": 19384,
  "rily": 29261,
  "rim": 4797,
  "rimin": 9047,
  "riminal": 25542,
  "rimination": 6991,
  "rimp": 25631,
  "rin": 12145,
  "rina": 18907,
  "rine": 22264,
  "ring": 1944,
  "rington": 21459,
  "rint": 13331,
  "rio": 23005,
  "rior": 10029,
  "riors": 9789,
  "rip": 6318,
  "ripp": 14750,
  "ript": 2464,
  "ription": 4185,
  "rique": 25859,
  "rir": 30791,
  "ris": 2061,
  "rise": 17330,
  "rises": 25798,
  "rising": 17066,
  "risk": 17031,
  "rison": 6578,
  "rist": 1487,
  "ristol": 19179,
  "rists": 30598,
  "risy": 21651,
  "rit": 711,
  "rite": 9245,
  "rites": 27485,
  "ritical": 15457,
  "rities": 15920,
  "rition": 10933,
  "ritional": 22859,
  "ritis": 29340,
  "ritz": 26503,
  "rium": 19215,
  "rive": 6715,
  "rived": 15916,
  "river": 30230,
  "riving": 13603,
  "rix": 9990,
  "rm": 31972,
  "rne": 27298,
  "ro": 308,
  "road": 5326,
  "roads": 17784,
  "rob": 23947,
  "robe": 27305,
  "roc": 12710,
  "rock": 10559,
  "rod": 17092,
  "rodu": 1931,
  "roduced": 13674,
  "roducing": 31462,
  "roduct": 8004,
  "roduction": 8940,
  "roductive": 11928,
  "roe": 18755,
  "rog": 5534,
  "rogen": 15403,
  "roid": 3998,
  "rol": 4051,
  "rolet": 26760,
  "roll": 3997,
  "rolled": 8217,
  "roller": 13509,
  "rolling": 14157,
  "rolls": 24963,
  "rolog": 30802,
  "rom": 395,
  "rome": 6570,
  "ron": 1456,
  "rone": 15389,
  "rones": 14919,
  "rong": 14862,
  "ronic": 4817,
  "ronics": 22996,
  "rons": 11534,
  "ront": 4234,
  "ronting": 24047,
  "room": 3192,
  "rooms": 9157,
  "root": 21364,
  "roots": 14219,
  "rop": 1675,
  "roph": 10086,
  "rophe": 18598,
  "rophic": 15703,
  "ropical": 27140,
  "ropolis": 26669,
  "ropolitan": 13052,
  "ropri": 8721,
  "ropy": 29673,
  "ror": 1556,
  "rors": 6764,
  "ros": 4921,
  "rose": 13846,
  "ross": 1205,
  "rost": 27793,
  "rot": 12367,
  "rote": 1974,
  "rotect": 15073,
  "rots": 25208,
  "rou": 478,
  "roud": 5211,
  "rough": 735,
  "rought": 2734,
  "round": 738,
  "roup": 949,
  "rous": 7902,
  "rov": 18018,
  "rovers": 25350,
  "row": 815,
  "rowd": 3448,
  "rowing": 10185,
  "rown": 2822,
  "rows": 9551,
  "rowth": 13997,
  "roy": 3555,
  "rs": 3869,
  "rt": 24058,
  "ru": 606,
  "ruary": 3156,
  "rub": 30587,
  "ruce": 24325,
  "ruct": 1412,
  "ructed": 18474,
  "ruction": 2824,
  "ructions": 22405,
  "ructive": 12913,
  "ructure": 2907,
  "rue": 22761,
  "rued": 26172,
  "rug": 1966,
  "rugged": 22637,
  "rugu": 24678,
  "ruit": 4792,
  "ruitt": 26592,
  "rule": 27497,
  "ruly": 31135,
  "rum": 6187,
  "run": 5132,
  "runner": 14469,
  "running": 17296,
  "rup": 12161,
  "rupal": 31134,
  "rupt": 3510,
  "ruption": 5605,
  "rus": 17054,
  "rust": 12988,
  "ry": 571,
  "ryan": 27347,
  "rying": 11307,
  "ryn": 28999,
  "rypt": 21061,
  "rys": 20062,
  "rÃ©": 25026,
  "s": 115,
  "sa": 10246,
  "sac": 30901,
  "safe": 21776,
  "sal": 26238,
  "san": 18291,
  "save": 27555,
  "saving": 24364,
  "say": 17529,
  "sburg": 29025,
  "sc": 1505,
  "scale": 8726,
  "scape": 7704,
  "scar": 10746,
  "scars": 31386,
  "scenes": 24724,
  "sch": 25177,
  "sche": 14764,
  "school": 13019,
  "science": 15435,
  "scient": 21371,
  "scill": 22583,
  "scope": 31733,
  "screen": 10156,
  "scrib": 4504,
  "scribe": 9589,
  "script": 15927,
  "se": 327,
  "sea": 7201,
  "search": 16288,
  "season": 4819,
  "seat": 19344,
  "sec": 2260,
  "second": 13071,
  "secret": 19003,
  "sect": 9486,
  "section": 9835,
  "sections": 28882,
  "sector": 27366,
  "secure": 20901,
  "security": 10736,
  "secut": 3888,
  "secution": 16717,
  "secutive": 10867,
  "secutor": 27236,
  "secutors": 21229,
  "see": 4060,
  "seek": 28190,
  "seen": 15995,
  "sein": 16141,
  "sel": 749,
  "select": 25788,
  "seless": 11554,
  "self": 979,
  "sell": 7306,
  "seller": 27961,
  "selling": 13905,
  "sels": 8083,
  "selves": 1885,
  "semb": 4626,
  "semble": 14456,
  "sembly": 6169,
  "sen": 5573,
  "senal": 8691,
  "sensitive": 28474,
  "sequ": 3022,
  "sequently": 19770,
  "ser": 2397,
  "series": 24476,
  "serious": 26843,
  "serv": 4636,
  "server": 15117,
  "service": 15974,
  "serving": 25062,
  "ses": 9785,
  "set": 3097,
  "sett": 19170,
  "setting": 30476,
  "seud": 13238,
  "seven": 24916,
  "sever": 25935,
  "sewhere": 26970,
  "sex": 6870,
  "sexual": 18725,
  "sey": 3906,
  "seys": 22526,
  "sh": 1745,
  "shadow": 18464,
  "shaped": 16662,
  "share": 24050,
  "sharing": 17268,
  "shaw": 27656,
  "she": 7981,
  "shed": 30256,
  "sheet": 22284,
  "shield": 30264,
  "shine": 18730,
  "ship": 7246,
  "ships": 24802,
  "shire": 9016,
  "shirt": 14177,
  "shirts": 19624,
  "shit": 17301,
  "shoot": 27066,
  "shop": 31669,
  "shore": 11595,
  "short": 23657,
  "shot": 12263,
  "shots": 25540,
  "should": 20188,
  "show": 16418,
  "si": 17144,
  "sic": 18848,
  "side": 1513,
  "sided": 20200,
  "sight": 16772,
  "sign": 12981,
  "signed": 29860,
  "significant": 28902,
  "sil": 20654,
  "sim": 15777,
  "sin": 31472,
  "since": 22760,
  "sis": 14694,
  "site": 17441,
  "six": 17937,
  "size": 11776,
  "sized": 12538,
  "sk": 13518,
  "ski": 14273,
  "skin": 22851,
  "sky": 13576,
  "sl": 10164,
  "slaught": 28061,
  "slist": 31299,
  "sm": 7571,
  "small": 21747,
  "smart": 26361,
  "smith": 24339,
  "sn": 18339,
  "so": 551,
  "soc": 29948,
  "social": 16140,
  "soever": 15421,
  "soft": 4084,
  "sold": 24566,
  "sole": 6707,
  "solete": 22347,
  "some": 10442,
  "something": 16833,
  "sometimes": 27598,
  "son": 1263,
  "song": 29220,
  "sonian": 29537,
  "soon": 27983,
  "sor": 22297,
  "sound": 31209,
  "source": 13136,
  "sover": 19965,
  "sp": 3580,
  "space": 14767,
  "span": 19187,
  "spe": 4661,
  "speaking": 19844,
  "special": 22249,
  "specific": 12339,
  "speed": 11365,
  "spir": 25872,
  "spired": 29723,
  "spl": 27564,
  "spoken": 15733,
  "spons": 16182,
  "sponsored": 20042,
  "spot": 23304,
  "squ": 16248,
  "square": 20340,
  "src": 20927,
  "ss": 865,
  "sson": 13986,
  "st": 303,
  "stack": 31070,
  "stad": 22285,
  "staff": 27414,
  "stage": 13443,
  "stairs": 18459,
  "stakes": 31691,
  "stal": 9691,
  "stan": 12406,
  "stanbul": 19023,
  "stand": 1431,
  "standard": 21812,
  "standing": 5494,
  "stant": 23024,
  "star": 7524,
  "stars": 30245,
  "start": 12300,
  "starter": 10501,
  "stasy": 31266,
  "stat": 29006,
  "state": 5252,
  "stated": 18120,
  "statement": 24311,
  "states": 26951,
  "static": 20759,
  "station": 17757,
  "status": 20972,
  "stay": 28386,
  "ste": 4274,
  "stead": 25666,
  "sted": 26221,
  "steen": 31281,
  "stein": 5214,
  "stellar": 28848,
  "stem": 946,
  "sten": 25316,
  "step": 9523,
  "steps": 18829,
  "ster": 1766,
  "sterdam": 20336,
  "sters": 6995,
  "stick": 16264,
  "still": 21662,
  "stock": 12964,
  "ston": 3524,
  "stone": 6927,
  "stones": 28792,
  "stood": 6254,
  "stop": 10704,
  "store": 13142,
  "storm": 12308,
  "story": 12564,
  "stown": 24356,
  "str": 6988,
  "stra": 11609,
  "stract": 8286,
  "strap": 27280,
  "stre": 23307,
  "stream": 5079,
  "street": 27998,
  "strike": 27020,
  "string": 12067,
  "stro": 22615,
  "strom": 18833,
  "strong": 10598,
  "stru": 21574,
  "struct": 27959,
  "sts": 5758,
  "stud": 19572,
  "sty": 21465,
  "style": 6556,
  "su": 17999,
  "sub": 10285,
  "success": 27417,
  "such": 11104,
  "sum": 19420,
  "sun": 17273,
  "super": 19347,
  "supp": 12452,
  "support": 26324,
  "supported": 30709,
  "sur": 12500,
  "sw": 2156,
  "swer": 23382,
  "swick": 26218,
  "sworth": 27678,
  "sy": 2037,
  "sych": 3090,
  "sylv": 7942,
  "sylvania": 8017,
  "syn": 31295,
  "system": 15419,
  "t": 116,
  "ta": 7889,
  "tab": 24657,
  "table": 13595,
  "tag": 19781,
  "tail": 13188,
  "tailed": 29643,
  "tails": 24990,
  "tain": 929,
  "tainment": 10437,
  "take": 15709,
  "taker": 28346,
  "taking": 22964,
  "tale": 25190,
  "talk": 15516,
  "tank": 25880,
  "tar": 22575,
  "target": 22783,
  "tarian": 11214,
  "tarians": 21807,
  "tax": 17661,
  "td": 29242,
  "te": 399,
  "team": 14961,
  "tec": 29671,
  "tech": 11761,
  "techn": 21656,
  "ted": 1024,
  "tee": 2283,
  "teen": 7097,
  "teenth": 22105,
  "tees": 13195,
  "tel": 9762,
  "tell": 27244,
  "telling": 15568,
  "tem": 1250,
  "tember": 2723,
  "temporary": 26386,
  "tempt": 1958,
  "tems": 24776,
  "ten": 1025,
  "tenance": 9409,
  "ter": 347,
  "terday": 5331,
  "tered": 3434,
  "tering": 6411,
  "terior": 14871,
  "term": 3937,
  "tern": 759,
  "ternal": 5763,
  "terness": 31989,
  "terns": 29841,
  "terror": 10973,
  "terrorism": 15592,
  "terrorist": 31002,
  "ters": 887,
  "terson": 19981,
  "tery": 4726,
  "tes": 7766,
  "tesque": 31282,
  "test": 7798,
  "testing": 31158,
  "text": 673,
  "th": 418,
  "tha": 13426,
  "thal": 11551,
  "than": 13365,
  "thanks": 30586,
  "that": 5497,
  "the": 1125,
  "their": 22235,
  "theless": 9026,
  "them": 15989,
  "themed": 21343,
  "then": 8032,
  "thening": 18698,
  "ther": 492,
  "there": 7318,
  "thereum": 14842,
  "these": 25598,
  "thew": 7473,
  "they": 9218,
  "thia": 30751,
  "thing": 1198,
  "think": 12602,
  "thinkable": 29535,
  "thinking": 24494,
  "third": 15397,
  "thirds": 14489,
  "this": 7660,
  "thodox": 10945,
  "thood": 10714,
  "thora": 28797,
  "those": 23017,
  "though": 1921,
  "thought": 24900,
  "thouse": 19557,
  "thread": 25822,
  "threat": 17205,
  "threatening": 22813,
  "three": 15231,
  "throp": 10381,
  "through": 9179,
  "ths": 14745,
  "thur": 11174,
  "thy": 22098,
  "ti": 19731,
  "tic": 15683,
  "tical": 22517,
  "tick": 26005,
  "tics": 13043,
  "tier": 20956,
  "ties": 4164,
  "tight": 30215,
  "tim": 24212,
  "time": 2410,
  "times": 21052,
  "ting": 776,
  "tingham": 29487,
  "tingly": 28439,
  "tion": 5503,
  "tit": 12378,
  "title": 17372,
  "tle": 860,
  "tlement": 23508,
  "tles": 28853,
  "tlet": 24969,
  "tml": 25462,
  "to": 1359,
  "ton": 1082,
  "too": 10573,
  "toos": 25639,
  "top": 5323,
  "tor": 14477,
  "total": 25881,
  "touch": 29297,
  "town": 11185,
  "tox": 29538,
  "tr": 3313,
  "tra": 10765,
  "track": 11252,
  "trade": 21968,
  "traditional": 30051,
  "train": 26036,
  "trained": 30505,
  "trans": 9441,
  "tre": 25594,
  "tree": 24447,
  "tri": 24982,
  "trl": 29666,
  "tro": 25940,
  "true": 16786,
  "ts": 889,
  "tsburgh": 10065,
  "tsky": 30809,
  "tt": 1318,
  "tta": 23403,
  "ttes": 12106,
  "ttle": 31243,
  "ttp": 2031,
  "tun": 26551,
  "turn": 21613,
  "turned": 25489,
  "tv": 21620,
  "tw": 16031,
  "twitter": 6236,
  "two": 11627,
  "txt": 23484,
  "ty": 852,
  "tyard": 31740,
  "type": 8525,
  "types": 26614,
  "tz": 20954,
  "u": 117,
  "ua": 7063,
  "uable": 6612,
  "uably": 11586,
  "uador": 20132,
  "ual": 743,
  "ually": 922,
  "uan": 7681,
  "uana": 3991,
  "uania": 27827,
  "uant": 29478,
  "uart": 16738,
  "uary": 2542,
  "uate": 5008,
  "uated": 6567,
  "uates": 11820,
  "uating": 11031,
  "uation": 2201,
  "uations": 5927,
  "ub": 530,
  "uba": 22481,
  "ubarak": 22863,
  "ube": 3752,
  "uber": 18854,
  "ubl": 1746,
  "uble": 28509,
  "ublic": 757,
  "ublin": 13682,
  "ublished": 10720,
  "ubs": 22479,
  "uc": 1200,
  "ucc": 15501,
  "uccess": 11166,
  "ucci": 21240,
  "uce": 7931,
  "uced": 13700,
  "uch": 781,
  "uchi": 28273,
  "uchs": 30305,
  "ucing": 23561,
  "uck": 1388,
  "ucked": 17001,
  "ucker": 11401,
  "ucking": 24169,
  "uckland": 23789,
  "uckle": 29865,
  "ucks": 5711,
  "ucky": 4956,
  "ucle": 15553,
  "uclear": 3246,
  "uct": 4966,
  "uction": 8622,
  "uctions": 26603,
  "ud": 471,
  "uda": 17172,
  "udd": 4254,
  "uddenly": 19535,
  "uddle": 23674,
  "uddled": 28319,
  "uddy": 22345,
  "ude": 2598,
  "udeau": 11877,
  "uded": 17247,
  "uder": 27597,
  "udes": 8153,
  "udge": 12617,
  "udget": 24182,
  "udic": 25771,
  "uding": 24782,
  "udo": 24850,
  "uds": 21436,
  "ue": 540,
  "ued": 1565,
  "uel": 2609,
  "ueless": 31687,
  "ueller": 13339,
  "uels": 11711,
  "uer": 8027,
  "uers": 28777,
  "uerto": 12172,
  "ues": 899,
  "uesday": 2644,
  "uese": 16520,
  "uez": 12233,
  "uf": 3208,
  "ufact": 3664,
  "uff": 1770,
  "uffed": 16354,
  "uffer": 22508,
  "ufficient": 14902,
  "uffle": 18015,
  "uffled": 29338,
  "uffs": 19377,
  "uffy": 16436,
  "ug": 1258,
  "ugar": 16876,
  "ugby": 11477,
  "uge": 1972,
  "ugg": 4223,
  "uggage": 28584,
  "ugged": 13582,
  "ugger": 24727,
  "uggets": 25334,
  "ugging": 13802,
  "uggish": 30298,
  "ugh": 6695,
  "ught": 8974,
  "ugin": 27062,
  "ugs": 12122,
  "uh": 9984,
  "ui": 12059,
  "uild": 4173,
  "uilding": 6907,
  "uilt": 22067,
  "uine": 7520,
  "uing": 3320,
  "uit": 3162,
  "uitive": 28821,
  "uits": 8742,
  "uity": 14879,
  "uj": 13967,
  "uk": 3220,
  "uka": 19783,
  "uke": 5039,
  "ukes": 28210,
  "uki": 14856,
  "ul": 377,
  "ula": 4883,
  "ular": 1097,
  "ularly": 2493,
  "ulars": 28781,
  "ulas": 29636,
  "ulate": 4891,
  "ulated": 4624,
  "ulates": 15342,
  "ulating": 7912,
  "ulation": 1753,
  "ulations": 5876,
  "ulative": 13557,
  "ulator": 14989,
  "ulators": 21568,
  "ulatory": 21292,
  "ule": 2582,
  "uled": 21396,
  "ulence": 29924,
  "ulent": 13762,
  "ules": 7680,
  "ulf": 4646,
  "ulic": 27769,
  "ulin": 15755,
  "ulk": 15482,
  "ull": 751,
  "ullah": 27599,
  "ulled": 30869,
  "ulling": 30013,
  "ullivan": 13701,
  "ully": 2131,
  "ulous": 6479,
  "ulously": 16534,
  "uls": 6096,
  "ulse": 11070,
  "ulsion": 14405,
  "ult": 596,
  "ultan": 24878,
  "ultane": 9100,
  "ults": 12242,
  "ultural": 8496,
  "ulture": 6850,
  "ulty": 10378,
  "ultz": 17446,
  "ulu": 14704,
  "ulum": 13743,
  "ulus": 26740,
  "uly": 1897,
  "ulz": 27061,
  "um": 404,
  "uma": 8292,
  "umably": 27189,
  "uman": 4033,
  "umat": 25605,
  "umatic": 16225,
  "umb": 2306,
  "umbai": 15720,
  "umber": 6733,
  "umbered": 25080,
  "umbing": 29906,
  "umbl": 13966,
  "umble": 9743,
  "umbled": 12446,
  "umbles": 23650,
  "umbling": 13529,
  "umblr": 15181,
  "umbo": 24970,
  "umbs": 21522,
  "ume": 2925,
  "umed": 17747,
  "umen": 22459,
  "ument": 1905,
  "uments": 3066,
  "umer": 7976,
  "umers": 25468,
  "umes": 8194,
  "umi": 21255,
  "umin": 8003,
  "uming": 12187,
  "umm": 12575,
  "ummy": 16889,
  "umn": 4864,
  "umni": 21821,
  "umns": 14945,
  "ump": 806,
  "umped": 21694,
  "umper": 17604,
  "umph": 10486,
  "umping": 20382,
  "umps": 19061,
  "umption": 27310,
  "umpy": 31442,
  "ums": 6920,
  "un": 405,
  "una": 11830,
  "unal": 18507,
  "unch": 1952,
  "unciation": 25262,
  "unct": 13149,
  "unction": 5765,
  "uncture": 28621,
  "und": 881,
  "under": 5341,
  "undred": 3019,
  "undreds": 16366,
  "une": 1702,
  "unes": 8669,
  "ung": 2242,
  "unge": 16111,
  "unged": 24455,
  "ungle": 14544,
  "unicip": 8780,
  "unicipal": 10019,
  "unicipality": 25920,
  "union": 22512,
  "unior": 8301,
  "unique": 15647,
  "unit": 27623,
  "unity": 11064,
  "unk": 3167,
  "unks": 15353,
  "unky": 25759,
  "unless": 27123,
  "unning": 7129,
  "uns": 14768,
  "unt": 2852,
  "untary": 27010,
  "unte": 5829,
  "until": 27359,
  "untu": 11154,
  "uous": 5688,
  "uously": 22915,
  "up": 901,
  "update": 31711,
  "uper": 8351,
  "upert": 23322,
  "upid": 7686,
  "upiter": 18397,
  "upload": 29854,
  "upon": 29735,
  "upp": 4437,
  "ups": 4898,
  "ur": 334,
  "ura": 7437,
  "urable": 13388,
  "urai": 25050,
  "ural": 1479,
  "urally": 17340,
  "urance": 3782,
  "urances": 25289,
  "uras": 15719,
  "uration": 5337,
  "urations": 22210,
  "urb": 4590,
  "urban": 30770,
  "urbed": 17930,
  "urch": 1743,
  "urchase": 26353,
  "urches": 11221,
  "urd": 2548,
  "urdy": 28062,
  "ure": 501,
  "ureau": 5418,
  "ured": 1486,
  "uren": 31091,
  "urer": 30138,
  "urers": 31244,
  "ures": 984,
  "urg": 3545,
  "urger": 27830,
  "uri": 13473,
  "uries": 4277,
  "uring": 845,
  "urious": 16301,
  "uristic": 23251,
  "urities": 11925,
  "urity": 1482,
  "url": 13839,
  "urn": 782,
  "urned": 12685,
  "urning": 3007,
  "uro": 1304,
  "urous": 27613,
  "urp": 30834,
  "urrection": 27805,
  "urred": 12957,
  "urrent": 7812,
  "urring": 14375,
  "urry": 16446,
  "urs": 1469,
  "ursday": 2815,
  "urse": 10742,
  "ursed": 30917,
  "urst": 20631,
  "urt": 3489,
  "urther": 1846,
  "uru": 14513,
  "ury": 1495,
  "us": 386,
  "usa": 24684,
  "usable": 29034,
  "usal": 6311,
  "usalem": 9202,
  "usat": 26407,
  "usc": 16766,
  "usch": 24691,
  "uscript": 15752,
  "use": 1891,
  "used": 1406,
  "usement": 26012,
  "user": 10629,
  "users": 20183,
  "uses": 2955,
  "useum": 5399,
  "ush": 1545,
  "ushed": 15914,
  "ushes": 25546,
  "ushi": 21595,
  "ushima": 21469,
  "ushing": 14941,
  "usiness": 5885,
  "using": 3430,
  "usion": 3959,
  "usions": 15490,
  "usive": 8048,
  "usk": 19224,
  "usp": 18828,
  "usr": 24663,
  "usra": 21921,
  "uss": 997,
  "ussed": 26821,
  "ussen": 27301,
  "ussia": 26059,
  "ussian": 31817,
  "ussion": 13299,
  "ussions": 18804,
  "ussy": 24305,
  "ust": 438,
  "ustain": 16337,
  "ustainable": 19218,
  "usted": 8150,
  "uster": 5330,
  "usterity": 14717,
  "usters": 12555,
  "usting": 11328,
  "ustom": 1933,
  "ustomed": 20959,
  "usually": 23689,
  "ut": 311,
  "utable": 24549,
  "utation": 29511,
  "utch": 6525,
  "ute": 1178,
  "uted": 8738,
  "uten": 9531,
  "utenant": 14960,
  "uter": 10998,
  "uters": 5071,
  "uterte": 17495,
  "utes": 1899,
  "uth": 1105,
  "uther": 11267,
  "uthor": 1477,
  "utic": 19032,
  "utical": 13232,
  "uties": 8225,
  "util": 30596,
  "uting": 14878,
  "ution": 995,
  "utions": 3258,
  "uto": 11939,
  "uton": 25497,
  "utory": 22723,
  "utral": 19007,
  "uts": 5735,
  "utsche": 23762,
  "utt": 12764,
  "utter": 10812,
  "utterstock": 22882,
  "utton": 18562,
  "uture": 1627,
  "uty": 3775,
  "utz": 26657,
  "uum": 14138,
  "uv": 15515,
  "ux": 3323,
  "uxe": 28168,
  "uy": 6451,
  "uz": 11265,
  "uzz": 5336,
  "uzzle": 26874,
  "v": 118,
  "va": 6808,
  "vable": 21752,
  "vag": 28697,
  "val": 2605,
  "valid": 12644,
  "vals": 12824,
  "value": 12723,
  "van": 9880,
  "vance": 17717,
  "vant": 4842,
  "var": 11651,
  "vard": 8605,
  "vari": 28866,
  "vas": 11126,
  "vasive": 19617,
  "vation": 10951,
  "vd": 26074,
  "ve": 304,
  "ved": 866,
  "veillance": 24146,
  "vel": 653,
  "velength": 24949,
  "vell": 29197,
  "velop": 1022,
  "velt": 15058,
  "vement": 22037,
  "ven": 563,
  "venant": 20835,
  "venge": 30516,
  "vent": 3152,
  "vention": 4540,
  "ventional": 21324,
  "ventions": 16278,
  "ventus": 27795,
  "venue": 3676,
  "ver": 331,
  "verage": 1799,
  "verages": 25224,
  "vere": 4034,
  "vered": 21218,
  "vern": 795,
  "verning": 12734,
  "vernment": 9407,
  "vers": 682,
  "verse": 4941,
  "versely": 20440,
  "version": 11827,
  "vert": 1701,
  "verted": 16363,
  "vertise": 2796,
  "vertisement": 3228,
  "vertisements": 9593,
  "vertising": 19334,
  "verts": 22782,
  "verty": 6887,
  "very": 541,
  "ves": 1050,
  "vest": 4359,
  "vet": 16318,
  "vette": 29736,
  "vey": 5415,
  "veyard": 24741,
  "vez": 25580,
  "vi": 11723,
  "via": 10152,
  "vial": 16324,
  "vic": 28869,
  "vict": 30325,
  "vid": 19155,
  "video": 21130,
  "vidia": 23333,
  "vie": 25041,
  "view": 1211,
  "vig": 31600,
  "vik": 31081,
  "ville": 4003,
  "vin": 6745,
  "vine": 23896,
  "ving": 960,
  "viol": 14196,
  "violence": 31169,
  "violent": 19718,
  "vious": 12279,
  "viously": 7673,
  "viron": 2079,
  "vironment": 2248,
  "vironments": 11237,
  "vis": 5225,
  "vised": 15623,
  "visible": 28320,
  "vision": 9703,
  "visor": 13171,
  "visors": 23719,
  "vity": 19992,
  "vo": 11940,
  "voc": 16965,
  "vol": 11435,
  "volent": 27323,
  "volume": 30878,
  "von": 23098,
  "vor": 16636,
  "vote": 27863,
  "vous": 28964,
  "vs": 24034,
  "vy": 7361,
  "w": 119,
  "wa": 11186,
  "wage": 17164,
  "wagen": 23570,
  "wait": 17402,
  "wal": 13416,
  "wald": 19683,
  "walk": 9511,
  "walker": 25691,
  "walks": 24730,
  "wall": 11471,
  "wan": 7196,
  "war": 5367,
  "ward": 892,
  "wards": 1992,
  "ware": 1587,
  "wart": 6814,
  "wartz": 22054,
  "was": 9516,
  "watch": 10073,
  "water": 5859,
  "waukee": 12948,
  "wave": 20675,
  "waves": 25768,
  "way": 1010,
  "ways": 1303,
  "wd": 28201,
  "we": 723,
  "wealth": 14368,
  "wear": 14466,
  "weather": 20521,
  "web": 17633,
  "wed": 10423,
  "week": 9827,
  "ween": 957,
  "weet": 7953,
  "weight": 6585,
  "well": 4397,
  "welling": 25406,
  "wen": 21338,
  "went": 18087,
  "wer": 14921,
  "were": 20041,
  "wered": 8563,
  "west": 6435,
  "western": 12358,
  "wh": 1612,
  "what": 4837,
  "whe": 12698,
  "wheel": 21305,
  "whel": 6182,
  "whelming": 31001,
  "when": 12526,
  "where": 2391,
  "whether": 24583,
  "which": 4511,
  "while": 3870,
  "white": 10829,
  "who": 7776,
  "whose": 31799,
  "why": 22368,
  "wi": 28182,
  "wic": 20979,
  "wich": 11011,
  "wick": 14956,
  "wid": 12316,
  "wide": 3903,
  "width": 13471,
  "wife": 20699,
  "wig": 25089,
  "wik": 25834,
  "wiki": 26027,
  "wild": 22639,
  "will": 10258,
  "win": 4356,
  "wind": 10562,
  "wing": 4914,
  "winning": 11739,
  "wire": 21874,
  "wise": 3491,
  "wit": 1416,
  "witch": 4394,
  "with": 5043,
  "without": 19639,
  "withstanding": 25794,
  "witter": 1934,
  "witz": 25516,
  "witzer": 11836,
  "witzerland": 12090,
  "wives": 30899,
  "wn": 672,
  "wo": 3129,
  "wolf": 28596,
  "wolves": 31548,
  "woman": 6799,
  "women": 23840,
  "won": 23409,
  "wood": 3639,
  "word": 6157,
  "words": 11662,
  "work": 1590,
  "worked": 28224,
  "worker": 26606,
  "workers": 19729,
  "working": 14529,
  "works": 4531,
  "world": 7821,
  "worm": 25831,
  "worth": 8361,
  "worthy": 16310,
  "would": 16268,
  "wp": 27153,
  "wright": 25389,
  "writ": 5863,
  "write": 14824,
  "writer": 13351,
  "writers": 25792,
  "writing": 14188,
  "written": 12159,
  "wrote": 31815,
  "ws": 21995,
  "ww": 2163,
  "www": 3985,
  "wy": 26969,
  "wyn": 25804,
  "x": 120,
  "xd": 28979,
  "ximately": 23810,
  "xit": 8583,
  "xml": 27995,
  "xon": 19075,
  "xt": 539,
  "xton": 18526,
  "xual": 5913,
  "xx": 10343,
  "xxxx": 27712,
  "xy": 6742,
  "y": 121,
  "ya": 4182,
  "yan": 3645,
  "yang": 15488,
  "yard": 8084,
  "yards": 30561,
  "yd": 16333,
  "ye": 7697,
  "year": 1599,
  "years": 18983,
  "yen": 23194,
  "yer": 9095,
  "yers": 20437,
  "yes": 9695,
  "yet": 22601,
  "yg": 25367,
  "ying": 1069,
  "yl": 3480,
  "ylan": 16421,
  "yle": 2398,
  "yll": 22834,
  "ylon": 19197,
  "ylum": 9810,
  "ym": 5186,
  "ymes": 23153,
  "ymph": 24586,
  "yn": 2188,
  "ynam": 5058,
  "ynasty": 17219,
  "ync": 18012,
  "ynchron": 25243,
  "ynchronous": 29496,
  "yo": 8951,
  "yon": 17120,
  "yond": 3023,
  "you": 6756,
  "your": 16512,
  "youtube": 18162,
  "yr": 5652,
  "yre": 28376,
  "yrr": 24289,
  "yrrha": 24783,
  "yrus": 22113,
  "ys": 952,
  "ysc": 26718,
  "ysical": 17145,
  "ysics": 23903,
  "ysis": 3125,
  "yson": 16924,
  "yssey": 26438,
  "ystem": 7970,
  "yth": 5764,
  "ython": 8494,
  "yton": 25924,
  "z": 122,
  "za": 4589,
  "zai": 26430,
  "zan": 22979,
  "zb": 12831,
  "zbollah": 16076,
  "ze": 3102,
  "zed": 8753,
  "zel": 18155,
  "zen": 4593,
  "zens": 7046,
  "zer": 5904,
  "zero": 23943,
  "zes": 12486,
  "zh": 16537,
  "zhou": 28548,
  "zi": 15654,
  "zilla": 24073,
  "zing": 9017,
  "zip": 22824,
  "zman": 24276,
  "zo": 13042,
  "zon": 27691,
  "zona": 6325,
  "zone": 11203,
  "zos": 30216,
  "zsche": 31157,
  "zy": 8012,
  "zyme": 27152,
  "zz": 3528,
  "zza": 29929,
  "{": 123,
  "{\"": 18375,
  "{\\": 15193,
  "{{": 29174,
  "|": 124,
  "|>": 700,
  "|>\"": 19201,
  "|>(": 17249,
  "|>[": 31128,
  "|>âĢľ": 16484,
  "}": 125,
  "},": 17685,
  "}\\": 26966,
  "}{": 25655,
  "}}": 10396,
  "~": 126,
  "~~": 16875,
  "~~~~": 29371,
  "¡": 161,
  "¢": 162,
  "£": 163,
  "¤": 164,
  "¥": 165,
  "¦": 166,
  "§": 167,
  "¨": 168,
  "©": 169,
  "ª": 170,
  "«": 171,
  "¬": 172,
  "®": 174,
  "¯": 175,
  "°": 176,
  "±": 177,
  "²": 178,
  "³": 179,
  "´": 180,
  "µ": 181,
  "¶": 182,
  "·": 183,
  "¸": 184,
  "¹": 185,
  "º": 186,
  "»": 187,
  "»¿": 28796,
  "¼": 188,
  "½": 189,
  "¾": 190,
  "¿": 191,
  "À": 192,
  "Á": 193,
  "Â": 194,
  "Â¢": 25860,
  "Â£": 13614,
  "Â©": 16039,
  "Â®": 14286,
  "Â°": 9168,
  "Â±": 27035,
  "Â´": 27158,
  "Â·": 12475,
  "Â»": 17380,
  "Â½": 23532,
  "ÂĢ": 16773,
  "ÂĢÂ": 18682,
  "ÂĢÂĻ": 28174,
  "ÂĴ": 8847,
  "ÂĶ": 12494,
  "ÂĹ": 22816,
  "ÂĿ": 26721,
  "ÂŃ": 2913,
  "Ã": 195,
  "Ã¡": 5496,
  "Ã¡n": 16920,
  "Ã¡s": 23486,
  "Ã¢": 11848,
  "Ã£": 14398,
  "Ã£o": 14999,
  "Ã¤": 7995,
  "Ã¥": 13049,
  "Ã§": 11647,
  "Ã§Ã£o": 31675,
  "Ã¨": 11852,
  "Ã¨re": 28563,
  "Ã©": 2450,
  "Ã©e": 18108,
  "Ã©mon": 13497,
  "Ã©n": 27502,
  "Ã©s": 14509,
  "Ã©t": 18597,
  "Ãª": 21546,
  "Ã«": 29547,
  "Ã¯": 24187,
  "Ã±": 10375,
  "Ã±a": 23709,
  "Ã±o": 22976,
  "Ã³": 7264,
  "Ã³n": 11434,
  "Ã´": 27418,
  "Ã¶": 7595,
  "Ã¶r": 19776,
  "Ã¸": 23267,
  "Ãº": 17842,
  "Ã¼": 7584,
  "Ã¼r": 16102,
  "ÃĤ": 23272,
  "ÃĹ": 13753,
  "ÃŁ": 27634,
  "Ãł": 19070,
  "ÃŃ": 7067,
  "ÃŃa": 18784,
  "ÃŃn": 31991,
  "Ä": 196,
  "Ä±": 23326,
  "Äģ": 17497,
  "Äĥ": 11561,
  "Äĩ": 18897,
  "Äį": 21833,
  "ÄŁ": 23727,
  "ÄŁan": 31039,
  "Å": 197,
  "Å¡": 21615,
  "Å«": 31594,
  "Å¾": 27618,
  "ÅĤ": 31629,
  "Åį": 17505,
  "ÅŁ": 29482,
  "Æ": 198,
  "Ç": 199,
  "È": 200,
  "ÈĻ": 28123,
  "É": 201,
  "Ê": 202,
  "Ë": 203,
  "Ì": 204,
  "Í": 205,
  "Î": 206,
  "Î±": 22268,
  "Î²": 30994,
  "Ï": 207,
  "Ð": 208,
  "Ð°": 7536,
  "Ð²": 21737,
  "Ð´": 20253,
  "Ðµ": 7259,
  "ÐµÐ½": 29638,
  "ÐµÑĤ": 31992,
  "Ð·": 28288,
  "Ð¸": 9059,
  "Ð¹": 31911,
  "Ðº": 16640,
  "Ð»": 14562,
  "Ð¼": 19860,
  "Ð½": 11725,
  "Ð¾": 6111,
  "Ð¾Ð": 10508,
  "Ð¾Ð²": 31272,
  "Ñ": 209,
  "ÑĢ": 10870,
  "ÑĢÐ°": 28063,
  "Ñģ": 9710,
  "ÑģÑĤ": 28297,
  "ÑĤ": 8143,
  "ÑĤÐ¾": 22146,
  "Ñĥ": 16018,
  "Ñĩ": 31323,
  "Ñĭ": 19520,
  "ÑĮ": 20426,
  "Ñı": 18832,
  "Ò": 210,
  "Ó": 211,
  "Ô": 212,
  "Õ": 213,
  "Ö": 214,
  "×": 215,
  "Ø": 216,
  "Ø§": 20600,
  "Ø±": 31031,
  "Ù": 217,
  "ÙĦ": 17208,
  "Ùħ": 29889,
  "ÙĨ": 23875,
  "ÙĬ": 26933,
  "Ùİ": 17628,
  "ÙĲ": 28778,
  "Ú": 218,
  "Û": 219,
  "Ü": 220,
  "Ý": 221,
  "Þ": 222,
  "ß": 223,
  "à": 224,
  "à¤": 11468,
  "à¥": 22488,
  "à²": 26732,
  "à¸": 18908,
  "á": 225,
  "â": 226,
  "âĢ": 290,
  "âĢ¢": 4434,
  "âĢ¦": 1552,
  "âĢ¦\"": 24654,
  "âĢ¦.": 10620,
  "âĢ¦<|": 31377,
  "âĢ¦]": 21618,
  "âĢ¦âĢ¦": 15840,
  "âĢ¦âĢ¦âĢ¦âĢ¦": 31726,
  "âĢ¦âĢĿ": 14290,
  "âĢ²": 20027,
  "âĢ³": 11839,
  "âĢĭ": 12875,
  "âĢĲ": 10123,
  "âĢĵ": 1779,
  "âĢĶ": 930,
  "âĢĶâĢĶ": 5333,
  "âĢĶâĢĶâĢĶâĢĶ": 9546,
  "âĢĶâĢĶâĢĶâĢĶâĢĶâĢĶâĢĶâĢĶ": 17190,
  "âĢĶâĢľ": 29710,
  "âĢĺ": 4755,
  "âĢĻ": 329,
  "âĢĻ)": 30824,
  "âĢĻ,": 7664,
  "âĢĻ.": 6855,
  "âĢĻ:": 31960,
  "âĢľ": 713,
  "âĢľ[": 24813,
  "âĢĿ": 407,
  "âĢĿ)": 11389,
  "âĢĿ),": 19087,
  "âĢĿ).": 17321,
  "âĢĿ,": 3968,
  "âĢĿ.": 2958,
  "âĢĿ:": 16483,
  "âĢĿ;": 19507,
  "âĢĿ?": 17542,
  "âĢĿâĢĶ": 14672,
  "âĤ¬": 11537,
  "âĤ¬âĦ¢": 25192,
  "âĦ": 12527,
  "âĦ¢": 12729,
  "âĪ": 31772,
  "âĪĴ": 13352,
  "âĶ": 14060,
  "âĶĢ": 15429,
  "âĶĢâĶĢ": 18827,
  "âĸ": 9928,
  "âĸĪ": 15448,
  "âĸĪâĸĪ": 18918,
  "âĸł": 30870,
  "âĹ": 24518,
  "âĺħ": 27570,
  "âĻ": 19035,
  "ã": 227,
  "ãĢ": 7722,
  "ãĢģ": 16895,
  "ãĢĤ": 14819,
  "ãĢĮ": 31894,
  "ãģ": 17084,
  "ãĤ": 24041,
  "ãĥ": 17116,
  "ãħ": 29341,
  "ä": 228,
  "å": 229,
  "æ": 230,
  "ç": 231,
  "è": 232,
  "é": 233,
  "ê": 234,
  "ë": 235,
  "ì": 236,
  "í": 237,
  "î": 238,
  "ï": 239,
  "ï¼": 11782,
  "ï¼Į": 26285,
  "ï½": 31357,
  "ï¿": 7314,
  "ï¿½": 7498,
  "ï¿½ï¿½": 25404,
  "ð": 240,
  "ðŁ": 13977,
  "ñ": 241,
  "ò": 242,
  "ó": 243,
  "ô": 244,
  "õ": 245,
  "ö": 246,
  "÷": 247,
  "ø": 248,
  "ù": 249,
  "ú": 250,
  "û": 251,
  "ü": 252,
  "ý": 253,
  "þ": 254,
  "ÿ": 255,
  "Ā": 0,
  "ā": 1,
  "Ă": 2,
  "ă": 3,
  "Ą": 4,
  "ą": 5,
  "Ć": 6,
  "ć": 7,
  "Ĉ": 8,
  "ĉ": 9,
  "Ċ": 10,
  "ċ": 11,
  "Č": 12,
  "č": 13,
  "Ď": 14,
  "ď": 15,
  "Đ": 16,
  "đ": 17,
  "Ē": 18,
  "ē": 19,
  "Ĕ": 20,
  "ĕ": 21,
  "Ė": 22,
  "ė": 23,
  "Ę": 24,
  "ę": 25,
  "Ě": 26,
  "ě": 27,
  "Ĝ": 28,
  "ĝ": 29,
  "Ğ": 30,
  "ğ": 31,
  "Ġ": 32,
  "Ġ!": 10080,
  "Ġ!=": 24890,
  "Ġ\"": 488,
  "Ġ\"\"": 26687,
  "Ġ\"...": 30601,
  "Ġ\"/": 29763,
  "Ġ\"[": 19426,
  "Ġ#": 1887,
  "Ġ##": 28225,
  "Ġ$": 761,
  "Ġ%": 7384,
  "Ġ&": 1797,
  "Ġ&&": 20738,
  "Ġ'": 1182,
  "Ġ''": 13289,
  "Ġ(": 397,
  "Ġ(\"": 9982,
  "Ġ(#": 22270,
  "Ġ($": 7413,
  "Ġ('": 31968,
  "Ġ((": 23944,
  "Ġ()": 13027,
  "Ġ();": 31441,
  "Ġ(+": 17509,
  "Ġ(-": 17130,
  "Ġ(.": 20350,
  "Ġ(@": 3421,
  "Ġ(Â£": 17013,
  "Ġ(âĢľ": 8897,
  "Ġ)": 2179,
  "Ġ))": 25440,
  "Ġ),": 14926,
  "Ġ).": 10075,
  "Ġ):": 23219,
  "Ġ);": 11795,
  "Ġ*": 3350,
  "Ġ**": 18688,
  "Ġ***": 28116,
  "Ġ*/": 18904,
  "Ġ+": 2634,
  "Ġ+=": 29031,
  "Ġ,": 1663,
  "Ġ-": 664,
  "Ġ--": 1453,
  "Ġ---": 20133,
  "Ġ-->": 22925,
  "Ġ->": 7842,
  "Ġ.": 1214,
  "Ġ..": 19060,
  "Ġ...": 3186,
  "Ġ....": 28177,
  "Ġ..........": 31090,
  "Ġ./": 31284,
  "Ġ/": 2053,
  "Ġ/*": 23144,
  "Ġ//": 5797,
  "Ġ/>": 25609,
  "Ġ0": 1113,
  "Ġ00": 8372,
  "Ġ000": 21246,
  "Ġ01": 12892,
  "Ġ02": 14726,
  "Ġ03": 16267,
  "Ġ04": 17087,
  "Ġ05": 17393,
  "Ġ06": 18557,
  "Ġ07": 16744,
  "Ġ08": 17182,
  "Ġ09": 16952,
  "Ġ1": 383,
  "Ġ10": 1044,
  "Ġ100": 2258,
  "Ġ1000": 11274,
  "Ġ101": 14011,
  "Ġ102": 20768,
  "Ġ103": 21630,
  "Ġ104": 20885,
  "Ġ105": 18257,
  "Ġ106": 22014,
  "Ġ107": 22665,
  "Ġ108": 22711,
  "Ġ1080": 19439,
  "Ġ109": 23055,
  "Ġ11": 1695,
  "Ġ110": 13939,
  "Ġ111": 22424,
  "Ġ112": 22652,
  "Ġ113": 25331,
  "Ġ114": 24279,
  "Ġ115": 20144,
  "Ġ116": 25663,
  "Ġ117": 25976,
  "Ġ118": 26645,
  "Ġ119": 24561,
  "Ġ12": 1521,
  "Ġ120": 9709,
  "Ġ1200": 28859,
  "Ġ121": 27545,
  "Ġ122": 27317,
  "Ġ123": 24336,
  "Ġ124": 28565,
  "Ġ125": 16544,
  "Ġ126": 29019,
  "Ġ127": 26045,
  "Ġ128": 18349,
  "Ġ129": 29214,
  "Ġ13": 2072,
  "Ġ130": 13856,
  "Ġ131": 31189,
  "Ġ132": 29376,
  "Ġ133": 30371,
  "Ġ134": 31285,
  "Ġ135": 23394,
  "Ġ137": 31160,
  "Ġ138": 31254,
  "Ġ14": 2011,
  "Ġ140": 15153,
  "Ġ144": 28136,
  "Ġ145": 27051,
  "Ġ15": 1541,
  "Ġ150": 7799,
  "Ġ1500": 23372,
  "Ġ155": 27611,
  "Ġ16": 1928,
  "Ġ160": 16398,
  "Ġ1600": 28381,
  "Ġ165": 28958,
  "Ġ17": 2069,
  "Ġ170": 20134,
  "Ġ175": 23824,
  "Ġ18": 1481,
  "Ġ180": 13878,
  "Ġ1800": 20746,
  "Ġ185": 27478,
  "Ġ1880": 30097,
  "Ġ1890": 28435,
  "Ġ19": 689,
  "Ġ190": 24511,
  "Ġ1900": 19127,
  "Ġ1910": 26384,
  "Ġ1911": 29622,
  "Ġ1912": 29093,
  "Ġ1913": 30508,
  "Ġ1914": 23830,
  "Ġ1915": 26715,
  "Ġ1916": 25861,
  "Ġ1917": 21844,
  "Ġ1918": 24008,
  "Ġ1919": 26595,
  "Ġ192": 26533,
  "Ġ1920": 13550,
  "Ġ1921": 29750,
  "Ġ1922": 29878,
  "Ġ1923": 31595,
  "Ġ1924": 30618,
  "Ġ1925": 31288,
  "Ġ1927": 31845,
  "Ġ1928": 29900,
  "Ġ1929": 26194,
  "Ġ1930": 12485,
  "Ġ1931": 30424,
  "Ġ1932": 27723,
  "Ġ1933": 23491,
  "Ġ1934": 26651,
  "Ġ1935": 27320,
  "Ġ1936": 24507,
  "Ġ1937": 25297,
  "Ġ1938": 24015,
  "Ġ1939": 20983,
  "Ġ1940": 13883,
  "Ġ1941": 20031,
  "Ġ1942": 21272,
  "Ġ1943": 22214,
  "Ġ1944": 19704,
  "Ġ1945": 16146,
  "Ġ1946": 22735,
  "Ġ1947": 20192,
  "Ġ1948": 18552,
  "Ġ1949": 22457,
  "Ġ195": 5632,
  "Ġ1950": 9684,
  "Ġ1951": 23979,
  "Ġ1952": 23291,
  "Ġ1953": 22073,
  "Ġ1954": 21667,
  "Ġ1955": 22255,
  "Ġ1956": 21449,
  "Ġ1957": 22048,
  "Ġ1958": 21359,
  "Ġ1959": 20656,
  "Ġ196": 3703,
  "Ġ1960": 7858,
  "Ġ1961": 18259,
  "Ġ1962": 17825,
  "Ġ1963": 17138,
  "Ġ1964": 15778,
  "Ġ1965": 15763,
  "Ġ1966": 16904,
  "Ġ1967": 13716,
  "Ġ1968": 13882,
  "Ġ1969": 14662,
  "Ġ197": 2666,
  "Ġ1970": 6761,
  "Ġ1971": 14997,
  "Ġ1972": 14206,
  "Ġ1973": 14123,
  "Ġ1974": 14911,
  "Ġ1975": 14062,
  "Ġ1976": 14006,
  "Ġ1977": 14799,
  "Ġ1978": 14293,
  "Ġ1979": 12282,
  "Ġ198": 2271,
  "Ġ1980": 5983,
  "Ġ1981": 13590,
  "Ġ1982": 13155,
  "Ġ1983": 13132,
  "Ġ1984": 11694,
  "Ġ1985": 12343,
  "Ġ1986": 11722,
  "Ġ1987": 12250,
  "Ġ1988": 11522,
  "Ġ1989": 10440,
  "Ġ199": 1630,
  "Ġ1990": 5527,
  "Ġ1991": 9985,
  "Ġ1992": 9392,
  "Ġ1993": 9672,
  "Ġ1994": 8895,
  "Ġ1995": 8748,
  "Ġ1996": 8337,
  "Ġ1997": 8335,
  "Ġ1998": 7897,
  "Ġ1999": 7388,
  "Ġ2": 393,
  "Ġ20": 534,
  "Ġ200": 872,
  "Ġ2000": 4888,
  "Ġ2001": 5776,
  "Ġ2002": 6250,
  "Ġ2003": 5680,
  "Ġ2004": 5240,
  "Ġ2005": 4778,
  "Ġ2006": 4382,
  "Ġ2007": 3941,
  "Ġ2008": 3121,
  "Ġ2009": 3182,
  "Ġ201": 586,
  "Ġ2010": 2699,
  "Ġ2011": 2573,
  "Ġ2012": 2211,
  "Ġ2013": 2134,
  "Ġ2014": 1939,
  "Ġ2015": 1879,
  "Ġ2016": 1800,
  "Ġ2017": 2250,
  "Ġ2018": 4824,
  "Ġ2019": 8473,
  "Ġ202": 30343,
  "Ġ2020": 9004,
  "Ġ2021": 27778,
  "Ġ2022": 26090,
  "Ġ2025": 26039,
  "Ġ2030": 19914,
  "Ġ205": 29449,
  "Ġ2050": 25073,
  "Ġ21": 2867,
  "Ġ210": 26527,
  "Ġ215": 26116,
  "Ġ22": 2910,
  "Ġ220": 21171,
  "Ġ225": 26664,
  "Ġ23": 3010,
  "Ġ230": 23090,
  "Ġ24": 2488,
  "Ġ240": 20250,
  "Ġ25": 2286,
  "Ġ250": 9748,
  "Ġ255": 30293,
  "Ġ256": 23683,
  "Ġ26": 3358,
  "Ġ260": 27005,
  "Ġ27": 3277,
  "Ġ270": 26399,
  "Ġ28": 3275,
  "Ġ280": 28458,
  "Ġ29": 3705,
  "Ġ3": 637,
  "Ġ30": 1837,
  "Ġ300": 6240,
  "Ġ3000": 24432,
  "Ġ31": 4381,
  "Ġ32": 5044,
  "Ġ320": 26700,
  "Ġ33": 6228,
  "Ġ330": 29799,
  "Ġ34": 6595,
  "Ġ35": 4423,
  "Ġ350": 15104,
  "Ġ36": 5442,
  "Ġ360": 11410,
  "Ġ365": 26577,
  "Ġ37": 6272,
  "Ġ38": 6229,
  "Ġ39": 7068,
  "Ġ4": 741,
  "Ġ40": 2774,
  "Ġ400": 7644,
  "Ġ401": 29167,
  "Ġ41": 7967,
  "Ġ42": 7221,
  "Ġ43": 8054,
  "Ġ44": 7792,
  "Ġ45": 5082,
  "Ġ450": 21101,
  "Ġ46": 8045,
  "Ġ47": 7755,
  "Ġ48": 6370,
  "Ġ480": 31129,
  "Ġ49": 6521,
  "Ġ5": 783,
  "Ġ50": 2375,
  "Ġ500": 5490,
  "Ġ5000": 29331,
  "Ġ501": 30662,
  "Ġ51": 8789,
  "Ġ512": 27609,
  "Ġ52": 8609,
  "Ġ53": 9351,
  "Ġ54": 9633,
  "Ġ55": 7269,
  "Ġ550": 29419,
  "Ġ56": 9922,
  "Ġ57": 10242,
  "Ġ58": 10319,
  "Ġ59": 10004,
  "Ġ6": 943,
  "Ġ60": 3544,
  "Ġ600": 10424,
  "Ġ61": 11488,
  "Ġ62": 10863,
  "Ġ63": 11121,
  "Ġ64": 7528,
  "Ġ65": 7396,
  "Ġ650": 25644,
  "Ġ66": 10857,
  "Ġ67": 11525,
  "Ġ68": 11541,
  "Ġ69": 12375,
  "Ġ7": 1060,
  "Ġ70": 4644,
  "Ġ700": 12677,
  "Ġ71": 12930,
  "Ġ72": 10617,
  "Ġ720": 30710,
  "Ġ73": 12722,
  "Ġ74": 12756,
  "Ġ75": 6728,
  "Ġ750": 22044,
  "Ġ76": 12017,
  "Ġ77": 12460,
  "Ġ78": 12945,
  "Ġ79": 13738,
  "Ġ8": 1121,
  "Ġ80": 4295,
  "Ġ800": 10690,
  "Ġ81": 14080,
  "Ġ82": 13031,
  "Ġ83": 14300,
  "Ġ84": 14291,
  "Ġ85": 10287,
  "Ġ86": 14461,
  "Ġ87": 14552,
  "Ġ88": 13442,
  "Ġ89": 15252,
  "Ġ9": 1155,
  "Ġ90": 4453,
  "Ġ900": 16676,
  "Ġ91": 15500,
  "Ġ911": 14746,
  "Ġ92": 14922,
  "Ġ93": 14810,
  "Ġ94": 15613,
  "Ġ95": 9326,
  "Ġ96": 14504,
  "Ġ97": 14975,
  "Ġ978": 28493,
  "Ġ98": 14271,
  "Ġ99": 9248,
  "Ġ:": 2078,
  "Ġ:)": 16747,
  "Ġ::": 13523,
  "Ġ:=": 24658,
  "Ġ;": 4151,
  "Ġ<": 2675,
  "Ġ<-": 27137,
  "Ġ</": 11282,
  "Ġ<<": 22237,
  "Ġ=": 1402,
  "Ġ==": 11704,
  "Ġ=>": 5300,
  "Ġ>": 3529,
  "Ġ>>": 14780,
  "Ġ>>>": 19473,
  "Ġ?": 8911,
  "Ġ@": 2805,
  "ĠA": 330,
  "ĠAA": 19883,
  "ĠAAA": 23805,
  "ĠAAP": 24794,
  "ĠAB": 13578,
  "ĠABC": 8119,
  "ĠAC": 8909,
  "ĠACA": 23244,
  "ĠACC": 17387,
  "ĠACL": 14193,
  "ĠACLU": 18058,
  "ĠACT": 24053,
  "ĠAD": 7693,
  "ĠADHD": 27343,
  "ĠAF": 17843,
  "ĠAFC": 22278,
  "ĠAFL": 18056,
  "ĠAFP": 11557,
  "ĠAG": 16058,
  "ĠAHL": 24362,
  "ĠAI": 8930,
  "ĠAIDS": 18515,
  "ĠAJ": 26521,
  "ĠAK": 17246,
  "ĠAL": 6700,
  "ĠALL": 14869,
  "ĠAM": 4440,
  "ĠAMA": 31751,
  "ĠAMC": 27655,
  "ĠAMD": 13540,
  "ĠAN": 5403,
  "ĠAND": 8302,
  "ĠANY": 23782,
  "ĠAP": 4038,
  "ĠAPI": 8468,
  "ĠAPIs": 20553,
  "ĠAR": 7434,
  "ĠARE": 19789,
  "ĠARM": 21387,
  "ĠAS": 7973,
  "ĠAT": 6015,
  "ĠATM": 28338,
  "ĠAU": 24242,
  "ĠAV": 20269,
  "ĠAW": 23224,
  "ĠAWS": 21996,
  "ĠAZ": 28542,
  "ĠAad": 28433,
  "ĠAaron": 10655,
  "ĠAb": 2376,
  "ĠAbb": 8938,
  "ĠAbbas": 21142,
  "ĠAbbey": 28553,
  "ĠAbbott": 12313,
  "ĠAbd": 11610,
  "ĠAbdel": 27675,
  "ĠAbdu": 18661,
  "ĠAbdul": 18432,
  "ĠAbdullah": 20036,
  "ĠAbe": 20820,
  "ĠAber": 23876,
  "ĠAboriginal": 24721,
  "ĠAbout": 8043,
  "ĠAbove": 24575,
  "ĠAbr": 18038,
  "ĠAbraham": 17074,
  "ĠAbrams": 25830,
  "ĠAbs": 15653,
  "ĠAbsolutely": 25132,
  "ĠAbstract": 26128,
  "ĠAbu": 11369,
  "ĠAbuse": 26535,
  "ĠAby": 31501,
  "ĠAc": 4709,
  "ĠAcadem": 7146,
  "ĠAcademy": 7867,
  "ĠAcc": 8625,
  "ĠAccept": 29945,
  "ĠAccess": 10241,
  "ĠAccording": 4088,
  "ĠAccount": 14689,
  "ĠAccountability": 30752,
  "ĠAce": 22469,
  "ĠAch": 24944,
  "ĠAchie": 27871,
  "ĠAcross": 27074,
  "ĠAct": 2733,
  "ĠAction": 8394,
  "ĠActiv": 16254,
  "ĠActive": 20946,
  "ĠActivity": 31849,
  "ĠActor": 25059,
  "ĠActually": 18091,
  "ĠAd": 1470,
  "ĠAdam": 7238,
  "ĠAdams": 10670,
  "ĠAdd": 4313,
  "ĠAdded": 16801,
  "ĠAdding": 27261,
  "ĠAdditional": 21566,
  "ĠAdditionally": 11959,
  "ĠAddress": 24941,
  "ĠAdelaide": 20563,
  "ĠAdminist": 6937,
  "ĠAdministration": 7926,
  "ĠAdministrator": 30613,
  "ĠAdmir": 21434,
  "ĠAdmiral": 24512,
  "ĠAdobe": 20853,
  "ĠAdolf": 29234,
  "ĠAdrian": 18334,
  "ĠAdult": 26568,
  "ĠAdv": 8810,
  "ĠAdvance": 27474,
  "ĠAdvanced": 16761,
  "ĠAdvent": 13190,
  "ĠAdventure": 19049,
  "ĠAdventures": 26564,
  "ĠAdvertisement": 26301,
  "ĠAdvis": 19543,
  "ĠAdvisory": 23905,
  "ĠAdvoc": 31674,
  "ĠAer": 17582,
  "ĠAf": 2020,
  "ĠAff": 6172,
  "ĠAffairs": 9619,
  "ĠAffordable": 15280,
  "ĠAfgh": 30737,
  "ĠAfghan": 4716,
  "ĠAfghanistan": 5810,
  "ĠAfric": 2851,
  "ĠAfrica": 4699,
  "ĠAfrican": 4714,
  "ĠAfricans": 23590,
  "ĠAfter": 2387,
  "ĠAg": 2853,
  "ĠAgain": 6685,
  "ĠAgainst": 12337,
  "ĠAge": 9075,
  "ĠAgency": 6929,
  "ĠAgent": 18097,
  "ĠAgents": 30197,
  "ĠAges": 24017,
  "ĠAgg": 24269,
  "ĠAgr": 14455,
  "ĠAgree": 13971,
  "ĠAgreement": 15474,
  "ĠAgricult": 15439,
  "ĠAgriculture": 18389,
  "ĠAgu": 25805,
  "ĠAh": 7653,
  "ĠAhmad": 16901,
  "ĠAhmed": 16217,
  "ĠAid": 23072,
  "ĠAir": 3696,
  "ĠAirbnb": 28685,
  "ĠAirlines": 16245,
  "ĠAirport": 11491,
  "ĠAj": 18791,
  "ĠAk": 9708,
  "ĠAl": 1104,
  "ĠAlabama": 7809,
  "ĠAlan": 10324,
  "ĠAlaska": 11079,
  "ĠAlb": 15807,
  "ĠAlban": 22716,
  "ĠAlbany": 25092,
  "ĠAlbert": 8475,
  "ĠAlberta": 12580,
  "ĠAlbum": 23776,
  "ĠAlbuquerque": 31184,
  "ĠAlcohol": 25808,
  "ĠAld": 14482,
  "ĠAle": 8647,
  "ĠAleppo": 16040,
  "ĠAlert": 29853,
  "ĠAlex": 4089,
  "ĠAlexa": 28587,
  "ĠAlexand": 16494,
  "ĠAlexander": 9102,
  "ĠAlexandria": 26047,
  "ĠAlexis": 25665,
  "ĠAlf": 14050,
  "ĠAlfred": 19125,
  "ĠAlger": 20936,
  "ĠAlgeria": 29373,
  "ĠAli": 7679,
  "ĠAlice": 15507,
  "ĠAlien": 20896,
  "ĠAlison": 29815,
  "ĠAlive": 30793,
  "ĠAll": 1622,
  "ĠAllah": 16183,
  "ĠAllan": 26738,
  "ĠAlleg": 24103,
  "ĠAllen": 8375,
  "ĠAlliance": 10516,
  "ĠAllied": 23546,
  "ĠAllies": 30902,
  "ĠAllison": 28451,
  "ĠAllow": 30017,
  "ĠAlmost": 15616,
  "ĠAlong": 15489,
  "ĠAlonso": 26403,
  "ĠAlp": 10789,
  "ĠAlpha": 16110,
  "ĠAlready": 25503,
  "ĠAlso": 5062,
  "ĠAlt": 13086,
  "ĠAltern": 14950,
  "ĠAlternative": 25602,
  "ĠAlternatively": 30559,
  "ĠAlthough": 4957,
  "ĠAlto": 31247,
  "ĠAlv": 23972,
  "ĠAlvarez": 28883,
  "ĠAlways": 19966,
  "ĠAlz": 18449,
  "ĠAlzheimer": 19048,
  "ĠAm": 1908,
  "ĠAmanda": 21564,
  "ĠAmazing": 26358,
  "ĠAmazon": 5290,
  "ĠAmb": 12083,
  "ĠAmbassador": 17710,
  "ĠAmber": 25438,
  "ĠAmendment": 7744,
  "ĠAmer": 30464,
  "ĠAmeric": 885,
  "ĠAmerica": 1900,
  "ĠAmerican": 1374,
  "ĠAmericans": 2722,
  "ĠAmericas": 22065,
  "ĠAmnesty": 22806,
  "ĠAmong": 9318,
  "ĠAmsterdam": 21454,
  "ĠAmy": 14285,
  "ĠAn": 1230,
  "ĠAna": 16793,
  "ĠAnaheim": 24054,
  "ĠAnaly": 16170,
  "ĠAnalysis": 17573,
  "ĠAnalytics": 28104,
  "ĠAnat": 27266,
  "ĠAnch": 28254,
  "ĠAncient": 21104,
  "ĠAnd": 799,
  "ĠAnders": 21293,
  "ĠAnderson": 8617,
  "ĠAndre": 9855,
  "ĠAndrea": 20519,
  "ĠAndreas": 29797,
  "ĠAndrew": 5847,
  "ĠAndrews": 22427,
  "ĠAndroid": 4875,
  "ĠAndy": 10661,
  "ĠAnfield": 31393,
  "ĠAng": 2903,
  "ĠAngel": 3811,
  "ĠAngela": 15770,
  "ĠAngeles": 4774,
  "ĠAngels": 19859,
  "ĠAnglo": 22030,
  "ĠAngular": 21373,
  "ĠAnim": 13772,
  "ĠAnimal": 15725,
  "ĠAnimals": 26280,
  "ĠAnimation": 27385,
  "ĠAnkara": 22198,
  "ĠAnn": 6453,
  "ĠAnna": 10387,
  "ĠAnne": 13727,
  "ĠAnnie": 26726,
  "ĠAnniversary": 26751,
  "ĠAnnual": 20107,
  "ĠAnonymous": 17991,
  "ĠAnother": 6283,
  "ĠAns": 22196,
  "ĠAnt": 3962,
  "ĠAntar": 16200,
  "ĠAntarctic": 25533,
  "ĠAntarctica": 24033,
  "ĠAnth": 7569,
  "ĠAnthony": 8381,
  "ĠAnti": 12724,
  "ĠAnton": 8295,
  "ĠAntonio": 10283,
  "ĠAny": 5368,
  "ĠAnyone": 16461,
  "ĠAnything": 21148,
  "ĠAnyway": 23568,
  "ĠAp": 8717,
  "ĠApache": 22419,
  "ĠApart": 21054,
  "ĠApollo": 18609,
  "ĠApost": 27553,
  "ĠApp": 2231,
  "ĠAppalach": 29795,
  "ĠApparently": 17232,
  "ĠAppeal": 29627,
  "ĠAppeals": 18788,
  "ĠApple": 3549,
  "ĠApplication": 22966,
  "ĠApplications": 31744,
  "ĠAppro": 18886,
  "ĠApps": 25613,
  "ĠApr": 18083,
  "ĠApril": 2677,
  "ĠAqu": 14353,
  "ĠAr": 1052,
  "ĠArab": 3802,
  "ĠArabia": 8140,
  "ĠArabian": 26799,
  "ĠArabic": 15006,
  "ĠArabs": 18737,
  "ĠArbor": 31036,
  "ĠArc": 15552,
  "ĠArcade": 30695,
  "ĠArch": 6810,
  "ĠArchae": 30209,
  "ĠArchbishop": 28665,
  "ĠArcher": 27194,
  "ĠArchitect": 17285,
  "ĠArchitecture": 28122,
  "ĠArchive": 23487,
  "ĠArchives": 22893,
  "ĠArctic": 12440,
  "ĠArduino": 28410,
  "ĠAre": 4664,
  "ĠArea": 10521,
  "ĠAren": 10709,
  "ĠArena": 12043,
  "ĠArg": 24738,
  "ĠArgent": 10344,
  "ĠArgentina": 13554,
  "ĠArgentine": 26649,
  "ĠAri": 5299,
  "ĠArist": 23053,
  "ĠAristotle": 31550,
  "ĠArizona": 6638,
  "ĠArk": 9643,
  "ĠArkansas": 13023,
  "ĠArlington": 24936,
  "ĠArm": 8020,
  "ĠArmed": 16244,
  "ĠArmen": 13708,
  "ĠArmenia": 25978,
  "ĠArmenian": 22018,
  "ĠArmor": 27869,
  "ĠArms": 23654,
  "ĠArmstrong": 17504,
  "ĠArmy": 4916,
  "ĠArn": 14692,
  "ĠArnold": 18070,
  "ĠAround": 16114,
  "ĠArray": 24389,
  "ĠArri": 29965,
  "ĠArrow": 20733,
  "ĠArs": 21537,
  "ĠArsenal": 10524,
  "ĠArt": 4528,
  "ĠArthur": 13533,
  "ĠArticle": 12609,
  "ĠArticles": 23519,
  "ĠArtist": 23604,
  "ĠArts": 11914,
  "ĠAs": 1109,
  "ĠAsh": 7804,
  "ĠAshe": 29975,
  "ĠAshley": 18760,
  "ĠAshton": 31519,
  "ĠAsia": 6287,
  "ĠAsian": 7081,
  "ĠAsians": 27810,
  "ĠAside": 25227,
  "ĠAsk": 18095,
  "ĠAsked": 23441,
  "ĠAss": 2296,
  "ĠAssad": 9860,
  "ĠAssange": 15977,
  "ĠAssass": 23408,
  "ĠAssassin": 30058,
  "ĠAssault": 26007,
  "ĠAssembly": 9734,
  "ĠAssessment": 28715,
  "ĠAssistance": 28307,
  "ĠAssistant": 15198,
  "ĠAssoci": 3560,
  "ĠAssociate": 26542,
  "ĠAssociated": 9066,
  "ĠAssociates": 27709,
  "ĠAssociation": 4719,
  "ĠAst": 9093,
  "ĠAston": 25571,
  "ĠAstron": 23611,
  "ĠAstros": 23362,
  "ĠAt": 1635,
  "ĠAth": 12975,
  "ĠAthe": 25383,
  "ĠAthens": 18384,
  "ĠAthlet": 15966,
  "ĠAthletic": 23643,
  "ĠAthletics": 29018,
  "ĠAtlant": 5100,
  "ĠAtlanta": 7935,
  "ĠAtlantic": 8890,
  "ĠAtlas": 21739,
  "ĠAtmosp": 30004,
  "ĠAtomic": 29808,
  "ĠAtt": 4493,
  "ĠAttack": 14890,
  "ĠAttorney": 7127,
  "ĠAub": 16899,
  "ĠAuburn": 19955,
  "ĠAuckland": 24901,
  "ĠAud": 8986,
  "ĠAudi": 22955,
  "ĠAudio": 19897,
  "ĠAug": 2510,
  "ĠAugust": 2919,
  "ĠAur": 18822,
  "ĠAurora": 23786,
  "ĠAust": 2120,
  "ĠAustin": 8453,
  "ĠAustral": 2640,
  "ĠAustralia": 3788,
  "ĠAustralian": 5434,
  "ĠAustralians": 18471,
  "ĠAustria": 15043,
  "ĠAustrian": 19976,
  "ĠAut": 6636,
  "ĠAuthor": 7243,
  "ĠAuthorities": 26569,
  "ĠAuthority": 10270,
  "ĠAuto": 14711,
  "ĠAutom": 19495,
  "ĠAv": 6032,
  "ĠAvailable": 23011,
  "ĠAval": 25501,
  "ĠAvatar": 29789,
  "ĠAve": 13751,
  "ĠAven": 16002,
  "ĠAvengers": 19392,
  "ĠAvenue": 7540,
  "ĠAverage": 19435,
  "ĠAvery": 26632,
  "ĠAviation": 23513,
  "ĠAviv": 22043,
  "ĠAvoid": 28839,
  "ĠAw": 12994,
  "ĠAward": 9199,
  "ĠAwards": 12483,
  "ĠAway": 25521,
  "ĠAwesome": 30864,
  "ĠAx": 15204,
  "ĠAy": 12183,
  "ĠAz": 9769,
  "ĠAzer": 21959,
  "ĠAzerbai": 24358,
  "ĠAzerbaijan": 27569,
  "ĠAzure": 24573,
  "ĠB": 353,
  "ĠBA": 20886,
  "ĠBB": 13826,
  "ĠBBC": 5664,
  "ĠBC": 11090,
  "ĠBCE": 30219,
  "ĠBDS": 30484,
  "ĠBE": 12353,
  "ĠBEL": 30658,
  "ĠBI": 27374,
  "ĠBIG": 30590,
  "ĠBJP": 13440,
  "ĠBL": 13664,
  "ĠBM": 10155,
  "ĠBMI": 30584,
  "ĠBMW": 16983,
  "ĠBO": 18126,
  "ĠBP": 14910,
  "ĠBR": 15443,
  "ĠBS": 26689,
  "ĠBT": 21290,
  "ĠBTC": 21109,
  "ĠBU": 24893,
  "ĠBUT": 28808,
  "ĠBY": 13629,
  "ĠBYU": 31573,
  "ĠBa": 8922,
  "ĠBab": 12028,
  "ĠBaby": 16771,
  "ĠBabylon": 31514,
  "ĠBach": 18107,
  "ĠBachmann": 27776,
  "ĠBack": 6010,
  "ĠBacon": 27754,
  "ĠBad": 8824,
  "ĠBag": 22566,
  "ĠBaghd": 15127,
  "ĠBaghdad": 15988,
  "ĠBah": 11654,
  "ĠBahrain": 20230,
  "ĠBailey": 18404,
  "ĠBain": 26223,
  "ĠBak": 16905,
  "ĠBaker": 12135,
  "ĠBal": 10025,
  "ĠBald": 16409,
  "ĠBaldwin": 20940,
  "ĠBalk": 24527,
  "ĠBall": 8537,
  "ĠBalt": 7646,
  "ĠBaltic": 26600,
  "ĠBaltimore": 8641,
  "ĠBan": 10626,
  "ĠBand": 10832,
  "ĠBang": 8747,
  "ĠBangkok": 28503,
  "ĠBangl": 14608,
  "ĠBangladesh": 16071,
  "ĠBank": 4480,
  "ĠBanks": 16974,
  "ĠBanner": 31739,
  "ĠBannon": 15298,
  "ĠBapt": 16930,
  "ĠBaptist": 18949,
  "ĠBar": 2076,
  "ĠBarack": 6217,
  "ĠBarb": 10505,
  "ĠBarbara": 14814,
  "ĠBarber": 29461,
  "ĠBarcelona": 12236,
  "ĠBarcl": 24562,
  "ĠBarclays": 29554,
  "ĠBard": 29305,
  "ĠBark": 18439,
  "ĠBarn": 16348,
  "ĠBarnes": 18235,
  "ĠBarnett": 30259,
  "ĠBaron": 23597,
  "ĠBarr": 24744,
  "ĠBarrett": 21521,
  "ĠBarry": 12719,
  "ĠBart": 12674,
  "ĠBarton": 27170,
  "ĠBas": 7298,
  "ĠBase": 9295,
  "ĠBaseball": 15611,
  "ĠBased": 14015,
  "ĠBash": 13428,
  "ĠBashar": 18226,
  "ĠBasic": 19898,
  "ĠBasically": 19541,
  "ĠBasin": 28105,
  "ĠBasketball": 24998,
  "ĠBass": 21201,
  "ĠBast": 22155,
  "ĠBat": 6132,
  "ĠBates": 29159,
  "ĠBath": 23974,
  "ĠBatman": 9820,
  "ĠBatt": 17027,
  "ĠBattalion": 29653,
  "ĠBattery": 28417,
  "ĠBattle": 8210,
  "ĠBattlefield": 29911,
  "ĠBav": 29942,
  "ĠBay": 4026,
  "ĠBayern": 21565,
  "ĠBaylor": 23066,
  "ĠBe": 1461,
  "ĠBeach": 8176,
  "ĠBeacon": 27348,
  "ĠBean": 25914,
  "ĠBear": 15732,
  "ĠBears": 12780,
  "ĠBeast": 14898,
  "ĠBeat": 11976,
  "ĠBeatles": 20702,
  "ĠBeau": 28301,
  "ĠBeaut": 16498,
  "ĠBeautiful": 26925,
  "ĠBeauty": 24523,
  "ĠBec": 18465,
  "ĠBecause": 4257,
  "ĠBeck": 9303,
  "ĠBeckham": 28773,
  "ĠBecome": 29835,
  "ĠBed": 15308,
  "ĠBee": 23473,
  "ĠBeer": 15820,
  "ĠBefore": 7676,
  "ĠBeg": 29575,
  "ĠBegin": 19451,
  "ĠBeginning": 29464,
  "ĠBeh": 12465,
  "ĠBehavior": 26995,
  "ĠBehind": 20649,
  "ĠBeijing": 9182,
  "ĠBeing": 11207,
  "ĠBeir": 29289,
  "ĠBeirut": 30552,
  "ĠBel": 3755,
  "ĠBelarus": 26336,
  "ĠBelfast": 22627,
  "ĠBelg": 9400,
  "ĠBelgian": 17086,
  "ĠBelgium": 13507,
  "ĠBelieve": 30127,
  "ĠBell": 7077,
  "ĠBelle": 30514,
  "ĠBelow": 10157,
  "ĠBelt": 16149,
  "ĠBen": 3693,
  "ĠBench": 31878,
  "ĠBend": 23687,
  "ĠBened": 21311,
  "ĠBenedict": 23327,
  "ĠBenef": 25009,
  "ĠBeng": 12387,
  "ĠBengal": 21025,
  "ĠBengals": 20877,
  "ĠBenghazi": 17093,
  "ĠBenjamin": 12400,
  "ĠBenn": 12102,
  "ĠBennett": 14557,
  "ĠBenson": 28577,
  "ĠBent": 17540,
  "ĠBentley": 31078,
  "ĠBer": 4100,
  "ĠBerg": 18536,
  "ĠBerger": 26452,
  "ĠBerkeley": 11926,
  "ĠBerlin": 9568,
  "ĠBern": 5066,
  "ĠBernanke": 31034,
  "ĠBernard": 13866,
  "ĠBernardino": 28871,
  "ĠBernie": 8162,
  "ĠBernstein": 30848,
  "ĠBerry": 21549,
  "ĠBert": 21274,
  "ĠBes": 26833,
  "ĠBesides": 16715,
  "ĠBest": 6942,
  "ĠBet": 6177,
  "ĠBeta": 20019,
  "ĠBeth": 18123,
  "ĠBetter": 14645,
  "ĠBetty": 27025,
  "ĠBetween": 14016,
  "ĠBever": 19338,
  "ĠBeverly": 25108,
  "ĠBeyon": 30415,
  "ĠBeyond": 14658,
  "ĠBh": 13415,
  "ĠBhar": 26926,
  "ĠBhut": 31810,
  "ĠBi": 10066,
  "ĠBible": 9166,
  "ĠBiblical": 31211,
  "ĠBiden": 15290,
  "ĠBie": 24670,
  "ĠBig": 4362,
  "ĠBike": 25371,
  "ĠBil": 22068,
  "ĠBill": 3415,
  "ĠBillboard": 23025,
  "ĠBillion": 31473,
  "ĠBills": 17339,
  "ĠBilly": 14554,
  "ĠBin": 18748,
  "ĠBing": 25552,
  "ĠBio": 19951,
  "ĠBiology": 27208,
  "ĠBir": 11348,
  "ĠBird": 15154,
  "ĠBirds": 29117,
  "ĠBirmingham": 15520,
  "ĠBirth": 20951,
  "ĠBishop": 14964,
  "ĠBit": 4242,
  "ĠBitcoin": 5308,
  "ĠBitcoins": 27982,
  "ĠBj": 29272,
  "ĠBl": 1294,
  "ĠBlack": 3042,
  "ĠBlackBerry": 21168,
  "ĠBlackhawks": 28047,
  "ĠBlacks": 23914,
  "ĠBlade": 21487,
  "ĠBlair": 14230,
  "ĠBlake": 11897,
  "ĠBlank": 29919,
  "ĠBlasio": 25965,
  "ĠBlazers": 30755,
  "ĠBle": 21596,
  "ĠBless": 29269,
  "ĠBlind": 27913,
  "ĠBlizzard": 20538,
  "ĠBlock": 11861,
  "ĠBlockchain": 24516,
  "ĠBlocked": 22805,
  "ĠBlog": 12419,
  "ĠBlood": 11281,
  "ĠBloom": 9434,
  "ĠBloomberg": 12333,
  "ĠBlu": 11765,
  "ĠBlue": 6203,
  "ĠBlues": 13777,
  "ĠBluetooth": 19369,
  "ĠBlvd": 31505,
  "ĠBo": 3563,
  "ĠBoard": 6232,
  "ĠBoat": 31296,
  "ĠBob": 6321,
  "ĠBobby": 14804,
  "ĠBod": 27086,
  "ĠBody": 17363,
  "ĠBoe": 9852,
  "ĠBoehner": 16388,
  "ĠBoeing": 15862,
  "ĠBog": 21705,
  "ĠBoise": 31050,
  "ĠBoko": 30278,
  "ĠBol": 10380,
  "ĠBold": 27079,
  "ĠBolivia": 31375,
  "ĠBolshe": 28617,
  "ĠBolt": 24569,
  "ĠBolton": 28402,
  "ĠBom": 22701,
  "ĠBomb": 16994,
  "ĠBon": 9197,
  "ĠBond": 13757,
  "ĠBonus": 30164,
  "ĠBook": 5607,
  "ĠBooker": 24204,
  "ĠBooks": 13501,
  "ĠBoom": 31970,
  "ĠBoost": 28517,
  "ĠBoot": 22327,
  "ĠBooth": 30664,
  "ĠBor": 11110,
  "ĠBorder": 15173,
  "ĠBorders": 31273,
  "ĠBorg": 31406,
  "ĠBoris": 22006,
  "ĠBorn": 20851,
  "ĠBos": 13329,
  "ĠBosnia": 28165,
  "ĠBoss": 21016,
  "ĠBoston": 5301,
  "ĠBot": 19407,
  "ĠBoth": 5515,
  "ĠBottom": 28180,
  "ĠBou": 12963,
  "ĠBoulder": 24323,
  "ĠBoulevard": 19282,
  "ĠBour": 18733,
  "ĠBow": 10199,
  "ĠBowie": 26344,
  "ĠBowl": 7333,
  "ĠBowman": 30888,
  "ĠBox": 10103,
  "ĠBoy": 6394,
  "ĠBoyd": 23987,
  "ĠBoyle": 29654,
  "ĠBoys": 16917,
  "ĠBr": 1784,
  "ĠBra": 9477,
  "ĠBrad": 6822,
  "ĠBradford": 22962,
  "ĠBradley": 13362,
  "ĠBrady": 12829,
  "ĠBrain": 17326,
  "ĠBranch": 20732,
  "ĠBrand": 13340,
  "ĠBrandon": 12474,
  "ĠBrat": 30975,
  "ĠBraves": 22495,
  "ĠBrazil": 6201,
  "ĠBrazilian": 13552,
  "ĠBre": 4027,
  "ĠBreak": 15246,
  "ĠBreaking": 21500,
  "ĠBreitbart": 14633,
  "ĠBren": 17295,
  "ĠBrend": 16230,
  "ĠBrendan": 20361,
  "ĠBrennan": 20547,
  "ĠBrent": 19352,
  "ĠBrett": 17812,
  "ĠBrew": 8430,
  "ĠBrewer": 30571,
  "ĠBrewers": 27550,
  "ĠBrewery": 25730,
  "ĠBrewing": 15535,
  "ĠBrexit": 9649,
  "ĠBri": 25669,
  "ĠBrian": 7226,
  "ĠBrid": 28324,
  "ĠBridge": 9230,
  "ĠBrief": 22453,
  "ĠBrig": 16095,
  "ĠBrigade": 23339,
  "ĠBright": 17267,
  "ĠBrighton": 28081,
  "ĠBring": 26534,
  "ĠBris": 20092,
  "ĠBrisbane": 21125,
  "ĠBristol": 20446,
  "ĠBrit": 2018,
  "ĠBritain": 4579,
  "ĠBritish": 2956,
  "ĠBritt": 27254,
  "ĠBro": 1943,
  "ĠBroad": 8695,
  "ĠBroadcasting": 26391,
  "ĠBroadway": 15836,
  "ĠBrock": 19387,
  "ĠBrom": 26014,
  "ĠBron": 8981,
  "ĠBroncos": 13834,
  "ĠBronx": 24543,
  "ĠBronze": 30575,
  "ĠBrook": 6434,
  "ĠBrooklyn": 10250,
  "ĠBrooks": 14270,
  "ĠBros": 13617,
  "ĠBrother": 8314,
  "ĠBrotherhood": 16050,
  "ĠBrothers": 14797,
  "ĠBrow": 21446,
  "ĠBrown": 3893,
  "ĠBrowns": 14884,
  "ĠBru": 7210,
  "ĠBruce": 9522,
  "ĠBruins": 20490,
  "ĠBrun": 14172,
  "ĠBruno": 27733,
  "ĠBrunswick": 26851,
  "ĠBrus": 12116,
  "ĠBrussels": 12606,
  "ĠBry": 8035,
  "ĠBryan": 14924,
  "ĠBryant": 14713,
  "ĠBu": 10599,
  "ĠBub": 25843,
  "ĠBuc": 19790,
  "ĠBucc": 28300,
  "ĠBuccane": 30327,
  "ĠBuccaneers": 31847,
  "ĠBuch": 19880,
  "ĠBuchanan": 29717,
  "ĠBuck": 12654,
  "ĠBucks": 26807,
  "ĠBud": 9588,
  "ĠBudd": 8472,
  "ĠBuddh": 18382,
  "ĠBuddha": 20976,
  "ĠBuddhism": 22328,
  "ĠBuddhist": 18089,
  "ĠBudget": 13901,
  "ĠBuff": 8852,
  "ĠBuffalo": 12689,
  "ĠBuffett": 27817,
  "ĠBug": 23379,
  "ĠBuild": 14182,
  "ĠBuilding": 12379,
  "ĠBul": 10418,
  "ĠBulgar": 22944,
  "ĠBulgaria": 24552,
  "ĠBull": 7517,
  "ĠBulldogs": 28686,
  "ĠBullet": 25098,
  "ĠBulls": 13756,
  "ĠBun": 21027,
  "ĠBund": 12925,
  "ĠBundes": 24528,
  "ĠBundesliga": 30776,
  "ĠBundy": 28803,
  "ĠBur": 5289,
  "ĠBureau": 9002,
  "ĠBurg": 20312,
  "ĠBurger": 23850,
  "ĠBurke": 18810,
  "ĠBurlington": 31140,
  "ĠBurn": 10374,
  "ĠBurning": 28015,
  "ĠBurns": 19651,
  "ĠBurr": 31009,
  "ĠBurton": 21951,
  "ĠBus": 14577,
  "ĠBush": 4168,
  "ĠBusiness": 7506,
  "ĠBut": 824,
  "ĠButler": 14907,
  "ĠButter": 23022,
  "ĠButton": 29036,
  "ĠBuy": 13450,
  "ĠBuzz": 14261,
  "ĠBuzzFeed": 21070,
  "ĠBy": 2804,
  "ĠByrne": 29995,
  "ĠByron": 29259,
  "ĠByz": 31099,
  "ĠC": 335,
  "ĠCA": 8800,
  "ĠCAN": 18933,
  "ĠCAP": 22096,
  "ĠCAR": 24429,
  "ĠCB": 10546,
  "ĠCBC": 15383,
  "ĠCBD": 24449,
  "ĠCBO": 28624,
  "ĠCBS": 8575,
  "ĠCC": 11042,
  "ĠCCTV": 27413,
  "ĠCD": 7031,
  "ĠCDC": 18014,
  "ĠCDs": 31778,
  "ĠCE": 21659,
  "ĠCEO": 4798,
  "ĠCEOs": 24807,
  "ĠCF": 19295,
  "ĠCFL": 30979,
  "ĠCG": 20244,
  "ĠCH": 8782,
  "ĠCI": 18438,
  "ĠCIA": 6547,
  "ĠCITY": 28275,
  "ĠCJ": 29033,
  "ĠCL": 11675,
  "ĠCM": 14896,
  "ĠCNBC": 25551,
  "ĠCNN": 6144,
  "ĠCO": 8239,
  "ĠCOL": 29394,
  "ĠCOM": 15228,
  "ĠCON": 10935,
  "ĠCONT": 22161,
  "ĠCOP": 30641,
  "ĠCOU": 22860,
  "ĠCP": 17088,
  "ĠCPS": 30229,
  "ĠCPU": 10883,
  "ĠCR": 11598,
  "ĠCRE": 31775,
  "ĠCS": 9898,
  "ĠCSS": 15207,
  "ĠCT": 16346,
  "ĠCU": 29901,
  "ĠCV": 23721,
  "ĠCW": 22170,
  "ĠCa": 12562,
  "ĠCab": 15404,
  "ĠCabinet": 15942,
  "ĠCable": 19318,
  "ĠCad": 20128,
  "ĠCaesar": 24615,
  "ĠCaf": 31837,
  "ĠCafe": 26031,
  "ĠCage": 24917,
  "ĠCain": 23261,
  "ĠCairo": 17922,
  "ĠCal": 2087,
  "ĠCald": 25716,
  "ĠCalder": 27043,
  "ĠCaldwell": 30244,
  "ĠCalgary": 14092,
  "ĠCalif": 2779,
  "ĠCaliforn": 28252,
  "ĠCalifornia": 2999,
  "ĠCall": 7600,
  "ĠCaller": 26510,
  "ĠCalvin": 22965,
  "ĠCam": 7089,
  "ĠCamb": 18232,
  "ĠCambod": 21145,
  "ĠCambodia": 25736,
  "ĠCambridge": 12989,
  "ĠCamer": 6871,
  "ĠCamera": 22700,
  "ĠCameron": 8306,
  "ĠCamp": 5269,
  "ĠCampaign": 12660,
  "ĠCampbell": 11948,
  "ĠCampus": 25069,
  "ĠCan": 1472,
  "ĠCanad": 1967,
  "ĠCanada": 2961,
  "ĠCanadian": 4475,
  "ĠCanadians": 11034,
  "ĠCanadiens": 24892,
  "ĠCanal": 26366,
  "ĠCanberra": 27735,
  "ĠCance": 27504,
  "ĠCancer": 16884,
  "ĠCand": 16562,
  "ĠCandy": 30084,
  "ĠCann": 17920,
  "ĠCannabis": 25330,
  "ĠCannon": 25937,
  "ĠCanon": 21231,
  "ĠCant": 15762,
  "ĠCanter": 30723,
  "ĠCanucks": 21181,
  "ĠCanyon": 21443,
  "ĠCap": 3801,
  "ĠCapcom": 31864,
  "ĠCape": 14719,
  "ĠCapital": 9647,
  "ĠCapitals": 31020,
  "ĠCapitol": 10434,
  "ĠCaps": 31925,
  "ĠCapt": 9043,
  "ĠCaptain": 10180,
  "ĠCaption": 11180,
  "ĠCar": 1765,
  "ĠCarbon": 25259,
  "ĠCard": 6573,
  "ĠCardiff": 25320,
  "ĠCardinal": 22438,
  "ĠCardinals": 15242,
  "ĠCards": 20445,
  "ĠCare": 7416,
  "ĠCarey": 25642,
  "ĠCarib": 15744,
  "ĠCaribbean": 16437,
  "ĠCarl": 6967,
  "ĠCarlos": 14213,
  "ĠCarlson": 26891,
  "ĠCarly": 29360,
  "ĠCarn": 26206,
  "ĠCarnegie": 26900,
  "ĠCarney": 30330,
  "ĠCarol": 4519,
  "ĠCarolina": 5134,
  "ĠCaroline": 27271,
  "ĠCarp": 22889,
  "ĠCarpenter": 27304,
  "ĠCarr": 17212,
  "ĠCarrie": 28214,
  "ĠCarrier": 31670,
  "ĠCarroll": 17331,
  "ĠCars": 25828,
  "ĠCarson": 13379,
  "ĠCart": 16527,
  "ĠCarter": 9347,
  "ĠCas": 11484,
  "ĠCasc": 31821,
  "ĠCase": 10419,
  "ĠCasey": 17759,
  "ĠCash": 17281,
  "ĠCasino": 31635,
  "ĠCass": 13496,
  "ĠCast": 7206,
  "ĠCastle": 15008,
  "ĠCastro": 16668,
  "ĠCat": 7220,
  "ĠCatal": 16127,
  "ĠCatalan": 28844,
  "ĠCatalonia": 31632,
  "ĠCatch": 30489,
  "ĠCategory": 28461,
  "ĠCath": 5344,
  "ĠCathedral": 27422,
  "ĠCatherine": 20227,
  "ĠCatholic": 6523,
  "ĠCatholics": 17751,
  "ĠCats": 29003,
  "ĠCaucas": 24732,
  "ĠCaucus": 22752,
  "ĠCause": 27199,
  "ĠCav": 16334,
  "ĠCaval": 19742,
  "ĠCavaliers": 24535,
  "ĠCave": 24859,
  "ĠCavs": 30331,
  "ĠCay": 27477,
  "ĠCe": 19126,
  "ĠCec": 23933,
  "ĠCed": 23415,
  "ĠCedar": 31444,
  "ĠCel": 19024,
  "ĠCele": 19406,
  "ĠCelebr": 27713,
  "ĠCell": 16176,
  "ĠCelsius": 29072,
  "ĠCelt": 13748,
  "ĠCeltic": 22552,
  "ĠCeltics": 20120,
  "ĠCemetery": 29555,
  "ĠCensus": 19084,
  "ĠCent": 1882,
  "ĠCenter": 3116,
  "ĠCenters": 20321,
  "ĠCentral": 5198,
  "ĠCentre": 7964,
  "ĠCentury": 12505,
  "ĠCer": 22180,
  "ĠCert": 22485,
  "ĠCertain": 31533,
  "ĠCertainly": 21215,
  "ĠCh": 624,
  "ĠCha": 19265,
  "ĠChad": 16739,
  "ĠChain": 28354,
  "ĠChair": 8529,
  "ĠChairman": 10831,
  "ĠChal": 30430,
  "ĠChall": 12162,
  "ĠChallenge": 16226,
  "ĠChamber": 14619,
  "ĠChambers": 28727,
  "ĠChamp": 28801,
  "ĠChampion": 17468,
  "ĠChampions": 11336,
  "ĠChampionship": 7235,
  "ĠChampionships": 19196,
  "ĠChan": 16647,
  "ĠChance": 12461,
  "ĠChancellor": 16013,
  "ĠChand": 15675,
  "ĠChandler": 24708,
  "ĠChang": 23311,
  "ĠChange": 10753,
  "ĠChanges": 24582,
  "ĠChannel": 10330,
  "ĠChaos": 25160,
  "ĠChap": 12651,
  "ĠChapel": 29334,
  "ĠChapman": 23096,
  "ĠChapter": 14369,
  "ĠChar": 3198,
  "ĠCharacter": 23419,
  "ĠCharg": 14567,
  "ĠCharge": 26752,
  "ĠChargers": 19276,
  "ĠCharl": 5610,
  "ĠCharles": 6629,
  "ĠCharleston": 22607,
  "ĠCharlie": 9977,
  "ĠCharlotte": 13338,
  "ĠCharlottesville": 21234,
  "ĠChart": 26405,
  "ĠCharter": 21167,
  "ĠChase": 15879,
  "ĠChat": 28100,
  "ĠChavez": 23046,
  "ĠChe": 3378,
  "ĠCheck": 8561,
  "ĠCheese": 28780,
  "ĠChef": 28430,
  "ĠChelsea": 9682,
  "ĠChem": 16597,
  "ĠChemical": 24779,
  "ĠChen": 15634,
  "ĠCheney": 20583,
  "ĠCher": 13880,
  "ĠChern": 30517,
  "ĠCherry": 24937,
  "ĠChes": 25645,
  "ĠChess": 31517,
  "ĠChester": 25678,
  "ĠChev": 20057,
  "ĠChevrolet": 28153,
  "ĠChevy": 31884,
  "ĠChi": 20472,
  "ĠChicago": 4128,
  "ĠChick": 31358,
  "ĠChicken": 23632,
  "ĠChief": 5334,
  "ĠChiefs": 15529,
  "ĠChild": 6731,
  "ĠChildren": 9687,
  "ĠChile": 14471,
  "ĠChin": 21644,
  "ĠChina": 2321,
  "ĠChinese": 3419,
  "ĠChip": 16196,
  "ĠCho": 12956,
  "ĠChocolate": 25601,
  "ĠChoice": 21154,
  "ĠChoose": 26545,
  "ĠChris": 4617,
  "ĠChrist": 1844,
  "ĠChristian": 3825,
  "ĠChristianity": 11957,
  "ĠChristians": 8030,
  "ĠChristie": 12755,
  "ĠChristina": 29317,
  "ĠChristine": 22732,
  "ĠChristmas": 5982,
  "ĠChristopher": 11044,
  "ĠChrom": 27263,
  "ĠChrome": 11699,
  "ĠChron": 11403,
  "ĠChronicle": 14614,
  "ĠChronicles": 30941,
  "ĠChrys": 24804,
  "ĠChrysler": 27919,
  "ĠChuck": 12845,
  "ĠChurch": 4518,
  "ĠChurchill": 22013,
  "ĠCi": 31742,
  "ĠCincinnati": 13336,
  "ĠCind": 24974,
  "ĠCinem": 19203,
  "ĠCinema": 27437,
  "ĠCirc": 8135,
  "ĠCircle": 18995,
  "ĠCircuit": 12570,
  "ĠCisco": 29266,
  "ĠCit": 16987,
  "ĠCities": 19988,
  "ĠCitiz": 11496,
  "ĠCitizen": 19920,
  "ĠCitizens": 16063,
  "ĠCity": 2100,
  "ĠCivic": 26506,
  "ĠCivil": 7287,
  "ĠCl": 1123,
  "ĠClaim": 25703,
  "ĠClaire": 22025,
  "ĠClar": 13771,
  "ĠClara": 25711,
  "ĠClare": 20061,
  "ĠClark": 10084,
  "ĠClarke": 16291,
  "ĠClarks": 29039,
  "ĠClarkson": 31712,
  "ĠClass": 6875,
  "ĠClassic": 15341,
  "ĠClaud": 27151,
  "ĠClaus": 30200,
  "ĠClause": 31131,
  "ĠClay": 14981,
  "ĠClayton": 26590,
  "ĠCle": 6681,
  "ĠClean": 15287,
  "ĠClear": 20238,
  "ĠClearly": 20903,
  "ĠClement": 24346,
  "ĠClemson": 25454,
  "ĠCleveland": 8710,
  "ĠCli": 19220,
  "ĠClick": 9314,
  "ĠClient": 30205,
  "ĠCliff": 21547,
  "ĠClimate": 11569,
  "ĠClin": 16036,
  "ĠClinic": 27183,
  "ĠClinical": 28641,
  "ĠClint": 18185,
  "ĠClinton": 2098,
  "ĠClintons": 24467,
  "ĠClippers": 25892,
  "ĠClo": 31290,
  "ĠClock": 26570,
  "ĠClose": 15268,
  "ĠCloud": 11375,
  "ĠClub": 6354,
  "ĠCly": 28527,
  "ĠCo": 1847,
  "ĠCoach": 14418,
  "ĠCoal": 10409,
  "ĠCoalition": 11812,
  "ĠCoast": 7554,
  "ĠCob": 18603,
  "ĠCobb": 27445,
  "ĠCoc": 20198,
  "ĠCoca": 25901,
  "ĠCoch": 29584,
  "ĠCock": 30973,
  "ĠCod": 26889,
  "ĠCode": 9117,
  "ĠCody": 24565,
  "ĠCoff": 16784,
  "ĠCoffee": 21043,
  "ĠCohen": 12449,
  "ĠCoin": 17368,
  "ĠCoke": 31453,
  "ĠCol": 1710,
  "ĠColbert": 22772,
  "ĠCold": 11069,
  "ĠCole": 10231,
  "ĠColeman": 18750,
  "ĠColin": 16126,
  "ĠColl": 7616,
  "ĠCollect": 15375,
  "ĠCollection": 17108,
  "ĠCollective": 31204,
  "ĠColleg": 31686,
  "ĠCollege": 4963,
  "ĠCollins": 11735,
  "ĠCologne": 29380,
  "ĠColomb": 13749,
  "ĠColombia": 17376,
  "ĠColombian": 30621,
  "ĠColon": 14923,
  "ĠColonel": 21592,
  "ĠColor": 5529,
  "ĠColorado": 6367,
  "ĠColts": 17484,
  "ĠColumb": 6138,
  "ĠColumbia": 8408,
  "ĠColumbus": 12862,
  "ĠCom": 1081,
  "ĠComb": 16116,
  "ĠCombat": 22440,
  "ĠCombine": 30133,
  "ĠCombined": 31574,
  "ĠComcast": 16986,
  "ĠCome": 7597,
  "ĠComedy": 20780,
  "ĠComet": 31478,
  "ĠComey": 9890,
  "ĠComic": 17046,
  "ĠComics": 14084,
  "ĠComing": 21003,
  "ĠComm": 1959,
  "ĠCommand": 10965,
  "ĠCommander": 16307,
  "ĠComment": 20484,
  "ĠComments": 23199,
  "ĠCommerce": 14626,
  "ĠCommercial": 23712,
  "ĠCommission": 4203,
  "ĠCommissioner": 12078,
  "ĠCommit": 30678,
  "ĠCommittee": 4188,
  "ĠCommon": 9549,
  "ĠCommons": 11445,
  "ĠCommonwealth": 17453,
  "ĠCommun": 4446,
  "ĠCommunication": 27647,
  "ĠCommunications": 13079,
  "ĠCommunist": 12688,
  "ĠCommunity": 8331,
  "ĠComp": 3866,
  "ĠCompanies": 21801,
  "ĠCompany": 6952,
  "ĠCompar": 31352,
  "ĠCompared": 28428,
  "ĠCompetition": 25981,
  "ĠCompl": 24159,
  "ĠComplete": 18367,
  "ĠComplex": 21798,
  "ĠComput": 22872,
  "ĠComputer": 15604,
  "ĠCon": 1628,
  "ĠConc": 21350,
  "ĠConcept": 26855,
  "ĠConcer": 19000,
  "ĠCond": 14651,
  "ĠConf": 7358,
  "ĠConfeder": 14158,
  "ĠConfederate": 17567,
  "ĠConference": 7948,
  "ĠCong": 2446,
  "ĠCongo": 22261,
  "ĠCongress": 2611,
  "ĠCongressional": 11990,
  "ĠCongressman": 22186,
  "ĠConn": 19132,
  "ĠConnect": 8836,
  "ĠConnecticut": 13056,
  "ĠConnor": 23634,
  "ĠConrad": 31619,
  "ĠCons": 3464,
  "ĠConsequently": 25184,
  "ĠConserv": 5588,
  "ĠConservation": 20753,
  "ĠConservative": 8455,
  "ĠConservatives": 13127,
  "ĠConsider": 16546,
  "ĠConsidering": 24883,
  "ĠConsole": 30691,
  "ĠConst": 4820,
  "ĠConstant": 28173,
  "ĠConstitution": 7240,
  "ĠConstitutional": 22132,
  "ĠConstruction": 23319,
  "ĠConsult": 22283,
  "ĠConsumer": 17412,
  "ĠCont": 3082,
  "ĠContact": 19632,
  "ĠContent": 17254,
  "ĠContest": 29782,
  "ĠContin": 7380,
  "ĠContinental": 28732,
  "ĠContinue": 11323,
  "ĠContinued": 15155,
  "ĠContract": 24403,
  "ĠContribut": 31120,
  "ĠControl": 8541,
  "ĠController": 29610,
  "ĠConvention": 10328,
  "ĠConvers": 31905,
  "ĠConway": 20454,
  "ĠCook": 8428,
  "ĠCool": 17126,
  "ĠCooper": 9111,
  "ĠCooperation": 29542,
  "ĠCop": 16055,
  "ĠCopenhagen": 23228,
  "ĠCopy": 20781,
  "ĠCopyright": 17239,
  "ĠCor": 2857,
  "ĠCorbyn": 12891,
  "ĠCord": 21060,
  "ĠCore": 8423,
  "ĠCorey": 20151,
  "ĠCork": 19857,
  "ĠCorn": 13016,
  "ĠCornell": 22571,
  "ĠCorner": 27019,
  "ĠCorp": 11206,
  "ĠCorpor": 9101,
  "ĠCorporate": 26584,
  "ĠCorporation": 11199,
  "ĠCorps": 12039,
[...]
