#version: 0.2
Ġ t
Ġ a
h e
i n
r e
Ġt he
o n
e r
Ġ s
Ġ w
a t
Ġ o
e n
Ġ c
i t
i s
a n
o r
Ġ b
e s
e d
Ġ f
in g
Ġ p
o u
Ġa n
Ġt o
a l
a r
Ġ m
Ġ in
Ġo f
Ġ h
Ġ d
â Ģ
a s
Ġan d
i c
Ġt h
l e
o m
i on
l l
en t
Ġ n
Ġ l
Ġ re
s t
v e
Ġ e
l y
Ġb e
r o
Ġ g
i d
u t
a c
o t
Ġ T
Ġ I
Ġth at
Ġ on
a y
Ġ is
Ġ S
i m
e t
a m
a d
o w
s e
Ġf or
i g
âĢ Ļ
Ġ A
v er
c t
l d
u r
Ġ C
Ġ u
Ġs t
Ġ y
Ġ it
Ġ he
i r
at ion
it h
Ġw h
Ġ M
c e
t er
Ġw e
o l
i l
Ġw ith
Ġa s
Ġ B
c h
i ll
n d
Ġw as
Ġ P
Ġy ou
er s
k e
Ġ âĢ
Ġc on
Ġd e
Ġ r
he r
i f
at e
Ġa t
a g
Ġh a
Ġ W
Ġs e
Ġ H
o re
Ġp ro
u l
p p
m ent
Ġa re
r i
Ġ D
Ġ 1
es t
u s
Ġc om
is t
an d
Ġ R
o p
a in
ĠT he
Ġ 2
ig h
r om
Ġ (
or t
o d
Ġn e
Ġ F
Ġe x
u m
u n
re s
âĢ Ŀ
a b
Ġn ot
Ġ N
Ġ v
Ġha ve
es s
it y
ou ld
Ġo r
e m
t h
Ġb y
o s
an t
Ġ G
i ve
Ġf rom
Ġa l
' s
e l
Ġs u
ar t
o c
Ġ L
Ġs h
Ġth is
n t
q u
igh t
p e
u st
Ġ le
i es
Ġ E
en d
Ġc h
Ġs a
ou t
Ġa b
T he
al l
i e
ac k
re d
ĠâĢ ľ
Ġh as
al ly
0 0
Ġp l
Ġ J
Ġg o
ar d
Ġh is
om e
i v
g h
a p
o st
e ar
Ġ O
Ġt r
ou r
as t
Ġ j
a k
u d
Ġd o
Ġthe y
Ġb ut
Ġw or
Ġc an
r ou
Ġw ill
g e
Ġsa id
Ġw he
Ġ U
ic h
Ġ k
Ġa ll
o k
Ġ "
Ġwh o
id e
Ġin t
am e
t her
an s
i al
Ġo ut
Ġthe ir
f f
on g
e ct
ic e
p l
u re
p t
on e
Ġm ore
ag e
ion s
ac t
i ke
Ġm e
Ġu p
ou s
Ġa d
in e
Ġab out
at ed
r a
b er
Ġon e
Ġwe re
Ġs o
Ġu s
im e
o g
e p
Ġ K
Ġh ad
a re
i a
u b
c c
Ġw ould
Ġc l
Ġ2 0
Ġ im
Ġwh ich
in d
a ke
u e
Ġcon t
ver y
Ġa g
i z
Ġt e
Ġof f
Ġcom p
Ġbe en
Ġu n
ĠS t
Ġ en
s o
p er
ig n
a u
ĠT h
ar y
ac e
Ġy ear
e w
i p
Ġl ike
e re
v en
Ġin c
o ok
ay s
Ġm an
Ġp e
o se
r y
Ġre s
Ġp er
ab le
it e
as s
Ġs p
or d
Ġo ther
ĠI n
i re
m er
Ġs ome
i le
en ce
op le
i b
Ġ20 1
ation s
k s
Ġo ver
Ġthe re
ic al
res s
Ġd is
ul t
in t
Ġne w
ow n
Ġal so
Ġth an
Ġbe c
Ġa r
Ġthe m
an ce
ou nt
ou gh
r u
Ġa pp
p ort
Ġp art
a il
Ġyou r
Ġwhe n
Ġwh at
re e
or m
Ġpe ople
f ter
on d
Ġs c
Ġ qu
ĠC h
as e
a v
Ġan y
Ġj ust
Ġit s
Ġ Y
Ġt ime
ac h
ĠI t
Ġk n
Ġhe r
Ġ 3
Ġre c
l ic
re at
Ġm y
en s
Ġ if
Ġg et
Ġ V
. âĢĿ
Ġint o
i an
Ġwor k
ou nd
Ġt w
ir st
ve l
ct ion
Ġn o
d u
ing s
or y
Ġo ur
ic k
or s
id ent
it ion
Ġ -
Ġp re
o b
o ve
Ġpl ay
an g
in k
au se
w n
am p
ad e
h ing
at es
it t
ar k
Ġ ro
Ġs he
Ġp ol
ver s
Ġc o
Ġa fter
, âĢĿ
Ġf irst
Ġc ould
Ġh ow
ĠH e
Ġ1 9
n e
i ous
Ġa cc
nd er
i ld
Ġh im
' t
on s
Ġp o
a w
Ġon ly
Ġf e
Ġat t
ic t
he d
Ġp r
Ġtw o
o v
Ġcom m
is h
âĢ ľ
Ġs pe
f orm
Ġa ct
Ġs er
Ġb l
w e
f t
Ġbe t
Ġde c
. "
t e
n ing
Ġb ack
Ġm ost
c es
o od
c k
ĠâĢ ĵ
Ġa m
o y
Ġd id
rou gh
if f
rou nd
at er
Ġag ain
Ġ 4
u al
d ay
Ġu nder
Ġw ant
Ġd es
is e
u ll
se l
Ġcon s
ĠâĢ Ķ
Ġbec ause
r it
Ġn ow
l ud
ent s
Ġyear s
ub lic
ter n
Ġne ed
m an
. .
Ġe ven
Ġ $
e c
Ġin v
is s
Ġkn ow
ĠW e
Ġse e
ment s
Ġad d
c ed
, "
o ld
Ġin d
Ġse c
f ore
Ġe very
u ch
ur n
Ġ 5
Ġsu pp
Ġm ake
pe ct
Ġe m
ĠU n
Ġthe se
oc k
o ll
Ġwhe re
j ect
ver n
ation al
I n
x t
Ġb u
Ġl ook
ĠA nd
Ġd on
T h
os s
Ġe v
Ġw ay
at ing
um p
Ġbe ing
Ġre m
Ġr ight
Ġm ay
i ly
Ġthe n
Ġman y
ro w
le ct
ie w
n g
Ġ [
Ġd iff
Ġde f
as on
Ġre l
Ġc all
ĠB ut
on t
ĠT r
as ed
Ġinc lud
Ġth ink
i ed
ak ing
l es
Ġre g
) .
mer ic
Ġim p
Ġth rough
it ed
ri b
at h
Ġs y
Ġsh ould
Ġs ay
Ġp res
ur ing
Ġf l
Ġl ast
Ġth ose
Ġ very
ow er
e ll
ot her
Ġm uch
it ies
Ġst ate
if ic
ĠTh is
Ġsh ow
Ġb r
at ive
he n
t y
s s
ar g
Ġwe ll
ot h
v ed
Ġc ount
ĠW h
Ġp h
Ġdo es
Ġ2 00
al s
Ġd own
Ġo wn
ar ly
Ġ end
u nd
t ing
Ġas s
Ġu se
Ġbe l
ic s
an ge
Ġl ong
ĠA meric
in ce
ter s
Ġbe fore
om et
Ġm on
Ġgo vern
g r
w ard
Ġst art
Ġre port
ib le
Ġ ke
u es
u p
ĠN ew
t s
Ġf in
Ġte am
Ġm ade
b le
if e
ol og
) ,
en er
Ġsu ch
- -
ou n
re n
c om
ers on
Ġs m
Ġgo ing
l p
il ity
i x
Ġwor ld
f ul
e k
u ally
Ġst ud
âĢ Ķ
Ġgo od
is m
Ġa c
ist s
t ain
I t
Ġe ff
Ġsu b
Ġagain st
Ġs ur
Ġg ame
Ġs et
it s
Ġg u
Ġpo int
or k
Ġ 6
Ġ ent
g an
st em
00 0
y s
ar s
Ġst ill
rou p
l i
Ġwh ile
ill ion
Ġhe lp
Ġle ad
we en
Ġm in
v ing
im es
Ġs ays
Ġo b
al k
Ġpro du
e f
a x
an k
m s
Ġg r
c y
Ġin ter
Ġin st
Ġst r
Ġs im
c ess
sel f
Ġcon f
Ġc ol
Ġt ake
i o
u res
Ġs ame
ar ch
Ġbet ween
Ġth ough
Ġoff ic
oll ow
e ver
Ġdiff ere
Ġc r
Ġpro v
ut ion
us s
Ġdis c
o ol
Ġ ed
Ġo p
Ġh igh
l and
a ir
Ġn um
Ġl aw
Ġs ign
re ad
w ay
Ġgovern ment
n er
l ed
ĠR e
h ip
g g
at ch
am es
he s
an y
Ġs omet
Ġt er
a h
vel op
c ent
Ġre f
Ġtr ans
Ġin s
W e
Ġr un
Ġf ound
Ġth ree
Ġm em
iv es
Ġa round
Ġhe re
at her
a ve
Ġm ed
Ġre al
Ġus ed
e e
Ġ1 0
ou se
Ġex p
Ġsy stem
ce pt
ĠY ou
ĠA r
o ot
Ġre ally
v es
Ġm od
c i
Ġg roup
Ġsupp ort
c er
c on
a z
Ġc our
Ġ 7
et s
Ġre t
Ġh and
al e
Ġp ublic
Ġspe c
in s
y ing
Ġg reat
p r
en se
Ġc ar
Ġex t
. [
ire ct
Ġc ur
Ġf am
ĠC om
al th
Ġha pp
Ġf act
t on
Ġex per
ĠThe y
ĠTr ump
Ġw om
Ġf r
ĠI s
Ġc ap
Ġb oth
Ġd ay
Ġf ind
Ġre ad
p h
ul ar
ĠA l
Ġd et
in es
ic es
Ġre p
Ġs l
ut h
o h
Ġd uring
e red
ĠA s
ĠS h
Ġmon th
Ġde velop
Ġc re
Ġ 0
Ġb ig
is ion
m in
e x
Ġp erson
Ġf ollow
ak es
Ġ 8
Ġis s
t he
ĠC l
Ġto ld
Ġs ince
a red
Ġwe ek
ic ally
m ed
ag es
i vers
Ġf ew
Ġw ar
ord ing
ort h
Ġc ent
Ġle g
Ġpol it
g et
Ġex pl
a j
ĠL e
Ġl ot
as h
Ġbel ie
Ġg ener
Ġto o
r ic
Ġo pp
re nt
d er
Ġ 9
Ġre qu
Ġcont in
Ġpro t
W h
at a
b ers
i et
Ġf il
ent ion
an c
Ġc le
Ġres p
Ġp ut
ĠI f
iz ed
Ġan other
n ess
ch ool
Ġin f
Ġsomet hing
Ġdiffere nt
Ġc or
Ġl oc
Ġinv est
at t
Ġs oc
ut e
Ġp ower
ĠD e
Ġc he
2 0
Ġ '
Ġcomm un
Ġp ass
Ġl ife
Ġpl an
ĠF r
u c
Ġre le
Ġhe ad
Ġth ings
i ence
od y
Ġf ar
Ġar t
n ed
Ġp oss
th ing
Ġm et
ere st
Ġc amp
t t
Ġv ot
ar ge
ro ss
Ġb o
Ġch ild
Th is
v iew
Ġas k
Ġm ight
Ġ .
Ġe ach
ant s
Ġde p
in ess
Ġne ver
iz e
i er
Ġne xt
Ġsec ond
Ġm ark
Ġqu est
Ġb us
Ġad v
ie ld
Ġde m
Ġcom e
ĠF or
Ġg ot
ĠA n
ĠâĢ ĺ
Ġop en
ĠS e
Ġb est
Ġall ow
i ent
it al
ĠTh at
itt le
Ġse em
Ġp ost
n ce
Ġfe el
p le
ĠU S
i k
ĠP ro
Ġp ri
gr am
Ġper cent
Ġh ome
Ġd ist
Ġd irect
r at
u g
i red
Ġinc re
Ġw r
Ġcont ro
c l
ĠR ep
t en
er v
s on
os ed
l ess
or n
Ġres ult
Ġh ard
Ġc are
Ġm illion
ate ly
Ġcomp le
Ġpl ace
Ġwith out
Ġin form
ch n
Ġinclud ing
Ġim port
Ġa v
re t
con om
Ġh um
Ġpro ble
Ġ ide
Ġbu ild
Ġto p
Ġnum ber
Ġcount ry
am a
one y
a im
g y
ĠB l
ab ly
r al
Ġst and
Ġf our
Ġe l
Ġg l
is hed
ri end
u ro
w ays
Ġpart ic
Ġbet ter
Ġt ri
Ġrec ent
B ut
Ġint erest
Ġm ov
c o
Ġle t
r ation
Ġse ason
Ġl ess
Ġt urn
Ġl ittle
Ġbe h
Ġm il
Ġapp ro
e ad
Ġb ro
r act
Ġcall ed
l ine
is ed
l ing
Ġc ase
a pp
Ġd r
Ġle ft
Ġre st
ĠI nd
Ġp op
Ġan n
Ġm ove
en cy
Ġatt ack
ĠThe re
Ġke ep
od e
Ġf ull
in a
le g
Ġdid n
Ġser v
er ing
Ġm ain
Ġf un
Ġ Z
aj or
1 0
Ġeff ect
in al
Ġpre v
Ġpro gram
Ġus ing
Ġt est
Ġp ay
Ġe ar
at ure
re m
Ġv al
Ġpol ice
t ed
Ġfor m
Ġe conom
Ġd ata
Ġnew s
b e
Ġp os
Ġw in
ĠAmeric an
Ġle vel
Ġch ar
iv ing
ain s
Ġsm all
ĠS o
read y
in ed
Ġs chool
Ġl ist
u ck
H e
olog y
id ed
_ _
' re
pl oy
Ġe as
Ġpro cess
Ġch ange
g er
ir d
Ġwom en
Ġcur rent
t o
Ġre ce
Ġh ist
Ġp rom
Ġd ri
Ġ =
Ġpres ident
Ġcomp any
re en
i ans
us ed
Ġal ready
ru ct
ĠUn ited
oh n
Ġwh y
Ġt y
Ġb re
Ġu nt
Ġm oney
Ġm at
Ġal ways
Ġl ater
Ġex pect
Ġte chn
Ġs ol
Ġbus iness
Ġoffic ial
ĠH ow
r ap
ivers ity
Ġb ook
w it
ĠO b
st and
Ġth ing
a ign
Ġcl ass
ĠP h
Ġpro ject
Ġcl aim
as es
Ġj ob
Ġ Q
Ġinform ation
Ġor gan
Ġt alk
ĠS he
Ġdes ign
ard s
a ff
Ġst ory
Ġch ang
Ġm ajor
Ġab le
Ġ- -
Ġpro f
le ction
er tain
Ġre se
Ġhe alth
iv en
Ġv is
.. .
Ġp ast
r on
Ġf ree
Ġo per
ou th
ur s
he re
ĠA d
pt ion
Ġa way
ĠC an
i or
Ġm ust
Ġc ity
ĠB e
amp le
Ġhapp en
uth or
ur al
Ġimport ant
Ġ1 8
Ġk ill
ur ity
ac y
Ġo ld
Ġ est
u red
Ġs k
Ġdoes n
ur y
end ing
s c
Ġle ast
Ġp at
iss ion
Ġg row
ĠG o
Ġed it
ain ed
Ġv ar
Ġc ost
Ġd ays
ne y
Ġte ll
id es
Ġh op
Ġcamp aign
id er
Ġst re
Ġc ame
s ide
Ġm en
Ġa ff
Ġcon st
Ġ1 2
o x
el s
res ident
Ġen ough
Ġv iew
r ist
ot t
Ġk ind
cc ess
Ġm aking
ĠM ar
Ġl arge
Ġrec ord
ĠS p
o ad
Ġfam ily
Ġf riend
er n
Ġm ar
Ġe lect
Ġpol ic
le y
S t
er al
us h
Ġ1 5
Ġs it
Ġt ax
âĢ ¦
pp ed
is ing
al ity
iv ed
if ied
Ġunt il
are nt
Ġpolit ical
Ġde al
Ġv ide
b y
ion al
r or
at or
A s
ri es
Ġwork ing
al f
au gh
ĠRep ublic
Ġ ve
u ed
Ġto ok
Ġde b
Ġl ine
ap s
I f
ĠJ ohn
ĠCom m
is ter
ain ing
Ġa ir
b s
Ġin tern
Ġf ore
Ġ es
Ġbec ome
Ġact ually
oc rat
i ol
Ġme an
Ġf und
on y
em ber
w are
w ork
an e
Ġfor mer
Ġof ten
ĠS c
ĠP l
ĠE uro
Ġw on
Ġg ive
Ġacc ording
Ġe ver
y ear
m ost
o int
ar ing
Ġg ames
Ġhum an
en g
Ġwor d
Ġb as
is on
an n
w h
Ġret urn
Ġt imes
Ġor der
1 9
ĠR uss
iz ation
Ġn ame
ĠD em
Ġse ver
g in
ĠA ll
Ġde v
ic le
it her
ut ure
Ġ19 9
Ġb it
Ġp ar
i qu
Ġs ing
Ġper form
ra ft
ĠM c
Ġmark et
f or
Ġchar ac
Ġf ac
ĠA t
The re
ĠC on
ĠS y
Ġdo ing
id d
ĠO r
ĠM ay
Ġapp ear
Ġr a
Ġplay ers
c hed
Ġn ight
Ġle ar
Ġl a
ak en
m ber
Ġto day
Ġe arly
Ġse en
Ġha ving
Ġchild ren
Ġ ,
Ġp ot
-- --
Ġev ent
Ġmed ia
ro p
Ġsoc ial
Ġc rit
ĠP resident
at s
Ġwhe ther
Ġsever al
Ġcontro l
/ /
id ence
1 1
Ġme et
Ġmil it
Ġw ent
Ġp ress
art ment
Ġf ive
Ġyou ng
Ġsu re
or ies
Ġpro p
ious ly
5 0
Ġe qu
Ġquest ion
Ġo cc
Ġlike ly
Ġmem bers
en e
Ġc ertain
and s
le t
ver t
un e
Ġen g
Ġw ater
ĠY ork
Ġex ample
E R
Ġs ide
ot s
Ġd one
Ġar g
ĠC ol
i um
Ġ vers
Ġan t
Ġinv ol
b r
ĠM r
ĠSt ates
ĠEuro pe
Ġal ong
end ed
Ġsh ort
Ġsu ccess
Ġmonth s
ent ial
s h
en n
Ġh our
i ally
Ġ1 1
b all
Ġse x
i ver
ĠB r
em pt
Ġwith in
A nd
Ġdes c
l f
Ġcour se
Ġf ight
im ate
Ġam ong
Ġact iv
ur ch
Ġon ce
ub l
ag ue
Ġf uture
Ġinvest ig
st er
Ġposs ible
ĠOb ama
ul ation
Ġch o
Ġunder stand
Ġcon cer
it ing
u ff
Ġ ]
n ect
ĠO n
ort un
re w
Ġproble m
Ġme ans
Ġpri v
Ġv iol
on es
Ġa uthor
gg est
it ive
ĠN o
Ġav ail
ĠC ar
âĢ ĵ
oc i
Ġkn own
Ġprodu ct
our n
iv id
Ġthough t
Ġy et
Ġac ross
Ġprot ect
Ġn on
Ġloc al
g ress
Ġh old
Ġf ail
Ġw rit
ĠW hen
ĠSt ate
Ġcommun ity
Ġre ason
m y
Ġor ig
ĠT e
Ġsu ggest
Ġ &
al d
Ġm akes
in c
ver age
Ġ201 6
l er
Ġask ed
p or
n ot
ed eral
b ack
Ġreport ed
b ook
Ġg iven
ens ive
Ġ i
ag ed
Y ou
or ld
Ġstr ong
Ġpro b
Ġother s
Ġm us
Ġbelie ve
Ġvide o
i ber
Ġb en
Ġget ting
ĠH ouse
Ġann oun
an ces
Ġl ight
ĠUn iversity
ore d
o ber
le ment
Ġ3 0
Ġ ident
it ions
1 2
Ġc ut
Ġs ent
Ġl im
ir on
Ġc a
ĠC o
ĠCh rist
iet y
ur ther
Ġs our
Ġc reat
Ġcon d
' ve
Ġn et
as hing
Ġn ational
. ,
Ġcl ose
re st
Ġstart ed
Ġsa f
Ġde ath
am s
am ent
Ġavail able
Ġ X
Ġh ig
Ġb ased
Ġiss ue
Ġind ust
ĠDem ocrat
as ter
Ġl ow
Ġfollow ing
Ġacc ount
ĠM in
m ing
Ġl and
res ent
F or
Ġem ploy
Ġl ove
ĠC ent
Ġ201 5
Ġhist ory
Ġag o
Ġ #
sel ves
ĠA m
Ġm om
ort s
3 0
u se
Ġpart y
Ġser ies
Ġcom es
Ġtr ying
ab ility
Ġal most
u ly
ut es
get her
Ġto gether
in ation
ĠAmeric a
u ment
Ġide a
Ġacc ess
Ġf oc
ie f
o f
il ar
her s
re ed
ail s
e b
Ġis n
ition al
ĠF l
ĠS en
Ġcle ar
ĠO ne
Ġtr ad
p ro
th ough
ĠWh at
Ġ1 6
Ġpr act
Ġadd ed
Ġimp ro
Ġexper ience
ere nce
Ġh alf
r ing
ust om
g ed
wit ter
r ict
ĠB ro
Ġan al
Ġ201 4
int on
Ġr ul
A T
Ġlook ing
ivid ual
Ġs ix
Ġl ive
un ch
Ġany thing
og rap
Ġare a
Ġcomple te
min ist
Ġm iss
er man
ra el
Ġf av
Ġr is
Ġpres ent
ĠE x
n es
ĠP r
Ġsay ing
ru g
ĠCan ad
Ġv ict
ci ally
ot e
a f
Ġb ad
Ġt aken
u ge
ra w
1 5
a id
Ġent ire
ĠW ar
Ġb ill
Ġcomp et
Ġph ot
at ors
ow s
Ġbeh ind
ĠE ng
Ġm or
' m
Ġcour t
ĠT o
Ġtr y
Ġmilit ary
Ġne ar
Ġa ut
er t
Ġf ace
Ġsec urity
Wh at
ward s
Ġm ult
a i
pl ay
os p
Ġ er
ĠP ol
i en
Ġpro per
Ġ1 4
Ġdisc uss
Ġfil m
Ġth reat
Ġstud y
Ġto t
Ġr ather
Ġsing le
Ġind ividual
ĠA f
s y
Ġqu ick
e v
Ġ Â
Ġ z
ĠD on
Ġm ind
ĠS ec
ĠN orth
tt p
Ġp ubl
am ed
Ġpolic y
Ġm ess
al es
ap er
Ġwant ed
Ġf all
Ġbl ack
at ic
ar m
Ġf ood
Ġsome one
ir c
Ġs um
ll ing
p ar
r is
I N
Ġc ult
Ġspec ial
Ġcom b
Ġ /
Ġ |
A n
Ġke y
o ff
Ġplay er
id s
Ġre du
Ġbr ing
ĠM an
Ġcomp an
O n
ĠG r
p ly
Ġatt empt
Ġ1 7
Ġ1 3
ĠD ep
ĠB rit
ĠN ational
Ġt aking
W hen
Ġpre t
ĠB ar
Ġ :
v iron
Ġf oot
ol ution
if y
: //
Ġel se
ĠC al
Ġb ody
Ġsp ace
Ġfr ont
ro te
Ġprob ably
ic ult
. )
Ġnot hing
Ġc ou
ĠI m
ashing ton
el t
Ġs w
Ġcon nect
o ver
Ġrese arch
ĠW orld
ĠCl inton
ĠC ity
c hes
Ġcom ing
Ġpoint s
ĠIs rael
d d
Ġhow ever
Ġdesc rib
Ġj o
Ġsign ific
Ġsim ilar
* *
rem e
Ġben ef
c ing
li er
Ġdec ision
ĠA ust
Ġe ither
Ġim m
Ġc oun
Ġm ass
ac es
Ġt arg
Ġs us
g o
Ġfe at
a ult
ull y
ĠH ar
Th at
Ġex ist
S o
Ġcon v
Ġ201 3
O N
Ġen c
Ġh it
Ġright s
Ġserv ice
ir l
as ing
Ġf ire
Ġw rote
Ġf urther
Ġd oc
y n
Ġh ouse
Ġch all
Ġth ird
Ġf ig
Ġb an
ro du
Ġw a
Ġst op
Ġcre ate
an a
ĠS u
R E
s w
Ġf ield
1 6
Ġp ick
m b
w w
ive ly
Ġme as
Ġre pl
Ġcom pl
Ġiss ues
ĠW ith
Ġbe gin
Ġst ep
pp ing
n ow
a pe
Ġwho le
Ġrel ations
ri ed
Ġseem s
ent ly
Ġsu per
Ġ )
Ġcompan ies
1 4
pe cially
Ġd ue
Ġex ec
Ġevery thing
Ġc and
e al
am er
itt ed
Ġf ederal
Ġst ates
Ġro om
Ġe y
un g
Ġtr a
Ġw atch
Ġc ustom
Ġlead ers
ĠHow ever
p ite
ĠW ashington
u ation
ĠG u
ĠJ an
att le
I S
Ġro le
Ġse lf
a ul
ĠG e
Ġs ound
Ġl ab
Ġofficial s
Ġd am
Ġst ri
iv il
Ġ201 2
Ġinf l
il t
Ġrele ased
id ay
Ġt re
ib ility
o on
Ġbe gan
ĠIn st
ĠD av
ĠS outh
he ad
ĠA pp
Ġo pt
Ġstud ents
r an
Ġt reat
ob al
Ġfin al
Ġcharac ter
Ġpos ition
Ġmat ter
Ġen er
Ġout side
Ġd ou
Ġdevelop ment
Ġhim self
Ġstate ment
viron ment
end er
Ġ201 7
Ġab ove
ad es
se c
l im
Ġbre ak
Ġst at
Ġam ount
Ġin it
Ġprov ide
Ġ1 00
l ike
Ġhour s
er y
Ġit self
Ġthem selves
Ġoff ice
Ġrep resent
Ġa ction
Ġbec ame
Ġ19 8
ĠP art
A N
Ġcontin ue
Ġgener al
Ġcount ries
ĠIn tern
Ġd i
Ġadd ress
C h
Ġne g
Ġg un
ac ed
Ġtr ue
Ġ2 5
i od
Ġspec ific
1 3
Ġl arg
Ġsignific ant
Ġsim ply
ar ter
l ish
ograp h
Ġwas n
' ll
ĠA ss
um b
ĠR es
as k
Ġinter view
ace book
Ġg round
re g
Ġdiff icult
Ġr ad
og n
Ġrun ning
Ġev idence
ĠJ ust
Ġad minist
o id
Ġc op
Ġd rug
Ġvers ion
il i
og le
Ġag ree
Ġb ar
Ġbuild ing
ĠE d
ĠCh ina
idd le
Ġneed s
Ġprof ess
Ġgroup s
re am
B C
e ks
Ġty p
Ġresp ons
Ġshow s
Ġcomm on
ang u
l am
Ġevery one
r ight
Ġd om
Ġneed ed
Ġd est
Ġb all
Ġwom an
ĠG erman
Ġl at
Ġbel ow
Ġmus ic
Ġt em
Ġrele ase
Ġex c
ourn al
Ġin j
Ġpret ty
Ã ©
l ight
rib ut
ĠM ed
if t
Ġinclud e
Ġsa w
Ġde ep
ĠA b
Ġplay ed
b ody
Ġqu ite
Ġa p
Ġindust ry
Ġch arg
Ġener gy
Ġplay ing
Ġm ot
Ġcand id
Ġ5 0
Ġm ag
Ġs ense
Ġph ys
Ġl ate
Ġal leg
Ġwh ite
ĠH is
Ġfriend s
Ġleg al
Ġg en
om m
s er
iv al
Ġan im
ĠA fter
1 7
at ur
H ow
Ġinst ead
w here
Ġab s
y le
Ġb illion
Ġl ost
Ġes pecially
Ġre d
Ġval ue
le v
ĠW est
ĠM us
Ġh ost
os ing
or ing
Ġh om
is c
ĠNew s
Ġp le
Ġwe eks
b o
ĠN ot
t ime
cc ording
ep end
Ġfor ward
ist ic
Ġdet er
Ġe lection
Ġrecent ly
ag er
iqu e
Ġj ud
Ġtr ack
A R
Ġvot e
Ġsu ff
ĠT witter
Ġob ject
ir t
Ġchang es
Ġper iod
med i
Ġopp ortun
ĠO ct
ĠWh ite
Ġlong er
Ġl o
1 8
Ġp ain
Ġso on
Ġs ite
Ġe p
Ġ {
Ġac cept
A S
ac hed
ĠC ong
o ke
e ed
Ġeconom ic
l t
Ġsh oot
Ġhop e
e g
h od
ar c
ri pt
ir m
itt ing
Ġmom ent
Ġdec l
Ġcons um
Ġp ie
ĠW ill
le ge
Ġche ck
Ġt it
Ġpot ential
ĠM arch
Ġwr ong
Ġbl ock
ĠSe pt
ĠDep artment
Ġhig her
du ct
Ġc red
n ers
Ġon line
Ġfoc us
Ġcons ider
on se
Ġed uc
anc ial
Ġ2 4
Ġwor ks
Ġrel ig
id ing
Ġp arent
Ġsh are
Ġc irc
Ġhe ld
o e
ĠM y
c ial
Ġw alk
Ġp red
Ġwe bs
Ġl ed
o le
ul arly
ke y
op h
Ġre ve
ĠD r
Ġst ay
ĠThe se
ove red
Ġst ru
Ġgo al
e es
ĠRepublic an
le ar
Ġris k
Ġword s
n s
ĠA ug
Ġso ld
Ġre view
Ġcont ract
Ġresult s
Ġre v
Ġserv ices
Ġlaw s
The y
Ġc ode
ĠM ich
Ġw ind
c il
Ġfun ction
ĠSy ri
Ġa ud
Ġtot al
Ġc e
Ġart icle
Ġa ge
Ġapp lic
ic ro
f ect
i j
Ġmin utes
p ut
Ġperson al
il ities
Ġany one
ur d
u ary
i ents
ĠJ une
as ons
it ution
a ut
Ġtarg et
Ġpr im
ate g
Ġear lier
__ __
Ġfav or
Ġd en
Ġexp ress
h aps
ang er
Ġde ad
Ġan sw
Ġpop ular
Ġcomp ut
Ġup d
Ġne cess
pr il
Ġr ate
Ġv ol
Ġtechn ology
ĠSt e
Ġres pect
ag ing
f er
u le
ap an
ĠS m
Ġen vironment
Ġ201 1
A d
Ġrece ived
Ġexpect ed
Ġh y
end s
Ġcre ated
Ġsur pr
Ġb ase
Ġant i
2 5
ĠJ uly
h am
v al
Ġproble ms
ud e
= =
Ġw ays
Ġp ort
ĠP ar
ip le
Ġpriv ate
u el
Ġincre ase
Ġsc ient
it er
re et
Ġannoun ced
e ch
Ġcom ment
al t
ĠD o
Ġcan not
Ġeas y
P h
act ion
Ġsh ot
is l
c he
ĠCong ress
Ġquest ions
Ġfor ce
et er
ater ial
Ġimp act
r ay
ĠM ond
itt ee
her n
Ġp ack
pl es
ĠP e
Ġe t
ĠF acebook
Ġl angu
Ġ +
Ġp ur
at ives
ĠG od
Ġinvol ved
av ing
A l
ĠE n
ĠAust ral
ill s
h ood
itt en
Ġd iv
E S
ues day
Ġexec ut
on st
Ġmod el
om b
le x
ct or
Ġspe ak
Ġst aff
Ġex act
Ġs en
Ġc ivil
it iz
Ġne arly
Ġty pe
i res
our t
Ġorig inal
Ġc ases
ok es
n a
Ġcont ent
Ġrelations hip
Ġ19 7
m e
Ġter ror
ĠGo ogle
ĠFr iday
Ġle ave
Ġresp onse
Ġins ide
Ġcap t
Ġ <
Ġf ans
ĠA pril
ll ed
Ġintern ational
Ġco ll
Ġa verage
Ġhe art
ĠR ed
Ġar rest
Ġbro ad
Ġus ers
ĠC ount
ot o
Ġw orth
Ġc ell
c ast
Ġl iving
T o
Ġso ft
Ġc al
Ġn ation
Ġkill ed
Ġreport s
Ġ201 0
ĠE m
Ġbec om
Ġ ur
Ġsour ce
ĠMond ay
re l
ĠT uesday
Ġsub ject
A t
g ing
b it
Ġwork ed
ip s
Ġim medi
Ġest ab
b or
at ural
Ġresp ond
Ġass oci
Ġgl obal
est s
ell ig
j oy
ĠAmeric ans
6 0
Ġcl ub
it es
Ġch ance
Ġo il
Ġab ility
ĠA ct
Ġad m
Ġt akes
ĠP al
Ġde l
ĠP er
rough t
a el
op s
Ġwe ap
Ġpr ice
ĠJ apan
Ġdirect or
Ġwork ers
Ġter ms
olog ical
Ġro ad
Ġpubl ished
ĠWh ile
Ġph one
Ġt ou
Ġcol lect
Ġfin ancial
Ġdec ided
iz ing
Ġm id
ĠRuss ia
ĠS ome
he l
Ġm other
ĠW ed
os ition
Ġl ack
is es
Ġs qu
Ġdef in
r ain
ove mber
Ġg irl
Ġst ore
e xt
k y
Ġg ave
Ġ4 0
Ġbu y
Ġinfl u
ĠCal if
Ġhappen ed
Ġl og
Ġrequ ire
un t
ĠN ow
Ġe mer
Ġf em
Ġcap ital
" .
Ġfore ign
cl us
Ġcurrent ly
b ased
ĠO ff
Ġgo es
ĠS an
ĠB y
Ġsit uation
vert ise
ĠGe or
ov ed
Ġind ic
Ġoff er
Ġwho se
Ġ @
Ġm aterial
Ġl ives
Ġt al
Ġaff ect
m on
in o
Ġpl ans
E N
ough t
nes day
Ġar ri
ro wn
Ġmem ber
Ġp ict
ĠF eb
urs day
Ġpartic ip
Ġrec ogn
Ġturn ed
Ġev ents
Ġmet hod
ru ction
ĠJan uary
Ġnet work
ĠH ill
Ġteam s
Ġmeet ing
ĠS und
Ġb ank
Ġint rodu
Ġn orm
Ġsim ple
re ct
O ne
f ully
ĠIs lam
Ġh uge
ĠSept ember
O R
Ġ ill
Ġreg ard
Ġare as
ĠA g
ord er
ĠT V
Ġcou ple
Ġappro ach
ĠC or
Ġcare er
Ġc y
ĠAf ric
Ġde li
ĠG l
Ġr ace
ou d
Ġperform ance
" ,
Ġp age
es e
ĠM e
ĠN ovember
Ġto ol
ĠDav id
en ed
Ġf elt
Ġquick ly
l oad
Ġnum bers
Ġem ail
et y
Ġ2 1
Ġor d
Ġm is
ap t
Ġadminist ration
a ily
ĠWed nesday
a ur
Ġh on
Ġvict im
ĠE l
Ġv ia
Ġimpro ve
ĠP aul
Ġf re
ist an
o or
Ġeng ine
Ġte xt
Ġp ull
ch ie
Ġr ound
Ġbu ilt
ĠA ng
ĠEurope an
Ġp ers
ĠTh ursday
l in
Ġf ather
Ġl oss
orn ia
Ġ2 2
Ġd ig
Ġth ous
Ġh ttp
Ġprodu ction
ruct ure
av y
Ġb oy
Â Ń
Ġhe ard
Ġsec ret
Ġeconom y
Ġen joy
Ġtr ade
ĠAug ust
um e
âĢĿ .
d own
Ġwebs ite
Ġco ver
Ġreve al
Ġw ide
Ġbo ard
Ġm atch
ĠC ourt
Ġallow ed
Ġhand s
Ġsp ent
Ġtra vel
Ġl ower
Ġre pe
im ent
f ace
Ġinclud ed
Ġpo ll
ce mber
ĠOct ober
at ory
Ġleg isl
Ġne igh
or ters
Ġbeh av
4 0
Ġkn ew
us es
ĠS ch
Ġwant s
ict ion
b l
Ġto wn
ĠBrit ish
Ġse par
ight s
es tern
en ces
et t
Ġvis it
ĠCanad a
Ġget s
Ġper fect
Ġmove ment
ct ions
an ks
Ġtri ed
Ġc ause
ess ion
is hing
age ment
Ġst e
Ġfor ces
? âĢĿ
ĠSund ay
g est
Ġ }
Ġen s
W ith
en ing
for ce
A fter
ce ed
ra z
Ġatt ention
Ġpartic ular
] [
Ġb i
Ġve h
Ġb ud
Ġf ear
Ġpop ulation
Ġvar ious
Ġre ach
Ġlook s
ĠU K
ĠCalif ornia
Ġb rought
ĠK ore
Ġl ink
Ġv o
ib ly
Ġ2 3
S h
ur ning
ar ily
Ġprev ious
ĠI S
Ġm ention
ĠRuss ian
Ġmor ning
) ;
ide red
Ġset t
' d
Ġgrow th
Ġf air
und red
Ġpro gress
Ġfe ll
se qu
y ond
ĠC ont
A L
Ġs ong
all ed
c le
ĠS w
Ġtr aining
Ġs ize
ĠQ u
ĠDe cember
ak er
ident s
2 00
Ġcont act
h old
c ies
Ġdem and
ĠBl ack
led ge
Ġim age
Wh ile
Ġr ac
Ġlead er
Ġh or
f ield
Ġrul es
---- ----
m a
i am
Ġpre p
Ġl iber
ec ause
ĠH er
Ġh ot
Ġse arch
Ġ ess
o o
ific ation
ĠP ost
g round
Ġc itiz
ĠSt reet
Ġup on
Ġstru gg
Ġlat est
Ġind epend
c ome
u ments
Ġfeat ures
Ġco ach
in ks
ĠP ark
ond on
Ġf ast
Ġtalk ing
ĠJ ew
Ġadd ition
ar th
i ant
E D
ĠSen ate
Ġw ond
Ġst ar
sy ch
Ġex am
Ġcons idered
Ġspe ed
ra q
ic les
z e
Ġre b
ar ies
g es
Ġlevel s
ĠT imes
ĠP at
ĠCount y
Ġinvestig ation
Ġsl ow
ellig ence
O S
Ġcon duct
b ed
ĠPart y
Ġmed ical
Ġm ach
im ately
ĠK ing
f l
Ġa chie
om p
Ġlangu age
atur day
Ġc ard
Ġcrit ic
u k
Ġs ort
ĠCent er
A C
ĠT ex
Ġs n
ĠInd ia
Ġp en
p s
Ġp aper
ap h
Ġ200 8
Ġu nd
T r
Ġparent s
ys is
U S
Ġsex ual
Ġsystem s
v ent
op e
Ġpri or
et h
w o
im in
Ġdo ll
Ġwr itten
p ir
Ġsp okes
il le
Ġbo x
Ġsee k
un k
Ġs ens
Ġdoc ument
e ared
Ġincre asing
Ġhe ar
ig r
Ġse ven
Ġd raw
ĠMus lim
Ġeff ort
at form
ru ary
Ġs on
Ġjob s
id ge
9 9
ĠI ran
as c
I T
Ġcons erv
Ġext reme
he t
Ġprev ent
Ġlear n
Ġser ious
in ing
u it
Ġreg ul
Ġr ange
Ġviol ence
Ġ ...
Ġe ight
r ast
ĠI raq
Ġb ott
ĠM ark
Ġcomplete ly
Ġsur ve
our ces
u f
Ġ200 9
ro om
Ġin n
Ġmess age
Ġcon c
Ġob v
Ġinterest ing
Ġopportun ity
Ġsc reen
it ch
reed om
Ġcl imate
ab or
e ff
Ġmajor ity
Ġpartic ularly
Ġdou b
Ġj ournal
Ġdes pite
S he
an ced
Ġclaim s
ĠCh ar
ic o
ĠR om
Ġansw er
an i
Ġsoc iety
ĠK e
ĠL ondon
h a
Ġdef ense
Ġcar ry
I C
ent ially
Ġgu y
am ing
ĠDon ald
Ġext ra
Ġattack s
Ġrequ ired
is ions
Ġbig gest
2 2
vertise ment
ren ch
Ġexact ly
Ġp aid
ens ion
ill ed
ĠE ast
Ġ â
O P
at ter
Ġexper ien
ĠM ore
Ġare n
ly ing
Ġmod ern
ines e
uc lear
Ġrem ain
Ġqu arter
i ers
Ġoffic ers
Ġh undred
Ġex cept
Ġc ross
ib r
Ġt able
s et
Ġpract ice
Ġn atural
ut ions
Ġm iddle
in ally
Ġcertain ly
ĠS aturday
Ġd ro
Ġst ories
Ġ2 8
Ġ2 7
Ġproduct s
os es
Ġhist or
Ġg as
Ġlook ed
Ġsomet imes
Ġsur v
t r
m p
n ces
Ġst uff
ur t
Ġsc ience
Ġr out
Ġfin ally
er c
ĠN et
u x
Ġter m
Ġus er
Ġsum mer
Ġmov ie
Ġbl ood
Ġcommun ic
osp ital
Ġchang ed
Ġl ay
Ġon es
Ġlead ing
Ġdescrib ed
Ġa w
Ġim ag
av es
ous ly
ĠFeb ruary
ĠS and
Ġpr ison
Ġcon vers
Ġdet ails
Ġstart ing
Ġqu ality
Ġocc ur
Ġshow ed
Ġn amed
Ġp an
ad d
Ġg iving
h ib
ĠS pe
Ġrem ains
ic ks
Ġreg ion
u ing
Ġprov ided
Ġcost s
ĠMc C
Ġu lt
ĠS oc
Ġdam age
Ġd anger
ak ers
Ġm ob
Ġch ief
Ġpo or
augh t
pp er
Ġp ath
Ġeduc ation
Ġmult iple
ar i
Ġcontin ued
Ġgrow ing
Ġdem onst
ĠM or
ar r
en ge
Ġpart s
2 4
ĠT H
Ġ *
ĠI nt
Ġwrit ing
Ġcom ments
Ġm ent
Ġ2 6
Ġmain tain
Ġsaf e
Ġass ist
Ġthink ing
ĠC he
n y
ĠRepublic ans
N o
ĠE ven
Ġpur p
in ary
Ġrequ est
Ġwr ite
Ġf ix
Ġit em
Ġp urch
ĠDemocrat ic
Ġd ied
id a
ĠD es
ĠC oun
Ġread y
Ġwould n
Ġimp lement
Ġincre ased
Ġcult ure
A M
m it
Ġeff orts
ab les
Ġvot ers
ag o
Ġc amer
f ort
co in
Ġread ing
Ġm ill
ĠS er
im inal
Ġus ually
Ġcall s
Ġsp ot
Ġf ile
Ġeffect s
Ġper haps
ĠG ener
op er
F L
Ġal one
ĠF irst
Ġal though
Ġto wards
ĠLe ague
Ġcons ist
Ġgu ys
ĠTex as
Ġstand ard
Ġse lect
ĠB ill
al y
ĠMich ael
Ġdirect ly
Ġbe yond
ar ian
Ġce le
ĠCh inese
Ġsub st
Ġpl atform
Ġ( @
b an
y l
Ġh ous
Ġspe ech
Ġreal ity
us ing
it ute
il es
Ġk ids
ic ated
ĠJ ames
Ġav oid
Ġthrough out
Ġfoot ball
ĠT ur
e gr
Ġstud ent
I m
8 0
Ġcould n
Ġimmedi ately
row d
Ġun f
Ġinclud es
Ġcon cept
Ġcho ice
Ġcent er
Ġro b
Ġsc ene
Ġadd itional
Ġcomple x
Ġrec omm
Ġchall eng
f ord
Ġw ife
Ġcl os
ĠC ons
Ġrese arc
Ġep is
z z
ĠN e
ĠM on
Ġt ro
an ch
B I
ĠMin ister
he st
Ġdesign ed
Ġcor por
Ġs le
Ġrem ember
Ġsaf ety
Ġsoft ware
ĠInd ian
ĠâĢ ¦
ou l
Ġg one
s p
Ġse ll
w ise
Ġto ward
Ġc ast
Ġag ency
Ġ il
Ġoffic er
Ġt en
Ġfig ure
d e
Ġpie ce
it or
ac hes
Ġbr ain
Ġ ver
ast ic
ĠJ ack
Ġdeb ate
ag on
Ġthous ands
Ġcoun ter
A ll
air s
ress ion
Ġop in
Ġs we
Ġa head
ar a
ru pt
Ġrel ative
port s
ic ient
om en
Ġlet ter
ad em
ur g
st on
Ġrece ive
im um
Ġpress ure
ir th
N ow
Ġbl og
il ies
amp ions
Ġmov ed
Ġla unch
2 3
Ġ >
Ġappear s
Ġs il
Ġpass ed
Ġo ption
ĠB o
Ġst age
ĠPl ay
Ġcle an
.. ..
Ġpre c
R e
Ġ6 0
ate ver
m en
ol ute
ĠI I
Ġproper ty
Ġ ut
Ġhelp ed
ro y
Ġdri ve
Ġalleg ed
ĠApp le
o es
Ġtw e
Ġdis app
it ation
Ġt our
Ġmean ing
ĠG reen
Ġdo g
Ġro ck
Ġcr is
j ust
Ġsus pect
ĠAss oci
Ġd ate
ĠR ich
ĠDemocrat s
Ġmov ing
Ġsc ore
Ġorgan ization
augh ter
Ġcond itions
Ġtou ch
Ġs at
Ġd ark
Ġcomm and
ĠThe n
Ġre asons
Ġbud get
Ġ ign
Ġp ark
? "
ber g
Ġn uclear
Ġmy self
Ġhapp y
Ġdev ice
Ġn om
it ness
Ġdiffere nce
Ġde g
Ġmay be
Ġbegin ning
ri ef
Ġn ature
Ġfail ed
Ġcop y
Ġcharac ters
Ġcomput er
Ġ x
Ġf an
n ew
m ore
Ġenc our
am b
ĠS erv
ĠS im
Ġa im
Ġtit le
Ġcomp ared
Ġle ague
Ġw all
Ġb attle
ĠM art
ock ed
Ġest im
Ġcol lege
er ve
O T
ĠSt ar
w ood
Ġey es
y an
Ġsh own
iv ity
Ġcent ury
ĠSu per
ĠEng lish
Ġpower ful
ĠV al
ĠD ay
Ġlim ited
Ġy es
le ase
Ġb al
Ġcont ribut
Ġpos itive
Ġfor ced
Ġnecess ary
Ġb and
Ġsc he
Ġref er
Ġcandid ate
ain t
Ġst ra
Ġbook s
Ġdis p
Ġtr ust
Ġlarg est
ĠF rench
ci ent
our ce
Ġconf erence
ĠH ere
ĠR ober
Ġar ch
Ġnot e
ent y
Ġanal ysis
Ġsp ending
Ġpresident ial
uf act
Ġcitiz ens
ĠO f
Ġs al
Ġschool s
ig ration
ĠSyri a
Ġh ar
Ġth row
Ġa ware
Ġme ant
Ġexecut ive
ven ue
Ġevent ually
Ġfollow ed
Ġphys ical
Ġfe ature
a ud
ĠB en
A D
or ks
Ġf irm
Ġtreat ment
Ġc rowd
Ġstre ng
Ġconf ir
Ġm ix
ĠW ind
Ġcor rect
or ney
ĠT or
Ġrelig ious
Ġeas ily
Ġgr ad
Ġp us
Ġ2 9
Ġaut om
Ġc at
Ġco ol
Ġfam ilies
Ġes c
Ġ19 6
Ġil leg
ĠD is
Ġd raft
a res
2 7
Ġact ions
Ġover all
ress ed
r ated
Ġallow s
ĠM ex
b and
Ġg ives
ĠA ir
M y
bo ard
Ġfe ed
ĠÂ £
c raft
Ġyour self
Ġsus p
et ro
) :
c ul
Ġapp eared
er o
Ġdet ail
b um
Ġsm art
Ġinc ome
A P
Ġanal y
Ġsign ed
ir ing
ub e
Ġide as
Ġcent ral
en cies
Ġsen ior
ĠGo vern
Ad vertisement
ĠB el
Ġfre qu
Ġweap ons
I s
B e
Ġdis play
Ġan g
Ġprom ot
Ġn ice
k en
Ġcred it
Ġdec ades
Ġpolit ics
B y
Ġcr ime
Ġp sych
Ġus es
p re
ĠB re
Ġdo or
Ġdis e
Ġun ique
ĠIntern ational
D on
Ġal tern
A ccording
Ġs ales
Ġd rop
Ġl if
ut y
Ġdevelop ed
ch an
Ġcustom ers
Ġbenef its
Ġconf lic
Ġrel ated
ur ance
Ġcris is
N ew
ĠS chool
Ġm ist
Ġpred ict
le ments
Ġnot ed
ĠAustral ia
res h
i able
Ġtr uth
ĠE U
Ġgo als
er ry
ĠC ap
Ġindividual s
Ġch arge
Ġcontin ues
Ġbe aut
ĠUn ion
on ents
ĠE arth
ĠAr ab
Ġchall enge
3 5
Ġr ap
Ġapp arent
Ġst o
ĠAng el
ĠSm ith
ite ly
n own
p art
in n
Ġproject s
Ġl ic
Ġpe ace
in y
Ġmeas ure
m ar
4 5
b ox
ĠPol ice
Ġint elligence
2 6
Ġprev iously
ĠChrist ian
ĠGerman y
Ġfull y
Ġr ule
Ġman ager
Ġr ates
Ġadv ant
Ġbro ther
ot i
r s
Ġexp and
Ġcle arly
Ġl ines
Ġre form
Ġsuccess ful
I D
Ġhigh ly
ri age
Ġlarg er
Ġem b
ch ange
E C
Ġtr aff
Ġseem ed
Ġsp read
ĠCoun cil
Ġstra ight
ound s
Ġcr iminal
i ance
Ġmin or
Ġprogram s
ĠGeor ge
S ome
Ġinc ident
Ġres ources
O M
ic ed
ĠFr anc
ĠCom p
Ġgreat er
Ġprim ary
ow ers
Ġknow ledge
Ġstud ies
ĠT om
ant ly
in ated
wh ile
Ġsa ve
Ġke pt
Ġatt ract
ĠFl or
or ter
Ġem ot
Ġsp ir
Ġwe b
ate gy
Ġfe et
Ġcol or
Ġre ached
Ġr are
sec ut
E T
n et
ĠC r
lev ision
Ġar m
ĠIntern et
2 1
ĠH igh
e an
d om
ĠBro wn
Ġfavor ite
Ġpl aces
ol ic
Ġreg ular
se y
id ers
od ay
ĠA nt
w ide
Ġman ufact
Ġla un
ĠR ec
ve re
Ġs end
U n
Ġpre m
ĠD ef
Ġknow s
Ġshoot ing
Ġactiv ity
I A
ot a
Ġsour ces
ĠH am
Ġnorm al
Ġp un
ter m
ic ago
ic it
Ġfight ing
Ġstat us
Ġr ise
Ġvo ice
Ġown ers
Ġf ine
Ġca used
Ġclaim ed
lic k
Ġen em
qu e
Ġl iter
on ent
ĠGener al
Ġopt ions
Ġ200 7
b on
Ġint egr
ĠR ob
a ith
Ġsp end
oc ks
Ġc ities
eng th
ĠM ac
ĠU p
ĠG old
ro ll
Ġorgan iz
us ion
Ġend ed
v ille
Ġresearc hers
Ġcall ing
2 8
os h
Ġsh ut
Ġref lect
E O
il ed
2 9
Ġpr ices
âĢĿ ,
Ġal bum
ĠE very
Ġun s
Ġemploy ees
ĠF rom
Ġfem ale
ĠEng land
Ġwill ing
Ġv irt
Ġha ven
P ro
if ying
ww w
ol es
Ġra ised
ĠL a
1 00
Ġsupp osed
ro id
Ġj ump
u ana
Ġhapp ens
Ġadd ing
Ġpolic ies
Ġn ames
Ġcharg es
ad o
m ark
or g
Ġpro s
Ġtr ou
Ġbas ic
Ġconcer ns
rib ution
Ġtrad itional
iver se
Ġpl ant
A r
Ġabs olute
Ġac qu
Ġh ospital
Ġfund ing
Ġsl ight
Ġcom mer
Ġpat ients
Ġauthor ities
Ġpr int
Ġmin ister
ĠB ay
Ġcreat ing
um an
ĠM ag
Ġf reedom
ing er
k i
Ġme chan
Ġsc en
ĠA P
Ġsee ing
Ġst yle
N ot
Ġbe at
Ġgr and
. âĢĻ
Ġl ik
Ġst ation
ĠSc ott
Ġp ush
Ġbehav ior
ro l
Ġle aving
ij uana
ĠM o
Ġbe g
Ġb irth
Ġim pl
Ġact ual
se e
Ġens ure
Ġoff ered
Ġagree ment
Ġc ry
ĠFlor ida
ri an
Ġe th
r ont
Ġwa it
Ġ ir
ic a
on a
ĠHill ary
Ġpost ed
IN G
Ġ Ð
Ġweek end
r am
Ġgo ld
ĠM ost
Ġob ser
ac ing
Ġad ult
Ġg reen
Ġwe ight
so ft
al se
Ġdeter min
Ġreveal ed
ĠS un
Ġv ac
Ġmost ly
Ġapplic ation
Ġval ues
ĠWe ll
Ġprop os
ĠRe g
H ere
ĠA lex
. '
y a
Ġr ank
ĠB er
it ude
ĠA ccording
Ġad op
Ġestab l
p en
Ġrecord s
Ġey e
ear ch
ab y
Ġen force
ing ly
Ġbelie ved
Ġpict ure
ect ion
Ġb rief
Ġlear ned
Ġper m
S c
ĠL et
Ġstr ategy
Ġinst all
Ġapp l
ĠL aw
Ġcho ose
Ġm er
Ġcomm it
ign ed
Ġwond er
Ġd ire
Ġmass ive
ist ry
Ġqu al
p ri
h ttp
Ġdev ices
Ġpart ies
ĠCh icago
Ġlaw y
Ġw ild
ĠPe ople
Ġc ars
5 00
Ġarrest ed
ĠP ort
Ġm ount
Ġwh atever
ĠPh il
ĠFr ance
Ġw at
Ġprov ides
Ġstre et
Ġwh om
u ild
Ġass ault
ĠO h
ĠTr ans
Ġ ;
Ġask ing
Ġinflu ence
7 0
Ġjud ge
li ament
Ġl ose
c ont
Ġfeel ing
Ġoper ations
Ġprodu ced
Ġcrit ical
Ġtem per
O U
ĠSec ret
Ġneg oti
Ġm ission
ĠL ou
S A
c her
ĠB ush
Ġent er
Ġim ages
Ġconfir med
Ġshow ing
ĠSt ud
Ġdist rict
Ġrun s
3 3
Ġpat tern
Ġt end
p oint
Ġb order
Ġres idents
ri ption
Ġdeb t
How ever
Ġte ac
or ial
ĠComm ittee
Ġc ru
Ġopp osition
Ġcele br
ak ed
m ine
Ġdef end
u gg
Ġse ction
E L
Ġet c
ĠHe alth
Ġprodu ce
ĠW all
est ic
ĠComm ission
Ġdr ink
Ġindepend ent
ĠWh y
Ġbr and
Ġf at
ent ed
Ġbenef it
Ġc ore
ĠP ress
Ġt ick
Ġdig ital
Ġadv oc
Ġhe ro
ĠM od
ic ial
st e
Ġdoll ars
ce ll
ud d
Ġeffect ive
Ġsol ution
ro g
Ġinterest ed
ra v
Ġv ill
ĠKore a
ri al
Ġhig hest
ag s
t ies
Ġmem ory
Ġopen ing
Ġwor se
oc r
Ġlear ning
Ġrespons ible
Ġtri al
ĠM al
Ġthe ory
Ġk ick
Ġd aily
ĠS am
Ġoff ers
ĠPal est
ĠO ther
Ġrepl ace
Ġrest rict
Ġag reed
ĠOff ice
Ġte levision
ĠFranc is
ĠB ecause
Ġocc as
Ġm ur
ord s
n o
Ġinvest ment
E x
Ġtr ain
Ġtyp es
Ġf it
ĠW estern
icro soft
Ġv s
ill ing
Ġmill ions
Ġch air
Ġmil es
ic ians
ur ies
ci ence
et ty
ĠJust ice
i ation
Ġgener ally
Ġbas is
Ġprop osed
Ġche m
ĠM ike
ĠC up
The se
Ġhe avy
Ġexpl ained
C l
Ġ8 0
ĠB it
ĠO ur
ĠM il
Ġm ap
ĠD el
B A
Ġpart ners
Ġopin ion
I L
Ġdef e
Ġb ur
Ġd er
Ġon to
ĠA tt
i pe
Ġprot est
Ġassoci ated
ĠAd d
ak s
ĠN FL
Ġl oad
az ing
Ġm ale
ĠF ound
Ġbecom es
Ġre ject
ĠSec urity
Ġco al
Ġob tain
out hern
Ġdest roy
Ġadvant age
Ġass um
Ġannoun ce
Ġcond ition
Ġhundred s
r ate
Ġachie ve
ĠL iber
Ġopen ed
and er
Ġunderstand ing
F C
ĠJohn son
w in
Ġsur round
Ġ Ã
ad ing
com ing
ort hern
el ine
Ġinit ial
ic ip
a e
v est
Ġsle ep
r ig
Ġmar riage
Ġsh ip
Ġman agement
o ly
od es
ĠB ig
Ġth us
ĠWind ows
Ġb orn
Ġbecom ing
o om
9 0
Ġeas ier
k nown
ĠG reat
Ġlegisl ation
Ġcontro vers
Ġun like
Ġelect ric
ĠM any
Ġcamer a
r ad
Ġacc used
ber t
Ġr at
Ġlim it
Ġphot o
we ll
Ġneigh bor
Ġdou ble
Ġ ice
Ġspec ies
Ġs pl
Ġsh ared
Ġjo in
wit ch
Ġilleg al
Ġ3 1
Ġ200 6
Ġmach ine
Ġser ved
S T
Ġextreme ly
Ġact ive
u pp
ĠL ab
Ġdoc uments
Ġser ve
ĠJ er
l ant
ĠIslam ic
Ġfr ame
Ġstri k
Ġaud ience
Ġloc ation
ĠD ist
Ġscient ists
Ġbott om
Ġvictim s
Ġ3 5
le vel
Ġwe alth
Ġprofess ional
Ġredu ce
Ġres ist
Ġbelie f
M r
Ġn ine
âĢ ¢
Ġwin ning
Ġmar ijuana
or row
Ġneg ative
Ġsol id
Ġcommun ities
Ġreturn ed
ĠA M
ortun ately
ĠU k
ĠAr t
if ul
ĠInst itute
Ġinc red
ear s
C on
Ġb ed
G B
ĠP M
Ġch urch
Ġdep artment
ĠSand ers
Ġvict ory
3 2
Ġpurp ose
Ġr an
re y
ĠComm un
ir gin
Ġveh icle
Ġleaders hip
ol f
Ġintern et
Ġam b
Ġ9 0
P A
C C
Ġmob ile
ĠH all
Ġb omb
ist ics
Ġinst ance
i pped
Ġsepar ate
land s
gh an
Ġexist ing
Ġnot ice
Ġhe aring
Ġexpl ain
Ġd ie
Ġdoub t
B S
Ġf aith
Ġte ach
Ġepis ode
Ġwatch ing
ĠY our
Ġcom fort
at ically
ĠCanad ian
Ġnot es
ĠB ank
l a
Ġrad io
Ġf resh
Ġput ting
Ġview s
Ġsupp orters
== ==
Ġconserv ative
m iss
Ġp urs
Ġarg ument
____ ____
Ġun c
ĠIn c
ĠF in
ĠE v
h ouse
Ġlaun ched
Ġapp eal
Ġitem s
ac ity
ili ar
Ġcomm ittee
sc rib
z a
om as
Ġdefin itely
Ġdanger ous
m et
i os
Ġco verage
ar io
Ġdire ction
Ġcharg ed
wh ich
Ġfl oor
as y
P S
res p
w orks
Ġiss ued
ĠCar ol
ĠCh urch
Ġdrug s
ĠO ver
ĠM ad
ĠF ox
Ġs un
Ġm ax
Ġm icro
Ġcompet ition
Ġback ground
Ġt ask
Ġst ated
Ġtre nd
Ġtraff ic
ĠF BI
ograph y
Ġcommer cial
v ention
ill er
ĠD irect
Ġsp oke
Ġh arm
Im age
Ġsuggest ed
Ġst ructure
Ġtrans fer
Ġsit es
Ġh us
in ct
ĠS ince
and om
Ġdec ade
Ġn orth
ĠL ike
Ġlab or
Ġrest aur
Ġrepe ated
ampions hip
z en
Ġre act
Ġc ards
Ġanim als
ĠG ame
go ing
Ġno vel
ĠS l
ur b
ct ors
Ġd aughter
Ġdri ving
Ġcl osed
Ġwor st
Ġentire ly
4 4
Ġcont ain
ant ed
ĠBrit ain
rib ute
Ġd ed
i pp
Ġdri ver
g ency
Ġdise ase
Ġtell ing
Ġsmall er
i h
Ġdisc overed
ĠW il
om an
N A
ak istan
Ġn or
Ġref ere
il ing
ĠL os
b ut
Ġh ack
Ġf alse
Ġc ash
Ġconcer ned
Ġpl ays
Ġsur face
ĠP ri
ĠQ ue
f erence
! âĢĿ
ad y
Ġsupport ed
A meric
3 6
Ġtool s
Ġcomp ar
Ġtrans port
Ġexper iment
se mb
ĠCh ris
Ġfind ing
ul ated
Ġc ateg
oy al
te red
e qu
Ġas pect
Ġbusiness es
ul f
ann el
s erv
Ġple ase
Ġfar m
Ġold er
ad a
Ġactiv ities
Ġrequ ires
s pe
ĠJ ones
Ġg ay
Ġ7 0
az on
Ġstreng th
n ight
E M
Ġins urance
ĠM at
ph one
Ġwe l
Ġcon sequ
Ġlarge ly
Ġmur der
Ġc aught
ĠU N
and on
he m
Ġcandid ates
Ġex erc
ibr ary
ĠIsrael i
Ġallow ing
Ġann ual
h ow
Ġtest ing
Ġbl ue
ĠA re
ic i
Ġstr ateg
Ġra ise
oss ible
ĠK en
ĠRober t
Ġst ock
o very
ic y
Ġdec isions
Ġacc ur
Ġcont ext
ĠS up
Ġf uel
ar ant
k ins
ĠUk rain
Ġconcer n
Ġbelie ves
os ure
Ġaff ord
B l
O L
Ġconst ruction
iz es
Ġtr uly
d o
ĠA c
r ick
Ġjust ice
Ġgener ation
igr ants
Ġhigh light
ĠM iss
7 5
Ġpres ence
ĠJew ish
i us
Ġun it
3 8
ang ing
ĠAfric a
Ġgu ess
Ġw itness
Ġhold ing
it able
Ġestab lish
ĠT y
Ġplan ning
Ġl ength
ĠG ree
ĠT re
ĠAfric an
Ġpl aced
Ġref uge
ĠS il
ĠAf ghan
ck now
Ġc atch
N N
Ġse qu
ĠAssoci ation
Ġtell s
l or
Ġsc ale
an cy
Ġspokes man
a it
Ġg e
ĠP C
Ġr ough
Ġatt end
Ġs an
cept ion
Ġcell s
Ġjo ined
Ġt im
Ġmention ed
Ġinterest s
Ġab use
âĢ ĺ
Ġhas n
pect ive
ĠJ im
Ġinit i
n el
Ġenforce ment
3 4
Ġintrodu ced
Ġdeli ver
Ġconflic t
ĠG OP
r im
S P
Ġk id
oll y
M ore
ĠM icrosoft
Ġmiss ing
Ġprov iding
Ġwa iting
Ġcan cer
Ġupd ate
Ġph il
b re
Ġrecomm end
av a
ĠP re
Ġestabl ished
ĠV er
ĠM er
Ġe at
Ġocc up
ĠAngel es
ĠJ eff
ocr acy
ĠY es
Ġrem oved
Ġ200 5
in ter
# #
ĠFr ank
Ġoff ensive
ĠInst ead
Ġinj ury
Ġdiscuss ion
b our
ĠF ore
Ġsp orts
Ġoper ation
Ġdown load
Ġf ant
Ġtrans l
Ġuse ful
Ġconvers ation
Ġhom es
Ġnews p
ĠC EO
Ġass ess
Ġs outh
Ġc ook
v ant
ĠG roup
Ġban ks
ron ic
Ġsto pped
Ġobv ious
Ġmeas ures
Ġmod els
D A
Ġfour th
ĠSt ep
form ation
ĠCon st
ic ations
ont o
is ation
ic on
se ason
Ġ201 8
Ġgirl s
Ġfil es
ĠLou is
Ġb ul
O ur
Ġst ick
C H
wh at
L e
Ġman aged
ul a
ĠPalest in
app ed
Ġfig ures
ot ed
Ġident ified
c ks
um n
ro s
az ine
e y
Ġgr aph
Ġfin ished
ĠLe g
Ġfund s
l ig
ĠP akistan
Ġset ting
Ġconc lud
m ail
Ġcomm itted
ĠJ ud
Ġpre fer
ĠMex ico
Ġha ir
Ġsk ills
ĠT im
Ġappro pri
Ġfoc used
Ġspir it
Ġarri ved
Ġve ter
om s
and a
Ġhous ing
Ġkeep ing
Ġthere fore
ĠV irgin
Ġa cknow
Ġdet ect
Ġpart ner
ĠR ock
Ġex clus
ĠAnd roid
ĠTH E
ĠK h
ens es
it z
ul ate
Ġear th
5 5
Ġt ough
ĠS al
ĠJapan ese
re al
Ġrelative ly
Ġ200 0
ĠSup reme
ig an
up s
Ġfeel s
Ġident ity
Ġother wise
pl ace
4 8
out s
Ġsurve y
3 7
ĠR yan
Ġprotect ion
! !
Ġex change
ow l
Ġown er
itution al
w ing
Ġstep s
Ġhus band
Ġtri p
ĠM P
Ġtwe et
D es
ic ation
Ġslight ly
Ġconnect ion
ĠAr my
is f
Tr ump
ĠM ont
ĠGovern ment
ĠPro f
Ġwe ak
ĠM et
oc al
e ah
Ġe lements
ĠIn ter
Ġcirc um
k in
Ġstri ke
ĠRich ard
Ġcl ick
Ġdef ensive
Ġphot os
" :
Ġme re
im b
ver se
ag n
** **
dd en
Ġg ain
Ġdep end
Ġcol lection
Ġf le
Ġkill ing
Ġro ll
Ġcor ner
u ct
uck y
Ġsuggest s
igh ter
ĠMart in
Ġag gress
ony m
hen s
anc ing
od ies
Ġgu ard
Ġg ender
Ġcomm ission
ĠAl though
ĠCol lege
r d
m akers
Ph oto
Ġment al
Ġam azing
pro f
Ġd at
am m
r ange
P l
Ġplan et
ic ide
ĠI r
Ġbig ger
Ġfail ure
ren cy
ĠS ur
ĠD ec
Ġsupp ly
ĠJ ose
Ġstart s
g ar
Ġs ides
Ġrem ind
Ġfam iliar
ĠO ut
re es
hed ul
Wh y
Ġsu st
Ġspe aking
Ġspe ct
Ġtal ks
Ġhappen ing
u ate
ĠN or
Ġorganiz ations
Ġh ate
Ġar my
Ġwind ow
gy pt
ĠS ub
R A
ĠTe am
ĠJ oe
Ġtax es
Ġn one
3 9
Ġplan ned
Ġthan ks
Ġdec ide
Ġst ruct
ĠG ood
Ġsu dden
ĠM ary
Ġw ish
u ke
w ith
g ers
G o
an ia
Ġcar ried
Ġcre w
âĢĶ âĢĶ
Ġapp oint
4 7
is er
ag ues
id ering
Ġhelp ing
Ġreg ist
ost on
il s
Ġmult i
Ġa ward
Ġstand ards
Ġ3 2
Ġenvironment al
Ġrev olution
yn am
el ess
ĠTh omas
ĠF ire
L ast
Ġsecond s
ĠRes earch
Ġsc ript
Ġscient ific
Ġimm igration
] .
Ġstand ing
ĠThe ir
ĠB ern
Ġdom estic
Ġbe er
ĠWe b
Ġqu e
ars h
a wn
m as
oc ol
Ġp air
ĠAl so
ad ium
ĠSecret ary
st ream
Ġac adem
ut ers
Ġvar iety
Ġ4 5
Ġmark ets
Ġco ld
Ġdro pped
Ġter rit
Ġaccount s
p m
ĠAt lant
Ġfil ed
ĠU s
im al
4 9
er ous
Ġbal ance
! "
Ġimp ossible
y m
h i
Ġt ack
r un
Ġinter act
Ġneighbor hood
Ġdeg ree
an o
Ġturn s
Ġposs ibly
Ġoper ating
a ven
Ġapp re
Ġaltern ative
ol it
Ġun ion
Ġpr inc
Ġvot es
Ġs ch
Ġb atter
T C
it ect
ol a
Ġprofess or
g n
Ġincreasing ly
Ġv ul
ĠServ ice
Ġfell ow
H L
Ġapp ly
Ġcut s
ĠT er
Ġhon est
Ġdevelop ers
ĠPr ime
Ġser ver
Ġun ivers
ĠSyri an
Ġapparent ly
Ġl ived
Ġchang ing
ru it
Ġwor ry
ĠCarol ina
rast ructure
R ead
Ġtest s
Ġun its
ĠT wo
ack s
Ġr ich
l o
ab b
ill a
Ġhum ans
ar ks
ĠFound ation
ict ed
c ious
Ġag encies
ad ed
ad er
ore s
Ġsound s
Ġtw ice
Ġult imately
Ġl osing
Ġauthor ity
Ġsold iers
ste in
Ġphil os
ĠM os
as hed
Ġanim al
ĠIm ages
Ġsc hedul
are n
Ġcorpor ate
Ġhealth y
Ġpay ing
Ġabsolute ly
Ġcol le
Ġat h
ay er
Ġequ ip
ob by
Ġdevelop ing
Ġse a
Ġclos er
Ġm ut
f e
Ġinn ov
ĠP et
ĠT ime
Ġregard ing
Ġseek ing
v is
rel ated
i ams
Ġexp ensive
k a
Ġsk in
Ġposs ibility
F rom
Ġbeaut iful
Ġrelig ion
c oh
ĠD en
Ġap art
ĠCent ral
ans ion
Ð ¾
Ġexper ts
Ġy ards
Ġfund ament
rou d
Ġsol ar
Ġwrit er
Ġfl ight
Ġv ast
ĠDist rict
Ġde ploy
ĠL ast
Ġad just
Ġintern al
Ġt ast
Ġimag ine
ĠP eter
ĠUS A
ĠU nder
ap ers
Ġapplic ations
ĠJ on
Ġv ision
ĠFrancis co
olog ies
ĠTor onto
Ġs itting
Ġun less
Ġtr ail
l ook
Ã ¡
ĠPl an
Ġ200 4
Ġhe at
os en
ĠJ es
Ġrespons ibility
st ate
ist ed
Ġcap acity
E ven
ĠM iddle
Ġp it
Ġer ror
4 6
Ġsy mb
at ures
Ġar ms
Ġc overed
Ġf ol
o ch
Ġfam ous
Ġfor ms
i ot
Ġp il
p ire
Ġg ar
idd en
Ġun iversity
Ġgu arant
ĠC amp
Ġt ight
Ġpresent ed
3 1
ain e
ĠB ur
Ġear n
ĠE gypt
ort ion
en ced
Ġconv ention
ov ing
d en
Ġsurpr ise
Ġatt orney
Ġelect ions
Ġestim ated
ĠP ublic
ĠP ut
Ġf if
O f
u zz
Ġte en
Ġveh icles
ĠA ri
Ġint ended
ĠAm azon
rib le
Ġinst it
I M
Ġhelp s
Ġoccur red
Ġo dd
Ġstre ets
Ġr id
Ġ= >
ĠB oston
J ust
Ġdeter mine
Ġsp ort
ress ive
Ġexper t
ĠBit coin
le ts
p ret
I V
w ar
Ġhy p
= "
Ġcons ult
Ġbro ken
ĠM ur
u nder
Ġf ired
ro ad
ĠS T
i as
C A
Ġfl ow
ust er
Ġdom in
Ġt on
g u
ĠS ol
por ary
Ġsh all
Ġtro ops
L et
ur ation
ĠTh ose
all s
Ġpie ces
ĠG al
ter day
Ġprep ared
ĠCh ief
h and
Ġp et
ed er
Ġn ar
Ġrap id
ĠC ath
Ġloc ated
p erson
ĠM ass
ĠSoc ial
Ġcon clus
Ġb aby
Ġbring ing
Ġpro ve
or age
ĠJ o
Ġspecific ally
Ġpot entially
Ġse ctor
N D
Ġse lling
Ġgovern ments
Ġsc r
Ġj ail
ĠO nce
Ġr andom
ĠAn y
Ġequ al
ĠPro t
anc he
Ġf aster
Ġhe av
Ġbo ost
I P
Ġpropos al
Ġfact ors
ĠL at
Ġcl in
Ġpl enty
Ġequip ment
Ġcoun cil
Ġer a
ĠS pr
Ġinf rastructure
Ġst ress
Ġst ars
use um
ĠJ ournal
ĠVirgin ia
cl ass
ph as
end ment
ve y
Ġvot ed
Ġpro secut
Ġb reat
Ġoff ering
Ġcar bon
Ġexpress ed
ot y
ĠR ub
Ġbro ke
Ġvul ner
ĠPar is
Ġcl ot
Ġrul ing
ĠF ederal
Ġret ail
Ġref used
Ġelect ed
in ent
Ġcomb at
ure au
Ġdr am
ĠGu ard
Ġse asons
Ġsec ure
Ġconduct ed
ĠR iver
U p
Ġ3 6
an ish
Ġchalleng es
ĠL ee
in i
E very
Ġmethod s
Ġrem ove
Ġpoint ed
ce an
Ġweap on
n oon
Ġrem ained
ĠIs land
ĠO pen
ĠAustral ian
Ġpr ime
Ġm aster
( )
ĠS ant
our s
, '
Ġpos itions
Ġtr ig
Ġcritic ism
is her
ĠC ru
Ġd in
D o
ĠMed ic
ĠP lease
i pping
I ON
Ġs ale
ock ing
Ġcult ural
Ġwere n
Ġsignificant ly
iss ions
ol ved
Ġb row
Ġorig inally
ĠM el
ĠD uring
Ġaffect ed
F irst
Ġappear ance
Ġfac ing
A b
Ġgreat est
Ġt ourn
g en
Ġfin ish
Ġst ret
Ġyou th
Ġc as
Ġpercent age
ĠWh o
Ġdetermin ed
Ġsign s
Ġinvol ve
ĠF e
ĠPh oto
Ġthan k
on om
Ġb ought
et ic
C L
Ġte le
Ġ5 00
ĠC ur
Ġchem ical
th at
Ġsh ape
stand ing
Ġreg ime
g l
ĠS ing
Ġg rew
ash ion
Ġv ir
Ġrem aining
ri e
p ired
ĠSte ve
Ġmin imum
Ġind eed
ĠS aud
EN T
O W
h t
ly mp
Ġd ream
ĠB oth
S ince
Ġm arg
ce l
Ġher self
Ġmod e
Ġvot ing
Ġobv iously
re ens
ly n
ri er
ĠCol or
ĠFor ce
Ġredu ced
s en
Ġrecord ed
Ġarg ued
Ġ199 0
Ġre venue
Ġt act
Ġw ood
Ġwe aring
Ġlead s
ord in
Ġpolit icians
Ġh un
ĠN ov
igh ters
Ġpl us
Ġcont rast
Ġpurch ase
Ġs witch
Ġh urt
ĠR em
Ġhand le
Ġth r
Ġcon cent
Ġpro ced
Ġag ent
ĠWill iams
ĠR o
Ġappre ci
al ing
Ġexperien ced
T H
Ġexc ited
Ġhttp s
Ġvide os
c ol
Ġsupport ing
coh ol
Ġsurpr ising
y r
Ġmin ute
Ġident ify
Ġconsum ers
Ġexpl os
Ġbel ong
Ġcons idering
ow nt
ĠH aw
Ġair craft
Ġpull ed
Ġa id
Ġdiffere nces
ĠF ree
Ġbas ically
ĠCons erv
Ġre nt
ĠP ac
Ġgl ass
Ġafter noon
g ment
Ġsh ift
Ġdep art
Ġend s
Ġt urning
> >
Ġb ound
Ġfil ms
ĠB ook
Ġpros pect
ess ions
Ġsp ring
ru ption
ed ia
ap ter
og ue
I G
Ġtre ated
ĠChar l
Ġacc ident
t op
Ġm ort
ll er
0 1
Ġlist en
od d
Ġse at
Ġmot iv
Ġcomb ined
, [
Ġser iously
Ġpriv acy
Ġconst ruct
Ġeven ing
Ġopportun ities
ĠR ad
D P
Ġstrugg le
Ġpan el
Ġenem y
Ġlot s
Ġ19 5
ĠP ower
ar p
Ġcomple ted
he red
Ġvis ual
Ġtalk ed
ĠD aily
app ing
Ġhop es
Ġpass ing
Ġapp s
H is
Ġc art
os ite
Ġi Ph
l ife
Ġcal cul
Ġwide ly
Ġemer gency
-------- --------
An other
Ġsu it
k et
h ab
Ġe lement
or al
ens ions
Ġ id
Ġp owers
ĠSh ow
ĠB BC
ĠO lymp
Ġpl ants
Ġb urn
Ġdisc l
Ġsub s
0 5
Ġliber al
ĠH ol
Ġa st
as p
al ed
Ġopp osed
ang ed
u ous
ĠR el
ĠSp ace
Ġpro ceed
Ġcopy right
ut s
Ġadv ance
uc ks
Ġfact or
Ġ200 3
Ġdist ance
ĠM att
ra ud
ive red
ĠPro ject
om pl
Ġattempt s
ok ing
Ġdis miss
W ell
L E
pl om
Ġtrou ble
Ġcoll abor
Ġt un
S p
ĠR oad
ribut ed
ab ilities
Ġz one
ĠJack son
Ġup gr
Ġdef ault
Ġrep orters
I nd
Ġre action
m m
Ġfr ust
ob e
ra wn
Ġh ol
Ġst orm
Ġwrit es
p et
m osp
P D
st s
Ġtyp ically
id el
ĠT oday
Ġp ages
ain ts
ĠM em
Ġinst ruct
resp ond
Ġref erence
Ġb odies
Ġpack age
un ction
Ġmat ters
y th
l ines
Ġden ied
er ved
m ond
P e
Ġdisapp oint
ne ll
ĠG et
Ġqu ant
Ġexpl o
tern al
ĠI N
Ġqu iet
Ġb att
ĠN AS
Ġent ertain
Ġopt im
ad ow
Ġrespond ed
Ġappro ved
ĠTur key
ed s
Ġdis s
Ġsat isf
Ġbroad cast
6 4
Ġinstit utions
Ġstand s
ap ed
Ġad vert
Ġset s
ĠDirect or
es ters
f ree
c are
Ġse m
Ġel imin
9 5
Ġre new
ĠOh io
Ġval id
Ġse vere
Ġs ac
is ters
ĠP enn
Ġcap able
ĠWill iam
T V
Ġm al
Ġ200 1
at o
Ġcapt ion
Ġp itch
ed d
est ival
raz y
Ġl oved
Ġ //
Ġtechn ical
Ġcl oud
Ġg iant
Ġtrad ition
A m
Ġprom pt
ell y
Ġconf ident
Ġconf idence
Ġcan n
Ġnum erous
ab in
Ġreported ly
6 5
Ġfac es
Ġb ull
ani el
Ġtrans ition
Ġwe ather
z er
h ost
ĠAfghan istan
Ġcre ation
it a
Ġf ly
Ġpers pective
Ġun able
ĠLab our
] ,
ĠSy stem
Ġfor get
r ant
ĠY et
C ont
p ass
as tern
ĠS qu
Ġco oper
em ploy
Ġsubst ant
P R
Ġc raft
Ġsuff ered
Ġviol ent
ĠMed ia
Ġco ast
ang ers
S S
Ġpict ures
Ġexperien ces
Ġappro x
un te
Ġrout e
A pp
amp ion
4 2
Ġadv ice
Ġm and
Ġdecl ared
ĠAnd rew
Ġfl ag
Ġord ered
ac he
Ġcr imes
Ġp roud
Ġreport ing
Ġco ff
ĠH uman
Ġmess ages
Ġl it
raz il
U T
R ep
Ġcircum st
Ġfind ings
ĠM a
Ġex cell
Ġdecl ined
Ġev al
Ġexpl ains
ĠW al
ok en
is hes
ab led
Ġdel ay
ĠF ollow
ul ations
Ġnewsp aper
us iness
Ġshould n
Ġconnect ed
ound ed
ĠL in
Ġon going
r id
Ġmov ies
il ty
Ġpick ed
il it
du le
Ġadm itted
ion ally
ev in
se x
res ents
Ġdel ivered
Ġgun s
D uring
Ġ \
ov es
Ġwalk ing
Ġg ra
Ġag ents
ĠSc ot
ĠM L
Ġthough ts
Ġedit or
Ġpr in
Ġmar ried
c alled
Ġem ails
Ġappropri ate
Ġem phas
O ver
Ġa uth
Ġarch itect
Ġed ge
Ġle aves
u ations
Ġupd ates
Ġacc ompl
Ġg ather
ĠMuslim s
Ġfor g
ĠGr and
Ġquarter back
Ġs ession
ans as
Ġpo ol
Ġinj ured
ĠS cience
Ġpublic ly
Ġstate ments
ĠW ood
ĠT ra
ĠS ov
Ġper man
Ġconf irm
ĠTe chn
Ġleg it
Ġour selves
ĠL ake
Ġreal ize
Ġdri vers
o oth
t ion
Ð µ
ell ow
Ġar med
ner gy
O ther
, âĢĻ
Ġlawy er
Ġd ial
Ġread ers
ess or
ĠS ee
Ġr ail
re land
ĠD ou
c os
our ney
Ġcont ains
Ġarg ue
Ġtal ent
Ġf illed
Ġs ad
Ġalleg ations
Ġactiv ists
ĠChrist mas
Ġ198 0
g a
Ġd ynam
ĠMich igan
m ates
Ġbuild ings
Ġcr ack
Ġwe ar
c an
4 3
Ġtrans form
ĠRe v
ĠA v
ĠR on
ĠRe ad
M any
Ġterror ist
T ube
Ġexerc ise
ĠS um
ĠB ack
D e
Ġt ree
Ġeffect ively
Ġlab el
Ġpract ices
S e
ĠA T
ĠI ll
Ġsub sequ
Ġexam ples
4 1
Ġf ish
ĠJ ul
Ġfl o
Ġsh op
Ġpat ient
l ong
ent ure
et te
Ġobject s
ĠSe attle
c ons
R es
ĠS her
end a
Ġsecret ary
Ġmiss ed
Ġca uses
Ġdeb ut
Ġr ain
Ġess entially
Ġte ch
Ġmor al
Ġs am
as ure
ĠUkrain e
ord ers
Ġcent re
ĠR od
ar ters
ĠG en
I I
M A
Ġinj uries
ĠV ict
g ia
ĠW ork
d ate
ĠiPh one
ĠT O
Ġart ist
F ollow
ar l
ic ing
O h
Ġth inks
Ġmot or
Ġcl ient
Ġb ond
ĠSt an
ul s
ĠPh ot
ĠI D
ĠSaud i
Ġfact s
Ġdes ire
Ġp ure
Ġlink ed
Al though
Ġgovern or
ar n
ac ter
ou ston
Ġmaterial s
Ġperform ed
ag ers
Ġs ke
Ġfr anch
or ry
Ġhe ll
Ġphilos oph
Ġinit ially
ill y
Ġsu c
Ġnecess arily
or se
Ġexp ansion
Ġschedul ed
ĠS ign
Ġwar ned
ad or
Ġadv anced
d ef
es ome
am in
Ġdi plom
w ord
ĠH y
Ġexpl an
Ġevery body
Ġj oint
Ġres olution
Ĥ ¬
Ġdec re
Ġvar i
Ġincre ases
Ġaccept ed
r um
Ġfac ed
Ġmy ster
az a
Ġinc or
Ġannounce ment
en ger
Ġfollow s
Ġb are
Ġn ations
Ġinter pret
Ġ ing
ill ance
ĠF er
Y es
Ġplay off
ĠM ount
Ġv an
Ġab andon
Ġne ither
ĠSec ond
Ġrad ical
Ġath let
Ġyes terday
Ġnear by
b ur
Ġdist ribution
Ġdat ab
Ġappl ied
ĠL ife
Ġmag azine
Ġconsequ ences
Ð °
Ġlist ed
Ġdo ctor
i at
w ater
M ost
Ġat mosp
Ġsurpr ised
ĠCol umb
Ġoff ense
T A
Ġfor t
Ġm ir
ĠC NN
ir ty
Ġbeg ins
Ġsp ons
Americ an
Ġthreat s
it ors
Ġrep resents
ĠWe ek
ĠJew s
i est
ot ic
g ent
Ġmov es
Ġen h
ath an
Ġrem ark
ĠB et
ĠG M
semb ly
Ġsong s
Ġbehav i
ĠA ff
Ġch art
Ġadd s
S pe
Ġr ide
Ġwith d
ĠD an
Ġimpro ved
Ġal cohol
Ġwar m
Ġfl ood
Ġout put
ĠDe velop
Ġp ra
Ġp hen
Ġsh ots
r ich
w hel
Ġf ill
Ġst ood
ĠBl ue
Ġbr ings
Ġpus hed
Ġgu ilty
ĠR E
ĠH en
ĠRom ney
Ġsub scrib
Ġent ry
Ġal t
Ġ3 8
ĠB razil
Ġdem ocracy
om in
Ġboy s
ocrat ic
ĠSw ed
ĠK im
Ġro w
Ġrestaur ant
ĠN BA
Ġconf ig
ed y
Ġlaws uit
ĠI reland
Ġmanufact ure
Ġ3 3
Ġrece iving
Ġa f
ĠBar ack
Ġtot ally
Ġdiscuss ed
Ġs ought
Ġr ising
Ġent ered
ĠOn ly
ĠIS IS
Ġre in
Ġt rib
ĠV ol
al a
Ġconsist ent
ĠBo ard
The n
Ġhistor ical
ac le
t witter
Ġst orage
Ġ3 00
Ġcor respond
k ay
Ġplan e
l aw
ER S
Ġcomb ination
C an
Ġsc ored
Ġin put
ĠDe v
Ġbr ight
Ġsymb ol
Ġ3 7
Ġsuc ceed
Ġbut ton
Ġinvest ors
ri p
Ġ200 2
Ġcreat ive
Ġart icles
st ood
Ġsqu are
Ġis land
Ġdeath s
Ġclass es
Ġnet works
Ġfun ctions
Ġunlike ly
m itted
Ġhead s
ird s
O D
ĠF ar
Ġn ative
Ġb oss
Ġrough ly
ĠP rem
al ty
Ġconsum er
Ġl ie
f ortunately
Ġheav ily
ĠMay be
Ġfair ly
ĠAn other
Ġtemper ature
ide o
ĠW alk
Ġsa v
Ġexist ence
ic ian
ĠW he
Ġstr ing
ĠM s
ĠAs ia
ĠL ib
Ġcont est
ĠIt s
Ġpl ot
Ġres ident
ic ious
Ġtarg ets
ĠKore an
ĠC ub
Ġspl it
ĠSt r
Ġres c
Ġyoung er
Ġcolle agues
us al
u y
Ġl ock
ĠB ob
Ġro t
Ġl ibrary
ard en
Ġr ally
Ġpar liament
Ġprot ests
Ġany where
du c
Ġb ike
Ġbre aking
z ona
Ġstore s
ok ed
Ġexpress ion
Ġgr ab
ĠS ports
Ġwas te
' ,
T S
Ġwar ning
Ġimport ance
Ġdef ined
Ġbl ow
Ġbu ying
Ġch ain
Ġsy m
Ġman age
Ġpro hib
Ġadult s
m es
Ġclass ic
Q u
ĠE ach
Ġmarket ing
Ġc ere
Ġill ust
ic an
Ġs now
Ġl inks
ĠS ky
Ġsh if
Ġ4 8
S ee
Ġf raud
ĠCl ub
Ġto w
Ġfac ility
ĠH ist
Ġhard ware
Ġalleged ly
Ġconf ront
Ġregul ations
Ġsch ol
Ġdo ctors
Ġcur rency
ĠColor ado
Ġhouse hold
ere nces
Ġrepl aced
olly wood
iqu es
Ġess ential
A dd
b orn
and al
Ġem pt
Ġb on
Ġsome what
Ġfl at
Ġfav our
Ġprom ise
d is
Ġl augh
ĠR ights
Ġhold s
on na
P U
Ġopp osite
ĠD iv
ĠB oy
Ġmom ents
Ġn av
Ġopp onent
Ġcamp us
Ġact s
Ġbu g
Ġvers ions
0 8
Ġmot ion
Ġev olution
ĠEx p
ĠR am
Ġr um
Ġv ice
omet imes
Ġrele vant
Ġmet al
p ower
ag an
Ġse es
etro it
Ġindust rial
Ġz ero
ĠIm age
Ġclose ly
Ġs ick
Ġd ownt
Ġemot ional
Ġb ag
ĠD C
ĠYou Tube
Ġfew er
Ġdiv ision
ĠY ear
w est
Ġh at
Ġhard er
het ic
Ġcustom er
Ġhop ing
hip s
P ol
ĠBro ok
op y
ĠVal ley
ĠAn n
ock et
Ġmechan ism
Don ald
ol ve
ĠH ouston
Ġreturn s
Ġto m
Ġvol unte
Ġparticip ants
Ġext ent
Ġint ention
ch o
Ġexcell ent
Ġh ur
ĠSov iet
ĠE lect
ĠG ra
Ġacknow led
M an
er ves
ate ll
el lect
g ame
O b
Ġsqu ad
Ġcircumst ances
Ġf ashion
olog ist
ĠG ames
al ian
en a
com m
Ġis ol
om ing
Ġimmedi ate
Ġsuff ering
ul ous
ĠE ric
Ġauth ors
Ġl ies
om a
Ġsy n
Ġt iny
Ġg rown
ĠW atch
in em
ĠM ot
Ġimm igrants
6 6
ef ully
Ġkind s
g reg
Ġche ap
Ġdetail ed
Ġm ine
ĠD ie
Ġfeat ured
7 7
Ġun us
Ġcompet itive
Ġme at
c hen
Ġdescrib e
Ġfor med
ot al
Ġcarry ing
Ġtourn ament
Ġrelationship s
Ġtr ick
ord an
cer tain
ut ch
Ġfundament al
Ġ4 9
Ġter min
F A
Ġcy cle
ĠH ome
Ġw ave
ay ers
ĠI P
ĠW ik
Ġsign ing
Ġc razy
Ġgu ide
Ġear ned
Ġdec line
Ġw ins
ĠCath olic
Ġem br
pr int
ĠH el
Ġreg ional
ĠW ay
ĠG ar
ĠPalestin ian
Ġstr ange
ens us
f riend
m l
ĠJes us
Ġob serv
Ġfrequ ently
Ġan cient
Ġact ing
n ame
Ġman ner
Ġeff icient
ĠPut in
Ġpus hing
Ġcomfort able
ĠC IA
ĠS ar
st yle
es c
ig er
Ġp ip
Ġsh aring
ĠL ong
Ġsk ill
ĠE conom
Ġown ed
Ġw ire
ob b
Ġinst ru
Ġcommit ment
ĠC ard
Ġalong side
ĠA ut
u ated
ĠDav is
Ġrefer red
rom e
Ġcontrovers ial
Ġart ists
n ic
Ġb at
G et
ĠL ord
c hers
ĠE ll
Ġrepeated ly
Ġm outh
Ġe gg
r ison
n am
ĠE r
we ight
oc key
Ġattempt ed
Ġfem in
Ġupd ated
ĠC y
Ġ3 4
Ġpre gn
Ġsche dule
st r
or a
Ġc ert
Ġded icated
p an
Ġsent ence
ĠT op
Ã Ń
Ġup coming
ĠO ld
8 8
Ġcol umn
Ġdep th
ĠR ight
Ġpl ed
ĠO F
Ġj ourney
ĠP S
Ġvirt ual
u able
ke l
Ġstru ck
ĠD own
Ġreal ized
Ġstud io
O RE
Ġdes k
Des pite
an es
ĠE nergy
Ġser ving
ĠN Y
% )
Ġwalk ed
Ġmed ic
v a
ce ived
E n
Ġrep ut
iam i
Ġk ing
Ġr ing
ad el
Ġur ban
am ily
ĠChar les
F P
f oot
Ġtarget ed
ograph ic
Ġass ets
Ġch annel
Ġins pired
I R
ĠAri zona
Ġnews let
lud ing
Ġt ort
0 6
Ġpost s
Ġhot el
Ġun iverse
h us
Ġag enda
ĠW ild
Ġca using
Ġwat ched
iven ess
ĠA L
Ġsu icide
u gh
ĠSu pp
Ġover whel
Ġsurve illance
Ġus ual
ĠD i
um ber
Ġstre am
Ġwin ter
Ġchair man
Ġopp onents
Ġint ent
u a
Ġs ister
O C
L ike
aw a
Ġmain stream
Ġl iqu
Ġlat ter
ĠCru z
ĠW ars
T wo
Ġk it
ph y
ri ve
Ġsurround ing
Pe ople
Ġknow ing
Ġfol ks
Ġord ers
Ġh all
P er
v in
0 9
Ġobser ved
Ġliter ally
Ġrem ote
ĠAg ain
ĠEn ter
so le
ĠM en
N C
ĠJ ava
Ġsubs id
00 00
ĠDef ense
Ġappro val
Ġd u
Ġbas ket
Ġteac hers
Ġs and
im ents
Ġexc iting
ici ency
Ġ7 5
y ou
ren ce
Ġprotect ed
Ġcon gress
Ġnot iced
Ġdeal ing
ĠB at
Ġprec ise
Ġsim pl
m ission
av or
ĠCh ild
Ġdeep ly
ĠYou ng
Ġcommunic ation
Ġs ending
ĠT ay
r ations
g or
ĠJ r
Ġfor th
Ġg ang
Ġbatter y
b ar
ĠV an
Ġf asc
ĠT al
Ġas ide
Ġn arr
az i
Ġfix ed
Ġrequire ments
0 7
x ual
Ġw al
Ġproper ties
x y
Ġal ive
Ġnar row
Ġw ake
Ġsk y
Ġpass ion
ab is
Ġe ating
Ġmist ake
r ors
az e
ens ity
Ġexpl ore
onym ous
b el
Ġcoff ee
D S
Ġ197 0
i pl
all as
Ġra pe
Ġvol ume
Ġprom ised
al le
ĠC le
ĠAr ch
Ġd iet
Ġris ks
w oman
Ġex hib
Ġswe et
Ġinvol ving
Ġw age
Ġtest ed
Ġse lection
Ġdefe at
Ġn orthern
b urg
Ġre ward
âĢĻ .
Ġne ut
ĠF ort
Ġwel come
ĠPol it
Ġext ended
Ġput s
Ġterrit ory
Ġphen omen
Ġun employ
Ġrefuge es
Ã ³
Ġs ample
Ġfl u
Ġapprox imately
Ġhe ight
ĠK evin
Ġbl ame
Ġany way
Ġdestroy ed
ĠD etroit
ac c
ĠP an
ĠBr ad
Ġimp ressive
ack ing
ĠStep hen
ĠM ax
ĠC ast
Ġg ap
Ġpro of
Ġsh o
Ġun known
Ġloc ations
Ġcr ash
Ġd ry
et her
as ks
Ġselect ed
ult ure
Ġattack ed
Ġg od
b oy
Ġw est
M ay
Ġmax imum
ĠM iller
ĠWil son
ap se
ger y
Ġprom ote
p ost
Ġmere ly
Ġfranch ise
F r
Ġshe l
ing u
Ġrequ ests
Ġret ire
Ġsudden ly
Ġslow ly
iz z
Ġprot esters
ang es
Ġdis ag
Ġteac her
Ġtyp ical
ĠW at
ĠW omen
i ro
Ġcon ver
Ġch ose
ĠF il
I nt
Ġmat ches
Ġlic ense
ob ile
ĠC amer
Ġproper ly
ĠT it
Ġass ume
Ġdisc over
Ġpro te
um s
0 4
ĠCl ass
i xt
ĠIn s
og an
i i
Ġwor ried
st one
Ġw id
or ation
Ġab ortion
Ġall ies
Ġmod er
Ġterror ism
a ire
Ġsupport s
Ġob lig
ver ty
as er
Ġarg uments
ow ered
Ġthem e
ar ry
Ġfac ilities
Ġad apt
Ġsust ain
Ġrecogn ize
Ġe ast
ĠM ic
ĠL u
uild ing
ig g
0 2
g ender
Ġf uck
ins on
Ġequ ival
R el
ig ure
Ġobtain ed
Ġpo verty
Ġform at
ĠIt aly
0 3
Ġnom ine
Ġde als
Ġfe es
l v
ĠP R
O r
Ġcontro lled
Ġunder stood
ĠH ollywood
l ies
Ġtop ic
Ġcrit ics
Ġr ub
it arian
ĠAg ency
l ist
ĠSoc iety
k o
ĠF ord
Ġso le
ĠJer sey
Ġvill age
6 8
ĠB est
f ire
Ġp al
5 9
ĠAd minist
Ġdi agn
ax y
Ġlik es
Ġpun ish
ĠD am
Ġd ress
ĠGeor gia
Ġev il
ra id
ĠF our
Ġb unch
Ġjournal ists
ĠComp any
Ġexp osed
Ġreg ions
ar ity
Ġcommunic ations
Ġsche me
at i
Ã ¶
ce ler
Ñ Ĥ
Ġlim its
Ġtrans p
Ġsome how
Ġst im
ĠCar l
Ġstrong ly
Ã ¤
Ġp ed
os is
Ġresist ance
Ġhon or
st ers
Ġch ampion
Ġdr ag
Ġconst ant
ĠL abor
ĠNAS A
c ript
Ġph ase
red it
Ġperson ally
Ġtr uck
Ġcond em
Ġesc ape
Ġprof it
rim ination
ĠN HL
Ġb id
Ġdec k
Ġfall ing
Ġvac c
nes ota
oc ation
Ġsome where
ĠN ight
ĠSt and
Ġemploy ee
Ġhar ass
ast s
ĠNet work
al o
ll s
ĠD un
p ool
Ġbe ar
GB T
Ġcompar ison
V ER
c ers
Ġpoll s
ci ples
au g
a o
J ohn
Ġs outhern
ĠSp anish
Ġem issions
Ġencour age
Ġin qu
ĠC D
Ġdec ent
ĠL and
Ġempt y
ĠM iami
Ã ¼
Ġh its
Ġdefin ition
pect ed
ĠL ove
7 8
ort ed
Ġdirect ed
ĠV iew
Ġmeet ings
c ow
Ġf lex
Ġwin ner
end ers
Ġp ic
Ġcomp rom
if orm
z ens
Ġgot ten
or ic
Ġ3 9
ĠD aniel
Ġelectric ity
ow a
ĠC am
int end
Ġch osen
Ġoffic ially
ĠTur k
Ġstret ch
ĠK n
em s
ĠDes pite
Ġben ch
Ġdatab ase
ost er
ĠB ell
Ġstrong er
Ġint ellect
Ġpurp oses
ĠE nd
ĠD NA
Ġcut ting
ick en
Ġsp in
Ġde leg
Ġamount s
Ġext ensive
ĠO k
Ġf old
Ġtre es
ĠT urn
Ġdes per
Ġan x
ĠAs ian
r ary
Ġide al
ad s
ig ation
Ġfif th
p o
Ġth read
p es
in er
m o
Ġgood s
Ġdevelop er
Ġcol on
Ġclaim ing
Ġre tain
Ġcapt ured
Ġfind s
ĠTh ough
Ġdri ven
Ġhy d
Ġpay ments
ĠJ ordan
Ġt ies
Ġs oul
Ġreason able
Ġsome body
Ġend ing
Ġdog s
ĠN ations
Ġcho ices
Ġinc l
Ī Ĵ
Ġse ats
ĠU t
ĠServ ices
un ning
w an
ĠTh ank
Ġd rawn
Ġeng age
Ġs ight
Ġb le
Ġthreat ened
Ġrul ed
ĠAtt orney
ĠIr ish
An y
Ġtrad ing
Ġprim arily
Ġpar am
Ġun w
Ġaspect s
Ġf ighters
Ġansw ers
ĠSe a
ï ¿
as ters
Ġperfect ly
ep ing
Ġpark ing
ir ms
ĠAc adem
Ġreject ed
Ġr ival
ow ed
Ġconst antly
Ġpay ment
h an
ĠD ar
T e
Ġdist inct
Ġtechn ologies
Ġf lying
Ġp od
Ġcomp onents
ĠG all
ĠScot land
Ġelse where
Ġr ig
Ġany more
Ġestim ates
Ġfield s
Ġconst it
Ġsol utions
Ġresult ing
ĠIn f
Ġ icon
ĠRe al
Ġenc oun
Ġprov ince
Ġaw esome
Pol ice
Ġreg ularly
Ġworld wide
Ġact or
Ġcour ts
ĠMo ore
f ast
Ġnarr ative
ĠD ark
Ġenem ies
Ġmix ed
ĠB ru
se a
Ġhous es
O nce
Ġb oot
ĠDis ney
reg on
ĠW ater
Ġno body
< /
ld er
ĠO S
Ġcontrol s
Ġlet ters
5 8
in ations
ol t
Ġout come
Ġlo an
Ġmay or
Ġm urd
ic er
ĠH un
Ġcont em
Ġ4 2
ĠC at
Ġap artment
Ġcoal ition
Ġcontribut ed
ĠSte ven
t le
ĠM S
Ġconclud ed
ag ram
Ġex ists
Ġfound er
Ġt ank
ap es
Ġatmosp here
ĠAd am
s hip
ĠB rian
Ġprof ile
ĠT w
ĠL ight
Ġsit uations
C S
Ġbre w
ĠCh ampionship
ear ing
ĠL ew
Ġincred ible
ĠConst itution
Ġaccur ate
ĠA uthor
Ġsign al
ĠVict or
Ġemploy ment
ĠW here
Ġun p
ĠS outhern
Ġcl ients
." [
Ġkeep s
Ġinform ed
Ġcontin uing
r as
is an
Ġbase ball
r ates
ĠR og
6 7
C E
ĠB as
ot ten
M L
Ġtick et
se ll
Ġgener ate
Ġcon ven
ĠI d
ian a
Ġwe ird
im p
Ġcateg ory
Ġt ied
Ġinf ect
il arly
Ġrout ine
Ġang ry
Al so
Ġra ising
Ġmach ines
Ġregist ered
adel ph
Ġdem ands
Ġpro ved
ĠC ivil
in ity
ur a
Ġg aming
Ġincred ibly
Ġcru cial
ĠIt alian
ĠOr gan
ot es
A A
Ġst uck
5 7
ĠD allas
Ġter rible
on ic
Ġk il
Ġfeed back
Ġu pper
Ġpl astic
Ġnew ly
Ġconsum ption
ĠJose ph
ack ed
Ġest ate
Ġdo zen
the re
Ġent hus
ĠS k
Ġinn oc
Ġbill s
Ġcons cious
Ġim per
v y
ĠSp ain
Ġman ip
Ġwrit ers
Ġex cess
Ġaggress ive
Ð ¸
Ġrep orter
ĠC ross
Ġcomp ens
S ec
Ġret urning
Ġst ead
Ġprogram ming
r age
ific ations
Ġrepresent ed
Ġconclus ion
ĠTh anks
E W
T oday
ĠB owl
Ġassist ant
Ġro ster
ĠCon f
Ġorgan ized
ĠMin nesota
Ġorig in
Ġr us
Ġpen alty
adelph ia
if er
Ġdrink ing
l ock
ĠT em
Ġpain t
Ġs atell
ind ing
Ġcapt ure
ĠPro gram
Ġexplan ation
3 00
Ġcons pir
isc al
ï¿ ½
Ġcount y
ar on
isc ons
Ġassist ance
Ġg ro
ess ed
Ġcompl aint
e z
s m
iscons in
ĠRom an
gor ith
Ġ Î
Ġmag ic
Ġ %
Ġgr anted
Ġt all
ĠPar liament
ĠO per
ĠCont in
Ġcompl icated
B ecause
Ġn ut
l ers
Ġch ances
ĠA R
Ġaud io
Ġext ract
em en
Ġr u
m od
Ġ199 9
Ġsh ares
ĠE duc
Ġsuccess fully
ann y
Ġ5 5
D r
m ont
Ġpil ot
Ġhe l
Ġtechn iques
k er
Ġrec overy
Ġscen es
ĠZ eal
Ġmy th
ĠG i
Ġveter an
Ġ iron
ĠC are
Ġdeg rees
es y
Ġ( $
ri a
ĠI T
Ġsym pt
Ġlaw makers
Ġoper ate
Ġw estern
Ġaim ed
Ġad s
Ġha bit
act ions
ĠT est
r ating
Ġph r
Ġtast e
anche ster
id ency
ĠE p
Ġeng aged
Ġpriv ile
Ġr ating
Ġteach ing
Ġacadem ic
ĠH ot
ĠF re
Ġpass es
Ġthe rap
ĠW in
Ġdoll ar
U R
Ġautom atically
C om
k ed
st ar
the w
ĠPac ific
re te
Ġatt ended
Ġmon it
Ġbl ocks
ĠS C
Ġsurv ive
Ġperman ent
ĠFore ign
Ġant icip
Ġmark ed
ab ama
Ġext rem
Ġh idden
ĠL ook
Ġtit les
re p
Ġt aught
ĠSen ator
Ġen able
Ġacc omp
M P
ĠN BC
rap h
% .
it als
Ġb om
ĠLin ux
Ġel ite
ever al
O ff
Ġdep ending
Ġind ex
Ġlawy ers
Ġval uable
ib ilities
Ġinst alled
Ġch ampionship
c r
5 6
Ġcomp re
Ġdownt own
Ġequival ent
Ġro ot
Ġsol ve
M S
ch ain
Ġd uty
it ar
19 9
Ġp ace
ĠB ull
ĠSpe cial
he nt
ĠB usiness
Ġreput ation
Ġun certain
Ġph ones
r ific
er a
Ġover se
Ġperson nel
Ġsuff icient
Ġvis ited
ĠTay lor
Ġwar ming
Ġprin ciples
atur ally
Ġvulner able
Ġ6 4
u ine
Ġenjoy ed
Ġnegoti ations
Ġexp osure
Ġadv is
Ġgener ated
Ġf ake
Ġrec ording
ry pt
Ġregard less
Ġcollect ed
ĠN ick
In st
a ed
Ġd ict
Ġbit coin
ĠK elly
Ġpattern s
Ġe lev
G etty
re ams
Ġp in
im a
al i
Ġc up
ĠA venue
Ġdis aster
Ġc able
ĠT ake
Ġmain ly
Ġwork er
ĠAn th
Ġrac ial
ĠJ osh
Ġp ounds
ĠCo ast
E d
qu arters
Ġport ion
ĠV iet
Ġaf raid
a un
Ġdef ence
ĠE astern
mon th
Ġtrack s
Ġint ense
Ġbus y
Ġins pir
ĠSer ies
ĠT ony
Ġgr ant
act ive
ĠL GBT
Ġ6 5
Ġfun ny
Ġsur gery
Ġap olog
ĠSt ill
Ġposs ession
ĠMos cow
Ġprom inent
ĠC all
Ġcom ic
y e
u an
ĠS n
f rom
Ġengine ering
Ġth in
Ġtrou b
ĠM ars
b al
Ġprocess es
ĠC oll
ĠK urd
as hes
ĠN ation
ĠC ome
or ne
Ġunus ual
Ġb es
Ġent it
Ġ âĢĻ
Ġdescrib es
ĠK ent
ĠA h
ĠR ay
Ġresult ed
et ary
Ġemer ged
Ġtax p
ath y
ĠI owa
ĠO regon
Ġbl ind
Ġcor ruption
Ġst ations
Ġprop ag
Ġco ordin
Ġf ought
ĠG er
Ġext ension
Ġg all
Ġadop ted
Ġcompet e
Ġrec ru
L A
ĠIn vest
Ġbr ut
ĠZeal and
Ġhad n
Ġevery where
pr ise
Ġd im
8 6
ul es
H S
Ġm ail
ind er
Ġ4 00
Ġcontract s
ĠB alt
he rent
th is
M ean
Ġfeel ings
f all
f ront
Ġf irms
az z
Ġminor ity
idel ines
Ġadvert ising
Ġrare ly
ĠR ick
ã Ģ
Ġdisc ipl
Ġcry pt
ĠA D
âĢĻ ,
ĠA li
ĠDe ad
Ġsan ctions
Ġsp r
ĠN orthern
ic ate
ĠPhil adelphia
Ġcamer as
ĠO s
Ġstr ict
Ġfin ance
c les
Ġc ited
Ġen orm
ĠV eg
m al
Ġshort ly
v iously
ĠBe fore
il er
Ġexpect ations
ĠPol icy
Ġne uro
Ġimplement ation
m aking
up id
Ġexpl icit
sc ape
ĠL o
if ies
Ġrec ip
ĠGree k
Ġthous and
w rit
Ġth ick
Ġl oud
Ġaff ili
ĠN avy
man n
==== ====
Ġin ev
or ough
E A
Ġphot ograph
cl ing
Ġmed ium
Ġscen ario
ĠW isconsin
ist ent
Ġve get
Ġvis ible
ĠF ood
Ġpl ug
ant ic
b ro
Ġlight s
Ġprior ity
Ġcreat es
ĠL ive
re f
Ġbr idge
g un
Ġag ric
Ġsu p
Ġt ur
Ġperm ission
il ton
Ġob st
ĠH om
Ġal gorith
ĠO l
Ġparticip ate
w orld
) )
Ġbrow ser
c us
ĠF oot
Ġv en
Ġh o
Ġw ing
ink ing
Ġdo zens
Ġac celer
iz on
ĠGl obal
Ġcomput ers
Ġhistor ic
R ec
Ġloss es
Ġbasket ball
Ġla id
Ġt ag
as ion
ĠKing dom
d a
P r
ur rent
ask a
el and
ĠAm endment
Ġstrik es
Ġprinc iple
ĠDevelop ment
ĠM u
Ġsc oring
at hered
Ġform al
Ġcoun sel
og ether
5 1
wh o
Ġm el
Ġwonder ful
Ġsh ock
Ġbeh alf
ĠH as
prof it
Ġ4 4
ĠS af
ĠAs h
5 2
Ġestablish ment
Ġinter face
ĠHen ry
Ġt or
Ġto ler
ĠG reg
ĠTh us
t es
Ġg ained
ĠM ajor
Ġfound ed
Ġfound ation
Ġfe e
Ġclub s
Ġ15 0
Ġcann abis
og en
Ġair port
ĠE SP
Ġb orrow
et ime
AT E
L C
Ġmanufact uring
Ġre ly
ili pp
5 4
am ber
f ound
Ġgen uine
e lect
ĠAl abama
ĠR oyal
ent h
Ġcomp onent
Ġrel ief
Ġrid ic
Ġjournal ist
Ġj u
rat ors
ĠKe y
Ġwhe el
Ġun com
r ative
ĠP ay
Ġsa ved
.... ....
l og
ĠO ak
Ġhead ed
Ġh ole
Ġy ield
C ol
Ġ4 7
ose xual
le te
ĠS P
Be fore
Ġg ift
w r
Ġf ault
Ġwithd raw
Ġindic ate
Ġdraw ing
Ġun iform
Ġsh ips
Ġst able
Ġ- >
Ġban ned
ar lier
epend ent
ig en
Ġfoot age
Mean while
ĠR and
Ġmag n
ĠM oh
z y
Ġdo ors
Ġrecogn ized
Ġ19 60
Ġcont aining
te xt
Ġstrugg ling
p read
Ġcy ber
s he
Ġr iver
ĠF C
Ġwall s
Ġachie ved
ĠAcadem y
Ġneigh b
Ġed ition
ĠM id
Ġpl ate
Ġsp ark
an ing
ol is
ĠV is
b a
Ġmove ments
oun ced
port ion
rou s
Ġdeli ber
Ġsh arp
ĠH T
Ġepis odes
ĠPrem ier
ĠTh ree
we et
op her
y stem
Ġneut ral
re ll
Ġexcept ion
Ġprodu cer
ul ating
b ell
ĠF und
Ġdest ruction
Ġ199 8
um er
Ġbelief s
ĠS now
ab s
t a
Ġback ed
te en
ĠRe view
Ġp ump
6 9
Ġh ired
et ts
ides pread
Ġlik ed
Ġleg end
u ce
ou red
ĠF red
Ġro les
U s
M ar
Ġlangu ages
Ġent ering
Ġprofess ion
ĠR et
Ġinterview s
ĠMc G
Ġphilosoph y
ĠA S
u er
ĠAdminist ration
Ġar range
Ġh ang
Ġfl aw
c ription
Ġto x
ĠH it
ĠV R
Th ose
ĠAtlant a
Ġst adium
sy lv
ĠN ob
Ġdin ner
m ate
Ġredu ction
int erest
Ġb ath
ĠTurk ish
ĠRep ort
ĠCon ference
Ġtack le
Ġg onna
Ġa ver
c ar
a us
ĠN ote
ĠO tt
ĠDie go
Ġf inger
ĠJ ac
im ore
Ġc rop
Ġfarm ers
Ġnomine e
U L
ĠM anchester
ĠCent re
Ġ4 1
Ġbare ly
ĠP oint
Ġch a
ĠJ ason
Ġstruct ures
Ġcont ained
um in
P ost
o en
bur gh
ĠK ir
E P
Ġdeli very
B O
ã ģ
Ġconv in
Ġdisc rimination
Ġprocess ing
n i
AT O
ach ing
Ġsy nt
Ġinc ent
% ,
ri ers
S ub
ĠF air
em an
Ġintellect ual
ĠAr m
abin et
C o
ams ung
l an
ĠD ata
ĠRad io
am i
ĠF ield
Ġup set
ĠPer haps
5 3
N e
ĠO K
ĠEduc ation
sylv ania
ĠD id
os a
ĠB ry
Ġchalleng ing
Ġrestrict ions
t hen
j o
Ġpro ven
Ġfore ver
Ġelect ronic
Ġh itting
P resident
is p
Ġreview s
ĠChrist ians
Ġconv icted
Ġill ness
Ġun ex
Ġsm ooth
Ġindic ated
Ġret ired
es ter
Ġprodu cing
Ġe uro
4 00
Ġrapid ly
alle l
ĠAb out
ĠHar ry
ĠH ay
Ġ4 3
us ive
ol en
Ġcorpor ations
ĠM ir
ĠF ed
Ġro se
Ġlist ening
Ġo cean
Ġh ide
8 9
Ñ ģ
aw ay
ĠRe uters
ĠU FC
Ġtechn ique
Ġl oyal
Ġnot ion
Ġcl imb
ĠH or
Ġbeg un
im m
Ġrecogn ition
ĠR us
Ġrob ot
ow ing
Ġassoci ation
eng ers
Ġas ks
Ġut il
Ġper pet
less ly
y ard
ay ing
Ġwebs ites
p age
sel s
Ġmil k
Ġtick ets
Ġdesc ription
ĠN ic
Ġsuggest ing
ou ver
http s
h y
Ġexclus ive
ĠJud ge
Ġreach ing
Ġfl ash
ĠP ack
ach us
8 7
ĠK ansas
Ġprep are
Ġprogress ive
Ġb urd
Ġb ail
Ġre n
Ġequ ally
Ġex ceed
Ġb ra
Ġhard ly
Ġfr ag
Ġm o
D av
R S
Ġw idespread
Ġcampaign s
Ġcont ribute
ĠMay or
ĠA BC
Ġ4 6
Ġbr anch
ri k
Ġsh it
ĠP en
Ġiniti ative
Ġeth nic
Wh o
Ġgr ass
i el
Ġex ternal
St ar
ĠH ard
Ġsens itive
ĠMark et
Ġpract ical
Ġunc lear
Ġnorm ally
ĠR ose
Ġrepresent ative
enn y
ĠC irc
c a
ud es
Ġredu cing
Ġwe lf
Ġcare fully
Ġfriend ly
ĠArab ia
ust ed
Ġrac ist
ob s
u per
ri ent
: :
ĠF ull
Ġrespect ively
L ook
Ġinv ent
olog ists
Ġoverwhel ming
r ical
ĠMcC ain
ĠN ext
Ġview ers
ĠBern ie
Ġwelf are
ĠF urther
Ġconvin ced
ĠS at
________ ________
Ġinvolve ment
ĠL uc
Ġcoll apse
ĠBe ach
anc ouver
Ġsm oke
Ġt ail
arr ass
ik es
Ġth rown
Ġconnect ions
Ġterror ists
Ġstrateg ic
Ġrec over
el f
ĠR ef
ĠLat in
he ast
rat or
Ġh ook
um es
ĠC O
b ec
ĠL ind
Ġw ine
igr ant
Ġsett lement
Ġmind s
app y
Ġstat istics
ĠO nt
Ġl ists
Ġv ital
Ġv ary
ino is
Ġfeat uring
ĠESP N
pl oad
ĠMus ic
ro lled
Ġbehavi our
Ġindepend ence
I F
achus etts
um a
Ġfant asy
omet hing
Ġdev ast
8 5
Ġcompl aints
Ġinv ited
Ġf iscal
ut ies
ĠL y
Ġjo ining
Ġscore s
Ġdeep er
ec ut
ned y
ĠPenn sylvania
R ef
Ġst eal
Ġdep uty
Ġan ger
ĠS ir
it i
Ġel ig
Ġw ars
Ġinvestig ate
ĠSqu are
ĠD ig
Ġconst itutional
Ġschol ars
ĠT enn
Ġany body
Ġsubject s
Ġsu gar
Ġi OS
ĠII I
M e
l ad
ĠT own
st ract
Ġar ray
Ġal ien
Ġowners hip
Ġframe work
Ġunemploy ment
Ġl obby
Ġtrans gender
ĠDiv ision
P M
if est
Ġimprove ments
ĠG ov
ou ch
Ġpe ak
Ġmen u
Ġin ject
Ġt asks
Ġdef ine
ter ing
P G
Ġsc reens
Ġdem ocratic
Ġl uck
ĠX box
ivers ary
Ġsc andal
Ġj ury
ĠA ND
ĠMin istry
w orth
Ġcompre hens
ĠAnt on
Ġdisc overy
Ġcas ual
Ġrem em
ih ad
Ġcitiz en
c ore
Ġ 00
ĠS S
Ġroad s
ĠU lt
Ġdisag ree
Ġfail ing
Ġreg ister
un ior
ick ing
Ġser ves
ĠCamer on
Ġg athered
Ġdynam ic
Ġc os
ĠN ever
Ġtest im
Ġf ab
ĠIn formation
ĠBro ther
Ġimplement ed
Ġcontrovers y
ĠL ittle
Ġcollect ive
Ġtr ained
Ġfear s
ĠN SA
Ġneigh bour
Ġs oph
ab il
Ġsam ples
Ġpro sec
Ġf iction
ĠSt one
level and
Ġest imate
f r
ĠCommun ity
e en
ĠMed ical
Ġ199 7
Ġrefer ring
ĠJ ay
Ġ199 6
ĠPh ilipp
Ġcap tain
Ġsp aces
Ġvers us
Ġleg s
ĠWalk er
U nder
Ġt ip
ĠI ce
Ġtem porary
od ing
ĠSant a
h o
Ġno ise
Ġincor por
d em
Ġt one
ĠE s
Ġt rem
Ġvisit ors
Ġcivil ians
Ġover t
Ġw ages
Ġre ven
os it
j a
ac on
Ġrem arks
Ġhyp ot
Ġaware ness
Ġrecomm ended
ĠH D
p at
c ific
Ġst upid
Ġhead ing
ĠAll en
Ġhand ful
Ġreg ulation
Ġplatform s
ĠSpr ing
ĠAnth ony
b n
Ġacc us
Ġaff airs
Ġtouch down
ĠA ction
Ġr ural
Ġattack ing
Ġult imate
Ġext end
Ġs in
' .
Ġatt ached
ĠC ore
Ġdiscuss ions
ĠO N
Ġattempt ing
Ġexpand ed
Ġgen etic
ĠVeg as
Ġr aces
ĠMat thew
Ġrep rodu
ĠColumb ia
ĠB attle
Ġhor se
Ġign ore
inc luding
ĠB rew
ĠQue en
ĠM ah
B ack
ph ones
Ġsympt oms
ick et
ĠGuard ian
Ġsuff er
ition ally
ĠPat rick
Ġg ear
ĠK at
Ġr aw
Ġsett ings
Ġsal ary
ĠC ook
W ill
ann a
Ġi P
Ġlic ens
Ġtweet ed
7 9
ĠM ake
h our
ĠP ent
Ġpublic ation
ĠR en
Ġsuspect ed
Ġrec all
Ġpurch ased
g ener
Ġfact ory
Ġbr ill
Ġinter vention
Ġeas tern
Ġhol iday
ir y
Ġdis pl
Ġrank ed
Ġthe at
ĠAust in
ĠConserv ative
Ġne ck
ĠM useum
Ġenorm ous
c ase
ĠB udd
m ary
ĠR oy
Ġlog ic
Ġimprove ment
Ġview ed
yth on
Ab out
Ġentertain ment
ĠAP I
Ġlegit imate
Ġing red
M c
ĠProf essor
ect ive
intend o
Ġc ogn
Ġpres um
ĠMass achusetts
ict ions
Ġ201 9
ag g
ĠAl bert
omm od
Ġw ww
Ġadm it
ult ural
ty pe
Ġc ro
Ġact ors
Ġsubstant ial
are t
Ġhuman ity
Ġinvol ves
Ġres ource
7 6
Ġbrother s
Ġseem ingly
ĠB all
Ġr ational
Ġs orry
Ġlay er
â ĸ
Ġliqu id
Ġlo ans
C he
Ġinvestig ating
Ġabs ence
Ġprov iders
Ġro ok
m ad
Ġfall en
20 14
ang el
Ġground s
Ġco aches
Ġtom orrow
Ġb ureau
Ġst ake
Ġadvoc ates
Ġres ign
Ġâ Ĥ¬
Ġinvestig ators
Ġconspir acy
Ġout s
S en
Ġmedic ine
Ġdram atic
Ġf ulf
R I
Ġch apter
Ġmon itor
" )
ĠSe ason
ĠCh air
Ġactiv ist
ar ms
Ġbo at
Ġsusp ended
Ġp apers
H A
ĠGree ce
re pre
ĠCont rol
S m
W here
Ġover s
P C
Ġopin ions
Ġmiss ile
Ġstay ed
Ġc oc
Ġd iversity
Ġco vers
Ġj ur
ĠRev olution
ĠChe ck
ĠS uch
iver pool
ĠGold en
Ġcele b
Ġch at
Ġb ars
. -
Ġoffic es
Ġemb arrass
ĠR oss
ov al
ĠIran ian
oty pe
ĠHe ad
Ġdis rupt
Ġcare ful
ple te
Ġpre ced
we red
Ġfore st
U N
Ġam id
am med
Ð¾ Ð
Ġg am
ĠH ospital
ĠHist ory
A ss
repre ne
ĠIll inois
x it
our se
Ġaut hent
R uss
ĠC BS
ĠS ony
cl aim
ĠH o
re ts
ĠA cc
Ġtransport ation
ĠG aza
ĠV ancouver
Ġhand ed
ĠW W
l ah
Rel ated
v ard
h ot
Ġconsist ently
ist ing
Ġprot ocol
Ġread s
Ġmount ain
Ġatt itude
Ġclot hes
ĠP ot
ĠKen nedy
u ction
Sc ript
Ġh am
Ġ5 2
i ability
Ġdep ends
co ver
Ġprinc ip
ge on
Ġmin ing
ĠA le
ĠF reedom
ĠR a
ĠSh are
Ġnot ing
Ġpet ition
Ġpre f
G O
Ġwar rant
Ġp orn
Ġlow est
Ġcol ors
ĠAnd erson
Ġsh r
Ġaddress ed
Ġcon ce
ĠSt at
20 16
ĠF amily
+ +
Ġent r
Ġthrow ing
7 2
ĠSt adium
Ġvirt ually
i y
Ġguarant ee
Ġf ruit
ĠMe an
Ġf oss
Ġrefere nd
Ġspeak s
Ġpo ly
ĠBalt imore
un es
Ġst one
Ġcl osing
Ġste el
P art
Ġin ner
B oth
Ġread er
Ġperson ality
d it
Ġappreci ate
ĠA p
Ġbu ff
! )
ĠIraq i
ĠEn vironment
Ġhand ling
Ġsur f
Ġprof its
ĠT ri
ien ces
New s
Ġmar ks
Ġtri es
Ġk m
Ġcontribut ions
re c
es h
Ġconvers ations
Ġspirit ual
ĠBro ad
Ġfant astic
S te
ĠP itt
Ġg rav
ĠEng ine
R C
Ġcon sole
d ri
Ġhor ror
Ġg ains
Ġcover ing
Ġte a
ord on
Ġl ands
sen al
ES T
in ch
" .[
ĠHar ris
Ġh int
7 4
Ġshould er
re tt
Ġast ron
Ġacc ommod
iv als
Ġgu est
Ġw rest
Ġdep ression
ĠLew is
Ġencour aged
rop ri
Ġl ucky
Ġjud ges
Ġinc idents
ĠC leveland
sc ale
Ġsubsequ ent
Ġd rew
ĠC re
Ġsp oken
ĠE xt
ĠHow ard
ke ep
fl ix
ut ed
ĠB ang
Ġr anks
Ġb acter
u its
Ġbro wn
Ġ _
ĠG etty
Ġr het
m aker
z ed
Ġphot ograp
un icip
ic ity
Ġinfl ation
am ac
qu est
pp ers
ann els
ĠInt elligence
ĠT ro
## ##
Ñ Ģ
in f
P lease
Ġj e
Ġm aps
G E
ĠC A
av al
Ġdiv ided
Ġ199 5
ĠN ATO
ĠPat ri
ij ing
Ġdist ributed
ĠMex ican
Ġdr ama
Ġinnov ation
ab eth
ak a
ĠUn fortunately
ix ed
port ed
Ġprem ium
Ġvot er
Ġsw ing
Ġc ust
Ġre vel
Ġd ance
ĠB ad
ĠInd eed
Ġprom ises
Ġeff iciency
Ġcl im
d es
ĠK ong
ĠWh ich
Ġball ot
Ġ5 1
Ġtemper atures
ĠL as
pl ed
Ġspokes person
Ġport ray
Ġl ying
Ġl ocked
Ġimpro ving
ĠS amsung
Ġth rew
Ġg al
ed ing
H er
Ġmist akes
Ġmus ical
ĠAd v
Ġj oy
Ġd ump
N ote
Ġsh out
Ġhom eless
pl ate
Ġreplace ment
Ġcom edy
Ġche cks
ĠWith out
l ow
ĠP o
Ġacknowled ged
Ġinstru ment
Ġrespons es
Ġbar rel
Ġprotect ing
d ated
ĠB a
Ġcop ies
ĠCon nect
Ġbreak s
ĠSt art
Ġcommon ly
ĠM oon
Ġsil ver
Ġleg acy
Ġle ts
ĠPl us
Ġd ad
Ġprote in
Ġjo ke
Ġl es
oun ce
Â Ĵ
amac are
Ġpass engers
Ġmat hem
ĠB uff
er ted
b i
it age
ĠMar vel
Ġn aturally
Ġy ellow
ĠD et
Ġnom ination
p ie
Ġmeas ured
er ies
back s
ĠS cient
Ġabandon ed
ion e
Ġstud ied
Ġre ar
ĠA C
Ġd iverse
ĠPr ince
ĠU se
ap ing
ĠFoot ball
od ed
hel sea
Ġacqu ired
Ġdemonst rated
Ġso il
iet ies
Ġ ?
20 15
Ġfund ed
Ġhead quarters
Ġbl ast
Ġst olen
ĠM arsh
ĠL yn
Ġcount s
il a
Ġpartners hip
Ġmid field
Ġsc an
Ġt ape
Ġm ad
Ġupgr ade
arg o
ĠAtlant ic
âĢĶâĢĶ âĢĶâĢĶ
Ġord inary
Ġ( âĢľ
hes is
ĠC H
Ġm arch
est y
Ġliter ature
Ġst ages
Ġ199 4
Ġpl ain
Ġhelp ful
Ġarri ve
ĠC ost
Ġfall s
ĠN OT
Ġsc ope
Ġass ert
ĠN ev
ĠâĢ ¢
Ġex it
Ġign ored
al ia
ĠA I
Ġtw enty
Ar t
Ġcom pe
Y our
Ġcl ock
Ġvir us
Ġreferend um
Ġr om
aw are
Ġun ions
he im
ir a
Ġin equ
in ction
ĠDo es
Ġconserv atives
h op
Ġa x
ass ador
8 00
ĠA ud
ĠM aster
S ource
Ġsho pping
ĠT rib
E l
Ġf estival
Ġcap abilities
Ġgr id
Ġwat ers
Ġsy mp
Ġr if
Ġus age
C ons
h igh
lah oma
ĠIndian a
ĠEm pire
Ġtrans actions
aed a
Ġhop ed
Ġdist ract
et ers
ĠB ron
con f
Ġpar allel
Ġassess ment
Ġgu itar
Ġunivers ities
Ġf ro
Ġmonit oring
ĠH ind
Ġrepresent ing
Ġr amp
Ġrat io
ĠAb b
ĠE ag
ĠD ave
P P
Ġst y
Ġconvention al
ĠG un
ugh t
Ġm oon
Ġtrack ing
Ġtr ave
en cing
com es
F acebook
ct ic
z ing
ĠS ometimes
ĠP op
ĠDe ath
ĠPro v
Ġrel iable
Ġpropos als
nt il
Ġh ung
Ġrepl ied
i ate
Ġske pt
ile y
Ġt ie
Ġcritic ized
Ġappear ances
6 1
d oor
ack et
Ġrac ism
Ġins isted
sh ire
Ġintrodu ction
Ġappoint ed
y er
ecut ive
Ġ20 20
ĠB ureau
y o
og s
Ġconc rete
Ġbeaut y
Ġsupp lies
ĠA st
ĠS us
Ġperform ing
Ġrece iver
orm al
Ġex ch
on ly
ĠL ine
Ġvis iting
br idge
r imin
6 2
d ney
ĠDen ver
ĠTechn ology
Ġb ub
the less
ĠHe ll
Ġlet ting
ol ph
6 3
Ġdef icit
Ġclass ified
F F
ĠGal axy
ĠU r
Ġaccompl ish
ĠC apt
ĠP ass
Ġpres idency
Ġprogram me
ĠR os
Ġsw im
or ge
Ġabs or
Ġblock ed
ĠSwed en
ĠOr ig
Ġre nder
Ġdro ve
Ġland scape
US T
ĠUt ah
Ġcan ce
Ġaut o
Ġdismiss ed
f und
Ġd ust
ĠPort land
Ġab road
Ġbon us
Ġpredict ed
Ġsequ ence
c rib
B M
Ġsen ator
ĠAssoci ated
ĠF all
Ġm useum
Ġdom ain
ĠA ge
Ġwar n
Ġpers ons
ĠT our
oc ument
Ġrequest ed
ĠOnt ario
arch y
Ġd ates
ag ic
Ġtrig ger
Ġtestim ony
Ġcent ers
Ġh ockey
ĠC ode
Ġart ific
Ġcongress ional
m ade
or gan
Ġspokes woman
ĠCor por
Ġrock et
Ġentit led
ac co
Ġtrans it
Ġd ub
ĠJ am
ult ane
ĠAlex ander
ĠN intendo
Ġresc ue
om es
pl us
er g
ĠFr ont
ĠL A
ĠCo oper
ĠH a
Ġass ign
Ġv es
m ony
c ut
Ġequ ality
Ġur ged
p ress
ĠOlymp ic
Ġp atch
Ġveter ans
Ġdocument ary
Ġb read
Ġe c
Ġcl ar
Ġpop ulations
ĠâĢ Ŀ
it ter
Ġbreat h
Â °
ir ts
Ġwhen ever
Ġviol ation
Ġtact ics
el a
Ġw ider
V E
ĠL ow
Ġtarget ing
St ill
ing ton
Ġpurs ue
Ġf iring
room s
ound ing
Y et
Ġrestaur ants
Ġac id
Ġm ole
pt on
Ġs alt
iz abeth
Ġhy per
Ġcomp are
Ġemploy ed
Ġw edd
R L
ĠB on
Ġpolit ically
ĠRober ts
ian o
in ating
ĠB ible
th rough
Ġcont rad
Ġob s
m at
is ons
Ġphr ase
Ġsatell ite
Ġsurv ival
Ġretire ment
Ġbank ing
ĠM ill
Ġch annels
Ġbrill iant
Ġser vers
ĠBe ijing
f are
Ġsoc cer
or ous
enn is
Ġintrodu ce
Ġexper iments
ĠG irl
s a
Ġprison ers
ĠJust in
Ġf ighter
Ġc ig
Ġscient ist
ra pped
Ġappro ached
f ol
Ġmonth ly
ct r
ĠF orm
ĠA ward
ĠL iverpool
usal em
" >
Ġrepresent atives
ene z
Ġdesign s
the y
Ġpopular ity
Ġab ilities
Ġqu ote
Ġtit led
ord inary
Ġmembers hip
K e
ĠL ist
Ġinvestig ations
Ġfocus ing
7 1
ĠY OU
ĠMary land
ĠC ro
Ġsa ving
A re
Ġh osp
ĠBr idge
ĠM ach
ĠGovern or
Ġr ush
Ġc ul
Ġ9 9
Th ough
Ġobject ive
ag a
ol ves
ĠW H
ĠP D
Ġt ips
Ġpip eline
Ġchild hood
Ġsh adow
Ġpre par
eder ation
Ġrat ings
Ġth orough
ĠT ed
Ġent reprene
oen ix
**** ****
k ing
Ġb ab
ĠB ase
ĠH ur
ĠD utch
em ed
Ġact ively
rog en
Ġdemand ing
ĠHar vard
Ġlo ose
Ġunex pected
ĠW as
at ar
Ġsm oking
Ġden y
j ud
Ġsm ell
Ġfore cast
Ġarg ues
Ġunivers al
h ar
Ġphenomen on
er ts
Ġoverse as
Ġp ig
Ġsett led
ĠK ar
ou ri
Ġgener ations
6 00
Ġprep aring
Ġweek ly
Ġsmart phone
ĠV ill
Ġch icken
7 3
Ġprodu cers
Ġlegisl ative
ĠBe ck
Ġanx iety
Ġdist urb
Ġinnoc ent
Ġcelebr ate
Ġmort g
ĠH ave
min ute
Ġprov ision
p ed
Ġke ys
ĠC lick
Ġarg uing
Ġsh ame
Ġbut t
Ġquestion ed
Ġfor cing
Ġbroad er
Ġencoun ter
bre ak
Ġfl ags
Ġ9 5
b ow
Dav id
old s
AN D
Ġdead ly
Ġf ool
ĠDes ign
N S
ĠD O
d on
Ġre verse
Ġwe igh
he ld
ĠC ow
ĠAm ong
ĠEd ward
Ġwealth y
ĠOb amacare
omp son
ast y
Ġmaintain ed
Ġt ens
Ġsure ly
Ġun pre
ĠH op
tr ans
H T
ber ry
m ers
Ġsecond ary
Ġ5 3
ĠP A
Ġsh ield
Ġsav ings
Ġm os
Ġst ability
Ġcivil ian
m ans
ocol ate
Ġro of
Ġf ur
Ġreve als
d ed
ĠCar ter
Ð ½
ir lf
ĠPro p
Ġ ~
Ġann iversary
Ġs orts
af e
C O
Ġrele ases
Ġton ight
Ġmin i
Ġroom s
Ġprosecut ors
Ġout rage
Ġdis order
ĠG ulf
irlf riend
Ġthreat ening
Ġex ha
Ġdifferent ly
el son
Ġharass ment
Ġqu oted
Ġhealth care
Ġsub mitted
Ġwind ows
a is
Ġrel ax
ĠLe ft
ent er
a ver
Ġl unch
Ġreform s
Ġtort ure
C omp
Ġst ored
or ious
Ġf ate
ore t
Ġo kay
av ed
Ġpropag anda
in als
vern ment
Ġsp ots
ĠBel g
Ġinstruct ions
Ġodd s
Ġt ab
Ġ199 2
ĠViet nam
Ġround s
Ġse vent
re ction
ĠH on
Ġer rors
Ġm ac
ĠOk lahoma
ten ance
Ġsil ence
ĠLiber al
Ġde lic
w alk
j i
ĠGra ham
Ġgrad uate
ĠWar ren
Ġafford able
ĠB ra
Ġcirc le
Ġcooper ation
Ġp icks
S E
Ġm it
Ġse ar
ht ml
w as
ĠR un
ĠSar ah
ĠBl oom
est ed
Ġstrik ing
Ġa er
Ġstre aming
Ġp uzz
Ġcomprehens ive
Ġpers u
it ary
Ġimportant ly
m ind
Ġposs ess
Ġexec ution
D em
ĠEx pl
Ġstrugg led
ic ism
ail ed
ors hip
Ġf ing
Ġass ass
ĠLe ader
ĠRub y
Ġint im
Ġc ow
l ined
se ct
Ġdes erve
Ġland ing
ĠJer usalem
ĠPr ice
Ġcal m
Ġcere mony
st ep
Ġassum ed
ĠP erson
Re uters
Ġdemonst rate
Ġdifficult y
o is
Ġal ter
Ġg ent
Ġag es
Ġd ying
ĠSil ver
Ġdist ingu
ish op
ĠS ab
Ġste pped
Ġb orders
as ury
Ġche st
act s
Ġpoint ing
Ġpr on
Ġadv enture
ĠL t
p a
Ġw aves
Ġkil omet
ĠNet flix
Ġarchitect ure
Ġprecise ly
Ġgreat ly
ut en
Ġprom ising
es see
Ġaut onom
ĠS om
Ġconsider ation
Ġdri ves
Ġdial ogue
e als
row s
x x
r ace
Ġtrem end
Ġcons ent
Ġnewslet ter
Ġrook ie
ĠMean while
Ġaward ed
ier ce
Ġcont ribution
Ġb urning
Ġrepe at
ik i
ĠScott ish
Ġsim ultane
ĠW olf
is a
as ant
ĠV ice
Ġdon ations
Ġh al
ĠM ain
ah u
S L
Ġvo ices
Ġanaly st
ĠSt ory
S im
ĠBru ce
ĠA k
ater n
ĠInd ust
Ġwant ing
Ġfrequ ency
Ġinter f
Ġproced ure
Ġg if
Ġexecut ives
ĠMag ic
Ġplayoff s
W atch
cept ions
ĠDe b
Ġstay ing
ĠComm on
O K
Ġb irds
ag h
Ġbi as
ĠB ud
all ing
8 4
Ġtr illion
it ol
Ġinc hes
ĠT en
part y
Ġhighlight s
ap olis
Ġremark able
Ġwhere as
ĠPalestin ians
ĠH ong
Ġkn ee
b ury
Ġsem i
Ġimpl ications
ĠJon athan
ik a
Ġform ation
Ġstrateg ies
hold ers
Ġsuper ior
ĠP res
et he
a fter
un ity
ĠBer lin
ĠSy dney
Ġcateg ories
ĠTe ch
Ġfollow ers
rib utes
scrib e
ĠTe le
Ġcontact ed
ĠM ORE
Ġjud gment
Ġcre am
Ġemer ging
h att
Ġan s
Ġsm ile
port ation
Ġe le
it ual
Ġinf o
le e
ĠL ink
ig ious
Ġaccess ible
vertise ments
Ġphys ically
Ġass igned
b ered
Ġcr imin
Ġgu idelines
Ġdefe ated
u h
Ġw ounded
Ġf et
ĠAr k
Ġtri als
Ġman aging
St ory
ie v
Ġmin istry
Ġr iding
Ġgr ade
Ġindic ates
Ġcent uries
ĠE ff
ra ig
iff s
Ġst em
Ġco inc
Ġ5 4
Ġspe ll
ĠAff airs
Ġmeaning ful
Ġop ens
d iv
Ġt iss
Ġe ase
ĠMr s
Ġclot hing
Ġmarg in
is k
Ġâ ĪĴ
ann on
ĠA z
Ġparticip ation
c est
st al
Ġph arm
ced ented
ĠSt ore
ĠCap ital
Ġre vers
ĠS ix
o ice
Ġpo ison
ĠBre xit
ĠY emen
om ed
St ep
Ġcompet ing
Ġmem ories
Ġl apt
Ġthe ories
Ġrec ipe
Ġpass age
v ision
y es
8 3
ĠT es
Ġg ross
Ġag ed
r if
Ġdr one
ĠC redit
Ġdisp ute
Ġbl ank
Ġdam aged
Ġ199 3
- >
ĠHam ilton
Ġhost ed
Ġsubst ance
V D
ĠC helsea
Ġpromot ing
op en
Ġopen ly
ĠInst agram
Ġar bit
ĠG T
Ġ19 50
Ġfac ilit
Ġb in
Ġclin ical
ĠChild ren
a uthor
Ch rist
ĠCr ime
Ġ1 20
Ġinvest ments
Ġcons ensus
ond er
ere nt
Ġeduc ational
ĠH old
ĠV ik
um ble
Ġn ic
Ġcust ody
Ġelig ible
Go ogle
Ġleg ally
Ġdis h
Ġend orse
iz er
ĠLe on
Ġmiss ions
ĠHaw ai
ch ild
Ġmem o
Ġg ate
Ġstud ying
Ġman ifest
Ġt ables
ere my
ig ate
Ġchar ity
Ġaddress es
C omm
Ġdisc ount
ĠP ict
e ven
Ġins pect
b its
Ġbatt les
Ġathlet es
M s
ĠAs sembly
ĠL am
Ġn in
ar ation
om y
ĠF al
Ġfoss il
Ġsuspect s
Ġenthus i
ro ph
ĠMan agement
Ġt ired
Ġ2 50
Ġcounter part
ĠTr ade
le ft
Ġd ating
Ġhe lic
s es
Ġspect rum
Ġpresent ation
ĠSt ation
er ia
ĠS et
Ġbott le
Ġl ux
Ġfund ra
Ġenh ance
ge red
Ġtherap y
con st
F O
ĠM etro
ĠW ales
Ġper ceived
b ase
ĠSe an
ak h
ater al
Ġback ing
Ġdomin ant
G A
Ġdef ending
h ard
Ġunder lying
Ġdiscuss ing
ĠE th
Ġrac ing
ĠTh rough
ĠF estival
Ġburd en
ri ors
Ġexpand ing
Ġstop s
Ġmus cle
ĠEx per
we ek
Ġv ig
Ġbe ings
Ġb ot
Ġt ap
ac hel
Ġtrans action
ĠMar x
H z
Ġn a
Ġrec ruit
Ġpick ing
ass y
Ġm ood
ĠG ary
it udes
M us
ĠD er
8 1
Ġman agers
Ġgather ing
o z
Ġhop efully
ĠT ok
yl um
ll a
ar ia
ĠU ber
ĠLib ya
ĠE qu
m ath
8 2
Ġcr us
Ġimp ression
or able
land o
Ġinst itution
Ġscr ut
T P
ĠBat man
ĠV ideo
Ġproced ures
igen ous
se ction
Ġro y
Ġp ocket
Ġcreat ures
mark et
Ġarri val
ĠT ai
Ġh ip
Ġe ager
Ġpoll ution
Ġst ere
ĠAnd re
Ġcomp at
Ġfood s
Ġkit chen
Ġrec re
ĠB oe
Ġorgan ic
al ysis
Ġsurv iv
ĠPent agon
Ġsh ipping
Ġcapital ism
Ġtim ing
Ġrequire ment
ĠMor gan
Ġgl ad
play er
Ġunf air
ĠAss ad
Ġins ult
ĠC S
Ġm ice
ak i
it ure
ĠRep resent
ĠEl izabeth
Ġdise ases
Ġindust ries
Ġper mit
ĠOak land
Ġb owl
j s
ĠMur ray
ĠS on
od ox
Ġhelic op
ĠB al
Ġdiv or
Ġ5 6
ri x
Ġpunish ment
i ac
Ġbe ach
ĠC reat
Ġfl ed
ac her
Ġhosp itals
ĠM ess
ĠH art
ative ly
ad ers
Ġshe ll
T y
ĠCome y
Ġt ons
Ġengine ers
Ġse ed
Ġs ed
pt ions
Ġh ire
Ġstat ist
Ġmod ule
O ut
ĠK ick
Ġcoach ing
Ġob sc
Ġans wered
Ġn erv
v an
Ġregul atory
opy right
s l
Ġgraph ics
Ġst ance
Ġso vere
A ct
P re
b ing
alt ies
Ġexpl aining
Ġrhet oric
Ġbe ating
ĠKe ep
ol n
ab et
ĠY eah
Ġb ow
ag ger
ĠEm ail
Ġacknow ledge
ĠO p
am ous
ol ar
ĠF riend
ov a
Ġprincip al
Ġpull ing
ĠMic hel
Ġsign ature
** *
oc ial
Ġconv ince
og y
Ġt ut
cos ystem
Ġvar iable
Ġsearch ing
it o
em ic
ol ving
Ġover come
T ER
Ġsix th
Ġprefer red
Ġadv iser
Ġtrend s
Ġd ies
ĠTenn essee
ĠML S
Ġp ill
ĠRus sell
E X
Ġreb els
ĠTh ompson
w atch
Ġperiod s
oc a
Ġinter action
Ġmer ch
Ġpsych ological
unicip al
C al
ĠR oll
du ction
Ġ( "
Ġeconom ics
D ef
ĠO x
ĠUs ing
Ġ5 9
ĠS ure
Ġout lets
C lick
Ġsign als
ĠCharl ie
Ġbill ions
ĠEx ecutive
Ġ !
ri or
Ġline up
ĠKent ucky
Ġe cho
br id
ĠInt el
Ġ199 1
Ġtem por
Ġegg s
Ġbad ly
Ġse gment
F inally
Ġm ath
Ġset up
AL L
Ġsent enced
R em
ĠY an
Ġre nd
Ġevery day
Ġcommand er
net ic
ar re
Ġl oves
ĠG il
Ġgen es
Ġrequ iring
V iew
Ġinv asion
Ġar r
Ġb old
Ġbul let
Ġpart ly
ĠH oll
Ġesc al
Ġrem oval
ĠS a
ĠJ ean
Ġinst ant
ĠDr agon
Ġar ts
Ġtop ics
Ġinqu iry
Ġg ene
Ġu pload
Ġam endment
Ġunder t
Ġweak ness
Ġconcept s
ĠR ather
enez uel
Ġr h
Ġsh oes
20 13
Ġg ig
ĠDel hi
Ġfab ric
? ?
E arlier
li est
Ġse ctions
Ġfrequ ent
Ġocc urs
ĠI ron
ke e
Ġm igrants
ang le
M ich
Ġcompens ation
N BC
ĠL i
Ġengine er
ĠF inally
Ġattract ive
A F
ĠMc K
Ġun ve
ĠB i
art s
d y
Ġc iting
Ġl ad
Ġtwe ets
Ġut ility
Ġ ).
ĠS ound
ĠE T
Ġpost ing
Ġridic ulous
in stein
Ġblock chain
Ġspeak er
ĠCl ark
aren cy
Ġcl er
R eg
ĠB ox
Ġcor rupt
Ġtal ented
art ed
Ġcoll aps
ĠThere fore
Ġnot able
Ġe lder
Ġgen re
iz za
Ġdead line
Ġf o
Ġle ct
Ġcar ries
Ġro lling
Ġdi am
ĠA N
s ub
ne cess
Ġelimin ate
Ġappro aches
Ġm ask
Ġanaly sts
Ġs its
ĠF inal
âĢ Ĳ
Ġinst ances
Ġint r
Ġpubl ishing
Ġunpre cedented
p g
s burgh
Ġro ots
Ġc ens
gr ade
Ġcol our
ĠSim on
} }
ĠPh oenix
Ġcollabor ation
Ġb ene
Ġtox ic
Ġinequ ality
che ck
Ã ±
sc reen
ĠPri v
Ġneighb ors
ĠZ e
Ġdram atically
Ġins ight
Ġhom osexual
Ġc ock
Ġpri ze
Ġtown s
Ġar c
ĠHar per
Ġextra ordinary
Ġper ception
ĠWhe ther
ĠG ordon
ĠB M
ent al
Ġbut ter
Ġmain tenance
ĠPh ill
Ġche aper
Ġassoci ate
ĠP sych
Ġcou p
m ic
g us
Ġpar ad
en ess
Ġshe et
Ġg est
ĠBel ow
v ia
Ġcogn itive
Ġencour aging
is dom
Ġse ized
Ġinterview ed
Ġdeploy ed
Ġd reams
row ing
Ġviol ations
Ġcamp s
Ġcom ics
ĠCap tain
Ġconstit u
ĠRe agan
Ġemploy ers
ĠE vent
Ġres erved
Ġaim s
M od
ĠB ow
Ġfunction al
Ġmyster y
Ġdisplay ed
A Y
Ġbu ck
w ill
Ġsp an
Ġde light
Ġlo op
ĠEconom ic
Ġoccas ionally
ĠP ers
Ġtr aged
ĠM it
ĠG O
ixt ure
Ġbirth day
ĠV e
Ġex port
ap ore
ric ane
Ġhero es
ĠS av
Ġv end
Ġfat al
Ġcorrect ly
Ġprompt ed
est yle
T op
ib an
S C
ĠSt ew
Ġst amp
Ġcontem porary
Ġprospect s
Ġrecommend ations
Ġdiplom atic
ĠCo le
ĠG ro
Ġ5 7
Ġdisappoint ed
ĠJ enn
Ġconst itution
Ġmanufacture rs
Ġexc lud
ĠA ccess
Ġad equ
Ġmoder ate
Ġe cosystem
Ġaccomp an
Ġdemand ed
ĠSt aff
ĠG DP
Ġbe ll
V P
ĠMont real
ĠPhot os
igh th
ot ing
ol i
P aul
arg et
Ġn ose
Ġple ased
p ack
Ġlab our
ĠE ver
Ġlif etime
ĠBrook lyn
ĠD ick
Ġcommunic ate
ĠRes erve
d s
Ġfight s
Ġmod ified
Ġs essions
Ġwedd ing
G e
Ġdr unk
r ac
Ġexplos ion
Ġbi ological
Ġkn ock
ĠE PA
Ġland ed
ĠO cean
ĠT ax
Ġrep air
ĠL ibrary
ĠAuthor ity
Ġ8 5
Ġrepresent ation
ĠG iven
ail able
Ġartific ial
h as
Ġsub sc
Ġ5 8
Ġp a
new s
Ġown s
Ġrel ation
ĠAnton io
end ar
og a
le ans
9 6
Ġdesign er
Ġl ift
St ate
Ġkick ed
Ġconscious ness
el ing
ĠKh an
Ġh anging
Ġless ons
Ġdef ender
ĠOr der
ad i
Ġimp osed
ĠDig ital
Ġgu ests
c or
Ġan onymous
Ġconcer ning
ix on
Ġpregn ant
Ġadop t
Ġmaintain ing
Ġunder ground
T ON
Ġass et
ĠE st
Ġs li
ĠF ive
Ġingred ients
Ġrec on
ĠR ome
Ġsh irt
ĠCh annel
Ġp unch
th rop
Ġche ese
ĠAl an
ĠB ol
P L
on z
inc oln
Ġem p
Ġint ellig
ĠCon vention
Ġpod cast
m ir
Ġemot ions
Ġinter ior
ows ki
Ġcou ples
Ġless on
Th anks
Ġcreat ure
M ark
ac re
Ġsh ocked
Ġopp ose
ĠAr gent
is ition
": "
Ġperform ances
Ġres olve
Ġvolunte ers
ch ing
9 8
bour ne
20 17
Ġsold ier
u z
Ġlog o
Ġstim ul
Ġter r
Ġv ocal
ĠB ul
ĠProt ection
Ġg irlfriend
ĠB urn
u i
Ġir re
Ġacc um
c re
Ġjump ed
Ġsum mit
app ropri
Ġann oy
Ġab stract
at us
Ġj ihad
Ġm ile
Ġn urs
Ġmilit ants
T R
2 50
ult y
ĠP age
ist ant
Ġprofession als
ĠMiss ouri
ĠAn na
ĠL ear
Ġgu id
Inst ead
Ġref ers
Ġtravel ing
Ġs wit
w ed
Ġdesk top
ac les
F i
h uman
Ġisol ated
W he
Ä ĥ
Ġexist ed
Ġadvoc ate
ol s
Ġopp osing
ĠF ant
Ġrec alled
Ġl ibr
s ome
Ġfor um
ĠCo al
Ġintegr ation
ĠD ur
Ġdescrib ing
Ġbox es
ĠC ase
ĠJava Script
l s
ĠOr leans
gr aph
Ġ6 00
Up date
Is rael
Ġconf used
Ġmin imal
ĠIm m
ro ck
Ġpeace ful
ial s
w ind
Ġin herent
St ation
g ets
Ġsurround ed
h ist
ĠL im
ear ly
ĠM ail
Ġst ro
tain ment
ĠCap itol
el le
own ed
Ġh oles
ĠC ustom
ĠBar b
Ġ198 9
Ġintegr ity
ĠS D
Ġme al
ĠS U
hatt an
ump h
Ġinspir ation
Ġconfig uration
Ġexp ense
Ġcred its
ĠR s
Ġ vert
Ġide ology
ĠK now
Ġelect oral
Ġsub ur
ĠPlay er
Ġp m
od ge
Ġy ell
Ġsil ent
Ġbur ied
ĠMar ine
Ġsusp ic
ĠTr ust
ĠNev ada
Ġs ne
Ġd ual
Ġdesper ate
ag en
Ġst ack
ĠDo ctor
âĢ¦ .
ĠH an
Ġcho osing
Ġsc ream
Ġbom bs
N ext
Ġcl ip
Ġteam mates
Ġb ands
us er
Ġfle et
G ener
im ize
ik h
Ġaccept able
st arter
ĠOr lando
ĠP y
Ġregist ration
ĠH al
ĠO cc
ĠW right
C D
ĠPort ug
Ġbrut al
ĠC B
Ġcon vert
ĠHit ler
Ġstrugg les
Ġan cest
Ġsubscrib e
ĠAll iance
Ġmoment um
( "
Ġj er
Ġkey board
ĠAre a
ĠLe ban
Ġpromot ion
1 50
e lection
ĠAr senal
ĠOn line
Ġsc ar
Ġev ident
ĠM ove
T ime
Ġorgan isation
Ġwond ering
Ġclos est
Ġat he
ĠInd ones
Ġembr ace
Ġrefuge e
ĠFollow ing
i ens
Ġte eth
aw ks
ĠB an
Ġpro be
Ġut ter
Ġoccas ional
ĠH amp
Spe aking
Ġas sembly
Ġbank rupt
Ġrefere nces
Ġjournal ism
Ġexp enses
ĠN on
Ġqu it
ĠSte el
Ġsubsequ ently
Ġmon ster
f ather
ĠH and
Ġpr ide
Ġgu ards
Ġinterpret ation
ĠW ord
ĠV enezuel
he ro
ib l
D is
Ġy eah
Ġrem oving
Ġsub mit
Ġprof ound
ĠInd ependent
str ong
che ll
Ġcomprom ise
Ġdistrict s
ĠPitt sburgh
Ġth ro
v i
Ġkn ife
Ġconsider able
Ġsurv ived
Ġexclus ively
h ire
A B
Ġst ating
Ġeng aging
Ġref use
Ġmathem at
ĠC ould
Ġcharacter istics
ĠV en
Ġdom inated
Ġl obb
Ġjust ify
ip edia
Ġbrief ly
ĠMount ain
ĠN azi
ĠS ource
Ġb ird
Ġmin isters
is d
F l
Ġ7 2
Ġl in
Ġch ip
Ġtremend ous
Ġcont rary
Ġelect ron
Ġsustain able
ĠM un
ok er
Ġload ed
Ġnerv ous
ou b
Ġdisapp ear
Ġfl our
Ġrout es
Ġpro st
ab e
orne ys
Ġexecut ed
Ġsoph istic
Ġg ri
Ġpro portion
Ġas ylum
Ġsex ually
book s
Ġgame play
ĠEvery one
20 12
ĠD uke
g ate
Ġdon ors
at tered
st op
Ġconf usion
Ġrevolution ary
ĠR est
w a
t ra
ars on
ĠA aron
oc ated
ĠAnd y
b ound
Ġcur ious
ĠR aj
Ġp ir
el ve
ĠTre asury
Ġh arsh
Ġatt ending
Th ank
ĠAd ams
li hood
Ġspeak ers
inc ome
Ġc abinet
He y
T E
Ġnow here
c al
ĠD ream
ĠS H
Sh are
Ġfle e
gr ad
Ġbr ands
Ġprint ed
Ġch ronic
Ġ8 00
ã ĥ
ĠTes la
Ġcharg ing
Ġv oid
Ġeng ines
Ġphys ics
ĠH aving
lim ited
ĠB u
ut ter
Ġconcer t
Ġout comes
ĠSher iff
ĠSh ort
ĠOff icer
ĠS E
Ġstreng then
ĠA ren
Ġmir ror
Ġfail s
ĠP ant
Ġpass enger
Ġcrimin als
Ġo rient
th ood
Ġcha os
ĠiP ad
Ġstead y
sec urity
ĠRob inson
f unction
ĠG ib
ubl ished
ĠCur rent
sc ar
ĠI M
ur se
ĠÂ ±
b en
ĠNet her
Ġrob ust
ĠMan hattan
Ġsp o
im mer
Ġend ors
9 2
Ġspec ulation
am ine
Ġde emed
ree k
Ġh iring
ĠTal iban
Ġdro pping
mer ce
Ġf el
ĠSp ir
Ġcert ific
ĠGi ants
Ġintegr ated
ĠSing apore
ing e
ĠCh ange
AR T
Ġpres ents
ĠPer ry
ĠJ un
. ]
Ġguarant eed
ot te
ar o
Ġav o
Ġle aked
Ġpack ages
re ck
Ġf ert
Ġple asure
ĠN orm
Ġep ic
Ġsusp ension
Ġchalleng ed
Ġpack ed
res hold
Ġcheck ing
H P
Ġeng agement
ĠK ings
Ġrad iation
Ġb its
Ġbomb ing
Ġsl ot
m ble
Ġhun ting
Ġal ert
Ġprodu ces
Ġwitness es
ol id
ĠUS B
Ġpat ri
ĠK l
ĠM ult
Ġdef ended
Ġedit orial
ĠF A
Q L
ĠB and
Ġw et
Ġrec overed
ĠC raig
an im
Ġdevelop ments
ĠA lp
Ġsimultane ously
Ġbacter ia
wh ite
Ġblock ing
ĠH oly
Ġattract ed
ĠL ater
Ġbo om
Ġfig ured
ist le
9 3
Ġall iance
Ġresearc her
Ġv it
Ġcor rel
Ġtaxp ayers
ĠH ung
ĠEnter tainment
re nd
Ġhost s
Tr ans
ment ed
ĠN one
app er
ĠC ON
ĠJ eremy
Ġd a
ĠRuss ians
Ġcap s
Ġexam ine
iz arre
Ġpat ent
ĠO pp
Ġvari ables
G l
ĠL incoln
K E
Ġc inem
Ġem bed
G u
ĠF uture
ĠT el
ĠChair man
Ġj unior
Ġo xy
ate ful
9 7
Ġpubl ish
S U
Ġt ear
ĠT ower
le ep
ĠL es
N et
ĠPol and
Ġbre ast
Ġ6 6
ĠUkrain ian
ĠStud ies
r ics
Ġen act
c ap
Ġ6 2
Ġfl ights
Ġaccur acy
ĠV lad
Ġimpact s
Ġdist ribut
Ġsurprising ly
ades h
ĠH u
Ġra ises
Ġburn ed
Ġsol o
7 00
op t
lyn n
à ¤
Ġfl av
AT CH
Ġv ent
Ġl os
Ġmet h
secut ive
Ġang le
ĠD ak
ĠW ould
ĠS ci
Ġqual ified
g ood
Ġdecre ase
Ġev olved
Ġev ac
ĠC PU
Ġfl avor
Ġun necess
gg ed
R ight
on ed
in st
Ġcourt esy
Ġas semb
ĠMP s
ress ing
ard o
Ġproduct ive
Ġfing ers
ĠW i
Ġintim id
Ġbl amed
Ġr ic
Ġexpect ing
ethe less
Ġdepend ent
Ġtransfer red
h r
ĠH IV
Ġident ical
B N
Ġexpect s
Ġvis its
Ġen abled
ĠR angers
Ġl ane
oph ob
g ly
ut er
ĠT otal
Ġacc ord
ĠStew art
Ġv enture
ĠGr iff
r ition
Ġv oc
Ġdepart ure
Ġsh ops
N ame
if ier
olit ical
L ist
Ġign or
Ġb arg
Ġmotiv ated
Ġrepe al
ĠG ill
Ġkill er
ĠU b
ĠMiss iss
Ġagree ments
Ġconflic ts
d ict
im ir
Ġforg otten
Ġsc ared
Ġrest ore
v ation
ĠT s
is hers
th odox
ĠComm and
P al
Ġorgan is
Ġnation wide
Ġinflu enced
Ġcrit eria
om ic
ter ror
B r
Ġoccup ied
ast e
Ġrank ing
ĠEd ition
Ġtrail er
Ġin her
d r
ĠP ope
Ġtele phone
Ġanim ation
ĠTh ings
Ġback s
M AN
Ġoccas ion
ĠO R
ĠSh ould
Ġfunction ality
Ã ¢
w ich
Ġcheck ed
ĠTh ink
ĠB or
Ġanal ys
Ġconcent ration
Ġhousehold s
ern and
ĠRed dit
Ġres erv
Ġcour age
R ed
le ted
Ġalgorith m
ĠG h
Ġpromot ed
ah oo
d ep
Ġre ass
Ġimp rison
look ing
Ġexplicit ly
ĠMod el
9 4
ick ed
Ġcy cl
ĠC C
Ġbab ies
I E
Ã³ n
J P
Ġo ught
Ġt anks
ĠSupp ort
ĠR h
Ġrele asing
ĠH ug
b ian
ond uct
Ġst atic
Ġb ases
am ents
v as
ER E
Ġant ib
For mer
ĠMore over
Ġprivile ge
ul se
Ġstri p
ĠPl ace
ĠJ erry
ĠPro duct
ĠWar ner
Ġmet ers
Ġentr ance
u ating
ĠD u
Ġdes p
Ġst ats
Ġ `
ĠN i
Ã §
Ġinvestig ated
l arge
Ġsen ators
Ġtow er
Ġout f
ipp i
ĠCanad ians
A g
Ġw ise
ag ine
Ġappl ies
m ay
Ġform ula
Bl ack
e le
ĠC old
Ġover l
ĠEgypt ian
Ġuncertain ty
Ġh ub
ĠChrist opher
Ġinev itable
Ġprov ider
Ġinflu ential
Ġpain ting
ĠStand ard
Ġmod est
Th ree
ĠB C
Ġdest ination
ĠQue ens
Ġl ens
Ġch ips
Ġinf ection
Ġall y
Ġor bit
Ġcontin u
Ġsole ly
ĠN O
Ġd imin
ie re
bre aking
ac o
Ġbel t
le ading
Ġthe ft
Ġsc rew
Ġin aug
b in
ĠN iger
Ġm art
Ġins ist
ri ke
Ġinvest ed
ĠAl aska
Ġpolit ician
Ġtransp arency
Ġimm une
ĠOtt awa
Ġprov isions
ĠPlay Station
Ġsing er
n ie
for ward
ĠE b
id al
ĠUn ivers
Ġhand led
Y eah
ab out
oll ar
be ing
ĠOlymp ics
Ġuncom fort
Ġimp ressed
ĠLouis iana
ry ing
" ,"
Ġin box
Ġ6 3
Ġoper ator
ĠNether lands
ĠO il
Ġball s
ĠM ap
ĠM arg
ou p
id en
Ġsim ilarly
Ġlif estyle
Ġhead lines
ĠJ ane
Ġcol leg
Ġbo ards
o ft
rif ice
B ook
u ccess
ĠSt ock
ĠE nt
Ġdis abled
iz ations
ĠStan ley
Ġoper ated
Ġregard ed
C ar
unt u
Ġt ent
ĠTre k
n an
z one
il ation
Ġlaunch ing
Ġrel uct
amp a
C or
Ġphotograph s
o vers
Ġkid n
Ġsa ke
Ġke en
Ġvol unt
c itation
off s
Ġcon secutive
ach ment
Ġdet ention
Ġb ol
act or
ĠD rug
ĠM other
ĠTy pe
ĠUn like
th ur
s uch
Ġprosecut or
Ġprosec ution
Ġg ym
Ġconv iction
m illion
U C
i ar
? âĢĻ
Ġearth qu
S upp
Ġle an
Ġfil ter
Ġro lled
ist ance
Ġsu ck
). [
ĠS N
ĠL og
Ob ama
D R
G ood
Ġsett le
Ġk iss
ke ley
ĠMod i
ĠCapt ion
ï ¼
l ink
ĠHamp shire
Ġm ales
bit ious
Ġbul k
ĠT able
? )
ar med
ĠCor p
c ard
ol as
Ġtraged y
Ġt ears
ĠCorpor ation
in ite
tr ack
Ġch ocolate
t arian
Ġpres erve
Ġguid ance
ĠBl ood
on ing
ĠBe ing
or ate
ĠPhilipp ines
ut her
k es
Ġpo et
ĠF ather
Ġle ak
eral d
Ġm ouse
Ġin ex
Ġb ags
ĠS everal
ll or
ur ches
Ġexam ined
Ġun re
Ġrec k
Ġaccept ing
ĠFore st
Ġdest ro
Ġmiss iles
ĠT R
ĠF O
Ġbene ath
angu age
Ġparticip ating
Ġel abor
Ġabs urd
Ġj et
F urther
ra h
viron ments
ass ion
Ġneighborhood s
Ġsy nd
Ġreflect s
Ġcompe lling
Ġcompl ained
ĠStan ford
Ġb other
Ġlux ury
ĠP a
Ã ¨
Ġcontro ller
Ġad ap
Ġne ur
ĠVictor ia
t own
ix el
Ġ1 000
ter y
ĠH ans
v ol
Ġthe ater
ĠMar io
ĠGr ant
ĠN elson
ĠEd it
Ġen for
Ġshel ter
ĠB ir
T O
Ġn u
ĠMedic are
ĠM orm
d og
Ġf its
ĠMedic aid
CA A
Ġ< /
ĠD a
ĠMar c
Ġjur isd
ĠK r
Ġcons ists
l aim
Ġsignific ance
Ġpo lling
Ġoccas ions
Ġsto pping
ĠSc he
Ġpost er
ĠRub io
ĠTok yo
ĠK night
Ġreal istic
Ġexc use
Ġb one
Ġp ose
Ġwire less
f irst
d f
ĠCl oud
friend ly
Am ong
D own
Ġaccompan ied
Ġt ension
Ġsee ks
ust ing
Ġback up
Ġmand ate
Ġrese mb
9 1
spe ed
Ġass ists
ĠContin ue
Ġthe oret
Ġposs ibilities
w all
uck er
ĠL ocal
Ġsub tle
ĠFil m
Ġaccus ations
E ach
Ġbet a
M B
IL L
âĢĿ )
Ġcook ing
ĠCh ampions
ĠG ard
Ġsupposed ly
boy s
ĠW y
Ġemphas is
Ġadv ent
Ġfin ishing
ĠSnow den
Ġsust ained
Ġin hab
Ġf er
ĠQu est
Per haps
Ġbeat en
ĠMal ays
ous es
t est
ĠW inter
Ġa wards
Ġd ressed
Ġproject ed
ĠAb u
amb ling
ite ment
com p
Ġb ump
ĠNot hing
Ġinnov ative
ĠN S
ĠEvery thing
ĠCh ron
B el
Ġaffect s
ĠP ear
ĠV in
Ġt orn
Ġprevent ing
Ġconstruct ed
ĠS EC
pp y
G r
Ġlong time
ĠS port
bl ock
ĠT am
n on
ĠS ection
ect s
Ġfuck ing
Ġpol ar
Follow ing
Ġer u
Ġg arden
ĠD E
ĠOrgan ization
Ġoper ators
Ġspeed s
ĠC as
Ġout standing
Ġf ed
ĠFin ancial
ne g
Ġmortg age
Ġman ual
Ġ3 60
ĠHam as
Ġpass word
Ġrec ession
Ġent ity
Ġdr um
ĠFl ash
ĠP ython
ber y
v ar
Ġw isdom
Ġdocument ed
Ġg ut
Ġtrad ed
b es
il st
ĠH ad
ĠN ature
ĠSo ft
Ġint rig
Ġoccup ation
ĠKurd ish
Ġold est
Ġg olf
Ġdocument ation
ĠM ind
Ġfavour ite
ĠJim my
Ġpra ised
ĠN ich
ĠD al
Ġresident ial
Ġcop s
Ġspot ted
J o
ot ion
r c
ĠSte am
inc ial
Ġreven ues
p ing
ant e
cent ury
Ġlay ers
E m
ĠI V
Ġwal ks
ĠComm ons
Ġinteract ions
ĠPatri ots
ĠTh ird
Ġsur ge
ĠC R
Ġb icy
Ġaw ful
ell o
Ġcalcul ated
Ġf ut
er r
Ġpan els
olit an
io x
Ġcirc uit
ug by
Ġexperiment al
st ra
Ġinf ant
Ġrenew able
Ġmyster ious
Ġautom atic
th al
Ġtr ains
any ahu
Ġth reshold
ĠOther s
Ġt ale
Ġd irty
---------------- ----------------
ch arg
ĠAb d
Ġdeal t
ig e
Ġreview ed
Ġpain ful
Ġgl obe
Ġ6 1
Ġtri ps
ĠN ash
as m
ĠAir port
ĠC itiz
c ott
Ġcle ared
ĠWay ne
Ġ6 8
Ġearn ings
â Ĥ¬
B ar
c ular
Ġcross ed
Ġadminist rative
Ġconven ient
Ġr iders
ĠL ad
eg a
Ġco in
Ġgraph ic
Ġthe r
ĠK a
Ġ6 7
Ġr anging
l ied
Ġb izarre
Ġliber ty
ĠTr ue
Ġdispl ays
Ġen vironments
ĠE mer
Ġicon ic
Ġp our
Ġrob ots
Ġmother s
Ġit er
Ġhost ing
f ish
Ġl ady
Ġam bitious
ism s
Ġ198 8
Ġhe s
ia h
Ġres erve
Ġsec ular
ard ed
Ġsent iment
r ons
Ġdes ert
ĠMc Donald
Ġpred ec
sel ess
ĠF le
Ġconver ted
Ġdo ctr
Ġtiss ue
is ive
ĠMur phy
Ch ina
ĠA FP
for mer
Ġdrop s
ĠL arry
ĠCl imate
re qu
ow der
j amin
Ġexplo it
ĠC L
Ġcreat or
ĠDe an
Ġaddress ing
Ġres ort
ĠN ik
ĠRed s
qu es
Ġh iding
Ġsafe ly
Ġs ons
Ġatt orneys
Ġdevast ating
ĠB ah
Ġan ch
itt y
sh ore
Ġsleep ing
Ġcross ing
ĠSum mer
u ably
Ġsp ray
Ġrestrict ed
Ġor g
Ġarrest s
Ġw ore
ĠM A
Ġscrut iny
Ġp ension
Ġunf ortunately
Ġt um
Ġbur st
Ġlibr aries
Ġdepart ments
Ġmurd ered
ĠDe ep
Ġcompet itors
t wo
ĠP ir
Ġavail ability
Ġal ign
Ġnewslet ters
ĠF OR
i ated
Ġcontain er
Ġfil ing
Ġwh is
om er
Ġadop tion
ist a
v o
D id
ĠD rive
Ġnewsp apers
ĠSing h
Ġproduct ivity
On ly
be at
k ward
EM ENT
Ġpregn ancy
Ġto ss
Ġbuild s
Ġre ign
Ġover night
w ords
Ġappear ing
Ġindic ation
un a
Ġdisc rimin
cel ona
ĠS ac
Ġear ning
Ġpubl isher
Ġcomb ine
Ġview ing
Ġd uties
Ġm isc
ĠP i
ĠMan ning
Ġf ishing
ĠS in
Ġreflect ed
ail ing
Ġuncomfort able
M art
ĠFurther more
put er
ĠV ar
ĠMag azine
Ġm unicipal
is ode
S D
k ind
ĠN ative
Ġhor rible
ĠK al
Ġchemical s
n amed
go vernment
g ence
Ġsepar ated
Ġan onym
Ġrel ie
Ġre wards
Ġsophistic ated
Ġr ivals
Ġv iable
Ġc ave
Ġdes erves
IC E
b ably
Ġpr icing
Ġm m
Ġact ed
AT ION
ari os
oy d
Ġrel atives
May be
ac cept
Ġwin ners
ĠMad rid
P I
Ġprepar ation
ight ing
Ġequ ipped
Ġlimit ations
Ġr itual
u els
ĠF ig
Ġre cept
Ġ198 4
Ġamong st
Ġcomplex ity
Ġin du
Ġmechanism s
Ġsl ide
ir s
ĠCh rome
Ġ= =
ĠRon ald
Ġfire arms
Ġparam eters
ĠF ederation
ar ians
Ġpe er
Ġcomm od
Ġcar rier
ĠWik i
c at
ĠW r
ĠPh ys
Ġsuggest ions
Ġexpl oring
B en
Ġdelay ed
Ġme ets
P s
Ġtou g
Ġ198 6
ĠTai wan
Ġb ip
Ġlight ing
ĠHT ML
ut o
Ġco ord
Ġto b
ay a
Ġt u
Ġcur ve
win ning
Ġstart up
Ġintellig ent
ĠMississ ippi
ĠColl ins
Ġcelebr ated
Ġce ase
ĠBl u
Un fortunately
Ġab und
s ize
Ġens uring
Ġquiet ly
c ount
i ors
ĠHe art
Ġinter ven
ĠT an
Ġnight s
Ġreb el
Ġg host
Ġcollect ing
ĠL uke
ern el
Ġdet ained
ĠD omin
Ġworld s
Ġtransl ation
m ons
ell er
ĠM and
ĠMcC on
Ġemploy er
b at
Ġor ange
ĠN az
vers ion
ĠP oll
Ġbe ef
d ata
ĠD VD
Ġrad ar
ĠLe vel
Ġinstall ation
prof ile
Ġdeliver ing
les h
Ġdesign ated
Ġdeb ates
Ġm igration
ã Ĥ
Ġco ins
Ġpled ge
Ġ) ;
ĠMel bourne
Ġgr ants
/ .
Ġoff season
Ġca ution
Ġcat ast
or ia
Ġnot ably
p in
ac ies
em it
are r
ĠIn n
Ġbug s
Ġthem es
Ġtable t
Ġdeleg ates
Ad vertisements
ag u
Ġcour ses
Ġcount less
u ates
ĠEag les
Ġgrad ually
Ġwitness ed
ĠBl ock
Ġgold en
ĠQue bec
Ġcomm ands
ĠCoal ition
ĠCub a
Ġt ends
Ġmean while
Ġviol ated
20 11
Ġdemonst ration
qu er
Ġpsych iat
âĢ ³
o op
Ġcomment ary
Ġdem o
ĠS ex
ĠSwed ish
DA Y
Ġann ually
AT ED
AS H
ĠN a
ĠE C
n atural
wit zer
Ġp ending
Ġobserv ations
Ð »
Che ck
r in
ĠHe at
Ġremem bered
ĠE ve
Ġquestion ing
Ġfor b
ĠS aint
ĠD isc
ĠE D
Ġf ires
arent ly
Ġimp ose
Ġhighlight ed
Mich ael
Ġlapt op
ren cies
ĠO w
Ġrepl acing
Ġver ify
Ġse eds
Ġcont ents
Ġfrust ration
Ġpre view
Ġh unt
Ġdiscipl ine
l u
found er
ect ed
ĠMarsh all
Ġpoor ly
form ance
Ġpat rol
Ġcor n
Ġsupp lement
op les
ĠT oy
or ical
Ġpra ise
d ev
ude au
Ġbath room
Ġcom ed
Ġt empt
ĠL ady
Ġgra ve
TH E
Wh ite
ĠPe ace
Ġact ress
ĠPro gress
Ġhapp iness
Ġexpl oration
Ġf urn
Ġcru el
b et
Ġas pir
ĠN ap
ĠAr ts
Ġprevent ed
ĠL ions
Ġgent le
Ġst arter
Ġch amber
ĠBl ake
ĠExp ress
ĠHun ter
b urn
ĠR ound
Ġpr ayer
Ġperm itted
el come
Ġinst antly
Ġven ue
Sec ond
Ġcult iv
Ġoxy gen
Ġalt ogether
Ġbond s
ĠP od
Ġamb assador
Ġare na
pie ce
ur ities
. ),
Ġdisapp eared
ĠBer keley
Ġtechn ological
out ing
ĠW ard
Ġplan es
Ġcon ced
ĠH uff
om ach
g ov
Ġsuggest ion
em in
Ġpart ially
Ġagric ulture
ĠMot or
ĠRog er
od a
comm un
ath on
Ġdr inks
Rep ublic
M on
ĠBe at
ĠL en
ĠCamp bell
ĠFer gus
anc hes
Ġs izes
ra it
ĠSm art
Ġprotect ions
ĠF I
Ġincor rect
ĠF R
Ġfasc inating
ĠWh it
ĠSt orm
ĠP el
W orld
ĠEnvironment al
ĠChristian ity
Ġvacc ine
g al
ĠAdd itionally
ĠHawai i
Ġlog ical
al id
arm a
Ġpar ks
ier re
Ġun l
Ġhonest ly
D E
Ġsty les
Ġsupp orter
ond a
Ġal ike
Ġtob acco
ĠM uch
oc ur
appropri ate
Ġsum mary
Ġd il
Ġfle w
ĠH ann
ĠN CAA
Ġ7 6
Ġadv ised
ĠKick starter
au cus
Ġto ll
Ġheart s
Ġmarg inal
og g
c ode
Ġsing ing
Ġad j
ĠC rit
ers ion
Ġappoint ment
st ring
Ġpro l
ĠCongress ional
Ġw ound
Ġeth ics
ĠFor ces
Ġst unning
Ġcomp r
ĠL aur
The ir
Ġcap ability
es ides
ĠMit chell
Ġenter prise
Ġtrans mission
ĠG ene
m ap
ĠVlad imir
en cer
W ar
Ġp owered
Le aks
med ia
ru p
ĠSpe aker
Ġmet aph
ro c
Ġpros per
ĠAm b
ĠQ ual
Ġreact ions
T witter
ĠG a
P at
Ġelect rical
ĠMan ager
Ġess ay
olog ically
Ġst ressed
ĠJ en
ĠEd itor
ug s
Ġc ous
Ġfac ulty
Ġm akers
ĠT odd
ĠCor ps
fl ow
ll i
Ġce iling
Ġder ived
ĠAren a
A tt
ĠRe id
Ġha z
Ġsevent h
Ġceleb ration
tt es
Ġmount ains
Ġsk et
Ġpress ing
Ġdraft ed
Ġarg uably
ĠK y
at al
ĠG ab
pl ing
Ġr ice
Ġc rown
Ġdep os
ĠA y
Ġdam n
Ġra id
M edia
p ot
ĠN ame
Ġtravel ed
Ġend less
ĠC ry
Ġcompl ain
ĠS essions
Ġdr ones
ĠU I
ĠOr ange
ĠCommission er
ĠJ ess
ĠB enn
ĠOx ford
Ġaw kward
Ġin eff
Ġapp lying
Ġaccompl ished
Ġsac rifice
Ġas h
g ments
witzer land
Ġwe aken
ĠWat son
ĠM as
Ġshoot er
ĠR T
ĠF lynn
Ġmechan ics
Ġbub ble
Ġbu nd
ĠBr us
Ġassum ption
Ġep id
Ġadvoc acy
Ġhost ile
ĠB ab
Ġreveal ing
ĠIm p
Ġc ats
Ġbre ach
augh ters
Ġg reet
ĠR ow
Ġrespect ive
h ill
lect ed
Ġexpert ise
T IS
Ġdev oted
Ġscr atch
S everal
Ġfr act
ĠDak ota
I d
ĠInd ians
ĠPark er
hand ed
ĠB aker
ĠMod ern
Ġcirc les
f i
Ġstrong est
Ġfocus es
ch ron
at oes
Ġan arch
Ġsh ocking
Ġcal endar
g ary
Ġaud iences
ĠCh all
Ġcitizens hip
Ġbuy ers
ĠW rit
Ġconfirm ation
Ġl one
Ġsw ord
ĠMedic ine
Ġtr ucks
Ġpartic les
Ġacqu isition
Ġconclus ions
ast ed
H ave
Ġcomput ing
T ake
Ġl ung
Ġsa uce
ĠLaw rence
ult s
Ġunnecess ary
Ġsp y
Ġdirect ors
uer to
ĠG re
ag raph
um ing
ore r
ond s
Ġfr ank
Ġl yr
Ġpen alties
Ġline back
form ed
iv an
Ġlong est
ĠR ap
Ġrespond ing
f ile
g roup
m are
ip her
F S
Ġdec or
ĠD ate
ĠTem ple
ue z
Ġbit ter
ĠD or
Ġhistor ically
Ġent ities
Ġad vertisement
ĠMor ris
Ġst ir
im s
sh ot
Ġinter rupt
u j
Ġadd iction
Ġpl acing
it ivity
Ġbe ars
Ġcontribut ing
am an
Ġy ard
Ġbound aries
li ver
h alf
Ġqual ify
Ġunderstand s
ĠFergus on
b ie
st orm
ĠRes p
by n
Ġd uration
Ġcomp osition
and ed
Ġquant um
Ġfrust rated
Ġconvers ion
ĠK as
ĠH us
Ġoper ates
o j
Ġsh ake
ĠLeg isl
M in
Ġcoordin ator
d am
ĠHot el
ĠF ind
on ia
Ġorient ation
Ġm ic
Ġhack ing
v ious
ĠBar celona
ĠSaf ety
w id
D C
o ard
ĠY ang
Ġpri est
ĠRec ords
G iven
Ġfemin ist
ĠB E
Ġ198 7
ĠHis pan
Ġst un
Ġmotiv ation
Ġdist ant
Ġfast est
Ġgro cer
20 10
Ġpain ted
ĠJac ob
it ate
bor ne
ĠNet anyahu
m atic
Ġped est
ĠF CC
lim inary
ĠI an
Ġd ensity
Ġexperien cing
Ġovers ight
mind ed
Ġcontro lling
Ġcount ies
out heast
Ġtun nel
Ġsaf er
Ġm ild
Ġn ode
ĠR oc
? '
Ġpop ul
Ġ197 9
PD ATE
Ġv ague
Ġdiv ide
ĠP rom
Ġtrans formation
ac ular
Ġdirect ions
Ġrece ives
ĠH end
Ġsent ences
at re
Ġu gly
Ġilleg ally
H ist
ĠF if
ĠU C
ab ling
Ġimper ial
Ġsl a
at in
ĠSw iss
Ġint ensity
Ġprob ability
Ġcomp osed
Ġsup rem
F igure
Ġenjoy ing
ĠR ain
oc us
b u
ĠAbb ott
Ġc am
ĠS ud
Ġt ill
ĠMc M
t it
ĠS ong
Ġmand atory
Ġhe aven
Ġconserv ation
Ġg aining
Ġachieve ment
com ed
Ġd ign
ĠRem ember
ĠBloom berg
Ġ6 9
m id
or i
Ġagric ultural
Ġins ane
spe cific
st an
Ġbal anced
ĠAgain st
Ġcondem ned
Ġt ar
w estern
bo ards
E ng
Ġ198 5
Ġres idence
Ġst omach
Ġdist inction
ĠS ide
Ġprint ing
ĠB art
Ġemer ge
le ton
ro t
Ġprot otype
ry ption
Ġover d
m un
Ġspace craft
n or
Ġw ings
Ġinvest ing
Ġaccept ance
Ã ¥
um m
Ġtou ched
ĠB eng
z es
Ġt une
ĠR ice
Ġto ile
Ġiniti atives
Ġexch anges
B re
s ur
Ġp ays
Ġsc ary
ĠC os
ĠB uilding
ĠTe a
Ġide ological
ĠL ie
Ġz omb
Ġscen arios
ut t
Ġf illing
l ast
oty pes
Ġmanufacture r
ĠM itt
ĠBen jamin
m other
con nect
Ġp or
ĠT ampa
Ġp ink
b rew
ĠEv ans
ĠE lection
N T
ĠD raft
h ol
Ġconst rain
idd ing
Ġrot ation
Ġinf ring
Ġrespect ed
Ġal arm
ĠD J
F e
d ing
Ġser ial
s upp
Ġpress ed
Â ·
Ġnon profit
R O
Ġpe ers
ac er
Ġacqu ire
pro t
Ġcrop s
Ġoper ational
Ġl anes
Ġc ake
ĠSte in
ĠR y
or ient
ay ed
ĠC a
Ġtreat ing
E uro
Ġhigh way
Ġ7 7
Ġcomple tion
ĠBe h
Ġprior ities
UT ERS
Ġsubsid ies
abb ing
Ġexplos ive
Â Ķ
abet es
G M
er ving
Ġres igned
Ġanim ated
Ġinc omp
k m
in itely
( '
Ġe ars
ĠLa ure
Ġsla very
umb led
Ġdifficult ies
ĠAr ctic
ortun ate
Ġis lands
ĠCo hen
Ġfree ly
ĠÂ ©
Ġch urches
W S
and y
B ig
Ġsh orter
Ġform ally
Ġfr ight
Ġres erves
Ġappro ve
ĠTe xt
ĠCh ance
Ġdes ired
â Ħ
Ġrif le
b ecause
Ġqu otes
Ġrespond ents
ĠM obile
Ġparticip ated
â Ķ
ĠR io
U D
Ġdiscl osure
Ġb ones
ĠBr andon
r idge
Ġex em
ock er
ĠF igure
ock ets
E E
m ain
Ġhuman itarian
m art
ĠA wards
Ġ19 30
Ġworth y
w hen
Ġcrowd s
Ġvolunte er
ec onom
Ġmechan ical
ĠK u
M ed
Ġtut orial
ĠR ail
Ġsec ured
Ġatt ributed
te ch
Ġjud icial
ow ell
Ġcle ver
i ary
d eg
Ġrum ors
Ġcr ude
ust ers
Ġs her
Ġmon etary
Ġdeliber ately
ĠS aints
ĠCent ury
ic ut
Ġcult ures
Ġm amm
M en
Ġh ier
Ġanticip ated
Ġro cks
Ġt el
Ġeconom ies
Ġflex ible
Ġcon j
Ġ7 00
Ġin hib
he alth
ĠMcCon nell
st ory
au c
ict s
ĠÃ Ĺ
ch arge
Ġb io
Ġelder ly
Ġinc ons
( );
Ġgr ateful
Ġj okes
Ġconsequ ence
ĠK yle
ĠN eed
ĠR aid
Ġher itage
Ġb ass
s ized
ĠK it
Ġpan ic
Ġexp ed
Ġteen ager
Ġspread ing
ĠS M
o ons
j an
th ink
Ġflex ibility
d ec
at ile
act ory
Ġaff air
cont rolled
Ġinter rog
im ens
Ġaltern atives
H ar
Ġdisp os
Ġdis par
Ġz ones
Ġto ken
Ġn aked
Ġdecl are
ĠCirc uit
ici ary
val id
Ġattend ance
Ġabs ent
Ġadvant ages
ĠK erry
Ġvir al
Ġtrig gered
Wh ich
Ġfin an
ĠT erry
ĠAlbert a
ud ge
Ġch ap
Ġtechn ically
Ġre aches
Ġt ensions
ĠS witzerland
ĠSm all
b art
Ġp osed
ĠT alk
Ġdetect ed
Ġbu zz
r ane
Ġkn ocked
Ġt urb
ĠF ro
Ġinst inct
Ġdesign ers
VER TIS
Ġdisturb ing
w he
Ġpled ged
ĠArt icle
c rat
Ġprev al
ĠE arly
ĠT reat
I O
pro duct
ĠBrus sels
ĠCh ap
Ġinstru ments
ĠB uck
Ġs ends
ĠPost s
Ġsatisf ied
gl as
Ġprocess or
Ġw rapped
ll ers
ĠP ok
âĢ ĭ
ĠD om
f s
Ġexc itement
ul pt
Ġgreen house
are ttes
il ateral
Ġshif ted
Ġequ ity
Ġbreak fast
Ġf are
Ġflu id
Ġflo ating
Ġremind ed
AC K
or ph
Ġharm ful
ĠP uerto
D ata
ĠT un
Ġdo se
Ġtr apped
ĠPart ners
Ġrep ly
Ġwel comed
Ġapp eals
Ġtransp arent
L a
inc inn
ĠFrank lin
ĠCamp aign
ĠKir k
Ġsu itable
Ġres olved
ĠM ov
Ġhar vest
Ġl un
val ue
Ġlegend ary
Ġmag ical
Ġref using
B est
Ġbr ains
Ġavo ided
Ġf itness
urn ed
iz ard
Ġgr asp
Ġn ull
Ġport fol
Ġident ifying
or ig
ation ally
pr ising
Ġannoun cing
Ġdecl aration
a a
-- -
IS T
wr itten
ne ver
Ġinn ings
âĦ ¢
az y
ere r
Ġab ol
ĠBuff alo
Ġprov incial
ĠLyn ch
Ġrec y
ĠCommun ist
it ably
A ust
Ġste ep
ĠI C
ĠI ss
Ġh orm
Ġha bits
Ġrus hed
ĠAnt i
Ġcondem n
z b
ĠGr ay
Ġimm igrant
Ġmut ual
Ġ7 3
Ġhat red
C urrent
Ġem pire
ĠBar ry
ĠM aine
Ġreg ret
N orth
Ġassum ing
Ġminor ities
Ġhope ful
Ġhy brid
Ġoptim istic
Ġindic ating
est one
Ġexcess ive
Ġedit ors
Ġ7 4
Ġ Ø
Ġfro zen
Ġbel oved
Ġbrow s
Ġconduct ing
Ġtempor arily
ĠPhil ip
Ġwh ites
ver ning
g t
Ġpresum ably
B L
b les
Ġtrust ed
Ġimag ination
Ġdeploy ment
ĠM D
incinn ati
Ġedit ing
Ġsupp ose
Ġear liest
ĠV ery
Ġass ured
ĠChrist ie
ĠDou g
oc ate
Ġtend ency
Ġst ocks
is en
Ġimm ense
ĠRog ers
ell a
Ġbar riers
Ġpen et
ĠN atural
ĠG PU
Ġtour ists
Ġdec iding
In ter
Ġhead line
Ġthrow s
ĠO m
ch i
Ġcast ing
ĠB ears
ĠPr in
Ġwor ship
Ġinfect ed
ĠTr udeau
Ġm ixture
Ġsh ar
st art
ĠT a
ra ham
Ġcomp os
Ġspark ed
p owered
ĠJ ets
Ġsocial ist
Ġr all
ank ing
H aving
Ġwa ited
Ġdam aging
Ġbutt ons
ur i
Th rough
Ġve gan
Ġstruct ural
Ġgrab bed
ĠWar riors
Ġg rip
Ġdefend ers
Ġf est
Ġcolle ague
Ġcolleg es
v als
qu ality
Ġathlet ic
Ġun ity
Ġcrypt ocur
ĠM om
b est
ĠBl og
ĠOcc up
Ġd iver
Ġarm or
Ġplan ets
on er
ĠO scar
N ever
f old
Ġcart oon
Ġre hab
e u
e or
Ġtr ash
Ġparliament ary
P ress
ar ound
Ġsc rap
Ġgar b
ĠBr ady
ĠH P
ĠJeff erson
per or
au kee
Ġcompl iance
ne red
ĠCh uck
Ġsoc ieties
Ġl ake
ĠG arden
ð Ł
point s
keep er
ig hed
Ġpurs uit
ĠF ried
ors es
ot ton
Ġf ru
ĠP ed
ab l
st ock
Ġclick ing
Ġwh istle
Ġa uction
Ġdis g
Ġtradition ally
Ġatt itudes
ĠLiber ty
Ġapproach ing
Ġsurviv ors
iff erent
Ġwid th
ig ers
Ġex ports
ĠGu ide
ous ing
ĠB und
Ġhum or
d i
ĠColumb us
ĠTurn er
Ġres on
Ġlegisl ature
ĠWik ipedia
X X
Ġbar rier
ĠIs lands
P ar
ĠF un
d ale
Ġdec ides
Ġpurch ases
Ġch ampions
per ial
ĠKe ith
Ġwind s
Ġn ick
ĠH ide
not e
Ġ7 8
Ġ0 1
Ġlif ted
Ġpure ly
Ġdet ain
Ġess ence
Cl inton
ĠA w
S et
Ġsec rets
ĠCor byn
Ġm asc
Ġpurs uing
Ġtext s
Ġh oney
ĠU ntil
Ġobserv ation
ĠA th
ĠHar vey
ruct ive
Ġthere by
es is
Ġrec ount
ĠMor ning
Ġeth ical
Ġunder mine
Ġin sect
s ign
Ġw ishes
Ġbl ess
f ox
r ust
Ġur ge
Ġgrow s
ac ent
ĠCh o
V ideo
Ġregul ators
AD VERTIS
ĠAl t
Ġoff set
force ment
s k
Ġmeant ime
ĠC rown
Ġf ont
Ġag greg
Ġdon ated
ĠY ahoo
be it
ĠB ou
ere n
Ġ7 1
R T
enn a
Ġeconom ists
Ġt ang
Ġliber als
Ġtreat y
Ġex empt
Ġal ph
ĠSh an
Ġremind er
ur red
Ġl aser
arent s
Ġsucceed ed
Ġt ong
w aukee
z o
iv a
Ġpassion ate
Ġbott les
N EW
Ġf t
Ġrom antic
ĠNor way
p ublic
Ġa est
Ġmet ab
ol k
Ġsqu ee
Ġfail ures
Ġhack ers
ĠWW E
K ey
Ġemot ion
Ġp ist
aw s
Ġfl ip
ĠUn iverse
Ġbreak down
Ġout er
t ics
aren thood
ĠC orn
ĠW orks
ĠFant asy
ĠF DA
Ġl ib
Ġident ification
af i
Ġfr action
icial s
ĠMad ison
Ġadm its
ĠCam bridge
ĠJ e
Ġdivor ce
s chool
ĠS ep
ĠD ub
Ġperm its
m aster
Ġdecre ased
Ġsac rific
back ed
ĠD NC
Ġsens or
Ġgener ous
Ġafter math
ĠM oney
Ġt rop
r ained
Ġcomp ly
Ġdraw s
Ġexec ute
Ġwal let
Ġsu ed
se ud
Ġ( )
Ġcomp aring
Ġunf ortunate
Ġarri ving
own ers
ĠR aven
ĠK arl
Ġfin ancing
Ġn ons
Ġret reat
Ġdis orders
ĠArk ansas
Ġstr ain
Ġvar iation
Ġ8 2
ll y
ĠWiki Leaks
Ġenh anced
ĠMil itary
ĠE V
p ace
Ġsl ave
Ġ vel
] :
st ore
Ġfeed ing
Ġfem ales
g ian
Ġaccount able
Ġver dict
Ġconclud e
Ġhelicop ter
rop olitan
ĠRod rig
ĠE ss
sec ond
ĠDep uty
ĠJ u
ĠRE UTERS
Ġtreat ments
L ink
ĠF isher
C NN
Ġbatter ies
un ct
ĠRob in
Ġche er
s ky
roll er
N G
ĠN ort
ing ing
ĠGu y
ĠMem orial
l as
Ġpre ference
ĠConnect icut
Ġcontact s
ĠE li
Ġcre ep
ĠNe il
ĠM M
Ġlast ed
ad vant
ĠJ ake
Ġrec onst
Ġs illy
Ġmass es
ĠB h
Ġun h
ĠPol ish
b ig
Ġcomp ound
Ġretail ers
Ġembed ded
T om
ĠU RL
Ġcorrespond ing
ĠCommun ications
Ġsequ el
ĠG host
Ġdestro ying
Ġlack ing
s ource
Ġd aughters
T ION
Ġenc ount
Ġwond ered
ĠM ission
Ġcapital ist
ĠTy ler
Ġencount ered
is ers
Ġeconom ist
ĠP ap
IV E
ĠE X
Ġlicens ed
Ġund ers
Ġwar fare
Ġre un
ĠP ur
Ġvert ical
ĠI RS
Ġfound ing
ĠR oom
ĠVenezuel a
Ġag ing
pl an
Ġsm ugg
op es
w al
Ġam pl
Ġstatist ical
Ġgif ts
ple x
ĠMar ia
vis or
ig ma
t ail
ir able
Ġsl ower
Ġadv ances
iz able
ĠPakistan i
f ive
g iving
Ġf ierce
Ġgrav ity
ĠConserv atives
Ġcare ers
Ġd ys
Ġ198 3
accept able
Ġvill ages
Ġh ill
Ġintent ions
Ġorganis ations
n ormal
ĠK rist
Ġc ub
S outh
Ġsepar ation
Ġauthor ized
Ġking dom
Ġcount ing
m outh
p ath
Ġaw a
Ġgo verning
Ġst abil
F ree
Ñ ĥ
Ġtr agic
Ġwarn ings
ĠLuc as
ĠTh under
ĠDown load
ĠE mb
Ġ198 2
Ġins urg
Ġfar ms
ĠStud ios
Ġdiagn osed
ĠPlay ers
Ġcommission er
ĠAd vent
Ġdis pro
Ġo m
Ġtaxp ayer
are st
Ġlobb ying
ĠMer kel
Ġed ited
ĠSus an
ĠS alt
ĠSc ar
Ġclean ing
Ġtransform ed
Ġdem ol
Ġsuspic ion
Ġstre ak
ard ing
Ġcontin uous
ĠHoll and
h aul
ĠSpe ed
Ġele ph
it bart
Ġb oring
d irect
Ġc odes
F our
ĠPri ze
Ġcons iders
Ġscreen ing
Us ing
A nt
ĠSpir it
Ġmill enn
Ġgam ers
ĠSci ences
it ative
Ġf ib
ut ical
l ib
Ġdam ages
Ġcont am
ect or
crib ed
Ġten ure
F ig
Ġincl usion
ĠH ub
Ġl ip
Ġfun eral
ĠSt ars
Ġa ired
Ġinst ruction
ear chers
ard less
A V
Ġf ence
d ig
Ġfe ared
Ġtraff icking
Ġdon ation
Ġde ce
ĠP interest
Ġcl uster
Ġwork place
ĠC z
Ġcred ibility
elt a
Ġinv ite
Ġinst itutional
Ġte ens
Ġmon sters
ĠB os
ĠD anny
en c
Ġcollaps ed
h ave
air y
Ġjust ified
ank ed
id ays
her ic
Ġhe nce
Ġhypot hesis
ĠTh or
ed ed
Ġsusp icious
Ġden ial
Ġorgan izing
G ame
Ġisol ation
f il
Ġ' '
th an
Ġgr ace
claim ed
ĠThe atre
ĠWith in
ĠBr and
th a
ham mad
Ġboy friend
Ġcivil ization
Ġnovel s
ĠMorm on
Ġur ging
Ġinter ference
uss ion
ĠIslam ist
â ĪĴ
Ġwrest ling
Ġsp awn
r int
Ġdoub led
im age
Ġth irty
Ġreal m
Ġste am
ĠPet ers
writ er
Ġmag netic
Ġind ict
ank a
Ġbelie ving
Ġout right
Ġc ort
Ġexp end
ue ller
Ġsoon er
ad ows
ol er
ĠInt erest
Ġbr anches
Ġbenef icial
ĠD est
Ġdec ks
ol ine
Ġcry ing
Ġcomp iled
. âĢľ
ĠK le
Ġrecru iting
i per
ĠN av
Ġev angel
Ġen ables
Ġeduc ated
Ġle verage
Ġinv ented
Ġrus hing
Ġelimin ated
in ance
Ġrh yth
on i
ĠD og
Ġm ock
Ġspons ored
Ġtra its
Ġunve iled
ĠH unt
ĠCharl otte
ĠUb untu
Ġbe ers
Ġroutine ly
Ġple aded
ĠC incinnati
oll ah
Ġp izza
Ġtem plate
W ork
ADVERTIS EMENT
Ġr ib
Ġlab els
Ġeval uate
. :
op ard
Ġag rees
Ġsolid arity
o a
Ġbreat hing
Ġalbum s
Ref erences
ĠLt d
ur able
ĠStud io
Ġtem ple
Ġmed ian
ĠFor mer
Whe ther
ex us
Ġd umb
ĠBrad ley
Ġdisc our
Ġlay out
ĠH ills
ĠT D
Ġshif ts
Ġincent ive
ĠPr inc
p op
Ġentreprene urs
ĠC arson
Ġdirect ory
ĠB ash
Ġl au
ĠHind u
Ġult ra
Ġmagn itude
Ġjump ing
ĠLe af
Ġ8 8
Ġsmart phones
Ġv ibr
O rig
ĠGl ass
ĠO liver
rodu ction
Ġcompar able
Ġclimb ing
ĠIndones ia
ch ar
======== ========
ast ically
co ins
Ġarrange ment
Ġpath s
Ġwhe els
Ġo x
Ġpil ots
Ġtermin al
ĠC ut
V al
Ġincent ives
ĠB uy
Ġmidfield er
Ġspec ified
Ġexcept ions
Ġadequ ate
Ġcoc aine
Gener al
dri ven
Ġd irt
Ġpsych ology
re nder
Ġsn aps
S ign
Ġpre liminary
st age
Ġc ents
Ġpe oples
ace utical
ĠVer izon
wid th
ĠF el
ord able
ĠSen ior
Ġpart ial
ck er
ĠZ h
E G
Ġn an
ĠC ass
ĠP ence
ĠO d
ĠVer mont
Ġscream ing
ĠF arm
Ġvis a
ĠL ED
ĠA B
Ġlyr ics
Ġtransl ated
ĠB JP
Ġfirm ly
Is lam
Ġmon op
ah l
c s
f ly
ĠTrib une
Ġintrodu cing
ess ional
arth y
Ġconnect ing
Ġreg ards
Ġch ains
Ġcounterpart s
H ill
ol o
ĠMc L
Ġgen et
Ġac res
Ġcr icket
Ġam end
Ġappeal ing
Ġme als
h ome
ĠSol ar
S er
ĠFriend s
Ġwild life
Ġb ust
Ġun rest
J an
ĠG onz
Ġgl ob
ĠCount ry
U E
ĠB L
Ġtrans f
200 9
amp s
Ġtrad itions
g i
Ġthreat en
an ium
ĠJ oy
ĠSo x
Ġcreat ors
Ġsens ors
Ġlike lihood
Ã© mon
Ġvac ation
Ġ: :
Ġcomment ed
Ġdetermin ation
s ki
Ġd ivers
ip h
Ġconv inc
ĠBook s
Ġan ime
Ġcount ed
Ġmatch ing
Ġbet ray
Ġp upp
Ġtr ace
Ġprec ious
Ġtri ple
ĠProf ile
Ġun st
~ ~
ĠBelg ium
D B
Ġpl aint
l ive
J ames
Ġpar agraph
umb ling
Ġmotor cy
Ġshe er
Ġsc ulpt
ĠLeban on
p y
Ġinvest or
Ġkill s
Ġendors ed
Ġle agues
Ġto y
Ġlicens ing
Ġaccur ately
ĠF ab
Ġshif ting
al og
ĠAr thur
US A
ĠP AC
ĠT ob
Ġtw ist
ĠAM D
ĠN ixon
St ud
ĠCow boys
ul ative
iv ic
Ġfold er
B et
Ġdisappoint ing
res a
Ġavoid ing
Ġcomp assion
Ġdis m
ĠN in
ias m
Ġprohib ited
ll o
S y
ĠK am
Ġ19 20
ool s
Russ ia
ĠBrazil ian
ugg ed
A lex
Ġgr ain
o pp
ĠArgent ina
Ġwork force
Ġaccount ing
c end
Ġproceed ings
ĠG arc
Ġsp are
i ots
U M
S ch
Ġlength y
Â £
ĠEb ola
Ġj ew
Ġsl aves
ĠQ B
U PDATE
Ġr iot
ĠUnivers al
ĠR ams
Ġdub bed
ĠPolit ical
Ġf ict
Ġin mates
Ġment ally
ĠB Y
Ġm erc
fe ld
Ġfundra ising
Ġsh aped
Ġover look
L Y
Ġtouchdown s
ĠR osen
ate ur
ĠWe iss
Ġ198 1
Ġcelebr ity
ri ving
M ake
Ġwilling ness
Ġmar ine
Ġind irect
ri en
Ġsevere ly
Ġshe d
b ull
Ġestabl ishing
Ġgener ating
Ġnegoti ate
Ġint u
Ġshould ers
Ġd ivid
Ġimplement ing
Ġrenew ed
ĠBro s
Ð º
agh d
ĠSer ge
Ġp owder
A h
Ġconsum ed
ĠFin ance
lud e
ell ar
u cc
ke es
Ġswim ming
G od
ĠQ aeda
Ġcreat ivity
Ġrel ating
C ap
Ġb ite
Ġse ctors
Ġcertific ate
Ġfire f
Ġassum ptions
ĠGl enn
if ting
ĠM O
Ġinteract ive
ir k
Ġobser ve
Ġaccomp any
âĶ Ģ
red ict
Ġtrad em
ill o
Ġaver aged
S ometimes
ĠG ates
t able
ur l
Ġref lection
j ar
Euro pe
ĠPh one
iox ide
Ġbra ve
ios ity
r ament
ubl in
ale y
M al
Ġroy al
1 10
Ġaffect ing
Ġh ij
Ġsa il
ĠM ort
au x
it ated
Ġwor n
>> >>
Ġfil ming
ull ivan
ul um
ĠL ane
N Y
O ct
N ET
Ã Ĺ
Ġind igenous
u ced
Ġearthqu ake
Ġblack s
âĸ Ī
oc c
w art
aff e
Ġmount ed
Ġadapt ation
Ġconsult ant
Ġsubsc ription
out ube
Ġdet ection
Ġclin ic
ĠAr men
Ġ7 9
d rop
Ġdis k
ĠP L
Ġcompat ible
ĠSt re
ĠMil waukee
ĠMar co
ĠT ell
ĠM ust
Ġrec alls
Ġfol k
l ash
RE AD
Ġf uels
ĠAn im
ĠAn ne
Ġcor ners
Ġrep ublic
oc aly
Ġspecial ist
Ġdi abetes
Ġesc aped
is ible
ĠHigh way
p se
olph ins
ĠB ond
Ġ196 7
Ġadjust ed
Ġwood en
Ġpredict ions
Ġless er
p ur
Ġadm ission
Ġproblem atic
ĠCl ar
Ġliter ary
ul ent
Ġtri umph
Ġfar ming
Ġt ub
Ġimp ress
ĠM ason
pr ing
W est
Ġsl ip
Ġtrans cript
ah a
Ġmar ry
Ġlaws uits
ĠC elt
Ġaggress ion
Ġorig ins
Ġp ub
ĠC her
ĠC reek
Ġm aker
D ec
Ġhe aling
ĠCol omb
ac ious
ĠB B
St art
ĠA ve
d ays
ĠBull s
W A
ĠGer mans
l ie
Ġaud it
Ġcontin ent
ĠBl ues
R ober
Ġwhere ver
Ġdesc ript
ĠDou glas
ĠE dd
Ġmusic ians
Ġh oly
Ġtr ap
ĠV A
ĠGold man
m i
ol utions
G erman
R ich
Ġunder way
ec hes
U I
at on
ugg ing
Ġy e
eng u
Ã© s
pe ople
Ġmort ality
Ġeval uation
ian g
ss on
ĠRe ading
Ã £
Ġv on
Ġab used
i ology
Ġp ants
ne ath
Ġbankrupt cy
Ġvulner ability
Ġdel ays
ĠP arenthood
Ġ1 30
Ġsuper hero
ĠGall ery
OS T
oot ing
Ġindepend ently
cl osure
Ġve to
mun ition
ant o
Ġsh ore
Ġle ather
J ack
ĠR C
Ġsk illed
Ġle af
Ġtim eline
ĠH um
Ġle aks
ab ul
qu al
Ġresign ation
ĠE c
Ġsw ift
Ġsu its
Ġcy cling
at ers
Russ ian
ĠBron cos
ack er
Ġorgan ize
oca ust
Ġinter cept
Ġdark ness
ro se
Ġw reck
ĠN C
H igh
Ġ1 10
ĠSp ider
ili ation
Ġsher iff
ig nt
ĠSuper man
Ġin ch
S ON
Ġafter wards
ĠBern ard
G reen
Ġsupport ive
Ġres ume
Ġ18 0
al ph
ail and
Ġse iz
Ġshoot ings
au er
Ch ris
Ġin appropriate
ather ine
ĠS omething
Mus lim
Ġform ing
Ġp y
ĠD M
Ġbehavi ors
es ity
Ġlaugh ing
orn s
Ġaltern ate
Ġ19 40
Ġtest ified
lev ant
Ġ196 8
O s
Ġun anim
Ġpract ically
Ġreb ell
he w
se lling
et ing
Ġthorough ly
Ġins ists
Ġbroad band
Ġcr ashed
ĠBud get
ĠIs a
Ġteen age
Ġlabor atory
Ġdis advant
Ty pe
iss ance
Ġt att
pe red
Ġdoctr ine
Ġenc ryption
ĠEx change
Ġloc ally
ĠVik ings
T unes
Ġout break
act ic
Ġcons olid
ĠJohn ny
Ġsound ed
Ġoff shore
Ġap ology
Ġexp ose
Ġk ernel
Ġexha ust
Ġun e
ble m
ett a
B ay
Ġb ind
Ġautonom ous
ĠJ oh
Ġcost ly
Ġs ie
Ġcorpor ation
Americ ans
Ġcolon ial
Ġanalys es
Ġne at
ra pe
ĠSp encer
Ġphotograp her
ĠRe ed
umb l
Ġkill ings
mar ks
ĠM ember
k g
ĠG ate
ĠI l
ĠL ock
Ġdemonst rations
Ġpro x
row th
ĠS or
Ġchart s
erv ation
Ġreason ing
RE L
Ġpre st
Ġclass ical
.. ."
Ġgr ay
Ġed ges
ĠPalest ine
Ġes p
Ġattack er
Ġint end
Ġveget ables
S M
ĠL iving
dis play
ill ery
ĠT ry
light s
Ġmat ched
Ġemb assy
Ġlect ure
Ġpurch asing
ĠSe ah
Ġswit ched
ĠAg ree
ĠAl f
Ġmob il
Ġloc als
fund ed
Ġoblig ation
Ġr ated
Ġinf er
M et
1 20
D ay
Ġdem on
epend ence
lement ary
ĠWal ter
Ġstat ue
h is
Ġgarb age
ĠS W
Ġstraight forward
Ġbus es
Ġc m
Ġelabor ate
O G
ĠSystem s
Ġgod s
Ġhe d
Ġterrit ories
Ġportfol io
be an
Ġ197 6
Ġfl owers
in os
H D
ar ming
ĠBet ween
ĠB ased
ĠK och
Ġh alt
ĠD iam
Ġ10 1
Ġtra uma
ĠL ess
ĠS ad
Ġinf amous
ocument ed
Ġunf old
ĠW R
ĠMichel le
f our
Ġair line
cul es
Ġl ap
Ġor che
ri el
ĠM MA
Ġpriv ately
oub ted
iss a
ĠIn v
Ġs isters
ĠT ory
Ġbes ides
ĠHom eland
Ġdeal ers
ĠEm ploy
ignt y
le m
Ġaccommod ate
Ġfrust rating
Ġl oving
ke ys
oc ity
Ġmed ication
Ġath lete
Ġf ame
Ġfor ums
ĠMu hammad
Every one
Ġ197 5
Ġatt ributes
ĠM erc
ID S
ak u
ion ed
Ġpe pper
Ġn uts
az ed
ĠDen mark
as i
As ked
ĠL oad
Ġpred omin
T or
S uch
Ġb urg
ĠUn it
ĠV eter
Ġrank ings
u um
Ġclos ure
ĠCom ics
re ach
op ing
ĠS oul
Ġlim iting
ĠK ind
B R
ĠBr un
add y
Ġstrik er
Ġmod es
Ġsear ches
ph p
Ġimag ined
ort ions
ĠCal gary
2 000
Ġd ated
pe lled
ap y
Ġwithdraw al
ĠF at
ch a
Ġ8 1
Ġe ighth
pro of
Ġeffect iveness
re r
l en
Ġst ays
Ġs ink
n esty
ĠG ear
Ġobser vers
Ġint ake
ĠSub scribe
Ġo h
Ġd ioxide
Ġcar riers
ro lling
Ġm ph
Ġenthus iasm
ĠL uck
i op
cc a
ĠW ATCH
!! !
Ġwh ilst
Ġmis leading
Ġqu ery
Ġcon vey
Ġ197 3
Ġpubl ishers
ĠB uild
Ġmeasure ments
ĠN umber
Ġsp ill
ĠRel ations
Ġnom inated
Ġsubstant ially
n ames
ĠMove ment
Ġunc ons
ik ing
h al
Ġhistor ian
ĠS A
ĠHar rison
) (
P N
Ġlist ing
Ġqual ities
writ ing
Ġstr ings
Ġgr at
ĠConf eder
v iol
Ġrespons ibilities
resp ons
Ġdelic ious
ab ad
Ġd angers
Ġlock er
ĠG PS
Ġexam ination
sh irt
Ġhe ter
Ġdiagn osis
Ġhung ry
Ġple a
Ġ9 8
Ġ ^
Pro f
oth y
ĠPal in
Ġex agger
Ġd rought
Ġdiscl ose
Ġrev ised
Ġrel ies
ĠA qu
Ġd ash
ĠA CL
Ġinev itably
Ġh ood
Ġvol umes
Ġblood y
Ġmem orial
Ġw and
Ġdiff er
ĠSh adow
Ġp ione
ro ots
Ġign oring
Ġn it
ĠR ico
Ġloyal ty
S emit
Ġvari ations
Ġmaintain s
Ġ197 2
ĠB uzz
Ġent ries
Ġsymbol s
ĠR ace
ĠCarl os
Ġshut down
Ġam munition
Art icle
Ġp orts
ĠH ud
Ġst ab
Ġfriends hip
ĠW oman
ur u
Ġyour s
ĠBl air
D oes
ĠP T
Ġal tered
Ġclass room
Ġdem ographic
ĠSoft ware
ins ula
Ġoccur ring
Look ing
ĠTe h
M ike
ĠK el
Ġphot ography
Â ®
Ġp ile
min ation
ĠD ennis
Ġc her
ĠH em
ĠVill age
Ġtrib al
Ġalgorith ms
âĢ¦ âĢĿ
Ġformer ly
Ġfundament ally
Ġredu ces
Ġbrief ing
C ity
ĠPlan ned
miss ions
Ġh orses
Ġfulf ill
it is
Ġrap ed
Ġcelebr ating
m ines
IT Y
Ġ8 4
Ġhero in
ĠUp date
S uper
Ġves sel
ĠA my
Ġinhab it
Ġdesper ately
ĠBrook s
itt ees
Ġmet res
bl ack
ĠWall ace
Ġ Ï
Ġ8 3
Ġmid st
ĠTrans portation
Ġgall ery
C OM
ĠL isa
iz ont
art isan
ĠH at
Ġrein for
Ġb ikes
ĠGM T
Ġsk ull
Ġde leted
n ational
ential s
ĠR ah
Ġun limited
Ġ197 8
Ġdisp ens
Ġsac red
ĠSun ni
Ġout door
Ġdecl ining
ĠN A
Ġnew est
ING TON
Ġbelong s
Ġexerc ises
p rom
Ġexpress ing
Ġsh y
Ġins ure
Ġpres cription
id ges
Ġspect acular
Ġmod ules
Ġaccount ability
ĠH ockey
Ġju ice
Q aeda
Ġarch ae
Ag ain
ĠLiber als
Ġsche mes
Ġf iber
Ġc od
ĠRaid ers
Ġgovern ance
Ġgar age
n ik
Ġt ribute
Ġconsum e
ĠJ ar
Ġqu ad
rep resent
Ġp ipe
Ind eed
ĠEd wards
Ġpresident s
ĠS el
Ġrub ber
Ġf lesh
we alth
osit ory
ĠP as
b ul
ĠTer ror
Ġarr anged
Ġlineback er
W H
Ġw ip
Ġsh apes
Ġfil med
Ġbed room
ur ring
Ġch ase
ĠPok Ã©mon
ĠM C
Ġsol ved
ĠSeah awks
Ġa ide
ol an
ĠJ a
ft en
ĠM ueller
Ġconf using
Ġre ception
Ġn odes
Ġplay back
ĠP ast
Ġaccident ally
Ġbillion aire
aret te
h ole
put ed
w ear
rem lin
ĠCh apter
oubted ly
y d
Ġl oses
ĠP ick
ĠJenn ifer
Ġb inding
un s
Ġperman ently
h ner
ĠD R
Ġtw in
Ġto ys
Ġr age
oc ide
9 00
C opyright
t or
in ate
Ġexhib ition
g el
he lp
Ġun le
ĠG it
al so
let ter
ĠShe l
Ġmisc onduct
Ġspir its
ĠA ld
ĠSil icon
uls ion
Ġw ounds
ag ging
ĠA gr
Ġbo ats
Ġmed al
Ġpro c
ĠCo ach
pp o
Ġsell s
Ġsan ct
Ġconsider ably
Ġfresh man
ĠPhot ograph
Ġdemonst rates
ĠW onder
Ġth umb
ĠD ublin
ĠF ame
Ġlast ing
Ġman ages
Ġstrict ly
Ġsh ipped
Ġpre jud
Ġchem istry
âĢ¦ âĢ¦
Ġvig il
Ġregul ate
ĠSer ver
ane ous
200 8
run ner
ĠL ost
Ġmilit ant
Ġfin als
Ġlabel ed
App le
heim er
Ġtoler ance
Ġfin es
ĠR ou
Ġg rey
Ġp seud
Ġ8 6
Ġskept ical
ĠN PR
Ġsp ite
deg ree
ĠM i
se mble
Ġexcept ional
ct ive
ĠMalays ia
Ġt ier
Ġfan cy
ch air
D ep
Ġstre ams
Ġlin ear
ĠB us
Ġl uc
Ġreason ably
ĠCh ile
Ġpuzz le
Ġtack les
p it
Ġcance lled
Ġden ying
Ã£ o
ĠTr uth
ig a
ie val
ĠZ ion
ov ic
ĠJ uan
Ġpit cher
ĠF ly
work ing
Ġ9 6
M I
ĠFor um
Ġprocess ed
ĠUr ban
Ġlove ly
ĠR oth
re ated
ic he
ung le
th irds
Ġsp ends
Ġmid night
Ġorganiz ers
Ġret rie
Ġrest ored
ĠRes ources
ĠSt ring
Ġme g
w er
ab el
Ġun acceptable
ĠHer o
B it
ĠY ears
ĠSh ar
Ġsub mar
IT H
Ġtun ed
Ġgenuine ly
Ġmon ument
Ġteen agers
ĠOper ation
ĠV iol
P oint
OR T
ĠP ere
Ġqu o
L ife
ĠPal ace
Ġfacilit ate
Ġ8 7
olute ly
man uel
Ġm ature
ĠG ay
on ge
ĠD od
Ġd ancing
it ial
ĠRepresent atives
Ġrel ate
Ġf oul
Ġout lined
ĠG and
irt ual
Ġautom ated
Ġoblig ations
form ing
Ġsexual ity
Ġdiv isions
Ġext ends
Ġsurve ys
Ġtour ism
Ġad vers
ĠBill y
ĠMcC arthy
ĠR ush
ĠTh ailand
Ġi Tunes
Ġsuccess or
Ġle ap
ul u
ĠS i
ĠS elf
ĠT ill
B rit
A ug
ret ion
A v
s is
Ġspot light
ĠBenn ett
ĠS ay
ĠAut o
ĠCh arg
Ġanonym ity
Ġwr ap
E arly
al in
Ġin ability
Ġdefin ing
ĠÂ ĵ
sc he
Ġab oard
ĠN DP
R et
ĠRich mond
Ġunder neath
Ġdr illing
Ġrecommend ation
ĠSh ield
ĠSp urs
Ġsubject ed
ow een
Ġhear ings
Ġbattle field
ĠM ack
Ġgener ic
A uthor
ĠC ond
uk i
ĠF ile
ĠIn valid
Ġinc umb
Ġp ound
in ery
ĠGriff in
Ġspe eches
Ġconsist ency
ĠOb viously
Ġvict ories
ĠZ ero
ĠCz ech
bor ough
Ġsn ap
ĠBang l
Ä ģ
ai ro
Ġcontract ors
ĠC art
ĠCh amber
eg u
ĠAr n
ĠChron icle
Ġcor rid
Ġl ined
Ph ot
Ġse ct
Ġris en
ĠRet urn
u v
pro v
Ġp iv
ĠH ope
clus ion
Ġover haul
Ġinc oming
Ġgu ilt
Ġad verse
Ġtong ue
ĠCom merce
ĠBet ter
Ġsal aries
Ġprem iere
Ġpar ade
Ġn ort
ĠEl sa
ĠG B
Ġtrave lling
rane an
RE S
li ent
ĠSe ven
Ġcon cess
Ġste pping
ĠBre itbart
cl osed
sp ace
Ġembr aced
Ġfrank ly
ĠL LC
Ġname ly
Ġrender ing
ĠRec ord
ĠP ad
ĠBe yond
ĠSo on
Ġconfident ial
Ġtransl ate
IN E
ĠSoc cer
ĠTit le
ist ically
Ġpl ates
Ġdisc on
ir i
âĢĿ âĢĶ
Ġconfront ed
Ġm elt
th s
Ġexhib it
head ed
Ġ196 9
ĠQ atar
ĠAcc ount
Ġanaly zed
ri pp
Ġtact ical
Ġl iability
m ile
Ġdef ic
Ġb inary
ĠF ast
ĠWork ers
Ġd ive
ĠPack ers
#### ####
Ġem power
ĠHur ricane
ah n
Ġart if
Ġbureau crat
ĠF itz
R ob
Ġfunction ing
ĠSur vey
Ġstro ke
Ġun ited
L eg
ĠElect ric
Ġarri ves
Ġlic enses
p x
Ġred e
V A
Ġ0 2
S an
ic ers
ĠC ape
ĠCub an
Ġr ings
Ġback lash
Ġpart isan
Ġvend ors
Ġdoub ts
Ġdon ate
acc ur
hold er
ĠBry ant
ap or
Ġsteal ing
Ġsign atures
W r
uster ity
Ġc argo
Ġfel ony
Ġg ard
ĠS L
ĠM VP
ou st
Ġgrocer y
ier ra
Ġcloud s
k h
ex p
Ġpublic ations
ĠML B
c ill
ed ge
Ġcasual ties
Ġm ate
Ġaut ism
Ġnegoti ating
Ġcoast al
ĠG reens
F I
bs ite
A ng
Ġv ib
wr ite
Ġobject ives
ai res
Ġ9 11
ming ham
Ġment ions
ĠG as
greg ation
ĠPr int
ĠStud y
ĠM aj
ĠH alf
Ġdefend ants
Ġsovere ignty
ag ged
Ġelectron ics
Ġgl ory
Ġd ot
ĠP un
ĠH BO
d el
ãĢ Ĥ
M M
AR D
Ġprem ier
w ick
Ġliber tarian
ling ton
ĠM all
Ġarrange ments
ĠIce land
ĠR at
Ġj ack
Ġ> >
ĠI v
ĠR AM
Ġind ef
Down load
Ġves sels
le tt
Ġac ute
ĠReg ional
Ġhon our
Ġfl ows
c ost
Ġdiscl osed
ĠDef ence
Ġenc rypt
ĠMet hod
Ġint ens
Ġ9 3
Ġsport ing
Ġlack s
C R
ĠTit an
Ġ ðŁ
= âĢĿ
r us
Ġpre season
Ġnecess ity
or ity
Ġfort un
Ġart ic
Ġ9 7
Ġ{ \
Ġu seless
ĠBrother s
Ġout let
Ġ197 7
Ġconvinc ing
Ġcl arity
ĠB obby
Ġlegisl ators
Ġret ro
Ġn od
Ġpret end
Ġcatch ing
Ġdign ity
Ġp ale
Ġhe al
ut ing
ĠBarb ara
Ġdetermin ing
ĠAL L
orient ed
Ġprop ri
Ġutter ly
Ġprotect ive
ent ions
Ġun ch
Ġstimul us
Ġtw elve
ĠS earch
ĠS ent
ab a
Ġcharacter ized
f eed
there um
Ġc ute
Ġbl own
Ġim pe
Ġmarket place
Ġd ense
u ity
out e
az ines
M er
ocrat s
Ġt ube
Ġs lic
Ġspons ors
Ġtheoret ical
ĠNob ody
ĠK ill
Ġlegit im
Ġl ighter
ick ets
ĠSh ah
ĠC M
ter ior
ĠAtt ack
ĠT ib
Ġspe lls
pl ess
Ġhun ger
ĠSim ilarly
ron es
Ġflood ing
Ġadap ted
ĠEvent ually
Ġc ure
z i
M em
ĠPhill ips
Post ed
te am
ĠS F
m el
ĠBe ast
ĠBrown s
Ġprev ention
Ġgen ius
aug hed
ĠB P
H ouse
d isc
L D
Ġeru pt
Ġswitch ing
uff icient
Ġevolution ary
{ \
Ġfore sts
Fr ank
Ġse am
ĠBut ler
Ġhas h
Ġen abling
d b
Ġhe m
Ġmus cles
Ġ9 2
Ġr am
Ġcomple ting
ĠCol on
Ġglass es
S ur
ĠT igers
Ġqu arters
Ġ197 4
ul ator
const itutional
Ġsens itivity
ĠR ic
id o
Ġantib iot
k ill
ĠBry an
Ġm all
Ġ ),
um ns
Ġca res
W ashington
i pt
atic an
Ġbarrel s
ĠFr an
lick r
Ġf art
Ġair pl
ĠM IT
ĠM ode
Ġachie ving
Ġread ily
Ġmal ware
ant i
ĠAl tern
Ġexplo itation
Ġmist aken
Ġtable ts
Ġw are
raw l
Ġelect ro
ĠSand y
Ġaffili ate
ang o
Ġmurd ers
os i
ĠI b
Ġha ul
Ġco at
B ER
Ġmet a
Ġlist ened
ĠL E
ĠCl ay
Ġastron aut
uten ant
ĠSh i
Ġequ ation
Ġad min
Ġjurisd iction
ĠB ishop
Ġdeb ris
Ġsubscrib ers
M at
Ġreb uild
Ġdr ill
ĠNever theless
k ens
ĠPant hers
om atic
ant ing
ĠJ av
ĠPlan et
ĠCast le
Ġtrib e
Ġhold ers
out ed
g reen
Ġl aughed
Ġext ending
a ired
Ġsubscrib ing
Ġinfl amm
Ġspec ify
em ail
cast le
ser ver
C le
Ġspons or
Ġbip artisan
A FP
Ġh ind
S l
IG HT
Ġcool ing
ĠO wn
Ġpredec essor
Ġins ights
Ġsomet ime
Ġrefere n
ĠOb ject
Ġred ist
or us
Ġ197 1
Ġref usal
Ġfr ames
Ġbe aring
ĠIn side
ĠArab ic
b uilding
ri ages
G S
ĠTo o
Ġcous in
Ġfinan cially
min ed
Ġr ats
vel t
ĠIm perial
Ġf ond
Ġroll s
Ġup side
Ġsynd rome
E v
Ġswe ep
Ġnot orious
Ġnight mare
) |
Ġp airs
Ġend e
Ġfire arm
EC T
ĠSt op
Ġswe eping
Ġcan cel
Ġbusiness man
Ġdu o
ĠJam ie
ĠOr thodox
Ġpers ist
Ġe leg
Ġpro port
Ġcred ible
ĠEd ge
Ġarbit rary
ĠAust ria
à ¸
Ġattack ers
Ġsur pass
ak y
Ġhard est
Ġa ston
ĠC OM
Ġc ab
cont rol
Ġmob ility
Ġhyd ro
ĠW ii
Ġexpect ation
f ar
Ġassoci ations
Ġneur ons
Ġdomin ate
Ġglob ally
Ġreview ing
Ġor al
ĠL ang
b ad
Ġm igr
ĠN ag
re amed
? !
Ġnew er
et e
Ġhyd rogen
Ġviol ating
ĠInd ex
Ġ3 50
Ġportray ed
Ù Ħ
S and
ĠD awn
Ġl ately
Ġchar ter
Ġtre asure
ĠNew ton
Ġmem or
Ġsepar ately
amp ed
Ġtour ist
ASH INGTON
Ġter rain
ĠTO DAY
ĠV i
Ġtr icks
ĠB ird
Ġendorse ment
Ġv owed
Ġtroub led
ĠSp ot
ĠI BM
Ġdeter ior
Ġrevel ation
Ġdis ability
res pect
Ġa ides
ott om
ĠN E
ĠR achel
ĠSud an
ĠDou ble
Ġre iter
ĠPr im
ĠA x
Ġdesc end
Ġapolog ize
agon ist
Ġre ct
Ġnation ally
Ġ14 0
Ġrel ied
ĠB aghd
Ġbi ology
Ġnav igate
Ġpos es
osp el
M obile
ĠJul ian
ne x
Ġprov in
Ġsett lements
Ġp ockets
ĠLe v
ĠMar cus
ĠSw ift
ĠTeh ran
Ġart istic
ĠQu inn
ĠWell s
Ġcomm itting
S O
T ur
os ures
iz ards
Ġb atch
im port
Ġwas h
Ġtourn aments
ĠB ed
Ġelev ated
Ġphys ician
C are
m os
ĠN eg
S ports
ĠD aw
ĠLaur a
Ġc ache
Ġg au
ĠContin ued
Ġpro ving
Ġshort age
Ġpers istent
Ġdecl aring
at ched
col or
ĠB order
Ġbl end
Ġident ities
umbl r
Ġst raw
r one
Ġsp at
ar cer
pro du
es pecially
ĠGl obe
Ġinter im
ĠC u
ade qu
ĠC SS
T im
Ġc u
ith ub
Ġpr ay
ĠB R
Ġvill ain
ian ces
fr ame
Ġst ark
P ut
Ġ8 9
ES S
Ġdistingu ish
Ġviol ate
Ġinv isible
Ġinc on
Ġles bian
p df
Ġgrad uated
ĠAss istant
Ġgal axy
th ree
Ġart work
Ġexclud ed
Ġvar ied
pt ic
Ġa ster
Ġor b
V ID
Ġal iens
ĠMach ine
Ġover time
B uy
om o
ĠF L
d ie
ĠBre ak
Ġover see
Ġdefin itive
Ġd rown
Ġinter section
Ġpron ounced
ĠD ue
p ic
ĠM B
Ġkick ing
aus ible
ĠLeg end
Ġrun ner
ĠN ancy
Ġacc using
ĠR ud
Ġrel ent
Ġassemb led
A c
ĠSt ra
ĠT ar
ĠM ul
Ġinflu ences
Ġa qu
ĠCard inals
am as
Ġpref erences
Ġpre y
Ġsub way
ĠF ish
ĠN exus
Ġob esity
Ġrevel ations
ĠCl ose
Ġren ov
ĠLad en
Ġlay ing
Ġfort une
Ġal umin
A K
Ġbul lets
II I
P ublic
Ġbes ide
un ks
Ġhel met
ĠW ade
Ġwar r
ĠNe ither
Ġrisk y
ul ates
Ġuns uccess
ĠC ab
Ġm ush
ĠJ ong
Ġimpl ies
Ġvary ing
G reat
Ġtrib es
Ġhand y
mont on
ernand ez
ĠAff ordable
ĠS O
U ntil
Ġrent al
Ġtoile t
Ġd read
Ġag g
Ġse al
Ġsh ower
ĠB iden
Ġkilomet ers
Ġre lying
ĠB annon
Ġbreak through
Ġban ner
Ġfavor able
ĠM itch
ĠE rd
ose velt
P H
ul k
Ġne ural
ĠL uther
ĠMem bers
ĠWh atever
it utes
Ġn urse
Ġauthent ic
Ġg i
alth ough
ĠTra vel
Ġdiss ent
Ġtax i
Ġo d
rament o
sy stem
Ġrecip es
ĠSe lect
Ġanaly ze
Ġreluct ant
V R
Ġp p
Ġaim ing
ĠJo ined
Ġcred ited
Ġk icks
Ġfam ously
Ġpat ience
ĠCle an
Ġassass ination
ĠClass ic
ĠG R
ah o
Ġur gent
Ġback ers
Ġun aware
ine z
ĠFl ight
Ġp sy
Ġins pire
b uild
rib ly
Cl ass
Ġcl ause
Ġprof itable
ĠH orn
ĠT arget
in ho
Ġvolunt ary
H ub
ĠJ obs
Ġfact ories
Ġsubst itute
Ġmass acre
Ġmeas uring
Ġrecre ational
ĠCol lect
Ġp etro
n ut
W ind
Ġca ut
b one
ĠUS S
Ġsum mar
Ġpr ayers
Ġexpress ions
Ġp up
th ird
Ġtrick y
econom ic
ĠW ire
Ġoutf it
Ġmag azines
D irect
ĠT her
l ay
ĠC BC
Ġdisc ourse
Ġpass ive
Ġcy cles
s cience
ĠYan kees
N ational
Americ a
IM E
y ang
Ġsoc ially
Ġal beit
C ong
Ġp uck
ĠV atican
omet own
Ġtext ure
ĠH R
br aska
ĠDr ag
rit ical
Ġp ause
Ġund oubtedly
ĠGarc ia
l arg
Ġb out
E vent
ĠK remlin
Ġstar ring
ĠHispan ic
ĠE ither
Ġatt ribute
Ġf isher
ĠB att
uc le
t ic
ĠP il
Ġmin im
so ever
ac hers
IC K
Ġmos que
Ġrece ivers
Ġcrew s
Ġhe ated
" ;
B ased
ĠT ru
Ġst icks
Ġprovin ces
as ma
CL A
ĠW inn
Ġwor ries
ĠFour th
ĠAgr icult
ra ke
Ġcontract or
am y
Ġdefend ant
Ġintention ally
Ġman eu
ash i
t alk
Ġmem orable
Ġload ing
Ġpreced ent
t em
Ġbroad ly
Ġf itting
ĠHol ocaust
Ġf oster
ĠPolit ics
Ġm ant
Ġsatisf action
he tt
er ting
Ġour s
ĠC ou
ĠC ant
ĠPet e
Ġdynam ics
Ġblog s
ĠAr c
h um
ĠC row
Ġse min
Ġfac ial
ĠK or
ĠInvest ig
in is
he astern
ĠNob el
Ġbuff er
ĠH ait
Ġsum mon
Ġval ued
C r
Ġmulti player
ĠN at
Ġsupp lied
ĠAgree ment
Ġiniti ated
atern al
ĠPh D
app ro
im ated
Ġstr anger
Ġattract ion
ĠProt est
ĠDe al
ĠG rey
ĠAl ong
Ġ9 1
ĠHall oween
Ġdisappoint ment
ĠM ans
p ound
ĠAl ice
Ġstick ing
Ġteam mate
ĠSam uel
Ġprov es
e very
ĠL ot
ĠM icro
am o
Ġsear ched
ĠEnter prise
ĠWork ing
Ġinc omes
Ġswe pt
ĠBir mingham
Ġmart ial
off icial
J apan
Ġst er
Ġne o
Ġl iv
B ill
f in
Ġepid emic
ĠL em
ĠSn ap
ĠNash ville
Ġdim ensions
Ġun lock
ĠGirl s
Ġfict ional
ĠTra il
REL ATED
cer pt
ĠChief s
Ġentreprene ur
With out
ĠN EW
F R
Ġmis under
Ġp ars
Ġbroad c
ĠBrew ing
ell ing
Ġgrand father
s im
ĠIsrael is
ful ness
Ġinterpret ed
ĠEngine ering
Ġtheat ers
ĠRe form
inf o
de velop
ort ing
Ġ9 4
F T
Ġ ic
ul in
Ġachieve ments
Ġparam eter
Ġmed i
ĠFer r
Ġevent ual
Ġdomin ance
ĠC hen
AN T
te lling
Ġflaw s
RE E
Ġmod ify
Ġyoung est
c ulation
Ġworry ing
ĠG A
Ġcontribut or
ĠA bs
........ ........
L aw
ur as
Ġint act
ĠF inn
ĠAl b
am ation
Ġr ou
Ġconven ience
Can ada
Ġar ise
ĠCh and
Ġsub mission
ĠD ays
Ġdef ines
terror ism
ain ted
G old
Ġpo le
Ġarch ive
ĠCom puter
ĠC our
Å į
Ġfin ale
Ġpred iction
Ġobst acles
Ġsur render
Ġtact ic
ĠM es
ost al
ast ing
Ġphilosoph ical
ĠP ath
L ong
ĠJ oint
Ġsub t
ĠN ep
Ġw ard
em ale
ĠP oly
ced es
f ull
Ġtr ump
ĠBase ball
Ġbicy cle
v ised
Ġm aj
Ġdisc ont
Ġen roll
ĠAl most
Ġinf lic
Ġpr isons
lic ation
Ġban ning
Ġmal icious
ĠS ach
ir med
Ġreven ge
roph ic
' '
op ular
Un like
Ġnav al
AS T
cul us
c m
ĠS pect
Ġwhat soever
ĠK ath
bl og
ange red
un ique
Ġnational ist
Ġentertain ing
D et
am bers
Ġdiv ine
Ġbas eline
Ġcorrel ation
Ġnetwork ing
ĠMo z
Ġneighbour hood
he nd
L ater
Ġsk ip
Ġshe ets
ĠN HS
Ġneutral ity
ĠDiam ond
Ġg aps
ĠK ate
Ġignor ance
ĠS old
Ġorgan ised
in formation
om i
Ġinter medi
Ġtouch ing
Ġconcent rated
Ġdu pl
Ġc yn
Ġover r
int age
Ġconsult ing
Ġregul ated
all ow
an ne
Ġassault ed
ob i
Ġopp ression
Ġn est
ĠB ear
ment ation
Ġthe or
ĠPortug al
ar u
Ġle thal
Ġtw itter
Ġanal og
Ġmac ro
Ġev olve
St ring
Ã¼ r
M arch
ĠM atter
Ġan k
Ġinvent ory
Ġcur s
Ġsa ves
Ġeuro s
ĠE le
Ġris es
Ġhor izont
A f
Ġdesign ing
Ġconfront ation
Rem ember
ast rous
ĠPict ures
ĠC ox
l on
ĠHol mes
ĠAn imal
t w
Ġn asty
umb ai
us hing
Ġc ra
Ġimport s
T er
Ch ar
Ġdr ain
Pl ay
Ġquant ity
sp oken
on ies
ĠRo osevelt
In tern
Ġsk i
Ġcrowd ed
Ġover ly
ĠMot ors
Ġadminist rators
le ased
B E
Ġres ur
Ġto oth
Ġscript s
ĠCar ib
Ġinv itation
Ġr ab
rav is
Ġc um
Ġn er
ĠL G
m und
Ġvar iant
h ots
ĠBe er
l ation
Ġoff enders
irl ines
Cal if
Ġh ated
Ġmer it
us cript
Ġdon or
Ġse aled
C P
ĠG ive
ne apolis
ĠFire fox
Ġcommit ments
ĠUS D
M ac
ĠHug hes
T ex
ĠD A
j e
Ġremem bers
Ġbr ick
Ġ196 5
ĠSur v
Ġfix es
as se
Ġcost ume
ĠAngel a
ĠEp isode
head s
c lick
ĠK az
Over all
ĠR PG
Ġ196 4
Ġp add
ĠPD F
Ġnav igation
ĠR aw
ĠL an
as ures
ere k
ĠM I
col m
sc ript
ĠRodrig uez
ĠN athan
us ions
Ġcomprom ised
Con f
ĠF an
ĠK os
Ġinc arcer
Ġstar ters
im eter
ĠPal mer
Ġfree ze
ĠFin land
U P
Ġwr ist
li ers
Ġreject ion
F ox
Ġmathemat ical
Ġprec ision
Ġcur rencies
Ġflaw ed
Ġbelong ing
ĠI L
Ġt ire
ch ief
Ġcomm em
ah an
Ġembarrass ing
Ġpitch ing
Ġcl ash
Ġover th
ĠR ing
Ġrob bery
ĠD ise
ĠG P
Ġb ay
gg le
Ġhol idays
Ġc ord
Ġab uses
are z
Ġquestion able
O pen
ic ating
ĠBroad way
Ġcur ric
ĠOccup y
ĠW ol
ĠF oster
Ġpresent ing
Ġpro xy
Ġapp et
Ġble w
anc ies
ĠQueens land
Ġun cle
Ġn erve
ĠM E
our ge
Ġupgr ades
Ġconstrain ts
ĠS ullivan
ment ioned
ĠIndian apolis
Ġdispro portion
Ġinfect ions
Ġn arc
Ġstead ily
Ġremind s
Ġrend ered
ĠBoe ing
Ġad oles
bel iev
Ġunc overed
ĠDun can
ĠCh ase
Ġpharm aceutical
ĠSh aw
Ġbase ment
Ġball ots
ĠRod gers
Ġtradem ark
Ġa pt
V er
ĠE RA
ed uc
Ġcont ing
Ġb ats
ri ved
ĠMont ana
Ġopt ed
Ġj am
z h
the m
Ġdist ribute
Ġbeh ave
W ASHINGTON
ilit ary
Ġout look
as ive
Ġm ast
ĠP ubl
Ñ ı
serv ice
ide os
Ġmanufact ured
Ġdig it
Ġgrand mother
Ġst iff
Â ©
Ġboot s
P erson
ĠR acing
Ġen v
Ġpack s
Ġm im
Ġun int
Ġtu ition
Ġback wards
ĠMoh ammed
l ass
ĠC ris
Ġa usterity
Ġcomple ment
rit ies
atter ing
Ġsu ited
Ġsaf egu
Ġevangel ical
U lt
ĠL ore
Ġat e
Ġlink ing
Ġcontain ers
Ġmake up
Ġprison er
Ġnons ense
Ġins ert
Ġdownload ed
Ġoff ence
' :
orig inal
ĠC abinet
min ster
Ġthro at
as a
Ġextrem ist
esc ope
d ro
Ġint imate
ĠA G
Ġshar ply
E r
Ġper ce
ic ides
Ġprote ins
Ġan throp
ĠS ens
Ġcred entials
Ġinj ust
Ġcorrespond ent
ĠC op
Ġsecret ly
ĠAth let
ĠIn iti
se en
Ġcol umns
Ġhot els
Ġk g
P ort
Ġtrack ed
Ġpress ures
r aged
Ġsatell ites
ĠAss ange
Ġland l
Ġbud gets
Ġ Å
o os
ĠA ven
Ġqual ifying
Ġhack ed
do ing
ĠBaghd ad
Ġcomp ounds
Ġoption al
J on
Ġto kens
ĠK ash
Ġinv alid
Ġpun ished
Ġwho ever
Ġemot ionally
Ġr ivers
ov ich
Ġsurv iving
Ġsol ving
Ġinject ion
Ġc ups
Ġch ron
Ġelimin ating
F ire
Ġaggress ively
ĠChance llor
ĠY e
ĠNiger ia
Ġham mer
Ke ep
Ġmanip ulation
Ġlif ting
Ġlaun ches
Ġl as
Ġhor izon
ĠCl in
ĠL l
Ġo ven
Ġc attle
Ġres id
Ġpl ag
ov o
ĠP ink
ĠS ierra
Ġswe at
se arch
Ġmet ric
Ġbo oth
un ge
Sm ith
s qu
ibl ical
Ġsubur ban
Se pt
ĠStud ents
ĠAle ppo
ind ex
Ġs ab
est a
Ġhor rific
ĠBr ig
ĠPet erson
Ġnice ly
Aust ral
ĠBrother hood
Ġextrem ists
ĠJes se
Hill ary
Ġconclud es
less ness
Ġbrew ery
Ġde lete
Ġmess aging
et ition
co very
ĠM ine
Ġpublic ity
com pass
ĠCom b
ĠPresident ial
ĠQu ick
ĠCitiz ens
ĠFI FA
pr ises
OM E
ĠSac ramento
Ġh ilar
Ġjo ins
Ġamb ul
er als
Ġcompl aining
Ġ: )
ĠR O
Ġprev ents
iction ary
s ocial
child ren
ĠBangl adesh
Ġrecon c
ĠH erald
Ġprem ise
Ġvac uum
zb ollah
ĠE S
ĠAlp ha
Ġr ides
EL L
ĠCat al
âĢĶâĢĶâĢĶâĢĶ âĢĶâĢĶâĢĶâĢĶ
Ġdism ant
Ġbr ush
J une
Ġadvis ers
ĠZ immer
00 1
it ches
se in
N one
Ġhaz ard
Ġjust ification
Ġunder go
Ġ q
k now
ĠC ell
Ġtrad es
Ġdest ructive
Ġanch or
pl ant
ĠB elt
ĠP red
el er
ok o
Sc ott
Ġneighb oring
ĠA round
Ġent ers
ĠHer itage
Ġsle e
Ġpict ured
.âĢĻ âĢĿ
Ġo un
Ġref und
Ġtroub ling
Ġvirt ue
Ġtransf ers
Ġflo at
Ġacc idents
ĠCr iminal
st ick
ĠOver all
ĠLeg al
ĠCol in
Ġrecord ings
Ġannoy ing
Ġcor ps
Ġsovere ign
Ġfe as
iter ranean
Up dated
Ġtroub les
pri v
Ġnon etheless
Ġun constitutional
Ġpur ple
E mail
ertain ly
ĠEd monton
l iter
Ġ19 45
Ġle ase
Ġdis astrous
at isf
ĠAn aly
ĠJess ica
Ġcommission ed
G N
Ġplug in
ĠHe y
Ġby pass
Ġam ateur
ĠMS NBC
Ġcomm ittees
sh ow
Ġir rit
atern ity
OR K
Ġg re
K K
ĠH TC
ĠCh ip
Ġcompan ion
Ġg reed
Ġdim ension
ĠCost a
Ġte aches
m us
Ġl iver
i ological
Ġden ies
ĠRe ally
l ocal
ĠS ave
Ġj acket
sp ons
ĠAll ah
ĠM ong
Ġsince re
S um
gener ation
ens on
Be ing
ip se
Ġin accur
In vest
ĠG ot
ĠZ one
ĠP H
Ġb er
ĠD ri
Ġexam ining
Ġmed itation
ĠPot ter
us hed
ĠPict ure
g s
ĠM urd
Ġcens orship
ĠD rew
um atic
Ob viously
ĠSh in
clus ive
Ġlegal ization
ĠOb serv
ĠR ivers
g om
Ġdeli vers
Ġin adequ
ĠC av
Ġprom in
ĠL ic
ĠAh med
Ġinter pre
M C
eal ous
ĠAnt ar
Ġop io
ĠBre nd
Ġrandom ly
ve t
Ġimpl icit
leg al
Ġboss es
Ġintern ationally
ĠChall enge
ĠG round
ĠInc re
Ġexpl ored
Ġforeign ers
Ġunemploy ed
c all
ĠAct iv
Ġcalcul ate
Ġgrad uates
Ġh ike
Ġhand gun
Ġ0 3
ĠE arlier
Ġintegr ate
worth y
Ġp ad
ĠFO X
Ġcat ches
ĠC T
Ġcl ashes
w ould
âĢĿ :
if iable
ĠAr med
ĠNe braska
ĠA irlines
ĠG ore
Ġdisp utes
av i
if ully
ĠÂ °
Ġb ans
Ġl azy
ĠIm agine
ur ious
Ġpriv at
b ot
Ġirre levant
at hetic
c d
oun cing
ĠS em
vent ions
ĠL ives
Ġd war
ĠTele graph
Ġaccord ance
ag ain
Ġfor k
F ull
if iers
augh s
Ġretain ed
Ġdef enses
Ġcig arettes
ific ant
Ġadj acent
ĠBar n
v ial
Ġe rect
Ġp el
U K
ie ve
Ġland mark
] )
Ġencour ages
ĠClar ke
ĠF ac
iz ers
Ġcomp act
Ġnin th
ĠCurrent ly
Ġprop ose
Ġstri pped
ust ain
Ġterr ifying
oot s
av ailable
Ġch unk
Ġint ends
play ing
min ent
ĠPrin cess
ĠComm ander
g reat
ĠT u
ĠR af
y our
Ġmole cules
Ġdiscon nect
Ġreal ised
Ġlight ning
Ġhyp oc
Ġstud ios
Ġcalcul ations
E xt
ĠB ald
ĠCub s
Ġcampaign ing
ĠO z
Ġenact ed
ĠNaz is
uff ed
l ength
Ġfar mer
Ã¡ n
Ġtoug her
Ġover head
ver ted
Ġcal ories
Ġintrig uing
ĠN ar
Ġsan ction
Ġrecru ited
R eal
o ven
Ġkn ees
N AS
b oth
Ġclar ify
Ġaff irm
M uch
Ġconf erences
Ġinvestig ative
ĠEv il
Ġo k
Ġeconom ically
[ /
yl an
ĠZ ach
Ġsubst ances
Ġdep ict
Ġsc are
Ġâ Ĩ
d esc
ur ry
Ġ16 0
Ġpro long
Ġprof iles
Ġatt ach
ĠM aur
Ġsymb olic
Ġmor ality
Ġsocial ism
Ġcrit ique
undred s
Ġr ugby
Ġshe ep
v or
Ġcent res
Ġgu ided
uff y
ew s
ĠWeek ly
Ġhomosexual ity
Ġflow ing
U se
G R
ĠP owell
Ġco pper
Ġpres erved
Ġload s
to o
Ġcoll ision
ĠBoe hner
Ġst ones
ĠPro cess
Ġplace ment
Ġassess ed
âĶĢ âĶĢ
Ġsl ice
Ġunw illing
ĠP in
ĠW ing
Ġnorm s
op ic
Ġprosper ity
p ay
Ġproceed s
Ġn aming
Ġcou pled
fl u
Ġfurn iture
ĠO P
Ġspecial ized
D I
imp se
Ġnot ified
ĠTib et
Ġgl impse
ĠSen ators
ig ue
os ity
Ġdr agon
Ġimag ery
ĠChe m
Ġrelig ions
it ations
p ol
Ġple asant
Ġsubur bs
Ġhed ge
G en
ĠD ynam
Ġsequ ences
Ġsimpl er
ĠR u
Ġfif ty
Ġdeliber ate
Ġcrit ically
ĠV oice
Ġfav ored
ĠWe ather
ĠTr aining
Ġexpl oded
Ġch airs
Ġporn ography
ĠH E
L ear
C ount
Ġinc om
ĠEff ect
ĠCarib bean
qu ire
ĠSteven s
per t
pe ction
anche z
S am
ĠT ogether
T able
ĠJo el
ok ia
Ġind ie
ĠPro s
Ġa ug
ain er
Ġdrag ged
Ġhe y
Hist ory
ograp her
B ron
r ams
ĠHung ary
Ġcryptocur rency
Ġmind set
Ġref uses
Ġoffer ings
ĠF am
Ġencoun ters
ograph ical
ab i
Ġtri o
ĠBe aut
________________ ________________
Ġl ending
ĠMed iterranean
ĠAny one
Ġh ometown
] ;
ĠF ight
Ġrevers ed
Ġpack aging
Ġsket ch
Ġemphas ized
Ġinfring e
ĠAlex and
ia z
m em
ident ified
Ġincorpor ated
ĠC ulture
ĠI de
Ġpot ent
Ġreal ise
ĠC and
Ġgl ance
izz ard
i ably
Ġen velop
ĠMil an
by e
Ġcur b
k n
Ġv ag
Ġgest ure
Ġdisc retion
ĠÐ ²
Ġfl ower
Ġst ole
ĠU ser
J uly
J im
Ġdis gr
Ġbre ed
p her
Ġsc roll
m ill
Ġtravel s
lin ing
Ġtal ents
Ġ12 5
Ġthr illed
ues e
ul ously
ĠErd ogan
imens ional
Ġturn out
Ġcop e
ophob ia
Ġcontin ually
ĠMin neapolis
Ġa irst
Ġcance led
Ġany time
ĠK an
Ġindict ment
Ġstrength s
G L
ĠH ig
ri ans
Ġmin ers
am pton
ĠE ight
ĠZ en
ĠCons ider
ĠImm igration
ed e
ĠP ic
F eb
ĠK er
ond e
S H
om ers
omet er
Ġfather s
ed In
Ġshare holders
gh ai
ĠLu is
K ing
ig s
Ġcommun ist
Ġcontrad ict
oc y
> <
Ġl ing
Ð ¼
A pril
at able
ĠEdd ie
Ġder iv
on est
Ġm old
Ġcont empt
ost ic
p os
ĠMus k
Ñ ĭ
ĠM umbai
Ġaccount ed
ous ands
Ġha un
Ġflee ing
Ġrest rain
c urrent
Ġres il
Ġdes ires
ĠEurope ans
Ġapplic able
u art
Ġthread s
Ġtow ers
ĠM ull
et on
asc us
ĠPriv acy
Ġg ambling
Ġdecent ral
Ġvo iced
Ġs add
Ġreb ounds
b b
mer cial
******** ********
Ġhas ht
ĠGO OD
Ġlack ed
oll o
Ġind ivid
Ġpract icing
B rien
ĠD ian
M att
ĠK ay
Ġorder ing
iber al
he ll
rik es
Ġfact ions
Ġnot ification
Ġimport ed
Ġd airy
ro d
et a
Ġoverwhelming ly
. ).
cont ent
Ġdict ators
Ġhabit at
Ġte lev
Un ited
ĠLook ing
Ġcritic ised
Ġel ites
ĠPal m
Ġscholars hip
Ġhead er
Ġins pection
Ġman uscript
ĠStr ong
Ġref res
Ġdep icted
Ġsc al
ĠÃ ł
ĠT ouch
H el
ĠT ask
Â Ģ
ĠE thereum
Ġfru its
Ġ9 00
ĠW a
ĠTh ai
Ġpredict able
ĠMart inez
ar in
an ies
Ġ0 7
ĠGib son
Ġconv ictions
sh aped
Ġmeasure ment
ĠM aking
Ġsw ap
Ġcollect ions
ĠJ ared
H ead
Ġsur plus
ĠCast ro
Ġfemin ism
charg ed
re cy
h u
Ġra ids
and ing
Ġprec ip
Ġwas ted
Ġsu cc
ke ll
Ġactiv ated
ens en
Ġdist ress
ny der
Ġsu ite
ĠCh ad
ĠLat ino
Ġab ortions
Ġfe ver
Ġcolumn ist
ol ics
Ġpoet ry
Ġfinger print
Ġorg ans
ĠHel p
ĠB ak
Ġiss uing
Ġdepos its
F eed
O kay
ĠHT TP
ĠMc D
ĠUn ity
ĠWood s
on ut
Ġl ips
Ġwhe at
OS E
M icrosoft
s ight
Ġbe ans
Ġforth coming
ĠL akers
ĠB aby
ĠÐ ½
Ġactiv ation
gr at
J eff
Ġun law
sec ution
ĠW es
ĠJ ed
Ġappreci ated
ĠCo ff
T w
gh azi
ĠB esides
Ġj ets
Ġpurs ued
Ġtr im
Ġsatisf y
k ers
Ġoff s
AM E
Ġrall ies
Ġconst itute
Ġwe aker
Ġt ender
Ġprogress ion
Ġle ver
Ġlit igation
Ġsup reme
Ġcons cience
Ġfin ances
Ġru in
ĠN ine
Ġcomp iler
Ġh urd
ĠAdv anced
ĠDem ocracy
ĠTex ans
ĠLight ning
m ember
ab lo
ĠM ath
tr ue
Ä ĩ
Ġcrack down
ĠMer cedes
Ġch ick
M o
Ġamb ig
ĠCh an
Ġpost ers
P ac
os ph
Ġefficient ly
and o
Ġschol ar
Ġd awn
ĠJeff rey
em et
Ġfre el
Ġj unk
Ġwh oles
ug ar
otten ham
Ġbe ast
ĠY ellow
ĠAn a
ĠE P
Ġkilomet res
Ġobsc ure
ĠNorm an
h ad
Ġguarant ees
Ġcar ing
Te am
ĠG am
ud a
ask et
gom ery
ĠC urt
ch ant
Ġhel m
um my
Ġuncons cious
ĠAdd ed
ĠD im
ĠLabor atory
on al
Ġstart ups
s i
ĠM ade
ĠPro per
Ġactiv ism
ĠK in
p resident
Ġmo ist
ĠToy ota
Ġneed ing
ĠTra ff
ce ans
Ġconfir ms
ac cess
ĠPoint s
h or
Ġneg lig
Ġdes cent
Ġm g
s omething
Ġliber ties
Ġinf inite
Ġparad ig
E U
Ġconcent rations
Ġs id
Ġsc attered
Ġthreat ens
ĠVis it
ft y
Ġaccording ly
Ġb ored
d eb
Rober t
ĠStud ent
us c
Ġinstall ing
ok u
n ia
ĠK enn
Ġrock ets
Ġro oted
Ġsec uring
H ello
ĠMag n
Ġdis hes
Ġinstruct ed
Ġpass port
ĠCreat ive
Ġwood s
V I
Ġport rait
ãĢ ģ
ĠD I
Ġgot ta
Ġir ony
ĠHud son
ĠGand hi
Ġtransport ed
Ġunh appy
200 7
Ġassert ion
ĠM eg
Ġfix ing
ĠA ub
Ġwat ches
ys on
M ax
ĠD w
Ġd ining
um ar
Ġman ually
ĠS au
âĸĪ âĸĪ
Ġres et
Ġcustom s
Ġcont race
iment al
Ġint ensive
ĠCan cer
Ġhy pe
Ġinf ilt
Ġcry stal
ĠFred er
ĠNY C
Ġprofess ors
il ia
ĠStat istics
ib les
Ġpat ents
en z
ĠAh mad
Ġassign ment
Ġr abb
ĠMarg aret
' )
V M
Sh ort
p aid
Ġund ocumented
Ð ´
raw ling
Ġg ly
Ġremain der
Ġsp here
ĠMos ul
Ġ0 9
Ġch im
v oc
ĠHe zbollah
Ġ196 6
ĠSpr ings
Ġshout ing
Ġhe ating
ĠÐ ¿
ĠB omb
am mar
ĠBoy s
ĠYou th
Ġceleb rities
ĠO pt
ĠW alt
ĠH S
ĠInter ior
ĠB apt
ĠC it
est e
Ġj azz
Ġsurvey ed
Ġtra ject
Ġproject ions
Ġpost season
ĠL ion
ĠS ri
Ġen vision
Ġreact or
Ġ Ñģ
own er
y on
Ġc abin
Ġmarg ins
Ġsl ated
Ġbull ying
Ġdis gu
P ower
ateg ory
le ague
Ġmix ing
Ġsystem atic
Ġeas iest
Ġbackground s
Ġt ennis
Ġvacc ines
Ġsh ark
Ġcommod ity
Ġsound track
Ġment ality
Ġge omet
ĠSum mit
Ġfavor ites
Ġmin es
ĠL arge
uck ed
Ġconce aled
Ġacadem ics
Ġapart ments
ĠSqu ad
Ġaer ial
ĠB anks
Ġbe ats
Ġpr one
Ġdig est
Ġsu e
Ġgr im
Ġadvent ures
Ġbatt ling
ĠBM W
ĠW ang
Ġdress ing
Ã º
ĠCom cast
Ġtou ches
est on
ĠT ree
ĠMon ster
Ġforg ot
Ġcome back
Ġw ra
Ġgrass roots
Ġm apping
ĠL ower
ĠMov ie
at ics
Ġdis puted
Ġbl ade
j u
ĠC ool
J oe
ris k
Ġd ug
ĠS ett
ĠId ent
we b
emet ery
Ġin k
ĠI R
ad ian
ĠC P
Ġpromot ional
Ġ( Â£
Ġc aucus
ĠPri or
Ġhe els
Ġpark ed
els h
ĠCom ic
UL L
ĠG aming
E nd
Ġfl ies
Ġshout ed
Ġc ables
Ġsm iling
g ue
ĠH onda
Ġmet eor
Ġappreci ation
ĠMal colm
Ġcontinu ously
ĠY ale
Ġl ied
_ {
r ising
j pg
.' "
Ġflags hip
Ġindic ator
Ġgas oline
ogen ic
Ġble eding
Ġnut rition
ĠOper ations
ys ical
Ġdispl aced
agg ering
Ġhand les
Ġsl aughter
Ġdep uties
Ġremote ly
ĠForm ula
ĠD rop
Ġmathemat ics
ĠN ad
ĠTe levision
F ive
ĠF o
Ġrhyth m
Ġsc ales
ĠKen ya
Ġsh oe
Ġan om
Ġ0 4
Ġcol ony
Ġm ud
s un
ĠS id
Ġtrop ical
ĠInd ependence
ĠAb raham
ens ed
Ø §
Ind ia
B o
ing le
Ġca f
ĠF alls
Ġstr angers
at ility
Ġse gments
Ġsc i
Ġstaff ers
ĠH im
ĠÂ »
Ġmount ing
Ġgen ocide
id ity
Ġw ield
ĠDam ascus
M D
Ġch rom
es ville
Ġ0 8
Ġâ ĸ
Ġpolic ing
oul os
ĠBelg ian
Ġver bal
Ġacc laim
Ġfl ames
ĠBen ghazi
ĠCol lection
Ġimm unity
ab lish
Ġill usion
ĠP ract
Ð ²
Ġ( -
ĠFin als
ĠS K
Ġstat ute
ĠVin cent
Ġcle aring
Ġmulti pl
Ġl inem
Ġs od
Ġdis reg
ĠP etro
Ġsh ook
Ġpull s
Ġunp redict
Ġd ough
Ġdig ging
Ġprompt ing
ix els
Ġcompet itor
Ġport ions
ĠSome one
Ġinherent ly
Ġic ons
Ñ Į
Ġcharacter istic
ph is
Ġcompar isons
Ġbr idges
or ically
Ġconnect ivity
w age
Ġg orge
ĠSt rip
Ġbench mark
ĠCry stal
Ġ196 3
yn c
Ġaffili ated
ĠSim p
l isted
P ass
Ġamb itions
ĠM ons
ĠCar r
Ġto pped
ĠCoun ter
Ġu pt
N E
Ġm ol
Ġsh aking
ad itional
F il
In f
ipe g
ĠRaven s
Ġcertain ty
Ġcent ered
Ġsmall est
ĠWe ap
ĠWh ats
mid t
Ġl i
Ġbehavior al
atch ing
Ġcro re
ĠA K
Ġbl unt
L ab
ĠMajor ity
ĠNew castle
Ġdispos al
ĠHop efully
th reat
ĠD elta
ĠIniti ative
Ġapplic ants
Ġfortun ate
Ġw ished
Ġpit ched
cific ally
Ġd are
Ġsynt ax
Ġup hold
ĠM is
ĠTom my
Ġmusic ian
ĠUp on
ig ion
Ġwild ly
Ġimpact ed
B ro
Ġmed ieval
Ġm i
Ġreprodu ctive
m ount
ĠBr ight
on gh
Â »
Ġcar n
yn asty
ĠNe uro
os aur
Ġstorm s
Ġdis ruption
ĠM end
ĠSch olar
Ġpit ches
ĠB ren
ĠCont ent
ĠX i
Ġwe ighed
Christ ian
ĠBr ain
Ġcontribut ors
Ġview er
ud ed
ĠCo in
Ph il
ĠSat an
Ġst ap
Ġur anium
Ġat op
ĠW ITH
ĠPortug uese
r ise
Ġanx ious
1 30
ĠC opyright
Ġcook ed
ĠC ash
ĠApp arently
Ġfoot print
Ġamend ments
Ġbe es
el ed
h art
Ġaest hetic
Ġgl ac
lud ed
we gian
ĠSh a
ĠWal mart
ĠTH IS
Ġaver aging
Ġeat en
run ning
ĠR ank
Ġst int
ĠH ERE
Ġadjust ments
sh aring
m ax
im g
Ġd ent
ean or
Ġst akes
Ġas leep
ĠB ody
Ġtheat re
W omen
Ġindivid ually
ĠEm peror
AC E
Ġst ub
Ġ| |
ON E
Ġim minent
Ġfaith ful
Ġrep ository
ong yang
ĠW ings
ĠRe yn
Ġpat ches
T Y
Ġem pir
ĠArch itect
Ġprior it
Ġr ipped
Ġcinem a
ĠW ere
ĠG raph
Ġh ipp
Ġadvis ory
Ġve ctor
C all
Ġsh adows
ĠK urt
Ġdes erved
N on
cl ub
Ġattend ees
igg s
Ġphys ic
Ġst aring
ĠOther wise
ĠR ule
Ġfound ations
Ã© e
ĠD anish
Ġdemonst rators
Ġmy st
ĠIndust ry
ĠSt alin
Ġcon grat
Ġr anges
ur ally
Ġcru ise
âĢĿ ).
ĠLegisl ature
ĠA CC
ĠR A
Ġe go
ot ive
Ġp und
Ġrecover ing
Qu est
Ġfe ather
Ġsp ont
p ical
AS E
Ed itor
tit le
Ġsufficient ly
en ly
ĠK aren
akes pe
ĠCar roll
Ġdistinct ive
ĠCrime a
ĠB ills
Ġlegitim acy
ĠM ann
Ġinspir ing
ĠVal ent
d ollar
Ġque ue
Ġcand y
Ġdep osit
Ġcl ue
Ġju ven
Ġbon uses
Ġjail ed
et ooth
Every thing
Ġcert ified
Ġrail way
s ite
ess age
Ġhier archy
ĠReds kins
Ġ0 5
Ġund erest
Ste ve
Ġclim bed
Ġhistor ians
le en
Ġincumb ent
\ \
Ġal erts
ĠA er
ĠColomb ia
Ġpl ausible
ĠIm pro
Ġadjust ment
M E
f ix
ot er
Ġsupp ress
Ġcar b
O H
Ġmetab ol
Ġn ucle
Ġun believ
ĠS QL
sh it
Ġcr ap
Ġcr ashes
Ġab usive
Ġc age
Ġrein force
Ġsuprem ac
Ġn ail
ĠLe ave
ope z
Ġphys icians
,' '
Ġcook ies
Ġro d
s ay
âĢĿ ?
AC T
ach t
Ġque en
ĠUlt imate
ĠCons umer
Ġexplan ations
ĠGener ation
S il
Ġt ide
ĠS ale
ult z
Ġmin imize
St r
Ġcont ender
an as
Ġut ilities
pect ives
Ġimprison ment
w ait
Ġamb ition
Ġblow ing
Ġa fore
Ġe cl
Ġpar as
Ġshe lf
D el
Ġfound ers
ik o
Ġneg lect
ĠU A
% ),
Ġposition ed
Ġresc ued
Ġoff enses
ad ata
Ġconsult ation
Ġlight ly
ĠD ame
ĠId aho
Ġdirect ing
P eter
ould er
ĠK i
Ġcig arette
Ġelect orate
Ġdeleg ation
ĠShan ghai
Ġvel ocity
Ġzomb ie
g irl
ow itz
b ra
ĠM ob
om ore
c ourt
Ġflav ors
ĠB ent
ĠSimp son
ar se
Ġgi ants
Ġmet er
ĠCommon wealth
Ġmotorcy cle
ĠWest minster
Ġansw ering
k ar
ĠMet al
Ġsc am
Ġde ar
ĠPer formance
ĠGr an
Ġboy cott
ĠCh ampion
Ġeduc ate
Not es
Any one
Ġhuge ly
Ġbox ing
Ġincorpor ate
Ġsie ge
ĠK o
orth y
12 5
gg ing
Ġby tes
Ġpersu ade
Ġpromot ions
chn ology
S ure
Ġexplo ited
h at
Ġv icious
ĠThe ory
Ġ( +
Ġal igned
ĠCol ts
Ġhalf way
A G
min ing
ĠLim ited
ĠL oc
OU R
ĠLeon ard
C onst
Ġrun ners
ĠS anchez
Ġrow s
Ġab rupt
uter te
ĠM asters
um per
Ġcollect ively
} ,
ĠArm strong
ing rich
Ġlad der
Ġch asing
per m
Ġsim ulation
prising ly
Ġoff line
Ġf reed
ĠS witch
Ġluc rative
Ġgener ates
ĠH az
Ġmor ph
Ġrecogn ised
Ġp ork
Ġshow case
erv ative
Ġintegr al
Ġconsist ing
g ow
n els
ason able
Ġplant ed
Ġaccess ed
Ġautonom y
Ġdies el
Ġelement ary
ĠEs pecially
Ġsli pped
ĠP orter
Ġfif teen
ĠG N
Ġapp ar
ĠF ix
Ġassoci ates
ĠV M
Ġabsor b
ĠM add
ĠK end
ĠSocial ist
ĠX L
n is
er ness
he art
ĠU CLA
Ġcurric ulum
C AR
als h
ĠO culus
ĠK ane
Ġopt imal
ĠSteel ers
ĠW ant
Ġmilit ia
ĠM oss
OR D
akespe are
Ġp iano
Ġlow ered
AS S
Ġjer sey
Ġmar riages
ĠInt egr
ĠConfeder ate
ĠAn alysis
Ġcere mon
n ar
Ġsp ike
Ġadv ancing
Ġancest ors
Ġman a
Ġop ener
Ġnegoti ated
ad ays
ĠW E
c amp
Ġt a
Ġacc ent
Ass ad
Ġappeal ed
Ġpo em
ĠPriv ate
Ġauthor itarian
Ġs oup
am iliar
ĠN ut
Ġrecruit ment
F ore
ra vel
Ġmatch up
ĠEm ir
or um
Ġquant ities
ew ay
ĠStr ateg
B as
Ġeff ic
Ġslow ed
F ile
t ax
op oulos
ĠW or
Ġbl at
ĠS add
Ġimp osing
Ġmanip ulate
P age
Ġsatisf ying
ĠCre ate
Ġinhabit ants
Ġport able
st ation
Ġw itch
Ġquarterback s
Ġpist ol
Ù İ
ro v
Ġunp opular
Ġwe ed
asc ript
I ran
Ġprotect s
Ġbl oc
Ġd orm
Ġillust rate
Ġalumin um
Ġ __
Ġb ru
ĠS B
ĠI Q
Ġbr on
Ġt ales
ĠS ie
ĠM ol
ĠâĢľ [
il itation
ĠQ ur
Ġloc ate
Ġclass ification
Ġconsist ed
C re
Ġper ipher
ĠÂ Ń
Ġhon ored
ĠMon th
Ġemb ark
ĠT ravis
Ġpay roll
gu ard
s u
ĠJ ama
al one
ĠH ousing
Ġhom icide
Ġtreat s
M ad
Ġar rog
Ġfact ion
Ġdelight ed
he y
u ber
ere rs
Ġprem ature
M ENT
S N
im ity
Ġup s
Ġo we
Ġche ss
ĠEn forcement
Ġp iss
Ġres ent
def ense
Ġtrave lled
Ġblog ger
Ġcrus hed
ie ce
v ance
ĠGreat er
Ġconsum ing
ale z
add afi
Ġprotest ing
1 000
ir ies
ĠG or
reg ular
Ġp estic
Ġadminist rator
Ġdiam eter
ĠK il
ĠM ills
Ġhapp ily
Ġlog s
Ġfert il
um ed
3 50
bro ok
ĠMin i
Ġo w
ĠA F
ĠS outheast
ĠD olphins
Ġmet rics
Ġp ond
Ġinv ention
a que
Ġacadem y
Ġdec isive
s n
Ġt ended
att ack
ĠAmb assador
ĠS nyder
Ġart illery
Not hing
ob a
Ġprol ifer
Ġy oga
Ġover view
o ir
ĠPr ison
Ġat omic
Ġâ Ī
Ġsent encing
ĠN GO
Tex as
ĠOrig inal
ĠDar win
Ġg ates
Ġuns upp
occ up
Ġpat ron
ĠTer min
Ġinstrument al
ator ial
Ġno ble
Ġsimilar ities
ell ed
Ġrecogn ise
Ġclin ics
ĠCath olics
Ġinc ap
Ġdetect ive
road s
ibl ings
ich t
Ġu m
Cont act
in ner
Ġdri ed
z el
el ong
ĠCase y
ĠS eth
ĠD erek
an ed
ĠM ut
il ight
ke eping
ĠDel aware
Ġsl ammed
ener ation
Ġu b
ĠF ace
Ġconstitu ents
ĠT on
Ġal arming
Ġliv est
ĠH ence
Ġdat as
ĠV ent
R yan
ĠCan n
ĠSal v
Ġrest oration
el ines
ash a
Ġqu ot
Ġv ic
Ġprob ation
Ġupgr aded
ĠRichard son
Ġcontem pl
Ġyield s
b ach
ĠGl as
ĠBre tt
Ġincl ined
am on
Cont in
Ġven ues
And rew
it ous
Ġlad ies
ĠO ften
Ġprohib ition
Ġd ude
Ġrif les
ret ty
ef e
ĠN ord
ant om
Ġmark ing
Ġcomb o
ment al
Ġsp ying
Ġseek ers
met ic
Ġp ul
ĠLouis ville
Ġc ad
Ġgen ome
Ã ł
Ġenthusi astic
ĠR ut
ĠL ate
Ġincons istent
ĠSc reen
Ġmasc ul
ĠNich olas
Ġfart her
ourn ament
Ġshow c
Ġbreat he
ĠB O
Re view
olit ics
ĠWe bsite
Ġ196 2
Ġapp le
Ġsl ides
Ġappl aud
H ome
V is
Ġve t
ĠHus sein
Ġfrag ile
Ġr ider
Ġinvestig ator
Ġmis er
ĠD j
Ġbi ased
ĠDise ase
connect ed
ĠW elsh
Ã© t
ĠGene va
W ould
osh i
Ġn odd
Ġexp ans
Ġthr ust
ĠHop kins
ch t
ĠN okia
Ġlic ence
ll ah
Ġpr iced
Ġh ref
Ġremark ably
ĠNo ah
Ġhum ble
Ġcor rection
r ational
Ġl ion
S cient
ĠPar ks
ĠRepresent ative
Ġpost p
ĠMont gomery
Ġvari ants
ĠLoad ing
Ġadvis or
ĠMatthew s
Ġex cerpt
dep th
C ome
ns ic
Ġrecip ients
Ġdep ressed
Ġsynt hetic
ĠE t
ĠK ap
og yn
Ġshel ves
N ob
Ġun related
Ġspe ar
lev ard
g on
Ġweakness es
Ġbail out
s ix
Ġend angered
ĠS pl
ĠC rew
Ġt ires
Ġcon form
Ġcl ips
Ġcatast rophic
ĠNorth west
Ġtro phy
ĠHuff ington
ur bed
Ġtight ly
Ġjud ged
ĠLear n
ĠP ierre
Ġc otton
Pro t
ĠEll is
Ġn ostal
ĠC airo
ball s
id i
Ġnic he
AR K
s an
ĠW rest
ĠG az
Ġr ip
m ph
Ġev olving
Ġo ath
d est
ÃŃ a
ĠLeaf s
ĠT rip
Ġutil ize
uff le
Ġalleg es
Ġst aggering
Ġcol ored
Ġgang s
Ġair ports
Ġp oured
Ġg ren
e ger
Ġup ward
Ġnurs es
asc ular
Ġbre wing
Ġpract iced
i Ã³n
Ġmon itors
names e
ĠA br
Ġsec urities
it ially
Ġfor ty
Ġcooper ate
ech an
he ster
Ġinterven e
Ġr iots
l av
e ous
ĠVeter ans
ĠY u
Ob ject
ourn als
ĠEag le
l iv
is le
Ġcoinc idence
ĠV ideos
Ġcamp uses
Ġpros pective
ĠV I
Ġbook ed
Ġencrypt ed
Ġextensive ly
Ġrel iability
Sp ace
Ġun con
ĠAn onymous
Ġchap ters
and als
Ġimm un
" ).
M or
Ġsl im
Ġhor r
ĠSur face
Ġdown s
oun ter
Ġank le
ĠSt ories
Ġecho ed
amp ire
Ġmonit ored
Ġinterf ere
Ġoptim ism
Ġrem inis
Ġprop osition
ĠCD C
Ġpredomin antly
b ling
ĠK ids
ik er
ĠThanks giving
Ġflo ors
ans om
ĠMun ich
Ġwar ns
ĠH appy
He alth
Ġang les
Ġsymp athy
h aw
ĠUS C
he arted
Ġsepar at
ĠIS BN
Ġtask ed
Ġm igrant
N O
Ġinsect s
Ġdefic its
reat ing
ĠP ew
Ġgenet ically
ĠTun is
p ically
ĠB ach
ĠV a
Ġwell s
Ġwe ars
Ġre nown
Ġint oler
ĠA FL
Ġfore most
Ġenfor ced
Ġbound ary
b ane
Ġw ives
w ent
ĠV illa
Ġste ering
ĠGr ace
ĠACL U
T otal
T ext
Ġne arest
iat ric
ĠArn old
Ġpract ition
ĠSom alia
ĠVis ual
Ġfil ters
b us
Ġwhistle bl
ĠA pr
ĠD oc
Ġcoord ination
ot ics
ĠPr ide
Ġo st
Ġext inction
ĠJ ays
f inal
ĠHe brew
Ġinher ited
ĠAg ent
Ġver b
Ġbre eding
d imensional
Ġnav ig
il ers
Ġpositive ly
Ä į
ĠKurd s
ĠBudd hist
Ġcl iff
l ance
Ġcomb ining
ĠAs k
ĠB eth
Ġincl usive
ĠAct ually
M ain
Ġs acks
Ġfor wards
ĠH ass
Ġpartic le
i ott
Ġsh ine
Ġfe ud
ĠJ in
p ose
ĠFor bes
Ġscar ce
b as
ir ation
Ġpri ests
st ated
Ġcul p
Ġg em
Ġassist ed
Ġreward ed
a uth
Ġd oses
Ġemer gence
que z
ĠS ter
Ġhand ing
Ġatmosp heric
Ġdescript ions
ĠW ait
ĠGet ting
RE D
ĠTri ple
g ay
oy le
Ġt ense
ĠP engu
ĠP ub
ĠK ush
ĠSchool s
in ers
ĠReg ion
Ġobtain ing
Ġafore mentioned
ĠSw an
De velop
Ġsens ible
Ġinput s
Ġrelax ed
acer b
b ucks
r ays
ent ry
ĠS r
ĠU P
Ġche f
q a
ĠWinn ipeg
ĠC amb
ey ed
b ast
Ġkind a
Ġw oke
Ġe ld
ĠMem phis
Ġg rief
Ġbureau cr
om on
Ġbo asts
Ġins ufficient
ĠFl a
ĠHend erson
Ġcaut ious
y outube
Ġcommer ce
ann ers
Ġimpro per
Ġcandid acy
Ch ild
Ġrespect s
Ġther mal
Ġdeb ts
ĠK enny
Ġillust rated
ĠCl int
ĠH A
ĠY am
Ġconv entions
Ġuncom mon
Ġc oding
Ġdys function
Ġpersonal ities
Ġreal ities
Ġst airs
Don nell
Ġslow ing
Ġlight weight
Ġbelong ed
Ġreal izing
ĠR alph
Ġz oom
Ġoverlook ed
ator ies
Ġupload ed
ĠL O
ĠE sp
c ond
Ġexp osing
ĠT X
het ical
Ġcycl ists
cons cious
Ġnurs ing
display style
b ank
Ġc ensus
ĠE A
Ġth rive
ig o
Ġadd ict
R ad
e i
Ġintu itive
Ġtest ify
ĠÎ ¼
Ġperform s
ĠCur ry
Ġautom ation
ĠF ixed
Ġadd itions
Ġpo ised
Ġunsupp orted
Ġquick er
ĠPy ongyang
Ġenjoy s
am ount
iet h
Ġtour s
Ġord inance
Ġcirc ulation
ĠBash ar
ek ing
Ġbo o
ĠBar nes
Ġoutrage ous
itz er
Aug ust
Ġpl um
Ġadm ire
Spe cial
Ġblank et
Ġener g
Ġc ripp
Ġd ip
ĠSy n
Bl ue
Ġbas ics
Europe an
Ġse ize
ber ger
ĠP HP
Ġtatt oo
200 6
Ġass erted
f illed
ĠP aper
ĠAbd ul
ĠRe act
Ġ12 8
Ġorig inated
Ġagg rav
Ġt ags
ĠT ab
ĠSt rike
Ġsubject ive
ĠN uclear
Ġpaint ings
Ġred es
10 1
ĠVal ue
H C
ĠPre vention
Ġ196 1
ĠT ak
l anguage
ĠD ust
ĠStep han
Ġrecip ient
Ġje opard
Ġcas ino
Ġvibr ant
ĠW AR
Ġcomb inations
ĠH off
Ġcoord inated
Ġwond ers
Ġgu ides
ĠSil va
p ers
ĠUn less
ĠRe lease
T est
{ "
Ġno on
Ġrepe ating
Ġgr ades
Int erest
is co
ĠWild life
Ġb od
Ġredu ctions
Re illy
Ġawa iting
ĠReg ister
ĠK iev
play ed
ĠKle in
Ġ10 5
ĠSh akespeare
Ġa in
Ġb ent
pro cess
ĠKas ich
Ġmonop oly
Ġfl own
D ate
Ġimm ers
Ġparticip ant
Ġeval uated
Ġliqu or
g rown
Ġwh ales
Ġty r
ĠWord Press
ĠH ack
ad h
Ġl oot
Ġim aging
Ġvol t
d ist
B rown
Ġs way
ĠNor wegian
ĠC I
l it
ĠTit ans
ĠB ark
Ġdeal er
ĠFal cons
Ġcl ues
Ġspr int
sex ual
ĠAd rian
ĠC raw
S erv
ĠHold er
A ir
Ġhilar ious
Ġmention ing
Ġreflect ing
ĠMc N
Ġred irect
Ġtrad ers
ĠH ook
Wh atever
ile m
Ġtast es
Ġdetain ees
ĠR ot
ĠEmer gency
Ġabund ance
ĠE aster
ĠDod gers
ĠCom plete
Ġnever theless
Ġh obby
Ġsc iences
Ġbuy er
Ġmerch and
Ġsoul s
il ogy
ĠBudd h
Ġpick up
c ock
ĠBer g
ĠRand y
ĠSch ne
OC K
Ġwh ale
sh adow
I ts
Ġan ten
.' '
ĠT ories
ĠM atch
ĠL um
ĠB ec
ĠJ unior
up iter
an throp
Ġc ared
Ġinher it
ĠNov a
Ġbot hered
Ġtri vial
ir us
ĠR ules
ĠAt hens
ĠAl z
ard i
Ġform ats
ĠEm ily
Ġlit eral
ĠPear l
ĠAgricult ure
ec d
Ġdev il
ĠIsa ac
Ġopt ical
ĠGab riel
Ġdatab ases
Ġsl ogan
ĠBa iley
Ġfl uct
F ar
ĠF aith
ĠCy ber
Rich ard
Ġdist ances
Ġunder grad
ĠU l
an cer
Ġsam pling
Ġman ga
Ġc ivic
er ie
Ġaston ishing
ĠT ottenham
un al
Ġdark er
Ġdemonst rating
ĠC ort
iz oph
Ġobs essed
Ġrece ipt
ine a
f a
Ġhur ting
ĠMet ropolitan
Ġgr ams
Ġinadequ ate
Ġins isting
ĠG oth
ID E
Ġexha usted
cl ock
ruct ed
Ġwrit ings
Ġsun light
Ġunder water
M ap
b illion
Ġemp athy
ĠFerr ari
st airs
Ge orge
ĠTh rones
m ake
Ġfin est
Ġlobby ists
ĠR ust
Ġs iblings
ach i
Ġoverwhel med
Ġorgan isms
ĠJosh ua
ĠPere z
Ġu mb
Å ¡
ane y
Ġvast ly
Ġdiplom ats
ĠH ost
Ġserv ants
Ġtrans mit
ĠJen kins
Ġe ternal
ĠE ye
Ġcou ch
ĠAustral ians
Ġm a
os ion
Ġprotocol s
p ict
Ġbl u
Ġst agn
it ime
ĠH ob
ĠEv an
W elcome
am ples
S ources
Ġsm iled
ĠDep ression
ĠS ite
ov an
ĠEr n
p res
Ġcon gest
ĠM UST
Ġpremium s
ĠK id
Ġassault s
Ġde portation
Ġpus hes
ĠSt uart
Ã¶ r
Ġex acerb
Ġmole cular
ĠG ang
ep rint
Ġp unk
Ġhorizont al
Ġen compass
eng ine
gg y
Ġprox imity
Ġunderstand able
Ġmicro sc
Q ue
EN D
Ġconj unction
id y
ĠC ob
Ġ0 6
ener gy
dri ving
f un
Ġcraft ed
Ġpay load
Ġsn ake
az or
ĠLe aders
Ġspin ning
ĠA IDS
ĠHer oes
D ou
ĠS gt
Ġs i
Ġmet ro
ut ton
rop he
Ġbank ers
Ġproceed ed
Ġbarg aining
Ġcapt uring
Ġwork out
ĠT win
ĠA j
Ġadv ise
st rom
M iss
Ġprim aries
" ),
Ġjew el
Ġg ases
Ġver ified
f amily
act iv
Ġinaug uration
ĠHe avy
Ġw olf
f air
Ġ19 48
Ġmed ications
Ġen light
es ar
Ġapolog ized
ĠProp het
â Ļ
Ġb ounce
Ġst aged
Ġshall ow
im ination
ĠT iger
Ġaccompany ing
Ġsec recy
ĠPro bably
im edia
Ġactiv ate
Current ly
Ġax is
Ġl ingu
ÂĢ Â
ĠD ylan
Ġsurf aces
ĠSt range
I ES
Ġimprison ed
ĠSach s
Ġinjust ice
F orm
Ġeleph ant
Ġpromot es
ĠJ ob
ĠS weet
Ġimpl ied
ĠViet namese
Pl us
ĠKash mir
ĠP oke
m itting
Ġsupp liers
ĠNot es
ĠB our
Ġsus cept
L ocal
Ġrebell ion
p ad
inent al
ag le
ĠB in
ĠAp ollo
Ġun named
P ri
ĠF uk
alk ing
Ġnational ism
h all
Ġind ul
Ġfiref ighters
S w
ĠG ingrich
Ġalph a
Ġstate wide
izoph ren
Ġdisapp ro
ophob ic
S ocial
Ġwho lly
xt on
Ġlo oph
osa urs
Ġin ning
ĠR B
Ġadminist ered
ĠHe aven
us p
Ġtr ails
Ġpast or
Ġincom plete
Ġretail er
Ġgener ator
Ġdr astically
Ġj ar
Ġtra it
Ġnot or
s ens
Ġrele g
Ġbe am
Ġcomp ile
ĠSc ript
Ġcompl iment
Ġassum es
ĠEconom ics
Ġshot gun
ise xual
le um
Ġen rolled
Ġb aking
Ġsp am
Ġ **
D ear
Ġsl ots
ĠF ew
ĠShe ll
Ġcont ention
Ġpop ulated
Ġhur ts
Ġb rib
W as
Ġf itted
ĠM ix
Ġhint s
ĠCro at
cy cl
Ġpa ired
ĠRe x
sh ine
Ġborrow ing
ĠSh op
Ġhighlight ing
rell a
Ġbat ting
Ġstab bed
Ġnew com
ĠD ow
Ġto ggle
ĠMar ie
Ġvit amin
ĠA ur
Ġp ets
Sand ers
Con clusion
Ġl enses
Ġlot tery
Ġam ended
the ning
ĠInd y
t ake
Ġm es
Ġplaint iffs
Ġgra pp
ĠIns ider
Ġathe ist
Ġobject ions
Ġso y
L ine
AT H
Ġl amb
Ġcontest ed
ĠT PP
od er
amer a
ĠIndust rial
G C
ĠN um
Ġf lick
ear th
ig el
Ġcomed ian
Ġext ensions
Ġaffect ion
Ġd uck
Ġint ro
Ġback ward
ĠFl int
Ġphenomen a
Ġprob able
Th us
author ized
o at
Ġout line
Ġar row
intend ent
Ġc ites
int egr
Ġm asters
Ġpar a
en es
ĠArab s
W W
h ouses
ĠW ag
E s
Ġpen is
k ov
os c
ĠE ug
Ġro pe
Ñ ĩ
Ġrev is
Ġj aw
ĠCole man
Ġgorge ous
Ġsub urb
Ġrespond s
ĠL av
ĠIM F
Ġmot ive
ch at
ĠTH AT
ĠAsh ley
Ġtort ured
D isc
Ġb ang
Ġmain land
Ġun equ
Ġpass words
Ġinter ventions
Ġhelicop ters
Ġc ater
Ġadm itting
Ġg ently
Ġanaly tics
ourge ois
ie ves
Ġself ish
Ġobs ession
Ġth y
ĠEll iott
Ġun b
Ġan them
are a
Ġp ills
ĠH alo
Ġstand point
Ġpopul ist
Ġcontro llers
Ġemb ry
Ġcat aly
s ic
ĠApp eals
uss ions
Ġsum s
Ġmat rix
Ġco h
step s
L ove
c iously
ĠBur ke
rig er
Ġexplos ives
Ġware house
ĠPat rol
g one
ĠS ask
Ġterrit orial
Ġcast le
Ġhur ricane
in burgh
Ġun ified
ĠGl en
Ġconf isc
S QL
nd ra
ĠGT X
ĠP ul
ĠP or
iet al
r ina
ot ine
Ġconcent rate
Ġfig uring
et z
ĠN am
Col or
Ġcol ours
ins ki
k it
Sh ould
s uper
ci ation
ĠM our
ĠInd igenous
B ox
Ġlog ged
us k
U ser
Ġcry st
Ġens ures
other apy
ĠC AN
Ġsyn chron
h it
Ġsymp athetic
Ġmin ors
Ġprot agonist
ĠOff icial
ĠB io
Ġt urt
Ġlog ging
Ġo wed
Ġprivile ged
ĠJ os
ĠIn g
Ġval ley
B erry
it ational
Ġerupt ed
Ġcons oles
ind ust
ĠN aval
ĠD ad
sec ret
Ġse as
Ġide als
ĠD rake
ĠTreat y
if a
We b
Ġprosecut ed
Ġdes irable
v id
ĠV irtual
ĠApp ro
Ġsurf aced
Ġpsychiat ric
Ġemphas ize
Ġsad ly
Ġan ecd
ĠSC P
Ġpl ots
AM Y
Ġs atur
ĠQu arter
Ġwel coming
im er
Ġad ul
Ġrev ision
Ġfeed s
Sub scribe
ĠEm ma
0000 0000
ro e
Ġ* /
Ġweek ends
ĠL anc
Ġdef er
ar ious
Ġstret ched
ĠU FO
R ub
ĠPel osi
Off icials
Ġmos qu
ĠN y
Ġcal culation
Ġsoph omore
Ġsand wich
igg ins
Ġdistingu ished
S un
ĠGo ing
ĠF ocus
oint ed
ĠGu ild
T L
du llah
200 5
ut ral
Ġto pp
Ġconstit utes
osp here
Ġconf ined
Ġcan on
ĠP and
Ġintern ally
ĠRoberts on
Ġcorrid or
ĠW alsh
Ġselect ing
commun ications
ĠâĢ ĭ
Ġcorrect ed
Ġpool s
Ġincomp et
Ġen rich
R P
Ġd ice
Ġgreet ed
ĠN RA
Ġinform al
ump s
ĠBapt ist
Ġsens ation
O p
Ġat roc
ĠSh o
Ġpartners hips
Ġhack er
Ġunder cover
F ixed
ĠJ agu
ĠSim ply
p olitical
oc used
Ġcool er
Ġreact ed
Ġprocess ors
Ġdefin itions
ĠOr d
16 0
ut ic
Ġtraject ory
ĠL anguage
ib al
ĠSt ream
Ġgau ge
Ġhome owners
year s
ĠW end
ract ed
os oph
ĠKn ights
S I
Ġflood ed
Ġcompl ications
ĠCh a
Ġjump s
Ġvend or
ĠL opez
ĠV ersion
Ġass ure
ĠCirc le
Ġcont ests
if le
Ġmag net
Ġcur iosity
ĠCon cer
S al
You ng
Ġfin ed
Ġconced ed
ĠO mar
Ġpedest rian
ĠR idge
Ġup rising
Ġhom eland
Ġo ceans
man y
Ġball oon
Ġla wn
ĠLl oyd
Ġcompe lled
Ġliber ation
Ġcommand ers
pe ace
Ġprov oc
ĠE sc
U G
conf ig
l at
Ġsk ate
ĠD ale
ĠM t
Ġprop osing
Ġcat alog
Oct ober
AR Y
Ġdeb ated
stan bul
Ġmach inery
Ġpropri etary
Ġfair ness
Ġl od
In s
bu ilt
ĠE L
Ġall ocated
ind uced
ĠW A
x on
Th ink
Ġreck less
Ġsh irts
Ġg ru
Ġh ills
ĠR ab
ook ie
ĠNS W
ĠT ol
Ġmax im
Cl oud
ant on
Ġarm ies
ĠEth iop
Ġbuck et
ĠAdvent ure
ĠDub ai
ĠD iet
Ġcompr ised
g mail
ĠH od
Ġpres cribed
Ġhar ness
M ass
ĠSt ay
ĠGu ant
ĠHe ights
Ġsuccess es
ela ide
ĠAlz heimer
S ix
Ġunlaw ful
âĢĿ ),
Ġcolor ful
re a
ĠRe b
ĠN early
Ġpur ported
Ġsyn c
Ġdelic ate
Ġc el
Ġsex y
o qu
ri um
Ġc ried
Ġwas hed
Ġvar ies
Ġstere otypes
Ġairpl ane
Ġcell ular
Ġcho oses
ĠC ensus
ĠCon n
de ep
Ä ±
is ite
ĠWe instein
ĠTrans it
Ġnick name
c ur
Ġsl am
Ġemb od
ne ys
ĠThe resa
ĠV el
ĠD at
7 50
Ġsuff ers
Ġment or
Ġparadig m
Ġnot ifications
Ġprompt ly
Ġstory telling
ĠMar ines
ĠInn ov
Ġsing ular
ou x
Ġfemin ists
Ġqu eries
az ar
aw i
hed ral
aze era
ĠGreg ory
Ġambul ance
Ġdebut ed
Ġub iqu
Ġproject ion
do ors
ĠC F
M arc
is i
com mon
Ġconnect s
ĠAlf red
Ġbe e
Ġ19 00
yl on
C BS
Ġbroadcast ing
Ġpl ural
Ġafter ward
Ġrecru its
Ġstrateg ist
or p
Ġten ants
ish a
Ġmor ally
. (
in ian
Ġcompet itions
ĠF u
Ġvar ieties
Res earchers
f ood
ĠM ak
sp an
ĠEn c
r ill
Ġb og
Ġparad ox
ĠC inem
Ġvis ibility
ĠSch umer
respons ible
ĠF ine
Ġpot atoes
Ġth a
Ġtrans mitted
ĠFal con
Ġstun ned
Ġgri ev
Ġprest igious
hol m
Ġsen iors
Ġexem pl
ĠHar bor
Ġmethod ology
ĠN FC
Ġcl oth
ĠD uterte
Ġperce ive
op ath
ĠPolit ico
Ġmaneu ver
ĠH ood
Ġcomment ators
in v
ĠC li
load ed
rist ol
Add ed
ĠU T
Ġvoc als
ĠS HA
ĠL amb
Ġgl oves
Ġobst acle
Ġout reach
ic ans
Ġmil estone
c ision
Ġmis dem
Ġeleg ant
Ġburg l
Ġstruct ured
ĠK ell
ĠMcC l
s um
Ġco vert
Ġpit chers
Ġcolon ies
Ġg odd
Ġsystem ic
ans on
Ġunpredict able
r ab
Î ±
af ort
c ue
With in
ĠChampionship s
V C
Ġfool ish
W rit
Ġha w
Ġweigh ing
Ġ ì
Ġsw orn
he res
asp berry
Ġo ct
ĠSol id
S aturday
ustain able
Ġhasht ag
Ġmax imize
Ġyell ing
Ġhost age
uk a
Ġexclus ion
ĠLib yan
Ġver se
aun ting
Ġbless ing
C ent
Ġb acon
ĠW el
ĠE arl
ĠPost ed
Ġinsure rs
Ġrenown ed
C ON
Ġhe ck
Ġrom ance
Ġsm ok
Ġignor ant
ĠE M
Ġcr ush
be cca
Ġlo vers
iff e
Al ong
ĠR BI
ĠF ortunately
ĠOr acle
Ġconsider ations
Ġinterrupt ed
Ġimp ly
Ġteach ings
Ġimpro ves
Ġgar lic
ĠImp act
ract ion
Ġrel ates
Ġl ining
Ġhold er
Ġtime ly
ick er
Ġbrut ality
Ġunsuccess ful
Ġmin us
Ġdest inations
Ġbarg ain
ad os
Ġprem ises
q l
Ġhum ili
Ġinfer ior
e ur
Ġacceler ate
ĠBou levard
ĠS ak
ri ents
In c
ĠCharg ers
ĠM aterial
Ġpreval ence
Ġfin ishes
! ).
Ġbund le
Ġan nex
st ud
Ġe Bay
Ġvulner abilities
se at
Ġcr ises
M ORE
Ġincon ven
m and
Ġneighbour s
ov ak
Ġbr acket
Ġl ament
ĠC able
Ġdiscover ing
uff s
Ġworks hop
Ġk its
vert ising
Q U
Ġuniform s
Ġs ore
Ġp ixel
ĠC e
ĠB rent
Ġout law
ine ment
Ġmer ger
ĠWin ston
Ġ Ù
ĠB ever
" [
at ivity
ĠLear ning
m ajor
Ġexceed ed
Ġdown ward
T T
ĠT roy
Ġdiscuss es
Ġprivile ges
W ant
Ġl ur
Ġexc av
iv ia
Ġembarrass ed
Ġphr ases
Republic an
Ġball istic
ĠMor rison
Ġappet ite
ĠGonz alez
ĠGlas gow
w ald
ĠC ele
ĠBro ck
ĠLGBT Q
Ġel imination
Ġst ew
St op
is se
ĠF ear
m itt
ĠSt age
Ġtoler ate
ĠJ upiter
Ġunw anted
ĠM oto
ĠV o
Ġav iation
ĠT E
Ġgrad uation
ĠBlu etooth
d et
ownt own
IT E
R un
Ġbrows ers
it ives
Ġmar ched
ĠPar ad
a ic
Ġr ust
Ġtw isted
Ġ" [
Ġcle arer
ĠK on
Th ings
Ġchampionship s
ĠP le
Ġenjoy able
az er
Ġaccept s
b ird
em ption
ld a
Ġper secution
Ġrecogn izing
ĠAven gers
t i
Ġgun man
Ġa kin
Ġspecific s
Ġbl aming
b ps
ri ad
Ġsol ic
Ġmis ogyn
IC O
Ġbed s
Ġwrong doing
al iation
n ull
ĠThe ater
ĠN as
Ġresist ant
e pt
\ /
red ited
ĠT weet
ang led
ĠI van
Ġdis respect
Ġtyp ing
Ġappropri ately
Ġcon ceived
ĠGOOD MAN
ĠBe gin
ĠPri x
ĠAut om
Ġshut tle
f ax
ar ak
id av
ĠReyn olds
ĠTh om
Ġvac ant
ĠA verage
Ġ10 80
E p
Ġl end
ĠF ighter
Ġvol can
ĠSpr int
ĠH app
ĠSer b
ĠW ake
Sept ember
re ra
ĠU pper
Ġdis abilities
B ob
Ġric hest
Ġcul min
Ġdesp air
Ġextrem ism
com fort
ant a
Ġnomine es
Ġthought ful
Ġ> >>
d ogs
Ġnotice able
Ġb ore
ag ne
ĠIns urance
Ġg ad
Ġded ication
Ġpip es
Ġre per
ĠL ux
ĠE rik
Ġingred ient
ĠJ eb
ĠL ag
che m
Ġright ly
ĠFil ip
ĠL iqu
Ġcorner back
O k
Ġthr one
oci ated
Ġperform ers
Ġadvoc ating
ĠD ana
Ġ1 11
Ġtw ent
Ġprohib it
ĠSat urn
âĢĿ ;
Ġcondition ing
Ġdiam ond
Ġtun nels
im en
ric anes
ĠM ets
Ġfuel ed
ocaly pse
Ġ} ,
ĠN ode
Ġex otic
Ġp ap
Ġrep ay
Ġmeth ane
ĠM aps
Pro ject
Ġthe sis
Ġfr acking
Ġid iot
Ġsens es
ĠTurn bull
it an
Ġcritic ize
Ġpr ag
Ġentire ty
Ġste alth
Ġnum er
Ġdetail ing
ĠT i
Ġpl asma
ĠTrans port
Ġdisplay ing
Ġl over
Ġa u
ĠL ogan
ĠX P
Ġwar rior
Cong ress
Ġout field
Ġartif acts
b ard
Jo in
ĠU g
ol ith
an ity
re view
A ut
C ourt
Republic ans
ĠF a
G P
ĠRep orts
d id
ard on
udd enly
ĠH ab
Ġun just
Ġrecogn izes
ĠScient ology
Ġan at
Ġkn ocking
ĠÂ «
ĠFre eman
B B
Ġbar red
J ul
th ouse
ĠAd vis
Ġsing les
ĠBas ically
Ġloc ks
ex cept
U TC
Ġdis asters
achel or
Ġprejud ice
Ġinflu x
gu ided
att ed
Ġhead set
Ġ ..
ev al
ĠLeg ends
Ġadop ting
Ġmer its
at ism
Ġmet adata
ian i
R edd
Ġacknowled ges
Ġfur ious
ĠP OL
nder ing
Ġmar athon
g em
Ġstory line
ĠCont act
ĠSadd am
ion age
Ġtr aces
ĠPC s
Ġsur g
Ġcort ex
Ġrest art
Ġw ary
Ġmer cy
Ġwip ed
Ġp ixels
L og
ĠEd inburgh
ic ularly
in yl
14 0
ĠSing le
Ġband width
__ _
with out
ĠI gn
ĠC rypt
vas ive
t ag
Ġinaccur ate
work ers
ĠPers ian
Ġinst itute
Ġdil ig
B ern
Ġillust ration
isp here
o ids
Ġoff ences
ish ment
Ġalt itude
Ġv ivid
Ġman kind
sh irts
Ġatt ain
ic able
ĠStart ing
Ġoccup y
Ġpreval ent
ry s
Ġc ows
Ġdet r
Ġprolong ed
D am
Ġpun ct
Ġround ed
N or
ci pl
D an
Ġbl essed
ĠKn icks
Ġexem ption
Ġt il
Ġde er
Ġsett lers
Ġinaug ural
ĠD h
H op
L ead
ĠN L
Ġcoc onut
ĠBurn s
al ion
Ġfreedom s
ra f
Ġun m
Ġseason al
ĠMill enn
red dit
ĠT ap
O per
Ġsm arter
Get ting
Ġwarr ants
ĠPr adesh
ĠSU V
Ġre dd
Ġcap ita
Ġp ave
ĠC el
Ġrefere e
Ġindu ced
Ġunst able
ĠL ith
ĠFR OM
Ġb ourgeois
Ġmot ives
A round
Ġexped ition
ĠB uc
Ġcar pet
Ġaggreg ate
Ġprogram mes
b led
ĠEmb assy
c ot
ch anging
Ġer ad
Ġaccommod ation
M ult
Ġc raz
Al most
Ġgl uc
ĠR ange
Ġcomb ines
ram id
ĠFif th
ĠM ik
ĠSt ef
ĠFrank en
ĠSN P
Pac ific
ĠSpe aking
Ġst ems
Ġab st
Ġf ist
Ġc ite
Ġgr ind
Ġlisten ers
ĠDev il
Ġl ag
200 4
Ġt apped
n ings
Ġ19 44
ĠC aval
Ġdiet ary
viol ent
AN S
Ġdefe ating
H and
ĠT C
Ġbenef ited
ĠAud io
Ġmir acle
ĠR ift
Ġenthusi asts
Ġprogram mers
Ġcoun cill
ĠPer l
g rowing
ĠHait i
Ġv est
Ġgr in
he ed
Ġrecomm ends
Ġph osph
atin um
Ġbureaucr acy
ĠW izards
Ġh over
Ġcriticism s
Ġsanct uary
Ġrig orous
Ġhous ed
p arent
Ġcr ust
> </
ĠA RE
Ġcon qu
Ġconcess ions
p ark
Ġdef ect
ĠI CE
ĠA A
Ġpaper work
Ġprost itution
int o
ab we
Rec ently
c ourse
Ġupd ating
Ġsymp ath
Ġbom ber
Ġstatist ically
Ġreb oot
Ġunf amiliar
Ġlength s
ĠB uch
ĠProgress ive
or o
Ġpred ators
Ġst yl
sequ ently
Ġsne ak
ren ched
ĠR hod
L ive
Ġru ined
op hers
! âĢĻ
Ġun a
re v
Ġchar itable
Ġhost ility
ĠStar bucks
Ġheav ier
Ġd ilem
ĠE isen
ĠL P
ĠSt o
Ġdet on
p al
Ġfor fe
com plete
i u
Th omas
ĠSch midt
ĠS ales
ĠElect ronic
ĠI stanbul
ĠP it
Ġposition ing
Ġphilos opher
Ġcoordin ate
ing ham
U RE
imb abwe
Ġme ga
ĠJul ia
ĠWH O
Ġreb uilding
p aper
ĠP os
V ery
Ġter rific
Ġden ounced
ĠRoll ing
Ġins ider
ĠEver ton
Ġacqu iring
Ġuns afe
Ġst unt
ĠBas ic
ra ve
Ġter ribly
Ġpers pectives
ĠR uth
Ġthere after
Ġcrack ed
Ġsimpl icity
c ig
ĠC ork
in el
Ġforb idden
An n
k ara
spe aking
ĠSe oul
ĠGit Hub
port ing
Ġsuper visor
Nob ody
ess ors
f light
ĠPartners hip
Ġillust rates
D aniel
ĠAng els
ĠTim othy
ĠH orse
ĠO kay
IN T
Ġreferen ced
Ġport al
en berg
ĠN J
F ind
ĠD ash
ĠU nd
Ġj ournals
Ġd y
li ber
ched el
Ġobject ion
Ex per
Ġl aps
Ġoff ended
Ġinfringe ment
ixt y
ĠMor oc
ĠRom ania
it as
Ġsh ade
Ġbig ot
ĠOw en
ic ates
ĠT ournament
Ġanaly zing
) -
Ġf usion
Ġsch izophren
Ġintrodu ces
b usiness
Ġsoc io
Ġrequest ing
Ġantibiot ics
Ġtr action
ĠSe bast
G I
Ġj ungle
Ġident ifies
ĠO ri
ĠSu z
ins ky
ĠCitiz en
Ġs perm
Ġdiplom acy
rest rial
ĠSher man
% ).
Ġborrow ed
ĠSpace X
Ġintention al
Ġ20 30
ĠNot re
Be yond
ĠPrinc eton
Phot os
ĠLe Bron
Ġsl og
Ġcert ification
Ġskept icism
place ment
ist ical
ĠE ST
Ġbro ker
] ]
rat ives
Ġaff idav
Fr iday
Ġvol atile
Add itionally
C rit
ish ops
Ġfright ening
O O
ĠVictor ian
ĠLind a
Sh ow
ipp le
OU T
Ġunch anged
ograph ics
Ġwh it
so ver
ĠL ed
ah ar
ĠMoh amed
f act
ĠScient ists
ters on
ĠC ad
Bel ow
Ġton nes
C amp
l ived
ount ain
Ġwatch dog
Ġrec laim
Ġreg ain
Ġmult ip
ĠS ame
Ġfat igue
lic t
Ġdetect ives
ĠK ob
Ġend ured
Ġch ill
Ġshe lls
w ere
Ġbet ting
âĢ ²
ĠAl ways
Ġorche st
ĠL ex
Ġindic ators
i ov
ĠMa o
Ġso ap
Ġgr an
ĠPoke mon
im ag
P T
ĠAub urn
fund ing
ĠC oc
Ġvis as
Ġterr ified
br and
US E
ĠExper ience
Ġas c
ĠR abb
Ġhealth ier
Ġfav ors
o an
Ġv ine
Ġsuper b
Ġabsor bed
v ity
ĠJ ill
ĠR are
ĠN ak
ĠAust rian
Ġvir uses
ĠCourt esy
Ġcooper ative
ĠBet a
D ev
For ce
Ġsh red
Ġclean er
oles ter
Ġrestrict ion
ĠC ities
ind a
Ġar che
keep ers
ight y
Ġcirc ular
Ġlower ing
ĠMurd och
Ġrec ons
in qu
ĠP ist
Ġmir rors
ĠK umar
ĠV ince
Ġche ating
Ġcap ac
itness es
E lect
ĠIS IL
ĠDec l
Ġinterrog ation
Ġbron ze
Pr int
ĠS tern
ĠChe v
Ġsh aping
ĠL iter
Ġv intage
Ġf ren
ĠLet ter
Ġ19 41
ĠAb dullah
ĠG y
Ġback yard
ĠG L
Ġsubmar ine
b ial
cast ing
Ġunus ually
Ġpe cul
Ġref riger
Ġaccess ories
oy s
spons ored
est ine
Ġph ases
Ġexclud e
Ġnort heast
ĠCl are
ĠD ani
ĠBr is
M ex
Ġunder going
Ġtack ling
Ġund is
Ġfree zing
Ġemail ed
or ie
Ġnational s
Ġcell phone
Ġg le
Ġtake over
Ġhorm one
gg ie
p c
F in
Ġend uring
et ed
om ical
Ġdevast ated
Ġpl at
ĠDay ton
Ġun real
Ġsub po
Ġ11 5
Ġsquee ze
Ġtro op
ĠC lear
Ġfilm maker
ĠPerson al
ĠRich ards
Ġbe ard
ĠPl ant
ĠA V
ĠM iles
Ġmin eral
ick y
Ġ17 0
af ia
ĠSask at
D en
Ġgoal keeper
ng th
Ġbrand ed
I X
ire ction
Ġce ment
Ġadvoc ated
Ġstr ains
ĠN ice
Ġcy l
us ers
ress es
Ġ- --
Ġcommunic ating
Ġbeaut ifully
p atch
ill es
ices ter
ĠAnn ual
on so
h n
ĠH i
Ġinv iting
sh ould
Ġfact o
Ġpsych ologist
ond o
Ġproud ly
ĠJul ie
ĠR ugby
Ġpos ing
ĠFried man
ĠE N
Ġaut op
Ġint ric
Ġtour ing
Ġn avy
Ġgovern ors
ĠCelt ics
Ġref ined
Ġalleg ation
av in
u ador
act ed
ern ame
Ġenter prises
ĠHy per
Ġback drop
Ġdo i
ins pired
Ġhy ster
Ġswit ches
Ġmodel ing
Ġhapp ier
Ġmet als
ĠNY PD
Ġcourt room
ĠSim mons
ĠM ig
Ġb ast
pt ive
Ġimper ative
pr im
gg er
Ġmark er
Ġsc aling
cent er
ĠCore y
Ġinterf aces
Ġsn apped
Ġannounce ments
Ġins ulin
ĠSp art
Ġrespons ive
Ġhand c
Ġdeter mines
ĠEvery body
ed in
am el
Ġarch ives
Ġst ip
M el
Ġstretch ing
Ġbal ancing
ink le
Ġexp on
Ġcontam ination
ĠE instein
Im agine
ĠMe yer
ĠEl ite
Ġpal m
Ġreiter ated
Ġh orn
Ġret aliation
Ġ} );
ĠC raft
Ġrival ry
Ġa rose
av ior
Ġundert aken
it us
Ġd od
oss ibly
Ġdevelop s
Ġrecept or
Ġp ulse
Ġwa ist
Ġs oda
et c
Ġ24 0
Mc C
Ġdepend ence
ign ment
Ġl av
ĠDO J
Ġ19 47
Ġar senal
ot ers
T urn
Ġcha otic
\ -
h l
Ġf ost
ĠB urg
s ided
atter y
N OT
anc ers
ĠHaw ks
ie u
ĠH arm
Ġtravel ers
Ġinf ants
Brit ish
Ġst ellar
19 90
Ġengine ered
ĠM az
Ġmerchand ise
Ġhard core
bal ance
Ġauthent ication
Ġattract ing
Ġshort s
ur st
Ġobser ving
J S
Ġimp air
Ġconfir ming
ĠBah rain
Ġdece ased
ĠC atherine
Ġgall ons
ĠON E
Ġje ans
Ġcritic izing
Ġagree ing
Ġcompens ate
bl ood
m ass
Ġwas hing
Ġpredict ing
Ġappar atus
Ġrev ival
Ġspecial ists
Ġinnov ations
Ġth under
C ode
Ġanticip ate
Ġvis ually
ĠPan ama
pect or
Ġposs essed
Ġp ine
R ock
Ġre ef
ick ers
Ġele ven
Ġl aughter
g ie
Ġdeleg ate
ĠTill erson
Ġey eb
" ]
Ġfl ame
pl ates
Ġopio id
Ġpen al
ĠWalk ing
mod ern
Ġrest ing
ĠUlt imately
ĠL ay
Ġcore s
ĠD ot
Ġdistract ion
Ġw ipe
ax ies
ĠGil bert
Ġpot ato
ev ent
Ġbroadc aster
Ġp and
Ġwar mer
Ġstar red
ĠV ision
squ are
Ġclear ance
Ġaut umn
ĠMap le
c in
ĠVal ve
Ġkidn apped
ump ing
Ġwar riors
Ġpri zes
Ġep it
s il
Ġs idelines
Ġburn s
ĠSc ore
Ġreg imes
y ers
Ġdump ed
ĠJ azz
Ġ( .
ster dam
Ġur gency
ĠUs ers
Ġdom ains
10 5
Ġec ological
ĠGr ad
Ġend ure
ĠCent ers
ĠCo ver
Other s
Ġhypot hes
ĠExpl orer
Ġconcept ion
duct ed
W il
ĠMan afort
Ġnegative ly
Ġt ant
Ã ª
Ġcontract ed
C T
Ġo live
bl ue
Ġvisit or
er m
Ġcapt ures
ĠR apt
Add itional
Ġtheir s
ia o
Ġselect ive
Ġradio active
Ġdub ious
Ġb ilateral
Ġbl ows
ĠBrend an
we ather
ĠPro duction
ĠH erman
Ġpr inter
Ġreact ors
Ġro de
ĠGr ass
ĠHay es
Ġcateg or
Ġnodd ed
ĠO t
Ġrad ically
Ġvan illa
Ġrep airs
ĠPen insula
Ġseiz ure
ĠT W
Ġinst ability
ĠB ee
ount y
Ġdepend ency
ĠDam age
Ġunbeliev able
Ġsever ity
et itive
ĠH ogan
ĠMerc ury
Ġvolunt arily
Ġexplos ions
if ted
er k
Ġastronaut s
ĠCraw ford
Ġshel ters
mo il
ent e
let te
ort ium
rec ord
We ek
Ġbull shit
oster one
Ġcontam inated
Ġscreens hot
b uster
Ġm arsh
t z
Ġlog in
P ict
Ġpe an
ĠDet ails
ĠR iley
Ġgood ness
Ġill icit
w ave
Ġs ights
ĠLeg acy
Pl an
ien cies
Ġprogram mer
ĠC ards
Ġacc use
Ġque er
Ġlone ly
Ġobser ver
abl ished
S B
le ys
amm ad
Ġassess ments
ĠEmir ates
P rodu
verse ly
Ġcrypt o
fol k
Ġsubsid iary
Ġside walk
ĠCris is
E ric
Ġcontent ious
Ġst al
ĠB ristol
pl aced
av an
Ġcr unch
Up on
ĠCom ment
ĠPl aza
ĠCon way
Ġpal ace
Ġr im
K im
Ġthe rape
Ġstret ches
Ġd well
ĠâĨ Ĵ
Ġh ollow
Ġpath way
ans ing
in ters
Ġb isexual
Ġprop he
Ch ief
Ġdisadvant age
Ġdem ise
g ro
Ġpour ing
ĠH ernandez
Ġrob otic
Ġshut ting
OW N
Ġhun ter
Ġdirect ive
H i
ff iti
ĠSp icer
More over
ill on
he e
ĠS hip
hy d
ĠSch ultz
AN K
Ġaw aken
Ġfre ak
Ġrig id
Ġj ealous
Ġrese mble
ĠSim ple
ed u
K evin
ĠBru ins
ĠG ross
Ġcompet ent
um i
Ġtransl ates
Le ague
Ġempir ical
p arents
Ġredu nd
Ġru ins
ĠHon or
Ġd iving
ĠVi enna
Ġcook ie
ac s
Ġmetaph or
Ġwithd rew
Ġsell er
Ġsurpr ises
health y
Ġre he
ĠLe o
Ġren amed
P ay
ĠVe h
Ġf og
Ġ ï¿½
20 18
Ġchar ities
Redd it
Ġto e
ĠFr ame
Ġcost ing
OL L
ĠAndre a
Wind ows
Ġr anged
ĠR oute
ĠRe play
Ġs ack
Ġex terior
ĠSh ane
ple asant
Ġlau nd
Ġrelent less
Ġple as
ĠBl izzard
Ġineff ective
N ovember
ĠT B
ar ium
Ġv om
ĠSu ccess
ott esville
ĠJed i
Ġins erted
Ġb end
Ġdo omed
200 1
John son
l ings
Ġâ ī
ĠBren nan
Ġd ull
Ġtr aced
Ġdig its
K en
Ġreminis cent
all ah
ĠAP Is
Ġrem ed
ĠInvest ment
ay an
ĠP E
200 3
Ġchar m
ĠF lickr
ĠInvest igation
ĠAd elaide
Ġle aking
Ġown ing
Ġpar an
c led
Ġpo pped
ĠReg ardless
Ã ¸
Ġpres ervation
Ġacceler ated
m g
ĠChe ney
Ġmod ifications
Ġinto x
ĠResp ons
Ġbr ig
ĠP ain
Ġall ocation
Ġle mon
Ġher b
Ġviol ates
ĠF F
Ġjuven ile
ĠW u
Ġdict ator
Ġrepl icate
Ġdownload s
ĠG ir
ĠÐ ¸
Ġf ra
Ġs rc
abul ary
Ġp ensions
ĠC rist
Ġpres erving
Ġdepend encies
Ġnot ices
Ġreward ing
ĠT M
! '
ore st
Ġcont end
land er
ĠS end
Ġa ven
Ġmerch ants
B Y
Ġpig s
Ġfeas ible
Ġappoint ments
Bit coin
P ublished
ĠFood s
Ġpen cil
ĠR S
Ġacceler ation
elect ed
or ian
Ġrad ius
Res p
be h
rah im
Ġtw ins
Ġm asks
ĠB ert
Ġout dated
Ġatt achment
Ġlaugh s
Ġye ast
ant ry
ĠWeb b
ĠBeh ind
B esides
Ġprosec ute
ĠL ance
Ġup held
Ġsp ouse
Ġr apper
Ġdiscont in
Ġposs essions
De cember
ĠObserv atory
E nt
Ġl ou
Ġpo inter
Am azon
,âĢĻ âĢĿ
ĠD ell
as is
ĠS oph
H uman
Y ear
ĠS aw
st atic
Ġde af
ident ally
ĠE gg
12 3
ĠÃ ®
Ġv andal
Ġ195 9
ĠJud iciary
Ġiron ic
Ġn urt
at ured
ĠB A
Ġup wards
Ġat oms
ĠKush ner
w ife
Val ue
Ġenroll ment
ĠPir ates
oun ge
Ġret ros
Ch inese
IS A
Ġnegoti ation
Ġveget able
Ġembr acing
S ave
ĠC opy
ĠT rent
ĠP TS
ĠT aking
Ġcont ributes
Ġtrain er
ĠF act
Ġfert ility
Ġprim itive
Ġtoss ed
Ġspir al
Ġres olutions
Ġneed le
ĠAr row
ĠBr anch
Ġmicro phone
Ġfest ivals
ĠBeat les
Ġbomb ings
ĠE lementary
ĠTh an
Ġoper a
Ġdwar f
Ġha iled
Ġle aning
H as
Ġcongress man
Ġshr ink
w ic
P o
any on
Ġshoot s
Ġhun ters
m ult
Ġte asp
Ġv apor
Ġdis se
B uild
Ġ& &
Ad am
in ational
Ġcop ied
Ġin ad
Ġcost umes
ĠSpe cifically
Ġ10 2
Ġal lev
Ġall ied
ĠR F
Ġv inyl
Ġforecast s
S ar
Ġre jo
Ġwithd rawn
Ġmod ification
Ġ18 00
Ġiter ation
op ed
Ġmechan ic
ĠZ ucker
Ġt am
Ġmyth s
Ġstamp s
S omething
Ġmer ge
ĠConserv ation
ĠDev ils
Ġdimin ished
ĠVol ume
) ?
Ġhop eless
ĠDis covery
Ġdiscover ies
Ġdisappear ance
omed ay
ĠMan uel
ĠD L
Ġinspect or
aw ays
,âĢĻ âĢĻ
c ry
ĠS kin
Ġt ally
Ġper tain
T ech
Ġs om
a ft
ĠCom edy
Ġanticip ation
Ġch uck
Ġaccess ing
h ops
Ġvolt age
m ails
Ġp ier
Ġuns ure
Ġcos mic
Ġsmooth ly
R ay
ee red
Ġch amp
Ġdoub les
ĠProf essional
^ {
Ġv ault
Ġout spoken
Bet ween
ĠPro du
ĠB orn
Ġtur moil
iv able
ĠRock ets
ĠMe et
Ġr uth
Ġsal ad
Ġd un
Ġgif ted
Ġg aze
Ġmamm als
I AL
w en
ĠA be
ĠSter ling
sec ure
Ġmy riad
Ġfr amed
Ġ10 4
ĠK iss
p i
Ġe man
Ġfore front
ĠB un
Ġathe ists
Ġoccur rence
ven ant
Ġalleg ing
J ones
Ġairst rikes
Ġap ost
Ġpod ium
ĠMir ror
Ġoffs pring
Ġm s
Ġextract ed
larg est
c ould
ĠZ imbabwe
Ġinter val
Ġvalid ity
ĠTw enty
Ġfore nsic
Ġmilit ias
H ard
or f
Ġl b
Ġsex ist
Ġadequ ately
ĠWhats App
Ġt outed
r h
ile aks
ĠUs ually
le aning
ĠSouth west
ĠNational s
m atch
Ġnar ratives
ĠAd obe
Ġtrig gers
s rc
Ġcompat ibility
W R
ĠGe off
Ġcelebr ations
ĠMount ains
Ġna ive
I ll
f alse
f alls
OR Y
ĠMon ica
Ġneuro log
Ġintr ins
ĠD uty
Ġcan cell
Ġjud ging
Ġper ceptions
Ġstim ulation
ĠAli en
ĠTro phy
Ġr ansom
ĠBeng als
ĠQual ity
Ġground ed
st atus
ĠM ead
ĠAct ive
own s
ĠMem ory
Ġche ek
c ified
Ġcr ashing
Ġimm ort
Ġext rad
ĠSim ilar
Ġpret ending
ĠRec ently
Ġelev ator
Ġcreep y
E ver
isc her
ĠF M
bor o
Ġsle pt
Ġexch anged
C raft
Dem ocrats
Ġw ires
ĠCle arly
ĠJo in
f ired
Ġaster oid
F inal
Ġnarrow ly
Ġadoles c
em a
ok a
ĠC ord
Ġun ite
it em
in vest
Ġmark ers
Ġcollabor ative
ĠB irth
ĠTr ack
18 0
( $
ret urn
Ġsuccess ion
Ġwholes ale
Semit ism
ĠFl ag
Ġo lig
Ġstreng thening
ari at
ĠAl ger
ĠG ul
ĠTer rit
ĠN an
Ġjust ices
ĠB oss
L ou
ucc i
S und
Ġe cc
ĠEx cept
Ġclean ed
ĠBald win
Ġacknowled ging
Ġbol ster
Ġplace bo
Ġun armed
Ult imately
Ġrad i
D O
ĠD LC
part isan
Ġnorth west
v ideo
ustom ed
Ġtop s
iss an
he id
Ġretrie ve
Ġemploy s
Islam ic
os er
Ġor ph
ĠLeban ese
ate l
ĠKenn eth
V ict
Ġsuper vision
k owski
over ty
ĠScient ific
our ing
Ġsustain ability
J ew
ĠG rowth
Ar ch
ĠH ond
Ġind oor
ent ric
ĠB ass
Ġ19 39
H R
ĠP ars
read ing
Ġe ject
Ġperfect ion
ĠBudd ha
Ġcomp ares
Ġdom ination
ĠSky pe
Ġcur se
Ġrefres hing
is ure
Ġspe cially
Ġnut rients
Ġmeaning less
Through out
Ġind o
Ġdepth s
Ġash amed
Ġevac uated
ĠCom ing
Supp ort
Ġ 000
f ight
Ġrel iance
Ġlun ar
Ġcan s
Ġb idding
Ġdec ay
Ġdisg usting
ac a
Ġdis charge
Ġhypot hetical
ob ject
Ġpredict s
ĠFl oyd
AC A
ĠCurt is
B P
Ġh alls
ĠTr ain
ĠCoff ee
t v
Ġdecentral ized
ĠBeng al
ĠMon te
Ġoverl ap
Ġsuper st
Ġsect arian
Ġhonest y
l ins
Ġvers atile
Ġblast ed
Ġdefe ats
Ġleft ist
ĠJ et
Ġcl o
ors che
ĠD S
Ġsc andals
ĠA part
c ro
Ġresearch ing
Ġperpet rators
List en
ĠMy ster
ro ot
Ġpo orest
Ġbe aches
an ol
Ġsusp end
Ġho ax
Ġregul ator
Ġfrequ encies
Ġgrant ing
Ġexp ired
am ic
ĠB TC
ĠN ike
Ġ4 50
ĠMons anto
Ġr ack
Ġso ber
ĠKurd istan
Ġde ported
Ġconcept ual
ĠBuzz Feed
ĠJackson ville
Ġw it
Ġfut ures
Ġanarch ist
d oes
ĠC ros
Ġâ Ķ
Ġfirm ware
Ġnight club
ĠYOU R
Ġpr ince
W ow
ors i
els en
G H
pro ject
p sy
ĠP v
ĠZimmer man
ĠO val
Ġgovern ed
Ġparent al
ĠRe ce
Ġlo oming
ĠZ oo
ess a
Ġsign aling
Ġtang ible
Ġrele vance
ĠJ SON
Ġpast e
ĠEv olution
b ands
Ġk in
ĠAn cient
Ġf rog
n c
ĠTechn ologies
Ġramp ant
Ġturn over
Ġ2 20
Ġdecl ines
ĠE lder
A BC
ot on
Ġeval uating
ĠK oh
ĠÂ ·
En ter
Ġlivest ock
Ġcruel ty
Ġrecy cling
M aking
he ard
ĠF resh
Ġun cover
. ;
ĠR ew
Ġjudge ment
ĠAbb as
Ġextract ion
ve red
ĠCh oice
Ġsp ine
Ġbit coins
Ġembarrass ment
ĠL ud
ĠBris bane
Ġaccum ulated
ĠF ernand
ĠAny thing
Ġrelie ved
Ġto dd
ĠT L
Ġbi ography
Se ason
Ġfalse ly
ĠCamb od
Ġst ing
be fore
Ġfilm makers
ul atory
Ġcorrespond ence
ĠEc uador
Ġid ol
Ġstake holders
ant ine
ĠCh arter
Ġrep s
Ġtax ation
Yes terday
ĠHel en
Ġgl orious
Ġfrag ments
Ġunder went
ĠBlack Berry
ĠCan ucks
Ġsex ism
ĠMid west
ush i
Ġair lines
Ġreinfor ced
Ġwe ights
Ġreal ization
Pr ime
b ag
Ġyell ed
Ġstat istic
ĠRes ults
Ġdistract ed
Ġw anna
Ġdiplom at
Ġhook ed
is ans
Un iversity
Ġre print
Ġpart ition
ĠEv ents
Ġer r
t imes
Jan uary
ĠViol ence
Ġsuper market
Ġresemb les
W estern
st y
oust ic
Ġanal ogy
Ġd os
L ittle
ĠLe ad
ĠCan on
ĠUlt ra
L ess
ĠG ri
ĠV P
Ġbr ass
ĠCr us
Ġconstitu ency
Ġsound ing
Ġstuff ed
Ġdivor ced
Ġthe ology
ud s
Ġg it
ĠUp dated
F rench
ĠIr ving
Ġbom bers
Ġsh iny
M ur
Ġout raged
N ick
ĠC ertainly
ĠHe ath
Ġj oked
Ġindirect ly
Ġnom inations
secut ors
Ġbur ial
c ulture
D ig
Ġtr ilogy
ph oto
ĠIS Ps
ĠK ot
Ġg room
J osh
Ġdest abil
Ġfundra iser
Ġbu ys
Ġmem br
Ġgl oss
ĠInd ividual
ĠCharl ottesville
ett i
IS S
Ġs outheast
ĠSalv ador
are ndra
ass is
ĠB T
,' "
C redit
ĠB ened
Sub ject
ac ial
Ġs ung
Ġheight ened
Ġoverth row
reg or
ĠPlan ning
Ġillness es
ĠIn qu
ĠAnd ers
Ġdr ums
Ġfraud ulent
Ġkidn apping
it ating
Ġsell ers
h agen
Ġutil ized
Ġbelie vers
ĠCon c
Ġ19 42
Ġcomp uls
ĠPer fect
Ġgoal t
En large
Ġcho pped
Ġindef initely
Le vel
AT A
Ġreconst ruction
ĠLa unch
ĠSh ot
Ġsuscept ible
Ġac ids
vention al
g age
ĠJ ur
Ġir rational
ĠDar ren
count ry
rav ity
Ġmel ting
Ġgl ow
ĠF ans
Ġcur tain
Ġsurround ings
Ġcease fire
Ġmiser able
Ġt apes
id able
Ġlike wise
Further more
W in
P rior
Ġst acked
ul ed
ÑĤ Ð¾
s cient
Ġmiss es
Ġur ine
Ġh ats
Top ics
st ad
Ġpop e
r ance
ĠN est
w s
board ing
art en
Scient ists
ĠM int
Ġcatast rophe
met ry
Ġpro claim
Ġobs ess
Ġst oring
Ġunique ly
Ġremark ed
Ġe ch
the med
Ġlapt ops
em ade
ob ic
ĠB le
ĠE asy
ĠAR M
right s
d oc
ĠAng ular
F OR
ĠB row
ĠT ier
Ġcouncil s
ĠRh ode
rict ed
Ġhe ights
Ġinqu iries
Ġf aint
Ġspat ial
Ġrec urring
Ġchar ism
Ġex ile
Ġcomment ator
Ġ195 8
l ain
Ġcom r
Ġs ang
ĠMot ion
ĠO g
ĠGen esis
Ġsur geon
L in
ĠJ azeera
Ġshr inking
olester ol
Ġende av
Ġsuper natural
Ġun pleasant
Ġdis like
ĠDes ert
mark ed
Ù Ĩ
Ġcr acks
ĠH ag
ĠD ucks
ĠPan el
Ġp ent
fr ac
ĠJohn s
Ġtub es
ĠS ig
ĠOr b
ot he
Ġj ugg
ol ia
ring ton
C ustom
w ire
ĠProtest ant
re z
Th ird
Ġdest ined
Ġlif elong
a verage
ĠSchne ider
Ġoper atives
ĠLike wise
Ġdisp ers
st ru
ee le
Ġauthor ization
Ġdisagree ment
lud es
Ġdifferent ial
ĠEx xon
ĠAd mir
Ġelig ibility
F ederal
c ity
Ġvalid ation
Ġgal axies
lant ic
cre ate
Ġwith hold
ĠB il
Ġoff ender
Feb ruary
C y
Ġcont enders
Ġovert urned
pl aces
arr ison
ĠG iant
200 2
Ġ\ (
ĠB og
ĠIll ust
Ġt in
Ġphotograp hed
Ġmit igate
ĠWy oming
ĠKind le
Ġreg ression
Ġg y
id ate
ĠC anyon
ĠK em
ĠL il
ig ators
ĠIm port
Ġmad ness
Ġpund its
Ġdesign ation
ĠBl ade
ush ima
Ġsurviv or
ĠN ate
c ross
Ġweaken ed
g ae
d in
qu arter
âĢ¦ ]
Ġ195 6
ĠCustom s
ĠCh in
ĠAm sterdam
a unch
ĠS V
ĠD owntown
Ġrev olt
Ġb unk
Ġintermedi ate
Ġsc oop
um bs
Ġprop onents
Ġch ambers
Ġmilit ar
M a
ĠFort une
Ġsh arks
ĠLi u
c am
ĠAr s
Ġhon ors
Ġded uct
ĠDav ies
L ee
ĠGall up
Ġhint ed
import ant
Ġb ounds
ir teen
Ġinter ceptions
Ġsl ap
ĠPart icip
Ġpun ched
ĠBar rett
Ġprepar ations
Ġheter osexual
ĠH ugh
ĠDian e
ĠF REE
Ġgr abbing
ul ators
gl ass
ĠTre vor
ĠBre aking
ĠEconom y
n umber
Ġpl ague
Ġhero ic
Ġconver ting
ĠB erry
od s
Ġcan vas
uff er
Ġsab ot
ĠN ear
G roup
Ġwor s
ĠSh ia
qual ified
ĠRhod es
t ier
ĠM illion
ĠRest aur
ĠQuest ion
V ol
Ġworth while
Ġunp aid
en ment
Ġrehab ilitation
Ġan th
Ġhel pless
ĠThrough out
ĠProv ince
ĠO L
ĠCl iff
ood y
Ġto mb
Ġfair y
Ġcompos er
ĠC E
ĠE ston
Ġcrus hing
Ġclos et
ott est
Ġsh am
te chn
Ġt enth
ĠW id
em y
Ġch lor
Ġdiscipl inary
Ġre op
Cons ider
f ill
Ch icago
Ġon set
Ġfranch ises
Ġpo orer
Ġrum or
C ard
S orry
Ġw olves
it ures
Ġforg ive
Ġspec ulate
Ġlung s
d ue
Ġun authorized
ang ular
ĠPir ate
ot le
Ġ10 3
Ġlaw maker
Ġmar vel
Ġdraw ings
ĠBay ern
Ġconting ent
ex pl
ĠT ah
ific ent
omet ric
Ġreject ing
ĠP ierce
Ġab normal
ĠAm anda
ĠAdd itional
PD F
lin er
c oll
st ill
per ing
ĠKit chen
Ġprint s
ba um
Ġpedest rians
Ġaspir ations
ĠV ers
Ġcoll ar
D eb
l ia
pir acy
em er
ĠNort heast
ĠW orth
Ġsc outing
A ri
Ġsu ing
Ġad vertisements
ern ick
ĠColon el
Ġd ess
pl er
Ġkid ney
Ġret ention
B rian
Ġex h
ex per
Ġedit ions
Ġabund ant
Ġland sc
Ġgluc ose
ĠMy ers
Ġzomb ies
ĠIntern al
h ig
Ġfore see
Ġsm oked
ĠD iff
Ġinfant ry
Ġg ays
ump ed
m n
Ġ Ã©
ĠÂ §
Ġmin erals
Donald Trump
art z
c ule
ĠF X
ra red
ic idal
Ġinstall ment
ĠBr itt
h h
Ġsuprem acy
ĠC oy
Ġcl one
Ġfall out
Ġreconc iliation
ol ation
Ġreb ound
C ast
Ġl bs
ave z
Ġdi agram
ĠS hen
Ġw inger
Mart in
Ġspl ash
ub a
Ġver ification
re ne
im ation
ris y
Ġtel escope
ĠRe becca
Ġalign ment
ĠGu inea
Ġchance llor
Ġtelev ised
ĠHass an
Ġplay ground
D ue
ĠH aven
S W
ĠG ur
sm all
iv o
O ld
Ġv oy
qu et
Ġco erc
affe ine
ĠV ita
Ġeffic acy
B rad
Ġco herent
Ġz oo
Ġ195 4
- $
C ould
Ġcomp ilation
ĠC er
ĠStand ing
v able
R ather
Ġimag in
Ġdraft ing
Ġexc uses
Ġro gue
Ġmortg ages
L ondon
ĠJud a
Ġsupp ression
ĠM ega
og ene
in as
H y
Ġcl usters
ĠM ate
ĠL akes
Ġorganiz er
Ġt sun
Ġsm ashed
ĠE R
Ġsouth west
ĠR SS
Israel i
!! !!
Ġcock tail
Ġres h
Ġs aga
Ġst umbled
iv ism
Ġblu eprint
ĠD B
stand ard
Ġstri ve
ĠM oy
ĠP am
ĠR ating
ĠTest ament
ĠF ell
ĠD ance
Ġapp les
ĠAt las
Ġplag ued
Ġdictators hip
Ġsuper star
m or
o il
th y
f ocused
U r
Ġdisag reed
Cre ate
ĠM oses
ĠP ra
al ong
Ġcirc ulated
Ġcountry side
Ġmon arch
Ġsc out
R om
Ġunanim ously
Ġpro claimed
Ġch orus
H am
ĠP rest
Ġunders c
Ġumb rella
Ġaccus ation
ĠD iaz
Ġgl uten
ĠCoun sel
Ġfant as
ĠP ine
ĠÐ ¾
ĠGu jar
Ġmer ged
ĠW ine
Ġpecul iar
ĠCom plex
Ġmanip ulated
Ġdis able
On line
ĠLe icester
Ġdismiss al
Ġpersu aded
osp ace
Ġroll er
Ġaccomplish ments
Ġstaff er
ĠRock y
ĠPrem ium
Ġrecept ors
Ġt iles
Ġprohib its
Ġaffidav it
Ġmult inational
umn i
" );
Ġs omeday
ĠIs is
Ġener get
F oot
Ġost ens
Ġintimid ation
ĠV ote
ĠQu ant
ĠV as
Ġinstruct or
Ġam ass
t arians
Ġlear ns
ĠWag ner
D ist
ĠP RE
Ġcomp ression
ĠJack ie
D i
ĠCh i
Ġg el
Ġprem ie
ĠComp anies
P E
c ano
Ġl akes
Ġprotest ed
Ġdial og
Ġd ots
eff icient
Ġunl ocked
Ġcontin uation
ĠLyn n
ĠHug o
Ġmess y
Ġbrew eries
Ġdr astic
person al
ĠNep al
Calif ornia
ĠG em
Ġb iblical
Ġcraft ing
ĠOs borne
Ġm aid
ĠT ag
Ġinnoc ence
J UST
ĠT as
ĠWar rior
Ġrational e
Ġtor rent
educ ated
ĠRe venue
ĠPl atform
Ġbrows ing
he avy
Ġ19 17
Ġtherape utic
G ov
b ons
Ġst air
Ġhead phones
d eter
Ġbell y
Ġstap le
ĠIndust ries
Ġl ob
de ath
l ate
Ġmarch ing
Ġf ade
Ġfr inge
ĠF argo
kins on
Ġmaj ors
Ġ ion
F ort
Ġd ock
Ġcler k
Ġcommod ities
tr ade
Ġm int
ĠN arendra
A cc
Ġest e
N early
ĠT at
Ġprogress ives
Ġtele com
ĠYork er
ĠW er
ĠH av
ĠMan ufact
pro duction
Ġswift ly
J es
O pp
Ġse gregation
Ġsh attered
real DonaldTrump
Ġinteract ing
Ġl id
il ib
Ġp anc
Ġl ith
Ġre imb
ĠRep ly
bel ief
Ġfreel ance
ĠR ol
Ġby te
ĠRef uge
ablish ment
ĺ ħ
Ġkill ers
Ġm esh
Ġacc ustomed
icult ural
Ġadjust ing
Ġresist ed
Ġubiqu itous
Ġprop oses
Ġbad ge
ĠH amb
D F
if ax
us ra
od ore
ĠN W
Ġox id
ĠR unning
ĠV ern
11 5
Ġreprodu ction
ak is
Ġcar ved
ĠIS O
Ġb ark
Ġ10 6
Ġund en
Ġpol ite
ĠA zer
ĠW on
ĠN OW
Ġneg lected
Ġind icted
W ater
Ġhe x
Ġdest iny
ĠT IME
Austral ia
ĠS ugar
Ġsett ling
G ET
reat ment
Ġc ros
Ġopp oses
bour g
Ġscan ning
10 2
ĠC AP
Ġsk ies
rel igious
g io
Ġb un
lling ton
ĠM ist
ĠMan it
f iction
ĠWat ers
Ġdilem ma
ĠH our
Ġdecor ated
Ġadvert isers
Ġ7 50
ĠS R
ĠR ise
Ġsol itary
NAS A
Ġp uls
ĠKore ans
ĠBur ton
Author ities
wart z
pher d
ve ment
com b
Pr ice
Ġharm ony
h ash
c irc
Ġg ospel
Ġpoison ing
Ġdisreg ard
ol iberal
Ġne oc
ĠJ ak
Ġco hes
ĠInter view
Prof essor
ĠH uck
Ġback pack
ĠEuro pa
ĠStr ategy
Ġ ï
ĠLuck ily
OU ND
Ġaccident al
Ġw ax
ed ience
Ġunt o
J ose
Ġshoot ers
ĠOff icials
ĠFe el
Ġcross es
ĠA WS
Ġthank ful
Ġadvert ised
Ġl iable
Every body
ĠLink edIn
ĠBor is
ub s
Ġemer ges
ĠPR O
ĠLen in
Ġc ant
Ġrep ression
ĠMour inho
ĠB ast
ĠEug ene
Ġmisdem eanor
c f
u ilt
Ġw aking
Ġrepl ies
ĠPun j
Ġmight y
12 8
Ġge ographic
Ġant it
at ri
ĠG addafi
ĠAng lo
Ġcollect or
ĠChurch ill
ĠCl aire
ĠArmen ian
In side
hen ko
Ã Ĥ
Ġst alled
ĠAn s
Ġgovernment al
ĠAv iv
ĠOrig inally
ĠV ir
Ġdoub ling
Ġwild erness
Ġthank ed
ger ald
ĠRel igious
Ġ195 7
ĠSerb ia
ĠMarx ist
ĠSh awn
enz ie
f it
Ġd ur
ĠNew man
udd y
Ġsp ider
Ġsub missions
ĠC W
yr us
ĠPer u
Ġstation ed
Ġcyn ical
g as
Ġrem ake
Ġric her
C ore
be y
Ġreprodu ce
ĠZ omb
Ġ195 3
m ove
ĠAmeric as
Ġver ge
ĠN PC
ĠK ub
J ournal
b ee
ĠW ave
Ġschedul es
ĠS ah
ĠSt ark
um en
ĠF ury
f acebook
Ġtr aps
Ġdownload ing
Ġweigh s
Ġexist ential
ON D
r ine
Ġa ka
Ġpar ole
ĠCON T
ĠR ising
Ġbr ace
B ur
gener al
ig ger
ĠLab s
ĠHung arian
gr and
ĠP ep
Ġm ansion
ĠLe h
ĠL ar
io let
Ġang el
Ġpir acy
Ġspecific ations
coh olic
r anking
ĠRe y
a qu
Ġconcer ts
Ġsystem atically
ci um
Ġscreens hots
ĠDem s
Ġgar nered
Ġunanim ous
id ad
Ġtrans plant
Ġant agon
Ġveget arian
Ġproc ure
Ġgard ens
Ġsurg ical
r ice
Ġpolicy makers
Ġl akh
Ġth riving
Ġdiv isive
spe cial
ĠConst itutional
Ġtum or
ĠW ald
ĠD ocker
ĠB ag
Ġcl utch
ĠPer iod
cho ice
Ġearn est
Ġl enders
ĠSt yle
or ously
Ġcomment ing
ic us
Ġv ow
ĠSh ut
Ġ} ;
Ġmedic ines
Ġlog istics
ĠRes earchers
Ġcertific ates
Ġpsy chedel
Ex p
Ġrest ruct
ĠHe ather
ari us
Ġrem edy
Ġexagger ated
ĠI F
ĠHam mond
Ġbrand ing
s or
Ġchar ming
Ġir regular
Ġdown side
Sec ret
ĠFle et
ĠS orry
Eng lish
N umber
R on
Ġn as
Ġy a
Ġdem ocrat
r t
s afe
Ġf ried
Ġwas ting
Ġsent iments
Ġenfor cing
ĠV ic
ĠOut side
f aced
Ġmyth ology
Ġst igma
AC H
Ġdin osaurs
ĠB oot
art icle
she et
Mem bers
f ashion
Ġspons orship
Ġs ized
ag netic
à ¥
10 4
De ath
oh yd
Ġblog gers
h ou
Ġarchitect ural
ĠâĢ ķ
ĠCongress man
cript ions
oc hem
Ä Ł
A ud
Ġinc arn
Ġcommun al
Ġam ple
ĠÂ Ĺ
Ġign ores
Ġserv ant
ĠAn kara
Ġshort ages
Ġ< <
T B
the ir
ĠRap ids
Ġcl oses
ĠFor ward
Ġdepict ing
Ġtweet ing
ĠNob le
product ive
Ġ19 43
Ġarchitect s
I r
Ġform idable
ĠF ri
ĠSyri ans
ast ics
Ġret iring
Ġcongest ion
Ġse ated
Ġeven ly
ott i
Ġp ads
Ġanim ations
he rence
Ġconce al
Ġimp art
Ġcrack ing
ĠRay mond
ĠFreder ick
Ġpat rons
ĠF eed
Ġ( #
ĠHig her
ĠRock et
Ġa rom
im an
ĠL enn
Any way
Ġloud ly
Ġd amp
ĠO UT
Ġsoc ietal
Ġacclaim ed
ĠM aid
Ġ19 55
Ġdr ills
Ġar ises
Ġpath ways
ĠWhe eler
4 50
ĠCons ult
Ġaggrav ated
ĠA FC
orm an
ĠSy nd
in th
Ġn g
C BC
ĠCong o
Con nor
wh y
Ġmass ively
Ġbu cks
W all
ĠB ot
Start ing
Ġincap able
anger ous
Qu ery
Ġbod ily
K it
ET A
Ġinject ed
ĠLeg ion
Ġro oft
ed a
ĠM AR
d ies
ĠNe igh
ĠWrit ing
Ġenvelop e
Ġseiz ures
ĠT ool
f ounded
ĠGard ner
Sund ay
ĠRE AD
f uel
Ġplum met
ĠG E
ĠKat ie
Ġp ac
ace y
Ġske let
ist ence
ĠZe lda
Ġdesc ended
Ġgoal ie
Ġcann on
Ġref resh
Ġimp ending
Ġdeep est
Ġevac uation
I B
Ġsupp lier
Ġmon key
Ġref rain
Ġfire works
Ġmerch ant
Ġper imeter
ĠP owers
Ġk et
ord e
ĠM ale
Ġgrad ual
b ishop
Ġs or
Ġm um
ab ase
Ġjurisd ictions
al ine
Ne ill
L ight
are l
Ġiniti ate
sole te
ĠVen us
Ġp act
Ġsc ans
Ġlast s
Ġwhere by
ĠBuddh ism
ĠA ce
h on
Ch arl
Go vern
Ġanten na
Ġover c
IN D
IL E
ruct ions
old own
ĠRC MP
ĠL anka
Ġwho pping
Ġaver ages
Ġun identified
= '
Ġc ough
Ġf al
ĠRe ich
y ll
T em
Ġpup ils
Ġc it
ell i
Ġcompan ions
Ġindu ce
ef ined
ĠOff icers
Ġreserv ations
Ġun in
Ġmed d
ĠRel igion
ĠS ikh
un ion
w ild
ĠS onic
Ġcounsel ing
ĠSex ual
Ġproport ions
h un
t ar
Ġfor ged
Ġd itch
Ġann ot
ĠP orsche
ĠHans en
d ependent
Ġd op
ĠL TE
Ġplay able
ĠPh ase
Ġpredec essors
ĠJoy ce
M ary
Ġtruth s
Ġspect acle
Ġexplo its
ĠEll en
Ġaffili ation
Ġt apping
10 3
Ġrul ers
Ġir responsible
ik ed
Ġrenew al
ĠLaure n
Ġnit rogen
Ġrent ed
st ro
Ġde gr
ĠL SU
Ġopp ressed
ĠC ert
Ne ither
Ġbr akes
ĠCom bat
Ġfasc ist
ĠVict ory
Ġsw all
ep ernick
Ġmed als
p rop
t urn
ĠIn come
F und
ĠSm ash
Ġsens ory
ĠF ighting
ĠMah m
ĠAp ache
Ġcirc ulating
ĠM R
Ġreg istry
com pet
Ġphotograp hers
00 3
ĠMin ority
ĠAndrew s
ab ee
ĠN olan
Ġphil anthrop
ĠCard inal
N P
.âĢĿ )
Ġsw ear
Ġeleph ants
B er
Ġprolifer ation
ĠB rief
Ġbur ger
pr us
Ġca fe
ĠSant os
Ġatroc ities
Ġcl an
priv ate
Ġtransform ing
me aning
Ġm ans
f ires
z an
Ġ19 49
Ġstub born
t ical
Ġdem ons
Ġgest ures
Ġb ree
Ġund o
ĠHe in
ĠKu wait
enc ia
I ron
ĠD y
ĠT umblr
ĠC ous
Ġstr ongh
Ġbre asts
F un
Ġhigh s
Ġne p
ĠE manuel
y et
as io
Ġrun time
ĠP ip
ri o
ih il
Ġdisrupt ive
ĠI o
Ġculp rit
S u
Ġch unks
P an
Ġspeed ing
ill as
Ġflood s
Ġgood bye
Ġsuccess ive
Ġal ley
is man
se ys
Ġaw ake
ĠN iet
ĠSaf e
Ġf ier
ĠRe ality
Ġlim bs
Ġstri ps
ĠProduct ions
Semit ic
D D
ĠBra ves
Ġhal ted
W al
ĠMed al
Ġhe mp
Ġmem e
im o
Ġmut ations
Ġalleg iance
c od
ĠC ultural
Ġinad vert
ĠR aspberry
Ġlau ndering
sc ill
ĠIns pector
ĠD ifferent
Ġgrat itude
en za
Ġpo pping
Ġmut ation
ĠRoy als
ov y
Ġsl ope
Ġen cl
It em
ĠSav age
ĠSuper ior
edd y
Ġexpend iture
S ad
Ġr ude
Ġrev ive
ĠS ans
Ġrem n
ĠG ET
Ġs ir
ĠCor nell
open hagen
Ġgrab s
ĠEn joy
Ġand roid
// //
ĠCelt ic
ĠGar rett
Ġst all
ĠElect oral
ĠJuda ism
Ġrespect ful
Ġmemo ir
m ia
ĠG olf
Ġcomfort ably
Ġplanet ary
og ram
Ġv ou
Ġlim itation
Ġon ion
Ġrest oring
ĠG ent
ĠG ut
ĠFro st
) [
J ason
z ip
11 1
Ġvill ains
Ġsur real
AN G
iz a
Ġcontinu ity
ĠRel ated
pict ured
l n
ill ions
ĠSp ark
Ġsad ness
Ġchick ens
L ocation
ĠP resent
ĠW enger
ĠP u
Ġcor related
Ġ10 7
Ġdepart ed
VID IA
whe el
Ġundergrad uate
Ġrob bed
comm ittee
t arget
ĠB om
Ġsp ur
ĠGree ks
Ġharass ed
ĠPeters burg
Ġ10 8
ĠD NS
Ġtri angle
Ġp oker
ĠE cho
ĠCharl eston
ody nam
m oon
ru gged
ott a
Ġworld view
Ġpiv otal
e on
com merce
Ġtempor al
Ġincorrect ly
ĠS leep
ass er
Ġexcept ionally
r ue
at ical
Ġo z
ĠRes istance
ĠMed ium
Ġmicro bi
Ġauthent icity
. /
ld on
ĠD re
ic ular
ĠBel fast
ĠM Y
Ġsu cks
Ġprofound ly
f ig
Ġh ug
M ont
Ġinter ception
Ġgr ains
Ġ11 2
Ġdi ets
M ond
p ensive
Ġsl ate
ĠP O
ĠD uck
Ġbud dy
Ġdisc rep
Ġel bow
Ġsimpl est
ĠNe o
Ġcommer cially
ĠCamer a
ong o
Ġinc ub
Ġsl iding
Ġgener als
Con nect
Ġfor c
Gl obal
Ġcamp ing
Ġpseud o
Ġun official
Ġassess ing
et r
Ġdisc ern
Ġper former
Ġhit ter
ĠAl ban
ĠMarket ing
Ġst d
ex isting
P ER
p resent
Step hen
D ark
Ġrem oves
Ġincarcer ation
Ġge op
Ġdis comfort
Ġs ins
ĠHar old
l ich
Ġimpe achment
ĠT ucker
ĠWe ight
Ġess ays
ar us
ĠJ ail
ĠPod esta
ad ic
au f
Ġske leton
Intern ational
Ġnep hew
osh op
Â Ĺ
Ġl ure
Reg ardless
ĠT SA
B usiness
H en
ver ts
ut ory
Ġall erg
ĠRep orter
Ġexecut ing
Ġhypoc risy
Ġspec s
Ġver te
ĠJo an
at ra
Ġinc idence
Ġresp ir
Ã± o
s ince
idel ity
ĠTechn ical
Ġequ als
Ġ19 46
ew orthy
E V
re lease
Ġwork load
Ġmis ery
S ky
Ġconf essed
ĠMoh ammad
Ġspec ulated
ĠChrist ine
Pro v
W ed
ĠC OU
ang a
Ġdr ift
Ġsynt hes
d ain
ĠRevolution ary
Ġse af
b ai
s kin
Ġtiss ues
Ġsqu at
ĠPop ular
Ġinj unction
Ġgra ffiti
it ant
ĠFl ore
ĠPre p
Ġrain fall
ĠF en
Ġc ove
ĠC aucus
ett es
Ġprovoc ative
Ġe lic
Ġtest osterone
Ġdecre ases
Ġpil gr
IC S
Ù Ĭ
Ġbl oom
Ġge ek
Ġhall uc
ÑĢ Ð°
asket ball
ĠNic ole
ĠExt ra
ĠSebast ian
Ġam en
ĠCol bert
ĠEth ics
ich i
Ġsit uated
Ġz ip
Ġprep ares
Ġbigot ry
op ia
Ġtot als
et ics
Ġcampaign ed
os lav
ĠMar athon
S F
Ġdev ote
Pl ayer
Ġinflamm ation
ĠM TV
Ġrail road
inc re
Ex pl
Ġpharm ac
Ġcoll usion
ĠO C
Ġsy rup
Ġrul er
Ġboard ing
ĠList en
Ġinv aded
ĠR ole
IS IS
Ġsh ining
Ġtend encies
ĠSh ore
ron ics
Ġpuzz les
Ġn ud
ĠD uc
Ġdec omp
ĠDur ant
tt a
Ġwas t
ĠBl ocked
ĠAm nesty
Ñģ ÑĤ
IN K
E st
ĠP ale
threat ening
Ġb aked
ran ch
ĠPed ro
el o
ĠCom put
just ed
ĠP av
ĠFull er
te enth
Ġinter vals
ĠSt ur
Serv ice
ĠTe en
ĠStrateg ic
Tr ue
act ly
cent ric
ĠPatri ot
ĠRec ent
b order
Can adian
ub arak
its u
Ġnot ions
ĠL B
any e
C ru
Ġst ain
ĠK re
Ġschizophren ia
ĠCar p
Ġdict ate
c reat
ĠD EA
ik ers
Ġvill agers
Ġtheoret ically
Ġt abs
Ġnew born
Ġper t
Ġper il
Ġun aff
iss ue
l ove
r itional
Ġprol ific
gress ive
Ġpreced ing
ĠF actory
Ġbo il
u ously
UC K
Ġb aff
Ġspecial ty
char acter
Ġconflic ting
Ġo v
Ġre play
ĠFly ers
ĠDrag ons
ĠD HS
Ġout we
ĠTH C
ĠN R
ĠApp lication
utter stock
Ġtoug hest
Ġk ings
Ġsm ash
auc as
ĠP oor
ĠTh ing
Ġqu ir
Ġfil ib
st ant
Ġpair ing
Ġsal mon
ĠLe eds
ĠZh ang
ĠArch ives
Ġpref ers
ĠSe vent
is ch
g ithub
ĠE z
ĠUA E
en ame
n om
Le ft
ĠP retty
ĠHe b
ĠS ize
v on
ĠS aid
Ġ-- >
Ġneighbour ing
Ġinex pensive
ĠPat terson
ĠBut ter
Ġl ocking
Ġyear ly
Never theless
Ġinv asive
ĠZ ika
ĠNot ice
Ġbra ke
Ġf ills
Ġsm iles
ĠBul gar
Ġsur rog
t aking
Ġex pelled
Ġx en
ĠLam ar
ĠAud i
ĠAr ist
Ġcoun ters
het ics
ĠLie utenant
ir ling
Ġpro w
T M
Ġpl ight
Ġur ges
Ġexpl ode
ĠMult i
ĠL ac
Ġs ou
ĠV oy
Ġsim ulations
Ġrot ating
Ġ10 9
alk er
Ġins iders
ric ks
y en
Ġem ission
ĠIndones ian
OS S
Ġrestrict ive
ĠCal vin
ĠMel issa
Will iams
Ġadmin ister
ĠBrad ford
Ġmail ing
Ġgig antic
ĠLic ense
Ġwh ip
ĠM echan
Ġexpl ores
ĠFe atures
Ġvoc abulary
Ġcl ay
leg round
rain e
ĠCu omo
Ġr app
Ġche at
Ġpass er
Ġste er
Ġguess ing
r aining
Go ing
Ġconfig ure
M ic
oot er
Ġunivers ally
ĠGujar at
Ġ2 30
ous se
ĠMy an
Ġpack ing
Ġinstall ations
ĠEp ic
ĠGod s
Ġrab bit
Ġc ues
n as
Ġpl ac
ĠS ara
th ose
Ġstr at
Ġscore r
Ġnow adays
st re
Ġch olesterol
Ġal erted
Ġimper fect
Ġam azed
ĠAv ailable
oh an
Ġcondemn ation
German y
ĠW itch
ĠJ ab
ĠWh ole
Ġgr ammar
Ġaccum ulation
Ġimp aired
Des ign
Ġvacc ination
ĠGro ve
Ġperson a
ĠWi Fi
ĠA id
R ev
Ġh ottest
Ġapp end
ĠBill board
ĠÃ ¢
ĠG erald
ĠIss ue
ĠInf o
Ġat om
S n
Ġh ates
Ġcommercial s
Ġappl ause
ĠFitz gerald
hib ition
Ġde port
Ġgl am
Ġdevelopment al
Ġlif es
ĠJ as
Ġcelebr ates
Ġlect ures
ĠCh avez
Ġpost ure
not es
Ġrat ios
Fr ance
k top
Ã¡ s
Ġbr ink
Ġcommun ism
Ġdefense man
but ton
Ġdisproportion ately
Ġlaw ful
Ġjihad ists
ĠA W
ĠSt am
hard t
g ering
Ġritual s
ĠBay lor
Ġsmugg ling
Ġdist urbed
Ġsubsid y
w on
Ġexp ire
ĠB ug
Ġinsult ing
c amera
ĠSol utions
Ġd ictionary
ym es
ĠJoh ann
Ġa we
ĠKey stone
l ang
Ġdescend ants
ĠH oney
ĠNAS CAR
Ġremember ing
sp ot
Ġco ached
rent ice
Sen ator
Ġunder mining
cap ital
Ġpolit ic
ĠM AN
ĠChap man
ĠGu ate
Ġcris p
h awks
ĠSor os
ĠX ia
ĠMyan mar
ĠU E
ĠV ander
ĠMar ijuana
d uty
ĠR ash
Ġch illing
LA Y
Ġinfect ious
rend ered
Ġexpend itures
ĠLiber tarian
Ġinsurg ents
P ath
Ġoil s
Ġ/ *
och ond
cr ime
ĠDe V
ĠSett ings
e ast
W ait
j ournal
ĠCh ang
Ġgl owing
Ġrum ored
ct ica
ĠLind sey
Ġhorm ones
I Z
Ġexperiment ing
v s
Ġdiscrimin atory
Ġspecific ation
ro b
ra its
Ġsal v
Ġair ing
ĠTw ilight
Sen ate
ĠNic olas
Ġfo am
Ġpractition ers
Ġconstruct ive
10 9
ĠPhilipp ine
oc ating
Ġcler gy
H E
ĠC oul
che wan
Ġtra umatic
ĠStephan ie
Ġfam ed
ag ent
Ġsle w
Ġext inct
~~ ~~
ĠD ocument
iv or
K now
i ya
Mus ic
M ajor
ĠW yn
man ned
Go vernment
Ġdecre asing
Orig inally
ĠV it
Ġmot ors
Ġdefin ite
ĠOrig in
ĠW ong
ĠShe ikh
od o
Ġfr iction
19 99
Ġconfig ured
ĠN om
Ġtrans cend
nt on
Ġimp uls
ĠZion ist
Sim ilarly
T en
ext reme
j ava
Ġc emetery
Ġhands ome
Ġd ynasty
li able
Ġrest s
e us
ĠFuk ushima
Ġb apt
Will iam
C arl
Ġf ox
Ġther m
ar is
ĠG amer
m ut
ĠL un
ĠCom ments
Ġpol ished
Ġ) :
Ġm ocked
Ġpe as
Ġr av
ap i
Ġmunicipal ities
Ġp etty
Ġpatri ot
ĠResp onse
ur istic
Ġexhib ited
Ġle v
c ats
Ġsuper f
Ġnic otine
Ġpro se
com pl
T aking
re b
ĠM ental
ĠDis play
ĠC ain
sw er
! ),
ĠP izza
ĠS it
ch in
Ġconsult ed
Ġtsun ami
ĠA CA
Ġfort unes
ĠLes lie
es que
ĠW ash
ĠC openhagen
Ġunre asonable
Ġt ipped
ĠOpp osition
ij i
ĠH os
ĠStand ards
Ġconf ess
Ġjud iciary
ĠFred die
Ġrestrain t
en ary
ĠSol omon
ĠP P
ket ch
ign ant
ri ented
ĠUnder ground
gl obal
at hing
Ġout doors
Ġcontrad iction
Ġhist ories
17 0
Ġrevers al
ĠI PA
j ah
ĠL L
m oney
Ġphenomen al
ĠPsych ology
ĠT yson
od us
Ġsand wic
Ġcyber security
oy a
Ġbub bles
Ġf aded
Ġuns ett
Ġins ign
bo at
Ġdisp atched
Ġrecons ider
Ġtr unk
ĠSS D
Ġschedul ing
Ġinterpret ations
ĠWr ite
ĠHas kell
av ier
ĠBened ict
Ġemploy ing
L oad
Ã ¯
Ġtr act
ms on
uper t
reg ulated
ĠOs ama
Ġ195 2
Ġt earing
ĠC ed
Ġplug ins
vid ia
ĠTe ams
ĠFr aser
Ġ13 5
ĠW AS
Sec urity
Ġm as
ĠR id
ĠCy prus
ĠW ILL
our cing
Ġinstinct s
Ġmon uments
ber ries
ĠConst ruction
en h
am oto
em on
ĠPh arm
iov ascular
Ġmush rooms
f inals
Ġprin cess
Â ½
ĠTr inity
ĠOper a
Ġcommem or
n ick
Ã± a
ĠOb server
Pal est
Ġcher ry
Ġgeomet ry
Ġp ains
ĠHell o
Ġdistribut ing
ĠBrig ade
ail ure
Ġra ided
Ġrent s
ĠP ont
Ġesp ionage
Ġmillenn ials
Ġge ography
Ġboost ing
Ġl amp
Ġgrand parents
Ġs ulf
k ick
Ġpart nered
.âĢĻ âĢĻ
ĠShort ly
Ġ15 00
ĠN issan
ĠAst ros
Ġfulf illing
ĠSh ir
t xt
Com ment
U t
ĠD ogs
Ġouts iders
Ġblat ant
Ġpenet ration
B T
Ġpass ages
ĠNon etheless
Ġp ins
Ġsh ale
Ġcollect ors
Ġmand ated
3 60
an amo
Ġfemin ine
Ġkind ness
all ic
ĠAss ass
ĠChar acter
att a
Ġdrag ging
iv ities
a ude
ĠValent ine
ĠK ur
Ġconc ussion
Ġsupp lements
ĠTre nd
ĠE ld
Ġobst ruction
Ġecl ipse
Ġuns pe
Ġoptim ization
Ġdiscour age
ĠDet ective
B ad
Ġstart ling
Ġs inking
ĠSh arks
IG N
ĠUn block
i very
Ġpres crib
ne eded
Ġlong standing
Ġsl ash
Ġrac ially
bro ken
ĠRoc hester
ĠInnov ation
f ed
if ts
az ingly
medi ately
R a
Ġstrengthen ed
Ġs arc
Ġregul ating
Ġclar ified
ar ations
Ġhome work
m aid
Ġread ings
k ish
Ġs acked
Ġin mate
ĠInterest ingly
F ast
Ġfront s
ĠFranc o
OL D
ĠR i
ĠFront ier
Ġecosystem s
ĠM alt
f ell
c ritical
ĠAs ked
Ġhe ars
ess im
Ġfin anced
Ġmanifest o
Ġexcell ence
S k
ĠUn known
Ġconc urrent
Ġgun fire
ĠMig uel
Ġright eous
ON G
Ġsort ed
ĠArch ive
T it
Ġstat ues
Ġmar itime
Ġeth ic
m is
ĠSh arp
ĠSt rat
l aughs
Ġsub set
Ġgu iding
W E
Ġgen res
25 6
Ġheavy weight
r anked
ĠE VER
Ġcompet ed
am my
Ġoptim ized
w agen
Ġm aternal
Pri v
E conom
orn ings
ĠMotor ola
ĠJav ascript
ĠKir by
Ġ19 33
. âĢĶ
h ma
Ġfront ier
Ġfat ally
C ost
Orig inal
Ġjewel ry
Ġindic ations
ĠL ords
Ġyouth s
Ġoun ce
Ġleg ends
ĠDecl aration
ĠM K
Ġout going
Ġch ased
ĠEx pect
Ġfulf illed
c uts
ĠAv iation
Ġethnic ity
Ġgate way
ĠSpot ify
ĠArt icles
IC A
Ġproceed ing
Ġd wind
Ġarc ade
Ġinv oked
Ġrun way
ĠB end
Mat thew
Ġinflamm atory
sh ort
Ġcart oons
Ġbl ues
at ts
ent on
ĠJohn ston
Ġreal izes
ĠFr ances
Ġtrail ing
Ġpestic ides
ĠR um
uc ing
ĠC V
Ġopen ness
ĠAll ied
Ġh amm
ĠM T
est ablished
Ġdeploy ing
Ġpump ing
Ġworks hops
Ġb ully
ĠJac obs
Ġunle ashed
w omen
Ġpen insula
Ġmis represent
Ġexplo iting
Ġimpl ication
ĠPubl ishing
10 6
ĠBar on
Ġoblig ed
W orks
Pre vious
Ġun available
C ase
cl ose
ĠPay Pal
ĠY ug
i ating
Ġsp un
ĠCor rect
ld om
ĠIs n
Ġorganiz ational
ĠAny way
Ġdef ects
Ġ iv
man agement
M R
ĠH ers
l ide
ĠSch war
ĠArt ist
Ġs unk
ĠCh icken
Ġoverr ide
Ġrock y
ĠAst ron
Ġpr aying
ĠMon roe
udd le
Ġastron omers
Ġcoh ort
Ġunexpected ly
ĠPre vious
Ġabrupt ly
Ġkn ives
umb les
Ġmoist ure
Ġoversee ing
Ġhold ings
ĠAfric ans
Ġbur nt
Ġnarc iss
ĠCustom er
J udge
m t
Ġpe aks
ĠIb rahim
Ġframe works
Ġf eder
Ġparent ing
ĠG C
Ġob ese
Ġpar cel
EM A
Ġhes itate
Ġyield ed
ĠS ke
C oll
be ck
Ġchall enger
Ġvisual s
q qa
Ġf erry
cept ive
Ġch ord
Ġbl ur
Ġmod ular
ĠO dd
ĠSh annon
s ch
Ġad am
Ġadm issions
Ġspl itting
Ġtermin ation
Ġvib e
ĠV PN
ĠCon nor
osoph y
ĠOtt oman
att led
her ty
act ivity
Ġw ishing
Ġphilos ophers
Bre aking
Ġun ins
ov able
pat rick
h m
Ġbl ink
def ault
Ġas semble
Ġch assis
N ov
c orn
Ġ25 6
ĠStock holm
Ġnotor iously
ĠAr ms
ĠAthlet ic
Ġplant ing
Ġlabel ing
ĠWATCH ED
Ġsummon ed
N F
Ġt ac
ĠA AA
ĠInt o
Ġm und
ĠX in
ĠCy cling
Ġwor m
Cle arly
ĠCh art
U B
... ]
ĠJan et
Ġsn ipp
M il
Ġh iking
Ġret ali
Ġspont aneous
t im
ment ia
Ġenerget ic
Ġk idding
Ġgrand children
Ġdecl ares
Ġceremon ies
Ġto re
ĠSc out
mans hip
Ġwith stand
ob il
Ġbi om
us ually
Ġens l
ing es
Ġbroadcast s
ĠT ank
Ġbacter ial
Ġslog ans
Ġfl ipped
aid a
L uc
Ġp enny
ĠDo om
Ġill umin
ĠKa epernick
g ard
ĠF ry
and ro
ĠSol o
ut sche
am bo
Ġmic row
R B
ig ated
Ġnot ify
iol a
reat h
Ġcontrace ption
Ġe ve
Ġunder mined
Ġhom emade
oss ip
ĠCom mercial
Ġgener ators
Ġwand ering
Ġhand ler
vis ors
Ġbl onde
Ġcentral ized
Ġsil icon
Ġdemol ition
p ires
Ġper vasive
St and
AR S
Ġf ixture
Ġcon ve
z ero
F lor
v ine
â Ĺ
Ġbe verage
g all
l ists
Ġmod s
o i
Ġexc luding
Ġtrig gering
Ġmotiv ations
: [
ĠHar b
Ġescal ation
ĠOpp ortun
ĠG ren
ĠAl bum
iv ist
Event ually
Jew ish
Ġs lick
Ġstr anded
he ne
ĠK ris
E ast
ip al
ĠGold berg
Ġbeh old
ĠG ru
ï¿½ ï¿½
f est
id as
ĠM W
E arth
Ġsoc ks
Ġtom atoes
bet ween
is y
ĠV on
ys ics
Ġprogress ed
Ġretain ing
ĠAN Y
reg ulation
Oh io
Ġw izard
Ġhe ap
St ream
ĠS ally
ĠL ok
Ġ17 5
Ġb ids
ĠL uk
" ?
ĠG IF
og rams
ĠK abul
ĠTown s
Ġfil ings
ĠSec urities
Ġsp rawling
Ġd ental
ĠA ber
ĠAur ora
ĠField s
Ð ·
z illa
uck land
ĠBur ger
Ġproced ural
B ase
S ystem
. *
Ġev id
Ġob solete
il ot
ĠMac ron
ĠPengu ins
ov sky
Ġor thodox
ĠÂ ĸ
ĠReg ist
Ġc av
Ġmet ropolitan
Ġdiss atisf
Ġ( (
ĠBar r
sh are
Ġrespect able
x imately
ĠN igel
if ty
ĠTor res
Ġlos ers
ĠHann ity
Ġbureaucrat ic
Ġg a
Ġblock ade
Ġcos m
Ġsid eline
Ġthro tt
Ġmis guided
Ġsqu ares
Ġsod ium
ĠM Hz
Ġ19 14
Ġresist ing
aw k
ĠNew ark
ĠSant orum
Ġsat ir
Ġd urable
Ġpione er
Ġcon quer
Ġdom est
ĠHor izon
get own
D L
Ġhigh ways
us a
ĠL is
ĠE y
M rs
Ġl ent
Ġdatas et
l ated
Ġreject s
Ġrese ar
13 5
Ġa isle
ĠO ption
Ġgl ue
Ġstat utory
Ġcancell ation
ĠSw ord
ĠRut gers
p ng
Ġmat urity
ack ers
ĠMoz illa
ĠGuant anamo
it ious
To o
in av
ĠS ark
Ġrestrict ing
ĠSt eele
itt e
11 2
ĠPer th
Ġsynt hesis
Ġc affeine
ĠSc and
ALL Y
H appy
ĠMad uro
Ġn ap
ev il
M O
f at
ĠC ec
ocaly ptic
Ġimag inary
ĠLu cy
ĠH iro
Ġmetab olic
ic ially
ĠAl v
ier i
ĠH il
Ġbal ances
ĠBlack s
ĠB ath
Ġcor ro
Ġvan ished
E ff
ĠW ool
Ġassist ing
Ġl ord
Ġbus h
rec ogn
Ġrespir atory
Ġmon keys
Ġtest ament
Ġse ating
ĠN er
Ġche ering
Ġcub ic
ĠLaw s
Ġlab s
ĠAdvis ory
an an
Ġle isure
Ġsmok ers
dig it
Ġar rows
Ðµ Ð½
Ġstress ful
Ġsum m
Ġutil izing
Ġmagn ificent
Ġcan cers
Ġimp over
Ġdisc arded
Ġprev ailing
Ġvis ions
j ury
Ġs igh
ĠPTS D
Ġarm ored
Ġalph abet
Å ¾
ĠD raw
ĠRes cue
Ġconsult ants
Ġund ec
Ġrum ours
e a
st own
Ġdem ographics
Ġsin ister
at z
m ort
Ġth ieves
Ġce ased
ar ray
Ġvers a
Ġobject ed
i ago
Ġre write
onge vity
j son
are th
Ġstandard ized
he a
Ġass im
10 7
at ible
Ġab using
Ġelect rons
Ġlik ing
ĠPod cast
U MP
Ġinsist ence
Ġlaund ry
ĠZucker berg
V ia
Ġcirc uits
Ġexp ands
Ġlive lihood
ĠF usion
avor ite
/ -
Ġun for
Ġarbit ration
acc ount
Ġimpress ions
ĠJoe y
ĠBoy d
Ġ195 1
go ogle
rac use
Ġtele communications
ĠQuest ions
ra ven
uck ing
ĠP ixel
not hing
ĠR andom
Ġsc aled
Ġjud gments
Ġad here
Ġa ided
ĠO T
Ġrel iably
Ġac oustic
ĠCre ated
ows hip
Ġpump ed
Ġstim ulate
Ġne oliberal
Ġ19 18
ĠWe ber
Ġpromin ence
ĠP ure
Ġaut obi
ĠAg es
Ġrehe ars
Ġaw ait
CL OSE
ĠDani els
d an
ĠM ubarak
Ġ19 38
al most
Ġde ception
Ġswing ing
Ġpro let
ĠD as
ud get
e ight
is ine
Th ursday
ĠGreen e
c p
go ers
ĠS ina
ĠSad ly
Ġfear ful
Ġf uzz
Ġ[ âĢ¦]
Ġincons ist
Ġcondem ning
Ġdiff ers
ĠT witch
Ġsacrific es
ĠAntar ctica
ĠWhe never
Ġd Ã©
ess ment
Ġgrad uating
ord ered
ĠSub ject
Ġteasp oon
c hens
ĠD ew
ĠJ P
Ġprov oked
ĠMon itor
ĠH ang
ĠMar riage
ĠHoff man
ĠAna heim
Ġdisrupt ed
p sych
ĠP ool
tt ed
S ean
Ġjihad ist
Ġrou ter
f orth
Ġp as
en f
Ġdisgr ace
ĠPhys ics
ĠMart y
ĠWol ver
cl air
lu ent
Mond ay
Ġtermin ated
ĠAl leg
oc re
Ġelev ation
st ed
Ġn ause
ach ine
Ġtext ures
Ġbull pen
Ġnostal gia
ve illance
ĠV II
l oss
Ġst ared
raft ed
ĠAC T
P rop
Ġo riented
ĠHann ah
ilib rium
Ġb olt
ĠVol ks
Ġhur ry
ĠR iot
Ġcollabor ate
ĠFinn ish
Ġconf ession
ĠManit oba
ĠSch wartz
Short ly
ĠN I
Ġpir ate
ĠTon ight
ĠL inks
Ġtheat rical
Ġhe fty
Ġres umed
Ġpack et
ĠHist orical
ĠCrit ics
Ġconserv atism
ĠA gg
Ġsky rock
Ġpresum ed
Ġpossess es
Ġpir ates
Ġmel ted
ĠF ul
ĠCom pl
Ġburd ens
Ġdownt urn
ĠWik ileaks
ĠStat us
oper ation
ĠR NA
Ġwheel chair
Ġend urance
Ġtro lls
Ġc apped
AN C
sm ith
Ġre written
Ġoverse es
ĠElect ions
Ġl ays
Ġmim ic
Ġostens ibly
ĠL I
Ġtempt ed
Ġext r
Com ments
fashion ed
Ġconf inement
uss y
let ion
Ġpun ches
re ally
oc o
Ġsubst it
ir rel
Ġsc outs
Ġcomp ute
Ġunfair ly
ĠS uff
on ial
P op
Ġw aving
ĠOri oles
Ġkey word
Ġinsult s
ang ling
Ġchrom os
Sc roll
Ġth igh
ĠMic key
el in
ĠID F
Ġfold ed
ĠWill ie
c ool
ĠI X
ĠR OM
Ġ11 4
ĠF ah
ĠY ORK
Ġgun shot
Ġentit lement
Ġviol ently
Ġharm less
Japan ese
Ġt ones
ĠG ust
Ġing en
in ness
ĠF i
Ġout ward
l aughter
ĠN u
Ġlegal ized
Ġban ana
ĠKaz akh
ĠUg anda
on el
ĠL imb
Ġguess ed
Res earch
ĠDI Y
ĠM au
Ġmon st
che t
pe x
ĠBook er
fil m
ĠR anch
t ree
Act ually
D M
Ġdr ank
Ġgrav itational
R est
ff ield
yr r
Ġrot ate
Ġpip elines
ic z
Ġex ert
Ġthink ers
d rive
ĠRe ason
Ġtransfer ring
Ġfun nel
Ġcommand ing
ĠSaskat chewan
Ġter med
Ġmut ually
bet ter
Wr itten
ĠM H
Ġsal vation
Ġmetabol ism
Ġrec ap
Ġjoint ly
ĠHard y
Ġg ast
ru ce
ĠIran ians
Ġer osion
Ġexerc ising
ĠKn ox
per cent
Ġsp ies
mod el
AN N
ĠAr ray
Ġun used
or st
Ġbo ast
Ġ12 3
Ġpol es
Ġteam ed
ĠSy racuse
r il
r Ã©
Ġclass ics
ĠD iana
Ġt an
ak o
Ġrig ged
Ġfil tering
Or gan
out heastern
ĠDevelop er
Ġresent ment
ĠPer kins
Ġb ishops
ĠP ull
Ġesc aping
Ġbe gging
ib o
Ġbet s
IS H
Ġwarm th
ĠCroat ia
L im
Ġmarket ed
ble ms
state ment
indust rial
ĠWorld s
Just ice
Ġundert ake
Ġm og
ĠC ory
St ay
P akistan
ip es
ĠV C
m ot
ow ler
Ġrev ol
Tur key
us ch
Ġmis con
Ġspe lling
ĠLiber ation
g ot
Ġdeb ating
Ġve in
V e
ĠH ours
ĠHer bert
Ġguitar ist
Ġa rous
Ġ1 19
ĠK ol
Ġg n
ĠRom ans
Ġp ne
per fect
ĠL DS
ĠRe ader
E ight
Ġs ands
ĠF E
Ne il
S ize
ĠB oulder
Ġant iqu
L ate
in ion
Ġpe aked
ĠMah ar
Ġspec ulative
ĠH ash
ym ph
Ġwid ow
ĠJ S
ĠBund es
d ates
inn amon
ixt ures
ad an
ĠProper ty
ut able
B on
ĠD ol
ĠSouth ampton
Ġbar bar
[...]
